#version: 0.2
r e
i n
s t
d e</w>
a r
a t
e r
u n
e n
a c
r i
u l</w>
l e</w>
a n
i c
s ă</w>
d e
t e</w>
c o
t r
ar e</w>
o r
î n</w>
t e
l u
î n
t i
n u</w>
m a
d i
u r
a l
c e
a t</w>
l o
l a</w>
e st
a r</w>
t o
p r
c u
p o
c ă</w>
ş i</w>
i e</w>
i i</w>
m e
c e</w>
a m</w>
u n</w>
s i
l e
â n
m i
p e</w>
a st
c u</w>
ţ i</w>
l i
p u
a u</w>
in e</w>
ma i</w>
p en
est e</w>
at e</w>
d u
tr u</w>
a m
e a</w>
pen tru</w>
d o
t re
s e</w>
ș i</w>
re a</w>
c are</w>
f o
n e
s e
lu i</w>
pr o
s p
c h
i t
co n
v o
u l
v a</w>
s un
v e
di n</w>
a i</w>
m p
i e
lo r</w>
s t</w>
c a</w>
i a</w>
n o
ă r
c a
. .</w>
s u
p ri
. ..</w>
v i
m o
ac e
b i
b u
c i
a l</w>
c re
sun t</w>
a p
t i</w>
s a</w>
ast a</w>
s o
at ă</w>
n u
m ă</w>
f e
ț i</w>
r u
a z
ţ i
n i
m ul
t a</w>
p re
r o
t ă</w>
t er
e i</w>
ic i</w>
m en
e x
r ă
p er
ch i
z i
t u
s ă
r a
- a</w>
s i</w>
f i</w>
t ul</w>
d ar</w>
fo st</w>
f i
tre bu
ur i</w>
f ac
l a
t ă
i o
d ac
a le</w>
m i</w>
c ă
s c</w>
m in
c i</w>
ân d</w>
d a</w>
i t</w>
ş ti
b ine</w>
v re
e u</w>
p ar
i n</w>
a rea</w>
z i</w>
cu m</w>
e le</w>
p i
de s
c â
a j
n e</w>
o ri
m a</w>
dac ă</w>
i le</w>
p l
- o</w>
u t</w>
v ă</w>
a s
a ş
u lui</w>
m b
ş ti</w>
- am</w>
am en
s au</w>
trebu ie</w>
f a
d in
pu te
f er
e l</w>
să -
f ic
a ici</w>
f or
ri le</w>
az ă</w>
r e</w>
un e</w>
a v
t at
o l
i st
o n
a u
m e</w>
` `</w>
a g
v en
c er
ac u
r u</w>
p e
c ând</w>
g u
tr e</w>
b e
g ă
m ă
a d
at a</w>
a ț
me a</w>
ic ă</w>
g e
lu c
po ate</w>
în t
m ân
' '</w>
or i</w>
pr e</w>
m er
al ă</w>
acu m</w>
cu t</w>
an i</w>
in e
i lor</w>
a ţi</w>
s pu
v er
al i
s c
a n</w>
b un
t ate</w>
b o
m an
p ă
a ţ
m ar
v ă
do ar</w>
s er
ar te</w>
t ri
a bi
ce va</w>
f ă
po t</w>
er e</w>
- i</w>
ic e</w>
a ve
j o
ar ă</w>
câ t</w>
to r</w>
t u</w>
v in
un de</w>
mp l
aş a</w>
c ur
2 0
t in
fac e</w>
v or
e le
mul t</w>
a i
t en
t ur
ri i</w>
des pre</w>
a b
sp e
m u
g e</w>
ac est
ace st</w>
re c
g ur
e şti</w>
no i</w>
er a</w>
re g
d ată</w>
z e</w>
m ul</w>
t ine</w>
s in
ic i
înt â
o r</w>
s -a</w>
d en
fo arte</w>
m ine</w>
a f
h o
o amen
ş te</w>
ţ ii</w>
p ă</w>
vo i</w>
- ai</w>
t at</w>
ti m
ic a</w>
z e
in ter
spu s</w>
ț ii</w>
me le</w>
co mp
m are</w>
j u
to ate</w>
f ie</w>
î mi</w>
c at</w>
te le</w>
în ce
s cu
m ne
p or
fe l</w>
în tre
o b
a de
l ă
pr in
sp un
ț i
cre d</w>
d re
at i
g en
ie i</w>
ce l</w>
ţ ă</w>
un o
a po
chi ar</w>
m un
du mne
to t</w>
mi c</w>
c ar
in te
or ul</w>
b ă
l ic
în tr
vo r</w>
sun te
a ți</w>
n ici</w>
pro b
me u</w>
pri n</w>
tim p</w>
ăr i</w>
a re
r ă</w>
io n
per so
ar a</w>
t are</w>
st e
pute a</w>
i mp
du pă</w>
f r
aj u
- te</w>
an i
h e
cu l
i te</w>
u ă</w>
â r
ne vo
at e
din tre</w>
a să</w>
un ci</w>
i ar</w>
bun ă</w>
ri e</w>
d ă</w>
p ân
un a</w>
p le
ac ol
şti u</w>
t an
at unci</w>
tat ea</w>
te a</w>
ex ist
g re
al e
mi li
g r
ast ă</w>
acol o</w>
vre i</w>
ce a</w>
vre au</w>
mul te</w>
fă cut</w>
an e</w>
st a</w>
0 0</w>
ch e
no ast
st i
- au</w>
c ine</w>
- mi</w>
l ul</w>
d er
20 1
p are</w>
i u
apo i</w>
in a</w>
g ra
ș ti
st u
nevo ie</w>
le g
dre p
g o
a pro
do m
c al
d ic
ţ ie</w>
pri e
s co
u ti
ti v
u a</w>
c an
gu r</w>
st ru
n ic
ace astă</w>
ț ă</w>
ce le</w>
po li
ţ a</w>
de z
s a
ri lor</w>
l ă</w>
m at
u i</w>
ă m</w>
fac i</w>
pân ă</w>
fa c</w>
f ie
h i
â t</w>
z a</w>
c en
me di
a se
ni mic</w>
f u
as că</w>
b a</w>
- l</w>
s ul</w>
in te</w>
d at</w>
c uno
s chi
sp une</w>
ac e</w>
a du
trebu i</w>
un c
co pi
fo lo
ţ ia</w>
a ș
l un
luc ru</w>
z ut</w>
ăr ă</w>
er i</w>
i en
l in
par te</w>
pre z
c in
ve de
si m
re n
tr an
l ar
me sc</w>
it ate</w>
aj un
ade v
ven it</w>
pro du
ce ea</w>
p a</w>
p ăr
it ă</w>
f ace
şti i</w>
r i</w>
a si
in tr
ave m</w>
g ân
uti li
î i</w>
ri j
b un</w>
fe c
t ic
n ă</w>
tu lui</w>
s ur
g ă</w>
o fer
lo c</w>
c ine
- ar</w>
a ţi
î l</w>
d r
su pr
fie care</w>
av ea</w>
ali z
1 9
ie c
m or
tă u</w>
a ş</w>
ce i</w>
lo g
î mp
ţ ele
f ără</w>
n or
ț ie</w>
ră u</w>
de cât</w>
f in
it at
prob le
sp un</w>
ţ u
un i
spe c
si t</w>
d ul</w>
ace asta</w>
to are</w>
se am
în ţele
l an
sunte m</w>
c ul</w>
f ap
in ă</w>
s po
ser v
re z
al a</w>
z eu</w>
at ât</w>
vo m</w>
un ul</w>
ca u
p rea</w>
st r
g i</w>
cine va</w>
at ele</w>
schi mb
ca p
ma g
oamen i</w>
adev ăr
pl ă
c am
c ri
în a
a se</w>
întâ mpl
do uă</w>
it ă
luc r
mo n
dumne zeu</w>
bi l</w>
a sa</w>
b an
î ţi</w>
b er
for ma
st ru</w>
at ul</w>
fe me
ro g</w>
g rij
ori ce</w>
ac este</w>
abi l</w>
ş e
în că</w>
men t</w>
f ru
al te</w>
en t</w>
po ţi</w>
to ri
- un</w>
de ci</w>
d ere</w>
con tin
sc ri
prie ten
po tri
c lu
ț ia</w>
exist ă</w>
să- l</w>
utili z
h ai
imp or
s en
un ea</w>
pi er
n ul</w>
st ul</w>
nic io
ve i</w>
vor be
mi t</w>
p este</w>
un e
nu -i</w>
si gur</w>
aş te
pute m</w>
în cer
n ă
e ur
av ut</w>
az a</w>
t ar
ț a</w>
o n</w>
lu mea</w>
pu b
e r</w>
ase men
con tr
v ân
ș te</w>
mul ţu
vi aţ
v est
s f
v rea</w>
oamen ii</w>
er i
c li
impor tan
asemen ea</w>
g i
îna inte</w>
to tul</w>
- ul</w>
un ui</w>
ca z
d ra
t a
no u</w>
s -o</w>
s al
reg ul
st ri
an ul</w>
z ă</w>
o p
n a</w>
t area</w>
în to
vo l
a s</w>
ce p
te le
acest a</w>
într -o</w>
p ul</w>
ș ti</w>
ţi n</w>
itat ea</w>
i m
spe ci
p at
t orul</w>
ti mp
w e
tre i</w>
cre zi</w>
do i</w>
tr ă
l i</w>
n at
est i</w>
o per
st an
no stru</w>
or g
te h
se m
între b
ge m</w>
do am
vă zut</w>
timp ul</w>
f ii</w>
t uri</w>
ur mă
an u
t ac
nicio dată</w>
an ă</w>
spun e
nu mai</w>
pu ter
men i</w>
vo ast
si ste
o l</w>
v al
m â
m -am</w>
abi li
ş i
at i</w>
co r
e chi
ve zi</w>
j a</w>
un i</w>
ter min
g er
sin gur
u it
an a</w>
c ăr
in i
ast fel</w>
o k
po si
co m
am er
mpl u</w>
- mă</w>
in d</w>
d ă
ti v</w>
to ată</w>
să- i</w>
ă sta</w>
mo d</w>
or a</w>
ver si
dom nu
co p
fru mo
dez vol
ex per
pl ace</w>
g a</w>
u le</w>
î m
at ori
mi te</w>
fic i
noast re</w>
as cul
perso n
con si
de o
in forma
mulţu mesc</w>
an t</w>
o are</w>
u ş
pri ma</w>
a pe</w>
pu t</w>
vi z
un ei</w>
o m
lu me</w>
n ici
le c
si gur
al t
hai de</w>
să- ţi</w>
f unc
su b
ul ti
di rec
ri t</w>
u ci
tur ă</w>
v ine</w>
an g
st ai</w>
- ţi</w>
i s
stu di
des chi
într -un</w>
co mun
un ă</w>
ră z
apro ape</w>
o s</w>
eur o
ma ma</w>
su s</w>
s cut</w>
pro te
d ru
spu i</w>
noast ră</w>
în chi
gen er
ur a</w>
me i</w>
de c
i de
st e</w>
in i</w>
ho te
ni meni</w>
r ap
regul ă</w>
ac or
mi -a</w>
cre de
ti e</w>
dac a</w>
i ul</w>
zi t</w>
m ic
ex e
face m</w>
pro gr
pu ţin</w>
de a
n -am</w>
d ata</w>
ap ar
să- mi</w>
g ro
cer e</w>
t or
p la
zi le</w>
b ri
h ai</w>
ar ă
vi n</w>
supr a</w>
m ăr
pro ce
fr an
no ap
se c
t ată</w>
b ar
so ci
vă d</w>
p tă
tran s
ac asă</w>
h a
nu mele</w>
j e
s at</w>
a vi
lo cu
ş te
1 0</w>
i l
r a</w>
t ale</w>
s pre</w>
i m</w>
org ani
jo s</w>
prez en
b ă</w>
o m</w>
e con
mi si
ț ion
n ai
al tă</w>
con du
ti i</w>
lu lui</w>
v e</w>
în tre</w>
at or</w>
n aț
în vă
it u
to ţi</w>
în seam
lu at</w>
pro fe
l ie</w>
zi ua</w>
lo cul</w>
c uri</w>
câ te
inte re
acest ea</w>
comp an
ră spun
voast ră</w>
st ă</w>
în apoi</w>
tr a
e li
întâ l
di spo
o dată</w>
fi l
le a</w>
0 00</w>
de ja</w>
că tre</w>
o ane</w>
to rii</w>
înseam nă</w>
pri vi
f un
f ur
ni c</w>
p ie
v ie
k e
i er
di fer
s an
î mb
ni ve
re pe
poli t
pri mul</w>
ti fic
comp le
h ar
domnu le</w>
pro pri
co l
amer ic
- uri</w>
tre cut</w>
al t</w>
cer ce
u ite</w>
al ul</w>
d or
in clu
v it
t -o</w>
sp i
t ori</w>
u te</w>
te ază</w>
s -au</w>
in st
mer gem</w>
- vă</w>
p li
in di
cu mp
mb rie</w>
su b</w>
lucr uri</w>
ma t</w>
m ii</w>
fi r
o cu
i mag
fap t</w>
co ok
înce put</w>
d v
a supra</w>
2 0</w>
p an
lu p
l -am</w>
un ii</w>
st ră
vor bi
v a
c la
b ăr
a ia</w>
ac t</w>
me dic
ne ce
câte va</w>
în să</w>
au to
b or
tu rile</w>
dea una</w>
si te
întâmpl at</w>
ma n</w>
cen tr
ac ă</w>
io s</w>
20 0
cop ii</w>
ţi on
t deauna</w>
re le</w>
naț ion
împ re
să u</w>
d an
tr i</w>
men te</w>
tur a</w>
fa mili
pro iec
b ani</w>
u i
zi s</w>
ac tiv
adevăr at</w>
e lor</w>
fic ien
gu ver
t âr
c ân
g h
are le</w>
viaţ a</w>
z ă
g at</w>
p ic
de ci
ma ş
ţ e</w>
i -a</w>
ț e</w>
si te</w>
tat ă
pu s</w>
te r</w>
ati v</w>
gân de
s ar
p a
st at</w>
j ur
ci u
g ar
ti t</w>
con stru
băr b
le le</w>
po zi
a fac
c at
or e</w>
au zit</w>
ad ă</w>
par t
par tea</w>
di t</w>
aț i
f ri
sigur an
vi t</w>
prin ci
sp er
p unc
iu be
ajun s</w>
t al
am b
ţ in
contin u
p at</w>
per io
x i
ch i</w>
lu min
ap lic
en er
o c
ven i
p lo
v âr
dumne a
că u
fi u</w>
te lor</w>
cook ie
t aţi</w>
tele fo
ast ea</w>
vi zi
uni versi
fac ă</w>
ven i</w>
ce r</w>
p ac
c am</w>
răz bo
progr am
să ptă
aș a</w>
o h</w>
min ist
g ru
s ăr
ș e
az i</w>
b une</w>
it i</w>
ar i
pre gă
împre ună</w>
asi gur
g lo
t h
do re
organi z
mili oane</w>
dv s</w>
tu t</w>
mi s</w>
con tac
cu ri
săptă mân
d ur
înto ar
aşte p
co man
ap tă</w>
de stul</w>
ca sa</w>
înt or
ace ea</w>
min e
me re
d -
si tu
nu -mi</w>
men tul</w>
ru t</w>
luc ru
se le</w>
b r
lu ri</w>
u rile</w>
z o
ni şte</w>
e fec
in du
mar i</w>
rec uno
it a</w>
ac ce
gă sit</w>
so n</w>
prob abil</w>
aţ ie</w>
a -
g he
con for
zi u</w>
pre cum</w>
tiv e</w>
sin gur</w>
vede a</w>
at en
s că
amen t</w>
pl an
vi aț
g ră
ar tic
ti c</w>
er au</w>
ic ii</w>
serv ici
mer ge</w>
ast ă
ace la
ur mă</w>
bi li
no log
dr ac
tre ab
tr ag
g in
p une</w>
caz ul</w>
ă rii</w>
să nă
af ară</w>
posi bil</w>
exper ien
ap ă</w>
ş it</w>
pier du
so l
d ate</w>
ie sc</w>
li p
d au</w>
s ca
d ar
s ul
dumnea voastră</w>
ave ţi</w>
bă ie
b en
v rut</w>
aju ta</w>
re la
le gă
ch est
b i</w>
lun i</w>
al itate</w>
do men
o fici
pub lic
întâmpl ă</w>
di mine
den t</w>
tă m</w>
3 0</w>
amen tul</w>
v ii</w>
li mb
so lu
ma i
ma j
re ază</w>
nai ba</w>
ang aj
doam ne</w>
pă mân
sf âr
re spec
b a
teh nolog
ob iec
iu bi
du -te</w>
i -am</w>
aț ii</w>
astă zi</w>
sp or
bi le</w>
aţ ii</w>
g ata</w>
s ale</w>
in g</w>
r â
pri vin
t o</w>
to c
i au</w>
v ic
tată l</w>
vede m</w>
importan t</w>
repe de</w>
lucru rile</w>
s h
se sc</w>
n a
. 000</w>
întâl ni
hote l</w>
du c</w>
fă cu
z at</w>
ţ ine</w>
h ei</w>
er am</w>
exe mplu</w>
er ul</w>
p lu
l ine</w>
pe tre
tr u
o k</w>
ve dere</w>
z on
ti n</w>
ră mân
b ur
sunte ţi</w>
l en
du ce</w>
d a
te -ai</w>
că m</w>
lar i</w>
ale s</w>
m -a</w>
ist ori
ser ios</w>
ti a</w>
l -a</w>
aț ie</w>
potri va</w>
5 0</w>
con di
ț ele
consi der
t ați</w>
z a
b ine
n -
vi i
mere u</w>
in vest
s ân
vre me</w>
i medi
fe ren
noap te</w>
co rec
dec lar
nu măr
co per
acor d</w>
aţ ia</w>
pu tut</w>
n en
mo ment</w>
cu vân
st at
reg ist
pat ru</w>
sti u</w>
er o
c ar</w>
e t
ac tu
privi re</w>
fi in
ver i
p uri</w>
do c
ag a</w>
sc ur
do ua</w>
î şi</w>
ri dic
can d</w>
târ ziu</w>
grij ă</w>
un ele</w>
ol ul</w>
cau za</w>
d ro
it ul</w>
vorbe sc</w>
i re</w>
min ute</w>
f le
de parte</w>
rez ul
st ra
d ră
ti p</w>
to n</w>
min un
m ie</w>
spo n
fin an
as c
că lă
a -i</w>
ţ e
ex act</w>
ti m</w>
m ului</w>
me mb
ad ică</w>
f l
ate lor</w>
ze ază</w>
1 0
nece s
o v
o ne
site -ul</w>
des coper
gre u</w>
perso ane</w>
cin ci</w>
ca le</w>
su s
imedi at</w>
princi p
vor ba</w>
mi ş
di sp
du s</w>
ap ăr
i u</w>
ele c
l ar</w>
s uri</w>
st in
f ata</w>
ţi le</w>
s -ar</w>
p ag
ce re
jo c</w>
copi ii</w>
înto tdeauna</w>
di scu
vin o</w>
mu rit</w>
n -o</w>
tat a</w>
ce lor</w>
ce rea</w>
r ac
ț in
e du
ț in</w>
proble me</w>
w w
ne -am</w>
viaţ ă</w>
un ite</w>
li g
p une
sim t</w>
ban ii</w>
în țele
si v</w>
econ om
în de
si a</w>
pierdu t</w>
do lari</w>
drep t</w>
am inte
ter e</w>
ț ine</w>
am in
no uă</w>
mun că</w>
di stru
un ile</w>
st en
n aţi
prez in
stu den
şti e</w>
dra go
ren un
rap i
dom nul</w>
io r</w>
ur ă</w>
toc mai</w>
st ii</w>
1 5</w>
su lui</w>
în cre
fa ţă</w>
ț ilor</w>
l at</w>
ac cep
înţele s</w>
îm potriva</w>
am ă</w>
folo si
e -
mon di
dumne ze
mo de
d le</w>
lin i
to tu
inter națion
di fic
i mpl
lu a</w>
are ce</w>
p t</w>
se cre
le i</w>
se ara</w>
ofer ă</w>
er ii</w>
ch ii</w>
frumo s</w>
su c
pr ac
fap tul</w>
aju tor</w>
pute ți</w>
drep tate</w>
u ș
e l
si mplu</w>
lu cre
ex pl
er ă</w>
a da</w>
bu cu
b ro
i rea</w>
te -am</w>
ar i</w>
st re
se curi
fi ind</w>
cli en
n i</w>
deo arece</w>
b ra
at in
in stru
st o
suc ce
o pre
pute ţi</w>
de a</w>
an un
ener g
ar ată</w>
mi -am</w>
co m</w>
g ul</w>
li ber
ri a</w>
copi l</w>
s s</w>
de -
ne g
c ra
po pu
1 2</w>
scu ze</w>
b at
men t
feme ie</w>
aț ia</w>
ajun ge</w>
aj ul</w>
do ri
mul ţi</w>
co mer
ulti ma</w>
ca z</w>
i c</w>
mi te
re spon
termin at</w>
tr at
nive l</w>
1 8
număr ul</w>
d at
au tori
si on
dru mul</w>
li a</w>
v i</w>
d uri</w>
c ie
i a
av an
n ice</w>
mă car</w>
pub l
difer ite</w>
ma s</w>
re st
afac eri</w>
tr o
ț ile</w>
u it</w>
ma rea</w>
nor o
s m</w>
ca re
fo to
b az
a do
po vest
iube sc</w>
ți ile</w>
cookie -uri</w>
l ân
un de
ț ele</w>
aș te
u man
nici un</w>
o ară</w>
b lo
abi le</w>
al i</w>
fer ic
so are</w>
per ic
u rilor</w>
drac u</w>
ast e
ar ie</w>
seam a</w>
mi j
pri ve
glo b
sem n
ţ ele</w>
ţ iei</w>
dispo zi
r y</w>
. com</w>
ţ ul</w>
vo lu
rez ol
l at
mi -
te i</w>
ate g
t am
ple cat</w>
ur ma</w>
aţ ă</w>
privin d</w>
bi ro
abi lă</w>
ţi lor</w>
ca rea</w>
ac ti
p un</w>
trebu ia</w>
su a</w>
ar d</w>
în regist
e a
d y</w>
ru gă
invest i
mu z
man ag
ter i
do i
n -a</w>
jo h
j a
t al</w>
se x
o mul</w>
part ici
do n
speci al</w>
o bi
v at</w>
de -a</w>
ă rile</w>
g al
b ru
ger man
l l</w>
fa mi
ţ at</w>
we b
câ şti
famili a</w>
g an
mâ ine</w>
cre zut</w>
înce pe</w>
so cie
cump ăr
m ică</w>
împ ăr
p ur
tu tur
ani ma
per fec
mă sur
du pa</w>
con su
e ști</w>
de sigur</w>
in f
de venit</w>
tutur or</w>
rap or
n -ai</w>
dispo ni
vin ă</w>
k e</w>
ă la</w>
l y</w>
z ie</w>
ă -te</w>
nici o</w>
fi ul</w>
foto gra
t ice</w>
l u</w>
cu vin
par ten
veri fic
d atori
z are</w>
on line</w>
potri vit</w>
ţi -am</w>
ar tă</w>
tă ți</w>
pro vo
ofici al</w>
i at</w>
apar t
respon s
proble ma</w>
un or</w>
ori i</w>
iu b
v an
m b</w>
întâ mp
ţi t</w>
ț iei</w>
in ile</w>
ţi ile</w>
o chii</w>
d ai</w>
t ică</w>
proble mă</w>
informa ții</w>
g le
g a
car ac
păr in
a c</w>
fa ţa</w>
naţi on
direc t</w>
e ază</w>
produ c
pri mit</w>
ma mă</w>
ch ina</w>
co ne
prote c
ti pul</w>
ro man
ac ea</w>
ra h
ca să</w>
şte -te</w>
lo n
i den
bi lă</w>
m -ai</w>
po ti</w>
pu țin</w>
s ã</w>
încre dere</w>
am e</w>
maj ori
re aliz
că l
n y</w>
mi tă</w>
gă si</w>
po f
s k
econ o
so f
ar un
pro prie
z ii</w>
prin s</w>
plu s</w>
est e
ști in
ve ţi</w>
nu me</w>
d are</w>
st atele</w>
ap a</w>
m ici</w>
ju mă
t au</w>
în cât</w>
st ă
ofer i</w>
treab a</w>
cre din
scri s</w>
e di
spe r</w>
t ân
perso ană</w>
gă si
ci te
n ică</w>
lân gă</w>
ră sp
un ă
exist a</w>
at -o</w>
produ se</w>
su ficien
du -
in ten
i s</w>
o mu
că să
su fle
şti a</w>
între aga</w>
sc en
z u
t w
gân dit</w>
fo n
vre o</w>
o g
f ra
du re
p i</w>
de p
a fec
ace l</w>
aşte aptă</w>
in ce
din tr
ce m</w>
st abili
edu ca
singur ă</w>
ide e</w>
per mite</w>
vi ata</w>
indu stri
vre odată</w>
şe din
tu ri
în grij
i mi</w>
ob ic
pi c</w>
ac oper
sa lu
c ii</w>
g uri</w>
ac k</w>
1 1</w>
adu s</w>
co men
ace ea
pu lui</w>
b ol
o pri
trebu it</w>
ju de
b al
an d</w>
ro mân
co lec
le s</w>
noap tea</w>
g ere</w>
u s</w>
ad re
câ te</w>
t ar</w>
dumneze ule</w>
gr at
ar m
rez er
ple c</w>
o log
or ă</w>
nen or
bun a</w>
polit ica</w>
te x
comun ic
am ân
min te</w>
x im
ag en
mer g</w>
te c
an ului</w>
in ele</w>
mă n
rămân e</w>
person ale</w>
bi ser
legă tură</w>
apro xim
omu le</w>
an ti
ze ce</w>
s ie</w>
echi p
me lor</w>
corec t</w>
19 9
euro pa</w>
a ș</w>
r at
con fi
f lo
s lu
reg i
feme i</w>
pic io
fer ici
re zi
învă ț
an ele</w>
1 00</w>
- -</w>
in de
întreb ări</w>
st i</w>
în ă
al ă
in for
înţele g</w>
v este</w>
aproxim ativ</w>
nu -ţi</w>
gă se
de ce
cuno scut</w>
ini ma</w>
tat i</w>
in tre
inst itu
g hi
războ i</w>
siste mul</w>
re u
l -ai</w>
su fer
uit at</w>
o ni
ab ia</w>
g ând</w>
mo dific
la bor
i sus</w>
ge rea</w>
fi c</w>
t un
z ice</w>
st ea</w>
ce -i</w>
ad minist
mi -ai</w>
inclu siv</w>
lic it
viaț a</w>
e vi
răspun s</w>
acest ui</w>
cre de</w>
de rea</w>
ri d
bu cur
f ul</w>
fur ni
ca dr
serv icii</w>
d i</w>
dore sc</w>
re du
jumă tate</w>
sp it
li mi
amen te</w>
me n</w>
ţ ei</w>
aţ a</w>
asc un
cre ș
vorbi m</w>
i -
di o
adevăr ul</w>
mul tu
drep tul</w>
nor ma
consi li
be r</w>
utiliz area</w>
sunte ți</w>
no tific
ro n
v az
2 5</w>
dră gu
cam era</w>
ne t</w>
c k</w>
q u
o mo
d atele</w>
tre cu
re fer
k i
ca p</w>
tă ții</w>
t h</w>
mat eri
it orul</w>
a vo
fami lie</w>
copi lul</w>
f an
b e</w>
af lă</w>
te ze</w>
co re
ad ă
du ci</w>
prezin tă</w>
prez ent</w>
nu lui</w>
r ul</w>
fr un
bun i</w>
ca ţi</w>
majori tatea</w>
f ă</w>
de r</w>
re fu
ț ei</w>
e ficien
4 0</w>
imp re
te n</w>
minun at</w>
îmb ună
me s
p al
mo dul</w>
cadr ul</w>
v ar
v ac
c ate</w>
alt ceva</w>
in g
me to
for ma</w>
en gle
comple t</w>
men tele</w>
ţ ine
z ia</w>
fac ut</w>
as ca</w>
mân a</w>
u ri
ni t</w>
cur ând</w>
pămân t</w>
con sul
cap it
program ul</w>
gro za
pl ân
h u
c it
o mor
cam eră</w>
siste m</w>
pre mi
prieten i</w>
du b
singur a</w>
- ti</w>
oamen ilor</w>
lu mii</w>
succe s</w>
for mă</w>
î și</w>
telefo n</w>
adu ce</w>
ţi -vă</w>
web site-ul</w>
încer cat</w>
ci r
nu -l</w>
une ori</w>
gener al</w>
e veni
1 8</w>
por t</w>
pre fer
i l</w>
euro pe
ne -a</w>
ben e
l are</w>
g lu
st are</w>
cur s</w>
nat ur
p ace</w>
sim ţi</w>
e v
slu j
s la
dom ni
am a</w>
ști i</w>
ave ți</w>
cre di
pă i</w>
pof tim</w>
or din
io ne
la s</w>
la să-
cuno sc</w>
finan ci
vă r</w>
ur me
medi u</w>
siguran ţă</w>
ap ta</w>
lo s</w>
schi mb</w>
ave am</w>
jo curi</w>
r are</w>
imag in
mo mentul</w>
ră mas</w>
ap te</w>
an tre
fi ș
cu m
vorbi t</w>
u ită
făcu t-o</w>
se i</w>
to rie</w>
tiv ul</w>
ex plo
at â
en te</w>
f ată</w>
tran spor
g est
par ti
acest ei</w>
ac ţi
ști u</w>
pre şedin
mo ar
u re
şi -a</w>
p as
0 0
ade văr</w>
pr ă
d atelor</w>
măn ân
domen iul</w>
i eri</w>
vor b
b aza</w>
te mp
mul ți</w>
singur ul</w>
face ţi</w>
dru m</w>
ai bă</w>
spune -mi</w>
ob serv
fic e</w>
o ase</w>
st er
di s
uş or</w>
jur ul</w>
pe re
sp rij
pute rea</w>
or ului</w>
va lu
rugă m</w>
c k
po ți</w>
pro mo
mă r</w>
echi pa</w>
ati ve</w>
at ori</w>
m uri</w>
con vin
i am</w>
a h</w>
ciu dat</w>
acela şi</w>
atori i</w>
uci s</w>
prie ten</w>
ce le
grij i</w>
zi c</w>
că ci</w>
pu ş
le r</w>
si mp
ch ar
impl ic
av er
1 2
at ie</w>
d ine</w>
mer gi</w>
201 7</w>
at oare</w>
punc t</w>
li c</w>
no ua</w>
i z
obic ei</w>
is ra
pu i</w>
c ali
co leg
uită -te</w>
pu tin</w>
înce ar
urmă to
mor t</w>
mul tă</w>
at ac
a di
su per
folo se
at orul</w>
pregă ti
to ți</w>
rapi d</w>
s are</w>
n er
ar ul</w>
vorbe şti</w>
b ii</w>
an ii</w>
v adă</w>
bri tan
a j</w>
sc rie</w>
fa ță</w>
comp e
cerce tare</w>
i g
c ro
limb a</w>
st au</w>
într -
frumo asă</w>
drep turile</w>
ex ce
tri mis</w>
ră mâ
prin tre</w>
fe r</w>
pu r</w>
r ând</w>
m ac
ş co
mun ca</w>
crede am</w>
ascul tă</w>
p si
le -am</w>
c lar</w>
să- şi</w>
ci o
c h</w>
cu lo
declar at</w>
ce lu
şti in
l una</w>
ori cum</w>
de mo
ag ă</w>
amen in
comer ci
folo sit</w>
1 4</w>
ar ti
joh n</w>
f al
af la</w>
bărb at</w>
ar de</w>
bucu r</w>
io n</w>
pre su
puter nic</w>
2 4</w>
mo tiv</w>
moar tea</w>
i ată</w>
ic ul</w>
sp ă
re prezen
ma ș
ne w</w>
al ţi</w>
bi b
1 6</w>
fun d
fr atele</w>
mo der
dă -mi</w>
en i</w>
av ie
re stul</w>
bă tr
întor s</w>
t am</w>
ţin ut</w>
1 .
ex er
doi lea</w>
lo ca
pe r</w>
lă sat</w>
mi tate</w>
dr a</w>
puter e</w>
j apo
1 3</w>
men tare</w>
r at</w>
af ara</w>
se te</w>
cal itate</w>
alt fel</w>
manag e
sp atele</w>
gân di
păr ă
du lui</w>
tă i</w>
încear că</w>
so r</w>
c arte</w>
we b</w>
schimb at</w>
ch ine
cap ac
zon a</w>
vii tor</w>
u z
ci vi
ho t
p ana</w>
tă -mă</w>
b ază</w>
201 6</w>
do cu
pl at
z area</w>
sco pul</w>
viaț ă</w>
c le
ta x
6 0</w>
sen ti
i r
ve ți</w>
ti vă</w>
con ce
apro pi
er ie</w>
a ur
p un
1 5
plan e
universi tatea</w>
re coman
dezvol tare</w>
ju că
rah at</w>
ch e</w>
1 7</w>
i un
mag az
p it
şti ţi</w>
ne bun
cuno scu
se lor</w>
intr at</w>
cone c
progr am</w>
de ţi</w>
fe lul</w>
dezvol tarea</w>
sub iec
întoar ce</w>
lo curi</w>
des cur
li v
se p
ș co
energ ie</w>
li gen
supr avie
si une</w>
ită ți</w>
ț elor</w>
c lă
pac ien
băie ţi</w>
lasă- mă</w>
te -a</w>
f re
ci den
econo mi
ali za</w>
ț e
w il
s area</w>
cu ren
experien ță</w>
a soci
îmbună tă
rezul tat
ce il
ru sia</w>
multu mesc</w>
contin uă</w>
st ic
ex tre
ie r</w>
securi tate</w>
r an
ş an
d l</w>
ulti mul</w>
ş o
mic ro
l ac
e- mai
intr o
f en
ve chi</w>
or aş
di feren
li ber</w>
de loc</w>
cap ul</w>
întâ i</w>
n ia</w>
vor bi</w>
mer s</w>
au zi</w>
nu măr</w>
st ân
şti m</w>
ț u
intere s
vin a</w>
on ul</w>
m ur
se ază</w>
t y</w>
mondi al</w>
stan dar
n un
sex u
contr o
inte ligen
tri bu
mar ke
or aș
fi m</w>
aj e</w>
ci t</w>
str ân
c ru
mo arte</w>
al ia</w>
ge r</w>
u ia</w>
leg ea</w>
medi ul</w>
tă ţii</w>
ste r</w>
si g
maş ină</w>
groza v</w>
i ar
me tri</w>
c ată</w>
m -
n avi
i ţi</w>
ic e
s ac
amer ica</w>
nor d</w>
le -a</w>
ju r</w>
li le</w>
u e</w>
to rilor</w>
ar t</w>
totu şi</w>
feric it</w>
ar ii</w>
ă r</w>
t ab
w .
fran ce
in su
p asă</w>
e t</w>
se ară</w>
posi bili
comp or
u s
af ri
t ând</w>
person al</w>
st itu
ac ți
z ici</w>
prieten ii</w>
sp an
ş tri</w>
re gu
o re
deo se
adă u
re prezintă</w>
o le</w>
sp ate</w>
sân ge</w>
elec tri
ve le</w>
a er</w>
su pli
centr ul</w>
h an
s ine</w>
cre scut</w>
cuvin te</w>
le y</w>
la u
1 6
fil m</w>
con tează</w>
de m</w>
co mb
de cat</w>
actu aliz
importan te</w>
ex ter
comen tar
vre ţi</w>
maş ina</w>
fiin d
î ți</w>
se co
acest or</w>
1 7
ace la</w>
vre m</w>
n -ar</w>
mi- e</w>
ww w.
ple acă</w>
uit a</w>
tin g</w>
compan ia</w>
at at</w>
scu z
al ele</w>
di str
to tdeauna</w>
ra rea</w>
u mb
v ate</w>
au a</w>
săptămân i</w>
vaz ut</w>
- urilor</w>
exe cu
aju torul</w>
ţi -a</w>
uni ver
nu mer
li b
se lec
de stin
feme ile</w>
par că</w>
ide ea</w>
des cri
ze ci</w>
al ta</w>
domnu lui</w>
r az
at ului</w>
re uş
nai bii</w>
eli min
b y</w>
fl ori</w>
întâmp la</w>
cur sul</w>
nu me
du rile</w>
or aş</w>
gânde sc</w>
re sur
ar ta</w>
l or
l ii</w>
apro p
e ze</w>
cerce tă
ti on
mâ inile</w>
povest ea</w>
câ ști
am an
i -ai</w>
- ne</w>
de vreme</w>
cer ut</w>
de mon
est i
ap e
nat ion
euro pen
doam nă</w>
pli n</w>
deschi de</w>
ast a-i</w>
noro c</w>
ț ione
mo ni
confor mitate</w>
t ări</w>
i ască</w>
clă di
re lig
st ie</w>
pla c</w>
s s
americ an</w>
suficien t</w>
studi u</w>
a dar</w>
c ia</w>
lumin a</w>
ace le</w>
schimb a</w>
mul țu
al itatea</w>
ur mare</w>
t â
ț ul</w>
plă te
salu t</w>
1 4
1 3
stru c
ti t
sa j</w>
su d</w>
in tre</w>
ul ie</w>
- le</w>
aț ă</w>
nă scut</w>
s h</w>
con tribu
as ul</w>
pă re
gur a</w>
pen den
confi den
po st
vi ol
carac ter
nive lul</w>
d ăm</w>
in a
prieten ul</w>
asi sten
efec tu
der an
201 5</w>
m p</w>
al er
m n</w>
v -
â mb
su rile</w>
de veni</w>
ş tin
exper i
bo mb
t ine
r au</w>
cur aj
af lat</w>
c r
so ţia</w>
s mul</w>
che l
mo ne
c ast
iden tific
i -au</w>
tre ce</w>
mi ro
mili arde</w>
ri st
k o
ap l
adu c</w>
bu că
pu rile</w>
f ara</w>
tu rilor</w>
e n</w>
tar i</w>
po por
guver nul</w>
cre at</w>
ş nu
ce tă
e mo
2 1</w>
lă sa</w>
di stan
gă sesc</w>
ma sin
obi şnu
b ast
al o</w>
lup tă</w>
che ie</w>
i ile</w>
de o</w>
ob lig
peric u
ur gen
to ti</w>
șe din
un tru</w>
co stu
li n</w>
ple ci</w>
a fir
se x</w>
vi te
cuvân t</w>
păr ți</w>
m y</w>
măsur ă</w>
contin ua</w>
vic ti
bu z
întreb at</w>
în căl
au d</w>
întor c</w>
fo c</w>
w al
ci ti
fa bri
in v
ati c</w>
viz u
ex tin
nece si
perio ada</w>
iun ie</w>
treab ă</w>
inter net</w>
k en
eur o</w>
căsă tori
ar me</w>
compan ie</w>
c ã</w>
fri că</w>
fiind că</w>
lu ăm</w>
a spec
mi m</w>
indi vi
hot ăr
vii toare</w>
unde va</w>
nu mit</w>
lup ta</w>
ma r</w>
ni fic
gru p</w>
o asă</w>
y or
ac ade
tra di
r ân
folo si</w>
fe re
- ului</w>
e g
german ia</w>
w o
cal ea</w>
misi unea</w>
ț ări</w>
ne w
deschi s</w>
dra gă</w>
perfec t</w>
vi deo</w>
st area</w>
constru c
tac i</w>
lun ă</w>
mul ti
ch in
at ii</w>
pub lic</w>
anu me</w>
acela și</w>
at uri</w>
s în
d- le</w>
co lo
l -au</w>
indi feren
1 9</w>
ar ma</w>
de tec
po veste</w>
di stri
ex cep
at ura</w>
fi ica</w>
l y
an ta</w>
confor m</w>
artic olul</w>
tă țile</w>
eli ber
de vine</w>
drago ste</w>
do n</w>
contr ol</w>
ve r</w>
8 0</w>
ie şte</w>
re spi
str ateg
cum va</w>
săptămân ă</w>
bi t</w>
înce pu
y o
gen ul</w>
intr ă</w>
dre apta</w>
inst al
e valu
fr ate</w>
no ul</w>
in vit
ab solu
tă ţi</w>
leg ate</w>
t ală</w>
plă cut</w>
c ateg
de fin
tri mite</w>
sigur ă</w>
dintr -o</w>
într- adevăr</w>
ită ții</w>
anu mite</w>
o por
ţi one
aminte sc</w>
re ci
c ani
di men
in tam
ge ţi</w>
medi a</w>
t ai</w>
car tea</w>
an ter
b ag
cau tă</w>
chest ia</w>
ple căm</w>
răsp unde</w>
neces ar</w>
to tal</w>
so li
îngrij or
în d</w>
sal v
oc to
c ina</w>
amân doi</w>
mă ri
in fr
h en
spi ri
şti am</w>
i tor</w>
prin de</w>
poli ţi
popu la
expl ic
man i
pre ci
sănă tate</w>
e d
ră ci
în su
inf lu
s ch
sem nific
au r</w>
li sta</w>
disp ăr
navi g
am uz
la să</w>
er ilor</w>
utili zează</w>
cre ier
aj ut</w>
încer c</w>
soci ale</w>
t v</w>
d ori</w>
pri me
at ra
cookie -urilor</w>
vi r
sep te
f a</w>
om ului</w>
a pri
201 8</w>
ti mi
le ge</w>
teh nice</w>
aju tă</w>
con t</w>
pla n</w>
sof tw
g az
sec un
j ack</w>
de part
marke ting</w>
le lor</w>
re i</w>
dimine aţa</w>
continu are</w>
copi ilor</w>
înţele gi</w>
luc ră
dor in
ma să</w>
d avi
2 2</w>
ge n</w>
au di
produ s</w>
ori cine</w>
trag e</w>
ac i</w>
dece mbrie</w>
aver ti
me s</w>
b l
k er</w>
inte a</w>
nu -
ter men</w>
g ri
norma l</w>
vre un</w>
an al
p as</w>
indiferen t</w>
lucre ază</w>
en e</w>
de le</w>
th e</w>
ale ge</w>
tran z
importan tă</w>
octo mbrie</w>
gu st</w>
di g
septe mbrie</w>
ie şi</w>
be l
pri mesc</w>
e for
a ero
compan ii</w>
ț ine
tre i
servici u</w>
râ sete</w>
descoper it</w>
an te</w>
o li
istori a</w>
polit ică</w>
amin ti
pu l
ţ ă
sen s</w>
f rec
sf ân
mân d
ar hi
reuş it</w>
o men
între b</w>
val oare</w>
tor ului</w>
pr u
in ov
ca f
mar tie</w>
po ten
ocu p
su păr
vâr sta</w>
de ge
at ia</w>
ul tim
i anu
l -
ado p
neces are</w>
ple ca</w>
mân ă</w>
me cani
col o</w>
aște p
scur t</w>
chi ul</w>
tă rile</w>
influ en
vi itorul</w>
rest aur
mi n</w>
iub it
picio are</w>
grat uit</w>
acce s</w>
tic he
s or
o chi</w>
profe sion
inter naţion
lă s
con ver
ze ze</w>
de sig
informa ţii</w>
ser ie</w>
du l
te z</w>
opor tun
con centr
aţi -vă</w>
201 9</w>
con stitu
vo stru</w>
in ven
spun ă</w>
si unea</w>
i ulie</w>
h er
pri mi</w>
adu l
vin ov
li t</w>
do r</w>
co misi
sun ă</w>
d o</w>
adev ar
201 4</w>
ș tin
di ver
înce pe
mij lo
am ă
ș it</w>
sfâr şit</w>
perio adă</w>
bătr ân
pro st</w>
ţion at</w>
intr a</w>
re ac
ab sol
tă ţile</w>
gre u
f lu
scu mp
ati vă</w>
yor k</w>
studi i</w>
con fir
întâ r
er ai</w>
o area</w>
am ice</w>
19 7
în gro
bo ok</w>
ianu arie</w>
no ie
d aţi</w>
o bo
frec ven
sănă to
en ii</w>
o f</w>
ţi -ai</w>
uș or</w>
disponi bil</w>
abili tatea</w>
l er
in de</w>
zi l
m ate</w>
ab or
nu cle
întreb are</w>
supr a
cor pul</w>
cal cul
furni z
b ac
ș tri</w>
ar gă</w>
îmb ră
re sc</w>
caz uri</w>
pre ședin
as h
s fer
u tul</w>
d area</w>
fa vo
z bo
l alte</w>
noie mbrie</w>
2 3</w>
propri a</w>
ală turi</w>
ne sc</w>
infor mat
ori en
lun g</w>
do ve
al tul</w>
ş ase</w>
min ci
al o
e sen
2 .
w a
in ul</w>
de pă
t ica</w>
proiec t</w>
ţ are</w>
du- se</w>
dig it
s ora</w>
ur ă
mi tor</w>
con ven
cuvân tul</w>
ne bun</w>
di fici
ca s
forma t</w>
fac ul
az ă-te</w>
v ari
fi z
fe der
cri min
ve de</w>
abi li</w>
ci tit</w>
u r</w>
si uni</w>
fin al</w>
s ap
ajun g</w>
bi o
in ca</w>
vre mea</w>
ac a</w>
extre m</w>
apri lie</w>
nenor o
vă zu
întâlni t</w>
e tiche
uman e</w>
sco puri</w>
201 3</w>
vie ţii</w>
u m</w>
psi ho
c răci
folo sesc</w>
fe te</w>
i dio
fic ă</w>
u ită</w>
it ori</w>
i d</w>
ber t</w>
pro gre
5 00</w>
ați ile</w>
că pit
in ii</w>
sper an
ad un
h ol
caracter ist
n t</w>
vorbe şte</w>
t ali
ori care</w>
chel tu
mi le</w>
ori gin
apăr ut</w>
adre sa</w>
me saj</w>
europen e</w>
pi to
e z</w>
li der
perso ana</w>
caf ea</w>
az ă
ce -ai</w>
re cu
ob ține</w>
sp aţi
gre şe
asigur a</w>
ca d
v ul
spit al</w>
ri sc
k a</w>
e pi
in cer
con stan
con frun
te re
cu i
fe ti
ca do
propri i</w>
în vin
v -am</w>
cuno știn
mân care</w>
jude că
înă untru</w>
ultim ii</w>
cul tur
amb ele</w>
pl ină</w>
re volu
cin ă</w>
su perio
engle ză</w>
t t</w>
pro fi
țin ut</w>
biro ul</w>
bar b
i li
ge or
aceea şi</w>
d al
în che
on g</w>
ulti mele</w>
spun ea</w>
a mi
min tea</w>
ţ ină</w>
ad ân
feme ia</w>
ti vele</w>
e mi
ci dent</w>
comp ar
ită ţii</w>
aju te</w>
no ştri</w>
mo r</w>
distr ac
le men
ju sti
pi s
tri mi
publ ice</w>
- n
proce sul</w>
si mi
e rea</w>
ter ii</w>
stă pân
pag ina</w>
dimine aţă</w>
hote luri</w>
notific are</w>
vâr stă</w>
le ază</w>
țione ază</w>
n ie</w>
îm puş
2 8</w>
con fer
absolu t</w>
rela x
pier de</w>
op t</w>
go og
19 8
si oni
princi pi
nicio data</w>
aliz are</w>
bo g
aț iei</w>
d am
ter ori
to ata</w>
w in
s am</w>
f ar
goog le</w>
drago stea</w>
p le</w>
în căr
evi dent</w>
nenor oc
poli ţia</w>
să i</w>
de s</w>
distri bu
vo ie</w>
ra di
mi -ar</w>
o t</w>
an tă</w>
p ast
amen tului</w>
su te</w>
datori tă</w>
n at</w>
st ele</w>
ce al
artic ol</w>
face book</w>
p ar</w>
o pr
davi d</w>
atâ ta</w>
e m</w>
che amă</w>
ca pito
a ie</w>
de sp
tră iesc</w>
profe s
fo t
plă cere</w>
can ti
pli mb
in dic
at o
di plo
9 0</w>
doam na</w>
d ura</w>
telefo nul</w>
pl ic
r am
ar an
b al</w>
st atelor</w>
deci s</w>
di e</w>
alt cineva</w>
princip al</w>
în locu
i ului</w>
ti puri</w>
aste p
cur ă
lucr at</w>
des fă
h a</w>
lu rile</w>
bă iat</w>
pl anul</w>
trecu tă</w>
pro f
a me
abili tate</w>
spune -i</w>
găsi m</w>
înde pl
o f
fe bru
sp eri
urme ază</w>
e st</w>
s ati
n r</w>
un ilor</w>
c ic
in credi
du ce
uş a</w>
ară t</w>
difer it</w>
sîn t</w>
compor t
spune m</w>
so licit
sa -l</w>
re al</w>
c rea</w>
proce s</w>
1 ,
s un</w>
jo cul</w>
proble mele</w>
încer ca</w>
st ate</w>
ţ ară</w>
dori ți</w>
an aliz
hai deţi</w>
o no
l d</w>
tranz ac
o ce
de şi</w>
ma sa</w>
cam p
to ţii</w>
famili ei</w>
p ho
2 7</w>
perso anele</w>
ar mă</w>
gar an
ie şi
exist en
jur n
ă ştia</w>
t s</w>
ă tor</w>
închi soare</w>
de termin
prote j
te ori
punc tul</w>
j i
g ol
pri mele</w>
ne r</w>
se par
7 0</w>
sco p</w>
for me</w>
cele lalte</w>
săr bă
î t</w>
o di
y a</w>
no ștri</w>
lo c
opr i</w>
febru arie</w>
gest ion
vi u</w>
e volu
plă cea</w>
echi pă</w>
bi le
întâlni re</w>
par is</w>
a prob
care -i</w>
prive şte</w>
l l
doc tor
in gin
aş te</w>
min i
cer i</w>
g â
mo tive</w>
ie şti</w>
ma mei</w>
şco ală</w>
. ...</w>
me mo
contr ac
ţ ara</w>
vo iam</w>
c ate
ce lă
siguran ță</w>
lan d</w>
internațion ale</w>
supr ave
contac taţi</w>
sun at</w>
intr -o</w>
interes ant</w>
neg ru</w>
av e</w>
manage ment</w>
al ea</w>
in s</w>
profe sioni
voast re</w>
sin cer</w>
începu tul</w>
contr olul</w>
de și</w>
al tele</w>
compan iei</w>
jo cu
c lo
b re
g it</w>
internațion al</w>
drăgu ţ</w>
tu rii</w>
2 6</w>
lon dra</w>
s ii</w>
ca pă
şti ut</w>
imag ini</w>
dispăr ut</w>
ți ilor</w>
ceil alţi</w>
201 2</w>
ap lau
o caz
mul ti</w>
mic ha
g eri</w>
con cep
compe ti
tr adu
ba ie</w>
sec unde</w>
guver n
ne le</w>
do w
mi ș
războ iul</w>
par l
ară ţi</w>
posibili tatea</w>
0 .000</w>
cor por
urmă ri
ca ți</w>
bro w
l ară</w>
fu gi</w>
dep inde</w>
gre şit</w>
să- și</w>
ju dec
închi ri
comp ani
v ată</w>
stri c
in o
ci le</w>
fa ța</w>
e z
s ate</w>
ită ţi</w>
per for
bă u
a des
tehnolog ie</w>
aţi -mă</w>
in fec
pro gra
biro u</w>
do u
cam ere</w>
pune m</w>
al bast
britan ie</w>
ac hi
m m</w>
aț a</w>
istori e</w>
te zi</w>
ţi -
aţ iei</w>
op ți
vede ți</w>
ru p
ofer it</w>
folosi m</w>
afri ca</w>
ades ea</w>
a pu
v o</w>
am inte</w>
v ara</w>
te m</w>
a er
econom ice</w>
condu ce</w>
f lic
îna intea</w>
zi lele</w>
lumin ă</w>
b ul
drac ului</w>
amuz ant</w>
st aţi</w>
lo vit</w>
cer in
mân t</w>
memb ru</w>
aj ele</w>
isra el</w>
a fi
ad au
mi -au</w>
ro bo
p h
micha el</w>
20 0</w>
: 00</w>
se se</w>
m ice</w>
m în
categ ori
un u</w>
be n</w>
i i
în dră
i ere</w>
misi une</w>
muz ica</w>
po z
ţ ări</w>
to p</w>
a ma
4 5</w>
l ly</w>
ţi une</w>
următo arele</w>
anima le</w>
program e</w>
servici ile</w>
ro ş
gur ă</w>
ag ri
w or
d ri
e sc</w>
reg ele</w>
pregă te
rist os</w>
or dine</w>
inde penden
crede m</w>
ridic at</w>
cu i</w>
europe ană</w>
le t
ie şit</w>
bă i
capac itatea</w>
c lin
v ro
ț ară</w>
ti tu
ș i
uci de</w>
ra spun
fran k</w>
au to</w>
3 .
an elor</w>
ț at</w>
v ară</w>
învă ţat</w>
sufle tul</w>
rămâ i</w>
realiz at</w>
jo acă</w>
e vit
in stan
per spec
odi h
co oper
ave au</w>
a lului</w>
rân dul</w>
industri a</w>
cur suri</w>
vede ţi</w>
inclu de</w>
geor ge</w>
părin ţii</w>
so n
l alt</w>
produ că
român ia</w>
fun d</w>
al ţii</w>
ni ste</w>
su por
puter nică</w>
j ac
folo sin
u mi
av ând</w>
sp ați
v ră
re cep
in ă
m ani</w>
u cra
j en
tori a</w>
vi l
sal ve
con flic
ptă m</w>
s y
înce p
mo bili
ap ă
contac t</w>
tur at</w>
te amă</w>
poli tic
doc tor</w>
co d</w>
zon ă</w>
mulțu mesc</w>
a d</w>
o te
mer ită</w>
o fi
studen ții</w>
schimb are</w>
ceal altă</w>
s am
pregă tit</w>
m -au</w>
roman ia</w>
al ți</w>
î mpl
tă rii</w>
lun gul</w>
sco ate
re ce</w>
r o</w>
d an</w>
public at</w>
celă lalt</w>
s cu</w>
s mului</w>
sfâr ş
2 9</w>
c ări</w>
ina inte</w>
fr ân
pă rea</w>
pac he
me argă</w>
co mpl
tre ze
să m</w>
de- al</w>
pu se</w>
bene fici
s ho
domni lor</w>
trans fer
no p
la n</w>
so ţul</w>
di a</w>
e gi
mar i
au str
k m</w>
siste mului</w>
io ase</w>
ve h
sati s
achi zi
lucre z</w>
z ice
mo tivul</w>
con se
m c
b ul</w>
anal it
în co
pat ri
peric ol</w>
li z
fru mu
ex clu
or don
ac asa</w>
sa -ti</w>
de gra
w i
te aza</w>
consul tați</w>
de j
bine înţeles</w>
h ristos</w>
cer tific
săptămân a</w>
ară ta</w>
az i
mij locul</w>
201 1</w>
înde păr
muz ică</w>
călă torie</w>
ar ata</w>
co labor
semn at</w>
perfor man
li ter
punc te</w>
confer in
s -
aţi ile</w>
ap are</w>
ă -
t ară</w>
ferici re</w>
tr as</w>
av en
des căr
at ac</w>
dis ci
a k
s an</w>
teri tori
po st</w>
crăci un</w>
produ sele</w>
rec ent</w>
glob al</w>
vi ru
înce p</w>
er ile</w>
rezultat ele</w>
p asi
gră din
in sa</w>
t ara</w>
îndră go
atin ge</w>
ne go
ro l</w>
sc an
petre cere</w>
3 5</w>
prin tr
po po
servici ul</w>
ară tat</w>
culo are</w>
pă str
m ată</w>
totu și</w>
t ul
fi er
ki lo
re par
ori lor</w>
at ri
at rac
cen tre
aplau ze</w>
sal vat</w>
temp er
ți al</w>
ex tra
b ea</w>
la şi</w>
cli pă</w>
eri c</w>
răspun sul</w>
ca mi
ţione ază</w>
tehnolog ia</w>
com un</w>
con dam
e-mai l</w>
g ea</w>
ad ap
re sp
ven e
su se</w>
ne y</w>
re ze</w>
ma xi
inte gr
ju ca</w>
analit ice</w>
ca ut</w>
fic at</w>
econom ie</w>
opri t</w>
dintr -un</w>
tre ci</w>
n -au</w>
ie s</w>
t he
m ate
ier ă</w>
z er
lan da</w>
situ aţia</w>
fur at</w>
lic en
ve şti</w>
viol en
rezul tate</w>
ele vii</w>
se din
3 1</w>
frumo ase</w>
financi are</w>
rămâ n</w>
masin a</w>
face ți</w>
tată lui</w>
ză tor</w>
în v
t abil</w>
intr -un</w>
aş adar</w>
sim te</w>
deran je
oraş ul</w>
o d</w>
in spi
ta j</w>
ce ai</w>
zi lei</w>
î ti</w>
omor ât</w>
im posibil</w>
fi lo
în cân
ser ă</w>
dea supra</w>
te me
fe licit
io asă</w>
in chi
acest ora</w>
pă că
4 .
ne lor</w>
g asi
po nen
sub stan
re vedere</w>
ver de</w>
întoar ce
închi s</w>
schimb ă</w>
recu per
in d
ocu pat</w>
biser ica</w>
do rit</w>
apl ică</w>
re le
lucr a</w>
2 5
s he
popor ul</w>
g o</w>
aştep t</w>
ui ţi</w>
e vre
împăr tă
bib li
ţ ea</w>
comple x
fe tele</w>
al ist
at ent</w>
picio arele</w>
rec en
iubi re</w>
f e</w>
ve st</w>
ge ți</w>
dă -i</w>
mu ri
căr ui</w>
st it</w>
lun gă</w>
japo ne
at ă
to m</w>
it at</w>
înă l
in seam
exce len
ti va</w>
p hi
b ân
ro lul</w>
veni ţi</w>
i ți</w>
sa -i</w>
val oarea</w>
pămân tul</w>
inter i
noro co
lo vit
în curaj
secre t</w>
urmă torul</w>
mân tu
au gust</w>
a x
cat re</w>
a h
i si</w>
noast ra</w>
pe trecut</w>
inclu d</w>
propri ul</w>
re l
publ ică</w>
me ază</w>
tri mite
ce lui</w>
pl ani
ș i-a</w>
continu ând</w>
re alitate</w>
petre ce</w>
tar ul</w>
amen tele</w>
şan să</w>
țion ale</w>
notific area</w>
comb in
ne ag
no u
de tali
sunte ti</w>
ac cident</w>
201 0</w>
ma ster</w>
gânde am</w>
de cen
europe an</w>
că zut</w>
per man
mi a</w>
mar ul</w>
fo ame</w>
aju tat</w>
mode l</w>
s ate
gen e
feric ită</w>
d r</w>
preşedin tele</w>
al co
s at
vie ții</w>
i ra
soci al</w>
po ată</w>
tin a</w>
s ar</w>
ple ce</w>
adevăr ată</w>
ori unde</w>
ast e</w>
comentar ii</w>
re f
mic ul</w>
țion at</w>
prieten e</w>
indi a</w>
ace le
ad mi
ț ea</w>
de vin</w>
a -te</w>
gr an
sal va</w>
pute am</w>
pi lo
z âmb
su per</w>
tin eri</w>
sfârş itul</w>
ri sc</w>
ex pri
vi s</w>
vân du
ma l
compe ten
ri s</w>
o data</w>
e co
min ut</w>
medi e</w>
c înd</w>
b it
polit ice</w>
pa ul</w>
navig ați</w>
s lă
atori lor</w>
â n</w>
bol na
al b</w>
z ând</w>
e s</w>
tr ate
s .
tră i</w>
stân ga</w>
re vi
iden ti
st atul</w>
fi ţi</w>
tr on
to area</w>
aliz at</w>
ti p
ru ş
artic ole</w>
aliz area</w>
siste me</w>
e zi</w>
co mite
al tor</w>
îm pru
nat ura</w>
ad or
tân ăr</w>
termin ă</w>
ace şti</w>
cuvin tele</w>
co dul</w>
urmă re
su spec
ur mat
se m</w>
t ag
de tal
se mne
a su
it alia</w>
arm ata</w>
aten ţie</w>
or aș</w>
se tările</w>
ă toare</w>
prieten a</w>
gânde şti</w>
pri ce
cla sa</w>
char lie</w>
sim ţit</w>
i mb
ie f
dori ţi</w>
io are</w>
inseam na</w>
sem n</w>
pan to
me r</w>
vizi on
ş ter
ter țelor</w>
ți me</w>
pro mis</w>
americ ii</w>
econom ică</w>
f ron
li stă</w>
ju ri
avi on</w>
uni unea</w>
leg i</w>
iubi rea</w>
ști e</w>
j er
dro guri</w>
americ ani</w>
în ve
do min
stra dă</w>
s lo
întâr zi
băi atul</w>
activ itatea</w>
indivi du
tre ia</w>
p s</w>
par tic
dre aptă</w>
ab an
z ate</w>
în altă</w>
vin de
te -
rezol va</w>
p au
folosin d</w>
încep ând</w>
speci ale</w>
crede ţi</w>
d s</w>
r ur
legă tura</w>
i toare</w>
cân te
con tul</w>
a .
absol ven
pro mit</w>
pri mi
următo area</w>
j un
imag ine</w>
prote je
detal ii</w>
cui va</w>
produ ce</w>
adevar at</w>
ţi ilor</w>
antre n
ați -vă</w>
extra ordin
avan t
transpor t</w>
am este
scu ză
a spe
reg re
ic le
regu la</w>
mul ţi
m ica</w>
ț it</w>
soci ală</w>
iubi t</w>
dra ga</w>
- ma</w>
mecani sm</w>
ti ile</w>
s hi
intere san
sur pri
nation al</w>
it ali
19 6
temp or
man u
începe m</w>
în şe
h or
aminte şti</w>
t ai
ex pre
disponi bile</w>
af l
ab on
si mb
interi orul</w>
ti ei</w>
s ala</w>
mă nu
mondi ală</w>
sap tam
to re
proiec tul</w>
an g</w>
ş apte</w>
po artă</w>
v area</w>
stra da</w>
fil mul</w>
în drep
ter meni</w>
fund amen
conce di
3 0
plic ti
mpl ă</w>
de l
per mi
lan sat</w>
copi lului</w>
constru it</w>
vizi une</w>
m n
japo nia</w>
fru c
a -l</w>
creier ul</w>
mo ară</w>
ma est
fotogra fii</w>
compl ic
cen tru</w>
înce t</w>
re ală</w>
difici l</w>
for d</w>
cul tura</w>
lip sa</w>
în ghe
mar ia</w>
re ali
st ăm</w>
aceea și</w>
evi den
ma x</w>
câşti gat</w>
ter men
obi ș
h al
care -l</w>
consu mat
cal itatea</w>
obiș nu
new s
mo bile</w>
con clu
observ at</w>
mat ice</w>
scuză -mă</w>
io ară</w>
h âr
împ ie
pericu lo
t -
educa ție</w>
sco ate</w>
fere ast
ave ti</w>
scri u</w>
prac tic</w>
inter ior</w>
înt un
vo ia</w>
natur ale</w>
su tă</w>
pi at
bene fic
m ati
ve che</w>
br an
sen z
publ ica</w>
lo cale</w>
internațion ală</w>
an ilor</w>
în d
in ta</w>
luc rarea</w>
frumu se
din colo</w>
creș tere</w>
știin ță</w>
pe di
conse cin
supravie ţu
mi ke</w>
co mi
ne -au</w>
ho u
l ent</w>
ter n
tic ă
materi ale</w>
sp re
ro st</w>
com ponen
z ei</w>
in sul
car ne</w>
apart ament</w>
inter mediul</w>
stat ului</w>
l o</w>
folosi rea</w>
fot bal</w>
asi a</w>
mu tat</w>
m o</w>
acu z
bl este
proce sarea</w>
ţi -l</w>
des c
can di
încer ci</w>
por un
r ate</w>
proprie tate</w>
gru pul</w>
bu ge
3 2</w>
du min
versi une</w>
re duce</w>
cre area</w>
consider are</w>
mo n</w>
magaz in</w>
plă cu
ită țile</w>
200 9</w>
pr a
gă du
softw are</w>
di e
o z
în fiin
rugă ci
moni tori
iubit o</w>
ru pt</w>
ca b
mo l
pe ter</w>
va d</w>
u man</w>
acele a
utiliz atori</w>
la ma
domen iu</w>
înt une
inte le
ân du
el ve
ră nit</w>
fac ili
lu ci
pă stre
rac he
în con
opre şte-te</w>
inter pre
g ele</w>
înţele ge</w>
depart amentul</w>
ajun gem</w>
defin i
f ia</w>
ură sc</w>
pl at</w>
veh ic
imp eri
bă ut</w>
cri st
der i</w>
capă t</w>
news let
mic u
la rea</w>
cău tare</w>
o -
cre ş
ast ic</w>
di c</w>
vorbe ască</w>
ref lec
l am
g uno
h r
ţi va</w>
u h</w>
tele viz
st ar
pă cate</w>
cau ţi</w>
rapor t</w>
liber tatea</w>
deci zia</w>
învăț ă
an aliza</w>
s ca</w>
leg at</w>
elec tron
ș ter
psiho log
câ ine</w>
bucă tă
plă tit</w>
ta ie</w>
pu să</w>
o u
cuno şti</w>
tex t</w>
in to
preşedin te</w>
li lor</w>
glob ală</w>
ţi -o</w>
spor t</w>
joh n
bi olog
vac an
i rii</w>
19 4
de vină</w>
sc la
consili ul</w>
core spun
cer ul</w>
americ ane</w>
- urile</w>
spec tac
lu aţi</w>
200 8</w>
cen t</w>
k i</w>
ști a</w>
win dow
măsur a</w>
leg is
i se</w>
sp ar
b ere</w>
po e
ascul ta</w>
închi de</w>
dej un</w>
c o</w>
b b
ajun gi</w>
sur prin
sa -mi</w>
rapi dă</w>
1 1
reprezen tan
pă cat</w>
ide i</w>
de n</w>
are lor</w>
lucr ul</w>
fil me</w>
uman ă</w>
lar gă</w>
i mi
fac a</w>
actualiz ări</w>
ţi al</w>
an ge
la h</w>
incredi bil</w>
gră be
țion al</w>
p la</w>
în alt</w>
intro du
propri ile</w>
ce -a</w>
ag re
zbo r</w>
ince put</w>
eficien t</w>
g rec
con centre
mă suri</w>
că -i</w>
omo r</w>
dr .</w>
v -a</w>
liv rare</w>
exist at</w>
desc rie</w>
m ori</w>
câ ţiva</w>
diver se</w>
sluj ba</w>
sal ari
câ r
tere n</w>
pag ină</w>
ju cat</w>
bă nu
com pen
in ţă</w>
între ab
so arele</w>
eveni mente</w>
re mar
sco s</w>
- lea</w>
w ard</w>
omo are</w>
afac ere</w>
fi re
glu me
u rii</w>
b at</w>
window s</w>
ur ma
t an</w>
mân cat</w>
ca se</w>
t ici</w>
nu mi
ră ni
pre sedin
folo site</w>
coman da</w>
efec t</w>
per mis</w>
ag ent</w>
o gra
mo d
condu s</w>
socie tatea</w>
for mul
we e
c lar
ma il
energ ia</w>
înțele s</w>
sur să</w>
pe dep
in ei</w>
an dro
s ine
dor mi</w>
cla să</w>
ace ştia</w>
b ar</w>
por tul</w>
medic ale</w>
leg al</w>
p ună</w>
car ti
cur at</w>
proiec te</w>
r ata</w>
ven im</w>
bibli ote
spune ţi</w>
deci zie</w>
sin guri</w>
ra y</w>
înd răz
instru c
adu ci</w>
v an</w>
g rea</w>
ascul tă-mă</w>
speri at</w>
bă n
socie tate</w>
sof t</w>
neag ră</w>
utiliz ator</w>
can cer</w>
pă r</w>
mi l
te at
trans for
grij a</w>
fă ce
se r</w>
impre sion
bun ă
zil nic</w>
bine cuvân
în tele
angaj at</w>
studen ților</w>
ie z</w>
co s
cor p</w>
mili on</w>
fic are</w>
cam pan
de i</w>
pune rea</w>
por to
re trag
pute ti</w>
mo ş
f est
be lu
ascun s</w>
u t-o</w>
rapor tul</w>
b on
nu mesc</w>
vir tu
ţ elor</w>
lin ia</w>
lă m</w>
ș o
tar i
ja mes</w>
aran j
ii suse</w>
între prin
ast ro
fun dul</w>
to ale
dez vă
ap ple</w>
al ex
schimb ări</w>
ne i</w>
h ar</w>
g an</w>
partici pan
hen ry</w>
rezi sten
di ag
ri t
leg ii</w>
span io
su ge
p ici
ac ciden
tre zit</w>
men telor</w>
rid ică</w>
comunic are</w>
trei lea</w>
pre ț
v- aţi</w>
fotogra fie</w>
teh nici</w>
sur sa</w>
standar d</w>
re uș
ș an
desig n</w>
f f</w>
cuno ştin
tra g</w>
pri mă
dez amă
văzu t-o</w>
ro ch
' s</w>
do vezi</w>
medic amente</w>
sen si
fi ule</w>
ban ca</w>
func ţionează</w>
şe ful</w>
n ica</w>
în doi
mă nă
ig nor
g ii</w>
tat i
3 00</w>
lu crezi</w>
disci pl
va da</w>
supli mentare</w>
cumpăr at</w>
lip se
exer ci
ten din
in tal
d ăr
vo cea</w>
er ului</w>
cate va</w>
itat i</w>
ştiin ţă</w>
dur ă</w>
cu prin
v al</w>
pr ân
ap rec
no n-
pre g
te st
b ate</w>
m ări</w>
memb ri</w>
domen ii</w>
tar ii</w>
p d
n- are</w>
trat ament</w>
puter nice</w>
w h
tre c</w>
compani ile</w>
medi ului</w>
secun dă</w>
di vor
u sor</w>
poli ţie</w>
făcu te</w>
demo cra
necesi tă</w>
că rei</w>
anti -
s ha
pericu los</w>
cook ie</w>
cău tarea</w>
renun ţare</w>
greu tate</w>
2 7
guver nului</w>
d u</w>
întreb area</w>
bra vo</w>
ve cin
mo sco
di scur
2 4
ul ter
distru s</w>
se di
ro ș
voast ra</w>
re z</w>
vo lun
ca sei</w>
f as
co ş
mate mat
câ ţi</w>
condu cere</w>
studen ți</w>
ajun gă</w>
fu ri
contac ta</w>
consider ă</w>
prac tică</w>
be belu
mor ţi</w>
de dic
u p</w>
ali st</w>
ade c
it uri</w>
economi a</w>
ic ile</w>
ru g
ini mă</w>
ro ma</w>
stabili t</w>
fri ca</w>
lo ve
h an</w>
creș te
ma rele</w>
memb rii</w>
tu ş
func țion
co bor
exer cit
bă tă
ști m</w>
b ic
no r</w>
găse şti</w>
în so
v ită</w>
sfâr ș
natur al</w>
ă rilor</w>
sănă tatea</w>
scă pat</w>
fu git</w>
șco ală</w>
profe sor</w>
vin eri</w>
mănân că</w>
gh t</w>
cul tură</w>
so lic
dac ă
s ea</w>
pre ce
ac ul</w>
neces ară</w>
activ itate</w>
utiliz are</w>
k ar
ciu da</w>
amb ur
o nu</w>
tim pului</w>
mun cii</w>
ger ile</w>
har tă</w>
20 20</w>
ză toare</w>
făcu tă</w>
ce -ar</w>
cad av
insu la</w>
do ne
tehnolog ii</w>
clu b</w>
mu ze
consili ului</w>
respec t</w>
asc unde</w>
jo e</w>
vinov at</w>
ex pedi
acest uia</w>
vite za</w>
z ul</w>
t ho
siguran ta</w>
sân gele</w>
anter ior</w>
go mo
prote ja</w>
u mp
al bă</w>
ş oară</w>
lu at-o</w>
ti me</w>
intam pla</w>
e-mai luri</w>
19 5
te lui</w>
pro astă</w>
e d</w>
com bu
degra bă</w>
cone xi
raz bo
vi o
răsp ân
îm pu
regu lile</w>
ţ aţi</w>
ț ările</w>
n aş
doam nelor</w>
cau ză</w>
2 ,
o xi
li u</w>
con t
de lic
at mo
îngrijor at</w>
să l
ol an
san at
g ia</w>
utiliz atorii</w>
so mn</w>
întor ci</w>
cal me
sar ul</w>
an che
5 .
ter ap
ni ște</w>
cuno aşte
sem ne</w>
at orului</w>
func ționează</w>
desp ăr
ve ti</w>
lini şti
z gomo
so l</w>
ori le</w>
instru mente</w>
se ze</w>
mun ci
ș te
d na</w>
cumpăr ă
doc torul</w>
c -
pră j
ali mente</w>
pro to
aliz ate</w>
dure re</w>
experi men
do bân
c atul</w>
mo bil</w>
dur e</w>
te d</w>
ale gerea</w>
v are</w>
un chiul</w>
to arele</w>
resur se</w>
rezultat ul</w>
su port</w>
pier d</w>
gro az
comisi a</w>
acela si</w>
z b
t t
ale x</w>
ofer im</w>
meto de</w>
ap ar</w>
u tă</w>
din a
ba ie
băie te</w>
le -ai</w>
ace rea</w>
scump o</w>
la s-o</w>
găse ască</w>
ac tiv</w>
întâmp le</w>
ocu p</w>
ac te</w>
ș ase</w>
gener ale</w>
păr ul</w>
ob ser
ne şti</w>
tră it</w>
v p
che ia</w>
vi deo
si ei</w>
m ut</w>
fl or
w ar
minun ată</w>
x ic
arhi tec
se t</w>
comple tă</w>
utiliz ate</w>
ofi ţ
cri p
t nt</w>
pe tr
comerci ale</w>
3 3</w>
m ã</w>
crește rea</w>
aprop ie</w>
u p
indu st
cla s
er ia</w>
al tern
felicit ări</w>
mun ce
ti le</w>
mu ş
bărb aţi</w>
ă ia</w>
at itu
i une</w>
scri soare</w>
ne v
lini şte</w>
știin ți
pămân tului</w>
mes ajul</w>
it are</w>
cre ște</w>
în do
ru c
investi g
sun a</w>
ar ab
so rii</w>
n av
it -o</w>
par o
îmbunătă ți
nego ci
ar mele</w>
te st</w>
avo cat</w>
re por
administ ra
200 7</w>
întoar cem</w>
bu sine
ţi- e</w>
apar i
x e
in si
f u</w>
păre re</w>
are n
3 6</w>
w ash
civi liz
0 .
re lat
subiec t</w>
radi o</w>
b ai
at ură</w>
mani fest
mân tul</w>
span ia</w>
mul țime</w>
k a
activ e</w>
micro soft</w>
uni c</w>
nenoro cit</w>
cap abil</w>
pro cur
autori tăţile</w>
scuz aţi-mă</w>
risc ul</w>
com pute
ro bert</w>
al ții</w>
i isus</w>
curen t</w>
ri ch
recuno scut</w>
ap el</w>
sar cin
pă tr
sfârș itul</w>
2 6
gra de</w>
termin a</w>
sun e
chest ii</w>
ț ara</w>
cir cu
imp lemen
cado u</w>
oper aţi
bo n</w>
u m
ț ină</w>
o aspe
liber ă</w>
arun cat</w>
consider at</w>
s ã
potri ve
pri vat</w>
mol do
distru ge</w>
ie l</w>
am bi
scă zut</w>
jo ci</w>
si mplă</w>
can ada</w>
al ii</w>
st rează</w>
încer căm</w>
ră b
an dre
cere rea</w>
dezvol ta</w>
ti lor</w>
lin ie</w>
do are</w>
func ție</w>
wash ing
sec torul</w>
in cen
ado le
presu pun</w>
ap reci
zo ne</w>
adău g
pră bu
vor bă</w>
in spec
imagin ea</w>
pi ață</w>
atin s</w>
maș ină</w>
p â
mar y</w>
combu sti
protec ţia</w>
națion al</w>
guvern amen
ser ve
di spu
austr alia</w>
tr ai
re ge</w>
oraș ul</w>
z on</w>
ac h
g or
sti l</w>
b in
recuno sc</w>
limb ă</w>
fiz ică</w>
aju ţi</w>
incen di
ie ște</w>
m y
capito lul</w>
sluj bă</w>
sc at</w>
lo cal
poli tic</w>
ma mi</w>
to nul</w>
regul i</w>
i st</w>
go l</w>
g h</w>
feme ilor</w>
af lu</w>
tru mp</w>
eveni ment</w>
tra fic
i era</w>
al lah</w>
simp to
h ab
pi ața</w>
uni unii</w>
atmo sfer
po n
mulţi me</w>
des en
tin ă</w>
sin uci
refu gi
min cin
unde -i</w>
studi ul</w>
du h
core ea</w>
guver n</w>
program ului</w>
op timi
tran sp
gru puri</w>
et c</w>
ha ine</w>
mij loc</w>
n an
so vie
pri ori
reg ion
2 8
reg ina</w>
rec lama
intere sează</w>
ma x
stat ist
pi st
minist erul</w>
au ten
sim ti</w>
prive ște</w>
perfec tă</w>
deose bi
amb as
r y
sc o</w>
manage mentul</w>
să- ți</w>
pl ac
confiden ţi
cercetă torii</w>
v ăr
prezen ta</w>
en tul</w>
par cursul</w>
lun ii</w>
mes aje</w>
deschi să</w>
so m
contr ol
înco ace</w>
pici orul</w>
in tru</w>
e ţi</w>
cău tat</w>
schimb area</w>
condu c</w>
perso anelor</w>
b uri</w>
ti -am</w>
k ing</w>
uş ă</w>
utiliz at</w>
pho ne</w>
posi bilă</w>
re țea</w>
or at</w>
con şti
che mat</w>
4 8</w>
sti m</w>
a de</w>
si -a</w>
ni mănu
tră im</w>
s ări</w>
di viz
bo ala</w>
po se
gân di</w>
dur ata</w>
newslet ter
b as
sufle t</w>
căr ţi</w>
nimănu i</w>
sac ri
loca l</w>
fa i
brow ser
3 8</w>
d v</w>
0 ,
sk y</w>
ha inele</w>
cre dit</w>
încon jur
ui te
p în
func ţion
ie rea</w>
dure rea</w>
ști ți</w>
viz itat
bă tut</w>
au zi
ţi uni</w>
respons abil</w>
îndoi ală</w>
glob ale</w>
îmb ă
seco lul</w>
spre zece</w>
si vă</w>
conver s
popor ului</w>
ucra ina</w>
h am
har ry</w>
direc torul</w>
securi tatea</w>
ne s</w>
der ii</w>
au tor</w>
di stin
deose bit</w>
cre şte</w>
dub lu</w>
scri p
pro mi
con țin
cri mă</w>
mu sul
redu cerea</w>
drăgu ţă</w>
s ată</w>
redu cere</w>
mai l</w>
greşe ală</w>
ri scu
fă cea</w>
ac o
ci u</w>
supăr at</w>
cunoscu te</w>
acţi une</w>
econo mic</w>
af acerea</w>
re public
di versi
cur tea</w>
ați ilor</w>
între agă</w>
liber tate</w>
on i</w>
g ie</w>
rămân ă</w>
spiri tu
inter ne
demon str
con serv
ie se</w>
ele mente</w>
şi -au</w>
cor pului</w>
op in
on -
se min
s fin
poliţi st</w>
in ciden
fur t
z ele</w>
dezvol tat</w>
bo b</w>
măr turi
veni rea</w>
cu tie</w>
adău gat</w>
suprave ghe
ocaz ia</w>
mod alitate</w>
k o</w>
americ ană</w>
nic ă
ca n</w>
u ta</w>
moder ne</w>
en ti
cunoștin țe</w>
di sper
î r
st in</w>
n- aş</w>
urmă tor</w>
d nă</w>
ati ile</w>
fran ci
credin cio
pără sit</w>
superio r</w>
bol i</w>
i men
locu i
si ve</w>
rid ice</w>
softw are
al d</w>
ma c</w>
nebun ie</w>
it ule</w>
ci f
7 5</w>
pl ată</w>
mi -o</w>
s âmb
dez ast
aplic are</w>
ali mentare</w>
car ieră</w>
tex tul</w>
ien e</w>
cli ent</w>
b inele</w>
f ul
an ali
ple caţi</w>
direc tor</w>
k at
ase le</w>
ono are</w>
al ti</w>
- n</w>
o are
fi zice</w>
desfă ș
si mul
s .</w>
newsletter uri</w>
bu c
z ată</w>
6 5</w>
prac tic
mer si</w>
dezvă lu
bi la</w>
mosco va</w>
exter ne</w>
pri vată</w>
sem na</w>
l ap
ob li
caracterist ici</w>
uit ăm</w>
ca se
lucre ze</w>
inf o</w>
mode lul</w>
dra g
vede rea</w>
plane ta</w>
ase ară</w>
ali ment
z bur
fic area</w>
li der</w>
dimine ata</w>
speci ală</w>
vin de</w>
utili za</w>
căsători t</w>
d am</w>
biser ică</w>
auto mat</w>
ac tul</w>
fran ța</w>
e u
constru i</w>
gr ani
mat ei</w>
abili tăți</w>
lă săm</w>
i po
aştep ta</w>
tri mit</w>
gener ală</w>
3 7</w>
nevo ile</w>
imag ine
întoarce -te</w>
pla j
ce -am</w>
mo artă</w>
in ță</w>
dul ce</w>
re publica</w>
so area</w>
pre tin
po mp
b by</w>
vă m</w>
si tă</w>
ang lia</w>
1 -
cunoscu tă</w>
crede rea</w>
rid ica</w>
pl acă</w>
pozi ţia</w>
ar ate</w>
sprij in</w>
președin tele</w>
no st
ge lui</w>
20 00</w>
informa țiile</w>
colec tate</w>
aprop o</w>
e ască</w>
0 -
pre țul</w>
andro id</w>
financi ar</w>
de z</w>
actu ale</w>
site -uri</w>
informat ii</w>
tur cia</w>
căr uia</w>
for mare</w>
ită ţile</w>
aju tă-mă</w>
memb re</w>
al -
a y</w>
flo ri
de ze</w>
gră ma
fi x
resp in
cheltu ie
pur ta</w>
avi onul</w>
tre n</w>
mân carea</w>
între g</w>
siste mele</w>
se z</w>
aplic ații</w>
ati va</w>
înce tează</w>
bolna v</w>
de şte
maş ini</w>
fotogra fi
convin s</w>
aș tere</w>
sol d
fran ţa</w>
s che
rezul tat</w>
me ci
speci fice</w>
fic a</w>
exce lent</w>
du că</w>
ocu pă</w>
mo are</w>
men tului</w>
lo go
b lu
st abi
ob ţine</w>
apropi at</w>
atâ tea</w>
tul bur
spu se</w>
carac ter</w>
ze z</w>
versi unea</w>
ur mat</w>
trans mi
te me</w>
produ selor</w>
elec tro
cli c</w>
drep turi</w>
mân ca</w>
iube şti</w>
cuno aşte</w>
ace i</w>
gra d</w>
busine ss</w>
ur at</w>
at eri
administ r
san c
ini ți
secre te</w>
con gre
înregist rare</w>
doctor e</w>
mă re
fo cul</w>
egi p
abili tățile</w>
pas ag
i .
inter ven
de ază</w>
băie ţii</w>
bi ll</w>
apăr are</w>
sco ala</w>
min ţi</w>
vite ză</w>
le ze</w>
aştep tat</w>
pat ru
bic icle
între gul</w>
pie lea</w>
co bo
acți une</w>
di avo
cite sc</w>
omor â
tat ii</w>
tră iască</w>
h ăr
pe te</w>
cre ează</w>
cali for
om ori</w>
nică ieri</w>
e po
do vede
z ic
ți -vă</w>
hotăr ât</w>
char les</w>
bărb atul</w>
autori tatea</w>
3 4</w>
re zi</w>
cre ştin
te l</w>
ar gu
ace ști</w>
ve ază</w>
tă re
minist rul</w>
j im</w>
di fu
mer geţi</w>
se n</w>
accep tat</w>
3 5
vându t</w>
numer oase</w>
ne ur
servici ilor</w>
mili tare</w>
car iera</w>
- si</w>
p area</w>
sur se</w>
ne mer
di a
af la
cla si
spați u</w>
vro iam</w>
are stat</w>
af li</w>
ra dio
sf ar
n ave
fan to
cra n</w>
t y
f esti
cău ta</w>
anima lele</w>
n ea</w>
mă rii</w>
fa n</w>
6 .
e cran</w>
me ci</w>
bucu rie</w>
întâlni m</w>
sco t</w>
că rile</w>
in ţa</w>
limb i</w>
ast azi</w>
ne ască</w>
spectac ol</w>
con soli
bun ica</w>
șco ala</w>
pre n
au stri
să ri
in ver
ad am</w>
protec ția</w>
printr -o</w>
pl anu
ner vo
3 9</w>
pac ea</w>
pre siune</w>
ale gere</w>
ch ic
viz ita</w>
mi er
ap ei</w>
bo gat</w>
refu zat</w>
aj ului</w>
forma rea</w>
în săr
so ara</w>
nu tri
nenoro ci
loc ală</w>
fle xi
b ei</w>
person ală</w>
cio col
og lin
nume şte</w>
condi tii</w>
miş că</w>
reuș it</w>
3 ,
implic at</w>
dove dit</w>
întreb i</w>
aten ție</w>
9 9</w>
reg lemen
mă m</w>
intere s</w>
anu al</w>
so sit</w>
an na</w>
ce asul</w>
inter ne</w>
plăte sc</w>
mode le</w>
instru ment</w>
ține ți</w>
an ul
fă -o</w>
însăr cin
sim ți</w>
călă tori
cetă ţ
ţ el</w>
du ş
mănân ci</w>
ingin erie</w>
wo od</w>
restaur ant</w>
condi ții</w>
c ati</w>
wil li
uti l</w>
tr ul</w>
imp act</w>
cetă ț
ne po
de pla
en tă</w>
efec te</w>
ro n</w>
p ci
albast ru</w>
s k</w>
dispozi tive</w>
dispozi tiv</w>
g la
creş tere</w>
zer o</w>
pe de
gasi t</w>
datori a</w>
ca l</w>
lic hi
drep turilor</w>
leg i
iube şte</w>
fan t
con curen
aţi lor</w>
totu si</w>
par i</w>
v ie</w>
regi unea</w>
profi t</w>
fap tului</w>
u le
jocu rile</w>
alt ora</w>
se zi</w>
e .</w>
continu at</w>
la se</w>
gi me</w>
sti lul</w>
imp ri
du rează</w>
învă ţă
pier zi</w>
gan de
eur op
ur ât</w>
războ iului</w>
ale lor</w>
gen un
ţ ului</w>
be th</w>
coleg ii</w>
reci pro
adole scen
h i</w>
consu mul</w>
potri vi
fe telor</w>
f t</w>
chi le</w>
bi li</w>
tr ân
sâmb ă
câ inele</w>
materi al</w>
între bă
grăma dă</w>
washing ton</w>
confidenţi alitate</w>
centr ală</w>
medic ală</w>
cere re</w>
tică lo
întun eric</w>
ste in</w>
no ile</w>
impre una</w>
chi rur
arm ată</w>
st ei</w>
frumo asa</w>
bo nu
den umi
200 6</w>
ment s</w>
vân zare</w>
bu z</w>
zo ni
lo ui
electri ce</w>
ă st
locu rile</w>
în ger
urmă toare</w>
plă ti</w>
kilo metri</w>
mi toare</w>
ţ ată</w>
leg ale</w>
le -au</w>
aşte ptăm</w>
regi une</w>
ân du-se</w>
de penden
apropi ere</w>
per mit</w>
ne -ai</w>
to ny</w>
o pe
mai mu
france ză</w>
sfân t</w>
ce -ţi</w>
la sa</w>
ani c</w>
mail .com</w>
he l
bătr ân</w>
- nu</w>
rele van
baz ează</w>
tru pul</w>
fo to</w>
le gen
hou se</w>
mâ ini</w>
je c
re lor</w>
deranje ază</w>
v ag
schimb e</w>
anu mit</w>
su le</w>
sc ară</w>
plă ti
pag ini</w>
re ale</w>
nu marul</w>
locu iesc</w>
le -
din ea</w>
mând ru</w>
ce -
ze zi</w>
inte les</w>
ce ţi</w>
s ală</w>
prezen tat</w>
intam plat</w>
tran da
de stu
sufer it</w>
națion ale</w>
bucătă rie</w>
urmă rit</w>
pede ap
minci ună</w>
hâr tie</w>
biser icii</w>
grec ia</w>
aște aptă</w>
po ve
ne şte</w>
ui mitor</w>
utiliz ați</w>
e m
acest e
lup te</w>
l s</w>
face ti</w>
u sa</w>
fir -ar</w>
ex amin
ist an</w>
d y
acor dul</w>
ven ind</w>
me tro
2 9
ci lor</w>
atri bu
de plin</w>
mo duri</w>
jo ace</w>
dor mitor</w>
comun itatea</w>
ast ruc
artic o
inte lec
ori când</w>
i an</w>
bo ok
s ab
nun ta</w>
l apte</w>
con ști
ru gat</w>
ce lor
şco ala</w>
pri vate</w>
câte odată</w>
s că</w>
bib lia</w>
în nebun
r ată</w>
scur tă</w>
cal d</w>
po arte</w>
păr ţi</w>
tw it
vorb ind</w>
tre acă</w>
ru s</w>
inteligen t</w>
adu că</w>
nu mită</w>
pan tal
hotăr â
dore şti</w>
bun ic
viz ită</w>
un t</w>
săr ă
scen ă</w>
sar ah</w>
întâl ni</w>
parten eri
st adi
sim ţi
ma ster
gândi m</w>
dumin ică</w>
camp ion
studi ile</w>
stic lă</w>
i lu
cumpăr a</w>
c y</w>
so are
lo co
jo i</w>
culo area</w>
zi lor</w>
le mn</w>
ad ica</w>
re alitatea</w>
n as
ma ţi</w>
cre şte
in at</w>
favo ri
pie le</w>
c iti</w>
re stric
pe -
lin g</w>
val ori</w>
lă sa
con tului</w>
f la
bili tate</w>
plimb are</w>
gă tor</w>
co rup
us d</w>
lat er
bi r
acce sul</w>
în că
n o</w>
abi la</w>
să- ti</w>
gra v</w>
coman dă</w>
alex an
înregist rat</w>
parten er</w>
împuş cat</w>
t ici
d ică</w>
plăcu tă</w>
po lon
s amb
4 00</w>
so co
sate lit</w>
mul tor</w>
into ar
buz un
ar ile</w>
a eri
infr astruc
en ilor</w>
re venit</w>
pe scu
i ri</w>
ave ai</w>
amb al
învăț are</w>
ie tate</w>
be au</w>
împ in
cre ier</w>
po men
4 2</w>
vi sul</w>
aceste ia</w>
sin g
dor m</w>
păr inte</w>
i asă</w>
ag o</w>
nu m
indust rie</w>
g ine</w>
sk i</w>
uit aţi</w>
cri za</w>
şti ai</w>
wee ken
h it
clădi re</w>
itat ii</w>
al bu
sedi ul</w>
k s</w>
leg ile</w>
in apoi</w>
grat uite</w>
af lăm</w>
situ aţie</w>
on- line</w>
ist e</w>
e misi
chin ei</w>
te ma</w>
rec ente</w>
s ori</w>
ve lor</w>
fă când</w>
adau gă</w>
2 -
premi ul</w>
ţine m</w>
sf aturi</w>
iz ol
progra mele</w>
- va</w>
z ute</w>
fap te</w>
ân du-
exist e</w>
aştep ţi</w>
con fu
pl u</w>
gar ia</w>
tu le</w>
s w
român ă</w>
ace știa</w>
în crederea</w>
spec t
s u</w>
obişnu it</w>
succe sul</w>
distrac tiv</w>
cău tăm</w>
în să
nat ură</w>
ină tate</w>
pă dure</w>
lăs aţi</w>
j i</w>
tat al</w>
pozi ția</w>
înche iat</w>
tân ără</w>
copi lă
aştep taţi</w>
invit at</w>
s este</w>
b an</w>
afec tează</w>
mor ţii</w>
ste ve</w>
zi ile</w>
dan s</w>
surpri ză</w>
intr i</w>
de ți</w>
califor nia</w>
ți ale</w>
respons abilitatea</w>
europ ei</w>
cre ască</w>
bo ală</w>
xi c</w>
sol dat</w>
s cap
j im
func ţie</w>
cu lui</w>
ber g</w>
intr are</w>
po ze</w>
apăr at</w>
pozi ţie</w>
por tu
deschi se</w>
ag ra
spaţi u</w>
pu t
io an</w>
între ru
pen sion
o rează</w>
jac k
înţele gere</w>
potri vă</w>
in regist
ie rele</w>
max im</w>
in t</w>
ar ilor</w>
bucur a</w>
judec ată</w>
națion ală</w>
var sta</w>
obic e
cru ci
pă m</w>
apart amentul</w>
7 .
ti one
pu şti
de pre
su pre
i -ar</w>
ch ea</w>
ger man</w>
labor ator</w>
a bo
tă tor</w>
semnific ativ</w>
po lu
or as</w>
pi ata</w>
parten erul</w>
împru mu
tre cem</w>
suprave gh
miş care</w>
to am
să vâr
ss -
epi so
du cem</w>
cerce tarea</w>
ş ul</w>
întâl nesc</w>
ze aza</w>
plane tă</w>
ţ ările</w>
fier b
plan uri</w>
fo stul</w>
ferici rea</w>
expl ica</w>
mun te</w>
obo sit</w>
comun itate</w>
co stă</w>
pd f</w>
it ar</w>
ca me
titu dine</w>
chi mice</w>
tat or</w>
institu tul</w>
ale gerile</w>
8 .
sănăto s</w>
popu lare</w>
sca pe</w>
oli mp
mar tin</w>
însu şi</w>
mo mente</w>
leg atura</w>
ş ii</w>
na va</w>
ex ten
efec tele</w>
k y
stu dent</w>
pli c</w>
dec lan
produc ție</w>
prezin ta</w>
de lor</w>
cu p
ser gen
fierb inte</w>
ca fe
ase mănă
1 :
ener ge
nic k</w>
sco purile</w>
confi gur
site -ului</w>
mac ar</w>
gen e</w>
teori a</w>
ser ia</w>
mi lo
eli be
difer ită</w>
centr al</w>
re viz
petre cerea</w>
pri mii</w>
îngro zi
propri u</w>
cast i
moldo va</w>
intr area</w>
oc ciden
d ica</w>
ţ ăr
întreab ă</w>
dori m</w>
bit co
d aţi
sar i</w>
per mite
cultur ale</w>
bri t
en a</w>
trat amentul</w>
acoper i
moş ten
ke y</w>
en or
căpit ane</w>
r ambur
mu rile</w>
condu cerea</w>
struc tura</w>
bi n</w>
aspec t</w>
ar iul</w>
i mun
gu st
ge am</w>
fu sese</w>
bărb aţii</w>
ve ş
stră inătate</w>
ră tă
p aş
oraș ului</w>
demo c
ch it
aero portul</w>
verific at</w>
ex por
partic ul
medi c</w>
nu -ti</w>
le e</w>
tâ mp
tri bun
to n
p in
com une</w>
anima l</w>
ace ia</w>
sti mul
du rilor</w>
ce -mi</w>
experien ța</w>
stabili tă</w>
vo ce</w>
sănă tății</w>
sexu al</w>
g ab
fami lii</w>
tri i</w>
ne bună</w>
meto dă</w>
mar ca</w>
dar ul</w>
deo cam
z ări</w>
tranda fi
s ment</w>
glu mă</w>
bărb ați</w>
pen dent</w>
par iu</w>
apro pie
adân c</w>
teritori ul</w>
întârzi at</w>
po arta</w>
lucră m</w>
dumneze ul</w>
blo cat</w>
pier derea</w>
inter national</w>
şe sc</w>
respons abile</w>
de fec
un ică</w>
presu pune</w>
gra dul</w>
echip ei</w>
der ile</w>
ap ele</w>
un g</w>
lo n</w>
fron ti
crede -mă</w>
ţi -mă</w>
twit ter</w>
celu le</w>
aș te</w>
intere sat</w>
ş er
experien ţă</w>
ofer e</w>
păr ut</w>
princip ală</w>
prezin t</w>
par i
profesion ale</w>
con cer
atrac ții</w>
ne -ar</w>
con ține</w>
nucle are</w>
mo tiv
er oare</w>
conce put</w>
in it</w>
ar o
t te</w>
respec tiv</w>
mondi ale</w>
ce l
ac h</w>
vân ză
sco r
intre b
constan t</w>
dra gu
cir ca</w>
medic al</w>
e- n</w>
țion are</w>
evit a</w>
c ie</w>
săr u
subiec tul</w>
deci zii</w>
an o
compute r</w>
ru siei</w>
păre rea</w>
parti dul</w>
minist ru</w>
mar k</w>
acce si
9 5</w>
st iti</w>
secre tul</w>
facul tate</w>
întoar că</w>
re compen
uci g
p ele</w>
urgen ţă</w>
on or
g amă</w>
d dy</w>
ru lui</w>
tur ne
to to
pu le</w>
ale geri</w>
ac i
pi sc
f lă
trans format</w>
jim my</w>
200 5</w>
software -ul</w>
mag ne
lo i
ocu pa</w>
lu ate</w>
bili tatea</w>
ar bi
comport amentul</w>
tat orii</w>
pre o
dub lă</w>
mi re
învăț at</w>
ur â
am ant</w>
sus pen
d va</w>
ali men
s ci
docu mente</w>
si tul</w>
du pă
o che
ini ţi
tur e</w>
to tală</w>
pro cen
intelec tu
refer itoare</w>
calcul ator</w>
te ste</w>
pro stii</w>
cin ci
strân s</w>
lar g</w>
5 5</w>
vorb esti</w>
glume şti</w>
că -l</w>
ș apte</w>
tele viziune</w>
in tor
opre şte</w>
fir ma</w>
so ri
ridic ă-te</w>
di seară</w>
er s</w>
ţi unea</w>
stabi le
simp le</w>
go are</w>
ex cur
a fiș
9 .
tine re
pu tin
le n</w>
dore şte</w>
ser ver
folose ască</w>
aban don
vizi unea</w>
r am</w>
por ţi</w>
ofer ta</w>
dan iel</w>
y e
lucr are</w>
s se
pu ţină</w>
profes orul</w>
man a</w>
fri g</w>
contro la</w>
aten ţia</w>
ulter ior</w>
zo nele</w>
efec tul</w>
m s</w>
cu tre
rezer vate</w>
înce pi</w>
as as
wil l</w>
le t</w>
ia -o</w>
fruc te</w>
por ni
cre st
anu mită</w>
po lo
plan te</w>
creier ului</w>
video cli
u d</w>
len a</w>
pen siuni</w>
bun icul</w>
un it</w>
pi aţa</w>
eco log
tin ere</w>
ruş ine</w>
te sc</w>
stră ini</w>
sub lini
si l
rich ard</w>
o şi</w>
constitu ie</w>
etiche tă</w>
aero port</w>
tr ac
mier curi</w>
domni şoară</w>
cur aj</w>
scă pa</w>
pro fun
pri zoni
scu m
universi tate</w>
ex trate
atori e</w>
supravie ț
nu- şi</w>
d un
vp n</w>
ra b
l ara</w>
me lo
st on</w>
de ţinut</w>
de poz
activ ități</w>
tră ieşte</w>
i ro
aste apta</w>
ne u
deci de</w>
în o
verific a</w>
prin d</w>
cine -i</w>
accep ta</w>
seco lului</w>
maș ini</w>
k g</w>
țion ală</w>
pără se
lac ri
i sa
to ne</w>
prieten ă</w>
lin g
calme ază-te</w>
pau ză</w>
mă tuş
lin k
lic eu</w>
car bon</w>
at lan
sâmbă tă</w>
privin ţa</w>
cre adă</w>
ț are</w>
ia d</w>
ma re
li br
me d
utiliz atorilor</w>
pre ţ</w>
pl ata</w>
corec tă</w>
vizu aliz
pun ere</w>
mar ii</w>
mi e
discu ta</w>
at ea</w>
vo i
pi aţă</w>
k u
limi ta</w>
hote lul</w>
ține rea</w>
o chi
fi zic</w>
can ă</w>
4 4</w>
ad ver
ro man</w>
fiș iere</w>
viz it
re cor
internaţion ale</w>
confiden ți
popo r</w>
pic ior</w>
itu rile</w>
bi lul</w>
obiec te</w>
nenoroc itule</w>
diag no
chest ie</w>
s mar
n ame</w>
înțele ge</w>
or din</w>
b la
su ma</w>
oper at</w>
it orului</w>
st ice</w>
pa har</w>
facul tatea</w>
afac erilor</w>
opre sc</w>
f arm
mo du
de misi
comun ă</w>
maj ore</w>
mor mân
h ră
loco ten
cer ului</w>
t ã</w>
ţion al</w>
tho mas</w>
gr ame</w>
tre nul</w>
recuno scă
o ne</w>
mar gin
fereast ră</w>
dific ul
tre p
an ei</w>
între ba</w>
dă -te</w>
descoper i</w>
ți uni</w>
german ă</w>
ap or
trans forma</w>
mo tor</w>
mo ise</w>
meto da</w>
dumnea voastra</w>
asisten ță</w>
aliz ată</w>
uti le</w>
gânde şte-te</w>
di z
protec ție</w>
po t
he r</w>
pe tro
miş ca</w>
fo x</w>
atra ge</w>
sufer ă</w>
că -ţi</w>
învă ța</w>
ar ată
a- și</w>
p ai</w>
sto p</w>
comerci al</w>
cli pa</w>
m- aş</w>
polit ici</w>
mi lă</w>
bi ju
af le</w>
tit lul</w>
lun gi</w>
car to
parten eri</w>
gă m</w>
folose şte</w>
c -o</w>
ati v
- ami
b ici
do vadă</w>
internaţion al</w>
tă ților</w>
o lu
mijlo ciu</w>
pre să</w>
posi bile</w>
ş u
teh nică</w>
tat -o</w>
b ab
televiz or</w>
încăl zi
ate li
ră u
capit ala</w>
3 -
sen sul</w>
ri ei</w>
pîn ă</w>
ju mat
informa ţiile</w>
arun că</w>
xe li</w>
cump ar
af uri
tri st</w>
piat ră</w>
muz ic
alco ol</w>
părin ții</w>
con stat
aceea si</w>
mb a</w>
ero u</w>
să rit</w>
s nu
guno i</w>
consul tan
be t</w>
b ită</w>
ţ ării</w>
pl astic</w>
mi -l</w>
ur e</w>
spiri tul</w>
li ve</w>
in totdeauna</w>
dra gul</w>
câşti ga</w>
me xic
e go
an tul</w>
teh nic</w>
continu u</w>
im potriva</w>
discu tat</w>
simi lare</w>
coman dan
prac tica</w>
p atul</w>
vic toria</w>
ni si
impl ică</w>
descri se</w>
par in
opți uni</w>
b ra</w>
nă scu
dor mit</w>
groaz nic</w>
cal cu
spune am</w>
fiș ier</w>
r ã
oper are</w>
distan ţă</w>
idio t</w>
supli ment
fac tori</w>
dou ă
den u
c y
bor d</w>
aplic area</w>
g mail.com</w>
aș adar</w>
profesion ală</w>
că tor</w>
comp ati
te ore
si ria</w>
câ mp
solu ții</w>
so ţie</w>
petr ol</w>
senti ment</w>
mi- aş</w>
gru pului</w>
po stul</w>
mon d</w>
asi gur</w>
ştiin ţa</w>
po zit</w>
sun i</w>
sprij inul</w>
d ge</w>
pra f</w>
in am
vo t</w>
sk y
proto co
gre le</w>
m atic</w>
cit y</w>
1 50</w>
isra e
spi rit</w>
tin erii</w>
public itate</w>
muze ul</w>
e şte</w>
adevăr ata</w>
vi goare</w>
i phone</w>
păstr a</w>
4 7</w>
ale gi</w>
reg atul</w>
ho mo
contr act</w>
cal en
ale g</w>
nat urii</w>
soare lui</w>
re aliza</w>
inter viu</w>
ca de</w>
tr o</w>
t ã
oraş ului</w>
fi ului</w>
brit anic</w>
pro stie</w>
expl or
co ordon
c ai</w>
îndepl ine
naţion ală</w>
exe mp
cite ste</w>
închiri ere</w>
plaj ă</w>
min ţit</w>
discu tăm</w>
obiec tivul</w>
ho st
grăbe şte-te</w>
ș i-au</w>
univer sul</w>
președin te</w>
o i</w>
a .</w>
într u
sla b</w>
b log
spune -le</w>
pro fund</w>
ofer ite</w>
ie m</w>
îmbă trân
pă lă
comentar iu</w>
ar h
mili tar</w>
schimb ul</w>
rec l
energ iei</w>
re gelui</w>
v ant</w>
po ză</w>
pi xeli</w>
as ã</w>
lip sit</w>
refer ă</w>
o u</w>
sper ăm</w>
ser i
gr i</w>
încer care</w>
sti c</w>
lup tat</w>
al l</w>
în tă
por t
cul care</w>
ban că</w>
2 :
val or
raspun s</w>
pe şte</w>
c t</w>
obi snu
cu cer
apart amente</w>
ţine ţi</w>
trecu tul</w>
intere sul</w>
aț ilor</w>
ar gin
wal ter</w>
j an
ţi -i</w>
vră ji
fap tele</w>
ex pi
tiv i</w>
legis la
duh ul</w>
planu rile</w>
pache t</w>
dan ny</w>
exist ente</w>
cu po
dur at</w>
sfâr șit</w>
numer e</w>
efor t</w>
eliber at</w>
potri vită</w>
orien tul</w>
f uri</w>
să turat</w>
por nit</w>
con ținut</w>
se ori</w>
produ sul</w>
cu tia</w>
confrun tă</w>
at iei</w>
z du
to s</w>
so arta</w>
li re</w>
co ro
w at
vac cin
ben z
situ at</w>
plă nu
p it</w>
ascul t</w>
a -mi</w>
ști ri</w>
schimb ările</w>
guver nat
ascul ţi</w>
plăte ască</w>
har ta</w>
economi ei</w>
sp ati
s mi
mat ul</w>
importan ta</w>
ar s</w>
îndrăgo stit</w>
in ilor</w>
bău tură</w>
di alo
ă nă</w>
an u</w>
vul ner
nor ve
b ate
stră luci
proprie tatea</w>
mulţu mim</w>
cri ză</w>
benefic ii</w>
mi ster
cli matice</w>
plân ge</w>
ex plic</w>
de si</w>
cump ere</w>
rat at</w>
e lic
cul ori</w>
v am
naţion al</w>
fai mo
căr ți</w>
ma jo
baz at</w>
aspec te</w>
credin ţa</w>
neg re</w>
ţi ş
u lei</w>
resur sele</w>
sca un</w>
mo dal
maxi mă</w>
răz bun
nevo ia</w>
la să-l</w>
celu lele</w>
wa y</w>
noroco s</w>
pre ț</w>
paro la</w>
zon ul</w>
sar cina</w>
comple te</w>
co sta</w>
4 3</w>
în mormân
us ali
in vi
bucu re
tre z
plo aie</w>
mili tară</w>
g ului</w>
cu rile</w>
obiec tivele</w>
norma lă</w>
isra eli
ince pe</w>
ic ă-
gr ati
câști gat</w>
r ar</w>
deocam dată</w>
cul turii</w>
oportun ități</w>
căpit anul</w>
re dus</w>
interesan te</w>
ghi d</w>
che r</w>
h y
condi ţii</w>
to m
i p
creşte rea</w>
be i
ră dă
am pren
h ong</w>
clien ții</w>
tehnolog iei</w>
filo zo
asigur area</w>
ţion ale</w>
i -o</w>
dat -o</w>
anun ţat</w>
căsă torie</w>
aț ion
te ren
polit ici
echip amente</w>
di stre
olog ie</w>
ier usali
ga z</w>
clădi rea</w>
co n</w>
an ne</w>
polon ia</w>
qu e
prive sc</w>
ț ării</w>
for ţa</w>
digit ale</w>
nun tă</w>
ne apărat</w>
că rii</w>
apart ments</w>
şe şte</w>
supravegh ere</w>
4 9</w>
salv are</w>
pre sa</w>
aş a-i</w>
rez olu
vit am
victi me</w>
istori c</w>
evalu are</w>
univer s</w>
tu it</w>
financi ară</w>
came rele</w>
dezvol tării</w>
deosebi re</w>
s .com</w>
limi tat</w>
tar ziu</w>
sp unde</w>
s o</w>
ma scu
sp am</w>
b altă</w>
3 6
de vii</w>
a spi
pă stra
recuno scu
m da</w>
clien ți</w>
bru sc</w>
st ele
4 1</w>
parti dului</w>
me xic</w>
re di
pu ri
com puter
spit alul</w>
ch ris</w>
c m</w>
in fer
hit ler</w>
călă toria</w>
v ai</w>
pie se</w>
200 4</w>
do sarul</w>
cre sc</w>
sc rii</w>
j ane</w>
categori e</w>
in o</w>
ce lei</w>
d ră</w>
prefer at</w>
cir cum
căr ora</w>
costu m</w>
contr a</w>
gen et
tr aver
sa -si</w>
plat forma</w>
gre ş
ter min</w>
f at
c rac
at urile</w>
plicti si
pac i
cân dva</w>
tax i</w>
sim tă</w>
scuz aţi</w>
l ată</w>
ca mere
ascul tat</w>
an samb
sur a</w>
bitco in</w>
obiec t</w>
k y</w>
f bi</w>
extraordin ar</w>
apl ica</w>
je fu
hi dro
că -mi</w>
br azi
scen a</w>
gră si
tu r</w>
lo g</w>
jucă tori</w>
groza vă</w>
gal ax
france z</w>
pro por
periculo ase</w>
dat ore
oraș e</w>
nici unul</w>
p .
licen ță</w>
eficien te</w>
îmbună tăți</w>
un chi
hote l
ce as</w>
sexu ală</w>
provo care</w>
partici pa</w>
n ar
râ s</w>
ne am
ăr a</w>
elic op
pur tat</w>
în fă
acți uni</w>
5 -
s me</w>
prân z</w>
pier dem</w>
fi ii</w>
comisi ei</w>
cat ol
8 5</w>
între gi</w>
intre aga</w>
f ului</w>
termen ul</w>
saptam ana</w>
acol ul</w>
lipse şte</w>
fic ate</w>
brazi lia</w>
une l
st ur
pre ţul</w>
resur selor</w>
insul ă</w>
oper ați
du r</w>
răspun suri</w>
costu rile</w>
situ ația</w>
ar unc
ştiin ţi
w are</w>
tab lo
rela ţie</w>
confiden ti
combusti bil</w>
c .</w>
înăl ţi
pute au</w>
g ară</w>
arun ca</w>
acor dat</w>
trans mite</w>
apar at</w>
învă ţa</w>
pro a
în fri
tra fic</w>
proiec tului</w>
per e</w>
inter zis</w>
găse şte</w>
ţ ăm</w>
seam ănă</w>
cooper are</w>
val ul</w>
pere che</w>
făce am</w>
complex e</w>
senti mentele</w>
naş tere</w>
egi pt</w>
atac at</w>
2 3
h el</w>
în scri
te -au</w>
rec ru
ju căm</w>
ev acu
înce apă</w>
ser vi
famili ile</w>
ţ area</w>
v at
afac erile</w>
su d-
c ã
ma la
m -ar</w>
en tu
d era</w>
b el</w>
u mer
spec ii</w>
moder nă</w>
cer ii</w>
mi r</w>
din g</w>
car di
învăță mânt</w>
par adi
fal s</w>
cop ac</w>
colo ne
ț ului</w>
tră ieşti</w>
stră ine</w>
in are</w>
anter ioare</w>
un itatea</w>
me ta
ani ver
preg at
me tri
an oni
afir mat</w>
lovit ură</w>
lini şte
an tic
vam pi
pro vin
pre ocup
fi li
mănân c</w>
abor dare</w>
telefo ane</w>
che ile</w>
la c</w>
fin ală</w>
de co
0 1</w>
it ului</w>
şti lor</w>
w n</w>
roş u</w>
explic at</w>
li s
dec ît</w>
am i</w>
echi pe</w>
d ați</w>
b ră
ascul taţi</w>
ț ată</w>
industri ei</w>
ferici ţi</w>
browser ului</w>
che ază</w>
ți va</w>
ă -mă</w>
ar dă</w>
judecă tor</w>
par care</w>
gă zdu
proble melor</w>
cau te</w>
val orile</w>
tip ii</w>
v ali
produc ţie</w>
pas ul</w>
bu cată</w>
printr -un</w>
imag ina</w>
ghe aţă</w>
gaz e</w>
acţi one
tă iat</w>
se zonul</w>
edi a</w>
z vo
me can
prin ţe
obiec tive</w>
entu zi
efor turile</w>
ac he
răspun d</w>
magaz inul</w>
gra ve</w>
tradu cere</w>
se aza</w>
re s</w>
le s
g ar</w>
si re</w>
de -o</w>
ce -o</w>
at are</w>
- e</w>
re d</w>
inven tat</w>
capit al</w>
asigur are</w>
ar ului</w>
adev arul</w>
vie tii</w>
dac ã</w>
can al</w>
x ul</w>
trag i</w>
re al
ado r</w>
un itate</w>
tax e</w>
b au
ă -l</w>
analiz ă</w>
sur prins</w>
rambur sare</w>
i ară
h o</w>
br ân
auto no
fon duri</w>
ex ag
difer i
panto fi</w>
le gu
jumat ate</w>
bănu iesc</w>
bo bby</w>
ur mări</w>
sti inta</w>
opri m</w>
g s</w>
fe min
eficien tă</w>
cur ajul</w>
miş to</w>
lider ii</w>
intr ăm</w>
engle za</w>
e la</w>
turi sm</w>
l p
st ro
nic ul</w>
contin ui</w>
obiec tiv</w>
sigur e</w>
o anele</w>
colabor are</w>
aju tăm</w>
guvernamen tale</w>
ceil alți</w>
auto buz</w>
vi lor</w>
mat ri
dimen siuni</w>
comite tul</w>
acce ler
realiz area</w>
i mobili
reu sit</w>
sec ţiune</w>
vre muri</w>
respi ra
proce sului</w>
o d
john son</w>
j on
4 6</w>
stră du
pl ine</w>
descur c</w>
canti tate</w>
a erul</w>
măr tu
mo no
memo ria</w>
știin țe</w>
to tal
cunoștin țele</w>
şti ri</w>
toto dată</w>
re țe
perman ent</w>
fri gi
conflic t</w>
însărcin ată</w>
vo turi</w>
partici pat</w>
câ țiva</w>
conțin utul</w>
dispozi tivul</w>
x x
pal est
o fer</w>
medi i</w>
g ori
distan ță</w>
public ul</w>
on ii</w>
me te
des car
mănân ce</w>
neg ativ</w>
ur că</w>
mpl ul</w>
ti -a</w>
princip ale</w>
edu cat
în semna</w>
teat ru</w>
b -
a- şi</w>
s atul</w>
declar atie</w>
s fă
rest i</w>
re be
o ul</w>
în car
min u
mi r
acţi uni</w>
to resc</w>
polo ne
im ii</w>
de- aici</w>
ordin ul</w>
aştep tam</w>
promo varea</w>
electron ice</w>
sus ţine</w>
spun ând</w>
rezol vat</w>
cur surile</w>
contribu ie</w>
ch an
agri co
cumpără turi</w>
bu curi
an to
tre zi
so ția</w>
si guri</w>
oportun itate</w>
l la</w>
grati s</w>
exter ior</w>
c ît</w>
am y</w>
par c</w>
deran j
trat at</w>
mi t
americ anii</w>
şe f</w>
re prezinta</w>
vre odata</w>
de ti</w>
co li
rest re</w>
princip alele</w>
per ce
temper atura</w>
ai r
mo le
bo gă
an dy</w>
vră j
pregăti tă</w>
dimen siunea</w>
apă rea</w>
ro z</w>
frecven t</w>
cump eri</w>
aer iene</w>
chine z</w>
rez on
nat o</w>
condam n
ber lin</w>
st oc
perspec tivă</w>
1 000</w>
p are
iar nă</w>
cultur al</w>
antre pre
sexu ale</w>
profes ori</w>
gân durile</w>
dă -
continu e</w>
4 ,
200 3</w>
to t
mu la</w>
te -ar</w>
re veni</w>
no tă</w>
glo n
echi libr
crimin al</w>
in ti
gu rile</w>
bur g</w>
a z</w>
împăr ă
gră bi
ck y</w>
part aj
ju li
in cre
greu tatea</w>
ci os</w>
car d</w>
bă taie</w>
' site</w>
' cookie</w>
6 4</w>
mi s
ste p
hab ar</w>
fal se</w>
ru să</w>
după -ami
arti fici
5 2</w>
crist os</w>
aţi ilor</w>
afec ta</w>
yo u
y er</w>
chic ago</w>
fiș ier
fen omen
suficien te</w>
pier dere</w>
ofici ală</w>
fo re
credin ţă</w>
pis ica</w>
n apo
v ia</w>
regre t</w>
nic o
memo rie</w>
de l</w>
stră m</w>
pozi ție</w>
nor d-
maș ina</w>
ăr e</w>
he y</w>
cerce tări</w>
pozi tiv</w>
ocaz ie</w>
ciu dată</w>
h am</w>
ad ic
stră in</w>
p s
în cur
inter zi
aş e
su rilor</w>
fas cin
e s
co lu
b o</w>
fu m</w>
f ici</w>
dezvol te</w>
clien tul</w>
ridic ol</w>
k ong</w>
ine r</w>
in jec
por c</w>
miro ase</w>
mi ez
accep tă</w>
. .
viru s</w>
var ietate</w>
sun et</w>
f ã
cu plu</w>
baz ate</w>
4 -
3 d</w>
înțele gere</w>
z bor
v ra
ui mitoare</w>
renun ţaţi</w>
re ve
princip ala</w>
ofer te</w>
ge ti</w>
ge ogra
categ orii</w>
s ați</w>
inde pendent</w>
cap abili</w>
ac cen
g ât</w>
za h
siste melor</w>
po za</w>
ja ke</w>
g as</w>
y a
urmă torii</w>
pre ţu
confor tabil</w>
capito l</w>
su m
ven ituri</w>
semn al</w>
locu lui</w>
fie r</w>
ac asã</w>
speci ali
industri ale</w>
i ată
desfă ş
strateg ie</w>
evalu area</w>
doctor at</w>
val en
modific ări</w>
medic ul</w>
ch rist
avan sate</w>
adu cem</w>
ven ea</w>
uit a-te</w>
iub ita</w>
f aza</w>
e vrei</w>
vil le</w>
mar ile</w>
jucă tor</w>
ag e</w>
pă c
p ap
m est
acti vă</w>
tit lu</w>
no ta</w>
gestion area</w>
săl bat
si m</w>
în tru</w>
ț area</w>
inov atoare</w>
coleg iul</w>
co mo
ze sc</w>
v ând</w>
re ia</w>
presedin tele</w>
sus ține</w>
mi rac
investi ții</w>
in imii</w>
e vo
to ții</w>
ti on</w>
te ama</w>
internaţion ală</w>
cunoştin ţă</w>
bă gat</w>
pregăti ţi</w>
impre sia</w>
ieşi m</w>
fie cărui</w>
sex y</w>
min gea</w>
ar matei</w>
folosi tă</w>
digit al</w>
per se
ex amen
do vada</w>
ri ck</w>
rezer v
r ul
natur ală</w>
for mele</w>
căr or</w>
asigur ă</w>
amân două</w>
5 1</w>
principi ile</w>
ma ss-
jer ry</w>
al ice</w>
ab a</w>
r in
ma ine</w>
v la
rel ativ</w>
reclama ţii</w>
ven tu
par ă</w>
e sc
re țele
it uti
consi dera</w>
acoper ire</w>
se y</w>
8 00</w>
fu gi
ap ară</w>
anun țat</w>
car i</w>
ad er
ac ţion
ure l</w>
co le
vizi bil</w>
en ie</w>
bu lui</w>
g no
te stul</w>
gă toare</w>
fie ld</w>
acelea şi</w>
în e
nop ţii</w>
gi c</w>
e y</w>
sem nă
o s
des er
decen ii</w>
ca dă</w>
încân tat</w>
ti pi</w>
psi hi
organiz ații</w>
diplo mă</w>
ave l</w>
stri cat</w>
re aza</w>
jocu lui</w>
4 0
pi z
fundamen tale</w>
câ ini</w>
t une
chine ză</w>
t un</w>
electri că</w>
con st
scri se</w>
naţion ale</w>
inter nation
fi ic
y s</w>
cu prinde</w>
creș tin
vic e
imp actul</w>
ev ang
au z
. 0
încer când</w>
scri soarea</w>
salve ze</w>
ief tin</w>
e cr
buz ul</w>
acu zat</w>
ag ul</w>
te am</w>
intele g</w>
ge o
baie ti</w>
terap ie</w>
sin gu
i p</w>
ar th
tur n
pro st
mun ici
determin a</w>
ofer tă</w>
ali an
y u
ie si</w>
în frân
wor ld</w>
ră i</w>
razbo i</w>
ne regulă</w>
credi te</w>
are i</w>
pi ra
lic e
pute ai</w>
person alul</w>
ţi -ar</w>
ăr â
tat ori</w>
parl amen
fi sca
crede a</w>
ac redi
în dată</w>
difici lă</w>
întâlni rea</w>
g -
vie t
tri co
sp ion
don ald</w>
clu bul</w>
bonu s</w>
vest ea</w>
ner ă
minci uni</w>
atori u</w>
reg le
fereast ra</w>
ele vi</w>
au de</w>
na vă</w>
matemat ică</w>
distin c
confidenti alitate</w>
cla u
vorbe am</w>
protec ţie</w>
regi uni</w>
opin ia</w>
min er
iar tă-mă</w>
gre șe
celor l
ţin u
tal en
senti mente</w>
mân căm</w>
mani pu
bi lly</w>
vehic ule</w>
dure ro
tom my</w>
le on
ori gine</w>
verific ă</w>
petre c</w>
de pozit</w>
cânte c</w>
solu ţie</w>
n '
me tru</w>
bu tonul</w>
linişti t</w>
găsi t-o</w>
fer mi
on at</w>
lu mi</w>
loui s</w>
avo catul</w>
universi tare</w>
pri veste</w>
poli ti
obiec tați</w>
piat ra</w>
k ate</w>
ga si</w>
fr ate
c- f</w>
b ase
clien ţi</w>
ch u
canti tatea</w>
amin tit</w>
civi l</w>
c î
al p
sate li
organiz at</w>
che t</w>
roch ie</w>
l -ar</w>
condi țiile</w>
co st
ve n</w>
re vol
lider i</w>
h ă
avi oane</w>
sergen t</w>
fe le</w>
asc unde
acade mice</w>
pre veni</w>
da y</w>
ca sele</w>
bar ca</w>
5 0
sa se</w>
pat uri</w>
k er
căr ţile</w>
universi ty</w>
mar te</w>
v ară
speran ţă</w>
ob ţinut</w>
cado uri</w>
stră zi</w>
pă strează</w>
ade le</w>
zah ăr</w>
reu şi</w>
mp e
e va
ar ca</w>
vă zute</w>
du -l</w>
în frun
vân ă
parti d</w>
opre ască</w>
chest iune</w>
avan taj</w>
înt in
prece dent</w>
n- avem</w>
p .</w>
şo ara</w>
mat erie</w>
descri ere</w>
miez ul</w>
şan sa</w>
pro nun
pre dic
tu i
lu x</w>
ist ă</w>
electri c</w>
apar ţine</w>
teori e</w>
ero i
h ac
b s</w>
în vi
w hi
remar ca
iar na</w>
vo uă</w>
pa k
ofiţ er</w>
n ave</w>
plat formă</w>
rela ții</w>
rela ţia</w>
mer it</w>
l- aţi</w>
d ru</w>
or to
gândi re</w>
exercit aţi</w>
deschi d</w>
poten ți
k im</w>
dv s.</w>
cal cul</w>
i legal</w>
6 00</w>
vre ți</w>
sin cer
ol d</w>
dur ată</w>
po ş
folose ște</w>
vil la</w>
o chiul</w>
gre șit</w>
apu cat</w>
ale geți</w>
universi tăți</w>
suficien tă</w>
p aș
g as
tr a</w>
recipro c</w>
produc ția</w>
par k</w>
magaz ine</w>
disponi bilă</w>
3 8
t .
re put
7 -
ofer a</w>
lucru rilor</w>
r .
nost ri</w>
neră b
d ice</w>
cump ăr</w>
răb dare</w>
confir mat</w>
apro vizion
n asul</w>
ade i</w>
întreb am</w>
vân zări</w>
pi l
ter mine</w>
pă du
proa spă
p m</w>
între gii</w>
ju ridice</w>
bu d
s al</w>
pedeap sa</w>
afec tate</w>
mulţu mi
lar ul</w>
ch at</w>
trans fer</w>
mo ș
dimine ața</w>
experien ta</w>
suge rează</w>
respons abilitate</w>
min im</w>
fran k
vorbi ţi</w>
un ghi
su ger
se l</w>
privi rea</w>
amen telor</w>
al be</w>
înțele g</w>
so tia</w>
tin ut</w>
mar tor</w>
ob se
f it
m ând</w>
l ate</w>
cerin țele</w>
ai ba</w>
ram ane</w>
manag er</w>
pu rilor</w>
pat ra</w>
ce ai
r ai</w>
lan sarea</w>
ju d
schimb i</w>
relig ie</w>
lu ați</w>
individu ale</w>
g ase
willi am</w>
di spus</w>
ali smul</w>
ş eri
tat ile</w>
si rea</w>
mass- media</w>
ui re</w>
pro pus</w>
pere te</w>
for ţă</w>
capac itate</w>
pă să
be at</w>
sus țin
ciocol ată</w>
sărbă tori
lider ul</w>
con cre
ţ uri</w>
inten si
do nat
qu e</w>
prac tice</w>
leg ată</w>
vi sele</w>
studi at</w>
me d</w>
bun uri</w>
7 2</w>
st ent</w>
mo tivele</w>
cali fic
ăst a-i</w>
a prin
u -
stu pi
mo toc
io ni
două zeci</w>
ace lea</w>
st ar</w>
interne tul</w>
asigur e</w>
aprec iez</w>
adop tat</w>
puter nici</w>
perspec tiva</w>
constru irea</w>
t aţi-mă</w>
mer ita</w>
clien ților</w>
ce lo
can ale</w>
bile t</w>
str ate
co stul</w>
în ş
to vară
mul ta</w>
echi lib
d ale</w>
acoper ă</w>
echip ament</w>
me z</w>
l .
folo s</w>
pre zi
intal ni
compani ilor</w>
- ți</w>
​ ​
sar cină</w>
popu lar</w>
tion at</w>
revi sta</w>
digit ală</w>
auto -
agen tul</w>
etiche te</w>
e aza</w>
condi ţiile</w>
pâ ine</w>
mi ti
o ara</w>
administ rat
p apa</w>
origin al</w>
fra ţii</w>
că -te</w>
câști ga</w>
aplic ație</w>
tu be</w>
tr ase
republic ii</w>
iubi m</w>
favo are</w>
adre să</w>
semne le</w>
pă ţit</w>
h d</w>
ag ă
viz itat</w>
stăpân ul</w>
relevan te</w>
ofer ind</w>
ide ile</w>
în colo</w>
asoci ate</w>
omor î</w>
h at
fo r</w>
o tră
iu bi</w>
prefer a</w>
mi st
i lumin
a o</w>
mo torul</w>
aște rea</w>
- se</w>
în alte</w>
iu rile</w>
ic ilor</w>
5 6</w>
n ast
li m
senti mentul</w>
miș care</w>
exper t</w>
condam nat</w>
ş a</w>
profesioni ști</w>
po dea</w>
plân g</w>
milo sti
har ul</w>
e ș
ţine rea</w>
pe tru</w>
gre se
vorb este</w>
sco tt</w>
oce an</w>
me ze</w>
intr aţi</w>
dr am
ţion ală</w>
regul at</w>
rah atul</w>
jo aca</w>
arth ur</w>
ți une</w>
trei me</w>
re fer</w>
pre venirea</w>
miro sul</w>
cur ată</w>
vâr f</w>
descur ci</w>
tr op
interesan tă</w>
actu ală</w>
principi u</w>
cul cat</w>
c itate</w>
ed die</w>
diagno stic
aplic ația</w>
sch o
cal m</w>
sti am</w>
rezi den
de seori</w>
we ll</w>
sti ri</w>
pre lun
ni k
f ră
elimin a</w>
studi o</w>
împăr atul</w>
ridic ate</w>
p az
in ea</w>
fu gă</w>
folose şti</w>
ciu date</w>
cad ru</w>
mun tele</w>
dorin ţa</w>
a st</w>
p ã
are nt</w>
privi t</w>
mări mea</w>
mi ere</w>
col or
to tii</w>
poli ţiei</w>
olan da</w>
is mul</w>
excep ţia</w>
w a</w>
st or
producă tor</w>
pilo t</w>
medic ină</w>
cop ie</w>
cafe aua</w>
- şi</w>
transp aren
re ţe
li ei</w>
im pul
d ai
comport ament</w>
scap i</w>
gă site</w>
so s</w>
puter ii</w>
e labor
ză p
transpor tul</w>
civi le</w>
chest iile</w>
in sec
expl ică</w>
ipo te
ele ment</w>
sh er
misi uni</w>
hr ană</w>
democ rat
ţi ale</w>
veri fic</w>
urmă resc</w>
obser va</w>
arti st</w>
de mn
ști lor</w>
â m
profesioni st</w>
nu- s</w>
cre eze</w>
s audi
moder n</w>
locu ieşte</w>
e .
o nului</w>
cla ire</w>
austri a</w>
solu ție</w>
scu mp</w>
o vă
istori ei</w>
în dreaptă</w>
k an
for ţele</w>
/ 0
trans formă</w>
tat u
or asul</w>
ol ă</w>
iubit ule</w>
condu că
su sp
sec ven
lin k</w>
dimen siune</w>
d -ul</w>
ba g</w>
domen iile</w>
st an</w>
ob st
o uă</w>
lin ii</w>
a- ti</w>
zăp adă</w>
su gest
sol ar</w>
neg ative</w>
co o
: 30</w>
on a</w>
n ită</w>
mu ta</w>
identi tatea</w>
exemp le</w>
d ney</w>
consu m</w>
camere i</w>
în ca
weeken d</w>
con tempor
uit aţi-vă</w>
scu fun
fin alul</w>
fa vor
cri me</w>
condu ci</w>
car l</w>
sănăto asă</w>
entuzi as
e cu
cân tă</w>
al in</w>
muri m</w>
caz are</w>
me zi</w>
ma ma
di aman
dan e
sân ger
mă surile</w>
ide al</w>
con te
caz urile</w>
vân t</w>
relig ioase</w>
h e</w>
: 0
tă ţilor</w>
stre et</w>
st ag
of f</w>
intro duce
exclu siv</w>
si mon</w>
me l
fi x</w>
centr ale</w>
zice m</w>
master at</w>
se l
grădin ă</w>
evang he
dege tul</w>
categori a</w>
ind ică</w>
e ventu
cir cul
ar gen
an tici
închi d</w>
standar de</w>
san sa</w>
respec tul</w>
bomb ă</w>
parten erii</w>
locu in
leg ală</w>
ini rea</w>
sper am</w>
sin te
nenoroc itul</w>
ur are</w>
rela ţii</w>
at acu
5 ,
extin de</w>
ceil alti</w>
în veţi</w>
ke n</w>
ini mile</w>
d ave</w>
auten tific
ac tor</w>
coman d
5 3</w>
oper a</w>
c aste
ne mai
man ii</w>
câ mp</w>
cele b
be m</w>
barb at</w>
no ii</w>
vic torie</w>
ordin ea</w>
li mită</w>
et ajul</w>
bomb ar
complic at</w>
lin ist
identi tate</w>
astro no
îmbunătă ţi
sex ul</w>
cau ta</w>
îngrij ire</w>
în dru
ve ge
par cul</w>
ch ei</w>
ne -
caz ino
f li
cur ge</w>
ti s</w>
super i</w>
ad u</w>
vie ţile</w>
ra y
o t
u .
ne buni</w>
amb ul
ace lor</w>
vo p
pie pt</w>
ţin utul</w>
victi ma</w>
în ar
tu i</w>
he n</w>
co la
bei j
semn alul</w>
se i
ra n</w>
n as</w>
fi r</w>
conec tat</w>
su sten
simi lar</w>
sca unul</w>
can adi
universi tății</w>
săr ut</w>
pre lucrarea</w>
ge org
mo dă</w>
con stă</w>
do sar</w>
c lară</w>
public ului</w>
întele s</w>
fire fox</w>
e mb
știin ța</w>
şte -ţi</w>
ser ver</w>
can ap
sla vă</w>
5 9</w>
în lă
târ fă</w>
olog ice</w>
k -
fon dul</w>
detec tiv</w>
þ i</w>
mat er
ma le</w>
rezer vă</w>
gener alul</w>
al tii</w>
în cu
w it
lucr ări</w>
gân duri</w>
si on</w>
san d
per misiunea</w>
d ator</w>
că i</w>
toale tă</w>
destu le</w>
tranzac ționare</w>
lu ptă
ită ților</w>
dez bat
atac ul</w>
5 4</w>
ur mele</w>
to p
pri mar</w>
inv at
in n</w>
confidenți alitate</w>
spă lat</w>
si unile</w>
lip să</w>
premi u</w>
n ii</w>
ab sor
man ul</w>
tex as</w>
loca ţie</w>
du -mă</w>
aer on
şti le</w>
ur cat</w>
incre dere</w>
cur sa</w>
ine vit
bi g</w>
zgomo t</w>
tran zi
sim țit</w>
educa ția</w>
c lare</w>
îmbunătăți rea</w>
vo ştri</w>
cre ate</w>
bar celo
adevăr ate</w>
ni s</w>
diferen ţa</w>
clădi ri</w>
averti zat</w>
cump ără</w>
5 7</w>
val abil</w>
rapi de</w>
echi val
ai u
spanio lă</w>
la sa
componen te</w>
ac țion
200 1</w>
1 .000</w>
întă ri
parl amentul</w>
cur să</w>
provo cat</w>
adev ar</w>
teri ile</w>
fabri ca</w>
detali ile</w>
ş ar
uri aş
păstr at</w>
pie tre</w>
mi zer
mat ică</w>
di dac
un gh
so ţ</w>
s abia</w>
man an
circum stan
- ce</w>
re n</w>
din am
car nea</w>
uci d</w>
tri mest
institu ții</w>
fu le</w>
can cerul</w>
adu ce
te- aş</w>
n aștere</w>
ini țial</w>
e ti
ch ri
îngrozi tor</w>
încer cați</w>
dan s
are st
vorb ea</w>
ange les</w>
afir ma
treze sc</w>
g are
cri tic
5 8</w>
ti -ai</w>
disp ari
clien ţii</w>
che m</w>
atac uri</w>
ri ght</w>
gre sit</w>
afir mă</w>
a bu
sf at</w>
fen o
bucuri a</w>
ban ilor</w>
rămân em</w>
r un
păc atele</w>
pre dare</w>
deo parte</w>
sp art</w>
înţele pci
c lic
vic tor</w>
te s</w>
solicit area</w>
sem nul</w>
uci dă</w>
ga ură</w>
dezast ru</w>
comer ț</w>
anti- spam</w>
in gre
puter i</w>
i uri</w>
min une</w>
gra vi
depart amentului</w>
ve ter
pregăti re</w>
ma l</w>
cen tre</w>
9 -
inteligen te</w>
19 0
sfân tul</w>
at ion</w>
ăr ă
su edia</w>
le z</w>
blo n
înv ață</w>
min t</w>
cân tăre
b ie
ză rii</w>
ulti mă</w>
pozi tive</w>
p p
ex acte</w>
du -i</w>
10 .000</w>
st abili</w>
organiz ația</w>
mon stru</w>
dure ri</w>
realiz ate</w>
pri v
pre siunea</w>
ia -ţi</w>
f ine</w>
eg al</w>
vre ti</w>
ră ul</w>
pro pune</w>
di stra
dezvol tă</w>
de şer
benefici ile</w>
af gan
provo cări</w>
is m</w>
ir landa</w>
ici u</w>
ic ului</w>
fra u
canap ea</w>
săr aci</w>
luc y</w>
iubi rii</w>
ți unea</w>
gâ tul</w>
bar că</w>
atra s</w>
adevăr atul</w>
tin d</w>
socie tății</w>
șe sc</w>
lan sare</w>
înţele geţi</w>
si r</w>
organi sm</w>
campan ie</w>
in fin
cep i</w>
aprob at</w>
3 7
intere sele</w>
gol f</w>
col ii</w>
strateg ia</w>
spect acolul</w>
siguran ţa</w>
principi ul</w>
po d</w>
medic ii</w>
i do
h mm</w>
dimine ață</w>
de mult</w>
ac tri
preci zat</w>
lib ere</w>
circu la
vo tat</w>
titu din
s y</w>
o sc
n ing</w>
comple x</w>
ți ală</w>
uş oară</w>
plân s</w>
pro aste</w>
c iei</w>
6 6</w>
ăr ul</w>
neg li
s esti</w>
reg ener
ok ay</w>
călă u
țione ze</w>
întâlni ri</w>
volu mul</w>
k h
că reia</w>
respon den
punc tele</w>
pro stitu
ir lan
gen i
di rea</w>
aţi -l</w>
i ri
de păr
con teaza</w>
log ică</w>
ho me</w>
199 0</w>
e c
bal l</w>
ţi -mi</w>
x t</w>
u lu
risc uri</w>
miro s</w>
f ine
amin ti</w>
prime ască</w>
nucle ar</w>
bibliote ca</w>
pre par
nervo s</w>
ll o</w>
jur ă
fre d</w>
con curs</w>
ansamb lu</w>
acelea și</w>
renun ţat</w>
ier tare</w>
ase m</w>
ad ri
00 .000</w>
u măr
pri vi</w>
supăr ată</w>
9 6</w>
științi fice</w>
vehic u
sp aț
o asele</w>
lan ga</w>
favo area</w>
ie ș
s nic
oare care</w>
eveni mentele</w>
coleg iu</w>
toam na</w>
margin ea</w>
educa ției</w>
ban car</w>
standar dele</w>
sper ie</w>
ru pe</w>
poliţi şti</w>
mes ajele</w>
iub itul</w>
func ția</w>
d ări</w>
aven tură</w>
pu ţine</w>
meci ul</w>
m l</w>
legă turi</w>
you tube</w>
provo ca</w>
demonstr at</w>
îmb ol
te ste
potrivi te</w>
majo r</w>
experien ţa</w>
accep t</w>
ó n</w>
înv aţă</w>
man n</w>
feno men</w>
împ ă
ter i</w>
se ver
pr u</w>
că lu
rez u
privi ţi</w>
prime şti</w>
par agra
feder al</w>
sin cro
lib eri</w>
insu lele</w>
x e</w>
ser ioasă</w>
pără si</w>
no te</w>
dezvol tate</w>
contac tați</w>
ţ ită</w>
su ver
prezen ţa</w>
nume rele</w>
su mă</w>
struc tur
satis fac
noro cul</w>
locu itori</w>
stic la</w>
slă bici
k in
200 2</w>
treze şte-te</w>
panto fii</w>
ingre di
in ar</w>
flo are</w>
anima lelor</w>
ali sm</w>
crest ere</w>
apăr area</w>
s f</w>
re vin</w>
ince arca</w>
efectu ate</w>
dă tor</w>
cin ste</w>
șe ază</w>
st ică</w>
proiec tat</w>
nev asta</w>
mon ie</w>
ira k</w>
e mail</w>
do bor
urme ze</w>
le on</w>
ist orice</w>
au torul</w>
al un
ber ne
pre aj
plă cerea</w>
ca fen
sin dic
mi ron
dra gi</w>
dur abilă</w>
do arme</w>
cite ște</w>
al une
acest i</w>
si ri
ro ck</w>
pu sul</w>
pre ot</w>
ha w
continu ăm</w>
bo x</w>
elec tor
u t
pre fer</w>
o gă
n y
locui torii</w>
i ilor</w>
for mează</w>
excep ția</w>
dedic at</w>
adun area</w>
q ui
afla ți</w>
acţi unile</w>
subiec te</w>
relax e
nu mi</w>
n -ul</w>
princip alul</w>
organiz area</w>
limi tele</w>
comite tului</w>
aten ția</w>
adun at</w>
w ic
mijlo ace</w>
in cat</w>
con sti
afl ate</w>
înţele gem</w>
simpto me</w>
nisi p</w>
le m
i ata</w>
găsi ţi</w>
at ică</w>
în vâr
în cal
dragu le</w>
învin s</w>
ti velor</w>
ini ti
frecven te</w>
distrac ţie</w>
cin d</w>
ca val
b ară</w>
șco li</w>
ră pi
o arele</w>
nume ște</w>
frate lui</w>
docu ment</w>
dez gu
cam er
şe fu</w>
z dro
râ u</w>
prof it
ascun se</w>
respi ră</w>
ger ii</w>
co asta</w>
cami on</w>
fă gădu
căl dură</w>
si unii</w>
părin ţi</w>
mone da</w>
existen ţa</w>
în te
sun e</w>
per i
john ny</w>
este -te</w>
9 8</w>
tre n
ră mă
roch ia</w>
pu te</w>
pri m</w>
ob ama</w>
le zi</w>
direc tă</w>
contrac tul</w>
socie tăţii</w>
fac ut-o</w>
ex acti
drep tului</w>
cif re</w>
nu rile</w>
proprie tarul</w>
b lan
� �
mat uri
lucră rile</w>
in grij
di m
blo g</w>
w i-
pune ţi</w>
proce dura</w>
patri moni
angaj ați</w>
su e
studi a</w>
ste -te</w>
mi ei</w>
cri tică</w>
c l
ar ia</w>
țion ate</w>
în gădu
căsă tore
cump ara</w>
ve chiul</w>
re col
ra dic
prezen tare</w>
ly n</w>
e taj</w>
discur s</w>
ac cent</w>
averti sment</w>
s har
obli gat</w>
identific at</w>
ho ward</w>
sp ân
sem est
cău taţi</w>
popula ția</w>
efectu at</w>
cunoaşte m</w>
apar atul</w>
adi o</w>
rache te</w>
in un
i ii</w>
cite şte</w>
aranj at</w>
lor d</w>
li e
di scri
a ie
u scat</w>
rapor tat</w>
cur te</w>
. 00</w>
ai r</w>
nu mim</w>
filo so
direc ţia</w>
înnebun it</w>
n az
ele mentele</w>
bile te</w>
s av
fe luri</w>
sol daţi</w>
acu mul
ou t
iun ilor</w>
aş ul</w>
gân dul</w>
fra g
cre ste</w>
rezi sta</w>
ra ţi</w>
le o</w>
obișnu it</w>
nive luri</w>
grat uită</w>
dina inte</w>
al bert</w>
ve gas</w>
prime şte</w>
idio tule</w>
go ală</w>
discu ţie</w>
der ilor</w>
ca pe
sune tul</w>
apropie rea</w>
an ex
trandafi ri</w>
roş ie</w>
mulţu mit</w>
vân ătoare</w>
ur me</w>
t hai
s no
po ar
lu ată</w>
destin ul</w>
atitu dinea</w>
universi tar</w>
site -urile</w>
cop aci</w>
co ca
bomb a</w>
baz ată</w>
şte -l</w>
z an
ti ilor</w>
satis face</w>
op ti
i- lea</w>
t z</w>
ren ce</w>
pr o</w>
dat orează</w>
bucur ă</w>
tă i
salve z</w>
apăr ării</w>
scho ol</w>
rela ţiile</w>
aur ul</w>
pescu it</w>
extrate re
bro n
z z
cin stit</w>
barcelo na</w>
îmbol nă
pro viz
om s</w>
ocu pi</w>
jo sep
inter n</w>
arm ate</w>
t ast
scoate m</w>
pă sări</w>
pri mim</w>
judec ata</w>
zi une</w>
se zon</w>
excelen tă</w>
univer sului</w>
oxi gen</w>
fișier ul</w>
fil mele</w>
elimin area</w>
eli za
aten tie</w>
vene zu
ori cât</w>
dor mi
contribu i</w>
comunic at</w>
w in</w>
lumin ii</w>
întru cât</w>
wi- fi</w>
vie ţi</w>
scri itor</w>
educa ţie</w>
albast ră</w>
genun chi</w>
de zi</w>
cu s</w>
vi er
to x
tione aza</w>
o '
făce au</w>
imag inile</w>
tr as
ne vinov
iară şi</w>
disp ă
p al</w>
ief tine</w>
șan să</w>
tar ile</w>
pu ţ
dez ă</w>
to ler
so ph
antren ament</w>
vacan ţă</w>
stat utul</w>
separ at</w>
pă cii</w>
oli ver</w>
inter vi
- s</w>
încer cam</w>
urgen ță</w>
omo ară</w>
nor dul</w>
fu rie</w>
car ol
sca p</w>
că rie</w>
ban dă</w>
în spă
sca pă</w>
host el</w>
e va</w>
co s</w>
uş urel</w>
recuno aşte</w>
inst in
fir me</w>
fi re</w>
au dă</w>
închi să</w>
te stare</w>
corespun zător</w>
efectu a</w>
tit ul
produ c</w>
poli tia</w>
nu mar</w>
lo t</w>
contr ar</w>
bri an</w>
aminti ri</w>
mai est
de teri
6 -
în ghi
servici ului</w>
rit mul</w>
an ţă</w>
vorbe ște</w>
v ã</w>
dove di</w>
w er</w>
robo t</w>
sanat ate</w>
profesion al</w>
le -ar</w>
ump lu
ke vin</w>
de v
de cor
b y
a g</w>
spu s-o</w>
partici parea</w>
cu an
cobor â
2 50</w>
1 /
părin ţilor</w>
naț i
concentre ază</w>
a a</w>
vi itorului</w>
plane tei</w>
atmosfer a</w>
ati ilor</w>
ţ ui</w>
înce tat</w>
în chin
region ale</w>
pro mp
of fice</w>
minun ate</w>
j e</w>
incendi u</w>
adău ga</w>
se -n
rețe aua</w>
func tion
fu mat</w>
bog ată</w>
adă post</w>
acți unile</w>
abili tăţi</w>
in timi
e pu
ca ţi-vă</w>
zi d</w>
uș ur
superio ară</w>
proiec tare</w>
de fic
ci berne
5 .000</w>
stră lu
n am</w>
gi r
flori da</w>
e lena</w>
speci fic</w>
rugăci une</w>
prez inte</w>
pacien tul</w>
ie pur
consi der</w>
buge tul</w>
închi se</w>
fo sta</w>
ascul te</w>
întun er
mi z
dom n</w>
d atul</w>
constat at</w>
secun dare</w>
i mân
a in</w>
li sa</w>
tre cerea</w>
ple care</w>
furni zarea</w>
speci fic
inter nă</w>
gal ben
6 9</w>
vi re</w>
sub ti
medic amentele</w>
ga y</w>
sti ut</w>
consider ată</w>
ca d</w>
p avel</w>
ien i</w>
ge anta</w>
vitam ina</w>
un garia</w>
den i</w>
caracterist icile</w>
trafic ul</w>
mu tă</w>
m- aţi</w>
inte gra
discri min
con textul</w>
c -am</w>
ac ii</w>
smi th</w>
respec tă</w>
po veşti</w>
limi tată</w>
her ine</w>
che ma</w>
as cen
6 7</w>
princip ii</w>
gra vit
tru pele</w>
fir mă</w>
cur se</w>
austr ali
sus ţin
stabili te</w>
exper ti
con ţine</w>
carti er</w>
bo ur
relig ia</w>
prac tici</w>
ordin ele</w>
al că
sincro ni
cal ul</w>
auto buzul</w>
6 3</w>
seco le</w>
pe ște</w>
refer i</w>
antrepre no
pie sa</w>
on al</w>
explo at
câşti gă</w>
bătrân ul</w>
sof ia</w>
ru ti
log ic</w>
i r</w>
so tul</w>
nic ii</w>
câ sti
cam pus</w>
cadav rul</w>
bu le
tri mită</w>
ma sura</w>
ma dri
intro dus</w>
descur cat</w>
condu c
bine venit</w>
urmări re</w>
tr ai</w>
sol are</w>
dispozi ţie</w>
deo dată</w>
che f</w>
afec tat</w>
a k</w>
riscu rile</w>
dom ici
acest ia</w>
înregist rarea</w>
re tras</w>
pa pu
epo ca</w>
cân ta</w>
argin t</w>
1 20</w>
la ţi</w>
docu mentele</w>
7 7</w>
sla bă</w>
sco ţi</w>
lu am</w>
imp ar
concep tul</w>
bal con</w>
situ atia</w>
ro se</w>
i zo
d .
cite şti</w>
che n</w>
bol nav
8 6</w>
seam ă</w>
ce sc</w>
tradu cerea</w>
povest it</w>
mone de</w>
denumi rea</w>
s se</w>
n iei</w>
is lam
ira n</w>
ump le</w>
strateg ii</w>
ne cazuri</w>
cas atori
ono area</w>
fiz ica</w>
trep tat</w>
o rele</w>
la dy</w>
in cal
ie ze</w>
he i
german e</w>
w est
uit am</w>
secre tă</w>
pregăte sc</w>
compar ativ</w>
audi o</w>
pro vin</w>
fac tor</w>
at om
ser io
scri să</w>
pist olul</w>
fotogra fia</w>
din a</w>
în ger</w>
ru ș
hi l
gi gan
activ itățile</w>
termin ăm</w>
s aţi</w>
pre tu
execu tiv</w>
disp are</w>
cultur ală</w>
între gime</w>
sf inte</w>
plane te</w>
mincin os</w>
diavo lul</w>
d al</w>
6 2</w>
pregă ti</w>
po stat</w>
mone dă</w>
ia -l</w>
eliza beth</w>
ţi- aş</w>
ur b
siguran ța</w>
îmb ogă
scri sori</w>
li mpe
cheltuie lile</w>
b ren
r and</w>
pre ve
ordon at</w>
pân a</w>
prieten ilor</w>
ocu pe</w>
ieşi re</w>
bolna vă</w>
price p</w>
o asa</w>
naț iunilor</w>
medic ament</w>
cercetă tori</w>
al bi</w>
ş tea</w>
uș oară</w>
rela ție</w>
obiec tul</w>
l .</w>
câşti g</w>
cere m</w>
6 ,
rădă cin
pri mă</w>
periculo asă</w>
p âr
omen irii</w>
is o</w>
der i
sca de</w>
ri si
pre mii</w>
g ant</w>
atitu dine</w>
uci derea</w>
ie ști</w>
eroi zi</w>
autori tățile</w>
îndepăr tat</w>
wa y
te s
profe sorii</w>
ochi lor</w>
feti ţă</w>
dore ște</w>
die ta</w>
căsători a</w>
at ing</w>
ar abia</w>
zic ea</w>
o vi
medic ina</w>
experi ment</w>
ţi ală</w>
învă ţ</w>
îm pră
văzu tă</w>
situ ație</w>
pacien t</w>
p c</w>
locu it</w>
dege tele</w>
corespun zătoare</w>
concedi at</w>
înspă imân
ti ţi</w>
semnific ative</w>
ri ile</w>
organiz ației</w>
mama ia</w>
eliber area</w>
simp li
fo l
europen i</w>
chine zi</w>
instru mentele</w>
disp re
8 -
spune ai</w>
s ic
râ ul</w>
contin en
ce ară</w>
tur nul</w>
sufer i</w>
co ti
băie ți</w>
întrebă rile</w>
sprij ini</w>
pl ast
ori zon
mi d
mar ie</w>
copilă rie</w>
b aţi</w>
9 2</w>
199 5</w>
/ sau</w>
vin ul</w>
teren ul</w>
sim ți
sf atul</w>
par ca</w>
lu area</w>
an o</w>
a sului</w>
6 1</w>
total itate</w>
re ţea</w>
opre şti</w>
ev ad
bar i</w>
viru sul</w>
smar t
repe t</w>
prece den
motoc icle
gh ici</w>
b alul</w>
ar unci</w>
un ice</w>
is la
inte i</w>
ama zon</w>
politic ii</w>
câ inii</w>
puter ile</w>
profun dă</w>
no n</w>
gen iu</w>
anun ţ</w>
w er
scu lp
n asa</w>
ex pozi
n ori</w>
jurn alul</w>
sfar situl</w>
produ sului</w>
pro vine</w>
actu al</w>
a -ţi</w>
şte -mă</w>
propri e</w>
comunic area</w>
ti mes</w>
sa c</w>
imagin at</w>
aten tă</w>
9 3</w>
si ţi</w>
i torii</w>
fu g</w>
condu că</w>
ascun d</w>
as cu
stele le</w>
p o</w>
mu scu
ine lul</w>
aer ului</w>
fie cărei</w>
e ter
cu le</w>
rac hel</w>
pri marul</w>
piz za</w>
inver s</w>
du ş</w>
bo y</w>
anun ț
ște -te</w>
zâmb e
pomen it</w>
ok .</w>
b aia</w>
6 0
j unc
ge au</w>
discur sul</w>
recen zii</w>
phi l</w>
gar di
arun c</w>
trans mis</w>
ridic ată</w>
prezi den
ne vinovat</w>
deschi dere</w>
sufer in
p ad
le u</w>
opți une</w>
n azi
ist an
i v</w>
bro ok
fo n</w>
explo zi
ele vilor</w>
colo ni
arată -mi</w>
ru se
li s</w>
bine înțeles</w>
aspec tele</w>
premi erul</w>
lin col
șe ște</w>
înşe lat</w>
spân z
maest ru</w>
lat ină</w>
emi ly</w>
e gal
consider ate</w>
al ei</w>
învin ge</w>
îndrăz ne
su dul</w>
po dul</w>
ici an</w>
do s</w>
te ască</w>
ra spunde</w>
pătr un
că snic
băn ci</w>
ma s
gi ile</w>
despăr ţi
bărb ații</w>
zb orul</w>
resp ins</w>
pantal oni</w>
ge lo
cobo ară</w>
ban da</w>
serv ice</w>
rezol varea</w>
ar a
re si
po l</w>
implic ate</w>
har d
contro lează</w>
aprob area</w>
ţin tă</w>
i b
cri ma</w>
corec te</w>
aiu rea</w>
plac ut</w>
mătuş a</w>
descur ca</w>
cooper area</w>
avant aje</w>
ze lor</w>
x el
raz na</w>
i an
9 7</w>
in done
ieşi ţi</w>
cre ste
barb ati</w>
li ul</w>
gan dit</w>
feme ii</w>
dub ai</w>
bl ack</w>
vân tul</w>
imi gran
fabri că</w>
ză u</w>
or b</w>
e in
al an</w>
sto ase</w>
she l
mărtu rie</w>
mo da</w>
cre scu
al te
7 00</w>
însu și</w>
ry an</w>
ne cunoscut</w>
n ati
me mor
fant astic</w>
conexi une</w>
ază -ţi</w>
unel te</w>
sub mar
părin tele</w>
meto dele</w>
de pus</w>
ab sen
poli ți
con turi</w>
ar at
aler g
ști am</w>
y lor</w>
supor ta</w>
poli ția</w>
glu mesc</w>
fotografi ile</w>
tat ul</w>
jud ici
țion area</w>
ţin ta</w>
su st
pache tul</w>
li p</w>
lasa -ma</w>
deşte pt</w>
sub ter
roș u</w>
pi ardă</w>
mar sh
limb ajul</w>
con text</w>
be ach</w>
teh nica</w>
român iei</w>
progre sul</w>
prin de
cul tiv
- da</w>
st ului</w>
pie să</w>
ori bil</w>
ci n</w>
a p</w>
ţi unile</w>
se seră</w>
p asa</w>
mu r</w>
linişte şte-te</w>
dific ile</w>
caracter ul</w>
tab ără</w>
mar ţi</w>
man dat</w>
instal at</w>
ic u
caste lul</w>
8 8</w>
chest i
8 7</w>
7 ,
w s</w>
uni une</w>
paci fic</w>
distru gă</w>
clo ud</w>
adul ți</w>
ț el</w>
vi sat</w>
mi lor</w>
can cerului</w>
am s</w>
rezer vare</w>
ori cărei</w>
li ere</w>
fă p
e lan
carti erul</w>
benefic ia</w>
unchi ule</w>
explo zie</w>
de săvâr
anun ț</w>
răspun dă</w>
german iei</w>
vi se</w>
prote ine</w>
pro stu
ex am
vâr ful</w>
si ta</w>
înregist ră
ro mani</w>
rela țiile</w>
prob e</w>
log ie</w>
hu h</w>
aștep tat</w>
zb ura</w>
tre zi</w>
recuper are</w>
pu ține</w>
pregăti rea</w>
gh in
dim potrivă</w>
amenin ţare</w>
tă toare</w>
di tate</w>
demon stre
w an</w>
schimb ăm</w>
flor arie</w>
buzun ar</w>
7 1</w>
se c</w>
minist erului</w>
mar tori</w>
glo an
for țele</w>
ato arele</w>
acoper i</w>
poliţi ştii</w>
oglin dă</w>
i .</w>
constru im</w>
ar on</w>
vizitat ori</w>
s oră</w>
labor atorul</w>
c tul</w>
acade mic</w>
199 9</w>
p sal
curaj os</w>
6 8</w>
ofici ale</w>
la sat</w>
car ter</w>
w en
v ale
u cen
nive lurile</w>
israe lul</w>
inclu s</w>
nucle ară</w>
maj oră</w>
ra si
lincol n</w>
j or
cap cană</w>
acade mia</w>
salv area</w>
dru muri</w>
deschi derea</w>
câ tă</w>
comp asi
capă tul</w>
sal ariul</w>
repor ter</w>
proce sele</w>
nu mite</w>
no ului</w>
masin i</w>
jack son</w>
face -o</w>
dispozi tivele</w>
dialo g</w>
de fine
computer ul</w>
ti pă
ră ni</w>
provo acă</w>
descri s</w>
br az
auto mati
ap arent</w>
an nie</w>
ag lo
ţi -au</w>
vă du
produc ţia</w>
m ã
limi tate</w>
la s
cri mei</w>
stabili rea</w>
preci s</w>
popula ție</w>
parteneri at</w>
ment ală</w>
k ins</w>
acu ma</w>
termen ii</w>
munce sc</w>
ment al</w>
administ rarea</w>
trans mite
crede ți</w>
9 1</w>
puţ ini</w>
proteje ze</w>
pisc ină</w>
pension at</w>
pen i
fer mă</w>
încer caţi</w>
împru mut</w>
sarcin i</w>
recoman dat</w>
gener ație</w>
f -
ap ore</w>
rugăci unea</w>
vi ena</w>
por tre
per cep
moș ten
func ții</w>
fon d</w>
am or
val orii</w>
az a-te</w>
în fi
pis ică</w>
coleg i</w>
si f</w>
pre tul</w>
pen tru
p est
fr ac
brân ză</w>
8 9</w>
ven iturile</w>
pas ăre</w>
oche lari</w>
o be
modific a</w>
et apă</w>
activ ităţi</w>
ra mas</w>
pri m-
pal atul</w>
ascun zi</w>
gan d</w>
do bi
antre nor</w>
p -
ocup ată</w>
dat or
ac tele</w>
v în
ure chile</w>
hi v</w>
gânde ască</w>
beij ing</w>
b ara</w>
ver zi</w>
ro ger</w>
mu m</w>
me ch
madri d</w>
ha ina</w>
cul turi</w>
se g
patru lea</w>
indivi d</w>
gab ri
buz ele</w>
b â
7 3</w>
uci zi</w>
ta be
su f
po ste
ie și</w>
frigi der</w>
cer uri</w>
at ur
jun g
j o</w>
ho tar
certific at</w>
adec vate</w>
întâmpl are</w>
z o</w>
tax a</w>
so ţiei</w>
ră ma
l ler</w>
franci sco</w>
10 .
tr au
ter ape
parin tii</w>
gra vă</w>
chi pul</w>
salve ază</w>
ie sit</w>
cur ri
val ea</w>
v ul</w>
tax ele</w>
selec tați</w>
pro sper
oce anul</w>
ob ținut</w>
jucă torii</w>
echilib ru</w>
ste aua</w>
lip sesc</w>
li ve
le w
josep h</w>
d -o</w>
că dea</w>
bău turi</w>
auzi m</w>
atmosfer ă</w>
un uia</w>
stă tea</w>
importan ţă</w>
dezamă git</w>
dege aba</w>
ce au</w>
ab sur
so ară</w>
ci miti
ve y</w>
plân gi</w>
mode lele</w>
autori z
adec vat</w>
se an</w>
san ge</w>
pretu tin
e fic
p c
în şi
verific are</w>
termin i</w>
scum pule</w>
indi an</w>
disp ară</w>
cur sului</w>
ală tur
șter ge</w>
ve chea</w>
fil mului</w>
ed ward</w>
călă tore
c au</w>
îmbră cat</w>
t abilă</w>
popu lară</w>
lă u
9 ,
199 8</w>
sing apore</w>
plăte şti</w>
pa şi</w>
men ține</w>
di te</w>
comun ist</w>
co ș
cercetă rii</w>
asoci at</w>
n in
cuno ască</w>
b era</w>
asigur ări</w>
înregist rate</w>
serv i</w>
jur at</w>
ia si</w>
clar i
adul t</w>
a y
pretutin deni</w>
descoper irea</w>
be t
încăr care</w>
ur mei</w>
ti g
portu gal
pier deri</w>
bru xel
înțele gerea</w>
seco l</w>
omen irea</w>
identific a</w>
gra s</w>
fi ş
cân t</w>
contro ver
b ack</w>
afgan istan</w>
în ca</w>
ul ă</w>
u se</w>
mar fă</w>
cânte cul</w>
sin t</w>
re pl
patri ck</w>
diviz ia</w>
deci ziile</w>
su p
simul tan</w>
p amant</w>
moder ni
lumin ile</w>
cu van
întune cată</w>
în șe
proce se</w>
fi ică</w>
ser ioase</w>
rezi stă</w>
price put</w>
inte gri
călă tori</w>
aglo mer
încer carea</w>
stric t</w>
presedin te</w>
fur t</w>
dis cre
bo te
sănăto ase</w>
ra ți</w>
de an</w>
an ţi</w>
actualiz are</w>
pro gno
ll s</w>
intr -
an s</w>
veni re</w>
trimi se</w>
mo ale</w>
ma ți</w>
iz buc
i un</w>
e mer
aran je
zi ar</w>
urgen t</w>
partici p
gra fie</w>
studi ului</w>
simpto mele</w>
pre ven
pist ol</w>
pe m</w>
lovit ura</w>
aplic ate</w>
v asi
or o
new s</w>
itali an</w>
electro nic</w>
că toare</w>
că pă
so țul</w>
salari u</w>
obst ac
ja son</w>
de au</w>
bu to
al in
uite -l</w>
stat u
pasi une</w>
memb rilor</w>
zbo ară</w>
par iez</w>
k it
trag edi
de țin
asemănă toare</w>
îmbră că
wo w</w>
voi ai</w>
ti te</w>
spune au</w>
oare cum</w>
mo ment
uit i</w>
ple aca</w>
ob tine</w>
mat t</w>
k ur
de terminat</w>
re vine</w>
pu şi</w>
ling vi
limb aj</w>
legu me</w>
legis l
l ine
baz ăm</w>
ază -mă</w>
intere se</w>
inteligen tă</w>
flo rile</w>
fic ată</w>
d ati</w>
bag i</w>
ast ia</w>
acce sa</w>
10 -
re ven
fra ţi</w>
fi ți</w>
exag er
bucu resti</w>
aplic abilă</w>
înţele gerea</w>
v ard</w>
puşti ule</w>
parl amentului</w>
o fen
mun cit
avan s</w>
saptam ani</w>
min ori
incer cat</w>
epi de
b m
pri mului</w>
partici pe</w>
men iu</w>
enor m</w>
cost uri</w>
ci fr
un at
primă vară</w>
ceai ul</w>
at ice</w>
aste pt</w>
relaxe ază-te</w>
necesi tatea</w>
lo vi</w>
gro up</w>
dumin ica</w>
cit at</w>
bătă lia</w>
t abile</w>
sti an</w>
sim tit</w>
promo va</w>
modific ările</w>
cal dă</w>
ate s</w>
9 4</w>
se ful</w>
comun ității</w>
9 :
som nul</w>
sci en
o sân
mă i</w>
fer me
de șe
a va</w>
înco tro</w>
împl ine
speran ţa</w>
proiec tele</w>
per mită</w>
mo nu
ince pu
gânde şte</w>
crede ai</w>
bib lie</w>
şi -ar</w>
împ ache
rid ici</w>
ri tu
program are</w>
manu al</w>
lu ca</w>
ini c</w>
conclu zia</w>
co duri</w>
bo lilor</w>
tribun al</w>
me tal</w>
im pu
ia şi</w>
hr ana</w>
daţi -mi</w>
comandan tul</w>
an x
vo in
ro bin</w>
pri mar
mo bi
bri dge</w>
ador mit</w>
acti une</w>
absolven ții</w>
exper ți</w>
cunoaşte ţi</w>
b est
aspec tul</w>
su c</w>
stre s</w>
scen ari
o .
norma le</w>
ger ilor</w>
gal ben</w>
car dul</w>
7 6</w>
fu ria</w>
cre ativ
concep t</w>
bar bat
înțele agă</w>
vecin ii</w>
simb ol</w>
h t
esti mează</w>
at ît</w>
10 0.000</w>
ț ă
râ de</w>
prezen tate</w>
oraş e</w>
infor mati
case ta</w>
tiv itatea</w>
for mat
ad n</w>
supliment ar</w>
perio ade</w>
med ici</w>
u sc
lu rilor</w>
furni za</w>
fi gura</w>
ali zează</w>
accep te</w>
3 :
tin erilor</w>
păstre ze</w>
conşti ent</w>
bu sh</w>
telefo anele</w>
respec tarea</w>
pen ny</w>
modific are</w>
ar he
şi m</w>
v as</w>
ur s</w>
ri ch</w>
mări me</w>
ma ică-
ierusali m</w>
ş ap
so u
tehnolog ice</w>
rela ția</w>
p aman
indu -se</w>
găsi ți</w>
fan te
analiz at</w>
progre se</w>
pla ja</w>
tică los</w>
regle mentare</w>
n .
la ura</w>
campan ia</w>
îmbunătă țe
rămân eţi</w>
recunoscă tor</w>
gri jo
călă torii</w>
afla ţi</w>
sal vezi</w>
no n
j ig
d- nă</w>
cau ze</w>
trebu rile</w>
psihi at
docu men
gre ș
cop y
ându -i</w>
z iei</w>
trag ă</w>
pă puş
domni şoara</w>
câmp ul</w>
ve chi
spaţi ul</w>
si s</w>
privi m</w>
k m
k are
excur sie</w>
cau ciu
angaj aţi</w>
sufle tului</w>
situ aţii</w>
person alului</w>
mili ard</w>
g ări</w>
cla se</w>
p ai
iu s</w>
da -mi</w>
b lac
modific area</w>
gestion are</w>
sco r</w>
sco ată</w>
pri me</w>
lu ptăm</w>
di u</w>
curi os</w>
8 2</w>
ti sm</w>
public ate</w>
lun gime</w>
f ani</w>
declar aţie</w>
clic k</w>
bru ce</w>
sc ar
mirac ol</w>
in cep
homo sexu
grădin a</w>
en ia</w>
demo cr
câşti gi</w>
consumat orilor</w>
a- ma</w>
ve ze</w>
teri bil</w>
tar ilor</w>
pe- aici</w>
fi b
vie w</w>
ușur ință</w>
no bel</w>
co inciden
acoper it</w>
urmăre şte</w>
mun cit</w>
curi oz
b ia</w>
afi șează</w>
victi mele</w>
vest ul</w>
pre luat</w>
mând ră</w>
g in</w>
căpit an</w>
core e
vân dă</w>
ure che</w>
stu rile</w>
regi z
lo ok</w>
lar ii</w>
g ama</w>
abandon at</w>
sti g
spaț iul</w>
deose bită</w>
d lui</w>
bicicle ta</w>
în grijo
simb o
roş ii</w>
recor d</w>
mode lului</w>
con spi
col ţ</w>
cite ască</w>
benz ină</w>
atin gi</w>
însu mi</w>
prin dă</w>
preşedin telui</w>
c n
bucur os</w>
al aturi</w>
11 :
st eroizi</w>
respec te</w>
reflec tă</w>
di sco
adul ţi</w>
încre din
victi mă</w>
utiliz atorului</w>
proteje ază</w>
priori tate</w>
l le</w>
ein stein</w>
cur and</w>
înțele gem</w>
înto c
pu şti</w>
cab lu</w>
asigur at</w>
adevar ata</w>
to arelor</w>
pro ste
marsh all</w>
imp er
fi lip
de pozi
cu minte</w>
în gră
progra melor</w>
pasag eri</w>
lac ul</w>
itat ile</w>
acade mică</w>
zi arul</w>
ur ca</w>
te mă</w>
k ri
chine ze</w>
adân ci
adevăr ului</w>
ţ ate</w>
v â
un ități</w>
popu lat
furniz or</w>
f f
condi ţionat</w>
8 3</w>
3 /
dispă rea</w>
aprovizion are</w>
vede ti</w>
sho w</w>
odih nă</w>
lup t</w>
logo d
ir ani
du- ne</w>
d .</w>
ber n
av or
adu se</w>
men ţionat</w>
dege te</w>
ape lul</w>
trecu te</w>
min a</w>
din ţi</w>
clasi c</w>
ati -va</w>
tr ata</w>
rec ic
produ cerea</w>
ne ss</w>
gândi rea</w>
electron ică</w>
e şe
di tă</w>
osc ar</w>
je ff</w>
diferen ța</w>
co ri
știin ței</w>
sărbă tori</w>
solic ita</w>
preț urile</w>
politic ile</w>
ne t
feti ţa</w>
de bu
cat alo
4 :
sper ii</w>
protej area</w>
min ţile</w>
lar ry</w>
crip to
c ata</w>
bu ze</w>
î si</w>
on g
lo u</w>
gro z
est ul</w>
diver ti
a- n
5 :
ţ o</w>
s n
org an
mi ster</w>
amă nun
a aron</w>
opri ţi</w>
mag ie</w>
lucre aza</w>
in el</w>
confor t</w>
restaur antul</w>
mijlo acele</w>
e i
be ll</w>
an n</w>
ţe lul</w>
şe ască</w>
in tui
evre u</w>
datori i</w>
aminte şte</w>
ze ască</w>
s orul</w>
pie ței</w>
pe rea</w>
mac hi
ro y</w>
r .</w>
pl aci</w>
multi me</w>
informa ți</w>
infor mare</w>
întârzi ere</w>
sănă tăţii</w>
obişnu ită</w>
maest rul</w>
jo nes</w>
guver nele</w>
et apa</w>
at ã</w>
însă şi</w>
îna in
ta -ma</w>
pantal onii</w>
li ga</w>
efor turi</w>
andre w</w>
tim pu
scur te</w>
popula ţia</w>
pie lii</w>
leon ard</w>
h tt
car ol</w>
aeri an</w>
înce tin
ter ul</w>
pă catul</w>
curri cu
vacan ță</w>
t are
răspun zi</w>
introdu cerea</w>
carac teri
c .
avant ajele</w>
ast ică</w>
îndo iesc</w>
în teme
sufle tele</w>
pre ten
implemen tarea</w>
hor mon
for ța</w>
cu pa</w>
activ at</w>
pre ia</w>
ir anul</w>
hol ly
re dac
ne xt</w>
li tate</w>
l am</w>
j an</w>
h as
dobi to
alist ă</w>
ex tr
em ma</w>
de vo
supravie ţui</w>
scă dere</w>
restaur ante</w>
potrive şte</w>
intre bat</w>
7 9</w>
singur e</w>
s apte</w>
no min
moment an</w>
furniz ori</w>
bre ve
an e
ş ă</w>
r atele</w>
pro punerea</w>
pl ă</w>
h ele
extin s</w>
dezamă gi
co ple
a …</w>
post uri</w>
econom ii</w>
cer c</w>
can alul</w>
c ca</w>
sublini at</w>
io sif</w>
inclu se</w>
ic o</w>
g ăr
fon dat
înve țe</w>
we n</w>
ra poarte</w>
perse cu
norve gia</w>
impresion ant</w>
ex ac
do rea</w>
cupo n</w>
tan d</w>
se sem</w>
li ly</w>
gh ice
costu mul</w>
înţele agă</w>
volun tar</w>
st ând</w>
reprezen tat</w>
ray mond</w>
creste rea</w>
clien tului</w>
chu ck</w>
c -ai</w>
ţe sc</w>
împin ge</w>
po ș
finan țe</w>
c ke
aștep ta</w>
supra faţă</w>
sc ara</w>
num ără</w>
du mi
detali u</w>
co st</w>
biju terii</w>
7 8</w>
împie dic
umb ra</w>
tră dat</w>
ori cărui</w>
organiz ație</w>
log ist
d d</w>
comen zi</w>
vla di
suspec t</w>
preocup ări</w>
po int</w>
înve ţe</w>
par ame
bo o
ac tori</w>
z ăm</w>
re feren
men iul</w>
maest re</w>
ține m</w>
wh at
privi leg
japone z</w>
vir gin
hai deti</w>
constru iască</w>
versi uni</w>
st om
de st
bibliote că</w>
ace lui</w>
speci alitate</w>
lăsa ţi-mă</w>
in vaz
ş ilor</w>
uti lă</w>
umb ră</w>
metro u</w>
m pen
g ate</w>
for u
fi sc
di i</w>
dezgu stă
ce tate</w>
ure chi</w>
resi den
mun i
eveni mentul</w>
efec tiv</w>
distru gerea</w>
bul garia</w>
am ster
sto ne</w>
pre dat</w>
de pu
alist e</w>
198 9</w>
r ã</w>
deci zi
8 4</w>
1 1.
tre az</w>
situ ații</w>
nici una</w>
zo mb
itali ană</w>
fe restre</w>
8 :
organi smul</w>
imb unat
pădu rea</w>
h ack</w>
for mula</w>
cic lu</w>
bra d</w>
amin tim</w>
pla y
limpe de</w>
li pi
j ul</w>
acți unea</w>
vin zi</w>
ur ce</w>
simţi ţi</w>
ist e
i ve
anti bio
ști ut</w>
în ot</w>
tal ent</w>
per si
it y</w>
he c
crede ti</w>
th a</w>
tempor ar</w>
bruxel les</w>
întoar cerea</w>
y d</w>
mi la</w>
informa t</w>
fi n</w>
e p
co lon
bo x
şi -l</w>
prefer ată</w>
inst ag
elimin ă</w>
cre ată</w>
ţ ân
organiz aţia</w>
n- aţi</w>
intoar ce</w>
credin cios</w>
s fo
demisi a</w>
acti vează</w>
vo tul</w>
producă torii</w>
h r</w>
ger ia</w>
fiș ierele</w>
artico lului</w>
2 .000</w>
utiliz ând</w>
tri ste
tra j</w>
pe is
nevo ilor</w>
iar bă</w>
echip amentul</w>
ban k</w>
w e</w>
recoman dă</w>
m ata</w>
folosi ți</w>
decen iu</w>
chirur g
super -
nas cut</w>
informa țiilor</w>
altern ativă</w>
al ic
ace lei</w>
tâ mpen
păr țile</w>
medi ter
e rele</w>
di spune</w>
ur mar
ne m
indivi zi</w>
im poz
gar y</w>
farm ac
2 /
solu ţii</w>
me se</w>
mar fa</w>
m .
asisten ta</w>
y n</w>
strân ge</w>
re trage</w>
politic os</w>
mu zeu</w>
ze r</w>
san ta</w>
pre văzute</w>
muncit ori</w>
materi alele</w>
ke lly</w>
individu al</w>
gr ant</w>
chi p</w>
carto fi</w>
ca zi
bu cat
b ele</w>
afi ş
p ată</w>
inter og
integra rea</w>
industri ală</w>
imen s</w>
e mp
book ing
uş ur
remar cat</w>
poe zie</w>
mor ală</w>
gu stul</w>
folo seste</w>
înfri coş
încer ce</w>
tră să
prieten ie</w>
c ane</w>
pre sus</w>
ine lor</w>
după-ami ază</w>
de pune</w>
prân zul</w>
origin ea</w>
mo dului</w>
e ta
drago n</w>
d- na</w>
tiv ului</w>
te şte</w>
sus an</w>
st art</w>
sacri fici
reprezen ta</w>
proaspă t</w>
poz ele</w>
org ane</w>
da j</w>
bog ate</w>
veni se</w>
ti -va</w>
supravieţu it</w>
e șe
dez bră
are ste
aj elor</w>
8 1</w>
tan t</w>
pre t</w>
pic ă
mor gan</w>
du ș
curricu lu
ti purile</w>
te şti</w>
re țele</w>
bol ii</w>
pro mite
ma d
b ată</w>
angaj amentul</w>
altern ative</w>
tab ăra</w>
refu za</w>
pie țele</w>
obo se
me seria</w>
kilo grame</w>
evre ii</w>
episo dul</w>
primă vara</w>
lew is</w>
c lan
viet nam</w>
rezol ve</w>
ob țineți</w>
loca ție</w>
fă r</w>
cu tii</w>
barb ie</w>
audi en
en ți</w>
comun ica</w>
ce tat
8 0
sim ţe
puşti ul</w>
o stat
instru ire</w>
hi per
dumne ata</w>
împl init</w>
vizi bile</w>
transp lan
sur at</w>
răsp lă
poli ție</w>
fal să</w>
colu mb
cal orii</w>
trag eţi</w>
st ită</w>
mi- aţi</w>
furt ună</w>
determin ă</w>
ce tatea</w>
apăr a</w>
pro pun
k az
ani u</w>
ameste c</w>
ve se
tru p</w>
refu ză</w>
pri cepi</w>
poten țial</w>
imperi ul</w>
ge am
ce şte</w>
abor darea</w>
şan se</w>
videocli puri</w>
nu- ți</w>
co -
b ã
relax are</w>
nepo tul</w>
gru pa</w>
gra fic</w>
gase sc</w>
defini tiv</w>
contr adic
bă g
ț ită</w>
ver ii</w>
utiliz ată</w>
transfer ul</w>
profi l</w>
no ti
l t</w>
jurn ali
instag ram</w>
ar melor</w>
progre s</w>
jucă rii</w>
je an</w>
inchi ri
for ță</w>
fiic ei</w>
eli bera</w>
chest er</w>
agrico le</w>
t as
prezen tul</w>
investi ţii</w>
e re
con ta</w>
avan sat</w>
rit m</w>
ob ol
mat ogra
li mite</w>
juri dic</w>
ger mani</w>
din totdeauna</w>
cali ficare</w>
ca bine
ve lo
val ori
ta ylor</w>
procen te</w>
inspi ra
in ului</w>
do m</w>
as adar</w>
pro sti
imp une</w>
descoper ă</w>
de ţine</w>
celu lă</w>
7 4</w>
miş caţi-vă</w>
la w
inv ata</w>
autori tate</w>
w ol
v -ar</w>
s ara</w>
is mului</w>
ș ii</w>
îmb rac
zo nei</w>
pă străm</w>
ie șit</w>
dă rii</w>
co or
asisten ţă</w>
şi -
vinde ca</w>
surprin zător</w>
ră scump
majori tate</w>
m g</w>
in se
cau zate</w>
închi pu
te stele</w>
struc tură</w>
mar ina</w>
i re
dru mului</w>
artico lele</w>
întoar cere</w>
ze ii</w>
identific area</w>
fanto mă</w>
concer t</w>
cin cea</w>
cat -o</w>
buge t</w>
v ale</w>
măr un
mi rare</w>
cont amin
ce h
acţione ază</w>
s mul
s -</w>
r ati
o st
con so
aminti rile</w>
af ul</w>
modific at</w>
ier ta</w>
expri mat</w>
că tură</w>
ban care</w>
ţe an</w>
separ ate</w>
răspun de
pre ţi
posibili tate</w>
na h</w>
do s
ate ază</w>
împăr ţi
ofer ul</w>
mon ia</w>
go spo
fer ti
centr ului</w>
az ã</w>
împie dica</w>
solic ită</w>
s burg</w>
le agă</w>
inspi rat</w>
informa ţie</w>
bo ston</w>
z ân
pu s-o</w>
docu ment
atin gă</w>
argen tina</w>
vre unul</w>
sfer t</w>
i rile</w>
aştep te</w>
su par
sc ări</w>
par ul</w>
lin da</w>
conclu zie</w>
bătrân ă</w>
ad n-ul</w>
tâ mpl
te stat</w>
r ări</w>
pa și</w>
han k</w>
du la
do lar</w>
concentr at</w>
antrepreno ri
y le</w>
u x</w>
tri stă</w>
teat rul</w>
sho w
pr aga</w>
deschi zi</w>
convin ge</w>
aero por
ó n
veni ți</w>
un der
supra faţa</w>
iu le</w>
greş ită</w>
go ale</w>
ca sin
adăug ați</w>
trimite m</w>
scum pe</w>
s câr
raspun sul</w>
mor al</w>
har vard</w>
atac a</w>
trat atul</w>
no ilor</w>
impl ica</w>
hote lului</w>
bo lile</w>
zi are</w>
trei zeci</w>
stră zile</w>
s âr
re st</w>
o tra
navig are</w>
institu ție</w>
ge t</w>
bra ţe</w>
bog aţi</w>
blac k
s ai</w>
lu mân
intre bari</w>
al iei</w>
199 7</w>
urmă tor
tu ia</w>
ple cam</w>
d c</w>
ab rah
în cheie</w>
way ne</w>
secre tele</w>
reg im</w>
prefer in
inter zice</w>
ex pan
e şu
e ta</w>
aten ţi</w>
astă -
an der
﻿ ﻿
îndepl ini</w>
stăpân e</w>
prefer ă</w>
lu are</w>
independen tă</w>
demon stra
aş tere</w>
wal l</w>
secre tarul</w>
promo vare</w>
meci uri</w>
ma h
cli t</w>
ato t
întele g</w>
minci una</w>
la si</w>
iar ba</w>
carac tere</w>
bu ton</w>
şi -o</w>
z ar</w>
scla vi</w>
multi ple</w>
ion ul</w>
impri man
ho l</w>
gi u</w>
coman dat</w>
ci or
ze elan
vin g</w>
plani ficare</w>
past ile</w>
mo s</w>
extin derea</w>
esen țiale</w>
agri cultură</w>
vro ia</w>
spune -ne</w>
mo bilă</w>
judecă torul</w>
inter sec
extraordin ară</w>
descoper ire</w>
ar at</w>
între gului</w>
uci şi</w>
s pen
presu punem</w>
ma sca</w>
incepu tul</w>
gen te</w>
fiin ţă</w>
f ază</w>
diferen ţă</w>
bel gia</w>
anun tat</w>
vizu alizare</w>
tă cere</w>
ope rează</w>
f iti</w>
a lu
199 4</w>
tă gădu
tor t</w>
singur ă
saudi tă</w>
provo cările</w>
por n
pa d</w>
men ționat</w>
de ține</w>
cutre mur
ciu per
anto ni
tiv itate</w>
pho ne
o o
mi x
linişti tă</w>
ghi dul</w>
eș u
cu re
atâ ţia</w>
trecu ta</w>
te ch
s mele</w>
re direc
pag inile</w>
k in</w>
e e</w>
conec tate</w>
cine matogra
an ţa</w>
acor da</w>
y o</w>
semnific ativă</w>
ne fericire</w>
h ri
elimin at</w>
cuno sti</w>
clo po
înger ii</w>
zu tă</w>
re e
portugal ia</w>
juri s
gh ic
domici liu</w>
an ia</w>
al ilor</w>
într- una</w>
în no
sun ă-mă</w>
promp titudine</w>
nume şti</w>
imagine z</w>
eta pe</w>
constru ită</w>
prin dem</w>
pis ici</w>
li ti
hele n</w>
far a
împu ș
tradi ționale</w>
tat orul</w>
perman entă</w>
obo sită</w>
men ţine</w>
introduce ți</w>
i suse</w>
hi p
deranje z</w>
acce sorii</w>
absolven t</w>
to pul</w>
sc ru
ro t
referen du
păstre zi</w>
cre ați</w>
condi ționat</w>
ce -l</w>
braz ili
științi fică</w>
con ţinutul</w>
noroco asă</w>
accen tul</w>
. ro</w>
su ta</w>
pla s
internațion ali</w>
fa x</w>
arab ă</w>
aplic ațiile</w>
solicit at</w>
ly n
f mi</w>
est im
crac iun</w>
strateg ice</w>
nou -
g at
sigur a</w>
prezen tarea</w>
porun ca</w>
p tul</w>
adu -mi</w>
4 5
jo sh</w>
fore x</w>
distru să</w>
asemănă tor</w>
ară tăm</w>
ă -ţi</w>
tar ului</w>
sus ţin</w>
monitori zare</w>
inst ale
dorin ța</w>
bu s</w>
bac k
în semnat</w>
s che</w>
recuno aşte
pretin de</w>
in co
gene tic</w>
flo ren
ascun să</w>
ap p</w>
spor tive</w>
pă mîn
prefer ate</w>
ne ște</w>
intreb are</w>
sy l
in cident</w>
ele v</w>
chi mie</w>
antre ne
8 ,
10 :
we st</w>
sh i</w>
ri dic</w>
m u</w>
lacri mi</w>
fran ta</w>
et ică</w>
descăr ca</w>
îngro pat</w>
tre cere</w>
sur ori</w>
organiz ate</w>
hi ll</w>
cine ma</w>
acti va</w>
supra față</w>
rezer va</w>
mor e</w>
elve ția</w>
cont abilitate</w>
citi ți</w>
chirurg ic
urmat oarele</w>
ro y
partici pă</w>
mire asa</w>
ke y
di minu
cobor ât</w>
aeri ană</w>
recep ţionat</w>
porto fo
p ei</w>
in exacti
fă -mi</w>
c -ar</w>
bucă ţi</w>
ad ul</w>
îmbră ţiş
suger at</w>
so lo
l- aş</w>
andre i</w>
tran spi
sho p</w>
sfar sit</w>
păstre z</w>
plictisi tor</w>
pi le</w>
fir mei</w>
dove zile</w>
cercetă rile</w>
vic tori
lini ști
dane marca</w>
a si</w>
sper mie
roș ie</w>
particul ar</w>
o sul</w>
func ţia</w>
fil tr
f ro
con sim
brow n</w>
aş ez
z gâ
t ase</w>
respec ta</w>
pără sesc</w>
lo vi
impresion at</w>
cău tați</w>
veh icul</w>
u z</w>
ser vit</w>
rezol văm</w>
renun ţ</w>
prezen ța</w>
maj est
greşe li</w>
evo luat</w>
e ți</w>
bu rile</w>
sab ie</w>
im pozi
alt cuiva</w>
wo o
ven iti</w>
r ana</w>
pre ocu
orto do
olimp ice</w>
o și</w>
mi hai</w>
199 1</w>
dia be
av i</w>
adap tarea</w>
val orează</w>
thai landa</w>
protej at</w>
fri p
amster dam</w>
v ã
reg ină</w>
la ure
dur abile</w>
direc te</w>
at ră
în clin
ră pit</w>
pil dă</w>
comerci ală</w>
ui ți</w>
sovie tică</w>
sc ul</w>
ru se</w>
prin te
cal ității</w>
bun ul</w>
av ere</w>
atacu rile</w>
si one
păcă to
organiz aţiei</w>
miş carea</w>
f ân
ero ul</w>
civi lă</w>
5 g</w>
ter s</w>
sp a</w>
son d
reali zează</w>
potrive sc</w>
furniz orii</w>
dra g</w>
li an</w>
ken ne
istori că</w>
bo w
ar ist
anter ioară</w>
ş or</w>
to wn</w>
sufle te</w>
ser ii</w>
recen tă</w>
număr ului</w>
gener aţie</w>
bătrân i</w>
ferici te</w>
credin ța</w>
bm w</w>
person al
pasi unea</w>
găse ște</w>
de re
re se
in sig
dev ast
ba y</w>
acor dă</w>
vi zează</w>
t aţi
scri a</w>
respec tivă</w>
repe ti
ren t</w>
ra poar
mi ss</w>
leg iu
expre sia</w>
declar ație</w>
că maş
aprop ia</w>
te an</w>
stri gat</w>
st aţia</w>
mu ș
lo ck</w>
for ta</w>
ex i
bile tul</w>
ven ite</w>
sy dney</w>
spo ri
intro duce</w>
intor s</w>
g ată</w>
cu r</w>
biolog ice</w>
amb ii</w>
te mer
me aza</w>
lu ând</w>
instal area</w>
gr ace</w>
b atic</w>
zbur at</w>
uit ați</w>
mar că</w>
lo v
en d</w>
de la</w>
amen d
al b
adu ceţi</w>
spec ie</w>
răzbun are</w>
ou ă
mili tari</w>
iu da</w>
imun itar</w>
en g
descăr care</w>
datore z</w>
d ară</w>
astep tam</w>
înconjur ător</w>
str at</w>
mur dar</w>
g on
cuno aste
az il</w>
ali mentele</w>
ad o</w>
înghe ţată</w>
urmat orul</w>
respons abili
renun ţi</w>
o pen
mi ami</w>
m .</w>
inst ituti
in car
cheltuie li</w>
în jun
z ică</w>
pere ze</w>
mo z
consu mului</w>
chi lo
cadav ru</w>
britan ică</w>
angaj ează</w>
volu m</w>
te au</w>
reclama ții</w>
păsă rile</w>
plăte şte</w>
perso anei</w>
lăs at-o</w>
hi dr
e ur</w>
comb ate
ş at</w>
me dal
apropi aţi</w>
al tuia</w>
ț ărilor</w>
k ra
japone ză</w>
i ală</w>
doc torii</w>
diversi tatea</w>
blo ck
vă rii</w>
tec h</w>
ini ţial</w>
i or
cadav re</w>
tân ărul</w>
spect acu
speci aliz
retrag erea</w>
pro pag
fal si
dou g</w>
deschi dă</w>
ce artă</w>
cap abilă</w>
an ță</w>
ţion ată</w>
urme aza</w>
univer sal</w>
să ge
mag ic</w>
inte legi</w>
industri al</w>
er iei</w>
învăț area</w>
plat forme</w>
caz ului</w>
băn cile</w>
bun icii</w>
aplic at</w>
th er
sprij ină</w>
spiritu ală</w>
si toare</w>
reu şesc</w>
re sor
pro punere</w>
gi l
ga ura</w>
festi valul</w>
fer ma</w>
di m</w>
dece se</w>
co un
şte -mi</w>
º i</w>
sfer a</w>
pro mite</w>
prin ţul</w>
pre sei</w>
o x
gest ione
fil mat</w>
bur sa</w>
auto mobile</w>
ali smului</w>
tax ă</w>
sun g</w>
scu ză</w>
out look</w>
o v</w>
ap titudin
199 6</w>
uș a</w>
rug am</w>
partic ule</w>
op ţiuni</w>
ex a
drag ut</w>
ten siunea</w>
st ati</w>
spun a</w>
ri e
pre ss</w>
pan ică</w>
cre ative</w>
vorbe ști</w>
sensi bil</w>
ob țin
dia bet</w>
cau ti</w>
ver s</w>
v- ați</w>
pro so
musul man
lu ati</w>
limb ii</w>
inter ioară</w>
ban c
az e</w>
autentific are</w>
vân zarea</w>
preci zie</w>
par don</w>
necesi ta</w>
inexacti tăți</w>
dă ună
vi ată</w>
i aco
extre me</w>
cunoscu t-o</w>
bucur at</w>
ş trii</w>
ven ti
părin ți</w>
past i
par olă</w>
france ze</w>
e ar
destin at</w>
celorl alţi</w>
cat astro
britan ice</w>
ș er
importan ța</w>
g reg
contac tând</w>
bun urile</w>
ţin ea</w>
sc h</w>
respi ra</w>
prin zi</w>
nast ere</w>
georg ia</w>
arhi va</w>
înlocu i</w>
tâ i</w>
te sto
lini ile</w>
ită ţilor</w>
fo curi</w>
cre aturi</w>
at ion
ală turat</w>
vrăji toare</w>
spati u</w>
independen te</w>
echilibr ul</w>
cu ţ
constru ite</w>
baz e</w>
arun căm</w>
actualiz at</w>
înlocu it</w>
vânză rile</w>
un d</w>
sto mac</w>
semn ale</w>
mând ri</w>
gestion a</w>
gen era</w>
furi os</w>
far me
călu gă
cuno aște</w>
at aș
arab e</w>
7 :
speri ată</w>
re d
person alitate</w>
num este</w>
materi alelor</w>
acti uni</w>
utiliz ării</w>
sa s</w>
pro cent</w>
nen umăr
interne tului</w>
f ura</w>
di ana</w>
dan sul</w>
ten siune</w>
stri gă</w>
pro misiunea</w>
ma saj</w>
fund al</w>
fl ac
e mis</w>
z aţi</w>
ne drep
jumă tatea</w>
har old</w>
găsi tă</w>
furniz ate</w>
dezvălu it</w>
con turile</w>
columb ia</w>
bătrân e</w>
abrah am</w>
împie dică</w>
utiliz atorul</w>
trebu iau</w>
terap ia</w>
ru ga</w>
repe tat</w>
prosti ile</w>
organiz ațiile</w>
mar gare
fre y</w>
comple ta</w>
an ți</w>
sin ucis</w>
k ing
ha y
gă tit</w>
cău tam</w>
ar ga</w>
în ţe
tra iesc</w>
speci fică</w>
rău tă
răni ţi</w>
regi mul</w>
lu s</w>
fisca le</w>
c ac
bolnav i</w>
arun ce</w>
venezu ela</w>
sân ge
mole cul
crede au</w>
bomb e</w>
bar ul</w>
ţin ute</w>
si -au</w>
păr ţile</w>
ing iner</w>
imen să</w>
folosi ţi</w>
experien țe</w>
concentr a</w>
colone l</w>
can a</w>
aman da</w>
ţe şte</w>
spune ti</w>
renun ţa</w>
plac ere</w>
li fe</w>
g am
băn cii</w>
acti on
şe fule</w>
tipă ri
pi an</w>
ore z</w>
k no
i- aş</w>
curen tă</w>
vor ul</w>
trop ic
roș ii</w>
părăse ască</w>
produ că</w>
prob ă</w>
pre vede</w>
pira mi
e p</w>
copy right</w>
az i-
aprop ii</w>
ange la</w>
tehnolog iile</w>
roman tic</w>
proiec tarea</w>
potenți alul</w>
nemer nic</w>
er aţi</w>
educa ționale</w>
si da</w>
râ zi</w>
respons abili</w>
ne gri</w>
ja f</w>
că ile</w>
12 :
wh ite</w>
u mili
ten is</w>
st ia</w>
soph ie</w>
ju lia</w>
de leg
dat ã</w>
zi me</w>
sfă tu
respec tive</w>
mân tului</w>
eg o</w>
bra ţele</w>
b ita</w>
răspun surile</w>
materi alul</w>
datori e</w>
cic atri
ţion ate</w>
un trul</w>
li tere</w>
gro ază</w>
e se
e misiunea</w>
bu f
anche tă</w>
înt inde</w>
olog ică</w>
ni mic
log ia</w>
duce ţi-vă</w>
distru g</w>
consili er</w>
ce ască</w>
an ca</w>
absolven ți</w>
6 :
x on</w>
ter ry</w>
portu ghe
min i</w>
fra ţilor</w>
bău tura</w>
bai at</w>
a buz
y n
sune te</w>
refer itor</w>
prin țe
pri cina</w>
popula ției</w>
pe sc
gu s</w>
be lor</w>
bag ajele</w>
sc ân
le d</w>
f ali
apor tul</w>
vizi bilă</w>
pierdu te</w>
mo toare</w>
frumuse ţea</w>
despăr ţit</w>
calcul atorul</w>
avo ca
a şi</w>
ţion a</w>
înt ins</w>
vie ți</w>
su fl
sla be</w>
lan sa</w>
grăsi me</w>
dore am</w>
clien tii</w>
cere rii</w>
în semn
struc turi</w>
iube ște</w>
gar da</w>
g ag
com promi
baz ele</w>
al ini
acţi unea</w>
în corpor
repar a</w>
redu ceri</w>
prez er
por umb
fo ame
esti mat</w>
cân tat</w>
br and</w>
accesi bile</w>
stră ină</w>
strate gic</w>
relig ioasă</w>
lo cat
gra fice</w>
co b
_ _
y e</w>
so rile</w>
or asului</w>
matemat ica</w>
m esti</w>
echip ele</w>
diverti sment</w>
c -a</w>
so fi
n est
mil ler</w>
dan sezi</w>
apro fun
vizi te</w>
sto care</w>
sin dro
preț uri</w>
maş inile</w>
later ale</w>
d -uri</w>
co responden
re te
găsi rea</w>
fundamen tală</w>
de- abia</w>
zâmb et</w>
soli dă</w>
recoman d</w>
org anele</w>
nive lului</w>
jocu rilor</w>
ier tat</w>
diferi tele</w>
auto mată</w>
i legale</w>
h un
exe mpl
disp ar</w>
cu sto
cen tura</w>
bă ga</w>
avo cat
ţe ază</w>
ură şte</w>
tot alul</w>
step hen</w>
promo țional</w>
pozi tivă</w>
opin ie</w>
fi de
efor tul</w>
diferen ta</w>
înconjur at</w>
speci alist</w>
post -
do za</w>
culo rile</w>
credin ță</w>
confir mă</w>
cole g</w>
calcul atoare</w>
ca pului</w>
5 0.000</w>
salu tare</w>
rezol vă</w>
mag ia</w>
bb ie</w>
aște ptăm</w>
şi -i</w>
terori ste</w>
or bi
for mei</w>
econo misi
du bi
datori ta</w>
ca s</w>
ş am
ti pule</w>
se f</w>
ro ti
perman en
cre ăm</w>
an da</w>
9 0
si gi
pe şti</w>
investi torii</w>
gene va</w>
do na</w>
cuno aște
ci une</w>
1 .</w>
utili zeze</w>
tâ l
poten ţi
pla y</w>
o ar
mag gie</w>
in util</w>
g ã
e ch
cur vă</w>
bucătă ria</w>
n uri</w>
mor mânt</w>
le aza</w>
lap tele</w>
g el</w>
ca ii</w>
bel la</w>
2 2
19 80</w>
vi c</w>
ui rea</w>
tă rilor</w>
tă -l</w>
mulţu me
mer it
mar cat</w>
ju ridică</w>
in tar
holly wood</w>
fie căruia</w>
co adă</w>
chi n</w>
avant ajul</w>
ase lor</w>
pune -ţi</w>
potri vi</w>
pen e
gar anta</w>
d ând</w>
as amb
20 .000</w>
țion a</w>
vladi mir</w>
ve s</w>
the r</w>
naţi unilor</w>
h on
comunic ații</w>
aliment ară</w>
activ i</w>
zeelan dă</w>
w ho
vor be</w>
terori st</w>
pregăte ște</w>
pa y
ofi ț
i- aţi</w>
for t</w>
expre sie</w>
eva luat</w>
direc ţie</w>
cri tic</w>
ca pete</w>
bine inteles</w>
ren a</w>
ma y</w>
liter atura</w>
al gori
agen ţii</w>
înălţi mea</w>
k ie
func tioneaza</w>
demon strează</w>
anche ta</w>
adre se</w>
ţin ând</w>
securi tății</w>
psiholog ie</w>
pacien ții</w>
nevo it</w>
neu tr
in che
eliber are</w>
di re</w>
a w
ţu le</w>
peric olul</w>
par fu
p ură</w>
mor ale</w>
fin landa</w>
desfăș oară</w>
depre sie</w>
caracterist ică</w>
ap le
ţione ze</w>
încă pă
te mplu</w>
stân gă</w>
sky pe</w>
sh ang
control at</w>
apar ține</w>
supli mente</w>
sla va</w>
respons abilă</w>
lu i
h au
ero i</w>
cast el</w>
b âr
ac ționează</w>
simp la</w>
s d</w>
psi h
ki r
apreci at</w>
apari ţia</w>
albu m</w>
sp al
propri ei</w>
prinţe să</w>
prieten ia</w>
mu te</w>
ja y</w>
ger s</w>
biro uri</w>
acoperi ş</w>
yo ga</w>
what sap
tab le
guvern are</w>
contr az
ci oc
atin gerea</w>
apo st
a lumin
ți mea</w>
îngrijor ată</w>
trag em</w>
sus țin</w>
ro u
mănă sti
mar cus</w>
maj or
li f
instan t</w>
gă tori</w>
flu x
c d</w>
apor t</w>
vi za</w>
uci s-o</w>
sinuci dere</w>
se şte</w>
mulțu mim</w>
mo tel</w>
mi sc
locu ieşti</w>
inter medi
fra gi
comer țului</w>
ban ă</w>
at âr
agen ția</w>
administ rare</w>
urâ tă</w>
ul -
tur n</w>
toale ta</w>
sper ă</w>
ne muri
modu le</w>
mer sul</w>
combate rea</w>
aminti re</w>
oblig atoriu</w>
ne l
misi unii</w>
bi l
algori t
ag it
sărbă toare</w>
sur sele</w>
sat ur
obiec tele</w>
ma me</w>
leg ere</w>
excelen te</w>
că rilor</w>
cur ate</w>
cere ri</w>
ticălo sule</w>
se tul</w>
pre dau</w>
m ace
har vey</w>
convers aţie</w>
che zi
199 2</w>
mo toarele</w>
mar ti
h az
dezvălu ie</w>
bleste mat</w>
superio are</w>
suge rez</w>
recuno şti</w>
musul mani</w>
h y</w>
femin in</w>
est a</w>
electri citate</w>
cola bo
at urii</w>
întune cat</w>
redu se</w>
posi bilul</w>
plo aia</w>
lun gi
glo ria</w>
dina intea</w>
consumat orii</w>
con ci
â u</w>
t r</w>
recoman da</w>
per chezi
mes ag
lucr am</w>
la ş</w>
ko v</w>
do larul</w>
bucur e</w>
alcă tu
vac anta</w>
repe tă</w>
pu și</w>
pu zz
instal are</w>
gre en</w>
glon ţ</w>
gene rează</w>
distru se</w>
contribu it</w>
confrun ta</w>
competen țe</w>
clin ică</w>
aju toare</w>
zbo are</w>
vre murile</w>
serve sc</w>
pre lua</w>
plani ficarea</w>
pl ina</w>
nenoroc ită</w>
fur e</w>
vin cent</w>
pl ate
mb er
infrastruc tura</w>
for ței</w>
des ene</w>
cetăț enii</w>
ale argă</w>
whatsap p</w>
ste m</w>
sca dă</w>
pe lor</w>
fin alizarea</w>
direc ția</w>
ch at
ver tic
scu i
povest i</w>
meto do
cer tat</w>
campion atul</w>
… …
îndo ie
rezol v</w>
premi um</w>
p r</w>
gar i</w>
ţe ască</w>
ş e</w>
încân tată</w>
sold aţii</w>
proce dură</w>
nego cie
dorin ţă</w>
co ada</w>
cla sei</w>
tal entul</w>
prizoni eri</w>
n ina</w>
manag erul</w>
de venim</w>
camp ion</w>
tu s</w>
supliment ară</w>
plo uă</w>
nemai pomenit</w>
lun ga</w>
har d</w>
f iei</w>
an d
vre d
r ari</w>
plăcu te</w>
ex o
co la</w>
b .</w>
schimb ărilor</w>
re ască</w>
pă ian
negli j
m ni
dure ze</w>
con cor
co mis</w>
cer t</w>
cau zele</w>
auzi ţi</w>
volun tari</w>
prezen te</w>
mat the
loca ția</w>
fon durile</w>
exercit ați</w>
vându te</w>
v ni
prive li
popu lar
n r.
instan ţă</w>
cre atorul</w>
c c</w>
c ator</w>
înde ajuns</w>
încălzi re</w>
st ap
si c</w>
se mi
re abili
paradi s</w>
p ază</w>
ob tine
identific are</w>
dru murile</w>
ze şte</w>
recunoscu te</w>
inv atat</w>
interes ate</w>
ind iciu</w>
i deo
de fen
concentr are</w>
cerin țe</w>
c ită</w>
c ani</w>
ap ere</w>
ţ â
vest i</w>
tw in</w>
trans formarea</w>
region al</w>
plă cin
performan ță</w>
it ură</w>
inv ad
in tai</w>
biser ici</w>
şti au</w>
so ţului</w>
le sc</w>
inte lege</w>
experi mente</w>
cu ba</w>
ad ună</w>
ă -i</w>
scri ere</w>
scien ce</w>
recoman date</w>
p ate</w>
jer sey</w>
fundamen tal</w>
dar i</w>
cu ţit</w>
con țin</w>
cifr a</w>
ţine -te</w>
pedeap să</w>
mâ n</w>
lup ţi</w>
je f
instan tan
gande sc</w>
din spre</w>
descri erea</w>
decizi ilor</w>
dacă -l</w>
asi stent</w>
u iesc</w>
log ica</w>
gra fică</w>
eri ile</w>
constan tă</w>
bătă lie</w>
arbi traj</w>
ag u
ți unile</w>
wil son</w>
test ament</w>
t hi
studi ilor</w>
pacien ți</w>
ov ia</w>
mer iţi</w>
jurn al</w>
gra fia</w>
cup tor</w>
ach e</w>
y an
vit a</w>
victi melor</w>
on ale</w>
miz erie</w>
intre b</w>
il l</w>
destu i</w>
co rab
1, 5</w>
întuner icul</w>
plă mân
l ina</w>
ie rei</w>
călători t</w>
cură ţ
cru ce</w>
ale agă</w>
18 0</w>
șe ască</w>
sp era</w>
p aţi</w>
organiz aţii</w>
implic area</w>
cre tin
asoci ația</w>
sincer ă</w>
pălă ria</w>
profi lul</w>
pre al
poten ti
organiz are</w>
ne limitat</w>
inf la
ele fan
bucur ă-te</w>
sust ine</w>
sus ținut</w>
pă sări
mulțu mi
l t
k la
g las</w>
co astă</w>
su ri
rache tă</w>
j ulie</w>
ie zi</w>
fân tân
existen ța</w>
contac tul</w>
ş mech
în ro
nerăb dare</w>
mulţu mită</w>
exa men</w>
diferi telor</w>
col lege</w>
ar ma
afri cii</w>
întreprin deri</w>
strân să</w>
reg ală</w>
păcă lit</w>
p ale
modal ități</w>
france zi</w>
fot balul</w>
dos arele</w>
ck er</w>
al ba</w>
agen ţia</w>
şte -o</w>
tan a</w>
săptămân ii</w>
shi p</w>
in au
de pri
acor duri</w>
pâ inea</w>
pri mite</w>
oche larii</w>
ma le
lovit uri</w>
la ser</w>
feric ita</w>
de plină</w>
ce as
vi tre
s prin
pregăti ți</w>
pl aca</w>
pierdu tă</w>
p ati
n an</w>
inst ala</w>
ic h
i x</w>
evi te</w>
duce ţi</w>
ar atat</w>
anul at</w>
turi stice</w>
prezer v
concedi u</w>
cau zat</w>
car ti</w>
ar ati</w>
sfân tă</w>
server e</w>
zi dul</w>
s mo
pu sti
mor ți</w>
le ag
lan o</w>
israe lului</w>
in con
an -
a -o</w>
ur u
stă team</w>
prive şti</w>
mini mă</w>
le ş
inov are</w>
func tie</w>
disp ar
deranj at</w>
confir ma</w>
aie le</w>
afir ma</w>
y -
te ddy</w>
scă păm</w>
liv ia</w>
compar aţie</w>
be rea</w>
at ar</w>
agri cultura</w>
acciden te</w>
7 0
oper aţie</w>
op ţiune</w>
lice ul</w>
in fir
dorin ta</w>
denu mit</w>
dacă -i</w>
îmbrăcă minte</w>
wi ki
vene au</w>
reţe aua</w>
producă tori</w>
ouă le</w>
je sse</w>
iub este</w>
imp lor</w>
flu xul</w>
fe li
durero s</w>
cân ţi</w>
co sti
angaj ament</w>
şedin ţă</w>
va luri</w>
tâ mplă</w>
pe şter
l az
informa ţia</w>
g ara</w>
cer ile</w>
biro ului</w>
întreb aţi</w>
dio xi
consumat ori</w>
ț ate</w>
pro aspe
exe mplul</w>
dege t</w>
conec ta</w>
aş că</w>
ale gem</w>
adri an</w>
vizu al</w>
n au
ci z
ar te
st ării</w>
sp len
scenari u</w>
riscu lui</w>
person aj</w>
expl ora</w>
du- le</w>
ă tori</w>
uri aș
colabor area</w>
av ut-o</w>
aste aptă</w>
aminte sti</w>
supra fața</w>
promo vează</w>
mat ur</w>
i ai</w>
elve ţia</w>
chi mică</w>
îndrăz neşti</w>
închiri at</w>
web site</w>
tic ii</w>
hotăr ă
fon dată</w>
cic lul</w>
celu il
asigur ăm</w>
an ții</w>
vi br
ten tati
stupi d</w>
st âr
rătă cit</w>
mân gâ
mar ine</w>
liter atură</w>
fugi ţi</w>
formul arul</w>
dula p</w>
deran ja</w>
co g
întâl neşti</w>
wor d
scă zută</w>
on ia</w>
contin ent</w>
a prins</w>
înţele pt</w>
închi soarea</w>
son daj</w>
re no
neur o
mar x</w>
cutre mur</w>
crăci unul</w>
at r
îndepline ască</w>
se s</w>
se ască</w>
porun cit</w>
petre ci</w>
pache te</w>
min ge</w>
mascu lin</w>
inam icul</w>
fac torii</w>
engle z</w>
emisi ile</w>
compar ație</w>
v asul</w>
tragedi e</w>
pa h
li m</w>
incredi bilă</w>
ge st</w>
fă cân
dic k</w>
chi mi
avan d</w>
arbi tr
19 45</w>
în se
simţe am</w>
mo st
juris dic
cu vant</w>
comand ant</w>
car los</w>
base ball</w>
b lân
ya ho
s si
ke s</w>
gla sul</w>
dispozi ție</w>
destin ate</w>
bra ţul</w>
bor dul</w>
al arma</w>
tur ul</w>
trans mit</w>
speran ță</w>
pri mei</w>
munici pi
mete o</w>
locoten ent</w>
kare n</w>
jo ey</w>
ge los</w>
furni zează</w>
ch o
cetăţ eni</w>
încăl cat</w>
preaj ma</w>
pove ști</w>
po ker</w>
lo tte</w>
gă torul</w>
for mate</w>
farm ace
examen ul</w>
er ori</w>
cri zei</w>
acor dului</w>
un ic
su pus</w>
sen tin
recuno aște</w>
n s</w>
ma sac
desig nul</w>
dec lară</w>
continu aţi</w>
che te</w>
apart hoteluri</w>
ţion are</w>
substan țe</w>
ro me
petre cu
infrastruc tură</w>
indic at</w>
inclu zând</w>
han dic
con cu
celuil alt</w>
b le</w>
îndrăgo sti
protej ate</w>
proce duri</w>
po do
opți unea</w>
lu ke</w>
in ară</w>
descoper ite</w>
ciocol ata</w>
cat herine</w>
apar ate</w>
ra re
pro pun</w>
iub ită</w>
fe tei</w>
ele gan
constru iesc</w>
con cursul</w>
van z
tră iește</w>
trimest ru</w>
mi ta</w>
l ata</w>
fã cut</w>
că derea</w>
calen dar</w>
at acă</w>
tă rie</w>
redu să</w>
prob a</w>
porto felul</w>
oper ati
k u</w>
je n</w>
gi mn
de al</w>
cami onul</w>
an te
am pla
înmormân tare</w>
tre le</w>
sovie tice</w>
recen zie</w>
re tro
pak istan</w>
mu s
misi unile</w>
lu x
intr- adevar</w>
g b</w>
el li
casin o</w>
at or
a e
șe ful</w>
în dur
plan tele</w>
cali ficat</w>
block ch
ș a</w>
săl batic</w>
slo vac
sam sung</w>
k atie</w>
ghe ață</w>
d '
am pli
obice iurile</w>
mer gea</w>
inter discipl
deschi deţi</w>
umplu t</w>
ro tun
ra fin
consu mă</w>
cerce tatorii</w>
absol vire</w>
vo ca
newslet ter</w>
inevit abil</w>
dre i</w>
capit ală</w>
ade r</w>
studen ţi</w>
se tări</w>
re my</w>
re ce
participan ții</w>
numer ar</w>
mo tor
mi gra
lun ar</w>
jo b</w>
j am
invest itori</w>
europe ana</w>
cuno aste</w>
costu rilor</w>
aște pt</w>
șan sa</w>
încăr cat</w>
se bast
ic k</w>
exten si
dezgustă tor</w>
descur aj
dece dat</w>
aștep tați</w>
ar c
ad junc
în apo
verific ați</w>
vari anta</w>
tă tic
to l
ti une</w>
preg ati
patru zeci</w>
organiz ată</w>
mun ţii</w>
elicop ter</w>
de- asta</w>
de venind</w>
cali p
blu e</w>
supre mă</w>
sec țiunea</w>
nă dej
fire şte</w>
cos me
bu curi</w>
bel le</w>
anali ze</w>
înşe lă
v- ati</w>
ule iul</w>
sen ator</w>
refu z</w>
recuper a</w>
puter nica</w>
petro lului</w>
napo leon</w>
mu s</w>
min g</w>
indone zia</w>
h ambur
e la
crimin ali</w>
sofi stic
sam u
re trag</w>
fu zi
cur a</w>
cen ti
ază -l</w>
teh nic
t le
străluci toare</w>
pă st
man care</w>
in vit</w>
fur ă</w>
exist au</w>
discu ţia</w>
deteri or
cu vîn
ber ry</w>
ți -am</w>
mi za</w>
li mite
informa ție</w>
ig ien
199 3</w>
sco p
inter cep
fon dat</w>
antren orul</w>
vi ză</w>
str an
nic ie</w>
mor ti</w>
interzi să</w>
consoli darea</w>
cli p
aniver sare</w>
înregist rări</w>
relat ie</w>
porni re</w>
opri re</w>
dore sti</w>
crimin alul</w>
chine zii</w>
brow ser</w>
apari ția</w>
9 /
t ărâ
realiz are</w>
pi stă</w>
internation ale</w>
g ali
ecr anul</w>
di tatea</w>
des fiin
ate r</w>
ș ul</w>
vin decat</w>
tre ceţi</w>
popula ţiei</w>
ple carea</w>
origin ală</w>
n -</w>
consider ăm</w>
celu lelor</w>
pari uri</w>
mo ş</w>
h re
funcţion a</w>
defin it</w>
cheltu it</w>
ap asă</w>
anoni m</w>
ti st</w>
solo mon</w>
soco te
scan dal</w>
li tu
je ss
fo si
conce pute</w>
cif rele</w>
ateli er</w>
apl ice</w>
ape luri</w>
u k</w>
tes la</w>
ter ie</w>
sus ţinut</w>
numi ta</w>
invest it</w>
di scut</w>
der ul
credincio şi</w>
van ia</w>
stom acul</w>
ni m</w>
extin să</w>
do c</w>
blo ca</w>
aşe zat</w>
înt inde
vi sa</w>
se siune</w>
ro sie</w>
ro ber
procur orul</w>
mo torului</w>
mi len
i van</w>
explic aţie</w>
distr at</w>
demonstr a</w>
consili u</w>
/ /
ul t</w>
termin aţi</w>
t z
so sirea</w>
sec tor</w>
ră m</w>
plan ului</w>
nor mă</w>
dori ti</w>
din tâi</w>
clar k</w>
3 .000</w>
ti pic</w>
sfân ta</w>
s ai
pan ie</w>
oce anului</w>
in ci
g ai
comp li
artifici ală</w>
întâl nească</w>
tr avi
spit ale</w>
nation ala</w>
h ero
grese ala</w>
echip ajul</w>
av ra
ar tei</w>
al ie</w>
recuno ască</w>
nico la
in ch</w>
franci s</w>
ț ează</w>
se ce
sal văm</w>
o me
do tări</w>
de bar
cap tur
ațion ale</w>
apo calip
însu ţi</w>
ându- ne</w>
supor tul</w>
secre tar</w>
re forma</w>
pen al</w>
ne drept</w>
g y</w>
bunic o</w>
apropi ate</w>
ţi u</w>
urmăre ște</w>
surpri za</w>
sp ori</w>
revolu ţia</w>
re -
organiz aţie</w>
mă -
k ia</w>
justi ţie</w>
ie relor</w>
exter nă</w>
diplo ma</w>
cuţ itul</w>
comentar iile</w>
alic ia</w>
ai be</w>
vampi r</w>
săr ac</w>
proteje z</w>
liv rate</w>
later al</w>
informati ile</w>
del fin
câşti ge</w>
cr y
zil nice</w>
văr ul</w>
urme zi</w>
inten ţionat</w>
distru gere</w>
căl dura</w>
con vo
co stat</w>
ch am
car ui</w>
violen ţă</w>
ungh i</w>
pru den
pr agul</w>
pozi tia</w>
munci torii</w>
locu i</w>
ex prima</w>
de sc</w>
cuvân tului</w>
cumpăr are</w>
clien ţilor</w>
ch er
britan ii</w>
aler tă</w>
vi -l</w>
situ atie</w>
ro me</w>
pe ter
oportun itatea</w>
mând rie</w>
ju pi
interzi se</w>
influen ţa</w>
fan ii</w>
di sc</w>
depă şit</w>
costu me</w>
conflic te</w>
astep tat</w>
za har
putin ţă</w>
par ker</w>
o h
ma inile</w>
insu le</w>
fisca l</w>
fin ch</w>
contrac te</w>
con ta
respec tat</w>
par curs</w>
nave i</w>
mor mântul</w>
ist ul</w>
h al</w>
gor don</w>
avan sată</w>
autori zat</w>
sălbat ice</w>
sha w</w>
pe sc</w>
partic u
love sc</w>
i zare</w>
fo me
do l
distan ta</w>
dan sează</w>
cân te</w>
car ierei</w>
agen da</w>
ac tului</w>
ven itul</w>
ri c</w>
ocu păm</w>
mântu irea</w>
mer itat</w>
barbat ii</w>
apar ut</w>
aler ga</w>
abon a</w>
9 00</w>
sub ven
simi lară</w>
reali zeze</w>
p aza</w>
geni al</w>
famili ari
efectu area</w>
că ţe
com ment</w>
aju tor
5 /
respin ge</w>
re l</w>
pune -l</w>
po l
mat eria</w>
lăs ați</w>
influen ța</w>
i k
e th
e scor
dă tori</w>
congre sul</w>
arhitec tura</w>
înger ul</w>
verific area</w>
ru de</w>
perspec tive</w>
mor tal
adop tarea</w>
urmări m</w>
râ d</w>
pro pul
jupi ter</w>
vat ic
singu rele</w>
parl ament</w>
me arga</w>
la ți</w>
furt una</w>
docu mentul</w>
cel al
în scen
su t</w>
stre sul</w>
shang hai</w>
pune -o</w>
pu ț
poten ţial</w>
pi pi</w>
organi za</w>
mer geți</w>
in vin
i a-
con ştiinţa</w>
car bo
be sc</w>
alexan dru</w>
3 4
săru tat</w>
susp ici
studi ază</w>
securi tăţii</w>
proble mei</w>
fe lic
egip ten
du h</w>
co me
biolog ie</w>
ap aren
virtu ală</w>
ure chea</w>
sub sol</w>
sp ion</w>
regi unile</w>
re ţele
or ă
n ate</w>
miș carea</w>
mister ios</w>
li tă</w>
fă ceai</w>
comer țul</w>
comb ină</w>
com pus</w>
britan ici</w>
zbor uri</w>
tă cut</w>
sur orile</w>
st .</w>
prime ște</w>
lu p</w>
leg ilor</w>
istori cul</w>
isla mic</w>
invi di
g ul
an tar
197 0</w>
ţi gară</w>
şe ază</w>
sără cie</w>
shel don</w>
răscump ăr
re țineți</w>
preo tul</w>
person alizate</w>
ne legiu
inten s</w>
instru mentul</w>
indic ii</w>
g ps</w>
expl ici</w>
discu ții</w>
complex ă</w>
înde lun
s când</w>
reac ţie</w>
gra dina</w>
frumuse ţe</w>
dore ști</w>
de de
al ității</w>
repe ta</w>
pre -
imobili are</w>
eg ală</w>
bur ghe
în scris</w>
rețele le</w>
nemer nic
len e
inter dic
ghe ază</w>
conferin ța</w>
be ta</w>
astep ta</w>
mic key</w>
mic hel
bomb oane</w>
v itatea</w>
prof unde</w>
pacien ţi</w>
mă rile</w>
mo zil
j al
it ară</w>
gu rilor</w>
esen țial</w>
amenin țare</w>
agen ţi</w>
între rupt</w>
vari ază</w>
reviz uire</w>
que en</w>
palest in
obișnu ită</w>
mân caţi</w>
mu re
implic it</w>
e chit
cuprin se</w>
înşi şi</w>
sărbători m</w>
st abil</w>
person ajul</w>
ob raz
lin ux</w>
legă turile</w>
jer t
discu ţii</w>
ambas ada</w>
înce tine
su i
ro b</w>
pl acea</w>
p ina</w>
origin ale</w>
o țel</w>
o b</w>
les bi
k al
intor c</w>
cere br
casti gat</w>
c ativa</w>
țion ată</w>
itu rilor</w>
institu țiile</w>
ici eni</w>
en umer
ambas ad
în și
în surat</w>
zgomo tul</w>
ti pa</w>
t le</w>
na sc</w>
m este
g în
g iu
ferici ți</w>
energe tic</w>
descăr cați</w>
căsă tori</w>
cre ator</w>
cere ale</w>
ari pi</w>
trans forme</w>
ro w</w>
regul amentul</w>
provo carea</w>
gi ilor</w>
călă toresc</w>
cu vine</w>
bă tu
to ar
k eri</w>
fre e</w>
flor ar</w>
fe l
facili tăți</w>
com putere</w>
caz urilor</w>
c aci</w>
aplic ată</w>
adec vată</w>
poli tie</w>
nation ale</w>
log ice</w>
isa ac</w>
eva lua</w>
de mn</w>
co w
casti ga</w>
barb ara</w>
al ine
înce pă
z ar
t aş
supraveghe rea</w>
inau gur
gravi dă</w>
gener at</w>
fiind ca</w>
disp ari</w>
dan ie
credin ta</w>
conțin u
catol ică</w>
bi ru
averti zez</w>
re venim</w>
h ur
gh am</w>
bucure ști</w>
bo s
b ră</w>
asemen i</w>
alexan der</w>
u au</w>
rătă ci
public ată</w>
prieten ului</w>
love şte</w>
intelectu ală</w>
1 10</w>
ucra inei</w>
server ul</w>
recuno ştin
proce selor</w>
lipse ște</w>
lin iste</w>
li tatea</w>
li on</w>
imperi ului</w>
i ra</w>
fla sh</w>
col are</w>
12 .
u me
strateg ică</w>
ron g</w>
mo u
incep and</w>
gabri el</w>
ar moni
ându- le</w>
v ase</w>
to u
st alin</w>
r ate
na me
n aşte</w>
medic amentul</w>
lu xe
istan bul</w>
dro gurile</w>
don na</w>
clien ti</w>
at aş
al mente</w>
trat amente</w>
președin telui</w>
ne voi</w>
ne -o</w>
miş că-te</w>
mi gran
inte gre
gru purile</w>
zice ţi</w>
terori smului</w>
star k</w>
spar ge</w>
pun ând</w>
in titul
di an</w>
de cre
bucure şti</w>
ală ture</w>
ale gerilor</w>
14 :
sla bi</w>
porun cile</w>
po p</w>
mi lano</w>
inchi soare</w>
coo per</w>
înţelepci unea</w>
z ator</w>
urb ane</w>
un ica</w>
singu rii</w>
iub esti</w>
incer c</w>
i adul</w>
câ m
bro der
avi oanele</w>
aten tia</w>
2 .</w>
/ tipuri</w>
ş ită</w>
trat area</w>
scri sul</w>
rapoar tele</w>
proaspe te</w>
phi lip
p ân</w>
funcțion a</w>
e asca</w>
distre zi</w>
con fun
colone lul</w>
as eră</w>
anu ală</w>
z ați</w>
trate ază</w>
tex te</w>
r aza</w>
pag u
or chest
nenumăr ate</w>
lichi d</w>
insu lei</w>
ia și</w>
deschi de
dacă -mi</w>
conexi unea</w>
cetă ţean</w>
bun ã</w>
benefici ază</w>
10 0
ţă rilor</w>
ş obol
vizit ați</w>
urgen ta</w>
tip /tipuri</w>
pan o
o pus</w>
inte stin
fe ed
centr ala</w>
bo li
antar c
înfiin țată</w>
tu tun</w>
ti -e</w>
samu el</w>
ph y</w>
mili ar
legi ti
ir o</w>
băie ti</w>
bicicle tă</w>
anu ale</w>
ang liei</w>
şedin ţa</w>
încal că</w>
stri ca</w>
rezul tă</w>
po rec
opri ţi-vă</w>
e x</w>
ac torii</w>
turi smului</w>
polu area</w>
petre acă</w>
institu tului</w>
impre sie</w>
guvernat or</w>
detec tivul</w>
câ ți</w>
cucer it</w>
confu z</w>
at ei</w>
angaj a</w>
înche ia</w>
în ș
riscu rilor</w>
ra f
po to
ofici alii</w>
mon t</w>
ho ţ</w>
fre e
edi tor</w>
ascun dă</w>
a sc</w>
tr on</w>
supr af
man ev
fin alizat</w>
cobo r</w>
candi dat</w>
şco li</w>
ră sărit</w>
pro misiune</w>
k on
in can
gra b
fo cului</w>
f bi
emer gente</w>
davi s</w>
ab u</w>
în geri</w>
tun el</w>
toam nă</w>
pu ș
pregat it</w>
lec ţie</w>
comun i
chri stian</w>
b agă</w>
20 -
virgin ia</w>
uri aş</w>
t ch</w>
simţi m</w>
reu și</w>
par a
gre en
cetăţ enii</w>
ce c</w>
car rie</w>
în spre</w>
t av
se o</w>
măr furi</w>
luxe mb
lumin i</w>
lin ă</w>
cru cea</w>
calen darul</w>
as h</w>
învi at</w>
wal ker</w>
trez eşti</w>
trat ate</w>
ti tă</w>
te orii</w>
tal i</w>
su stin
spune ți</w>
renun ţă</w>
pacien tului</w>
o lului</w>
modific ă</w>
mi les</w>
manage mentului</w>
ind ica</w>
guvernat orul</w>
feder ală</w>
descar că</w>
co 2</w>
ştiin ţei</w>
tre imi</w>
titu dinea</w>
proce durile</w>
ni rea</w>
in vo
fir mele</w>
cri tice</w>
clădi rii</w>
celor lalte</w>
‚ n
ţin ută</w>
razbo iul</w>
pri ma
pre da</w>
ori cui</w>
multu mim</w>
jude ca</w>
informat ică</w>
incer ca</w>
flu x</w>
cupo ane</w>
concentre ze</w>
încuraj ează</w>
teritori u</w>
s we
pedep sit</w>
me l</w>
maxi mum</w>
ju stin</w>
integr at</w>
frumo şi</w>
for um</w>
căsători ţi</w>
cre şti
compasi une</w>
clu bului</w>
ab e</w>
ș colii</w>
ve ș
ur g</w>
u mb</w>
s fi
re vină</w>
pl ini</w>
negoci eri</w>
htt p</w>
drep tatea</w>
dimen sion
căr ă
ven ită</w>
tră dare</w>
succe sului</w>
stri gă
soli d</w>
mar in</w>
lo ck
la să-i</w>
jess ica</w>
g r</w>
ele gant</w>
anu mitor</w>
ad una</w>
vo inţa</w>
târ fa</w>
spiritu al</w>
lin s</w>
importan ță</w>
gr and</w>
dor mitoare</w>
de -ai</w>
creşti n</w>
ce am</w>
activ ităţile</w>
s avan
ru dele</w>
operaţi unea</w>
occiden tale</w>
mi şti</w>
lasă- ne</w>
fa be
dan sez</w>
că p
1 60</w>
soli de</w>
scuz ati
sca une</w>
re li
ingin eri</w>
in area</w>
german ii</w>
en ter
din ţii</w>
democ rat</w>
contac te</w>
char lotte</w>
bac terii</w>
afi li
îngrij irea</w>
începe ți</w>
vin ovă
sân ii</w>
războ in
ro su</w>
revi stă</w>
r ază</w>
opți unile</w>
mer e</w>
conexi uni</w>
al ban
accep ţi</w>
th y</w>
situ ată</w>
kenne dy</w>
genet ică</w>
eg alitate</w>
cuno aștere</w>
cog ni
ar teri
ame li
aju ti</w>
zâmbe tul</w>
tre buri</w>
prieten os</w>
por no
participan ți</w>
lo w</w>
k el</w>
gra bă</w>
educa ţia</w>
dece s</w>
cor d</w>
b ale
accep tate</w>
şi -ţi</w>
une sco</w>
ti ti</w>
te l
supre m</w>
ra s</w>
li tri</w>
ghice sc</w>
diferen ță</w>
congre sului</w>
cen ter</w>
cauciu c</w>
at ilor</w>
a f</w>
standar dul</w>
pregăte şte</w>
ope n</w>
mete or
ma mele</w>
lin ul</w>
grăbi ţi-vă</w>
esen țială</w>
cere rile</w>
3 9
înălţi me</w>
ter țe</w>
teore tic</w>
s qu
organi sme</w>
ob țină</w>
ne aţa</w>
mur dare</w>
mo mentele</w>
man hat
lan sează</w>
la g
de ficien
cinci zeci</w>
cetăț eni</w>
aștep tare</w>
at ata</w>
acti one
ac id</w>
19 60</w>
împăr at</w>
ur c</w>
trag e
trafic ului</w>
som nului</w>
michel le</w>
it o</w>
indust rii</w>
de to
că su
cuno stin
clu j</w>
v as
tâmpl at</w>
spor tiv</w>
serv ice
puş cărie</w>
imb rac
i at
genet ice</w>
et ice</w>
că -s</w>
construc ție</w>
consider abil</w>
celu la</w>
întrebă m</w>
încălzi rea</w>
ur ag
te mplul</w>
suver an
jack ie</w>
conflic tul</w>
be ton</w>
aș terii</w>
alumin iu</w>
scă derea</w>
protoco l</w>
intalni re</w>
informa ţiilor</w>
go o
feder ale</w>
dram atic</w>
cu prins</w>
co lor</w>
ale asă</w>
absol vit</w>
van du
uș ă</w>
te starea</w>
st abilă</w>
plani fic
obice iuri</w>
mun ţi</w>
mar o
e li</w>
dăr â
cor ne
conse cu
condu să</w>
avant aj
ab el</w>
, 000</w>
valor oase</w>
stân g</w>
re înno
oper ă</w>
mi tul</w>
fe ci
deschi dem</w>
da d</w>
con ţinut</w>
asigur ați-vă</w>
a prinde</w>
înregist rată</w>
tablo u</w>
puț ini</w>
omo ară
me tal
implic ată</w>
ho ste
gh ie</w>
de ască</w>
ap p
ş tele</w>
va male</w>
uş ile</w>
su fo
pregă tim</w>
nave le</w>
ma lul</w>
loca ţia</w>
ince p</w>
gândi ţi</w>
grădin i
dom est
de m
c f
aven tura</w>
absolu tă</w>
ure z</w>
rezol v
po lul</w>
maş ină
g un
for mată</w>
du c
ru lează</w>
proprie tar</w>
ex port</w>
dep ind</w>
declar aţia</w>
d ân
condi tiile</w>
colec tarea</w>
certific are</w>
bo r</w>
şi -mi</w>
ru p</w>
român i</w>
performan ța</w>
opre ste-te</w>
ma y
experimen tat</w>
doc tr
destin ație</w>
bi ți</w>
arhitec tură</w>
ab by</w>
şte -i</w>
întune cate</w>
îmbunătă ţi</w>
veri fici</w>
ter ra</w>
sugest ii</w>
semne ază</w>
privin ta</w>
por umb</w>
o cazi
ma d</w>
in fl
ascul tare</w>
aplic aţii</w>
acti vi
v îr
temper atură</w>
plă tim</w>
obiec tivelor</w>
o lele</w>
interes ați</w>
dă dea</w>
ce şti</w>
aliment ar</w>
urmăre şti</w>
uci să</w>
te rele</w>
ro ss</w>
recl ame</w>
mo me
matri cul
lim bile</w>
jucă rie</w>
inun d
i pad</w>
fabri ci</w>
consili ere</w>
cap abile</w>
ti -l</w>
se si
ps d</w>
olog ia</w>
muz icii</w>
mu t
lon g</w>
loca ții</w>
capit alul</w>
ab str
sebast ian</w>
reali zezi</w>
pie țe</w>
i este</w>
găse ști</w>
fi zi
extraordin are</w>
căr bune</w>
bi lor</w>
av u
te sta</w>
te mele</w>
t ta</w>
resor t</w>
ptă rile</w>
manifest ă</w>
jude cat</w>
izol at</w>
gânde ști</w>
greșe ală</w>
cu cere
co ur
blo chează</w>
apropie m</w>
ţi ţi</w>
înce ta</w>
ti u</w>
sfân tului</w>
re ci</w>
pal ma</w>
o le
min uni</w>
l est
ju cam</w>
des cen
der ul</w>
conec tare</w>
c s</w>
turne u</w>
tati v</w>
prime j
obser vă</w>
introdu cere</w>
distru gi</w>
deşer t</w>
auto strada</w>
an ten
ali zeze</w>
y ang</w>
viol ent</w>
transfor mare</w>
nu mea</w>
glu ma</w>
energe tice</w>
comun ităţii</w>
angaj ații</w>
u ti</w>
t uni
pacien ţii</w>
ote l</w>
manag eri</w>
io ara</w>
ina mic</w>
ier ii</w>
for ţat</w>
etiche ta</w>
contr a
cele br
a b</w>
ş colii</w>
z itate</w>
so rilor</w>
sf îr
s cre
refer ire</w>
promite -mi</w>
li ft</w>
japone ze</w>
descoper e</w>
cre ativ</w>
am u
1 30</w>
z ori</w>
petre ceri</w>
formul ar</w>
camer on</w>
be c</w>
apropi ată</w>
adu s-o</w>
transmi se</w>
te c</w>
solu ţia</w>
sa ul</w>
războ aie</w>
realiz ată</w>
protoco lul</w>
prezen tului</w>
me lan
man ieră</w>
gloan ţe</w>
g ang
discipl ine</w>
cop acii</w>
con ne
con ge
blog ul</w>
blockch ain</w>
- de</w>
întâr zii</w>
povest esc</w>
pe d
obisnu it</w>
nicola e</w>
nan cy</w>
guno iul</w>
ghin ion</w>
fu matul</w>
faimo s</w>
dumi tale</w>
consu ma</w>
b loc</w>
ar monie</w>
apar ţin</w>
aminti ţi</w>
țin tă</w>
v apo
urmări rea</w>
urmat oarea</w>
t we
ri u</w>
promi ţi</w>
practic ile</w>
pac ate</w>
in drago
glume am</w>
finan țare</w>
desig n
tat i-
super b</w>
solu tii</w>
soci alizare</w>
ru sse
prăj ituri</w>
pregăte ască</w>
pove ştile</w>
ne obişnuit</w>
mă du
mur phy</w>
i g</w>
clin ice</w>
bri g
înt împl
scri sorile</w>
revolu ția</w>
prezen tă</w>
pozi ții</w>
pe ler
mor ții</w>
monitori zarea</w>
min d</w>
e misiune</w>
cu le
ascul tăm</w>
ţione z</w>
ştiinţi fice</w>
viol ente</w>
verific ăm</w>
sub -
presu pus</w>
nat han</w>
mer gând</w>
mar ilor</w>
como ara</w>
cau tare</w>
ap ele
îngrozi toare</w>
împre una</w>
un ora</w>
studi os</w>
pu iul</w>
pozi ţii</w>
mis care</w>
ma scă</w>
hi dra
farmace u
exac tă</w>
eg ale</w>
dul ce
coş mar</w>
accep tabil</w>
sublini ază</w>
speran ța</w>
rup tă</w>
pa da</w>
le ască</w>
kar l</w>
han nah</w>
gen o
călă re
carol ine</w>
tion ale</w>
televiz orul</w>
ră nită</w>
prof itul</w>
ne cunoscută</w>
li min
justi ție</w>
g lume</w>
for te</w>
diavo lului</w>
da une</w>
cunoştin ţe</w>
can t</w>
br un
am icul</w>
împ ins</w>
vizualiz ari</w>
tru c</w>
transfer at</w>
ra sa</w>
ob ţin</w>
mă rit</w>
m s
ic s</w>
i i-lea</w>
diz ol
şti ind</w>
ză tori</w>
tur nat</w>
tit luri</w>
s ang
protec tia</w>
pre lucrare</w>
ne il</w>
lec tură</w>
dovede sc</w>
conven abil</w>
c s
bo s</w>
bag ajul</w>
az -o</w>
actu ala</w>
înțele pci
pin gu
pe p
oraș ele</w>
men ținerea</w>
celal alt</w>
bate m</w>
acciden tul</w>
a o
/ a</w>
zon ier</w>
tă cerea</w>
timp uri</w>
teh nici
spă lă
recunoscu tă</w>
por no</w>
lacri mile</w>
execu tat</w>
economi ile</w>
de pusă</w>
bar ry</w>
aprec ia</w>
antoni o</w>
şi ţi</w>
vecin i</w>
stin ge</w>
sh are
sc al
li te</w>
diaman te</w>
dezbat ere</w>
co le</w>
b rut</w>
ţin ere</w>
ţi te</w>
îndepl in
vede am</w>
uriaş ă</w>
ta ică-
sper anta</w>
spaţi ală</w>
s- a-n
re public</w>
po că
integr are</w>
gân din
fur ate</w>
cri mele</w>
ti -o</w>
scor p
ro mân</w>
nop ţi</w>
medi t
ho t</w>
gr am
expl ice</w>
dro gat</w>
dere k</w>
cer cul</w>
bat man</w>
an or
a- si</w>
ți -a</w>
vie țile</w>
statist ici</w>
sin g</w>
sar bat
o ţel</w>
le zi
ky le</w>
insec te</w>
ic hi</w>
i esti</w>
dy lan</w>
din i</w>
delic ios</w>
creştin i</w>
citi ţi</w>
bucur ăm</w>
0 3</w>
ţu rile</w>
ându -l</w>
tat ie</w>
nor mele</w>
negoci erile</w>
mon ica</w>
ieș ire</w>
gre g</w>
deşte p
deser t</w>
cri terii</w>
atlan tic</w>
ali mentelor</w>
aler gat</w>
afec tată</w>
a- s</w>
înş ine</w>
întreprin derile</w>
ându -mă</w>
z âm
ti pului</w>
speci alizate</w>
reg im
plân gere</w>
organi zează</w>
minun ata</w>
drago stei</w>
din oz
cumpar at</w>
aten a</w>
a ha</w>
înte legi</w>
zil nică</w>
t va</w>
t ap
ster line</w>
s. u.
pare re</w>
gaz dă</w>
for ţelor</w>
cuvan tul</w>
ce ți</w>
ur ban</w>
tat ilor</w>
sol ară</w>
sca zut</w>
ri sca</w>
men aj
inter val</w>
cam pusul</w>
aplic abile</w>
afl au</w>
înregist ra</w>
x ie</w>
vp n
stric te</w>
rezultat elor</w>
pic tură</w>
per tur
o ut</w>
mondi ala</w>
mer geam</w>
japo niei</w>
g are</w>
feti ta</w>
de am</w>
bab y</w>
a /
ţ eşti</w>
trimite rea</w>
solu tie</w>
pis icile</w>
mu tăm</w>
maş inii</w>
j av
im pru
h -
fiin ţe</w>
den nis</w>
ch en
b af
ve ci</w>
ve chile</w>
provin cia</w>
is land</w>
greşe ala</w>
flo ta</w>
co e
clu buri</w>
ceas uri</w>
cafen ea</w>
aliz ării</w>
împăr atului</w>
urmăre ască</w>
tt le</w>
nu mar
mîn a</w>
hol m</w>
gă uri</w>
fugi m</w>
clas ică</w>
ben zi</w>
aştep tare</w>
țe an</w>
verific e</w>
stadi ul</w>
retrag ere</w>
mar ți</w>
go go
afac erii</w>
4 /
în scrie</w>
uite -o</w>
sur prinde</w>
ră stur
oglin da</w>
obişnu ite</w>
măr ci</w>
mpl i</w>
mar ty</w>
jun ior</w>
i la</w>
ge sc</w>
fin ala</w>
fi şi
fe rest
depăr tare</w>
că dere</w>
comp ri
categori c</w>
bai atul</w>
ţinu ţi</w>
zi arele</w>
u su
tă -te</w>
st rong</w>
ro luri</w>
por ni</w>
politic ilor</w>
ni re</w>
mar co</w>
li ving</w>
law rence</w>
glo ri
expedi ere</w>
egip tului</w>
e ve
certific atul</w>
buc ata</w>
ar mat</w>
înțele gi</w>
ză pada</w>
vizualiz ări</w>
recoman dăm</w>
mala e
link -uri</w>
cate dr
cami oane</w>
bie tul</w>
ama bil</w>
în semne</w>
proiec telor</w>
profe tul</w>
preţu rile</w>
căr țile</w>
vizi teze</w>
ti tul</w>
str âm
re ţinut</w>
publ ici</w>
printe sa</w>
mă -n
he at
hal lo
făcu se</w>
flă cări</w>
de ten
clin ton</w>
cele bri
al tă
uni formă</w>
tim purile</w>
să- n
sf â
relig ios</w>
pozi tie</w>
odih ne
ge s</w>
fu seseră</w>
fir ul</w>
famili ilor</w>
duh ului</w>
del ta</w>
certific ate</w>
ave rea</w>
au torii</w>
adu lui</w>
şter ge</w>
înregistră rile</w>
w inst
us b</w>
stoc ate</w>
ră mîn
ri o</w>
relat ii</w>
po lic
intal nit</w>
func ţii</w>
exam ine
ex punerea</w>
energe tică</w>
efic ac
dis ney</w>
au dit</w>
şi rea</w>
veş nic</w>
tru curi</w>
ta g</w>
sha ke
râ ului</w>
prinţe sa</w>
par țial</w>
o spit
inter o
i de</w>
har ri
fanto me</w>
fac ute</w>
en ţi</w>
cău tând</w>
col est
bar ney</w>
at ace</w>
aban done
trimi ţi</w>
tr ad
ste agul</w>
revi ste</w>
plictisi toare</w>
me t
matthe w</w>
fin lan
fa st</w>
bir d</w>
avra am</w>
20 30</w>
înjun ghi
ty ler</w>
redu că</w>
recuper area</w>
rare ori</w>
mi sca</w>
h aga</w>
fil tru</w>
fe rea</w>
dr o</w>
const ituti
car te
bal en
în fome
sim ţ</w>
s for
mon a</w>
lo u
h .
fotografi at</w>
am plo
al as
a bun
ţi re</w>
împăr ți
s ali
privin ța</w>
olog ic</w>
mo lly</w>
dormi torul</w>
descoper iri</w>
componen tă</w>
can ul</w>
bu chete</w>
bleste mul</w>
administr ative</w>
acor de</w>
ţi -le</w>
word press</w>
ur l</w>
un ităţi</w>
testo ster
să rii</w>
spați ală</w>
residen ce</w>
pro asta</w>
pregăti te</w>
ob ținerea</w>
margare t</w>
ier tarea</w>
i …</w>
dore ste</w>
disper are</w>
de curs</w>
de asemenea</w>
3 65</w>
0- 2016</w>
înşe li</w>
trebu iască</w>
teore tice</w>
sanat atea</w>
lib era</w>
h m</w>
dr ace</w>
cul ci</w>
clo v
car duri</w>
broder ie</w>
x x</w>
tai l</w>
supraf ata</w>
sk a</w>
rân duri</w>
rele vant</w>
pălă rie</w>
omorâ m</w>
nev astă-
mând ria</w>
jefu it</w>
j ă</w>
inspec tor
ingredi ente</w>
ief tină</w>
i saj</w>
difer ă</w>
bal an
întâl n
po p
mu lează</w>
inten ționează</w>
ino cen
ici te</w>
fun er
di ego</w>
ateri zat</w>
ți -ne</w>
şti rile</w>
w -
une ia</w>
tat orilor</w>
prăbu şit</w>
por neşte</w>
mer i
g u</w>
du s
cuno şte
conferin ţă</w>
bun urilor</w>
bas chet</w>
vi p</w>
tri um
t ora</w>
simb olul</w>
r ană</w>
paragra ful</w>
liber tăţii</w>
gol ful</w>
fă -ţi</w>
dow n
dede sub
accep tăm</w>
vo iau</w>
rezon abil</w>
pun te</w>
modific ate</w>
lu le</w>
d ici</w>
at ule</w>
an th
. it</w>
tă ia</w>
roman e</w>
parame trii</w>
fin ale</w>
discu ție</w>
australi an</w>
ag en</w>
ț ați</w>
w alt</w>
vizi uni</w>
vin dem</w>
v acă</w>
v -au</w>
temper aturi</w>
secun da</w>
ra d</w>
insi stat</w>
imi gra
gra f</w>
fră ţi
ferest rele</w>
datore zi</w>
bile tele</w>
ar y</w>
admi tere</w>
st aţie</w>
pur tă
miş caţi</w>
ine rea</w>
exist ent</w>
dez activ
cat al
bărb aţilor</w>
bon d</w>
amen aj
ală tura</w>
reg al</w>
poe zia</w>
par ti</w>
o la</w>
e senti
e k</w>
concep te</w>
con tine</w>
candi d
can cer
antibio tice</w>
angaj are</w>
aju taţi</w>
z est
soli dar
parti de</w>
ju an</w>
je remy</w>
ha os</w>
de șer
contac tat</w>
com promis</w>
acade miei</w>
ţion area</w>
întreb e</w>
tru pa</w>
spanio l</w>
pre limin
person aje</w>
pen sie</w>
pe dia</w>
ne potrivit</w>
m ură</w>
ie re
gas esti</w>
existen ta</w>
doam nei</w>
concentr ăm</w>
con fe
cat ori</w>
care i</w>
19 50</w>
tw or
tru pe</w>
t .</w>
răspân dit</w>
rezu mat</w>
profes ore</w>
on ală</w>
ol ice</w>
jurn alist</w>
iu de
comer ţ</w>
ateri zare</w>
înce taţi</w>
ã m</w>
virtu ale</w>
uşur inţă</w>
ură şti</w>
sal t</w>
parten ere</w>
hal l</w>
excelen ță</w>
econom ica</w>
conști ent</w>
ch ur
bur să</w>
ar zi</w>
al armă</w>
îndrep tat</w>
utiliz aţi</w>
tâmp it</w>
ol i</w>
mobili er</w>
inten ţia</w>
frun te</w>
as ea</w>
ar sen
alt undeva</w>
16 :
îndrăgo stită</w>
în genun
te mi</w>
stabile ască</w>
sensi bile</w>
ru sine</w>
pic tura</w>
pa j</w>
op ini
multi -
ho me
fara on</w>
e min
do armă</w>
d t</w>
core spunde</w>
conști enti
coca ină</w>
che maţi</w>
ce a
averti zare</w>
a feren
învă ţăm</w>
scă tor</w>
scu la</w>
sco ală</w>
pen tag
m mm</w>
hard ware</w>
h răni
frun tea</w>
explo dat</w>
eventu al</w>
colec ta</w>
ci pru</w>
bună starea</w>
bo t</w>
astep tati</w>
0 6</w>
0 2</w>
șe f</w>
studen ţii</w>
selec tat</w>
rezol vate</w>
ree se</w>
jo s
fu ge</w>
for ţe</w>
fi rea</w>
combin ație</w>
ase măn
angaj eze</w>
amuz antă</w>
' '
înche ierea</w>
spon sori
sp ace</w>
răma se</w>
ruş ii</w>
rezisten ţă</w>
pie sele</w>
obișnu ite</w>
l ăr
j az
in utile</w>
doc tori</w>
cre atură</w>
celeb ru</w>
c ale
6 /
1 40</w>
vi rea</w>
tranzac ții</w>
sufer inţă</w>
spați ale</w>
popula ţie</w>
po li</w>
ob ţină</w>
marke t</w>
integr ate</w>
ge antă</w>
gasi m</w>
colec tiv</w>
cla sele</w>
9 11</w>
închiri eri</w>
vil la
ul ul</w>
sufer inţa</w>
salari ile</w>
or y</w>
ju car
in cin
elve ți
după-ami aza</w>
curen tul</w>
chest ion
ca da
aspi r
afl am</w>
3 .</w>
2, 5</w>
timpu rie</w>
supor tă</w>
si ti</w>
si e
s r
iub ea</w>
dovede şte</w>
co co
cam ar
a a
zo nului</w>
vest i
ste n</w>
ste fan</w>
si ile</w>
post universitare</w>
phi l
infin it</w>
cerin ţele</w>
vâr ste</w>
ucig aşul</w>
si va</w>
re turn
ra c</w>
mur dă
len e</w>
fas ci
esc ro
căl cat</w>
aminte ască</w>
să rea</w>
supăr a</w>
re x</w>
părin ților</w>
par fum</w>
k le
fli x</w>
drăgu ț</w>
de men
congre s</w>
cada vre
în cor
vo n</w>
ulti m</w>
supli ment</w>
scump ă</w>
reuş eşti</w>
pi sta</w>
mu st
mizer ia</w>
lucră rii</w>
ive ală</w>
ira k
imperi u</w>
eviden te</w>
et ica</w>
câști gă</w>
c un
auz it-o</w>
ști le</w>
zvo nuri</w>
y an</w>
semest ru</w>
scri erea</w>
sat ana</w>
sal on</w>
pri zonier</w>
p sori
maiest ate</w>
hallo we
ferici rii</w>
cinci lea</w>
blo ca
acti unile</w>
înfă ţiş
v asele</w>
tras -o</w>
nik ita</w>
gar aj</w>
creș terii</w>
con vine</w>
compor tă</w>
aşte ap
ar ch</w>
st răz
rapor tului</w>
on y</w>
ho lo
de şe
cânte ce</w>
b ori
accen tu
î l
v -o</w>
reg inei</w>
plicti se
petre cem</w>
of f
muzic ale</w>
li li
impor t</w>
be ţi</w>
astep ti</w>
alco olul</w>
abi lul</w>
încer cări</w>
u şi</w>
t s
sără ciei</w>
străz ii</w>
reg atului</w>
perfec ta</w>
oblig atorii</w>
mare lui</w>
fascin ant</w>
cin stea</w>
adev ã
ţine -ţi</w>
însă și</w>
împără ţia</w>
stă pân</w>
so lul</w>
pu țină</w>
po gor
men tale</w>
ma ica</w>
jurn alist
ge men
evolu ţia</w>
ele mentul</w>
ani mate</w>
an ti</w>
a pus</w>
vo ta</w>
val orilor</w>
un ere</w>
spit alului</w>
reprezentan t</w>
perio adei</w>
o pere
mu sa
local i</w>
l ã
hei mer</w>
fo c
der u
curen te</w>
compati bil</w>
ca zut</w>
învă ţ
stabili tate</w>
sei f</w>
mi l</w>
li ste</w>
iu te</w>
distan ţa</w>
d son</w>
cam bridge</w>
bour ne</w>
ash a</w>
acor date</w>
înregist rează</w>
z y</w>
stoc k
p n
i -l</w>
evanghe lia</w>
actualiz ate</w>
îndrep ta</w>
scen ariul</w>
o si</w>
nenoroc ita</w>
mân ia</w>
mer ce
la b</w>
di străm</w>
cen tri
angaj aţii</w>
științi fic</w>
se-n tâmplă</w>
ru la</w>
pasag erii</w>
nu- și</w>
ne cunoscute</w>
lor dul</w>
inv itat
groz ave</w>
func ţionat</w>
fronti eră</w>
flexi bil</w>
du ho
cuno așterea</w>
coleg ul</w>
c v
bleste m</w>
adu -l</w>
înar mat</w>
ur ci</w>
studi eze</w>
str ul</w>
solu ția</w>
s cep
mântu itorul</w>
hăr ţu
fruc tele</w>
filip ine</w>
face rea</w>
diversi tate</w>
c lara</w>
ă torii</w>
speci alist
proprie tarii</w>
jo n</w>
distri ctul</w>
descur că</w>
chi pe
an tice</w>
administra ția</w>
0 5</w>
şo fer</w>
în mul
împre juri
vizi tează</w>
vag abon
su puse</w>
s ri</w>
prin şi</w>
obtine rea</w>
no kia</w>
instruc țiuni</w>
g aţi</w>
der s</w>
datori ile</w>
z en
univer sală</w>
ucig aş</w>
ti unea</w>
pi b</w>
melo dia</w>
ky o</w>
j in
ghe org
dub la</w>
depoz itare</w>
dacă -ţi</w>
vio us</w>
sur orii</w>
ste ven</w>
repar at</w>
obice iul</w>
mar ca
liv rarea</w>
it h</w>
informa ția</w>
epo că</w>
el len</w>
dobân di</w>
confrun tat</w>
comp ara</w>
co ol</w>
centre le</w>
vede tă</w>
urme z</w>
tion al</w>
tic s</w>
te mut</w>
recoman dări</w>
j in</w>
individu ală</w>
cri tici</w>
comunic aţii</w>
ast ron
sh ane</w>
mar in
emisi ilor</w>
dic tat
convin g</w>
comun a</w>
che ama</w>
care -mi</w>
amen dă</w>
ş oferul</w>
ti uni</w>
tat ei</w>
t to</w>
sără cia</w>
selec tate</w>
schimb ării</w>
sal ly</w>
russe ll</w>
procur or</w>
pat ro
n- as</w>
m m-
legen dă</w>
le ac</w>
importan ţa</w>
func ționeze</w>
eveni mentelor</w>
dal l</w>
v itate</w>
sti in
ser a</w>
sec torului</w>
por că
pi lor</w>
net flix</w>
inti mitate</w>
hotărâ rea</w>
g aci</w>
fib re</w>
eficien ța</w>
cor purile</w>
car itate</w>
b abi
ar do</w>
remarca bil</w>
mu tare</w>
ke l
informa ției</w>
direc ție</w>
co ck
clas ice</w>
ceal alta</w>
cal atori
3 50</w>
u măr</w>
t c</w>
ran g</w>
j ar
iubi ţi</w>
for țelor</w>
exerci ții</w>
d ha</w>
ca pr
alas ka</w>
a lui</w>
7 /
şan sele</w>
înțele geți</w>
y u</w>
ticălo sul</w>
kla us</w>
jac ob</w>
i ate</w>
diplo ma
daţi -i</w>
cu ş
albast re</w>
al ităţii</w>
încon jo
str a</w>
pie ptul</w>
obstac ole</w>
nume lui</w>
intere selor</w>
i zat</w>
explo zia</w>
en ig
dezvă lui</w>
dest ulă</w>
desfăș ur
descăr cat</w>
denumi re</w>
conec tați</w>
b c</w>
ap ul</w>
transpor tului</w>
plăti ţi</w>
organi smului</w>
m ativ</w>
lo veşti</w>
hotărâ re</w>
comun ități</w>
atin gere</w>
astron au
15 :
ven us</w>
ulter ioare</w>
tã u</w>
tehnolog iilor</w>
p y
m r</w>
har ris</w>
func ţioneze</w>
france za</w>
fer m</w>
aş a-
z atoare</w>
w y
spion aj</w>
ru şi</w>
primi ţi</w>
ni ţi</w>
ne fericit</w>
legisla ția</w>
kaz ah
ing o</w>
implic aţi</w>
gr am</w>
fo rie</w>
ego ist</w>
dedic ată</w>
cunoaşte rea</w>
bicicle te</w>
b ora</w>
absur d</w>
4 .000</w>
ti re</w>
ri gur
op une</w>
lu cas</w>
lo ase</w>
lin gu
internation ala</w>
fi resc</w>
de stin</w>
c ră
bu mb
anex a</w>
ți u</w>
° c</w>
valor os</w>
sîn tem</w>
splen di
sec ţie</w>
re uniune</w>
re ala</w>
p ing</w>
ofici ali</w>
miner ale</w>
hai deți</w>
elibe rează</w>
dă -o</w>
demn itatea</w>
civi li</w>
christ op
șco lile</w>
închi zi</w>
ze i
slăbici une</w>
roman iei</w>
par ano
mat i</w>
machi aj</w>
m t</w>
lă n
guver ne</w>
excep ţie</w>
efectu ează</w>
die tă</w>
di ane</w>
den si
dec lara</w>
de ll</w>
cli pe</w>
apreci ază</w>
veş nică</w>
um fl
tan ă</w>
sh or
pau za</w>
ka sper
iată -l</w>
homo sexual</w>
gră bi</w>
func țiile</w>
fu mă
consultan ță</w>
cad re</w>
adop tată</w>
wh it
reven dic
mar torii</w>
ir anului</w>
io asa</w>
ilumin at</w>
evre ilor</w>
evolu ția</w>
do ză</w>
booking .com</w>
are st</w>
13 :
tati ve</w>
t ala</w>
progra mat</w>
plăti te</w>
pen ală</w>
le şti</w>
k or
interes ată</w>
imagin ii</w>
im puse</w>
edi tare</w>
dăr uit</w>
co dific
camp io
adânci me</w>
acoper ite</w>
0 4</w>
ţi gări</w>
în răută
tribun alul</w>
scu te
s fe
p p</w>
ma ll</w>
ieşi rea</w>
furniz orul</w>
festi val</w>
conserv area</w>
asigur ă-te</w>
willi ams</w>
vorb ele</w>
to dd</w>
su ite</w>
st ația</w>
slu je
rapor tează</w>
r al</w>
păr ului</w>
pro ver
it aliei</w>
g area</w>
fondat orul</w>
anima lul</w>
al ități</w>
umb lă</w>
trans misi
simbo luri</w>
scă zute</w>
sca pa</w>
regi unii</w>
prostu le</w>
propri ilor</w>
prob ele</w>
preve derile</w>
pre vious</w>
pie ţei</w>
lungi mea</w>
iepur e</w>
fund ația</w>
frumuse țea</w>
fo a
exter n</w>
deşte aptă</w>
de- aia</w>
cre ezi</w>
control ate</w>
contro leze</w>
colo nele</w>
chine zesc</w>
at er
acelea si</w>
stabili tatea</w>
sfâr şi</w>
sec ţia</w>
ruș ine</w>
refugi ați</w>
po de
ma sive</w>
jam ie</w>
iube ască</w>
inv ită</w>
gândi ți-vă</w>
conști enți</w>
concre te</w>
coinciden ţă</w>
co ali
adân ci</w>
împ art</w>
ucra ine
tehnolog ic</w>
politici eni</w>
n aşte
mari o</w>
lis abona</w>
influen ţă</w>
for melor</w>
fer ovi
de x
de e</w>
că min</w>
antre nat</w>
începe ţi</w>
zomb i</w>
ui ască</w>
refer ință</w>
recl amă</w>
povest e
po c
pe isaj</w>
organiz ațiilor</w>
ne ază</w>
mi ţi</w>
it ui</w>
ide ală</w>
detec tive</w>
des fas
depă ș
căr ţii</w>
co ast
tre ază</w>
tor ule</w>
sud- est</w>
recuper at</w>
p ali
obişnu iţi</w>
jor dan</w>
intreb area</w>
in tri
fenomen ul</w>
extre mi
declar ația</w>
consecin ţele</w>
comb at
colo ana</w>
col ar</w>
binecuvân tarea</w>
al li
îndrep tăm</w>
sh a</w>
rã u</w>
rețele i</w>
proteje zi</w>
gener os</w>
favo rit</w>
bu ck
adau ga</w>
înseam na</w>
îm potrivă</w>
s ară</w>
pă zi
protec tie</w>
prin ţ</w>
pr aj
o din
ne twor
locoten ente</w>
je t</w>
cimiti r</w>
cado ul</w>
aran ja</w>
aminti rea</w>
înfiin țat</w>
x -
sufer e</w>
stat ut</w>
so le</w>
shake spe
ro chii</w>
re văd</w>
părăse şti</w>
pu ii</w>
p an</w>
ocup aţi</w>
grăbi m</w>
cuprin zătoare</w>
at ore
a e</w>
în gh
săr ace</w>
spune ţi-mi</w>
sacri fic
proce sare</w>
maș inile</w>
ja min</w>
dialo gul</w>
den un
comi sie</w>
al len</w>
a ică</w>
ţione zi</w>
speci alizare</w>
siguran tă</w>
s ata</w>
o se
ni fer</w>
miş cat</w>
iaco v</w>
furni zat</w>
echi paj</w>
distrac ție</w>
cunoscu ta</w>
conținu tului</w>
brook lyn</w>
încar că</w>
zice am</w>
stic le</w>
rec la
pe ar
educat ie</w>
cul c</w>
biolog ic</w>
ben jamin</w>
renun ţe</w>
pr adă</w>
pal at</w>
mor ului</w>
ma siv</w>
is s</w>
ha wa
gu est
grec iei</w>
fe lin
dă- mi-l</w>
da -i</w>
con strân
b .
anun ţă</w>
anal y
țin ere</w>
înși și</w>
împuş c</w>
vizu ale</w>
răni le</w>
plicti sit</w>
permi ț
pa harul</w>
ne pri
n ie
fe bră</w>
eșu at</w>
di rij
căsă toresc</w>
ca pri
at han</w>
y l</w>
produc ţiei</w>
pag inii</w>
ne caz</w>
mil ton</w>
lar gi</w>
inter vie
frun ze</w>
desfăş ur
de semn
continu area</w>
aș a-
accesi bil</w>
acce le
slă bit</w>
prezen tei</w>
permi sul</w>
or g</w>
min ti</w>
lini ște</w>
labor atoare</w>
jen ny</w>
instin c
g ates</w>
di amant</w>
cop acul</w>
compute rele</w>
co u
amenin ţat</w>
0 7</w>
ţ o
ştiinţi fică</w>
vit ale</w>
scă pare</w>
premi er</w>
por ci</w>
patrimoni ului</w>
no tele</w>
mo bilul</w>
manhat tan</w>
kasper sky</w>
ib m</w>
desig ner</w>
de sen</w>
concor dan
c ita</w>
bra d
împru mutat</w>
un ului</w>
to kyo</w>
supravie tu
speci alizat</w>
po ata</w>
plănu it</w>
pl acu
peni sul</w>
lăs ând</w>
hawa ii</w>
gă torii</w>
grani ţa</w>
gi an</w>
gal erie</w>
bre x
aţi -o</w>
an tului</w>
înde aproape</w>
wo od
slovac ia</w>
ridic aţi</w>
post ului</w>
omorâ t-o</w>
ofer indu
no rii</w>
mer geti</w>
li vre
integri tatea</w>
ier t</w>
h ran
gar d</w>
du rii</w>
clin ica</w>
barb atul</w>
adun are</w>
și /sau</w>
vi sez</w>
un dă</w>
lo e</w>
expri mare</w>
di vină</w>
detali ate</w>
cri tica</w>
coro ana</w>
conferin ţa</w>
co ta</w>
bb c</w>
violen ţa</w>
transpor ta</w>
stră moş
statist ică</w>
s af
permi se</w>
per cy</w>
orien tare</w>
ne d</w>
e tern
cookie -urile</w>
as o</w>
ar ca
îndrăgo ste
îndepăr tate</w>
ter mo
tele viziunea</w>
suspen dat</w>
refugi aţi</w>
pot ter</w>
băie ţel</w>
aș e
aju tă
administra ţia</w>
ți -ai</w>
tabe lul</w>
relat ia</w>
reflec ta</w>
ra să</w>
politici enii</w>
li st</w>
le o
h l</w>
gi l</w>
gaz da</w>
for ţei</w>
emb ri
chi t</w>
ch o</w>
canadi an</w>
binecuvân tat</w>
vop sea</w>
salv ați</w>
ri ta</w>
porni m</w>
mar ină</w>
le ader
l ace</w>
in gro
cat oare</w>
cami one
ca sh</w>
bat r
asisten tă</w>
asi t</w>
vi sează</w>
tar iat</w>
schi m
sarcin ii</w>
răspun dere</w>
r ati</w>
kan sas</w>
j .</w>
hi gh
dul ci
du p
demn itate</w>
d ana</w>
ca sca
b la</w>
ami ază</w>
ți re</w>
întoarce ţi</w>
îmbunătăţi rea</w>
vo ci</w>
vizitat orii</w>
tro fe
super bă</w>
strân g</w>
sing le</w>
necesi tate</w>
isa ia</w>
imagine zi</w>
gande sti</w>
experti za</w>
er at</w>
dintr -
bă i</w>
şo c</w>
împl ini</w>
ti r
sarcin ile</w>
păre au</w>
pu tă</w>
oblig atorie</w>
japone zi</w>
i o</w>
grăsi mi</w>
ge meni</w>
exper ții</w>
ecolog ice</w>
dispar ut</w>
bunic ule</w>
ap arte</w>
adăug area</w>
a buz</w>
într uni
tat alui</w>
t ty</w>
speci ala</w>
promo vat</w>
ni lor</w>
mon t
ma stur
lec ţii</w>
gh t
elibe reze</w>
disci plină</w>
di ţi</w>
căsători tă</w>
contrac tului</w>
construc ția</w>
bla ir</w>
ambal are</w>
198 8</w>
împărtă ș
ze n</w>
ur su
pun gă</w>
prelun gi
ma m</w>
inter ioare</w>
filoso fie</w>
et aje</w>
doc torului</w>
di l
componen tele</w>
ci tim</w>
ag o
wi fi</w>
vinde care</w>
stu art</w>
re uni
ran dul</w>
primă ria</w>
por ti</w>
experi mentul</w>
dor me
des k
ș ab
înăl țime</w>
ro agă</w>
par al
nel son</w>
mărtu ria</w>
men ționate</w>
gândi ţi-vă</w>
e rec
dă -l</w>
detec ta</w>
că tuş
cape tele</w>
bud ap
bat erii</w>
ban g</w>
anti virus</w>
administra ție</w>
ş op
teren uri</w>
sac ul</w>
prof ita</w>
pisc ina</w>
min ă</w>
legen da</w>
determin area</w>
d a-
cumpăr ăm</w>
bat erie</w>
b li
agen ții</w>
administr ator</w>
activ ității</w>
ş uri</w>
înlă tur
su fra
sec toare</w>
regul ate</w>
produ cere</w>
pla yer</w>
person alitatea</w>
operaţi uni</w>
nop ții</w>
frank ie</w>
do g</w>
de ţin</w>
atra g</w>
al ly</w>
înmormân tarea</w>
îmbră ţi
vi teze</w>
stan ley</w>
sindro mul</w>
războ inic</w>
păstra rea</w>
pu sa</w>
p. m</w>
ob ţii</w>
lucr ând</w>
instruc ţiuni</w>
ie pu
i ala</w>
evit at</w>
că ţea</w>
complic ată</w>
comp ară</w>
cast ig
bal ist
aman doi</w>
învăț ăm</w>
îndepline sc</w>
închi dă</w>
revolu ţion
re fle
po s</w>
partici pare</w>
mor tal</w>
fre ddy</w>
du se</w>
călători ei</w>
aţi -i</w>
afl ată</w>
198 5</w>
virtu al</w>
tă cu
si bi
ser bia</w>
rache ta</w>
prive ască</w>
mozil la</w>
melo die</w>
maică- ta</w>
lip sei</w>
investi tii</w>
in tin
g -ul</w>
dăună toare</w>
dificul tate</w>
deci d</w>
catalo g</w>
blo che
3 0.000</w>
z in
yo ung</w>
vi la</w>
târ g</w>
su pă</w>
spor tul</w>
sold ați</w>
shakespe are</w>
plan ta</w>
onor ată</w>
neg ativă</w>
mer ci</w>
integr al</w>
ie ş
har t</w>
g ită</w>
creștin i</w>
at le
ad oră</w>
198 6</w>
învin ovă
încăl carea</w>
vizion ari</w>
umb lat</w>
sc ent</w>
răz gândit</w>
revolu ţie</w>
respira ţia</w>
reac ție</w>
nebun ia</w>
in vizibil</w>
contro lului</w>
consecin ță</w>
chi ri
apă sați</w>
198 4</w>
197 0-2016</w>
țin ând</w>
șan se</w>
îndepl inirea</w>
semne ze</w>
scur ta</w>
pro şti</w>
na sol</w>
ma uri
jung lă</w>
fbi -ul</w>
consu mat</w>
ap elor</w>
activ itati</w>
înce tezi</w>
van zare</w>
u d
trimi să</w>
tablo ul</w>
selec taţi</w>
org as
oraş ele</w>
o lic</w>
mar torul</w>
mag ică</w>
ma son</w>
instantan eu</w>
inspi ră</w>
construc ții</w>
complic ate</w>
agri culturii</w>
0 8</w>
tră iţi</w>
ro ad</w>
malae zia</w>
lib ia</w>
educa ţiei</w>
configur are</w>
conferin ță</w>
înfricoş ător</w>
vol vo</w>
t ti</w>
sa int</w>
s chi</w>
ro oms</w>
plân gă</w>
ple cati</w>
paman tul</w>
ine gal
ina untru</w>
expi ră</w>
e forie</w>
didac tice</w>
col m</w>
clădi rile</w>
cla y</w>
ară taţi</w>
şi re</w>
ã sta</w>
surpri ze</w>
soci ala</w>
situ ate</w>
pă sa</w>
public area</w>
primi rea</w>
nu rilor</w>
mo ara</w>
it ura</w>
i legală</w>
ex pus</w>
dobor ât</w>
dezvol tatorii</w>
înșe lă
uman itatea</w>
si n</w>
selec ție</w>
sco rul</w>
sch ele
re parti
pari sul</w>
mi tr
lec ţia</w>
eşu at</w>
extre mă</w>
extin dă</w>
eficien ta</w>
concre t</w>
vorbe asca</w>
supra fe
psihiat ru</w>
preaj mă</w>
po n</w>
imagin ați-vă</w>
im posibilă</w>
expre ss</w>
de vina</w>
cuvin telor</w>
cli n</w>
ar ã</w>
acoper e</w>
19 40</w>
îngrij ora</w>
sân gelui</w>
oper atorul</w>
mun ci</w>
li sm</w>
is landa</w>
intere sa</w>
inciden tul</w>
conec tarea</w>
ceh ă</w>
be s</w>
artic ul
aju taţi-mă</w>
197 9</w>
îngrijo rează</w>
ur asc</w>
stri ga</w>
st ați</w>
ră nesc</w>
rela țiilor</w>
recep ţie</w>
premi ului</w>
o sti
locu rilor</w>
hol mes</w>
er n</w>
câşti găm</w>
americ anilor</w>
accep tarea</w>
abor da</w>
su ită</w>
spune -o</w>
si ber
ră ce
re par</w>
ni m
neces ara</w>
mal colm</w>
iz bă
indi ei</w>
ha luc
gă lă
gol d
fin aliza</w>
e f
din ti</w>
construc ţii</w>
chi mic</w>
adân că</w>
încuraj a</w>
ven iturilor</w>
te va</w>
s son</w>
op inii</w>
micu ţa</w>
l ama</w>
gro apă</w>
fu mezi</w>
france zii</w>
du cea</w>
ari pile</w>
şti re</w>
vari ante</w>
umi lin
trecu tului</w>
trase ul</w>
stin s</w>
stan ga</w>
se th</w>
sand vi
p ate
mu tarea</w>
mor tii</w>
mecani smul</w>
experti ză</w>
dub le</w>
cără mi
bran d-
ba h
ar da</w>
aminte şte-ţi</w>
rup te</w>
o to
mili on
gre ş</w>
dă- mi-o</w>
corec ta</w>
book ing</w>
be ţi
ale se</w>
în al
îmbră ți
stadi u</w>
so i</w>
s ley</w>
pretin d</w>
po vară</w>
pa sărea</w>
p unea</w>
mur dară</w>
man t</w>
kie v</w>
in ser
g b
dinam ică</w>
dimen siunile</w>
democra ţie</w>
condi ţie</w>
cab ina</w>
ali u</w>
învăță mântul</w>
îmb r
vehicu lele</w>
tulbur ări</w>
tat oare</w>
span iei</w>
ra ţie</w>
pu mn
pah are</w>
l lo
jon athan</w>
io v</w>
esen ţial</w>
dumneze ului</w>
domni soara</w>
anth ony</w>
si us</w>
ruti er</w>
renun ta</w>
pu la</w>
protej ăm</w>
pr aful</w>
par carea</w>
ni geria</w>
mă s
fer ată</w>
bag aj</w>
aniver sarea</w>
3 3
urgen tă</w>
se men
plani ficat</w>
olimp ic</w>
o aie</w>
muş cat</w>
min tele</w>
memo ri
institu ţii</w>
fer i
fant astică</w>
dez br
cru d</w>
creativ itatea</w>
conclu zii</w>
cheltu i</w>
azi- noapte</w>
avi onului</w>
înce teze</w>
zice ai</w>
vâr st
vi k
transfer a</w>
ti -vă</w>
termin ată</w>
ten t</w>
scen e</w>
mu rilor</w>
medi ev
iniți ală</w>
i torilor</w>
h ale
g m</w>
fac uta</w>
de mar
d -l</w>
chesti uni</w>
bună tatea</w>
a- ți</w>
înca dre
z eşti</w>
violen ță</w>
v ata</w>
u morului</w>
substan ţe</w>
simb oli
ro ck
ri scă</w>
r ară</w>
nu- si</w>
nev astă</w>
lin d
japone zii</w>
groaz nică</w>
dispozi tie</w>
di ame
convin să</w>
bro ker</w>
t ch
sti ai</w>
spiritu ale</w>
sin d</w>
rur al</w>
respec tăm</w>
rapi da</w>
p am</w>
oper ator</w>
nemernic ule</w>
magaz inele</w>
ma ior</w>
lip si</w>
inter venit</w>
fisc ală</w>
f c</w>
examin are</w>
de ghi
căsătore ască</w>
al z
vă tă
verific aţi</w>
ru lo
reprezen tând</w>
recompen să</w>
polone z</w>
pho en
lup tei</w>
len j
ju mate</w>
ing s</w>
fronti era</w>
feric iti</w>
fe cio
dori te</w>
cu li
co dului</w>
bi an</w>
t ter</w>
producă torul</w>
price pe</w>
pon ta</w>
miş căm</w>
fă că
ex puse</w>
difer iţi</w>
câști ge</w>
cau zează</w>
băie ții</w>
an velo
3 000</w>
0 9</w>
propun eri</w>
n are</w>
gener aţii</w>
fron t</w>
folose ști</w>
fi ilor</w>
expri mă</w>
evit area</w>
epu iz
eli gi
do sare</w>
dan ia</w>
cam pu
acţion a</w>
şti aţi</w>
x -lea</w>
so ţii</w>
phi lip</w>
o wen</w>
munci torilor</w>
ma suri</w>
k w
k am
garan tează</w>
esc al
episo d</w>
emo ţii</w>
be lar
auto stradă</w>
abili tăţile</w>
trat amentului</w>
terori sm</w>
st ări</w>
semnă tura</w>
scuz a-ma</w>
reglemen tările</w>
pr ada</w>
pier re</w>
otra vă</w>
lan sate</w>
fo nul</w>
favori te</w>
efectu eze</w>
dat ing</w>
co t
ch loe</w>
auto mate</w>
antre pren
încăpă ţân
te a
tan ar</w>
secun dar</w>
plat it</w>
pilo tul</w>
opini ile</w>
mag ist
in ghe
in al
h u</w>
gener ații</w>
facili ta</w>
credin ţei</w>
cer ne
bib l
auto mobi
atacu rilor</w>
acce sului</w>
a .com</w>
ă- n</w>
uni forma</w>
un icul</w>
relig ii</w>
reg ale</w>
pl ati</w>
or al</w>
nepri hă
he alt
farmac ie</w>
experimen ta</w>
elli ot</w>
echival entul</w>
cal atorie</w>
cadavre le</w>
acțion a</w>
şe zi</w>
vizi tez</w>
vir g
tradi țional</w>
tr aduce</w>
so ny</w>
si tor</w>
s.u. a</w>
rugăci unile</w>
pregăti ţi-vă</w>
ingin eria</w>
influen ta</w>
identific e</w>
gur u</w>
fu ga</w>
fran ței</w>
diavo l</w>
încăl care</w>
victi mei</w>
th or
tatu aj</w>
spectac ole</w>
sec ţiunea</w>
respi r
pre face</w>
por toc
nepo ata</w>
muzic ală</w>
gr ama</w>
folosi toare</w>
fanto ma</w>
creştin ă</w>
competi tiv</w>
comp re
co medie</w>
cap turat</w>
aprob are</w>
a luri</w>
îndepl init</w>
versi unile</w>
turi smul</w>
sprij ini
scu fund
răb darea</w>
rur ale</w>
regu lilor</w>
re van
plan telor</w>
musul manii</w>
magne tic</w>
k re
intelectu ale</w>
gu rii</w>
fran ţei</w>
fa bu
de liber
comun itățile</w>
averti zează</w>
tan e</w>
sa p</w>
referendu m</w>
pen ale</w>
noro i</w>
mist erul</w>
inde par
inchi s</w>
gu y</w>
glo rie</w>
feli x</w>
elabor area</w>
coti di
c p</w>
baf tă</w>
ascul tă
ap i</w>
we l
tai wan</w>
regim ului</w>
recompen sa</w>
păstra ți</w>
po et</w>
pie ţele</w>
nenoroci ţi</w>
miș că</w>
meta boli
interes aţi</w>
ghe ze</w>
emi sii</w>
di vi
dan sa</w>
constan tin</w>
cere monia</w>
b are</w>
arun caţi</w>
ambasad orul</w>
afri can</w>
actu alul</w>
yor k
spen s
sar ii</w>
roy al</w>
ri gi
pr ag
neag ra</w>
diag r
de ste
crist ina</w>
cen ţi</w>
autori tatile</w>
țion ați</w>
înţelepci une</w>
wat son</w>
vă z
vizitat or</w>
sper at</w>
rest abili
regener abile</w>
promo veze</w>
pre siuni</w>
poş tă</w>
popo n
perspec tivele</w>
obişnu ia</w>
mon strul</w>
mo sten
man d</w>
ma da</w>
indi spens
g iei</w>
g d
funcțion area</w>
fabri carea</w>
excep tia</w>
des co
dedesub t</w>
ca dre
2- 3</w>
înde mân
înche ie
vorbi re</w>
to ci
termin area</w>
man datul</w>
imp le
he pat
greșe li</w>
g era</w>
fli r
de spă
construc ţie</w>
colec ție</w>
bibli ei</w>
ampren tele</w>
adân cul</w>
vasi le</w>
ur sul</w>
u ber</w>
to tale</w>
tech nolog
ste ven
simți ți</w>
ro m</w>
reve la
pre văzut</w>
pierdu t-o</w>
mecani c</w>
m î
incredi bile</w>
in cul
fabri ca
cir c</w>
ca vale
al fa</w>
adevăr aţi</w>
a mag
vân ător</w>
vinov ată</w>
ver te
uti la
tre mur
tr onul</w>
seri alul</w>
scla v</w>
s atului</w>
recunoscă toare</w>
recu pere
principi ilor</w>
pere chi</w>
p in</w>
minci unile</w>
mari tim</w>
log an</w>
jen nifer</w>
ingin erii</w>
ia c</w>
garan tat</w>
du ș</w>
de ze
contempor ane</w>
consecin ţă</w>
asi atice</w>
3 60</w>
închi pui</w>
în tăre
sluj be</w>
re tt</w>
pre darea</w>
posi bila</w>
ofici ul</w>
mecan ică</w>
manan ca</w>
le- aţi</w>
it ate
inteligen ta</w>
inde pl
funcțion are</w>
foru mul</w>
exager at</w>
deschi deți</w>
comer ţului</w>
cap cana</w>
aven turi</w>
adap tare</w>
st â
rezol vi</w>
ra iul</w>
pă durile</w>
pre venire</w>
por sche</w>
mătuş ă</w>
mat ure</w>
liter a</w>
en ta</w>
de vi
cămaş a</w>
cri ze</w>
an ța</w>
2 1
şar pe</w>
închi derea</w>
suspec tul</w>
smart phone</w>
ran it</w>
proaspă tă</w>
porto fel</w>
plă ți</w>
pe ştele</w>
operați uni</w>
kin son</w>
f lan
evalu ări</w>
dv b-
cumpăr ați</w>
constan ta</w>
tă ie
tur ciei</w>
ră ului</w>
proste sc</w>
perfec te</w>
per u</w>
non- profit</w>
n esti</w>
mac ro
ma mi
lau dă</w>
interpre tarea</w>
institu te</w>
garan ție</w>
f at</w>
ex pul
dă rile</w>
diag nost
conclu zi
cetăţ enilor</w>
ce zar</w>
car iere</w>
at ate</w>
al fabe
afuri sit</w>
19 :
vă zând</w>
san ato
rămă şi
region ală</w>
puzz le</w>
pof tă</w>
m este</w>
identific ate</w>
echip ajului</w>
defec t</w>
declan ș
căţe lu
cur tis</w>
cunoștin ță</w>
canti tăți</w>
benefici ul</w>
ban g
apocalip sa</w>
vari antă</w>
u itati</w>
robo tul</w>
re venirea</w>
ne spus</w>
mo bila</w>
lu n</w>
iube ști</w>
indic ator</w>
im pus</w>
fali ment</w>
dina mic</w>
destin aţie</w>
crip tare</w>
ce s</w>
ază -i</w>
anx ietate</w>
ag h
acor darea</w>
ş un
înă untrul</w>
zâmb eşte</w>
ur bană</w>
reput aţia</w>
pur tător</w>
perio dic</w>
mexic o</w>
mar chează</w>
luptă tor</w>
lumin os</w>
ht ml</w>
h s</w>
fiic ele</w>
f â
excur sii</w>
efec telor</w>
e te</w>
competi ţie</w>
adop te</w>
îndepl ini
unghi ile</w>
to rile</w>
securi ty</w>
s '
produc ției</w>
opre ște</w>
naţi uni</w>
nat alie</w>
locu im</w>
iden tice</w>
f o</w>
cân du-se</w>
consecin ţe</w>
ban a</w>
bac h</w>
ascunde m</w>
ar men
ale geţi</w>
ac ilor</w>
uman a</w>
u ți</w>
tân du-se</w>
răci re</w>
run dă</w>
procen tul</w>
plăcin tă</w>
pla sat</w>
operaţi une</w>
ne am</w>
m -</w>
gân dac
eth an</w>
direc tori</w>
determin ată</w>
capit alului</w>
bl ând</w>
bb s</w>
au di</w>
tu ber
th or</w>
t ați
sedin ta</w>
rezol vată</w>
rezer ve</w>
re tar
po vara</w>
ne putin
lan ter
idio tul</w>
e ci
dure rii</w>
cal ităţii</w>
4 8
împuş că
w are
vâr stei</w>
ve z</w>
trandafi r</w>
t îr
s ân</w>
permite m</w>
numi ţi</w>
ne politicos</w>
mini me</w>
lo ve</w>
ien ii</w>
distribu ie</w>
dat ului</w>
cur ţii</w>
comple tat</w>
combin ate</w>
ci re
cetăț enilor</w>
case tă</w>
afri cane</w>
u ie</w>
ta c</w>
să mân
surprin să</w>
she r</w>
on orat</w>
impul s</w>
co moară</w>
chi b
blo cată</w>
americ ana</w>
5 5
înconjo ară</w>
testoster on</w>
ta ia</w>
solicit are</w>
ru sin
rezisten ță</w>
retrag ă</w>
par ole</w>
p ii</w>
nic ole</w>
mit ch</w>
implic ați</w>
fer ate</w>
descri u</w>
cow boy</w>
bi scu
b ie</w>
at on</w>
alt ar</w>
ajun ga</w>
ace lu
ac torul</w>
vie rea</w>
teme iul</w>
su me</w>
so ma
pic to
ocaz ii</w>
o ile</w>
mal ware</w>
lup tele</w>
love ască</w>
intere seaza</w>
hi bri
gă tesc</w>
deze chi
deo potrivă</w>
deci zi</w>
d ner</w>
cor tul</w>
asi n</w>
ac ului</w>
00 1</w>
întreb at-o</w>
tă iere</w>
nat i</w>
mat ele</w>
lip sită</w>
diz abilităţi</w>
dispozi tivului</w>
discu te</w>
depoz itul</w>
demonstre ze</w>
de pendent</w>
d ati
cone xe</w>
care va</w>
bo t
antic h
angaj ati</w>
aline atul</w>
al s</w>
acoper irea</w>
2 2:
' neaţa</w>
ţi -ne</w>
tru pului</w>
timi soara</w>
telefo nului</w>
senz ori</w>
ostat ici</w>
lun eti
jen ant</w>
ho mo</w>
gr amă</w>
dv d</w>
democrat ice</w>
coree an</w>
comport amentului</w>
calcul at</w>
blo curi</w>
adop ta</w>
împiedic at</w>
tempor ară</w>
new ton</w>
mire asă</w>
min ţii</w>
lenj erie</w>
k ov
gr ul</w>
ghe aţa</w>
con ştiinţă</w>
ca ine</w>
al ter
adjunc t</w>
tox ice</w>
se zonului</w>
ro ata</w>
re pri
re per
ra du</w>
pie trele</w>
o oh</w>
mântu ire</w>
muscu lare</w>
micu ţul</w>
lo asă</w>
lini ştea</w>
lan sată</w>
inter fe
hallowe en</w>
gra ham</w>
g ong</w>
d wi
chel n
zi duri</w>
trag ere</w>
tin i</w>
ter asă</w>
rome o</w>
ri cky</w>
re view</w>
pre cau
opre ste</w>
o is</w>
mi to
me gan</w>
manu el</w>
justi ţiei</w>
jucă torul</w>
ju ana</w>
intervi ul</w>
fi gur
expi rat</w>
cân tând</w>
clu j
bur y</w>
v- aş</w>
v y</w>
stabile ște</w>
seri al</w>
schimb ate</w>
politi st</w>
plăti tă</w>
pier derile</w>
no stim</w>
moni tor</w>
miş cări</w>
luc raţi</w>
i asca</w>
fu tu
felicit ari</w>
direc torului</w>
de- acolo</w>
cos mo
tră dător</w>
sp in
pă rii</w>
pu m
pere tele</w>
patri o
ox ford</w>
mat ica</w>
le an
i -</w>
gir l
deosebi te</w>
de pi
cup luri</w>
bucă tar</w>
bern ard</w>
ari zona</w>
aplic atii</w>
împre jur
ri ca</w>
proprie tăți</w>
primar ă</w>
pd f
pa ul
ofiţ erul</w>
obişnu iam</w>
naţi une</w>
lo cali
li zat</w>
it area</w>
hi po
ge -o</w>
fi si
execu tive</w>
do v
d aţi-vă</w>
cur g</w>
binecuvân teze</w>
be z
ander son</w>
întări ri</w>
întâr zie</w>
winst on</w>
vi te</w>
urmări ţi</w>
sen atorul</w>
radic al</w>
profe t</w>
nic ky</w>
dispre ţu
descen den
de por
comen zile</w>
ți -l</w>
t v
supăr aţi</w>
st r</w>
speciali ști</w>
so fer
ro gi</w>
re r</w>
prob abilitatea</w>
o p</w>
m la
le şte</w>
investi torilor</w>
gener ator</w>
elicop terul</w>
desfă şoară</w>
depre sia</w>
curăţ enie</w>
confrun tăm</w>
văr sat</w>
vrăj maş
vro iai</w>
vi bra
ten i</w>
sen ior</w>
pică tură</w>
parlamen tare</w>
o anelor</w>
mite rea</w>
minist rului</w>
lă mâ
imp ie
i artă</w>
gră bit</w>
greşe lile</w>
demo n</w>
dan săm</w>
dai sy</w>
can ce
cal de</w>
anunț uri</w>
an tică</w>
împărtă șesc</w>
trimite ți</w>
smart phone
se scu</w>
pri vit
obstac ol</w>
o hi
disco unt</w>
degra ba</w>
dar uri</w>
ba ut</w>
ațion ală</w>
whi sky</w>
vo d
so lului</w>
prote st</w>
lip seste</w>
lap top</w>
j ill</w>
exper ţi</w>
del ph
cunoştin ţele</w>
condi ţia</w>
ciu rile</w>
îmbră cată</w>
sărbă tore
socie tăţi</w>
sacrifici u</w>
ri g
rache tele</w>
produc tia</w>
potrive ște</w>
muzic al</w>
le u
introdu se</w>
hri stoase</w>
grăbe sc</w>
er up
eli mine</w>
du- şi</w>
căsnic ia</w>
cri me
cr ani
copi lar
conven ția</w>
casatori t</w>
ast ice</w>
într- unul</w>
pomp ieri</w>
plan tă</w>
o cul
nan o
milosti v</w>
k il
diplo matice</w>
descoper im</w>
d s
conec tează</w>
abor dări</w>
înș ine</w>
z am
su pa</w>
ră sări
pof tiţi</w>
p am
gu ine
gu ar
gol d</w>
g len
execu tarea</w>
dă -ne</w>
dispozi ţia</w>
ateli erul</w>
an ton</w>
w is
vi sezi</w>
val abilă</w>
v ap
telefo nice</w>
tan te</w>
scu le</w>
prefer i</w>
pla sa</w>
pe ască</w>
paral el</w>
o co
n- aveam</w>
monitori za</w>
me serie</w>
interpre tare</w>
indic ele</w>
i adului</w>
hidro gen</w>
garan tez</w>
fu rile</w>
du ke</w>
bo d
autono me</w>
adap tat</w>
şe z</w>
t aj
sfâr sit</w>
scuz ele</w>
san ti
s ad
robo ți</w>
ro ag
prost ia</w>
omorâ ţi</w>
me t</w>
ici enii</w>
i so
ho li
gre acă</w>
gospo dă
g ine
dul ci</w>
deci dă</w>
călău zi
confor tul</w>
com pozi
biju teriile</w>
apu ca</w>
aprob ate</w>
zi lelor</w>
vin o
ste ază</w>
s-a-n tâmplat</w>
pul mon
profe soară</w>
par ado
nu le</w>
mărturi sesc</w>
k ie</w>
fere am</w>
extensi bilă</w>
dioxi d</w>
bra ţ</w>
ştiinţi fic</w>
vo are</w>
vehicu lelor</w>
umer ii</w>
tat ia</w>
sal onul</w>
relig iei</w>
ra i
psiholog ic</w>
pe ti
pe se</w>
pasi on
odin ioară</w>
interven ţie</w>
inte lor</w>
gheorg he</w>
g ame</w>
echip amentele</w>
dor o
cif ră</w>
an ţii</w>
10 1</w>
00 0
- bine</w>
întreb ați</w>
ve cin</w>
t …</w>
share point</w>
se siuni</w>
sal arii</w>
răzbun area</w>
re medi
produc tie</w>
pre ţuri</w>
obse dat</w>
no tat</w>
mi re</w>
le ul</w>
in cur
ia -mă</w>
defic it</w>
de- acum</w>
convin gerea</w>
clien tilor</w>
clas ament</w>
cer titudine</w>
argu men
al ã</w>
.. ....</w>
vizi unile</w>
val ley</w>
tu al</w>
ta xi
st ore</w>
rezi du
radio ul</w>
premi ile</w>
person ajele</w>
mul tic
mon tre
man ă</w>
le m</w>
inspec tor</w>
construc tii</w>
b u</w>
ali at</w>
acți unilor</w>
în flo
wee k-
war ren</w>
vio let</w>
ten t
răspun derea</w>
răsp lată</w>
ră su
roman ul</w>
disper at</w>
din ți</w>
diagno stic</w>
consider i</w>
bat eria</w>
at ici</w>
asoci aţia</w>
ar tele</w>
aminti ți-vă</w>
5 000</w>
198 7</w>
vpn -uri</w>
t aţi-vă</w>
se u
petr olul</w>
naşte rea</w>
n al</w>
m t
inten să</w>
flo area</w>
eviden tă</w>
enor mă</w>
egal itatea</w>
do ze</w>
discu tă</w>
descoper ită</w>
chi ria</w>
bur gh</w>
asisten tul</w>
acor dată</w>
- brand-
re y
obțin ute</w>
li ta</w>
investi țiile</w>
he ta</w>
gar dă</w>
g ad
disponi bilitatea</w>
desp ar
co durile</w>
ati vi</w>
an ce</w>
alp h</w>
ad apta</w>
activ ităților</w>
unchi ului</w>
tri b</w>
tal ie</w>
sen in</w>
ro sto
pen n
par ţial</w>
o pusul</w>
no bil</w>
mon s</w>
ist a</w>
ingrij or
dragu ta</w>
di s</w>
bag e</w>
b -ul</w>
asoci ată</w>
1 12</w>
şeri f</w>
înăl țimea</w>
împ ar
vo inţă</w>
tu ale</w>
tag oni
situ aţiei</w>
sal vate</w>
mări tată</w>
dedic ate</w>
de țin</w>
că cat</w>
bra le</w>
aş e</w>
alz heimer</w>
admi r</w>
ţ ând</w>
ş ah</w>
întâmpl ător</w>
îne cat</w>
wor d</w>
up date</w>
ru sesc</w>
ro tile</w>
polu are</w>
person alizat</w>
oportun ităţi</w>
ocazi onal</w>
o mi
ne gat</w>
men it</w>
impre sione
hai l</w>
gh ici
ele f
egip tul</w>
denu mită</w>
de şte</w>
d- zeu</w>
comer ţul</w>
budap esta</w>
bal on</w>
aştep tând</w>
actualiz area</w>
ș ap
şam panie</w>
îmbolnă vit</w>
un chi</w>
uci și</w>
tradi ţie</w>
ti f
super fici
re ali</w>
p ică</w>
născu ţi</w>
mărturi sit</w>
liber tății</w>
ha o
fap tă</w>
dup ã</w>
du z
distribu ție</w>
ci ob
ce o</w>
ac o</w>
înde m
îna inte
îmbrac i</w>
ze ci
umb la</w>
ti smul</w>
s ând</w>
ro se
recompen se</w>
re chin
r alph</w>
pur tăm</w>
pe ten
maimu ţă</w>
mag hi
infrastruc turii</w>
in fo
bu di
aş ă</w>
ști n</w>
z ata</w>
vac i</w>
ur mând</w>
ti -
se turi</w>
s q
po sta</w>
nor me</w>
limi tează</w>
in cit
i sp
e van
convin gă</w>
comi sarul</w>
co pen
cerce tat</w>
az er
al ina</w>
2 1:
y ea
ver e</w>
tră dă
so ție</w>
sh an
scri itori</w>
rezi stat</w>
reu şim</w>
regist rul</w>
păr ților</w>
me tale</w>
lan ce</w>
ha ină</w>
fra ții</w>
feder ația</w>
f ast
e h</w>
cî teva</w>
convin gi</w>
condu cător</w>
cap tiv
ar ch
adăug ată</w>
ade zi
194 4</w>
vier mi</w>
si re
ru tină</w>
rela ţiilor</w>
re turne
por cărie</w>
mar o</w>
mag ice</w>
inte l</w>
impl ice</w>
h in
g li
e ște</w>
di vul
d as</w>
christop her</w>
bo lan</w>
anali zează</w>
adau gat</w>
15 -
z itatea</w>
stră inii</w>
sp ații</w>
pu stie</w>
produc tivitatea</w>
p to
operați unile</w>
ob ra
napo li</w>
mo ore</w>
j .
invit aţi</w>
folosi tor</w>
fac tura</w>
die sel</w>
d re</w>
căsători m</w>
compati bile</w>
buzun arul</w>
bu t
întreru pe</w>
y ce</w>
tehnolog ică</w>
roman tică</w>
poliţi stul</w>
mulţi mea</w>
fiz icii</w>
distru gem</w>
desen ate</w>
cre știn</w>
con ţin</w>
comite t</w>
can alele</w>
cal vin</w>
anu lează</w>
activ ităţii</w>
îngrijor aţi</w>
începe rea</w>
împuș cat</w>
vol k
trico u</w>
tra in
stri că</w>
proiec tate</w>
profe soara</w>
primi re</w>
por nesc</w>
mp an
invit a</w>
importan ţi</w>
hec tor</w>
ghic it</w>
gen ele</w>
extrate rest
dri ve</w>
cre ma</w>
consim ță
con sac
cavale r</w>
bi ţi</w>
aw ei</w>
asas inat</w>
9 9
îmbunătățe ască</w>
zo e</w>
yo u</w>
vac cin</w>
studi ez</w>
renun țat</w>
ra j</w>
pune ți</w>
profe sie</w>
por ţile</w>
munci toare</w>
gh er
fru str
elimin ate</w>
edi tura</w>
dă -le</w>
căsători ei</w>
conducă torul</w>
con cura</w>
col ţul</w>
ciuper ci</w>
an teri
ameste cat</w>
tari fe</w>
rapor tate</w>
pu tine</w>
por ta
orien tate</w>
mic hi
iubit -o</w>
hu awei</w>
e ti</w>
depă şeşte</w>
curriculu m</w>
cre ază</w>
col orat</w>
co ran</w>
ce -ti</w>
au rii</w>
ar tri
abun den
în gu
ver dic
unghi ul</w>
sto c</w>
spe cu
regul ã</w>
prin s-o</w>
obli gă</w>
o sten
mir acu
legis lat
ic o
f .</w>
dub lin</w>
de semnat</w>
căsnic ie</w>
cur va</w>
copi lă</w>
confir mare</w>
colest er
ce dat</w>
bud dha</w>
argu mente</w>
af a</w>
4 6
ţi unii</w>
înt ri
ze ul</w>
tin o</w>
subter an</w>
san dra</w>
pă tură</w>
pre dea</w>
por tal</w>
nați uni</w>
modal ităţi</w>
micro unde</w>
m- as</w>
indi eni</w>
imagine ază-ţi</w>
fre der
for mu
fer e</w>
duho v
discipl ina</w>
copi la
co di
ag itat</w>
vitam ine</w>
v ice</w>
qu inn</w>
posibili tăţi</w>
ni merit</w>
lingvi stice</w>
informat ice</w>
exag e
dr acu
anu la</w>
administr ativ</w>
8 /
za dar</w>
z ap
vit al</w>
uci dem</w>
tren uri</w>
tr ase</w>
reu şeşte</w>
pre ocupat</w>
pan ama</w>
p una</w>
man chester</w>
log ii</w>
israeli an</w>
in do
imi gr
g al</w>
exerci ţiu</w>
depă șit</w>
confir marea</w>
conferin țe</w>
ciberne tice</w>
be şte</w>
bat jo
argu ment</w>
ad an
v ani
strân se</w>
rezisten ta</w>
parten erilor</w>
or ase</w>
ob tinut</w>
mie -mi</w>
li ţi</w>
later ală</w>
l ane</w>
imedi ată</w>
filo sofia</w>
dr az
depart ament</w>
competen te</w>
cardi ov
bucur ați-vă</w>
ara b</w>
af ro
17 :
învăț ați</w>
urma ți</w>
născu tă</w>
n am
mă tu
je an-
ipo cri
ine lui</w>
disper ată</w>
dez amag
ce -au</w>
ac u</w>
a. m</w>
încăr că
împl ini
ui mit</w>
trimi s-o</w>
tradi țională</w>
pan or
min us</w>
masin ă</w>
into xic
impri mare</w>
i /
ero ii</w>
e mite</w>
duş mani</w>
dur abil</w>
deose bi</w>
democra ţia</w>
decen t</w>
dam on</w>
cercetă tor</w>
4 .</w>
x i</w>
www. cam
ul tra
treze şte</w>
server ului</w>
se meni</w>
roman ii</w>
re publică</w>
pad ure</w>
ohi o</w>
n- avea</w>
ma ya</w>
irani an</w>
gu est</w>
depă și</w>
conven ţia</w>
complex itatea</w>
co r</w>
cazino uri</w>
amuz ante</w>
ade p
18 :
împu şti</w>
v- lea</w>
tiv ii</w>
tendin ţa</w>
telefo nie</w>
serve şte</w>
ro mei</w>
prima vara</w>
ne- aţi</w>
marke tin
mar tha</w>
ma li
l ds</w>
kat herine</w>
ex punere</w>
en tele</w>
du ri
defin ite</w>
confu zie</w>
che marea</w>
bo ard</w>
baie tii</w>
antic or
umer i</w>
tu p
trimite ţi</w>
tri lor</w>
su e</w>
se şti</w>
re amintesc</w>
pen is</w>
organ ice</w>
no e</w>
la ol
infor ma</w>
ie le</w>
frank lin</w>
fe ţele</w>
facul tății</w>
ev ită</w>
de tro
concentr area</w>
cen z
car ne
aplic ației</w>
adre sează</w>
a qu
înt îl
supravieț ui</w>
sim ţul</w>
se at
san gu
ru dă</w>
psiho log</w>
ocup area</w>
n- ului</w>
mer cur</w>
incer ci</w>
imb eci
eliber aţi</w>
down lo
distan ța</w>
descur căm</w>
d rog</w>
călători ile</w>
an tro
în datori
ve sc</w>
v .
solic itate</w>
pă duri</w>
pu iule</w>
pre turi</w>
munce ască</w>
j af
implemen tat</w>
handic ap</w>
gle z
eşe c</w>
curioz itate</w>
conflic tele</w>
bro ad
asc ã</w>
ari pa</w>
7 5
197 4</w>
întreprin derilor</w>
wor th</w>
treze ască</w>
te -n
spar g</w>
oaspe ții</w>
l ator</w>
juli an</w>
indivi dul</w>
gen it
exam ina</w>
desfăș urare</w>
cosme tice</w>
cardiov ascul
bo e
aş ii</w>
atra gă</w>
accep tată</w>
îmbunătă țit</w>
ze cea</w>
vin uri</w>
transmite rea</w>
sân i</w>
sti mula</w>
spă l</w>
simți m</w>
se rena</w>
scump a</w>
ri co</w>
ne tt</w>
ne p
ma in</w>
locu ia</w>
la ke</w>
independen ța</w>
ina intea</w>
fu mul</w>
feti ţo</w>
eviden ți
din ă
comun ice</w>
197 5</w>
ț ăr
wiki pedia</w>
vul can
urmă m</w>
turne ul</w>
so sire</w>
scu zi</w>
po sturile</w>
mar c</w>
la bir
in so
elef ant</w>
do naț
dezvol tată</w>
cur cu
convers ație</w>
co re</w>
înde mână</w>
ze ilor</w>
vizi tezi</w>
vic torii</w>
tru purile</w>
tal ente</w>
sub esti
stân că</w>
ridic ăm</w>
munci tor</w>
mu ţi</w>
fap ta</w>
educa țional</w>
dulci uri</w>
di gest
că peten
cra ig</w>
comp arti
comandan te</w>
cla di
circul ă</w>
ati vele</w>
atac aţi</w>
acce l
îmbunătăți re</w>
une sc</w>
ucra in
supor tat</w>
situ atii</w>
scă rile</w>
salv aţi</w>
războ aiele</w>
psiholog ice</w>
perce pe</w>
pen e</w>
pan oul</w>
omen ire</w>
obli ga</w>
men tal
it ut</w>
in drep
ic h</w>
hră ni</w>
cre ez</w>
con venit</w>
colec tare</w>
cheltuie lilor</w>
cetă țean</w>
are na</w>
am ator</w>
adole scent</w>
ad min</w>
tru pă</w>
tari fele</w>
s aman
re nume</w>
păian jen</w>
pre fac</w>
performan ţă</w>
paci fic
p ata</w>
mone dele</w>
micro fon</w>
i a-i</w>
hol be
fu mez</w>
dure rile</w>
distr a</w>
di sc
dep ună</w>
cur gă</w>
confidenți alitatea</w>
co mă</w>
auto turi
an tic</w>
am bu
ti mo
sat an</w>
ru le
p av
org an</w>
mulțu mit</w>
ment ări</w>
izol are</w>
intr u
in curaj
glob ala</w>
ge re
gas este</w>
frau dă</w>
evacu are</w>
acuz aţii</w>
şe fului</w>
întoc mai</w>
vene ția</w>
trico ul</w>
transplan t</w>
re plic
polic y</w>
po ate
pat i</w>
orien tat</w>
org anelor</w>
ne gust
mulţumi ţi</w>
leg a</w>
ier te</w>
eșe c</w>
exter ioară</w>
cere monie</w>
al ber
197 3</w>
vecin ul</w>
standar di
so tie</w>
se măn
se mă
sca rea</w>
sal ată</w>
profesioni știi</w>
or bi</w>
one ază</w>
je ss</w>
gar dner</w>
fon dului</w>
cu rea</w>
car it
an dă</w>
al og
în flori
z and</w>
videocli p</w>
trai este</w>
su pune</w>
stă pîn
st am</w>
s melor</w>
ro sii</w>
ra le</w>
r ho
q atar</w>
ot to</w>
omor at</w>
mă ce
loi alitatea</w>
gândi ți</w>
guvernamen tal</w>
ger ul</w>
el la</w>
detec tat</w>
costi sitoare</w>
ascul taţi-mă</w>
ar mi
altern ativ</w>
agre siv</w>
. ....</w>
za hăr
ten sion
slo ven
sec toarele</w>
s ant</w>
lec ții</w>
ie -
han s</w>
gi o</w>
geam ul</w>
frip tură</w>
consoli da</w>
bla ke</w>
bebelu ş</w>
adre sat</w>
ţ ică</w>
înfă p
urâ te</w>
umi ditate</w>
standar delor</w>
ren te</w>
pri le
per i</w>
inter valul</w>
inov ație</w>
fa lun</w>
efic ace</w>
defec te</w>
dan seze</w>
d- voastră</w>
cat ului</w>
car aibe</w>
antarc tica</w>
ampren te</w>
ampren ta</w>
ajun gând</w>
197 8</w>
0. 00</w>
ţe ze</w>
z ului</w>
yea h</w>
tuber culo
te ște</w>
ra man</w>
prizoni erii</w>
prim- ministru</w>
po şe
negoci ere</w>
li er</w>
j ai
it en
homosexu ali</w>
g ut</w>
eli sa
el le</w>
di vin
confor mi
ch ini</w>
car uia</w>
bog ați</w>
b ingo</w>
albu me</w>
zic ând</w>
z ati</w>
z ach</w>
xi x-lea</w>
uni ted</w>
tân ăra</w>
tendin ța</w>
[...]
