. 6323898
, 4070796
de 2899522
? 1443256
să 1407658
în 1376421
nu 1303898
a 1155384
- 1018969
la 945410
o 930873
şi 833849
cu 786400
! 782783
că 729283
pe 721047
ce 707637
mai 694218
pentru 683731
un 632870
este 609309
e 594544
și 581542
din 537940
care 525796
am 475222
... 471426
se 451403
sunt 413522
ca 395586
asta 343615
fost 314675
fi 312186
dar 303615
te 297083
ai 290090
: 277181
bine 261843
au 255495
si 252097
sa 247753
dacă 238323
va 229645
mă 213579
) 213159
cum 211530
sau 209330
trebuie 202463
( 200931
eu 198560
in 195932
aici 191739
da 186169
lui 185850
`` 185815
ar 180332
ne 165711
când 163692
poate 161517
ei 159808
'' 159369
el 157452
acum 156726
vă 153882
al 151827
” 147935
doar 145946
pot 138163
tu 133574
aşa 131073
mult 128461
face 128042
ceva 127885
despre 125000
acest 123587
noi 121681
are 117581
eşti 116507
s-a 115272
foarte 115024
ani 112349
mine 111771
„ 111427
tine 110720
voi 110703
toate 105369
unde 105086
îmi 104383
spus 104009
le 103560
mea 101620
cred 100308
ea 98808
fie 98567
cel 98044
chiar 97953
tot 97449
meu 93644
vor 93571
era 93452
ta 93396
prin 92856
timp 92583
putea 89101
după 88117
mare 88093
nici 85626
dintre 85254
iar 83784
ştiu 82641
atunci 81971
bună 81433
multe 80248
vreau 80219
acolo 79371
făcut 79164
ale 78827
vrei 78334
nevoie 76373
lor 75591
pare 75229
această 73567
cele 72095
până 72082
faci 71916
nimic 71341
cine 71201
fac 71068
trebui 68776
spune 68086
lucru 67894
ceea 65426
– 63317
îi 62777
; 62002
avem 61563
zi 61504
îl 61472
cea 60811
fiecare 60545
avea 59908
cât 59740
ştii 59483
tău 59426
cei 59155
fără 58719
% 58502
decât 58329
rău 58208
aceasta 57632
spun 57503
suntem 56898
“ 55886
bun 55721
vom 55469
atât 55187
prea 55108
oameni 54437
dumnezeu 52884
îţi 51984
două 51373
fel 51102
aceste 50793
încă 50678
rog 50555
poţi 50213
există 49368
deci 49208
orice 49199
cineva 48730
loc 48464
peste 48268
nu-i 48103
unul 47966
putem 47590
avut 47478
vei 47379
să-l 47064
lumea 47016
1 46804
-@@ 46069
vrea 46027
oamenii 46026
parte 45711
înainte 45548
totul 45456
nou 45076
asemenea 45009
unui 44961
re@@ 44550
ia 44534
venit 44481
acesta 44069
într-o 43976
ne@@ 43811
apoi 43444
trei 42802
ori 42368
nostru 42337
timpul 41873
niciodată 41629
numai 41507
alte 41104
m-am 41049
văzut 40968
aţi 40261
astfel 40086
2 39821
toată 39404
ăsta 39352
an 39246
crezi 39083
place 38843
mod 38688
să-i 38554
noastre 38534
dat 37998
mulţumesc 37900
unei 37261
haide 37111
ma 37096
să-ţi 37063
prima 36893
stai 36383
lume 36341
într-un 36044
mama 35849
spui 35673
noastră 35650
nimeni 35233
vezi 35230
aproape 35074
mi-a 34932
ele 34878
asa 34785
daca 34726
puţin 34613
n-am 34584
facem 34503
să-mi 34302
fii 34298
una 34166
doi 33915
acasă 33486
numele 33194
regulă 33184
aş 33166
s-o 33084
văd 32881
i 32866
jos 32849
dată 32762
sigur 32584
3 32544
între 32323
toţi 31939
hai 31909
esti 31799
ziua 31622
acestea 31324
înapoi 31188
spre 31175
10 31121
deja 30915
către 30905
om 30848
înseamnă 30832
zile 30685
primul 30252
domnule 30138
' 29830
s-au 29490
mergem 29476
sub 29264
lucruri 29231
s 29154
început 28940
asupra 28913
fapt 28812
l-am 28761
5 28500
câteva 28359
însă 28296
întâmplat 28143
mele 28043
copii 27959
anul 27849
luat 27773
său 27757
ci 27558
bani 27440
adevărat 27294
viaţa 27164
[ 27113
in@@ 26863
uite 26727
auzit 26352
partea 26163
locul 25837
ii 25299
fiu 25116
4 25111
trecut 24851
așa 24789
zis 24661
de@@ 24632
astea 24624
facă 24580
aia 24541
împreună 24530
milioane 24412
dvs 24387
ajuns 24135
destul 23987
aceea 23876
] 23797
nu-mi 23729
oh 23714
casa 23699
nişte 23579
vine 23325
mari 23195
găsit 23175
precum 23151
probabil 23126
singur 23113
bune 22952
erau 22895
merge 22841
urmă 22812
tale 22626
_ 22495
vedea 22405
ţi 22342
cazul 22325
vin 22235
dumneavoastră 22219
vrut 22155
ajuta 22151
i@@ 22073
luni 22068
întâmplă 22024
afară 21904
naiba 21808
doamne 21802
aveţi 21684
data 21679
i-a 21602
i-am 21599
astăzi 21550
20 21516
dau 21345
tatăl 21339
important 21323
o@@ 21323
repede 21265
sus 21264
lucrurile 21257
mi 21252
gata 21141
eram 21113
vedem 21108
exemplu 21085
du-te 21013
azi 21009
sale 21008
hei 21008
hotel 20952
sunteţi 20853
tare 20828
s@@ 20824
te-ai 20814
e@@ 20725
m-a 20722
/ 20713
serios 20673
l-a 20672
mereu 20547
duc 20431
ales 20375
putut 20283
moment 20263
at 20246
patru 20209
acord 20185
mei 20176
privire 20098
îşi 20023
târziu 20008
grijă 19970
cauza 19931
vorbesc 19903
doua 19887
tată 19879
minute 19868
departe 19855
stiu 19765
noapte 19760
cam 19745
exact 19616
k@@ 19615
ați 19572
adică 19563
6 19541
tip 19331
greu 19321
cand 19317
persoane 19296
cinci 19277
imediat 19213
altă 19191
vorba 19170
unele 19090
s-ar 18904
joc 18860
ore 18850
copiii 18845
întotdeauna 18844
fata 18827
n-o 18818
celor 18767
probleme 18670
ne-am 18588
viaţă 18577
unite 18572
murit 18559
vino 18545
simt 18534
pierdut 18431
dolari 18407
.. 18383
nouă 18367
muncă 18339
m 18315
banii 18213
domnul 18114
tocmai 18083
d 18013
împotriva 17945
t 17934
ştie 17913
dle 17890
iau 17814
oferă 17760
tata 17679
frumos 17626
… 17577
faptul 17520
ate 17512
ajutor 17506
t@@ 17505
puteți 17502
simplu 17456
site 17429
seara 17429
posibil 17410
te-am 17359
deoarece 17219
puteţi 17169
30 17137
mi-am 17134
unii 17097
copil 17050
fiind 17025
arată 17020
scuze 17005
apă 17005
drept 16969
femeie 16964
ajunge 16951
iei 16936
b 16928
15 16916
8 16913
7 16895
ultima 16864
dreptate 16829
ată 16809
stat 16797
& 16787
nivel 16785
mulţi 16775
c 16743
numărul 16738
drumul 16696
pus 16688
ti 16677
ati 16674
d@@ 16673
măcar 16631
faţă 16605
diferite 16594
mie 16565
afaceri 16524
alt 16493
date 16421
iubesc 16329
cookie-uri 16296
niciun 16240
caz 16171
pune 16113
dracu 16101
seama 16082
g@@ 16066
co@@ 16052
mic 15995
plecat 15817
urma 15811
privind 15798
u@@ 15786
trebuia 15732
vedere 15613
n-a 15546
terminat 15528
12 15469
pre@@ 15464
special 15460
de-a 15426
ul 15403
sua 15396
lua 15371
omul 15318
familia 15298
ro@@ 15284
mâine 15268
începe 15224
dus 15117
dupa 15097
ar@@ 15091
desigur 15073
devenit 15068
tuturor 15065
duce 15055
u 15033
n-ai 15033
nicio 14971
fiul 14969
le@@ 14910
online 14903
ţi-am 14875
z@@ 14843
problema 14804
unor 14798
ți 14769
ma@@ 14757
stii 14755
crezut 14724
ochii 14700
problemă 14668
informații 14665
ăla 14621
oficial 14617
an@@ 14565
primit 14544
mamă 14530
.@@ 14491
cer 14487
ţii 14480
ești 14455
ului 14413
m-ai 14405
poti 14377
puțin 14366
china 14357
tipul 14342
casă 14336
dai 14277
te@@ 14210
n@@ 14201
statele 14184
odată 14182
încredere 14174
încât 14139
găsi 14115
sã 14106
al@@ 14098
plus 14088
persoană 14074
lângă 14033
direct 14027
potrivit 14025
ba 13987
exista 13943
9 13929
produse 13918
cale 13893
întreaga 13852
h@@ 13848
vreo 13827
ora 13807
mici 13784
dă 13779
a@@ 13745
acel 13714
treaba 13710
c@@ 13708
aşteaptă 13706
singură 13686
idee 13683
oferi 13682
permite 13679
viata 13662
vreodată 13654
sper 13633
ti@@ 13613
acea 13591
li@@ 13568
trebuit 13411
nume 13409
se@@ 13398
noaptea 13347
as 13346
faţa 13341
marea 13325
câte 13315
n 13302
dumnezeule 13289
plec 13228
politica 13185
gândit 13174
b@@ 13164
merg 13148
rămâne 13094
ata 13070
legătură 13070
omule 13059
area 13049
europa 13011
personale 12968
femei 12964
-- 12933
vii 12919
întrebări 12917
l@@ 12898
iti 12888
înţeleg 12863
aproximativ 12858
adus 12853
nu-ţi 12853
mo@@ 12844
inima 12832
război 12793
l-ai 12781
ri@@ 12758
scris 12758
to@@ 12745
k 12744
50 12727
ilor 12685
corect 12684
ce-i 12676
mi-ai 12660
inclusiv 12648
imi 12644
viața 12622
răspuns 12620
acestui 12618
crede 12614
sistemul 12594
servicii 12577
doresc 12575
jumătate 12561
so@@ 12536
înţeles 12497
vorbim 12492
di@@ 12471
adevărul 12464
me@@ 12459
dreptul 12439
utilizarea 12424
ie 12424
sunteți 12424
p@@ 12416
100 12375
camera 12365
uitat 12360
datele 12346
mică 12327
tă 12312
m@@ 12304
veţi 12296
copilul 12260
familie 12260
află 12243
la@@ 12195
cap 12188
prezent 12175
g 12175
buna 12164
pic 12158
majoritatea 12157
$ 12114
minunat 12079
tau 12056
modul 12005
cadrul 12001
veni 11987
duci 11985
altceva 11971
facut 11911
curând 11894
pământ 11891
programul 11861
cameră 11839
prieteni 11830
l 11828
singura 11804
complet 11800
11 11797
oamenilor 11788
lumii 11785
succes 11782
mâna 11756
telefon 11750
își 11750
y 11744
website-ul 11732
încercat 11731
nu-l 11706
uneori 11704
vreme 11694
general 11692
si@@ 11644
ne-a 11622
» 11614
pace 11595
simţi 11583
în@@ 11555
aveți 11540
păi 11538
sistem 11530
poftim 11527
cunosc 11471
4@@ 11469
mi@@ 11440
cunoscut 11434
siguranţă 11434
schimb 11424
mii 11413
jocuri 11405
oare 11385
vi@@ 11381
momentul 11379
rămas 11377
vorbit 11345
făcut-o 11336
@ 11313
r@@ 11293
fată 11278
ra@@ 11272
ok 11263
acestei 11249
știu 11243
şi-a 11232
datelor 11208
domeniul 11203
p 11190
baza 11181
mulți 11162
singurul 11153
faceţi 11152
drum 11147
aibă 11142
spune-mi 11140
v@@ 11101
uşor 11096
y@@ 11084
pat 11079
puterea 11070
rugăm 11057
poți 11055
echipa 11050
it 11033
mediu 11033
po@@ 11009
ciudat 11009
acelaşi 11008
prieten 10999
griji 10988
căci 10983
mergi 10942
2017 10942
punct 10935
jurul 10919
noua 10897
su@@ 10893
obicei 10884
uită-te 10858
putin 10855
aduce 10842
mort 10830
multă 10824
aveam 10817
25 10815
toți 10782
rapid 10781
-ul 10781
vorbeşti 10760
cercetare 10713
limba 10698
do@@ 10696
18 10695
frumoasă 10689
drepturile 10688
trimis 10684
printre 10683
pur 10662
rea 10651
rând 10647
* 10637
x 10605
munca 10599
cat 10595
credeam 10591
ascultă 10590
le-am 10575
z 10560
să-şi 10555
f@@ 10545
declarat 10541
luna 10536
oricum 10535
stau 10522
folosit 10497
john 10471
afla 10469
bărbat 10468
bucur 10467
lo@@ 10465
ala 10447
motiv 10442
moartea 10429
new 10395
mar@@ 10394
fratele 10366
/@@ 10361
dă-mi 10360
restul 10355
doilea 10322
be@@ 10319
lăsat 10306
afara 10263
altfel 10258
clar 10254
spatele 10248
3@@ 10223
încearcă 10222
carte 10219
web 10203
viitor 10191
pana 10179
întors 10175
> 10166
bază 10165
bo@@ 10136
viață 10134
w@@ 10113
buni 10069
prins 10068
5@@ 10049
con@@ 10037
universitatea 10023
anului 10022
dezvoltare 10018
dea 10018
schimbat 10017
rahat 10007
v 9982
intrat 9970
li 9961
ucis 9961
program 9954
dezvoltarea 9942
locuri 9938
puternic 9930
energie 9928
minte 9895
r 9885
apa 9866
băieţi 9857
lasă-mă 9852
te-a 9849
calitate 9824
experiență 9822
pun 9805
rusia 9797
continuă 9787
ţie 9784
întoarce 9774
securitate 9768
no@@ 9746
zece 9733
ultimul 9726
şti 9705
tăi 9690
40 9668
14 9665
13 9659
16 9659
liber 9653
deloc 9652
lu@@ 9647
capul 9641
întâi 9630
vorbi 9623
tele 9623
multumesc 9620
auzi 9612
at@@ 9607
număr 9607
ştim 9602
pe@@ 9596
zona 9589
veți 9575
dl 9574
'@@ 9572
mondial 9565
ur@@ 9565
24 9562
oră 9540
bi@@ 9525
fim 9510
ştiţi 9503
scrie 9494
moarte 9477
legea 9461
maşină 9437
grozav 9435
scopul 9409
america 9398
nord 9395
mers 9389
le-a 9377
sta 9369
tul 9352
totuşi 9352
pasă 9321
putere 9320
mu@@ 9308
vechi 9295
personal 9290
du@@ 9281
zici 9275
prietenii 9273
ca@@ 9260
reprezintă 9259
spate 9243
sânge 9238
2016 9230
aer 9226
pui 9223
0 9208
centrul 9206
crescut 9192
isus 9189
cuvinte 9184
film 9164
contează 9159
importante 9140
vreţi 9129
maşina 9125
gând 9119
îți 9115
acestor 9113
față 9109
acela 9104
17 9101
vrem 9095
n-ar 9088
mi-e 9077
pleacă 9073
iată 9062
compania 9061
ce@@ 9060
săptămâni 9023
felul 9022
ajutorul 9002
ţi-a 9000
știi 8974
femeile 8956
parcă 8947
ideea 8947
domnului 8933
naibii 8917
flori 8905
întâmpla 8903
oraş 8892
vazut 8885
ând 8854
mâinile 8847
povestea 8846
i-ai 8844
il 8812
ții 8805
devreme 8802
cerut 8800
uita 8788
jur 8781
cu@@ 8777
doamnă 8760
asta-i 8744
las 8736
noroc 8734
conformitate 8728
plac 8712
american 8708
gândesc 8704
studiu 8697
vină 8688
lumina 8674
schimba 8671
urmare 8664
ăm 8662
tati 8659
— 8642
fericit 8642
deschide 8628
salut 8623
ge@@ 8613
abia 8609
sud 8593
intre 8593
un@@ 8582
pu@@ 8569
st 8568
j@@ 8562
ni@@ 8537
fă 8487
nivelul 8484
prietenul 8466
• 8458
2015 8457
suficient 8454
voastră 8444
vina 8432
deveni 8429
ue 8426
rau 8404
aflat 8400
soţia 8398
or@@ 8385
ac@@ 8380
trece 8368
miliarde 8364
zice 8362
go@@ 8356
fara 8340
ho@@ 8336
sine 8329
vadă 8322
guvernul 8321
creat 8318
bu@@ 8299
tu@@ 8298
lăsa 8296
cere 8289
alo 8278
luptă 8277
’ 8275
toti 8257
tului 8250
par@@ 8244
decat 8240
pleci 8234
18@@ 8229
# 8223
născut 8214
cuvânt 8214
zic 8213
părți 8212
stare 8209
continua 8208
măsură 8208
întrebat 8204
aud 8196
întorc 8187
foc 8184
perioada 8145
iunie 8142
treabă 8141
internet 8136
tii 8134
euro 8132
uri 8132
companie 8125
frică 8122
fiindcă 8120
viitoare 8093
on 8090
sex 8090
lupta 8084
fi@@ 8074
grup 8074
en@@ 8066
găsesc 8054
folosi 8051
germania 8021
calea 8016
6@@ 8008
aduc 7997
dragă 7988
perfect 7986
video 7985
curs 7984
taci 7981
man@@ 7971
anume 7962
același 7956
d-le 7943
l-au 7939
ci@@ 7939
poveste 7927
h 7924
fiica 7914
conform 7912
articolul 7909
devine 7897
dragoste 7892
control 7882
pi@@ 7882
f 7865
luăm 7846
deschis 7845
cumva 7840
săptămână 7839
intră 7820
x@@ 7817
lună 7815
frate 7800
noul 7799
am@@ 7793
legate 7791
trimite 7779
dintr-o 7772
într-adevăr 7771
anumite 7769
7@@ 7769
21 7768
ţine 7762
pro@@ 7750
ile 7748
cartea 7743
caută 7734
stă 7732
chestia 7730
plecăm 7726
răspunde 7724
necesar 7722
total 7720
ni 7705
re 7704
amândoi 7693
car@@ 7687
ştiam 7682
tor 7660
sănătate 7647
cã 7641
dreapta 7631
lista 7631
numit 7628
site-ul 7628
lasă 7619
utilizează 7618
ajut 7615
încerc 7611
sociale 7608
dori 7598
.com 7597
cookie-urilor 7588
man 7587
2018 7584
tehnice 7577
ajută 7576
cont 7566
ch@@ 7565
plan 7555
men@@ 7550
marketing 7540
za 7539
continuare 7529
dimineaţa 7529
copiilor 7527
înţelegi 7526
sigură 7503
anii 7499
produs 7498
oricine 7494
ru@@ 7487
uit 7481
țări 7480
decembrie 7471
termen 7453
normal 7447
vreun 7445
indiferent 7438
pas 7438
lucrează 7436
acele 7433
omului 7430
alege 7426
importantă 7421
octombrie 7419
septembrie 7407
ieşi 7404
primesc 7393
os 7384
ş@@ 7382
companii 7375
jack 7367
serviciu 7354
râsete 7353
8@@ 7347
undeva 7346
rii 7345
descoperit 7337
fo@@ 7331
istoria 7327
the 7313
ab@@ 7309
reuşit 7295
întreb 7292
valoare 7292
plăcut 7291
tv 7290
martie 7287
ală 7284
vo@@ 7275
vârsta 7270
necesare 7251
pleca 7247
scurt 7241
alta 7236
2@@ 7236
viitorul 7231
gratuit 7222
picioare 7222
acces 7220
60 7211
19 7209
genul 7209
politică 7207
ochi 7202
amintesc 7199
informaţii 7184
public 7178
2019 7168
vostru 7164
iulie 7158
ieri 7149
st@@ 7127
2014 7122
9@@ 7119
masă 7105
perioadă 7096
prost 7094
intra 7086
ina 7064
studii 7061
york 7061
as@@ 7059
erai 7056
spună 7042
ianuarie 7039
of 7022
primi 7020
ţi-ai 7017
ușor 7016
disponibil 7014
sună 7012
întrebare 7002
corpul 6997
ad@@ 6989
zi@@ 6956
aur 6932
tat 6932
noiembrie 6929
propria 6922
alături 6919
dez@@ 6917
şase 6902
muri 6869
proiect 6867
ve@@ 6865
sora 6859
cuvântul 6850
nebun 6849
formă 6838
ã 6836
ie@@ 6829
citit 6807
final 6803
ajung 6801
inca 6790
ă 6787
vremea 6786
extrem 6780
aprilie 6779
întâlnit 6771
gura 6768
scopuri 6766
umane 6766
2013 6765
gu@@ 6763
vieţii 6761
fete 6751
folosesc 6751
www.@@ 6750
22 6749
er@@ 6737
că@@ 6736
sens 6718
vorbeşte 6714
oricare 6712
lung 6711
ţa 6709
apărut 6696
adresa 6696
oară 6694
mesaj 6694
europene 6693
ari 6690
mână 6688
persoana 6686
cafea 6685
sfârşit 6682
ce-ai 6675
obține 6670
asigura 6667
he@@ 6657
ze 6640
proprii 6628
v-am 6613
mâncare 6608
arma 6602
înăuntru 6590
cheie 6587
ultimii 6587
ambele 6586
engleză 6570
aș 6566
biroul 6562
aceeaşi 6559
23 6551
ultimele 6549
spital 6542
spunea 6538
femeia 6526
atat 6523
altul 6518
ajute 6514
noştri 6513
or 6500
publice 6496
procesul 6488
pagina 6471
can@@ 6466
notificare 6459
vârstă 6458
« 6455
ic@@ 6450
absolut 6439
pierde 6425
opt 6425
niciodata 6418
dăm 6416
ări 6410
toata 6400
inter@@ 6400
serie 6393
google 6388
dragostea 6386
cre@@ 6378
evident 6372
poliţia 6359
săi 6356
+ 6353
mi-ar 6349
sute 6340
datorită 6339
articol 6323
facebook 6320
david 6310
atâta 6308
cheamă 6306
ţă 6304
trăiesc 6299
plăcere 6290
tri@@ 6286
doamna 6278
telefonul 6275
ita 6274
decis 6261
statelor 6261
altcineva 6251
principal 6249
fe@@ 6240
lucrat 6234
arme 6229
băiat 6227
planul 6226
trecută 6222
mintea 6222
găsim 6211
spune-i 6211
urmează 6198
tate 6191
arăt 6190
diferit 6188
sînt 6185
dimineaţă 6180
crea 6169
real 6169
28 6168
proces 6167
sun 6165
jocul 6159
problemele 6157
încerca 6149
doriți 6148
haideţi 6143
ana 6141
voie 6140
deşi 6128
familiei 6120
toţii 6120
persoanele 6112
vi 6110
ator 6108
ăştia 6092
închisoare 6090
mor 6085
-o 6085
punctul 6083
tei 6081
primele 6079
ică 6078
auto@@ 6070
celelalte 6064
dor 6060
pa 6054
noștri 6052
opri 6048
februarie 6044
min@@ 6043
i-au 6037
plăcea 6037
seară 6036
echipă 6031
întâlnire 6030
paris 6029
ţară 6027
care-i 6022
priveşte 6021
spunem 6009
mamei 5998
şcoală 5995
sa@@ 5993
voiam 5990
siguranță 5988
internaționale 5986
contactaţi 5985
sunat 5984
intr-o 5982
interesant 5980
masa 5979
nr 5972
management 5970
alea 5969
voastre 5965
sincer 5964
începutul 5962
controlul 5961
altele 5956
deși 5956
companiei 5954
internațional 5946
drăguţ 5944
londra 5939
ști 5937
ag@@ 5936
ştiut 5925
imagini 5920
plin 5919
uşa 5918
sub@@ 5917
turi 5916
dispărut 5915
ceilalţi 5914
2012 5914
ton 5909
multi 5900
amice 5893
motive 5886
sa-l 5881
baie 5876
secunde 5873
războiul 5856
arăţi 5852
cal@@ 5851
trage 5844
ţe 5831
ter@@ 5828
fugi 5826
ze@@ 5825
depinde 5824
greşit 5823
să-și 5820
ţara 5812
toare 5807
us 5796
forma 5793
birou 5791
camere 5782
ko@@ 5780
britanie 5778
vede 5775
istorie 5773
27 5771
sh@@ 5770
arii 5767
vedeți 5757
oferit 5756
africa 5755
folosim 5755
adesea 5753
tai 5751
,@@ 5750
conduce 5747
înaintea 5743
lumină 5738
zilele 5738
amuzant 5733
dracului 5733
lovit 5732
ere 5723
membru 5721
israel 5719
mi-au 5712
negru 5711
michael 5708
unu 5697
tie 5688
muzica 5678
următoarele 5665
80 5661
animale 5658
programe 5654
serviciile 5653
ării 5648
starea 5640
regele 5635
ind 5632
and 5628
credem 5625
ridicat 5622
economice 5618
posibilitatea 5617
europeană 5617
ieşit 5616
26 5612
on@@ 5611
aminte 5609
90 5608
țară 5604
bar@@ 5600
frank 5593
auto 5593
nu@@ 5593
tehnologie 5591
realizat 5586
rămâi 5586
sufletul 5586
învăţat 5586
che@@ 5583
ri 5582
des 5581
joacă 5581
rândul 5566
stea 5562
industria 5560
vedeţi 5559
include 5558
ah 5553
george 5551
părinţii 5549
hoteluri 5537
românia 5535
alţii 5535
niste 5533
ta@@ 5530
puternică 5529
cazuri 5502
ul@@ 5499
0@@ 5497
totdeauna 5493
sul 5485
contact 5479
teamă 5478
doctor 5477
cod 5470
mulțumesc 5468
zonă 5468
merită 5467
ica 5465
studenții 5462
schimbare 5462
cealaltă 5461
ex@@ 5459
pregătit 5457
m-au 5454
hi@@ 5453
romania 5451
sam 5449
lungul 5445
rece 5443
celălalt 5439
publicat 5439
inainte 5423
metri 5422
aveau 5420
părea 5419
meargă 5417
de-al 5410
domnilor 5406
soţul 5400
având 5383
capacitatea 5376
me 5373
lucrez 5361
motivul 5359
tar@@ 5351
pericol 5347
ită 5345
acasa 5344
sa-ti 5342
ș@@ 5332
consultați 5330
bineînţeles 5324
hristos 5322
arăta 5319
săptămâna 5319
na 5316
mijlocul 5313
2011 5309
călătorie 5305
muzică 5305
arata 5304
ordine 5300
puncte 5289
par 5286
apare 5282
lege 5278
ice 5275
atac 5271
ucide 5270
km 5268
rele 5254
sistemului 5253
fu@@ 5249
-i 5247
crăciun 5246
state 5244
produsele 5242
recent 5241
global 5241
ție 5234
încep 5231
tipuri 5226
rezultatele 5222
insa 5218
atinge 5216
500 5206
petrecere 5205
a-@@ 5202
serviciul 5201
arătat 5201
culoare 5199
per@@ 5195
uită 5191
totuși 5190
ga 5182
stie 5176
aplauze 5174
it@@ 5174
salvat 5172
cursuri 5171
mor@@ 5169
bea 5165
laşi 5162
clipă 5161
ap@@ 5159
har@@ 5155
răspunsul 5154
a-i 5153
comun 5150
tehnologia 5150
e-mail 5145
70 5141
scop 5134
29 5132
ţări 5125
juca 5122
200 5121
at-o 5116
analitice 5114
son 5108
economie 5107
mediul 5104
dintr-un 5102
treci 5100
n-au 5100
situaţia 5093
furat 5092
rezultate 5089
elevii 5088
frumoase 5084
lei 5083
financiare 5083
rămân 5082
masina 5081
media 5081
faceți 5080
chi@@ 5078
tatălui 5078
intr-un 5068
aşadar 5067
simte 5066
ă@@ 5063
oraşul 5061
telor 5053
-a 5045
zilei 5044
îti 5043
omorât 5042
imposibil 5042
deasupra 5034
acestora 5027
revedere 5016
verde 5014
sp@@ 5013
închis 5010
schimbă 5006
ase 4998
biserica 4998
aplică 4996
lucra 4992
poporul 4988
aştept 4987
fetele 4975
staţi 4974
atent 4972
picioarele 4971
iubire 4970
oprit 4962
dă-i 4962
plină 4955
lungă 4947
rolul 4938
san@@ 4937
valoarea 4931
pământul 4929
tarea 4928
secret 4924
următorul 4922
august 4920
catre 4917
isi 4916
gra@@ 4916
-uri 4915
noastra 4914
fa@@ 4914
includ 4913
rol 4913
petrecut 4913
propriul 4911
celui 4904
mer@@ 4904
continuând 4898
și-a 4898
realitate 4897
caut 4895
petrece 4894
31 4892
şansă 4889
notificarea 4885
sunteti 4873
accident 4872
2010 4869
master 4868
gândeam 4867
european 4865
foame 4863
ajutat 4862
model 4861
dr 4854
dorit 4853
.... 4852
uiţi 4844
gi@@ 4839
16@@ 4836
vieții 4835
social 4832
adevărată 4830
plece 4830
oriunde 4829
di 4823
to 4823
comentarii 4822
pă@@ 4821
micul 4820
des@@ 4820
prietene 4816
india 4816
devin 4810
salva 4807
puteam 4806
sa-i 4803
super 4802
tineri 4801
risc 4800
sfârşitul 4800
minut 4789
cînd 4788
paul 4785
mat@@ 4784
35 4782
navigați 4776
10@@ 4773
alb 4770
cer@@ 4765
trăi 4762
stânga 4758
ke@@ 4755
statul 4754
gură 4754
fiţi 4754
căzut 4751
articole 4746
﻿ 4745
altor 4744
aceşti 4732
tânăr 4732
ali 4732
termină 4732
codul 4731
cuvintele 4731
ies 4725
italia 4718
armata 4718
ra 4716
gen 4715
atenţie 4714
oraș 4712
setările 4711
prietena 4709
cor@@ 4707
clasa 4704
charlie 4703
poată 4702
doriţi 4696
inseamna 4692
semn 4691
er 4685
terțelor 4683
lan@@ 4681
americii 4676
economică 4674
listă 4672
san 4671
< 4669
ine 4667
avion 4667
iubirea 4665
știe 4664
tem 4664
droguri 4663
ţia 4654
for@@ 4648
băiatul 4647
urile 4646
17@@ 4646
ră@@ 4646
activitatea 4646
politice 4644
-l 4644
ju@@ 4643
treia 4643
tom 4641
cui 4637
înaltă 4636
atul 4636
tr@@ 4634
sco@@ 4633
hu@@ 4632
rezolva 4630
folosind 4628
ite 4628
începând 4627
pri@@ 4626
speciale 4626
credeţi 4626
legătura 4623
tre@@ 4621
turile 4620
preşedintele 4620
contul 4617
promit 4615
imagine 4612
următoarea 4612
ană 4610
detalii 4607
45 4604
adevarat 4602
soare 4593
sisteme 4592
transport 4592
ţin 4577
iubit 4574
socială 4574
draga 4572
mecanism 4569
fața 4556
im 4555
începem 4550
aminteşti 4544
americani 4543
ha@@ 4541
disponibile 4536
interiorul 4532
mondială 4528
proiectul 4520
şapte 4516
poartă 4516
filmul 4509
aza 4506
termeni 4506
ver@@ 4504
mon@@ 4499
tan@@ 4498
lansat 4492
copilului 4491
japonia 4487
creierul 4485
jo@@ 4485
cur@@ 4485
fotografii 4483
natura 4474
centru 4470
reală 4457
dificil 4457
simţit 4454
are@@ 4454
armă 4453
lipsa 4447
ţ@@ 4446
ţilor 4440
aceeași 4438
max 4436
câştigat 4435
gre@@ 4434
ocupat 4433
care-l 4430
est 4430
sc 4423
-ului 4422
th@@ 4422
tari 4421
w 4419
scuză-mă 4415
sala 4414
educație 4410
scoate 4409
tara 4408
practic 4405
ben 4404
interior 4404
voia 4402
naturale 4402
sută 4399
fericită 4396
locale 4386
internațională 4385
gândeşti 4382
dincolo 4381
ici 4380
creștere 4380
io@@ 4380
sat 4379
mike 4375
ne-au 4373
top 4371
materiale 4370
veniţi 4366
a-l 4358
produce 4358
carne 4353
apartament 4352
intermediul 4351
statului 4350
folosirea 4349
ță 4347
fotbal 4346
încet 4344
tori 4343
procesarea 4342
publică 4340
încerci 4334
proprietate 4329
grupul 4328
reduce 4319
crearea 4318
ka 4315
considerare 4314
magazin 4313
ția 4313
regula 4313
construit 4308
observat 4308
2009 4308
software 4305
tur@@ 4299
el@@ 4296
iubito 4294
aveti 4289
peter 4287
daţi 4287
vad 4286
utilizatori 4285
vest 4283
veche 4278
opreşte-te 4275
înţelege 4270
departamentul 4269
ajungem 4269
format 4268
urăsc 4266
băut 4265
capăt 4260
15@@ 4260
căutare 4255
ine@@ 4249
gi 4248
ban@@ 4245
vorbească 4243
misiunea 4236
uh 4234
păcate 4233
cauţi 4233
raport 4232
ant 4230
op@@ 4230
sar@@ 4226
libertatea 4225
ţiei 4224
decizia 4223
analiza 4222
să@@ 4220
pen@@ 4218
câine 4218
plătit 4216
um 4215
cunoşti 4214
globală 4211
sport 4208
j 4204
devină 4204
consiliul 4203
americane 4202
luaţi 4201
2008 4201
je@@ 4197
ț@@ 4196
măsura 4196
asculta 4192
az@@ 4191
uniunea 4190
artă 4188
închide 4187
maria 4186
dejun 4185
12@@ 4184
ajungi 4183
sa-mi 4182
rapidă 4181
păcat 4178
idei 4176
ceai 4172
ţi@@ 4171
lucrul 4170
gar@@ 4170
au@@ 4168
filme 4167
largă 4165
umană 4165
faca 4164
actualizări 4162
incredibil 4157
mă@@ 4157
fericire 4156
scriu 4156
înalt 4155
propriile 4154
medie 4154
ane 4153
uman 4152
ce-a 4151
zbor 4149
inceput 4146
eficient 4146
domeniu 4141
măsuri 4140
că-i 4139
omor 4137
dr. 4136
livrare 4126
descrie 4126
existat 4126
câţiva 4125
ren@@ 4124
diverse 4124
slujba 4122
teren 4118
pagină 4116
jucat 4115
rost 4112
soarele 4110
evenimente 4110
scos 4108
vis 4105
port 4103
versiune 4103
afacere 4102
omoare 4102
1@@ 4102
windows 4095
do 4093
ța 4093
mâncat 4091
folosite 4087
efect 4085
permis 4083
agent 4083
anti@@ 4082
condus 4081
societatea 4080
legat 4078
cursul 4077
energia 4073
14@@ 4072
sursă 4069
arul 4067
dormi 4062
ale@@ 4061
clasă 4060
aceştia 4059
ber@@ 4058
calitatea 4045
proiecte 4044
spuneţi 4035
decizie 4033
ha 4033
singuri 4032
ază 4030
ire 4028
ol@@ 4027
aduci 4027
grea 4026
ţele 4025
ascultă-mă 4025
speriat 4023
ste@@ 4020
stradă 4016
societate 4016
neagră 4012
cancer 4011
utilizator 4011
știință 4009
bio@@ 4006
torii 4003
grija 4002
zilnic 3998
angajat 3994
studenților 3993
milion 3987
ast@@ 3984
ga@@ 3981
puteti 3978
ascuns 3977
asia 3977
raportul 3975
v-a 3975
numesc 3973
tin@@ 3970
james 3966
iisuse 3964
fundul 3960
apple 3958
schimbări 3957
henry 3951
rilor 3944
sti 3938
punem 3938
tia 3934
cină 3932
promis 3929
ste 3928
trezit 3924
medicale 3923
comunicare 3921
treilea 3918
fotografie 3916
v-aţi 3916
sursa 3914
tehnici 3914
standard 3911
design 3909
ara 3905
văzut-o 3904
's 3902
dovezi 3901
medicamente 3899
fiule 3894
banca 3894
funcţionează 3892
şeful 3891
rile 3890
rata 3889
300 3886
lucrezi 3885
preşedinte 3883
cumpărat 3881
suplimentare 3881
vocea 3875
cateva 3873
mori 3871
moară 3870
ve 3870
lin@@ 3866
eri 3863
tează 3857
gă@@ 3853
membri 3852
domenii 3851
n-are 3849
tratament 3848
por@@ 3847
puternice 3847
case 3843
trec 3842
companiile 3842
mediului 3841
corp 3838
s-@@ 3838
secundă 3838
usor 3837
comanda 3837
poliţie 3837
necesită 3835
periculos 3831
căutarea 3829
greutate 3828
renunţare 3828
cina 3826
guvernului 3826
bravo 3825
întrebarea 3825
13@@ 3821
distrus 3821
casei 3812
prinde 3811
ţi-o 3806
conducere 3804
câţi 3804
studenți 3803
ajungă 3802
consideră 3801
contacta 3801
practică 3800
morţi 3798
32 3798
economia 3793
inimă 3791
roma 3790
stabilit 3789
frica 3789
marele 3784
tă@@ 3783
membrii 3781
na@@ 3778
stăm 3775
știm 3772
găseşti 3771
natural 3767
pan@@ 3766
scu@@ 3766
linia 3765
ţei 3763
sănătatea 3762
scăpat 3761
art 3761
fugit 3761
profesor 3757
școală 3757
is@@ 3757
mănâncă 3756
vineri 3756
rănit 3752
activitate 3751
necesară 3751
ciuda 3747
utilizare 3747
onu 3746
timpului 3744
post 3744
muncii 3744
sti@@ 3743
hartă 3743
2020 3743
sal@@ 3742
tehnologii 3738
club 3738
bal@@ 3736
1.@@ 3734
consiliului 3734
respect 3733
ascunde 3732
joe 3731
aţii 3731
acestuia 3729
viteza 3728
siguranta 3725
sângele 3724
im@@ 3724
stele 3724
anterior 3724
proteja 3719
albă 3716
misiune 3715
luat-o 3714
țe 3713
e-mailuri 3713
intampla 3713
ştia 3708
ină 3708
proastă 3708
strada 3707
degrabă 3707
regulile 3703
legii 3703
doamnelor 3697
cauză 3697
îngrijorat 3693
cro@@ 3691
utilizatorii 3690
somn 3690
întorci 3689
niște 3682
sc@@ 3678
bere 3677
funcționează 3677
ară 3674
den@@ 3674
instrumente 3674
t-@@ 3669
doctorul 3666
alimente 3665
durere 3663
da@@ 3663
gen@@ 3662
mutat 3662
sen@@ 3660
alegerea 3659
resurse 3656
rezultatul 3655
pună 3655
suport 3654
pierd 3653
făcute 3651
acelasi 3649
comisia 3649
alex 3642
oferim 3641
metode 3641
apar 3641
băiete 3638
vară 3638
le-ai 3637
las-o 3636
scumpo 3636
găsească 3636
întâmple 3634
ocup 3634
ai@@ 3632
șase 3630
generale 3630
părul 3629
din@@ 3628
trăit 3628
ten@@ 3627
minunată 3624
ya 3622
utilizate 3620
ule 3618
comerciale 3615
ura 3612
apropie 3610
creșterea 3610
dan 3608
făcută 3606
felicitări 3604
bărbaţi 3601
ăia 3596
scrisoare 3593
anilor 3592
pământului 3590
mesajul 3590
ray 3590
crește 3588
suna 3585
der 3574
armele 3572
avocat 3571
2007 3565
întoarcem 3563
erii 3562
ţi-e 3559
părere 3553
ing 3552
ce-ar 3550
ob@@ 3548
lele 3547
ţiile 3547
= 3547
subiect 3547
radio 3547
bar 3544
mulțime 3542
spania 3542
microsoft 3541
unic 3539
nenorocit 3538
autorităţile 3535
© 3534
ts 3533
scuzaţi-mă 3533
riscul 3532
robert 3530
alții 3530
mac@@ 3529
bate 3527
mica 3527
iisus 3526
recunoscut 3525
apel 3525
sfârșitul 3519
teze 3518
ge 3516
cuiva 3514
chestii 3513
termina 3513
țara 3512
oase 3511
cadou 3511
ției 3510
dar@@ 3510
cultura 3506
aruncat 3503
liberă 3503
cheia 3503
considerat 3502
distruge 3496
privat 3496
lă 3496
asca 3496
tnt 3489
joci 3488
scăzut 3488
simplă 3487
canada 3487
încercăm 3485
cererea 3483
val@@ 3483
dezvolta 3482
linie 3480
funcție 3479
ã@@ 3477
sectorul 3476
curat 3476
presupun 3475
orul 3473
zone 3473
vorbă 3470
imaginea 3467
piață 3466
pat@@ 3463
2.@@ 3463
mașină 3463
tras 3459
protecţia 3457
național 3457
mc@@ 3452
australia 3451
rege 3447
orașul 3446
linişte 3440
abil 3439
țările 3439
completă 3439
recunosc 3438
limbă 3437
fizică 3436
ajuţi 3433
cap@@ 3432
capitolul 3427
slujbă 3426
q@@ 3425
politic 3425
mami 3425
reguli 3424
femeilor 3423
gol 3423
ți@@ 3422
aflu 3421
e-@@ 3421
trump 3420
eveniment 3418
der@@ 3415
allah 3412
piața 3409
tor@@ 3404
mulţime 3400
vara 3397
cat@@ 3395
ple@@ 3394
dan@@ 3392
studiul 3391
unde-i 3391
coreea 3390
guvern 3389
programului 3388
grupuri 3386
etc 3384
dna 3384
haine 3383
mijloc 3382
regina 3378
interesează 3377
ministerul 3374
privește 3373
simti 3373
perfectă 3371
managementul 3367
să-ți 3365
cercetătorii 3365
prezenta 3364
parcursul 3360
lunii 3357
mesaje 3355
test 3354
deschisă 3354
ţ 3353
încoace 3351
intru 3351
piciorul 3351
ba@@ 3349
căutat 3349
conduc 3348
schimbarea 3348
iţi 3348
persoanelor 3347
ti-am 3345
utilizat 3342
chemat 3340
arta 3337
si-a 3337
boala 3335
trăim 3335
sului 3334
durata 3334
suflet 3331
cărţi 3331
nimănui 3330
fer@@ 3329
local 3328
cate 3327
dv 3321
hainele 3320
credit 3320
durerea 3318
știți 3317
ali@@ 3317
her@@ 3316
unchiul 3314
gh@@ 3313
veti 3310
globale 3306
tăm 3306
îndoială 3306
secolul 3305
tele@@ 3302
poporului 3301
ucraina 3300
mary 3300
harry 3298
directorul 3297
securitatea 3296
autor 3295
creşte 3293
deosebit 3293
dublu 3291
crimă 3289
reducerea 3287
drăguţă 3287
reducere 3286
greşeală 3285
făcea 3284
supărat 3281
afacerea 3279
economic 3279
atins 3278
curtea 3277
libertate 3275
întreagă 3275
rămână 3272
af@@ 3271
elemente 3270
şi-au 3269
corpului 3268
set 3267
bur@@ 3265
poliţist 3265
semnat 3265
dezvoltat 3264
adăugat 3260
ştiinţă 3260
cutie 3260
ocazia 3259
modalitate 3259
ley 3258
americană 3258
forme 3255
curent 3254
moderne 3253
cunoștințe 3253
adevăr 3253
000 3250
n-aş 3250
următor 3248
20@@ 3246
zo@@ 3246
părăsit 3245
superior 3244
ş 3244
boli 3244
} 3241
mobile 3241
av@@ 3240
nebunie 3238
qu@@ 3233
plată 3233
aplicare 3229
stil 3229
alimentare 3228
uniunii 3228
carieră 3227
atoare 3223
taţi 3222
client 3221
capabil 3219
director 3215
plecaţi 3215
viu 3211
onoare 3211
rețea 3209
fizice 3208
newsletteruri 3207
mersi 3204
moscova 3202
fund 3202
externe 3202
torul 3201
privată 3201
doare 3201
ss 3199
insula 3198
caracteristici 3198
uităm 3196
lucreze 3195
gândi 3194
info 3194
alţi 3193
modelul 3193
aseară 3192
vederea 3192
planeta 3192
zeci 3191
{ 3191
lider 3190
dimineata 3189
specială 3188
vinde 3187
ford 3186
utiliza 3186
biserică 3185
automat 3185
franța 3183
zarea 3182
lă@@ 3182
ză 3182
aştepta 3176
lăsăm 3176
ter 3175
trimit 3174
generală 3173
nevoile 3170
dura 3170
ori@@ 3169
întoarce-te 3169
ce-am 3169
dulce 3168
moartă 3168
republica 3167
d-@@ 3163
anglia 3163
asi@@ 3160
placă 3158
ki@@ 3155
arate 3154
sprijin 3153
don 3152
informațiile 3150
apropo 3147
colectate 3147
mile 3146
mân@@ 3144
android 3143
prețul 3143
financiar 3140
informatii 3138
turcia 3137
formare 3134
atorul 3134
ajută-mă 3133
membre 3132
bob 3129
36 3125
purta 3125
avionul 3125
mâncarea 3124
tren 3124
întreg 3123
aplicații 3122
ran@@ 3121
grade 3118
încetează 3118
bolnav 3117
sare 3116
maşini 3115
convins 3113
bătut 3113
a.@@ 3113
mobil 3112
ted 3111
franţa 3110
responsabil 3109
rezultat 3106
aţie 3105
specifice 3104
ducă 3103
excelent 3103
obţine 3098
apropiat 3098
atâtea 3096
ură 3095
ser@@ 3093
caracter 3093
spuse 3093
urmat 3091
versiunea 3091
atorii 3090
teme 3090
produselor 3090
clic 3090
drepturi 3089
abile 3089
mânca 3088
iubeşti 3088
cunoaşte 3087
75 3087
sm 3086
acei 3086
business 3085
ko 3084
mb@@ 3083
secrete 3081
înregistrare 3080
· 3078
doctore 3078
focul 3074
mm 3072
băieţii 3070
bill 3070
scoala 3068
chi 3068
viteză 3063
lului 3060
întregul 3059
pielea 3058
citesc 3056
ch 3056
com@@ 3052
tați 3051
căsătorit 3050
48 3049
trăiască 3049
33 3049
creează 3047
omori 3045
nicăieri 3045
hotărât 3041
charles 3041
bărbatul 3041
autoritatea 3041
♪ 3041
-mi 3037
2000 3037
acești 3037
jim 3034
activ 3032
mergeţi 3032
acceptat 3031
numeroase 3030
vândut 3030
președintele 3029
militare 3029
serviciilor 3029
cariera 3028
surse 3026
bri@@ 3025
spațiu 3024
vroiam 3022
arestat 3021
afli 3021
uşă 3018
ţinut 3017
căuta 3017
animalele 3016
ecran 3014
meci 3012
bucurie 3012
scot 3011
întâlnim 3011
zare 3010
zii 3010
sistemele 3009
limbi 3007
fa 3007
astazi 3007
tezi 3006
spectacol 3005
bunica 3003
școala 3002
adam 3000
printr-o 2999
protecția 2999
pacea 2996
alegere 2995
trag 2995
presiune 2995
ație 2992
ridica 2992
vizita 2991
bogat 2988
iese 2987
refuzat 2985
locală 2983
we@@ 2982
personală 2981
numeşte 2980
conditii 2978
mişcă 2977
leg@@ 2975
reușit 2974
dovedit 2973
implicat 2973
întrebi 2972
atenție 2972
dnă 2971
interes 2968
tic 2968
anual 2968
sosit 2967
net 2966
ceasul 2964
reg@@ 2964
interne 2963
lul 2962
plătesc 2962
modele 2961
instrument 2961
fă-o 2958
pic@@ 2957
i-@@ 2957
simți 2957
dul 2955
inginerie 2953
sun@@ 2953
mănânci 2953
ini 2952
condiții 2951
restaurant 2951
impact 2950
site-uri 2947
efecte 2945
construi 2943
albastru 2942
dispozitiv 2941
dispozitive 2941
creştere 2940
păr 2940
zero 2939
datoria 2938
gasit 2938
drepturilor 2937
iubeşte 2936
pari 2934
totusi 2934
faptului 2932
regiunea 2932
‘ 2931
jocurile 2930
altora 2930
continuat 2929
los 2929
e. 2929
3.@@ 2925
prezintă 2925
stilul 2924
sch@@ 2924
durează 2921
vă@@ 2919
ani@@ 2917
pierzi 2917
ridică 2917
războiului 2916
urât 2916
colegii 2913
consumul 2911
şte 2911
semne 2911
micro@@ 2910
fetelor 2910
-ţi 2908
câinele 2907
grămadă 2905
ților 2905
washington 2904
centrală 2903
confidenţialitate 2903
medicală 2902
apărare 2902
actuale 2902
cerere 2901
pa@@ 2900
impreuna 2898
armată 2898
noile 2898
întuneric 2898
frumoasa 2897
ței 2896
2006 2895
vânzare 2893
electrice 2891
gal@@ 2889
ger 2889
kilometri 2886
următoare 2886
plăti 2886
le-au 2883
aşteptăm 2882
ati@@ 2882
regiune 2881
apropiere 2877
permit 2876
ne-ai 2876
tony 2875
sur@@ 2873
franceză 2873
ce-ţi 2872
sfânt 2872
lasa 2871
bătrân 2868
-nu 2868
bazează 2867
mat 2866
trupul 2865
foto 2865
mâini 2863
gă 2862
deranjează 2862
schimbe 2860
anumit 2860
ase@@ 2859
pagini 2858
scară 2858
numarul 2857
locuiesc 2857
reale 2857
minţi 2856
mândru 2856
prezentat 2852
intamplat 2852
bucătărie 2850
urmărit 2849
bisericii 2848
hârtie 2848
minciună 2848
en 2847
așteaptă 2847
grecia 2847
uimitor 2845
ly 2845
go 2844
per 2843
utilizați 2843
lupte 2842
abilitățile 2842
faceti 2841
țiile 2841
fir-ar 2840
acordul 2839
ghi@@ 2838
eni 2836
deplin 2831
joace 2830
comunitatea 2830
moduri 2830
dormitor 2830
oricând 2828
38 2827
lapte 2824
sin@@ 2824
nunta 2824
34 2823
rupt 2823
rugat 2823
câteodată 2822
şcoala 2822
private 2822
legi 2821
biblia 2820
cald 2817
scurtă 2817
erul 2817
vin@@ 2815
părţi 2815
ke 2813
treacă 2812
inteligent 2812
vorbind 2812
aducă 2811
doreşti 2809
tura 2809
pr@@ 2808
vizită 2808
scenă 2807
sarah 2807
întâlni 2806
lar@@ 2803
gândim 2803
duminică 2803
ari@@ 2802
studiile 2801
iesc 2801
cumpăra 2801
sticlă 2801
joi 2799
culoarea 2798
adica 2796
realitatea 2795
moare 2795
piele 2793
fin@@ 2792
citi 2792
non-@@ 2790
valori 2790
contului 2790
plimbare 2788
ro 2787
usd 2786
va@@ 2785
accesul 2785
material 2785
van 2785
grav 2783
să-ti 2783
înregistrat 2782
partener 2782
împuşcat 2780
ven@@ 2779
ios 2778
satelit 2774
multor 2773
pal@@ 2773
col@@ 2772
revenit 2771
beau 2769
locurile 2769
învățare 2769
creier 2768
42 2767
visul 2766
acesteia 2766
dorm 2764
alți 2764
părinte 2763
iasă 2763
industrie 2761
criza 2759
uitaţi 2759
ştiai 2758
bre@@ 2758
clădire 2758
sediul 2756
inapoi 2755
aflăm 2755
gratuite 2755
situaţie 2754
chinei 2754
on-line 2754
tema 2753
aşteptat 2752
ak@@ 2751
recente 2750
binele 2748
făcând 2747
adaugă 2747
premiul 2746
sfaturi 2745
programele 2743
fapte 2742
aştepţi 2741
existe 2741
bat 2741
română 2737
aceștia 2737
succesul 2734
distractiv 2733
stim 2733
căutăm 2733
bei 2732
natură 2732
lăsaţi 2731
pădure 2731
tatal 2730
suferit 2730
naționale 2729
bă@@ 2728
încheiat 2727
tânără 2727
aşteptaţi 2727
dra 2726
ante 2726
invitat 2726
lia 2726
afectează 2725
grad 2724
morţii 2722
steve 2721
dans 2720
intri 2719
california 2719
surpriză 2719
responsabilitatea 2718
europei 2718
crească 2717
boală 2717
soldat 2715
funcţie 2715
intrare 2712
poze 2711
lase 2711
es 2711
deschise 2710
spaţiu 2709
tro@@ 2709
nic 2708
poli@@ 2708
ioan 2708
maxim 2704
bucura 2703
judecată 2702
s.@@ 2701
națională 2701
varsta 2700
apartamentul 2698
ben@@ 2697
fri@@ 2695
ocupă 2694
i-ar 2694
ler 2693
german 2693
laborator 2692
oras 2690
irea 2690
piata 2689
partenerul 2689
mişcare 2688
trecem 2688
cercetarea 2687
ducem 2687
nic@@ 2686
uni@@ 2686
posibilă 2685
întâlnesc 2685
planetă 2684
acţiune 2684
fostul 2682
planuri 2682
veşti 2681
explica 2681
ministrul 2680
munte 2680
comunitate 2679
costă 2678
pdf 2677
chimice 2676
apei 2676
anna 2675
institutul 2674
alegerile 2674
populare 2673
sănătos 2673
scape 2672
martin 2672
însuşi 2671
momente 2671
legatura 2670
nava 2669
efectele 2668
lucrarea 2668
ghe@@ 2667
student 2665
producție 2664
dreaptă 2664
400 2662
fierbinte 2661
bat@@ 2661
nick 2659
scopurile 2658
macar 2657
diferită 2656
teoria 2656
central 2656
petrecerea 2655
primii 2654
propriu 2653
moldova 2652
intrarea 2652
înțeles 2651
ările 2650
numită 2649
întreabă 2646
tez 2646
dorim 2646
tratamentul 2642
căpitane 2640
atii 2639
conducerea 2637
ty 2636
structura 2636
aspect 2636
bărbaţii 2634
fusese 2634
străinătate 2633
orașului 2632
aeroportul 2631
verificat 2630
legile 2630
pt 2630
bra@@ 2630
ște 2629
cultură 2629
medic 2628
mul@@ 2628
99 2627
ds 2627
nu-ti 2627
lee 2627
tru@@ 2626
ger@@ 2626
aceia 2623
mã 2623
comune 2623
animal 2623
seră 2621
ce-mi 2621
aveai 2620
experiența 2619
stabilită 2618
sănătății 2617
familii 2617
voce 2617
nebună 2613
metodă 2613
ed 2612
încrederea 2612
glumă 2608
bărbați 2608
pariu 2607
adânc 2607
teritoriul 2606
întârziat 2605
lucrăm 2605
poarta 2605
dumnezeul 2603
blocat 2602
international 2601
pierderea 2601
responsabile 2600
text 2600
gradul 2599
presupune 2599
echipei 2599
unică 2599
crede-mă 2598
twitter 2596
celule 2596
by 2595
interesat 2594
medi@@ 2593
experienţă 2592
ofere 2591
părut 2590
principală 2590
profesionale 2589
atracții 2588
ne-ar 2587
conține 2587
nucleare 2586
eroare 2586
nă@@ 2586
fac@@ 2585
len@@ 2582
mondiale 2581
respectiv 2581
il@@ 2581
constant 2579
circa 2577
e-n 2576
medical 2576
evita 2575
tic@@ 2573
subiectul 2573
decizii 2573
computer 2572
est@@ 2572
act 2571
rusiei 2571
părerea 2571
tit 2571
bel@@ 2570
partidul 2570
mark 2570
super@@ 2568
facultate 2568
stiti 2568
secretul 2568
us@@ 2567
întoarcă 2566
var@@ 2566
semnificativ 2566
atia 2566
urgenţă 2563
gamă 2563
alegeri 2560
mul 2560
rat@@ 2558
zat 2558
transformat 2558
jimmy 2557
2005 2557
cunoscute 2557
software-ul 2556
lemn 2552
les 2551
comportamentul 2549
dublă 2545
şe@@ 2544
fericirea 2544
învățat 2542
bro@@ 2542
documente 2539
totală 2536
referitoare 2534
ș 2534
calculator 2534
teste 2533
torilor 2533
prostii 2532
obosit 2531
55 2530
site-ului 2530
larg 2530
tat@@ 2530
glumeşti 2529
vorbesti 2529
fr@@ 2529
televiziune 2528
tim 2528
șapte 2528
opreşte 2527
firma 2527
ate@@ 2526
ridică-te 2526
diseară 2525
simple 2523
cerul 2523
culturale 2521
doreşte 2521
folosească 2520
th 2519
porţi 2518
daniel 2517
oferta 2517
puţină 2515
controla 2515
profesorul 2515
frig 2515
atenţia 2515
ulterior 2514
zonele 2513
efectul 2513
mării 2512
rezervate 2511
începi 2510
ia-o 2509
atori 2509
fructe 2509
will 2509
anumită 2508
abilitatea 2508
plante 2507
creierului 2507
lin 2505
pensiuni 2503
piaţa 2502
ruşine 2501
străini 2500
richard 2499
constituie 2498
plăcută 2496
etichetă 2495
aeroport 2495
domnişoară 2494
ceri 2494
curaj 2494
miercuri 2494
scăpa 2493
universitate 2491
cal 2491
tică 2490
nu-şi 2490
→ 2489
et@@ 2486
mp@@ 2484
comandă 2483
activități 2483
deţinut 2483
trăieşte 2481
de-@@ 2481
asteapta 2481
far@@ 2481
decide 2480
verifica 2479
accepta 2479
cine-i 2479
secolului 2477
mașini 2477
kg 2477
prietenă 2474
calmează-te 2474
tone 2474
liceu 2473
carbon 2473
pauză 2473
creadă 2472
privinţa 2472
sâmbătă 2472
van@@ 2471
iad 2471
ion 2470
utilizatorilor 2467
rie 2466
preţ 2466
plata 2466
marii 2464
discuta 2463
piaţă 2462
limita 2461
hotelul 2460
ţările 2458
fizic 2457
aţia 2456
roman 2455
fișiere 2455
internaţionale 2454
4.@@ 2454
picior 2453
popor 2453
fre@@ 2453
chestie 2452
obiecte 2452
nenorocitule 2452
tal@@ 2450
0.@@ 2450
dor@@ 2449
înțelege 2449
ordin 2449
95 2448
suma 2448
operat 2448
facultatea 2446
pahar 2446
afacerilor 2446
opresc 2445
rus 2441
comună 2441
pi 2440
majore 2439
thomas 2435
fereastră 2434
trenul 2434
land 2433
mag@@ 2433
întreba 2432
descoperi 2432
germană 2431
transforma 2430
motor 2430
moise 2429
metoda 2428
asistență 2428
usa 2428
dumneavoastra 2428
-te 2427
gândeşte-te 2427
protecție 2426
tam 2426
mişca 2423
atrage 2423
acțiune 2423
suferă 2421
a-și 2420
învăța 2420
pai 2419
ner 2419
lat@@ 2418
clipa 2418
comercial 2418
m-aş 2417
poziţia 2416
bun@@ 2416
afle 2416
politici 2416
între@@ 2414
titlul 2414
c-o 2413
foloseşte 2413
parteneri 2413
dovadă 2411
tran@@ 2411
internaţional 2409
mijlociu 2408
ard 2407
presă 2407
tehnică 2405
ţe@@ 2403
televizor 2402
capitala 2399
pînă 2398
informaţiile 2398
aruncă 2398
abilități 2397
trist 2395
piatră 2395
alcool 2395
părinții 2394
aceeasi 2394
+@@ 2392
ască 2391
zeze 2391
gunoi 2391
atie 2390
plastic 2390
intotdeauna 2389
dragul 2389
sk@@ 2389
_@@ 2389
live 2389
spiritul 2389
câştiga 2388
my@@ 2388
tehnic 2385
37 2385
mi-o 2384
discutat 2384
impotriva 2384
similare 2382
practica 2381
cam@@ 2380
victoria 2379
î@@ 2378
descrise 2378
implică 2378
ele@@ 2378
opțiuni 2377
conceput 2377
dormit 2376
groaznic 2375
spuneam 2374
fișier 2374
t-o 2374
distanţă 2373
operare 2373
cul@@ 2372
idiot 2372
factori 2371
…@@ 2371
cunoscută 2371
bunicul 2371
aplicarea 2370
așadar 2369
gmail.com 2369
mal@@ 2368
profesională 2368
siria 2367
king 2367
petrol 2366
soluții 2366
soţie 2366
sentiment 2365
post@@ 2363
grupului 2363
asigur 2362
odata 2362
ero@@ 2361
sprijinul 2360
suni 2360
praf 2358
ţi-l 2358
ţi-vă 2358
prin@@ 2357
vot 2356
zează 2356
30@@ 2356
grele 2356
ocupa 2356
city 2354
150 2354
ații 2353
spirit 2352
publicitate 2351
tinerii 2351
muzeul 2351
adevărata 2350
vpn 2350
39 2349
iphone 2349
vigoare 2349
păstra 2348
alegi 2347
ier@@ 2347
regatul 2346
contract 2346
aleg 2346
1-@@ 2345
house 2345
naturii 2344
interviu 2343
soarelui 2343
realiza 2343
britanic 2342
fiului 2342
oraşului 2342
prostie 2341
1,@@ 2340
citeste 2338
naţională 2338
plajă 2337
minţit 2337
discutăm 2337
închiriere 2337
grăbeşte-te 2336
obiectivul 2336
cul 2336
și-au 2335
universul 2335
28@@ 2335
vie 2334
slab 2334
profund 2333
tinere 2333
oferite 2333
spune-le 2333
comentariu 2331
militar 2330
energiei 2329
schimbul 2329
regelui 2328
o-@@ 2328
poză 2327
pixeli 2327
lipsit 2326
referă 2325
tură 2324
sperăm 2324
elor 2324
încercare 2323
luptat 2322
culcare 2321
plan@@ 2321
bancă 2321
25@@ 2320
raspuns 2319
înţelegere 2318
apartamente 2317
ciu@@ 2317
luate 2317
trecutul 2316
interesul 2315
aţiile 2315
walter 2314
eze 2314
faptele 2313
dă-te 2311
duhul 2311
danny 2310
arilor 2310
planurile 2310
pachet 2310
vinovat 2308
existente 2308
ace 2307
numere 2306
efort 2306
eliberat 2305
corectă 2305
orientul 2304
gri@@ 2304
conținut 2302
săturat 2302
pornit 2302
itate 2302
cutia 2301
produsul 2301
confruntă 2301
soarta 2299
26@@ 2299
lire 2299
sto@@ 2297
mana 2297
ascult 2296
situat 2296
schimbările 2295
știri 2295
asculţi 2294
29@@ 2294
plătească 2293
harta 2293
economiei 2292
importanta 2291
îndrăgostit 2290
băutură 2290
sh 2288
avi@@ 2288
ace@@ 2287
mun@@ 2287
ză@@ 2286
ini@@ 2284
beneficii 2283
criză 2283
proprietatea 2283
gust 2283
mulţumim 2283
climatice 2282
urilor 2282
explic 2280
desi 2280
cumpere 2280
plânge 2280
ratat 2279
culori 2278
naţional 2277
cărți 2276
ţării 2276
ic 2275
bazat 2275
aspecte 2275
65 2273
credinţa 2273
negre 2272
tilor 2272
resursele 2270
ulei 2270
scaun 2269
maximă 2269
erou 2269
ene 2269
nevoia 2267
sensul 2266
lasă-l 2266
celulele 2266
norocos 2265
preț 2264
parola 2264
sarcina 2263
costa 2262
43 2262
patul 2261
ploaie 2259
militară 2259
tin 2258
obiectivele 2258
normală 2258
câștigat 2257
uni 2257
incepe 2257
rar 2256
deocamdată 2256
oportunități 2255
nor@@ 2255
24@@ 2255
căpitanul 2255
interesante 2254
35@@ 2254
redus 2254
ghid 2253
condiţii 2252
gro@@ 2250
creşterea 2249
hong 2247
5.@@ 2247
clienții 2247
asigurarea 2246
tehnologiei 2246
dat-o 2245
i-o 2245
anunţat 2245
căsătorie 2244
ac 2243
echipamente 2243
clădirea 2242
gener@@ 2241
milă 2241
fur@@ 2240
ki 2239
polonia 2239
han@@ 2238
prezint 2238
privesc 2238
digitale 2235
forţa 2235
nuntă 2234
apartments 2234
neapărat 2234
supraveghere 2233
nă 2233
tând 2232
presa 2231
aşa-i 2231
salvare 2231
istoric 2229
tră@@ 2229
victime 2229
evaluare 2228
~ 2228
financiară 2227
univers 2227
camerele 2226
dezvoltării 2225
bord 2224
deosebire 2224
pas@@ 2221
tarziu 2221
baltă 2220
devii 2219
dă@@ 2218
mda 2217
colec@@ 2217
clienți 2217
brusc 2217
47 2217
kar@@ 2217
41 2216
aju@@ 2216
44 2216
partidului 2215
min 2215
iul 2214
00@@ 2214
mexic 2214
chris 2212
tiei 2212
spitalul 2212
cm 2212
călătoria 2211
hitler 2211
2004 2210
cia 2210
piese 2210
cresc 2209
dosarul 2209
abilă 2208
jane 2206
categorie 2205
ad 2205
unit 2204
sor@@ 2204
ku@@ 2204
celei 2204
ieşte 2203
preferat 2202
rează 2201
cărora 2198
contra 2198
costum 2198
platforma 2196
sa-si 2196
termin 2195
cândva 2193
turilor 2192
simtă 2192
scuzaţi 2192
taxi 2192
ascultat 2192
mac 2191
bitcoin 2189
fbi 2188
ţină 2188
aplica 2188
extraordinar 2188
obiect 2188
stra@@ 2187
că-mi 2187
fă@@ 2186
taie 2186
țele 2186
sfârșit 2185
don@@ 2185
val 2185
scena 2184
legal 2183
francez 2182
grozavă 2182
jucători 2182
veste 2182
periculoase 2181
orașe 2180
niciunul 2180
licență 2179
eficiente 2179
dro@@ 2179
îmbunătăți 2178
ceas 2178
provocare 2177
participa 2177
sexuală 2177
bul@@ 2176
râs 2176
purtat 2172
sec@@ 2172
pierdem 2170
comisiei 2170
strâns 2170
fiii 2170
prânz 2170
85 2169
întregi 2168
intreaga 2168
iu@@ 2168
termenul 2167
saptamana 2167
brazilia 2166
anti-@@ 2166
lipseşte 2166
preţul 2165
resurselor 2164
insulă 2164
posibile 2163
dur 2163
răspunsuri 2162
ps 2162
costurile 2162
situația 2161
relaţie 2159
combustibil 2158
27@@ 2158
arunca 2157
puteau 2157
acordat 2157
transmite 2156
tării 2155
învăţa 2155
atului 2155
ația 2154
trafic 2154
interzis 2154
ars 2154
proiectului 2154
găseşte 2154
seamănă 2152
cooperare 2152
făceam 2151
complexe 2151
pereche 2151
atacat 2150
egipt 2150
naştere 2150
sentimentele 2150
sim@@ 2150
prind 2149
cai 2148
tã 2148
te-au 2148
jucăm 2148
înceapă 2147
familiile 2147
alul 2146
afacerile 2146
m-ar 2144
specii 2142
modernă 2142
iz@@ 2141
fals 2140
cau@@ 2140
copac 2140
învățământ 2140
ll 2140
străine 2139
mer 2139
trăieşti 2139
anterioare 2139
ss@@ 2138
ly@@ 2138
sol 2138
i.@@ 2138
unitatea 2138
afirmat 2137
lovitură 2136
abordare 2134
mănânc 2134
sală 2133
telefoane 2133
cheile 2133
finală 2132
căruia 2131
roşu 2130
tar 2130
explicat 2130
ține 2129
teaza 2128
decît 2128
lungi 2128
ascultaţi 2126
şi@@ 2126
echipe 2126
al-@@ 2125
browserului 2125
industriei 2125
ţiilor 2124
€ 2124
ară@@ 2123
itorul 2123
200@@ 2123
judecător 2122
potrivită 2121
parcare 2121
antă 2120
problemelor 2120
caute 2120
complete 2119
shi@@ 2119
valorile 2119
tipii 2119
producţie 2118
bucată 2118
pasul 2118
printr-un 2117
gaze 2117
imagina 2117
gheaţă 2117
continuu 2117
tăiat 2116
stri@@ 2116
sezonul 2116
eforturile 2114
du 2114
co 2114
obiective 2114
grave 2112
răspund 2112
postul 2112
str@@ 2112
magazinul 2112
traducere 2111
președinte 2110
ce-o 2109
peşte 2109
țării 2109
capital 2108
red 2108
asigurare 2108
49 2108
inventat 2108
adevarul 2107
vietii 2106
bru@@ 2106
canal 2106
dacã 2106
ut 2106
mba 2105
tragi 2105
taxe 2104
arde 2104
itatea 2104
unitate 2104
analiză 2103
bor@@ 2103
active 2102
surprins 2102
rambursare 2102
fonduri 2101
bănuiesc 2099
pantofi 2099
bobby 2099
jumatate 2099
oprim 2097
urmări 2097
curajul 2097
eficientă 2097
mişto 2096
bile 2096
liderii 2096
lat 2096
engleza 2095
intrăm 2095
profit 2094
continui 2093
obiectiv 2092
itul 2090
lit 2090
colaborare 2090
ajutăm 2089
stop 2089
ceilalți 2088
autobuz 2088
ist@@ 2088
comitetul 2087
dimensiuni 2087
scrii 2087
realizarea 2085
reusit 2084
name 2084
alele 2083
secţiune 2083
gul 2083
vremuri 2082
ja@@ 2082
procesului 2080
johnson 2080
46 2079
gr@@ 2078
aerul 2077
cantitate 2077
descurc 2077
stră@@ 2076
memoria 2076
­@@ 2075
științe 2075
cunoștințele 2075
ştiri 2074
totodată 2074
permanent 2074
conflict 2074
participat 2073
voturi 2073
sari 2073
conținutul 2073
câțiva 2073
însărcinată 2073
dispozitivul 2072
direc@@ 2072
mi-aş 2071
ah@@ 2071
ade@@ 2070
dac@@ 2070
-le 2070
ofer 2070
distanță 2070
publicul 2068
mănânce 2067
negativ 2066
urcă 2065
ti-a 2064
principale 2064
teatru 2063
însemna 2063
a-şi 2063
ţelor 2063
smul 2063
declaratie 2062
satul 2062
fil@@ 2061
de-aici 2059
torului 2059
aşteptam 2058
36@@ 2058
ordinul 2058
că-l 2058
promovarea 2057
electronice 2057
cri@@ 2057
rezolvat 2056
cursurile 2056
spunând 2056
contribuie 2056
susţine 2056
cumpărături 2055
soția 2053
siguri 2053
oportunitate 2053
gratis 2053
amy 2053
tea 2053
exterior 2053
parc 2052
tratat 2051
americanii 2051
şef 2050
reprezinta 2050
vreodata 2048
principalele 2047
dy 2046
temperatura 2046
lun@@ 2044
andy 2044
apărea 2043
pregătită 2043
dimensiunea 2043
roz 2042
frecvent 2042
cli@@ 2042
cumperi 2042
aeriene 2042
ski 2040
chinez 2040
sei 2040
nato 2039
dic@@ 2039
berlin 2039
perspectivă 2038
-mă 2038
cân@@ 2038
1000 2038
cultural 2037
iarnă 2037
sky 2037
continue 2036
gândurile 2036
profesori 2036
2003 2036
sem 2034
criminal 2033
reveni 2033
te-ar 2033
durat 2032
dre@@ 2030
greutatea 2029
bătaie 2029
'cookie 2029
'site 2029
că-ţi 2028
ks 2025
habar 2025
false 2025
rusă 2024
52 2023
afecta 2022
cristos 2022
ministru 2021
gaz 2021
pl@@ 2020
vai 2020
chicago 2019
credinţă 2017
oficială 2017
pierdere 2017
formarea 2016
pisica 2016
regret 2014
memorie 2013
mașina 2012
tiile 2012
radi@@ 2012
hey 2011
cercetări 2011
ciudată 2010
ocazie 2010
pozitiv 2010
străin 2008
is 2007
clientul 2005
dezvolte 2005
kong 2004
br@@ 2004
ridicol 2004
dră 2003
miroase 2002
porc 2002
acceptă 2001
ja 2000
varietate 1998
cuplu 1998
hol@@ 1998
sunet 1998
no 1997
3d 1997
bazate 1997
principala 1996
uimitoare 1996
oferte 1996
renunţaţi 1996
înțelegere 1996
categorii 1996
independent 1995
gât 1994
jake 1993
01 1993
poza 1993
următorii 1992
capitol 1992
ui@@ 1992
fier 1990
venituri 1990
acasã 1990
semnal 1990
industriale 1989
evaluarea 1988
doctorat 1988
fericiţi 1988
strategie 1988
aducem 1987
avansate 1987
uri@@ 1987
medicul 1987
sol@@ 1987
modificări 1987
iubita 1986
faza 1986
șe@@ 1986
evrei 1986
uita-te 1986
marile 1985
jucător 1985
aţiei 1983
7.@@ 1982
titlu 1981
gestionarea 1981
ho 1980
fal@@ 1980
întru 1979
inovatoare 1978
colegiul 1978
vând 1977
presedintele 1977
et 1976
investiții 1976
inimii 1976
susține 1976
arte 1976
teama 1975
cunoştinţă 1975
toții 1975
băgat 1975
internaţională 1975
impresia 1974
ieşim 1974
pregătiţi 1974
pie@@ 1974
fiecărui 1974
sexy 1973
mingea 1973
armatei 1973
aj@@ 1972
digital 1972
n-@@ 1972
folosită 1972
dovada 1971
-urile 1971
51 1969
asigură 1969
amândouă 1969
naturală 1969
ov@@ 1969
jerry 1968
alice 1968
principiile 1968
maine 1967
relativ 1966
reclamaţii 1966
trans@@ 1966
apar@@ 1964
acoperire 1964
considera 1964
800 1963
apară 1962
anunțat 1962
national 1960
bi 1958
influen@@ 1957
a-mi 1957
ser 1956
testul 1955
audi@@ 1955
ka@@ 1954
tice 1954
aceleaşi 1954
nopţii 1953
decenii 1951
â@@ 1950
diplomă 1949
tipi 1949
organizații 1949
încântat 1949
stricat 1948
hal@@ 1948
jocului 1948
câini 1947
atorilor 1947
fundamentale 1947
tive 1946
chineză 1946
electrică 1945
naţionale 1944
cuprinde 1943
plu@@ 1943
util 1942
schi@@ 1942
mic@@ 1942
impactul 1942
acuzat 1941
salveze 1941
ieftin 1941
încercând 1941
scrisoarea 1941
obişnuit 1939
inteleg 1939
baieti 1939
zu@@ 1937
ațiile 1936
determina 1934
ofertă 1933
iesi 1932
19@@ 1931
world 1930
razboi 1930
neregulă 1930
răi 1930
credite 1930
puteai 1928
venim 1928
personalul 1928
credea 1927
ţi-ar 1927
îndată 1926
zate 1926
dificilă 1926
întâlnirea 1925
clubul 1924
bonus 1924
vestea 1923
minciuni 1923
elevi 1922
aude 1922
fereastra 1922
matematică 1921
tiv 1921
navă 1921
confidentialitate 1920
itor 1920
vorbeam 1919
protecţie 1919
regiuni 1918
iartă-mă 1918
opinia 1918
mâncăm 1917
billy 1915
dului 1914
sexual 1913
cru@@ 1913
tommy 1913
origine 1912
petrec 1911
verifică 1911
ling 1911
depozit 1911
-lea 1911
cântec 1911
64 1911
butonul 1910
soluţie 1910
găsit-o 1909
ț 1909
ridic@@ 1908
su 1908
lumi 1908
avocatul 1908
louis 1908
priveste 1907
obiectați 1906
gasi 1905
cen@@ 1905
kate 1905
piatra 1905
c-f 1905
cantitatea 1904
clienţi 1904
civil 1903
gene 1903
organizat 1902
rochie 1901
condițiile 1901
l-ar 1901
itori 1900
anta 1899
lideri 1898
avioane 1898
sergent 1897
academice 1897
casele 1896
50@@ 1896
preveni 1896
barca 1896
ama@@ 1895
sase 1895
cărţile 1895
paturi 1895
university 1894
marte 1894
speranţă 1893
cadouri 1893
obţinut 1893
lo 1892
păstrează 1892
mur@@ 1892
zahăr 1891
reuşi 1891
ându-se 1891
partid 1889
chestiune 1888
oprească 1888
precedent 1887
n-avem 1887
sexuale 1887
poziția 1886
lie 1885
descriere 1885
materie 1885
za@@ 1884
miezul 1884
şansa 1883
é@@ 1883
ţi-i 1882
dur@@ 1881
lux 1881
electric 1880
bag@@ 1880
aparţine 1880
teorie 1879
iarna 1877
pete 1877
notă 1876
q 1876
ofiţer 1875
mo 1875
vouă 1875
dei 1875
0,@@ 1874
platformă 1874
nat@@ 1874
relaţia 1873
l-aţi 1873
relații 1873
liber@@ 1872
gândire 1872
deschid 1872
exercitaţi 1872
eră 1871
dvs. 1871
calcul 1871
kim 1871
finan@@ 1871
600 1870
den 1870
ilegal 1870
ck 1869
vreți 1869
legale 1868
durată 1868
multi@@ 1868
bil 1868
folosește 1867
apucat 1866
greșit 1866
alegeți 1866
ochiul 1866
universități 1865
producția 1864
disponibilă 1864
yo@@ 1864
park 1864
38@@ 1864
ang@@ 1864
reciproc 1864
magazine 1864
wal@@ 1864
ofera 1862
rec@@ 1862
lucrurilor 1862
cumpăr 1861
nostri 1861
¶ 1861
confirmat 1860
răbdare 1860
ui 1860
tt 1860
ria 1859
nasul 1859
gan@@ 1858
întrebam 1858
vânzări 1858
termin@@ 1857
apo@@ 1857
scu 1857
întregii 1856
juridice 1856
afectate 1854
pedeapsa 1854
eu@@ 1854
dimineața 1852
transfer 1852
nota 1852
experienta 1851
edi@@ 1851
inteles 1851
responsabilitate 1850
sugerează 1850
minim 1850
poziţie 1850
vorbiţi 1849
privirea 1848
albe 1848
sotia 1847
confortabil 1847
tac@@ 1847
înțeleg 1847
ităţii 1847
martor 1846
aiba 1844
cerințele 1844
stan@@ 1844
ji@@ 1844
ramane 1843
manager 1843
iu 1841
tra@@ 1841
patra 1841
lansarea 1840
rai 1840
pară 1839
cin@@ 1839
individuale 1839
eri@@ 1839
religie 1839
luați 1839
schimbi 1839
william 1838
dispus 1838
adi@@ 1837
mass-media 1836
capacitate 1835
propus 1835
perete 1835
forţă 1835
sigure 1834
beat 1834
cla@@ 1833
ciocolată 1833
liderul 1832
demo@@ 1831
ron 1831
practice 1830
ației 1830
legată 1830
studiat 1829
visele 1829
72 1829
bunuri 1829
motivele 1828
ăsta-i 1827
cari 1826
acelea 1826
corec@@ 1826
douăzeci 1826
star 1825
adoptat 1825
asigure 1825
apreciez 1825
internetul 1825
perspectiva 1824
puternici 1824
construirea 1824
acu@@ 1823
clienților 1823
canale 1823
merita 1823
bilet 1823
costul 1822
gin@@ 1822
multa 1821
acoperă 1821
dale 1821
echipament 1820
folos 1819
enii 1818
be 1818
capabili 1817
pline 1817
fe 1817
companiilor 1817
chin@@ 1817
popular 1816
sarcină 1816
luri 1816
revista 1815
agentul 1815
digitală 1815
auto-@@ 1815
inten@@ 1814
condiţiile 1814
etichete 1814
son@@ 1814
pâine 1813
sistemelor 1811
adu@@ 1811
original 1810
aplicație 1810
ker 1810
fraţii 1810
câștiga 1810
papa 1810
adresă 1809
favoare 1809
iubim 1809
atele 1809
republicii 1809
eric 1807
semnele 1807
păţit 1807
stăpânul 1806
selec@@ 1806
vizitat 1806
ideile 1806
oferind 1806
relevante 1806
star@@ 1805
` 1804
asociate 1804
încolo 1804
ken@@ 1803
omorî 1803
locului 1803
​​@@ 1802
public@@ 1802
iubi 1802
prefera 1801
cookie 1801
cadă 1800
motorul 1800
înalte 1799
56 1799
8.@@ 1799
one 1799
ir@@ 1798
condamnat 1797
sentimentul 1797
mișcare 1797
expert 1797
medii 1796
proiec@@ 1796
plâng 1795
profesioniști 1795
podea 1795
petru 1794
acte 1793
vorbeste 1793
ocean 1793
scott 1793
intraţi 1792
profe@@ 1792
a. 1791
joaca 1791
regulat 1791
rahatul 1791
cit 1791
prevenirea 1790
mirosul 1790
cast@@ 1790
treime 1790
curată 1790
refer 1790
descurci 1789
vârf 1789
ezi 1788
actuală 1788
interesantă 1788
culcat 1787
principiu 1787
zei 1786
aplicația 1786
eddie 1786
sie 1785
calm 1785
stiam 1784
deseori 1784
oasă 1783
stul 1782
elimina 1782
so 1782
studio 1781
foloseşti 1780
soci@@ 1780
împăratul 1780
fugă 1780
ciudate 1780
ridicate 1780
cadru 1780
muntele 1779
tarii 1779
dorinţa 1779
ol 1778
privit 1777
miere 1777
scrise 1777
mărimea 1777
olanda 1776
ez 1776
totii 1776
poliţiei 1776
excepţia 1776
ty@@ 1775
medicină 1775
copie 1775
producător 1775
pilot 1775
cafeaua 1775
contr@@ 1774
comportament 1774
scapi 1773
găsite 1773
puterii 1772
lor@@ 1772
chestiile 1771
transportul 1771
civile 1771
viziune 1770
explică 1770
zată 1769
element 1769
tina 1769
cio@@ 1769
hrană 1768
ier 1767
observa 1767
apele 1767
urmăresc 1767
verific 1767
artist 1767
creeze 1765
profesionist 1765
nu-s 1765
ram@@ 1764
locuieşte 1764
modern 1764
cărui 1764
austria 1763
claire 1763
suficiente 1763
istoriei 1762
–@@ 1762
soluție 1762
scump 1762
îndreaptă 1761
stiinta 1761
forţele 1761
clo@@ 1761
flo@@ 1760
9.@@ 1760
ok@@ 1760
ascul@@ 1760
iubitule 1759
40@@ 1759
orasul 1759
transformă 1759
rată 1758
bag 1758
domeniile 1757
lelor 1756
linii 1756
ouă 1756
:@@ 1755
-n 1755
zăpadă 1755
negative 1754
solar 1754
6.@@ 1754
consum 1753
exemple 1753
identitatea 1753
muta 1753
camerei 1753
weekend 1752
finalul 1751
carl 1751
crime 1751
conduci 1751
tica 1751
uitaţi-vă 1751
sănătoasă 1750
cântă 1750
acțiuni 1750
lan 1749
cazare 1749
l-@@ 1748
sam@@ 1748
ame 1747
măsurile 1747
ideal 1747
religioase 1746
vânt 1746
off 1745
street 1745
exclusiv 1745
atiile 1744
fix 1744
centrale 1744
simon 1744
the@@ 1744
masterat 1743
stin@@ 1743
zicem 1743
categoria 1742
recep@@ 1742
grădină 1742
degetul 1742
stre@@ 1741
perfec@@ 1741
indică 1741
respectul 1739
sansa 1739
bombă 1739
închid 1739
standarde 1739
ității 1738
1:@@ 1738
sat@@ 1738
partenerii 1738
speram 1737
nenorocitul 1737
relaţii 1736
extinde 1735
card 1735
ceilalti 1735
dave 1734
inimile 1734
înveţi 1734
ken 1734
53 1733
ţul 1733
opera 1732
barbat 1731
bem 1731
câmp 1731
ff 1731
liniştit 1730
aparat 1730
noii 1730
ordinea 1729
victorie 1729
etajul 1729
limită 1729
complicat 1728
lucrare 1727
identitate 1727
sexul 1726
cauta 1726
îngrijire 1725
parcul 1725
puse 1724
superi 1722
ji 1722
adu 1722
ur 1722
vieţile 1721
inte@@ 1720
vit@@ 1720
emi@@ 1719
fic@@ 1719
piept 1719
victima 1718
semnalul 1716
sha@@ 1716
nas 1716
dr@@ 1716
scaunul 1715
similar 1715
intr@@ 1715
universității 1714
sărut 1714
prelucrarea 1714
oc@@ 1713
alitate 1712
modă 1712
constă 1712
dosar 1711
sit 1710
publicului 1710
scri@@ 1709
ră 1709
ms 1708
turism 1708
server 1708
ino@@ 1707
59 1707
slavă 1707
târfă 1706
fondul 1706
detectiv 1706
p. 1706
infec@@ 1705
țelor 1705
cle@@ 1705
altii 1704
rezervă 1704
ada 1704
generalul 1704
lucrări 1703
gânduri 1703
permisiunea 1702
căi 1702
toaletă 1701
destule 1701
m-@@ 1701
alo@@ 1700
rit 1700
sele 1700
tranzacționare 1700
54 1700
atacul 1700
primar 1699
ing@@ 1699
confidențialitate 1699
urmele 1699
ph@@ 1699
spălat 1698
lipsă 1698
premiu 1697
copi@@ 1697
locaţie 1695
texas 1695
amintit 1695
urcat 1694
incredere 1694
cursa 1694
big 1693
pla@@ 1692
educația 1692
simțit 1692
zgomot 1692
îmbunătățirea 1691
create 1691
voştri 1691
adevărate 1691
nit 1690
diferenţa 1690
clădiri 1690
avertizat 1690
toarea 1690
57 1689
cumpără 1689
valabil 1688
carea 1688
şo@@ 1688
cr@@ 1688
rapide 1688
1.000 1687
componente 1687
2001 1687
spaniolă 1687
hen@@ 1687
cursă 1686
parlamentul 1686
arele 1686
nului 1685
provocat 1685
utile 1685
detaliile 1684
villa 1684
fabrica 1684
pietre 1683
păstrat 1683
soţ 1682
pm 1682
sabia 1682
-ce 1682
carnea 1681
em 1681
ucid 1680
arthur 1679
cancerul 1679
instituții 1679
te-aş 1678
naștere 1678
sentimente 1678
inițial 1678
-am 1677
îngrozitor 1677
încercați 1677
om@@ 1676
angeles 1676
ia@@ 1676
vorbea 1676
trezesc 1675
58 1675
ti-ai 1674
clienţii 1674
chem 1674
23@@ 1673
atacuri 1673
gresit 1672
afirmă 1672
sfat 1671
vest@@ 1671
dra@@ 1671
bucuria 1671
rămânem 1670
păcatele 1670
deoparte 1670
predare 1670
mili@@ 1669
spart 1669
tatii 1668
wood 1668
imp@@ 1668
semnul 1667
solicitarea 1667
victor 1667
comerț 1666
țiilor 1666
dezastru 1666
ucidă 1666
-ne 1666
anti-spam 1666
gaură 1666
asă 1665
puteri 1664
solu@@ 1664
minune 1663
departamentului 1663
ip 1662
pregătire 1662
centre 1662
-ti 1661
terapie 1661
inteligente 1661
dri@@ 1661
abila 1660
sfântul 1660
eli@@ 1660
suedia 1659
achizi@@ 1659
mint 1658
învață 1658
cade 1658
pur@@ 1658
suficientă 1658
ultimă 1657
pozitive 1657
exacte 1657
10.000 1657
monstru 1656
stabili 1656
organizația 1656
dureri 1656
hd 1656
dați 1655
fran@@ 1655
nave 1655
presiunea 1654
realizate 1654
fine 1654
cilor 1654
ia-ţi 1654
stiri 1653
dezvoltă 1653
beneficiile 1653
vreti 1653
propune 1653
răul 1653
canapea 1652
provocări 1652
irlanda 1652
lucy 1651
iubirii 1651
hor@@ 1651
săraci 1651
gâtul 1650
adevăratul 1650
atras 1650
barcă 1650
bine@@ 1650
societății 1649
supra@@ 1649
lansare 1648
sk 1647
înţelegeţi 1647
mar 1647
sir 1646
organism 1646
campanie 1646
link 1646
aprobat 1645
golf 1644
interesele 1644
spectacolul 1643
principiul 1643
dimineață 1643
strategia 1643
medicii 1643
demult 1643
pod 1643
siguranţa 1643
libere 1642
precizat 1642
for 1641
complex 1641
die 1640
plâns 1640
uşoară 1640
proaste 1639
mia 1638
cît 1638
okay 1637
căreia 1636
volumul 1636
întâlniri 1636
viziunea 1635
punctele 1635
sen 1635
conteaza 1634
1990 1633
logică 1633
tam@@ 1633
home 1633
miros 1631
riscuri 1631
stu@@ 1631
nuclear 1630
tel 1630
primească 1630
biblioteca 1630
ban 1630
concurs 1629
ye@@ 1629
ansamblu 1629
este@@ 1629
nervos 1629
dimensiune 1629
aceleași 1629
indi@@ 1628
nat 1628
renunţat 1628
iertare 1628
privi 1626
berg 1625
supărată 1625
ţinem 1625
științifice 1624
langa 1624
she@@ 1624
favoarea 1624
colegiu 1622
oarecare 1622
evenimentele 1622
educației 1621
bancar 1621
marginea 1621
toamna 1621
iubitul 1620
standardele 1620
aventură 1620
dare 1620
funcția 1620
rupe 1620
sperie 1620
poliţişti 1620
mesajele 1620
meciul 1619
puţine 1619
id 1619
legături 1619
ville 1619
provoca 1618
demonstrat 1618
youtube 1618
străzi 1618
experienţa 1617
major 1617
accept 1617
învaţă 1616
fenomen 1616
icul 1616
amenin@@ 1616
ón 1616
priviţi 1614
federal 1614
primeşti 1614
liberi 1613
insulele 1613
execu@@ 1612
dezvoltate 1612
bilă 1612
contactați 1612
părăsi 1612
serioasă 1612
prezenţa 1611
numerele 1611
locuitori 1610
sumă 1610
norocul 1610
sticla 1609
ed@@ 1609
2002 1609
floare 1608
pantofii 1608
animalelor 1608
trezeşte-te 1608
fun@@ 1608
crestere 1607
apărarea 1607
de-o 1606
revin 1606
one@@ 1606
sf 1606
cinste 1606
lu 1606
efectuate 1606
incearca 1606
proiectat 1605
email 1605
nevasta 1605
irak 1605
autorul 1604
urmeze 1604
istorice 1604
plăcerea 1602
bă 1602
dragi 1601
doarme 1600
citește 1600
acesti 1600
durabilă 1600
continuăm 1599
preot 1599
rock 1599
tre 1598
alizarea 1598
lar 1598
ambi@@ 1597
ici@@ 1597
prefer 1597
avantaj 1597
locuitorii 1597
formează 1596
dedicat 1596
pier@@ 1596
tăţii 1596
excepția 1596
adunarea 1596
acţiunile 1595
aflați 1595
poarte 1595
culturii 1595
numi 1594
subiecte 1594
alitatea 1594
adunat 1593
atenția 1593
comitetului 1593
principalul 1593
organizarea 1593
limitele 1593
mijloace 1591
incat 1591
han 1591
aflate 1591
găsiţi 1590
iata 1590
nisip 1590
înţelegem 1590
lec@@ 1590
simptome 1590
ian 1589
dragule 1589
bară 1588
frecvente 1588
inven@@ 1588
distracţie 1588
document 1587
numește 1587
fratelui 1587
școli 1587
ascunse 1586
şefu 1586
râu 1586
coasta 1585
cop@@ 1585
respiră 1585
camion 1585
căldură 1584
moneda 1583
părinţi 1583
psiho@@ 1583
existenţa 1583
sune 1582
johnny 1582
ster@@ 1582
jur@@ 1582
rochia 1581
contractul 1581
prim 1581
guvernamentale 1581
sar 1581
obama 1581
cifre 1580
facut-o 1580
î 1580
dreptului 1580
societăţii 1580
une@@ 1579
proprietarul 1578
lucrările 1577
blog 1577
angajați 1576
puneţi 1576
oi 1576
procedura 1576
critică 1575
studia 1575
cumpara 1574
vechiul 1573
etaj 1573
discurs 1573
prezentare 1573
accent 1573
avertisment 1572
dele 1572
2-@@ 1572
obligat 1571
identificat 1571
consul@@ 1571
une 1571
howard 1571
clară 1570
textul 1570
căutaţi 1570
win@@ 1570
aparatul 1569
efectuat 1569
adio 1569
populația 1569
cunoaştem 1569
rachete 1568
citeşte 1568
iii 1568
irii 1568
aranjat 1568
onul 1567
-n@@ 1567
raportat 1566
abi@@ 1566
divor@@ 1566
curte 1566
uscat 1566
orului 1566
bas@@ 1566
lea 1565
anne 1565
acţiuni 1565
air 1565
direcţia 1564
numim 1564
elementele 1563
înnebunit 1563
bilete 1563
feluri 1562
soldaţi 1561
rac@@ 1560
ton@@ 1560
îmb@@ 1560
creste 1558
gândul 1558
pozi@@ 1558
rezista 1557
dinainte 1556
gratuită 1556
albert 1556
niveluri 1556
fir 1556
goală 1555
vegas 1555
discuţie 1555
idiotule 1555
primeşte 1555
apropierea 1554
sunetul 1554
colo@@ 1553
lic@@ 1553
trandafiri 1553
roşie 1553
destinul 1552
vânătoare 1552
urme 1552
atitudinea 1552
bazată 1551
copaci 1551
banilor 1551
site-urile 1551
bomba 1551
satisface 1550
sate 1550
sărit 1550
datorează 1549
predic@@ 1549
3,@@ 1549
bucură 1549
pro 1549
salvez 1548
apărării 1548
school 1547
lac 1547
aurul 1547
relaţiile 1547
căror 1546
pescuit 1546
barcelona 1545
surile 1544
ocupi 1543
intern 1543
primim 1542
scoatem 1542
judecata 1542
păsări 1542
ţineţi 1542
egal 1542
sezon 1541
excelentă 1541
sii 1540
universului 1540
oxigen 1540
fișierul 1540
filmele 1540
ama 1540
fl@@ 1540
eliminarea 1540
hy@@ 1539
atentie 1539
contribui 1538
oricât 1538
comunicat 1538
luminii 1537
gră@@ 1537
scriitor 1536
albastră 1536
lii 1536
vieţi 1536
întrucât 1536
wi-fi 1536
educaţie 1536
genunchi 1535
făceau 1534
sări 1534
imaginile 1533
cit@@ 1533
iarăşi 1532
ieftine 1531
nebuni 1531
tivă 1531
zilor 1530
șansă 1530
antrenament 1529
orii 1528
păcii 1528
statutul 1528
oliver 1528
separat 1528
rap@@ 1528
vacanţă 1528
nordul 1527
mi-l 1527
omoară 1527
urgență 1527
vehicule 1527
încercam 1527
mil@@ 1525
scap 1525
bandă 1525
larea 1524
it-o 1524
eva 1524
scapă 1524
hostel 1524
uşurel 1523
recunoaşte 1523
audă 1523
fire 1523
firme 1523
testare 1522
închisă 1522
efectua 1521
numar 1520
amintiri 1520
firefox 1520
politia 1520
brian 1520
contrar 1520
nul 1520
37@@ 1520
ent 1519
sy@@ 1519
serviciului 1518
ritmul 1518
field 1518
flu@@ 1518
marca 1517
dovedi 1517
vã 1517
vorbește 1517
robot 1516
le-ar 1515
profesional 1515
sanatate 1515
sarea 1515
scur@@ 1514
lon 1514
kevin 1514
3-@@ 1514
participarea 1513
cii 1513
250 1513
spus-o 1513
părinţilor 1512
concentrează 1512
hi 1512
viitorului 1511
atmosfera 1511
planetei 1511
ative 1511
adăuga 1510
respec@@ 1510
minunate 1510
office 1510
incendiu 1510
adăpost 1509
96 1509
rețeaua 1509
fumat 1509
bogată 1509
scan@@ 1508
anu 1508
arului 1507
superioară 1507
5.000 1507
zid 1507
proiectare 1507
florida 1506
elena 1506
rugăciune 1505
specific 1505
pacientul 1505
bugetul 1505
consider 1505
fosta 1504
închise 1504
clare 1504
mare@@ 1504
asculte 1504
constatat 1503
te-@@ 1503
domn 1503
bon@@ 1503
secundare 1502
nice 1501
mann 1501
vol@@ 1501
lisa 1501
furnizarea 1500
trecerea 1500
promo@@ 1500
plecare 1500
ato@@ 1500
venea 1499
fan 1499
69 1499
internă 1499
cerce@@ 1499
duri 1498
g-@@ 1498
xi@@ 1497
gay 1497
medicamentele 1497
201@@ 1497
cad 1496
ți-vă 1496
tori@@ 1496
considerată 1496
stiut 1496
geanta 1495
2,@@ 1495
pavel 1495
ungaria 1494
caracteristicile 1494
vitamina 1494
traficul 1493
c-am 1493
m-aţi 1493
contextul 1493
chema 1492
respectă 1492
smith 1492
poveşti 1492
principii 1491
trupele 1490
firmă 1490
smului 1490
curse 1490
stabilite 1489
sia 1489
conţine 1489
cartier 1489
religia 1488
practici 1488
ordinele 1488
înd 1487
cată 1487
5-@@ 1487
pusă 1486
4,@@ 1486
calul 1486
autobuzul 1486
pește 1485
secole 1485
s.com 1485
reze 1484
referi 1484
rare 1484
ştiinţa 1484
bătrânul 1483
piesa 1483
proce@@ 1483
seria 1483
câştigă 1483
logic 1482
ame@@ 1482
iți 1482
-ai 1482
sotul 1481
campus 1481
conectat 1481
cadavrul 1481
aţi-vă 1480
trimită 1480
masura 1480
ment 1480
descurcat 1480
binevenit 1480
introdus 1480
tatea 1479
afectat 1479
urmărire 1479
activă 1479
chef 1479
deodată 1479
dispoziţie 1479
trai 1479
ştilor 1478
bran@@ 1478
acestia 1478
rick 1478
riscurile 1478
înregistrarea 1477
cânta 1477
epoca 1477
argint 1477
120 1477
euro@@ 1477
retras 1477
intre@@ 1476
77 1476
documentele 1476
conceptul 1475
balcon 1475
luam 1475
slabă 1475
scoţi 1475
rose 1474
murim 1474
situatia 1474
° 1474
citeşti 1474
seamă 1473
ează 1473
aminti 1473
povestit 1472
denumirea 1472
mit 1472
traducerea 1472
care@@ 1472
cra@@ 1471
iran 1471
sca@@ 1471
necazuri 1470
strategii 1470
umple 1470
ck@@ 1469
fizica 1469
onoarea 1469
germane 1468
orele 1468
treptat 1468
sla@@ 1467
uit@@ 1467
pregătesc 1467
audio 1467
uitam 1467
comparativ 1467
secretă 1467
fon@@ 1467
ativă 1467
factor 1466
provin 1466
yu@@ 1466
pistolul 1465
scrisă 1465
scă@@ 1465
fotografia 1465
tății 1465
înger 1464
activitățile 1464
dat@@ 1464
ru 1464
dispare 1463
executiv 1463
war@@ 1463
terminăm 1463
întregime 1462
planete 1462
wil@@ 1462
diavolul 1462
mincinos 1462
mîn@@ 1462
62 1462
sfinte 1462
ny 1462
postat 1461
pregăti 1461
elizabeth 1461
directă 1461
ia-l 1461
învins 1461
siguranța 1460
ţi-aş 1460
termine 1460
gor@@ 1460
98 1459
scrisori 1459
cheltuielile 1459
ordonat 1458
comunic@@ 1458
rand 1458
ieşire 1457
prietenilor 1457
pâna 1457
bolnavă 1457
cercetători 1456
pricep 1456
albi 1456
medicament 1456
națiunilor 1456
oasa 1456
relație 1455
câştig 1455
cerem 1455
ușoară 1455
obiectul 1455
periculoasă 1454
primă 1454
caz@@ 1454
rei 1454
ny@@ 1454
iso 1454
omenirii 1454
atitudine 1453
premii 1453
autoritățile 1452
uciderea 1452
fetiţă 1451
căsătoria 1451
restric@@ 1451
ating 1451
ochilor 1451
itoare 1451
profesorii 1451
dorește 1451
fan@@ 1451
dieta 1451
lam@@ 1451
îndepărtat 1451
arabia 1451
medicina 1450
experiment 1450
zicea 1450
degetele 1449
pc 1449
aș@@ 1449
învăţ 1449
situație 1449
pacient 1449
concediat 1449
organizației 1448
eliberarea 1448
semnificative 1448
mamaia 1448
europeni 1447
chinezi 1447
instrumentele 1446
vada 1446
dia 1446
spuneai 1445
râul 1445
acă 1445
iască 1445
ceară 1445
chat 1444
suferi 1444
unea 1444
băieți 1444
c-@@ 1444
turnul 1444
sprijini 1443
92 1443
baţi 1443
întrebările 1443
1995 1443
marie 1443
copilărie 1443
terenul 1442
vinul 1442
61 1442
parca 1442
sfatul 1442
lac@@ 1442
reţea 1441
opreşti 1441
totalitate 1441
repet 1440
virusul 1440
sel@@ 1440
arunci 1439
ieşti 1439
ghici 1439
amazon 1438
unice 1438
politicii 1437
câinii 1437
caţi 1436
anunţ 1436
geniu 1436
puterile 1436
profundă 1436
e.@@ 1436
nasa 1435
log@@ 1435
2:@@ 1435
t.@@ 1434
jurnalul 1434
mini@@ 1434
ker@@ 1434
turii 1434
a-ţi 1433
actual 1433
sfarsitul 1433
produsului 1433
provine 1433
comunicarea 1432
proprie 1432
93 1431
şii 1431
times 1431
atentă 1431
ig@@ 1431
conducă 1430
fug 1430
ascund 1430
stelele 1429
aerului 1429
inelul 1429
fiecărei 1428
rachel 1427
duş 1427
aman@@ 1427
invers 1427
primarul 1427
pizza 1427
baia 1426
char@@ 1426
ok. 1426
zie 1426
60@@ 1426
way 1426
donald 1425
discursul 1425
cine@@ 1424
arunc 1424
phil 1424
recenzii 1424
nevinovat 1422
ridicată 1422
sos 1422
deschidere 1422
transmis 1422
sfin@@ 1421
opțiune 1420
mului 1420
contrac@@ 1420
elevilor 1419
past@@ 1419
erilor 1419
arată-mi 1419
sese 1419
bineînțeles 1418
aspectele 1418
mode@@ 1417
premierul 1417
emily 1416
înşelat 1416
şul 1416
lează 1416
armate 1416
considerate 1416
latină 1416
maestru 1416
dun@@ 1415
podul 1415
învinge 1415
roman@@ 1415
sudul 1415
lare 1414
turi@@ 1414
bănci 1414
raspunde 1414
icii 1414
mono@@ 1413
bărbații 1413
respins 1412
pantaloni 1412
zborul 1412
coboară 1412
service 1411
4-@@ 1411
rezolvarea 1411
implicate 1410
controlează 1410
aprobarea 1410
aiurea 1409
bo 1409
ţintă 1409
crima 1409
0-@@ 1409
descurca 1408
placut 1408
mătuşa 1408
bila 1408
cooperarea 1408
mulţumit 1408
97 1407
nan@@ 1407
razna 1407
ieşiţi 1406
barbati 1406
gandit 1405
black 1405
potrivite 1405
dubai 1405
femeii 1405
vântul 1404
fabrică 1404
ls 1404
mai@@ 1403
orb 1403
sor 1403
alan 1403
produc 1403
ver 1403
luată 1403
mărturie 1402
700 1402
pun@@ 1402
moda 1402
ryan 1401
fantastic 1401
însuși 1401
conexiune 1401
necunoscut 1401
depus 1400
unelte 1400
metodele 1400
părintele 1400
pin@@ 1400
căm 1399
conturi 1399
atiei 1399
glumesc 1398
știam 1398
fotografiile 1398
suporta 1398
injec@@ 1398
poliția 1398
nică 1397
leze 1397
pachetul 1396
ţinta 1396
deştept 1396
lasa-ma 1396
cati 1396
limbajul 1395
roșu 1395
piardă 1395
beach 1395
context 1395
abilitate 1394
-da 1394
româniei 1394
progresul 1394
tai@@ 1394
piesă 1393
oribil 1393
caracterul 1392
pasa 1392
dificile 1392
linişteşte-te 1392
cind 1392
castelul 1391
instalat 1391
88 1391
marţi 1391
mandat 1391
tabără 1391
spe@@ 1390
87 1390
blo@@ 1390
cloud 1389
adulți 1389
distrugă 1389
râ@@ 1389
visat 1388
reziden@@ 1388
mp 1388
regionale 1388
cancerului 1387
cinstit 1387
corespunzător 1386
rezervare 1386
cartierul 1386
oricărei 1386
beneficia 1386
unchiule 1385
expedi@@ 1385
explozie 1385
nutri@@ 1385
ridice 1385
anunț 1385
şti@@ 1384
germaniei 1384
răspundă 1384
inei 1383
vise 1383
proteine 1383
iile 1383
ou 1382
transpor@@ 1382
vârful 1382
line 1381
romani 1381
probe 1381
relațiile 1381
puține 1380
ameninţare 1380
recuperare 1380
trezi 1380
pregătirea 1380
zbura 1380
del@@ 1380
dimpotrivă 1380
67 1379
uz@@ 1378
ape@@ 1378
florarie 1378
buzunar 1378
schimbăm 1378
ministerului 1377
forțele 1377
martori 1377
acoperi 1377
poliţiştii 1376
oglindă 1376
ting 1376
laboratorul 1375
cazurile 1375
vizitatori 1375
1999 1375
academic 1375
soră 1375
anun@@ 1374
curajos 1374
68 1374
gaz@@ 1374
votat 1374
lasat 1373
oficiale 1373
explic@@ 1373
ers 1373
carter 1373
bit@@ 1372
gol@@ 1372
israelul 1372
inclus 1372
nivelurile 1372
nucleară 1371
majoră 1371
ster 1371
capcană 1370
lincoln 1370
academia 1370
deschiderea 1369
câtă 1369
salvarea 1369
drumuri 1369
capătul 1369
computerul 1368
procesele 1368
jackson 1368
reporter 1368
dispozitivele 1368
noului 1368
← 1368
masini 1368
face-o 1368
dialog 1368
salariul 1368
annie 1367
provoacă 1367
răni 1367
tine@@ 1367
descris 1367
aparent 1367
ţi-au 1366
tări 1366
baz@@ 1366
producţia 1366
îm@@ 1366
crimei 1366
aten@@ 1366
lip@@ 1365
acuma 1365
populație 1365
parteneriat 1365
stabilirea 1365
precis 1365
asigur@@ 1365
discu@@ 1365
muncesc 1364
administrarea 1364
termenii 1364
atin@@ 1363
credeți 1363
dam 1363
91 1363
piscină 1362
fermă 1362
puţini 1362
protejeze 1362
pensionat 1362
încercaţi 1361
sarcini 1361
generație 1361
recomandat 1361
împrumut 1361
ami@@ 1361
rugăciunea 1360
funcții 1359
fond 1359
viena 1359
valorii 1358
pisică 1357
colegi 1357
agre@@ 1357
brânză 1356
zării 1356
pretul 1356
pasăre 1355
modifica 1355
veniturile 1355
etapă 1355
actor 1355
ochelari 1355
activităţi 1355
palatul 1354
ascunzi 1354
ramas 1354
antrenor 1353
actele 1352
ocupată 1352
00 1352
instal@@ 1352
66 1352
tur 1351
urechile 1351
hiv 1351
beijing 1351
verzi 1350
roger 1350
culturi 1350
madrid 1350
haina 1350
individ 1349
patrulea 1349
73 1349
frigider 1348
ieși 1348
ceruri 1348
ucizi 1348
let 1348
certificat 1347
lată 1347
adecvate 1347
întâmplare 1346
francisco 1346
soţiei 1346
10.@@ 1346
taxa 1346
gravă 1345
alt@@ 1345
tion 1345
parintii 1345
ador 1345
chipul 1345
salvează 1344
iesit 1344
wa@@ 1344
taxele 1343
geo@@ 1343
spar@@ 1343
jucătorii 1343
obținut 1343
valea 1343
ner@@ 1343
selectați 1343
oceanul 1343
echilibru 1343
înghe@@ 1342
băuturi 1342
joseph 1342
cădea 1342
lipsesc 1342
86 1342
atmosferă 1342
steaua 1342
auzim 1342
importanţă 1341
dezamăgit 1341
stătea 1341
unuia 1341
degeaba 1341
mut 1340
modelele 1339
cile 1339
car 1339
forma@@ 1339
plângi 1339
sean 1338
hot@@ 1338
inele 1338
lady 1337
indian 1336
universitar 1336
dispară 1336
scumpule 1336
tun@@ 1336
culturală 1336
ron@@ 1336
termini 1336
verificare 1336
du-l 1335
edward 1335
șterge 1335
vechea 1335
filmului 1335
îmbrăcat 1334
1998 1334
șo@@ 1334
populară 1334
plăteşti 1333
menține 1333
cercetării 1333
paşi 1333
asociat 1333
comunist 1333
indic@@ 1333
singapore 1333
63 1332
toarele 1332
asigurări 1332
cunoască 1332
servi 1331
jurat 1331
adult 1331
înregistrate 1331
ay@@ 1331
descoperirea 1330
ure@@ 1330
pretutindeni 1330
urmei 1329
virus 1329
du-i 1329
pierderi 1329
încărcare 1329
lau@@ 1329
alizare 1329
identifica 1328
secol 1328
gras 1328
cânt 1328
înțelegerea 1328
vic@@ 1328
omenirea 1328
afganistan 1328
cântecul 1327
marfă 1327
înca 1327
sint 1326
divizia 1326
deciziile 1326
itatii 1326
patrick 1326
ice@@ 1325
simultan 1325
luminile 1325
reflec@@ 1325
pamant 1325
întunecată 1324
fiică 1324
procese 1324
rezistă 1323
călători 1323
priceput 1323
serioase 1323
încercarea 1322
presedinte 1322
strict 1322
ador@@ 1321
oni@@ 1321
ocupe 1321
dean 1321
actualizare 1321
up 1321
jude@@ 1320
avan@@ 1319
ărilor 1319
mate 1319
trimise 1319
moale 1319
ziar 1318
urgent 1318
du-se 1318
pistol 1317
aplicate 1317
lovitura 1317
simptomele 1317
observ@@ 1317
studiului 1317
news 1316
stro@@ 1316
electronic 1316
electro@@ 1316
italian 1316
domin@@ 1316
aş@@ 1315
ide@@ 1315
jason 1314
salariu 1314
soțul 1314
uite-l 1313
pasiune 1313
ativ 1313
membrilor 1313
geam 1312
pariez 1312
tat-o 1312
zboară 1312
asemănătoare 1311
ber 1310
oarecum 1310
oper@@ 1310
voiai 1310
spuneau 1310
știința 1310
wow 1310
uiti 1309
vie@@ 1309
pleaca 1309
obtine 1309
radio@@ 1309
matt 1309
determinat 1309
bazăm 1308
repe@@ 1308
legume 1308
limbaj 1308
rate 1308
revine 1308
accesa 1307
inteligentă 1307
florile 1307
bagi 1307
ip@@ 1307
interese 1307
dură 1306
aplicabilă 1306
fiți 1306
fraţi 1306
bucuresti 1306
parlamentului 1305
avans 1305
puştiule 1305
înţelegerea 1305
dit 1304
ise 1304
saptamani 1304
incercat 1304
del 1304
costuri 1303
evolu@@ 1303
meniu 1303
participe 1303
enorm 1303
primului 1303
primăvară 1302
ceaiul 1302
astept 1302
duminica 1301
înso@@ 1301
relaxează-te 1301
necesitatea 1301
lovi 1301
bătălia 1301
group 1301
modificările 1300
94 1300
web@@ 1300
pã@@ 1300
sf@@ 1300
caldă 1300
promova 1300
simtit 1300
comunității 1299
fen@@ 1299
ignor@@ 1299
seful 1299
măi 1298
somnul 1298
zia 1298
gândeşte 1297
permită 1297
pit@@ 1297
proiectele 1297
speranţa 1297
biblie 1297
încotro 1297
credeai 1297
programare 1296
coduri 1296
bolilor 1296
locuit 1296
ridici 1296
şi-ar 1296
lla 1296
manual 1296
concluzia 1296
glo@@ 1296
comandantul 1295
afec@@ 1295
tribunal 1295
daţi-mi 1295
hrana 1295
metal 1295
adormit 1294
oara 1294
u-@@ 1294
robin 1294
absolvenții 1294
pon@@ 1294
dec@@ 1293
aspectul 1293
experți 1293
cunoaşteţi 1293
galben 1292
normale 1292
76 1292
stres 1292
cardul 1292
suc 1292
concept 1291
simbol 1290
up@@ 1290
atît 1290
100.000 1290
scade 1290
estimează 1290
înțeleagă 1290
vecinii 1290
lord 1289
oraşe 1289
râde 1289
caseta 1289
ou@@ 1289
prezentate 1289
pân@@ 1288
adn 1288
banda 1287
fle@@ 1287
suplimentar 1287
perioade 1287
medici 1287
schimb@@ 1286
ano 1286
figura 1286
furniza 1286
jen@@ 1286
accepte 1286
tinerilor 1285
bush 1285
păstreze 1285
modificare 1284
telefoanele 1284
penny 1284
punerea 1283
mărime 1283
mută 1283
ierusalim 1283
urs 1283
vas 1283
suri 1282
relația 1281
analizat 1281
adop@@ 1281
câr@@ 1281
tehnologice 1281
găsiți 1281
pul@@ 1280
îngrij@@ 1280
progrese 1280
plaja 1280
campania 1279
reglementare 1279
ticălos 1279
laura 1279
recunoscător 1278
călătorii 1278
aflaţi 1278
rămâneţi 1278
stat@@ 1277
wo@@ 1277
salvezi 1277
cauze 1277
d-nă 1277
11@@ 1277
zău 1276
țe@@ 1276
tehnica 1276
treburile 1276
bol@@ 1275
ham@@ 1275
sw@@ 1275
tragă 1274
domnişoara 1274
câmpul 1274
spaţiul 1273
angajaţi 1273
excursie 1273
privim 1273
conver@@ 1272
miliard 1272
sufletului 1272
clase 1272
fla@@ 1272
personalului 1272
hotel@@ 1272
pac@@ 1272
situaţii 1272
da-mi 1271
atare 1271
gestionare 1270
modificarea 1270
ry@@ 1269
fum 1269
prime 1269
scoată 1269
scor 1269
82 1269
luptăm 1269
lent 1269
curios 1269
lungime 1268
declaraţie 1268
imaginat 1268
bruce 1268
publicate 1268
click 1268
note 1267
consumatorilor 1267
câştigi 1267
miracol 1267
grădina 1267
acțiunile 1267
teribil 1266
monede 1266
rat 1266
pe-aici 1266
corespunzătoare 1265
nobel 1265
ușurință 1265
acoperit 1265
maţi 1264
muncit 1264
afișează 1264
urmăreşte 1264
mări 1263
gem 1263
victimele 1263
căpitan 1263
preluat 1263
mândră 1263
limitat 1263
vândă 1262
ureche 1262
.00 1262
abandonat 1262
gama 1262
tind 1262
deosebită 1261
spațiul 1261
dlui 1261
bicicleta 1261
atingi 1260
benzină 1260
record 1260
citească 1260
colţ 1260
modelului 1260
roşii 1260
ave@@ 1259
însumi 1259
bucuros 1259
alaturi 1259
11:@@ 1259
prindă 1259
preşedintelui 1259
steroizi 1258
reflectă 1258
respecte 1258
adulţi 1258
curand 1257
prioritate 1257
protejează 1257
utilizatorului 1257
victimă 1257
einstein 1257
asigurat 1256
infr@@ 1256
darul 1256
înțelegem 1256
cablu 1256
puşti 1256
sul@@ 1256
adevarata 1256
gran@@ 1255
cuminte 1255
marshall 1255
fic 1254
academică 1254
þ@@ 1254
lacul 1254
programelor 1254
pasageri 1254
urca 1253
5,@@ 1253
chineze 1253
ziarul 1253
adevărului 1253
temă 1253
furnizor 1252
arile 1252
uta 1252
unități 1252
aprovizionare 1251
dispărea 1251
mel@@ 1251
aduse 1250
lupt 1250
odihnă 1250
vedeti 1250
my 1250
show 1250
pă 1249
menţionat 1249
degete 1249
dinţi 1248
clasic 1248
lot 1248
trecute 1248
întreb@@ 1248
electronică 1247
gândirea 1247
trata 1247
rului 1247
ţin@@ 1246
salv@@ 1246
oscar 1246
jeff 1246
diferența 1246
fetiţa 1245
sărbători 1245
politicile 1245
iri@@ 1245
prețurile 1245
construim 1245
solicita 1245
minţile 1244
protejarea 1244
sperii 1244
larry 1244
povest@@ 1244
é 1243
gru@@ 1243
que 1243
îsi 1243
actul 1242
emo@@ 1242
acelor 1241
aaron 1241
mister 1241
opriţi 1240
inel 1240
lucreaza 1240
magie 1240
căr@@ 1240
mijloacele 1239
corecte 1239
gand 1239
restaurantul 1239
wi@@ 1238
leu 1238
aminteşte 1238
plă@@ 1238
încetat 1238
evreu 1238
pieței 1237
limitată 1237
înce@@ 1237
bal 1237
multime 1236
plo@@ 1236
informați 1236
placi 1236
informare 1236
roy 1236
hai@@ 1235
maestrul 1235
sănătăţii 1235
întârziere 1235
iv 1235
etapa 1235
guvernele 1235
jones 1235
liga 1234
pantalonii 1234
însăşi 1234
ó@@ 1234
andrew 1234
eforturi 1234
cã@@ 1234
aerian 1233
carol 1233
solare 1233
pielii 1233
populaţia 1233
leonard 1233
scurte 1233
89 1233
spo@@ 1232
păcatul 1232
răspunzi 1231
6,@@ 1231
vacanță 1231
c.@@ 1231
și@@ 1231
venind 1231
sec 1231
introducerea 1231
cupa 1230
ry 1230
sufletele 1230
înteles 1230
forța 1230
îndoiesc 1230
implementarea 1230
du-mă 1230
dator 1230
preia 1229
iranul 1229
verific@@ 1229
next 1228
esc 1228
hidro@@ 1228
á@@ 1228
emma 1227
bac@@ 1227
os@@ 1227
restaurante 1226
ade 1226
anele 1226
supravieţui 1226
79 1226
box 1226
potriveşte 1226
scădere 1226
intrebat 1226
sapte 1225
momentan 1225
singure 1225
neur@@ 1225
furnizori 1225
a… 1224
propunerea 1224
extins 1224
economii 1223
deco@@ 1223
tăți 1223
canalul 1223
cerc 1223
iosif 1222
subliniat 1222
pose@@ 1222
incluse 1222
dorea 1221
cy@@ 1221
norvegia 1221
impresionant 1221
cupon 1221
pilo@@ 1221
învețe 1221
rapoarte 1221
publica 1220
centr@@ 1220
alizat 1220
costumul 1220
lily 1220
c-ai 1219
înţeleagă 1219
amen@@ 1219
stând 1219
raymond 1219
reprezentat 1219
cresterea 1219
chuck 1219
clientului 1219
aștepta 1218
finanțe 1218
împinge 1218
detaliu 1217
bijuterii 1217
suprafaţă 1217
78 1217
numără 1217
jo 1217
scara 1217
oricărui 1216
comenzi 1216
trădat 1216
organizație 1216
umbra 1216
i. 1215
suspect 1215
apu@@ 1215
71 1215
es@@ 1215
preocupări 1215
înveţe 1214
maestre 1213
meniul 1213
ajul 1213
cați 1212
japonez 1212
spune@@ 1212
haideti 1211
construiască 1211
acelui 1210
ince@@ 1210
versiuni 1210
bibliotecă 1210
lăsaţi-mă 1209
specialitate 1209
ațiilor 1208
metrou 1208
înfiin@@ 1208
umbră 1208
cetate 1208
foto@@ 1208
evenimentul 1207
distrugerea 1207
urechi 1207
efectiv 1207
adecvat 1207
bulgaria 1207
predat 1206
1989 1206
stone 1206
11.@@ 1205
84 1205
matei 1204
treaz 1204
niciuna 1204
situații 1204
rezi 1204
tan 1203
sănătoase 1203
italiană 1203
ferestre 1203
ape 1202
organismul 1202
bog@@ 1202
ciclu 1201
pădurea 1201
hack 1201
brad 1201
formula 1201
limpede 1200
gândească 1200
simţiţi 1199
vinzi 1199
bara 1199
zez 1199
avantaje 1198
nori 1198
talent 1198
credeti 1198
știut 1198
înot 1198
rul 1197
bruxelles 1197
temporar 1197
tesc 1196
informat 1196
ep@@ 1196
mila 1196
ev@@ 1196
întoarcerea 1196
creată 1195
preferată 1195
şi-l 1195
elimină 1195
intoarce 1194
organizaţia 1194
n-aţi 1194
neg@@ 1194
demisia 1193
2.000 1192
articolului 1192
c. 1192
producătorii 1192
votul 1192
fișierele 1192
iarbă 1191
nevoilor 1191
utilizând 1191
echipamentul 1191
bank 1191
oasele 1190
deceniu 1190
recomandă 1190
folosiți 1190
acelei 1189
alternativă 1189
nascut 1189
informațiilor 1189
cas@@ 1189
părțile 1188
dispune 1188
indivizi 1187
gary 1187
mese 1186
leo 1186
asistenta 1186
marfa 1186
soluţii 1186
erului 1186
vari@@ 1186
sac@@ 1185
muzeu 1185
wa 1185
retrage 1185
santa 1184
muncitori 1184
kelly 1184
chip 1184
cartofi 1184
materialele 1184
individual 1184
imens 1183
integrarea 1183
industrială 1183
robo@@ 1183
poezie 1182
mes@@ 1182
morală 1182
gustul 1182
stein 1182
sete 1182
remarcat 1182
repor@@ 1182
foloseste 1182
corpor@@ 1181
încerce 1181
cere@@ 1181
prietenie 1181
depune 1180
după-amiază 1180
presus 1180
originea 1179
aler@@ 1179
prânzul 1179
dragon 1179
d-na 1179
modului 1179
fie@@ 1179
proaspăt 1178
reprezenta 1178
organe 1178
bogate 1178
susan 1178
start 1178
şte@@ 1178
preci@@ 1178
pozele 1178
le-@@ 1178
day 1178
aţiilor 1178
supravieţuit 1177
81 1177
pronun@@ 1177
vân@@ 1177
morgan 1176
pret 1176
new@@ 1175
tipurile 1175
rețele 1175
bolii 1175
alternative 1174
angajamentul 1174
bată 1174
voastra 1173
episodul 1173
tabăra 1173
ute 1173
meseria 1173
refuza 1173
kilograme 1173
evreii 1173
piețele 1173
iasi 1172
ins 1172
lewis 1172
primăvara 1172
obțineți 1171
barbie 1171
uci@@ 1171
rezolve 1171
cutii 1171
vietnam 1171
locație 1171
comunica 1170
80@@ 1170
comp@@ 1169
universitare 1169
dumneata 1169
puştiul 1169
instruire 1169
iului 1168
împlinit 1168
falsă 1168
călă@@ 1168
poliție 1168
tex@@ 1168
aliz@@ 1168
calorii 1168
trageţi 1167
huh 1167
apăra 1167
furtună 1167
determină 1167
mi-aţi 1167
obișnuit 1167
cetatea 1167
dati 1166
amestec 1166
astia 1166
pricepi 1165
imperiul 1165
trup 1165
potențial 1165
refuză 1165
abordarea 1165
şanse 1164
prezen@@ 1164
videoclipuri 1164
men 1164
soli@@ 1163
inspec@@ 1163
£ 1163
condu@@ 1163
nu-ți 1163
darea 1162
definitiv 1162
nepotul 1162
grafic 1162
cl@@ 1162
citi@@ 1162
grupa 1162
contribu@@ 1162
relaxare 1162
gasesc 1162
bănu@@ 1162
armelor 1161
age 1161
instagram 1161
utilizată 1161
transferul 1161
8-@@ 1161
profil 1161
agricole 1160
jean 1160
progres 1160
rez 1160
jucării 1160
forță 1160
elibera 1160
fiicei 1160
condi@@ 1159
conta 1159
tarile 1159
prezentul 1159
investiţii 1159
avansat 1159
sac 1158
calificare 1158
monedă 1158
germani 1158
dez 1158
actiune 1158
dintotdeauna 1158
ritm 1158
d.@@ 1158
juridic 1158
limite 1158
invest@@ 1157
procente 1157
asadar 1157
taylor 1157
sez 1157
impune 1156
74 1156
deţine 1156
descoperă 1156
celulă 1156
mişcaţi-vă 1155
invata 1155
poziție 1155
autoritate 1155
v-ar 1154
veri@@ 1154
eg@@ 1154
tăţi 1154
sara 1154
ieșit 1153
păstrăm 1153
zonei 1153
asistenţă 1153
mg 1152
majoritate 1152
vindeca 1152
surprinzător 1152
cauzate 1152
comerci@@ 1151
structură 1151
marina 1151
drumului 1151
o'@@ 1151
vor@@ 1151
articolele 1151
raz@@ 1151
testele 1151
fu 1151
buzele 1150
identificarea 1150
întoarcere 1150
buget 1150
cincea 1150
concert 1150
fantomă 1150
merit 1149
oane 1149
mirare 1149
rã@@ 1149
s- 1148
amintirile 1148
practic@@ 1148
mail 1148
modificat 1147
bancare 1147
ierta 1147
exprimat 1147
posibilitate 1146
separate 1146
opri@@ 1146
onor@@ 1146
ment@@ 1146
comple@@ 1145
admi@@ 1145
lon@@ 1145
centrului 1145
leagă 1144
inspirat 1144
tes 1144
informaţie 1144
solicită 1144
împiedica 1144
boston 1144
pus-o 1143
derii 1143
nar@@ 1143
3:@@ 1143
afi@@ 1143
sange 1143
og@@ 1143
atingă 1143
v-@@ 1143
argentina 1143
vreunul 1142
7,@@ 1142
aştepte 1142
sfert 1142
unt 1142
adn-ul 1141
scări 1141
bătrână 1141
concluzie 1141
ll@@ 1140
concentrat 1140
şa 1140
hank 1140
testat 1140
pași 1140
trat@@ 1140
dolar 1140
teatrul 1139
praga 1139
deschizi 1139
atic 1139
convinge 1139
tristă 1139
suprafaţa 1138
goale 1138
greşită 1138
gri 1138
ón@@ 1138
așteptat 1137
scumpe 1137
trimitem 1137
harvard 1137
ataca 1137
ler@@ 1137
raspunsul 1137
mir 1137
ram 1137
tratatul 1136
hotelului 1136
implica 1136
bit 1136
noilor 1136
luca 1136
bolile 1136
străzile 1135
navigare 1135
instituție 1135
treizeci 1135
em@@ 1135
ziare 1135
braţe 1135
bogaţi 1135
intrebari 1134
sai 1134
1997 1134
zând 1134
plecam 1133
fred 1132
interzice 1132
regim 1132
încheie 1132
atenţi 1132
secretele 1132
tiva 1132
preferă 1131
îndeplini 1131
stăpâne 1131
independentă 1131
meciuri 1130
clit 1130
promovare 1130
cură@@ 1130
secretarul 1130
comun@@ 1129
înteleg 1129
83 1129
caractere 1129
lasi 1129
iarba 1129
știlor 1129
minciuna 1129
dy@@ 1129
buton 1129
cooper@@ 1129
sclavi 1128
inn 1128
comandat 1128
multiple 1128
şi-o 1128
hol 1128
agricultură 1127
þi 1127
planificare 1127
ţă@@ 1127
ător 1127
pap@@ 1127
extinderea 1127
hmm 1127
într@@ 1127
pastile 1127
esențiale 1127
judecătorul 1126
vroia 1126
mobilă 1126
descoperire 1126
spune-ne 1126
arat 1126
atelor 1126
extraordinară 1126
inceputul 1125
masca 1125
erile 1125
anuntat 1125
întregului 1125
belgia 1125
diferenţă 1125
fiinţă 1125
condiţionat 1125
fază 1125
ucişi 1125
presupunem 1125
fra@@ 1124
tăcere 1124
organiz@@ 1124
1994 1124
fiti 1124
semn@@ 1124
menționat 1123
dis@@ 1123
aj 1123
provocările 1123
saudită 1123
deține 1123
lumin@@ 1123
tort 1123
ghidul 1122
anu@@ 1122
atâţia 1122
liniştită 1122
trecuta 1121
respectarea 1121
paginile 1121
kin 1121
acorda 1121
nefericire 1120
cunosti 1120
yo 1120
semnificativă 1120
eliminat 1120
portugalia 1119
domiciliu 1119
ce-@@ 1119
îngerii 1119
numeşti 1118
promptitudine 1118
construită 1118
ficat 1118
etape 1118
imaginez 1118
umb@@ 1118
într-una 1118
sună-mă 1118
pisici 1117
tările 1117
k-@@ 1117
prindem 1117
helen 1117
introduceți 1116
menţine 1116
absolvent 1116
deranjez 1116
permanentă 1116
obosită 1116
isuse 1116
tradiționale 1116
accesorii 1116
ce-l 1115
păstrezi 1115
creați 1115
conţinutul 1114
științifică 1114
aco@@ 1113
6-@@ 1113
sho@@ 1113
accentul 1113
.ro 1113
norocoasă 1113
arabă 1112
internaționali 1112
suta 1112
aplicațiile 1112
agen@@ 1112
inde@@ 1111
slă@@ 1111
craciun 1111
solicitat 1111
fmi 1111
mon 1111
parea 1110
ann 1110
strategice 1110
zeaza 1110
plat@@ 1110
pacific 1110
adu-mi 1109
4:@@ 1109
sigura 1109
prezentarea 1109
porunca 1109
arătăm 1108
vinde@@ 1108
distrusă 1108
harul 1108
asemănător 1108
persecu@@ 1108
josh 1108
forex 1108
preten@@ 1107
numite 1107
dorința 1107
susţin 1107
monitorizare 1107
genetic 1106
dal@@ 1106
lichi@@ 1106
luc@@ 1106
app 1106
ascunsă 1106
pretinde 1106
intrebare 1105
preferate 1105
sportive 1105
incident 1104
chimie 1104
alti 1104
10:@@ 1104
elev 1104
descărca 1103
ridic 1103
lacrimi 1103
franta 1103
ofer@@ 1103
west 1103
hill 1102
trecere 1102
tz 1102
cinema 1102
surori 1102
îngropat 1102
organizate 1102
ach@@ 1101
fică 1101
citiți 1101
rezerva 1101
elveția 1101
contabilitate 1101
suprafață 1101
gat 1101
more 1101
urmatoarele 1100
aeriană 1100
strân@@ 1100
mireasa 1100
participă 1100
coborât 1100
mentului 1100
recru@@ 1100
recepţionat 1099
motiv@@ 1099
ținut 1099
fă-mi 1099
bucăţi 1099
dub@@ 1099
c-ar 1099
l-aş 1098
andrei 1098
ion@@ 1098
sugerat 1098
vre@@ 1098
cercetările 1097
firmei 1097
resc 1097
plictisitor 1097
sfarsit 1097
zezi 1097
păstrez 1097
dovezile 1097
time 1097
aci 1097
danemarca 1096
brown 1095
funcţia 1095
particular 1095
roșie 1095
respecta 1094
impresionat 1094
căutați 1094
voluntar 1094
amente 1094
părăsesc 1094
asoci@@ 1094
1/@@ 1093
servit 1093
evoluat 1093
rezolvăm 1093
uz 1093
greşeli 1093
renunţ 1093
prezența 1093
altcuiva 1092
sabie 1092
misiuni 1092
pli@@ 1092
iat 1092
veniti 1091
olimpice 1091
5:@@ 1091
mihai 1091
învin@@ 1091
1991 1091
furi 1090
adaptarea 1090
interpre@@ 1089
protejat 1089
mari@@ 1089
amsterdam 1089
valorează 1089
p.@@ 1089
thailanda 1089
regină 1088
durabile 1088
ecu@@ 1087
comercială 1087
răpit 1087
ham 1087
pildă 1087
avere 1086
sovietică 1086
calității 1086
bunul 1086
redac@@ 1086
uiți 1086
ruse 1086
ua 1086
lez 1086
atacurile 1086
kan@@ 1085
5g 1085
sim 1085
civilă 1085
mişcarea 1085
eroul 1085
organizaţiei 1085
her 1085
late 1085
spa 1084
har 1084
tand 1084
drag 1084
furnizorii 1084
realizează 1084
cost 1083
ați-vă 1083
istorică 1083
anterioară 1083
ore@@ 1083
aţi@@ 1083
�@@ 1083
suflete 1082
apă@@ 1082
bătrâni 1082
numărului 1082
generaţie 1082
acuz@@ 1082
recentă 1082
credința 1081
bmw 1081
pasiunea 1080
durile 1080
găsește 1080
cău@@ 1080
legală 1080
tw@@ 1080
ation 1079
unile 1079
acordă 1079
declarație 1078
respectivă 1078
scria 1078
vizează 1078
ft 1078
stru@@ 1078
miss 1078
apropia 1078
limitate 1078
expresia 1078
chit@@ 1078
ioasă 1077
forta 1077
biletul 1077
zeu 1077
staţia 1077
strigat 1077
conven@@ 1077
tul@@ 1076
intors 1076
biologice 1076
sydney 1076
ot 1076
ambii 1076
introduce 1076
alelor 1075
instalarea 1075
posturi 1075
grace 1075
luând 1075
aduceţi 1074
marcă 1074
supor@@ 1074
zburat 1074
avantajele 1074
uitați 1074
datorez 1073
răzbunare 1073
dezvol@@ 1073
descărcare 1073
imunitar 1073
iuda 1073
asteptam 1073
militari 1073
specie 1073
alimentele 1072
po 1072
azil 1072
murdar 1072
înconjurător 1072
miami 1071
îngheţată 1071
fice 1071
cheltuieli 1071
renunţi 1071
urmatorul 1071
feti@@ 1071
well 1071
tab@@ 1071
consumului 1070
angajează 1070
cadavru 1070
britanică 1070
mina 1069
lăsat-o 1069
bin@@ 1069
plăteşte 1069
volum 1069
persoanei 1069
păsările 1069
reclamații 1069
apropiaţi 1068
hel@@ 1068
du-ne 1068
altuia 1068
dent 1068
adap@@ 1068
prezinte 1068
7-@@ 1067
doctorii 1067
all 1067
japoneză 1067
iniţial 1066
cadavre 1066
închi@@ 1066
ceartă 1065
retragerea 1065
deschidă 1065
super-@@ 1065
tânărul 1065
doug 1065
industrial 1064
universal 1064
urmeaza 1064
magic 1064
omo@@ 1064
indu@@ 1064
intelegi 1064
by@@ 1063
aplicat 1063
băncile 1063
platforme 1063
bunicii 1063
abon@@ 1063
cazului 1063
învățarea 1063
gate 1062
gaura 1062
ino 1062
sprijină 1062
reuşesc 1062
furia 1062
științei 1062
decese 1062
spirituală 1062
ferma 1062
inchi@@ 1062
propunere 1062
ă-@@ 1062
festivalul 1062
strânge 1062
presei 1061
prinţul 1061
filmat 1061
ºi 1061
bursa 1061
automobile 1061
1996 1060
n'@@ 1060
scuză 1060
ti-va 1060
ak 1060
taxă 1060
outlook 1060
ov 1060
opţiuni 1059
producerea 1059
ușa 1059
dragut 1059
particule 1059
rugam 1059
dăr@@ 1058
panică 1058
alului 1058
tensiunea 1058
citat 1058
stati 1058
relor 1058
zele 1058
spuna 1058
creative 1058
cauti 1057
sensibil 1057
vorbești 1057
diabet 1057
angaj@@ 1056
v-ați 1056
interioară 1056
luati 1056
limbii 1056
autentificare 1056
ky 1055
inexactități 1055
necesita 1055
lou 1055
pardon 1055
precizie 1055
vânzarea 1055
bucurat 1054
cunoscut-o 1054
extreme 1054
aplic@@ 1054
viată 1054
plat 1054
britanice 1053
părinți 1053
parolă 1053
franceze 1053
celorlalţi 1053
lup@@ 1053
formele 1053
destinat 1053
contactând 1052
tân@@ 1052
bunurile 1052
beth 1052
cului 1052
importanța 1052
respira 1051
erie 1051
acce@@ 1051
arhiva 1051
nastere 1051
georgia 1051
tule 1051
prinzi 1051
înlocui 1050
creaturi 1050
liniile 1050
focuri 1050
alăturat 1050
tabil 1050
cerului 1050
asem 1050
construite 1049
ficare 1049
spatiu 1049
independente 1049
aruncăm 1049
vrăjitoare 1049
º@@ 1049
actualizat 1049
baze 1049
echilibrul 1049
semnale 1048
vânzările 1048
gestiona 1048
mândri 1048
:30 1048
arabe 1048
stomac 1048
cunoaște 1048
genera 1048
furios 1048
amb@@ 1047
numeste 1047
speriată 1047
materialelor 1047
personalitate 1047
9-@@ 1047
fura 1046
știa 1046
procent 1046
utilizării 1046
ne-@@ 1046
gân@@ 1046
dansul 1046
internetului 1046
diana 1046
emis 1045
mb 1045
masaj 1045
fundal 1045
promisiunea 1045
strigă 1045
columbia 1044
dru@@ 1044
abraham 1044
jumătatea 1044
conturile 1044
bătrâne 1044
dezvăluit 1044
zaţi 1044
furnizate 1044
găsită 1044
harold 1044
prostiile 1043
împiedică 1043
utilizatorul 1043
ruga 1043
repetat 1043
completa 1043
trebuiau 1043
f-@@ 1043
organizațiile 1043
test@@ 1042
co-@@ 1042
tra 1042
investig@@ 1042
face@@ 1042
căutam 1042
gătit 1042
sinucis 1042
fiscale 1041
bolnavi 1041
arunce 1041
regimul 1041
traiesc 1041
specifică 1041
portul 1040
credeau 1040
imi@@ 1040
barul 1040
venezuela 1040
bombe 1040
concentra 1039
părţile 1039
continu@@ 1039
experiențe 1039
folosiţi 1039
amanda 1039
credincios 1039
colonel 1039
inginer 1039
imensă 1039
si-au 1039
life 1038
băncii 1038
renunţa 1038
aci@@ 1038
convin@@ 1038
placere 1038
spuneti 1038
и@@ 1037
orez 1037
şefule 1037
i-aş 1037
pian 1037
curentă 1037
părăsească 1036
apropii 1036
angela 1036
roșii 1036
probă 1036
lurile 1036
prevede 1036
а@@ 1036
via 1035
tehnologiile 1035
prevăzute 1035
proiectarea 1035
nemernic 1035
eraţi 1035
potențialul 1035
romantic 1035
educaționale 1035
9:@@ 1034
căile 1034
responsabili 1034
negri 1034
râzi 1034
vice@@ 1034
jaf 1034
12:@@ 1034
stia 1033
gs 1033
deleg@@ 1033
micu@@ 1033
tenis 1033
white 1033
sophie 1033
julia 1033
ţat 1032
braţele 1032
respective 1032
materialul 1031
datorie 1031
azã 1031
răspunsurile 1031
emisiunea 1030
litere 1030
groază 1030
anchetă 1030
duceţi-vă 1029
apăr@@ 1029
consilier 1029
accep@@ 1029
întinde 1029
absolvenți 1029
distrug 1029
fraţilor 1028
terry 1028
îmbogă@@ 1028
baiat 1028
băutura 1028
jan@@ 1028
® 1027
pricina 1027
populației 1027
ament 1027
bagajele 1027
iri 1027
referitor 1027
despărţit 1025
pierdute 1025
motoare 1025
frumuseţea 1025
calculatorul 1025
cererii 1024
ful 1024
lansa 1024
grăsime 1024
vieți 1024
slabe 1024
întins 1024
clientii 1024
doream 1024
bazele 1023
structuri 1023
iubește 1023
ning 1023
furi@@ 1023
reduceri 1022
cântat 1022
brand 1022
repar@@ 1022
accesibile 1022
repara 1022
străină 1021
prăbu@@ 1021
religioasă 1021
stă@@ 1021
strategic 1021
unilor 1020
c-a 1020
matematica 1020
.000 1020
divertisment 1020
d. 1020
orasului 1020
core@@ 1020
echipele 1020
cărei 1019
tăţilor 1019
dansezi 1019
obiec@@ 1019
miller 1019
gur@@ 1019
prețuri 1018
sează 1018
stocare 1018
maşinile 1018
văr@@ 1018
vizite 1018
de-abia 1017
mati@@ 1017
compar@@ 1017
astă 1017
aţilor 1017
fundamentală 1017
găsirea 1017
jocurilor 1016
diferitele 1016
nivelului 1016
organele 1016
sil@@ 1016
automată 1016
kat@@ 1016
atac@@ 1016
recomand 1016
imagin@@ 1016
zâmbet 1016
solidă 1016
ilegale 1015
ţion@@ 1015
centura 1015
dos 1015
băga 1015
dispar 1015
efortul 1014
urăşte 1014
ö@@ 1014
diferenta 1014
cople@@ 1014
totalul 1014
opinie 1014
pozitivă 1014
promoțional 1014
vali@@ 1014
stephen 1014
coleg 1013
culorile 1013
specialist 1013
credință 1013
înconjurat 1013
50.000 1013
confirmă 1013
capului 1013
post-@@ 1013
calculatoare 1013
doza 1013
rezolvă 1012
magia 1012
așteptăm 1012
9,@@ 1012
sus@@ 1012
salutare 1012
realiz@@ 1012
datorita 1011
şi-i 1011
judec@@ 1011
concentr@@ 1011
evalu@@ 1011
sper@@ 1011
teroriste 1011
aca 1010
cel@@ 1010
tipule 1010
creăm 1010
90@@ 1010
linda 1010
investitorii 1009
detec@@ 1009
geneva 1009
he 1009
a-ti 1009
peşti 1009
1. 1009
l.@@ 1008
inutil 1008
bucătăria 1008
gan 1008
utilizeze 1008
arhi@@ 1008
maggie 1008
curvă 1008
aje 1008
play 1008
consider@@ 1008
oli@@ 1007
1980 1007
defec@@ 1007
laptele 1007
caii 1007
mormânt 1007
cic@@ 1006
hollywood 1006
kur@@ 1006
coadă 1006
marcat 1006
fiecăruia 1006
nie 1006
juridică 1006
avantajul 1006
garanta 1005
pune-ţi 1005
vio@@ 1005
20.000 1005
naţiunilor 1004
următor@@ 1004
vladimir 1004
metru 1004
activi 1004
destin@@ 1004
împu@@ 1004
alimentară 1004
zeelandă 1003
terorist 1003
i-aţi 1003
vorbe 1003
evaluat 1003
direcţie 1003
capete 1003
pregătește 1003
ky@@ 1003
bineinteles 1003
critic 1003
expresie 1003
păr@@ 1003
fort 1003
literatura 1002
salari@@ 1002
may 1002
manifest@@ 1002
agenţii 1002
supr@@ 1002
gii 1002
demonstrează 1001
m.@@ 1001
functioneaza 1001
ună 1001
sule 1001
ancheta 1001
înălţimea 1001
adrese 1001
pag@@ 1000
securității 1000
psihologie 1000
pacienții 1000
nevoit 1000
eliberare 1000
bin 999
pericolul 999
depresie 999
ști@@ 999
desfășoară 999
adăugați 999
pură 999
caracteristică 999
finlanda 999
minori@@ 999
controlat 998
skype 998
templu 998
stângă 998
ash@@ 998
aparține 998
zeii 998
eroi 997
castel 997
stan 997
suplimente 997
hr 997
responsabilă 997
simpla 996
tatile 996
apariţia 996
sd 996
apreciat 996
album 996
prietenia 995
propriei 995
birouri 995
prinţesă 995
jay 995
ding 995
reprezen@@ 995
mute 995
confort 995
acoperiş 995
premi@@ 994
zul 994
wayne 994
atingerea 994
guvernare 994
yoga 994
fere@@ 994
înt@@ 993
instant 993
marcus 993
susțin 993
îngrijorată 993
încredin@@ 993
târ@@ 993
n.@@ 993
ucis-o 992
dom 992
conec@@ 992
locuieşti 992
tradu@@ 992
motel 992
comerțului 992
agenția 992
obişnuită 992
mulțumim 992
viza 992
împă@@ 992
rab@@ 992
institu@@ 992
administrare 992
sinucidere 992
speră 991
amintire 991
combaterea 991
mersul 991
ul-@@ 991
turn 991
module 991
toaleta 991
urâtă 991
obligatoriu 990
tăţile 990
misiunii 990
mame 989
excelente 989
cereri 989
sursele 989
s. 989
obiectele 989
sărbătoare 989
predau 988
abili 988
1992 988
conversaţie 988
reu@@ 988
împ@@ 988
harvey 988
ticălosule 988
seze 988
blestemat 987
motoarele 987
acul 987
dezvăluie 987
delor 987
musulmani 986
ten 986
cuno@@ 986
recunoşti 986
feminin 986
alismul 986
sugerez 986
acor@@ 986
kin@@ 986
superioare 986
electricitate 986
gloria 985
dinaintea 985
consumatorii 985
însemnat 985
reduse 985
întunecat 985
ploaia 985
tivi 984
lucram 984
kov 984
bucure 984
recomanda 984
dolarul 984
tile 984
confrunta 983
repetă 983
competențe 983
distruse 983
generează 983
contribuit 983
vacanta 983
ajutoare 983
green 983
ney 983
clinică 983
45@@ 983
instalare 983
vremurile 982
fure 982
servesc 982
prelua 982
planificarea 982
nenorocită 982
zboare 982
vincent 981
aleargă 981
economi@@ 981
=@@ 981
duce@@ 981
forței 981
8:@@ 981
desene 981
cetățenii 981
infrastructura 981
direcția 980
finalizarea 980
whatsapp 980
campionatul 979
epi@@ 979
certat 979
fier@@ 979
esti@@ 979
je 979
povesti 979
rezolv 978
premium 978
clasei 977
încântată 977
înăl@@ 977
inii 977
dorinţă 977
soldaţii 977
săm 977
coada 977
procedură 977
devenim 976
prizonieri 976
managerul 976
gie 976
p-@@ 976
campion 976
nina 976
talentul 976
hard 975
log 975
suplimentară 975
plouă 975
res 975
lunga 975
nemaipomenit 975
nou@@ 974
gâ@@ 974
b. 974
atorului 974
ong 974
aero@@ 974
înțele@@ 973
dureze 973
cert 973
auziţi 973
schimbărilor 973
cauzele 973
comis 973
ang 973
câşti@@ 972
prezente 972
jun@@ 972
condiționat 972
locația 972
kh@@ 972
voluntari 972
fondurile 972
exercitați 972
instanţă 971
creatorul 971
vândute 971
nor 971
semi@@ 970
paradis 970
potrivesc 970
încălzire 970
îndeajuns 970
pază 970
drumurile 970
identificare 970
ag 969
indiciu 969
mal 969
cerințe 969
invatat 969
astep@@ 969
hiper@@ 969
apere 969
interesate 969
concentrare 969
recunoscute 969
twin 968
performanță 968
intai 968
şă 968
biserici 968
― 968
tonul 968
regional 968
transformarea 968
adună 967
cuba 967
ştiau 967
capit@@ 967
dc 967
experimente 967
deci@@ 967
intelege 967
soţului 967
adă 967
jefu@@ 967
fundamental 966
science 966
cuţit 966
împin@@ 966
cifra 966
nica 966
jersey 966
recomandate 966
conțin 966
descrierea 965
dinspre 965
dacă-l 965
deciziilor 965
gandesc 965
lupţi 965
asistent 965
spu@@ 965
ţine-te 965
pedeapsă 965
logica 964
grafică 964
conştient 964
arbitraj 964
bătălie 964
b-@@ 964
constantă 964
pacienți 963
8,@@ 963
jurnal 963
meriţi 963
cate@@ 963
wilson 963
cuptor 963
testament 963
abo@@ 963
bron@@ 963
studiilor 963
intreb 962
aria 962
1,5 962
victimelor 962
destui 962
mizerie 962
ave 961
declar@@ 961
călătorit 961
cruce 961
aleagă 961
aliza 961
întunericul 961
180 961
mah@@ 960
tiv@@ 960
asociația 960
organizaţii 960
implicarea 960
nelimitat 959
pălăria 959
profilul 959
săr@@ 959
bucură-te 959
medic@@ 959
dează 959
sinceră 959
format@@ 958
coastă 958
sustine 958
susținut 958
ţionale 958
tte 957
existența 957
julie 957
contactul 957
ologie 957
africii 956
măr@@ 956
diferitelor 956
mulţumită 956
lic 956
atiilor 956
college 956
nerăbdare 956
cata 956
examen 956
dosarele 955
regală 955
sap@@ 955
păcălit 955
întreprinderi 955
modalități 955
agenţia 955
fotbalul 955
alba 955
francezi 955
strânsă 955
acorduri 954
săptămânii 954
pâinea 953
laser 953
lovituri 953
ochelarii 953
deplină 953
primite 953
pregătiți 952
instala 952
vehicul 952
parul 952
pierdută 952
evite 952
săru@@ 952
aratat 952
duceţi 952
placa 952
anulat 952
arati 951
capabilă 951
program@@ 951
turistice 951
cauzat 951
amintim 951
carti 951
concediu 951
loc@@ 951
servere 950
sfântă 950
l. 949
israelului 949
zidul 949
smo@@ 949
orien@@ 949
morți 949
urat 949
ajului 948
functie 948
confirma 948
inovare 948
stăteam 948
deranjat 948
afirma 948
priveşti 948
minimă 948
comparaţie 947
puri@@ 947
70@@ 947
berea 947
teddy 947
y-@@ 947
accidente 947
agricultura 947
scăpăm 947
opţiune 946
impre@@ 946
of@@ 946
operaţie 946
dorinta 946
liceul 946
vestul 946
denumit 946
dacă-i 946
producători 945
implor 945
ouăle 945
reţeaua 945
angajament 945
văzută 945
fluxul 945
jesse 945
iubeste 945
cânţi 945
îmbrăcăminte 945
dureros 945
chan@@ 944
luarea 944
dou@@ 944
biroului 944
informaţia 944
adun@@ 943
cab@@ 943
consumatori 943
stabili@@ 943
întrebaţi 943
guvern@@ 943
exemplul 942
deget 942
alegem 942
conecta 942
muş@@ 942
curile 942
maimu@@ 942
qui@@ 942
blu@@ 942
adrian 942
sezi 942
ano@@ 941
town 941
melor 941
vizual 941
invat@@ 941
fat@@ 941
transmi@@ 940
explora 940
ă-te 940
personaj 940
riscului 940
scenariu 940
colaborarea 939
ă-l 939
asteaptă 939
avut-o 939
sig@@ 939
moral 939
amintesti 939
chimică 938
datorii 938
tească 938
elveţia 938
gat@@ 938
suprafața 938
promovează 938
ţit 937
ciclul 937
website 937
închiriat 937
îndrăzneşti 937
asigurăm 937
fondată 937
gară 936
deranja 936
rătăcit 936
fugiţi 936
stupid 936
marine 936
formularul 936
dulap 936
cântăre@@ 936
literatură 936
aprins 935
ţile 935
scăzută 935
grame 935
tã@@ 935
continent 935
întâlneşti 935
înţelept 934
marx 934
crăciunul 934
sondaj 934
închisoarea 934
neuro@@ 934
cutremur 934
poruncit 933
ung 933
atribu@@ 933
comparație 933
englez 933
inamicul 933
pachete 933
distribu@@ 933
masculin 933
minge 933
emisiile 933
petreci 933
factorii 933
îndeplinească 933
tragedie 932
gest 932
avand 932
incredibilă 932
1945 932
vasul 932
dick 932
cursului 932
red@@ 932
carlos 931
comandant 931
т@@ 931
wall 931
simţeam 931
baseball 931
dece@@ 931
clu@@ 931
cuvant 931
bili 931
facili@@ 930
mas@@ 930
concep@@ 930
dispoziție 930
destinate 930
braţul 930
bordul 930
alarma 930
glasul 930
consu@@ 929
gene@@ 929
lezi 929
primei 929
karen 929
locotenent 929
cetăţeni 929
furnizează 929
speranță 929
е@@ 929
gelos 929
kra@@ 929
transmit 929
meteo 929
joey 929
crizei 928
examenul 928
dem 928
nei 928
erori 928
formate 928
acordului 928
poker 928
încălcat 928
povești 928
preajma 928
cruci@@ 927
recunoaște 927
declară 927
designul 927
continuaţi 927
supus 927
aparthoteluri 927
celuilalt 926
bs 926
trac@@ 926
substanțe 926
indicat 926
infrastructură 926
incluzând 926
ciocolata 925
încăl@@ 925
curge 925
luke 925
aparate 925
protejate 925
catherine 925
depă@@ 925
descoperite 925
opțiunea 925
sã@@ 925
proceduri 925
iubită 924
fetei 924
activează 924
impar@@ 924
propun 924
concursul 924
construiesc 924
terapia 923
trimestru 923
prote@@ 923
calendar 923
căderea 923
tator 923
atacă 923
trăiește 923
fãcut 923
proba 922
tărie 922
redusă 922
etică 922
deal 922
portofelul 922
camionul 922
autori@@ 922
ward 922
diversitatea 921
sida 921
casino 921
intr-adevar 921
recenzie 921
pakistan 921
reac@@ 921
sovietice 921
furie 921
înmormântare 921
șeful 920
mată 920
lus 920
calificat 920
plantele 920
samsung 919
katie 919
gheață 919
d'@@ 919
sălbatic 919
aro@@ 918
obiceiurile 918
insi@@ 918
deschideţi 918
mergea 918
producă 918
mã@@ 917
consumă 917
absolvire 917
-un 917
cercetatorii 917
umplut 917
arelor 917
pune@@ 916
newsletter 916
com 916
inevitabil 916
capitală 916
non@@ 916
europeana 915
aștept 915
studenţi 915
lunar 915
investitori 915
costurilor 915
numerar 915
cunoaste 915
participanții 915
mite 915
speci@@ 915
setări 915
job 915
încărcat 914
dezgustător 914
actu@@ 914
asu@@ 914
așteptați 914
șansa 914
decedat 914
varianta 913
patruzeci 913
devenind 913
sofia 913
verificați 913
organizată 913
munţii 913
blue 913
elicopter 913
de-asta 913
ându-i 912
fireşte 912
supremă 912
analize 912
secțiunea 912
onului 912
v-ati 911
napoleon 911
uleiul 911
petrolului 911
recupera 911
puternica 911
criminali 911
senator 911
ficarea 911
refuz 911
indonezia 911
scen@@ 910
sanc@@ 910
cării 910
retrag 910
invit 909
ys 909
fură 909
strălucitoare 909
logie 909
existau 909
discuţia 909
mancare 909
sci@@ 909
ți-am 908
liu 908
informație 908
rana 908
tite 908
cher 908
alii 908
selor 908
1993 908
garda 908
fondat 907
inclu@@ 907
răniţi 907
antrenorul 907
guri 906
consolidarea 906
aniversare 906
interzisă 906
viză 906
morti 906
înregistrări 905
nesc 905
relatie 905
ec@@ 905
apariția 905
alizată 905
browser 905
doresti 905
chinezii 905
oprire 905
pornire 905
criminalul 905
internationale 904
realizare 904
pistă 904
măre@@ 904
ecranul 904
stimul@@ 904
arti@@ 904
plecarea 903
che 903
ân@@ 903
celulelor 903
inul 903
populaţiei 903
originală 903
n- 903
ii@@ 903
vindecat 903
treceţi 903
considerăm 903
tinut 902
definit 902
pariuri 902
anonim 902
cheltuit 902
moş 902
apasă 902
⁠ 902
zer 902
funcţiona 902
concepute 901
ico 901
aplice 901
ä@@ 901
scandal 901
atelier 901
cifrele 901
apeluri 901
ud 901
solomon 901
acţiunea 900
gea 900
atori@@ 900
susţinut 900
ism 900
investit 900
salu@@ 900
tesla 900
discut 900
apelul 899
aşezat 899
diferen@@ 899
extinsă 899
fer 899
doc 899
real@@ 899
stomacul 899
visa 898
rosie 898
demonstra 898
motorului 898
ivan 898
procurorul 898
consiliu 898
secre@@ 898
sesiune 898
explicaţie 898
distrat 898
terminaţi 897
dintâi 897
pasi@@ 897
clark 897
sosirea 897
mi-@@ 897
normă 897
deze 897
3.000 897
planului 897
doriti 897
sector 897
naz@@ 896
oceanului 896
ocup@@ 896
sfânta 896
ax@@ 896
artificială 896
instruc@@ 896
tipic 896
artei 895
înlocuit 895
echipajul 895
spitale 895
nationala 895
greseala 895
întâlnească 895
pere@@ 895
ya@@ 894
inch 894
frân@@ 894
eşte 894
francis 894
recunoască 894
dotări 893
salvăm 893
însuţi 892
apropiate 892
deri 892
penal 892
reforma 892
secretar 892
reaza 892
nedrept 892
suportul 892
bunico 892
cucer@@ 891
justiţie 891
diploma 891
cuţitul 891
surpriza 891
revoluţia 891
comentariile 891
optimi@@ 891
fericite 891
alicia 891
manu@@ 891
re-@@ 891
spori 891
urmărește 891
organizaţie 891
externă 891
sărac 890
vampir 890
protejez 890
câştige 890
livrate 890
informatiile 890
solicit@@ 889
intenţionat 889
costat 889
с@@ 889
-e 889
urmezi 889
căldura 889
distrugere 889
zilnice 889
ţel 889
vărul 889
asul 889
britanii 888
alertă 888
tal 888
d-ul 888
locui 888
pragul 888
pozitia 888
exprima 888
cuvântului 888
sunete 888
clienţilor 888
muncitorii 888
pedep@@ 888
violenţă 888
conectate 888
cumpărare 888
situatie 887
influenţa 887
disc 887
vi-l 887
interzise 887
depăşit 887
costume 887
mândrie 887
oportunitatea 887
asteptat 887
fanii 887
conflicte 887
morale 886
fani 886
finch 886
mainile 886
insule 886
parker 886
fiscal 886
contracte 886
mormântul 885
hal 885
parcurs 885
respectat 885
istul 885
avansată 885
ţată 885
oms 885
directe 885
separ@@ 885
aa 885
gordon 885
deser@@ 885
navei 885
carierei 884
spun@@ 884
fix@@ 884
sălbatice 884
agenda 884
distanta 884
dansează 884
soco@@ 884
cânte 884
lovesc 884
shaw 884
ist 883
aparut 883
credi@@ 883
eco@@ 883
venitul 883
anţi 883
900 883
mântuirea 883
ocupăm 883
alerga 883
barbatii 883
meritat 883
comment 882
paza 882
chei 882
genial 882
efectuarea 882
realizeze 882
similară 882
rapor@@ 882
jan 881
lăsați 881
arhitectura 881
respinge 881
materia 881
influența 881
limi@@ 881
congresul 881
pol@@ 881
pune-l 881
verii 881
îngerul 880
rude 880
adoptarea 880
acceler@@ 880
perspective 880
verificarea 880
râd 879
urmărim 879
magne@@ 879
jupiter 879
vizualizare 879
concedi@@ 878
furtuna 878
mearga 878
parlament 878
documentul 878
defini@@ 878
› 878
singurele 878
organiza 877
potenţial 877
mergeți 877
pipi 877
dând 877
stresul 877
ati-va 877
shar@@ 877
conştiinţa 877
34@@ 877
alexandru 877
pune-o 877
pâr@@ 877
shanghai 877
problemei 876
biologie 876
studiază 876
sărutat 876
țin 876
duh 876
securităţii 876
mișcarea 875
britanici 875
cos 875
comerțul 875
combină 875
spion 875
nate 875
urechea 875
regiunile 875
făceai 875
compus 875
virtuală 875
misterios 875
subsol 875
produc@@ 875
-urilor 875
islamic 874
legilor 874
primește 874
istoricul 874
tragem 874
1970 874
st. 874
atura 874
țin@@ 874
strat 874
ong@@ 874
tăcut 874
surorile 874
zboruri 874
regre@@ 874
intens 873
complexă 873
rețineți 873
preotul 873
sărăcie 873
sheldon 873
personalizate 873
ţigară 873
explici 873
gps 873
indicii 873
discuții 873
eur 873
lis 873
siv 873
instrumentul 873
grant 872
dorești 872
reacţie 872
frumuseţe 872
gradina 872
amentelor 872
egală 871
actiuni 871
țit 871
repeta 871
imobiliare 871
tech 871
pre-@@ 871
rețelele 870
înscris 870
sluj@@ 870
aua 870
-ți 870
lap@@ 870
astepta 870
conferința 870
bomboane 869
engle@@ 869
mickey 869
ieni 869
tară 869
furt 868
amenințare 868
profunde 868
pacienţi 868
esențial 868
agenţi 868
cuprinse 867
variază 867
întrerupt 867
revizuire 867
liv@@ 867
inf@@ 867
activa 867
mâncaţi 867
implicit 867
dezi 866
les@@ 866
legăturile 866
discuţii 866
sărbătorim 866
linux 866
ambasada 866
înşişi 866
personajul 866
stabil 866
anţă 865
intorc 865
castigat 865
originale 865
cativa 865
sfâr@@ 865
kal@@ 865
can 865
pina 865
rob 865
placea 865
oțel 865
instituțiile 864
uman@@ 864
alu@@ 864
cereale 863
fericiți 863
nasc 863
descărcați 863
zgomotul 863
vizibil 863
căsători 863
creator 863
însurat 863
energetic 863
aripi 863
tipa 863
erea 863
imb@@ 862
regulamentul 862
hat@@ 862
cuvine 862
călătoresc 862
transforme 862
alizate 862
provocarea 862
omor@@ 862
ity 862
free 861
cazurilor 861
computere 861
facilități 861
adecvată 861
oni 861
florar 861
west@@ 861
fel@@ 861
ţiune 861
caci 861
bell 861
dumneze@@ 861
iertat 861
aplicată 861
barbara 860
dice 860
nationale 860
tarul 860
isaac 860
castiga 860
ule@@ 860
evalua 860
demn 860
ascu@@ 860
politie 860
nomin@@ 860
virtu@@ 860
milor 860
gravidă 859
credinta 859
fiindca 859
avertizez 859
supravegherea 859
generat 859
catolică 859
dispari 859
asemeni 858
od@@ 858
alexander 858
revenim 858
drep@@ 858
bucurești 858
intelectuală 857
operează 857
jul 857
prietenului 857
publicată 857
110 857
uau 857
tion@@ 857
loveşte 857
flash 856
abor@@ 856
competi@@ 856
12.@@ 856
lipsește 856
ucrainei 856
imperiului 856
răz@@ 856
liniste 856
proceselor 856
serverul 856
strategică 855
țărilor 855
gabriel 855
incepand 855
ut@@ 855
îngro@@ 855
sey 855
pad@@ 855
glonţ 855
naţion@@ 854
istanbul 854
stalin 854
naşte 854
vase 854
clienti 854
drogurile 854
medicamentul 854
aşi 853
tratamente 853
președintelui 853
grupurile 853
nevoi 853
iubi@@ 853
petre@@ 853
bil@@ 853
mişcă-te 853
ne-o 853
gus 853
nr.@@ 852
bucureşti 852
terorismului 852
alăture 852
sparge 852
alegerilor 852
stark 852
miş@@ 852
14:@@ 852
aga 852
ziceţi 852
bâr@@ 852
inchisoare 851
cooper 851
poruncile 851
curate 851
milano 851
pop 851
6:@@ 851
slabi 851
unica 850
atentia 850
activat 850
slava 850
iadul 850
2. 850
â 850
înţelepciunea 850
pului 850
singurii 850
incerc 850
iubesti 850
avioanele 850
venirea 850
urbane 850
funcționa 849
colonelul 849
tratarea 849
proaspete 849
anuală 849
comi@@ 849
coloni@@ 849
aseră 849
bb@@ 849
cc 849
distrezi 849
promi@@ 849
rapoartele 849
vul@@ 848
lichid 848
împache@@ 848
bunã 848
beneficiază 848
raza 848
iem 848
100@@ 848
cetăţean 848
nele 848
dacă-mi 848
tratează 848
conexiunea 848
nenumărate 848
opus 847
tip/tipuri 847
vizitați 847
pot@@ 847
urgenta 847
centrala 847
atra@@ 847
anuale 846
bicicletă 846
tutun 846
înființată 846
samuel 846
angliei 846
topul 846
băieti 846
ti-e 846
tensiune 845
încalcă 845
gh 845
opriţi-vă 845
ex 845
rezultă 845
strica 845
bucă@@ 845
vene@@ 844
petreacă 844
câți 844
poluarea 844
impresie 844
turismului 844
guvernator 844
cucerit 844
institutului 844
istă 844
ps@@ 844
angaja 844
detectivul 844
confuz 844
inat 843
rin@@ 843
riscurilor 843
ente 843
7:@@ 843
editor 843
hoţ 843
ascundă 843
încheia 843
tranzac@@ 843
oficialii 843
senz@@ 842
cobor 842
finalizat 842
candidat 842
complic@@ 842
tron 842
kon@@ 841
promisiune 841
şcoli 841
răsărit 841
abu 841
focului 841
davis 841
pe-@@ 841
emergente 841
led 841
pregatit 840
suspec@@ 840
toamnă 840
christian 840
organizare 840
bagă 840
tunel 840
îngeri 840
lecţie 840
cec 839
rachetă 839
carrie 839
român@@ 839
uriaş 839
simţim 839
cetăţenii 839
reuși 839
rug@@ 839
virginia 839
ismul 838
şu@@ 838
înspre 838
gerii 838
calendarul 838
seo 838
lumini 838
crucea 838
mărfuri 838
atã 837
guvernatorul 837
miles 837
descarcă 837
indica 837
teorii 837
trezeşti 837
tratate 837
managementului 837
modifică 837
spuneți 837
co2 837
înviat 837
renunţă 837
pacientului 837
informa@@ 837
federală 837
adolescen@@ 837
treimi 836
firmele 836
celorlalte 836
procedurile 836
depla@@ 836
stân@@ 836
mos 836
clădirii 836
critice 836
judeca 835
nen@@ 835
preda 835
incerca 835
razboiul 835
cupoane 835
multumim 835
concentreze 835
tos 835
oricui 835
flux 835
informatică 835
í@@ 835
inov@@ 835
integrat 834
maximum 834
compasiune 834
non 834
justin 834
încurajează 834
frumoşi 834
forum 834
pedepsit 834
iește 834
căsătoriţi 834
clubului 834
teritoriu 834
22@@ 834
școlii 833
negocieri 833
dreptatea 833
revină 833
ili@@ 833
http 833
plini 833
dere 832
jessica 832
anumitor 832
marin 832
lasă-i 832
solid 832
aduna 832
succesului 832
tas@@ 832
elegant 832
sca 832
mini 832
activităţile 831
importanță 831
indu-se 831
spiritual 831
creştin 831
de-ai 831
aţi-l 831
târfa 831
dormitoare 831
grand 831
serii 831
prob@@ 831
bul 830
160 830
ște@@ 830
lasă-ne 830
occidentale 830
slo@@ 830
operaţiunea 830
inspi@@ 830
dansez 830
get 830
rudele 830
mişti 830
ado@@ 830
bab@@ 829
iro@@ 829
о@@ 829
solide 829
key 829
ală@@ 829
dinţii 829
ingineri 829
bacterii 829
scaune 829
charlotte 829
germanii 829
contacte 829
începeți 828
accepţi 828
sânii 828
îngrijirea 828
rân@@ 828
revistă 828
mere 828
sfera 828
rază 828
opțiunile 828
conexiuni 828
fericita 828
rosu 828
sex@@ 827
ați@@ 827
kennedy 827
situată 827
genetică 827
egalitate 827
ajuti 827
împărtă@@ 827
cunoaștere 827
lam 827
pp@@ 826
low 826
zâmbetul 826
participanți 826
acceptate 826
treburi 826
prietenos 826
deces 826
cord 826
grabă 826
izo@@ 826
educaţia 826
itului 826
bai@@ 826
ghicesc 825
cauciuc 825
congresului 825
ras 825
box@@ 825
suprem 825
litri 825
diferență 825
center 825
unesco 825
regul@@ 825
distru@@ 825
şi-ţi 825
mamele 824
39@@ 824
scriere 824
esențială 824
open 824
zică 824
deau 824
old 824
promite 824
vag@@ 824
standardul 824
grăbiţi-vă 824
pregăteşte 824
alimen@@ 824
cererile 824
tiilor 823
cincizeci 823
1960 823
obțină 823
așteptare 823
love@@ 823
atata 823
momentele 823
cetățeni 823
lansează 823
înălţime 823
teoretic 823
estul 823
murdare 823
acid 823
adele 823
cali@@ 823
terțe 823
industrii 822
ratele 822
voi@@ 822
cluj 822
somnului 822
instru@@ 822
michelle 822
traficului 822
împărat 822
urc 822
examin@@ 821
genetice 821
că-s 821
considerabil 821
puşcărie 821
construcție 821
cite@@ 821
ye 821
celula 821
sportiv 821
număr@@ 820
templul 820
jackie 820
autoriz@@ 820
beton 820
mobili@@ 820
întrebăm 820
conflictul 820
parti@@ 820
aluminiu 820
împăr@@ 820
încălzirea 820
color 819
protocol 819
dramatic 819
însu@@ 819
federale 819
intalnire 819
informaţiilor 819
scăderea 819
zo 819
cuprins 819
absolvit 819
aleasă 819
munţi 818
testarea 818
condusă 818
stabilă 818
şte-l 818
obiceiuri 818
eli 818
asigurați-vă 817
operă 817
aprinde 817
stâng 817
conţinut 817
gerea 817
deschidem 817
valoroase 817
implicată 816
înregistrată 816
subiec@@ 816
invit@@ 816
dure 816
tablou 816
bert 816
punc@@ 816
puțini 816
iniți@@ 816
dela 815
absolută 815
pregătim 815
bau@@ 815
vamale 815
navele 815
locaţia 815
incep 815
aventura 815
uşile 815
malul 815
gândiţi 815
săvâr@@ 814
formată 814
video@@ 814
prieten@@ 814
navig@@ 813
depind 813
conditiile 813
rulează 813
colectarea 813
certificare 813
învâr@@ 813
export 813
vale 813
ţate 813
declaraţia 813
proprietar 813
mone@@ 813
lilor 813
arhitectură 812
rup 812
biți 812
opreste-te 812
may@@ 812
abby 812
performanța 812
români 812
len 812
experimentat 812
destinație 812
şi-mi 812
șii 812
sugestii 811
întunecate 811
cy 811
sche@@ 811
îmbunătăţi 811
şte-i 811
civiliz@@ 811
du-le 811
verifici 811
aplicaţii 811
traver@@ 811
shi 811
privinta 811
terra 811
porumb 811
ascultare 811
obiectivelor 810
alimentar 810
țion@@ 810
temperatură 810
aturi 810
plătim 810
interesați 810
stag@@ 810
dădea 810
bl@@ 809
limbile 809
reclame 809
ross 809
împrumu@@ 809
enilor 809
ipad 809
ucisă 809
fabrici 809
capabile 809
consiliere 809
um@@ 809
concuren@@ 809
semin@@ 809
urmăreşti 809
jucărie 809
acțiunea 808
ti-l 808
psd 808
muzicii 808
locații 808
curi 808
capitalul 808
zan@@ 808
long 808
laş 807
cărbune 807
sebastian 807
realizezi 807
găsești 807
piețe 807
extraordinare 807
întune@@ 807
ea@@ 806
0.000 806
izolat 806
testa 806
apropiem 806
temele 806
oz@@ 806
resort 806
tta 806
greșeală 806
manifestă 806
judecat 806
blochează 806
gândești 806
jucam 805
relax@@ 805
cs 805
reci 805
sată 805
încuraj@@ 805
palma 805
minuni 805
sfântului 805
şedinţă 805
înceta 805
conectare 805
eaza 804
conce@@ 804
turneu 804
observă 804
asisten@@ 804
distrugi 804
autostrada 804
ază-te 804
deşert 804
introducere 804
numea 803
violent 803
energetice 803
o.@@ 803
studi@@ 803
descri@@ 803
yang 803
comunităţii 803
angajații 803
gluma 803
let@@ 803
arie 803
transformare 803
eticheta 802
gului 802
forţat 802
top@@ 802
învăţă@@ 802
manageri 802
ab 802
inamic 802
pacienţii 802
bună@@ 802
şcolii 801
130 801
japoneze 801
lift 801
referire 801
promite-mi 801
bay 801
descopere 801
creativ 801
control@@ 801
ordon@@ 801
citate 801
apropiată 800
cameron 800
formular 800
petreceri 800
zori 800
adus-o 800
transmise 799
gloanţe 799
țină 799
prezentului 799
manieră 799
saul 799
discipline 799
soluţia 799
-de 799
tras@@ 799
realizată 799
protocolul 799
copacii 799
blogul 799
plimb@@ 799
blockchain 799
războaie 799
povestesc 798
întârzii 798
plac@@ 798
armonie 798
nicolae 798
nancy 798
aparţin 798
consuma 798
fumatul 798
amintiţi 798
gunoiul 798
lly 798
averti@@ 798
ghinion 798
faimos 798
bloc 798
dumitale 798
opre@@ 798
glumeam 797
promiţi 797
urmărirea 797
umi@@ 797
urmatoarea 797
practicile 797
pacate 797
țintă 797
finanțare 797
configur@@ 796
murphy 796
superb 796
prăjituri 796
team 796
utiliz@@ 796
icului 796
neobişnuit 796
socializare 796
clinice 796
potrivi 796
pregătească 796
ǎ 796
solutii 796
poveştile 796
mala@@ 796
ku 795
lurilor 795
ao 795
revoluția 795
morții 795
cule@@ 795
emisiune 795
monitorizarea 795
ascultăm 795
prezentă 795
scrisorile 795
ţional 795
ştiinţifice 794
cautare 794
presupus 794
verificăm 794
marilor 794
amentul 794
violente 794
comoara 794
mergând 794
excep@@ 794
nathan 794
studios 793
garan@@ 793
unora 793
egale 793
exactă 793
calcu@@ 793
miscare 793
puiul 793
împreuna 793
coşmar 793
mască 793
mit@@ 793
îngrozitoare 793
poziţii 793
caroline 792
karl 792
hannah 792
speranța 792
iniţi@@ 792
subliniază 792
necunoscută 791
rănită 791
televizorul 791
diavolului 791
forte 791
justiție 791
daune 791
glume 791
profitul 791
cunoştinţe 791
buze 791
amicul 791
mata 791
vac@@ 791
mărit 790
sal 790
obţin 790
moşten@@ 790
truc 790
transferat 790
vizualizari 790
rasa 790
împins 790
titluri 789
tici 789
convenabil 789
dovedesc 789
ştiind 789
lectură 789
alist 789
cs@@ 789
prelucrare 789
protectia 789
actuala 789
neil 789
accidentul 788
batem 788
/a 788
celalalt 788
orașele 788
menținerea 788
aprecia 787
economiile 787
apro@@ 787
antonio 787
lacrimile 787
depusă 787
porno 787
lesc 787
executat 787
sab@@ 787
tăcerea 787
barry 787
camer@@ 787
recunoscută 787
sav@@ 787
dării 787
stinge 786
vecini 786
scal@@ 786
dezbatere 786
brut 786
mine@@ 786
diamante 786
substan@@ 786
cole 786
speranta 785
spaţială 785
judecă@@ 785
istori@@ 785
republic 785
furate 785
uriaşă 785
vedeam 785
grafice 785
integrare 785
crimele 785
se-n@@ 785
alun@@ 784
român 784
ti-o 784
a-si 784
cercul 784
drogat 784
nopţi 784
clar@@ 784
hot 784
explice 784
derek 784
batman 784
ază-l 784
bucurăm 783
oţel 783
statistici 783
delicios 783
03 783
ieze 783
dylan 783
kyle 783
insecte 783
viețile 783
ți-a 783
ţinând 783
sing 783
luci@@ 783
citiţi 783
creştini 783
normele 782
sis 782
atlantic 782
negocierile 782
ieșire 782
inver@@ 782
desert 782
alimentelor 782
afectată 782
criterii 782
monica 782
ându-l 782
acoper@@ 782
greg 782
alergat 782
organizează 781
atena 781
plângere 781
tipului 781
minunata 781
specializate 781
bili@@ 781
sy 781
chile 781
înşine 781
întreprinderile 781
199@@ 781
şilor 781
aha 781
cumparat 781
dragostei 781
cuvantul 780
forţelor 780
parere 780
gazdă 780
zilnică 780
întelegi 780
sterline 780
aflau 779
urban 779
interval 779
scazut 779
surilor 779
risca 779
viol@@ 779
solară 779
campusul 779
aţ@@ 779
aplicabile 779
incar@@ 779
nea 779
mergeam 778
înregistra 778
perchezi@@ 778
stricte 778
pictură 778
azi@@ 778
rezultatelor 778
mondiala 778
baby 778
fetita 778
fund@@ 778
japoniei 778
a/@@ 778
solutie 777
mutăm 777
dennis 777
pisicile 777
fiinţe 777
actori 777
maşinii 777
transfor@@ 777
distan@@ 777
aţă 777
sef 777
trimiterea 777
greşeala 776
flota 776
island 776
ceasuri 776
vechile 776
gândi@@ 776
ameste@@ 776
cafenea 776
provo@@ 776
provincia 776
cluburi 776
veci 776
fugim 775
benzi 775
10-@@ 775
mîna 775
clasică 775
găuri 775
încer@@ 775
împăratului 775
aşteptare 775
urmărească 775
explor@@ 774
plina 774
afacerii 774
lăm 774
stadiul 774
lucr@@ 774
marți 774
verifice 774
retragere 774
baiatul 773
finala 773
gia 773
depărtare 773
mărci 773
uite-o 773
lian 773
oglinda 773
înscrie 773
marty 773
surprinde 773
categoric 773
nia 773
junior 773
living 772
egiptului 772
bucata 772
expediere 772
nire 772
roluri 772
lawrence 772
ziarele 772
tag@@ 772
porni 772
armat 772
politicilor 772
marco 772
certificatul 772
itu@@ 772
link-uri 771
bietul 771
vizualizări 771
toler@@ 771
camioane 771
amabil 771
sâr@@ 771
recomandăm 771
zăpada 771
înțelegi 771
rească 771
exce@@ 770
bir@@ 770
proiectelor 770
profetul 770
cărțile 770
nord-@@ 770
use 770
însemne 770
price@@ 770
preţurile 770
miro@@ 770
spermie@@ 770
printesa 769
făcuse 769
bucuri 769
clinton 769
flăcări 769
presu@@ 769
viziteze 769
reţinut 769
we 769
pozitie 768
pată 768
averea 768
religios 768
fuseseră 768
tină 768
key@@ 768
timpurile 768
delta 768
familiilor 768
autorii 768
duhului 768
plănu@@ 768
uniformă 768
certificate 768
energetică 767
rio 767
relatii 767
disney 767
stocate 767
uk 767
înregistrările 767
arun@@ 767
expunerea 767
intalnit 767
funcţii 767
şterge 767
usb 767
atace 766
fantome 766
veşnic 766
curi@@ 766
facute 766
tag 766
parțial 766
râului 766
căutând 766
prinţesa 766
barney 766
trucuri 766
plân@@ 765
2030 765
plictisitoare 765
reviste 765
phi@@ 765
site@@ 765
matthew 765
trimiţi 765
avraam 765
kri@@ 765
hr@@ 765
steagul 765
dge 764
sire 764
rareori 764
tyler 764
misca 764
succe@@ 764
înclin@@ 764
reducă 764
cheltu@@ 764
filtru 764
recuperarea 764
adre@@ 763
simţ 763
sic@@ 763
fotografiat 763
numita 763
plast@@ 763
molly 762
itati 762
dormitorul 762
administrative 762
componentă 762
buchete 762
estimat 762
impl@@ 762
blestemul 762
descoperiri 762
înţele@@ 762
acorde 762
privința 762
ţi-le 761
deasemenea 761
decurs 761
i… 761
365 761
url 761
inst@@ 761
residence 761
wordpress 761
pregătite 761
unităţi 761
disperare 761
proasta 761
doreste 761
renun@@ 761
iertarea 761
spațială 761
m. 761
margaret 761
obținerea 761
rup@@ 761
trebuiască 760
teoretice 760
înşeli 760
libera 760
culci 760
lup 760
prive@@ 760
hm 760
edu@@ 760
carduri 760
ându-ne 760
drace 760
sanatatea 760
broderie 760
răsplă@@ 760
ingrediente 759
xx 759
suprafata 759
mândria 759
pălărie 759
diferă 759
omorâm 759
ieftină 759
jefuit 759
rânduri 759
aterizat 758
surprin@@ 758
intenționează 758
orilor 758
diego 758
uneia 757
bunurilor 757
trimite@@ 757
grafie 757
prăbuşit 757
geau 757
porneşte 757
unde@@ 757
conferinţă 757
ştirile 757
candi@@ 757
baschet 757
libertăţii 756
vip 756
simbolul 756
îndo@@ 756
ono@@ 756
imun@@ 756
osul 756
acceptăm 756
lina 756
fă-ţi 756
golful 756
paragraful 756
oşi 756
rană 756
modificate 755
voiau 755
punte 755
lie@@ 755
.it 755
rezonabil 755
tăia 754
seste 754
anche@@ 754
gara 754
parametrii 754
finale 754
australian 754
romane 754
discuție 754
insistat 753
ferestrele 753
secunda 753
biletele 753
walt 753
temperaturi 753
coman@@ 753
vindem 753
datorezi 753
origin@@ 753
v-au 753
admitere 753
ary 753
ot@@ 752
bărbaţilor 752
mişcaţi 752
existent 752
staţie 752
alătura 752
bond 752
contine 751
parti 751
alin 751
fici 751
concepte 751
confrun@@ 751
ajutaţi 751
poezia 751
subven@@ 751
fro@@ 751
angajare 751
antibiotice 751
zări 751
regal 751
contactat 750
alune@@ 750
fica 750
compromis 750
partide 750
juan 750
țiune 750
desfiin@@ 750
academiei 750
zăm 750
jeremy 750
vele 750
haos 750
simul@@ 750
activ@@ 750
pensie 749
existenta 749
gasesti 749
cui@@ 749
nepotrivit 749
spaniol 749
dori@@ 749
concentrăm 749
otră@@ 749
înlocu@@ 749
personaje 749
doamnei 749
1950 749
teşti 749
trupa 749
întrebe 749
implic@@ 748
răspândit 748
profesore 748
trupe 748
rezumat 748
jurnalist 748
t. 748
pof@@ 748
aterizare 748
comerţ 748
excelență 747
partenere 747
economica 747
urăşti 747
bursă 747
hall 747
ãm 747
alarmă 747
încetaţi 747
salt 747
wan 747
tatori 747
uşurinţă 747
conștient 747
virtuale 747
favori@@ 746
tâmpit 746
constitu@@ 746
frunte 746
câ@@ 746
intenţia 746
funcţion@@ 746
altundeva 746
îndreptat 746
combin@@ 746
utilizaţi 746
mobilier 746
16:@@ 746
vită 745
rusine 745
doarmă 745
temi 745
cocaină 745
îndrăgostită 745
corespunde 745
avertizare 745
chemaţi 745
multi-@@ 745
sensibile 745
stabilească 745
faraon 745
tăților 745
home@@ 745
particip@@ 745
pictura 745
02 744
exclu@@ 744
iilor 744
scoală 744
bunăstarea 744
cipru 744
mmm 744
hardware 744
învăţăm 744
îndrep@@ 744
06 744
eventual 744
scula 744
colecta 744
asteptati 744
explodat 744
fruntea 744
mental 743
ţi-@@ 743
reese 743
angajeze 743
selectat 743
firea 743
combinație 743
fuge 743
forţe 743
șef 743
gul@@ 743
''@@ 743
amuzantă 743
distra@@ 743
studenţii 743
ruşii 742
piesele 742
doctori 742
inutile 742
rămase 742
celebru 742
încheierea 742
rezistenţă 742
space 742
creatură 742
140 742
cesc 742
evacu@@ 742
tranzacții 741
integrate 741
geantă 741
gasim 741
suferinţă 741
911 741
mați 741
populaţie 741
ure 741
clasele 741
sky@@ 741
obţină 741
spațiale 741
colectiv 741
lari 740
salariile 740
recol@@ 740
abu@@ 740
după-amiaza 740
aflam 740
curentul 740
suferinţa 740
torie 740
3. 740
închirieri 740
2,5 740
dovedeşte 739
iubea 739
air@@ 739
ajele 739
suportă 739
coco@@ 739
timpurie 739
recuper@@ 738
cerinţele 738
tant 738
stefan 738
infinit 738
postuniversitare 738
ira 738
ful@@ 738
ucigaşul 737
bucur@@ 737
colabor@@ 737
copyright 737
feder@@ 737
produ@@ 737
vârste 737
posibilul 737
călcat 737
nebun@@ 736
parfum 736
supăra 736
has@@ 736
‚@@ 736
drăguț 736
llo 736
rex 736
congres 736
părinților 736
reuşeşti 735
evidente 735
ultim 735
auzit-o 735
cripto@@ 735
iveală 735
utili@@ 735
câștigă 735
sea 735
ioase 735
scumpă 735
von 735
muri@@ 735
mizeria 735
imperiu 735
supliment 735
ren 734
fericirii 734
zvonuri 734
prizonier 734
scrierea 734
actiunile 734
cincilea 734
salon 734
semestru 734
satana 734
maiestate 734
insul@@ 734
clă@@ 733
creșterii 733
nikita 733
comportă 733
tras-o 733
open@@ 733
convine 733
vasele 733
afiş@@ 733
garaj 733
fabri@@ 732
ajun@@ 732
raportului 732
lle 732
cântece 732
vic 732
căl@@ 731
beţi 731
play@@ 731
astepti 731
muzicale 731
ă-i 731
uş@@ 731
v-o 731
import 731
alcoolul 731
petrecem 731
reginei 731
găsi@@ 731
spor@@ 731
obişnu@@ 730
sărăciei 730
perfecta 730
rit@@ 730
sud-@@ 730
încercări 730
uşi 730
nes 730
anți 730
obligatorii 730
regatului 730
marelui 730
străzii 730
fascinant 730
cinstea 730
măr 730
ţărilor 729
elementul 729
ţine-ţi 729
mentale 729
stăpân 729
km@@ 729
evoluţia 729
eliber@@ 729
puțină 729
însăși 729
apus 729
anti 729
împărăţia 729
pră@@ 729
ătoare 729
mită 729
animate 729
degra@@ 729
locali 728
fax 728
curente 728
reprezentant 728
pit 728
compatibil 728
perioadei 728
spitalului 728
tiune 728
cazut 728
vota 728
tz@@ 728
valorilor 728
acordate 727
liste 727
națion@@ 727
distanţa 727
cambridge 727
repeti@@ 727
stabilitate 727
rezerv@@ 727
iute 727
mil 727
seif 727
loca@@ 726
actualizate 726
ierea 726
singur@@ 726
înregistrează 726
spera 726
i-l 726
win 726
ață 726
evanghelia 726
spi@@ 726
americ@@ 726
stic@@ 726
scoate@@ 725
distrăm 725
nenorocita 725
maturi@@ 725
scenariul 725
derea 725
spec@@ 725
angajaţii 725
lab 725
mânia 725
osi 725
îndrepta 725
ită@@ 725
certific@@ 725
nu-și 724
necunoscute 724
cunoașterea 724
pasagerii 724
şte-te 724
rula 724
frontieră 724
cioc@@ 724
documen@@ 724
flexibil 724
științific 724
adu-l 724
grozave 724
funcţionat 724
astro@@ 724
lordul 724
ange@@ 724
blestem 724
colegul 724
memb@@ 724
se-ntâmplă 724
tățile 724
soluția 723
mântuitorul 723
fructele 723
clara 723
studieze 723
hay@@ 723
abili@@ 723
filipine 723
urci 723
districtul 722
antice 722
proprietarii 722
descurcă 722
arat@@ 722
utilă 722
clopo@@ 722
ataș@@ 722
05 722
obo@@ 722
administrația 722
jon 722
supuse 721
gigan@@ 721
tip@@ 721
ându-le 721
prinşi 721
vizitează 721
nest@@ 721
instrucțiuni 721
obtinerea 721
nokia 721
datoriile 721
polu@@ 721
sri 721
şofer 721
depozitare 720
permi@@ 720
zen@@ 720
universală 720
dubla 720
făp@@ 720
pib 720
melodia 720
ego@@ 720
alism 720
dacă-ţi 720
ucigaş 720
cool 719
steven 719
livrarea 719
informația 719
iste 719
confruntat 719
obiceiul 719
epocă 719
respin@@ 719
surorii 719
-si 719
amor@@ 719
ellen 719
dobândi 719
gb 719
compara 719
centrele 719
reparat 719
siuni 719
vedetă 718
critici 718
jin 718
urmez 718
individuală 718
despăr@@ 718
bla@@ 718
zic@@ 718
materi@@ 718
temut 718
recomandări 718
conving 717
credincio@@ 717
cheama 717
democrat 717
colo 717
care-mi 717
amendă 717
shane 717
dep@@ 717
comuna 717
emisiilor 717
tită 716
tatei 716
importanţa 716
funcționeze 716
sally 716
schimbării 716
selectate 716
legendă 716
evenimentelor 716
terori@@ 716
procuror 716
burg 716
n-as 716
domni@@ 716
russell 716
sărăcia 716
andro@@ 716
şoferul 716
hotărârea 715
intimitate 715
corpurile 715
caritate 715
sse@@ 715
ascun@@ 715
sectorului 715
fibre 715
netflix 715
sera 715
rest 715
eficiența 715
cealalta 714
350 714
fox 714
informației 714
putinţă 714
remarcabil 714
clasice 714
direcție 714
function@@ 714
alaska 713
şit 713
exerciții 713
rang 713
mn@@ 713
expor@@ 713
iubiţi 713
vo 713
eviden@@ 713
forțelor 713
umăr 713
trimi@@ 713
ofen@@ 713
mel 713
jacob 712
ticălosul 712
daţi-i 712
klaus 712
vite@@ 712
ole 712
autorizat 712
înțelegeți 712
şansele 712
intimi@@ 712
ționat 712
yu 712
albastre 712
numelui 711
glu@@ 711
obstacole 711
pieptul 711
explozia 711
ller 711
conectați 711
ap 711
descărcat 711
dezvălui 711
denumire 711
intereselor 711
acţionează 711
propor@@ 711
destulă 711
transportului 710
atingere 710
securi@@ 710
comunități 710
organismului 710
pale@@ 710
ități 710
loveşti 710
mentele 710
plătiţi 710
hotărâre 710
15:@@ 710
anță 710
crist@@ 710
harris 709
ţionat 709
ferm 709
funcţioneze 709
mr 709
protej@@ 709
icilor 709
tãu 709
venus 709
tehnologiilor 709
franceza 709
ulterioare 709
dedicată 708
ruşi 708
pul 708
biciclete 708
egoist 708
legislația 708
niţi 708
spionaj 708
4.000 708
raspun@@ 708
cunoaşterea 708
hau@@ 708
nefericit 708
implicaţi 708
absurd 708
primiţi 708
sfi@@ 707
cră@@ 707
lucas 707
internationala 707
opune 707
firesc 707
tire 707
anexa 707
uti@@ 707
destin 707
-ma 707
iene 707
rou@@ 707
eliberează 706
incal@@ 706
oficiali 706
secţie 706
ina@@ 706
aduce@@ 706
minerale 706
reala 706
sîntem 706
lăs@@ 706
valoros 706
haideți 706
civili 706
demnitatea 706
°c 706
dă-o 706
reuniune 706
siune 705
machiaj 705
școlile 705
alei 705
ü@@ 705
diane 705
închizi 705
apreciază 705
efectuează 705
dietă 705
excepţie 705
slăbiciune 705
gurile 705
dell 705
studen@@ 705
guverne 705
pămân@@ 705
declara 705
romaniei 705
lim 705
clipe 705
trădare 704
confir@@ 704
iată-l 704
grăbi 704
queen 704
adoptată 704
veşnică 704
pauza 704
funcțiile 704
homosexual 704
consultanță 704
cadre 704
iranului 703
evreilor 703
booking.com 703
ml 703
martorii 703
evoluția 703
ther@@ 703
iluminat 703
doză 703
13:@@ 703
ay 703
imaginii 702
impuse 702
penală 702
dăruit 702
editare 702
sculp@@ 702
interesată 702
tala 702
plătite 702
programat 702
acoperite 702
kor@@ 702
04 702
frecven@@ 702
prost@@ 702
adâncime 702
ń@@ 702
cos@@ 701
tribunalul 701
ball 701
ambal@@ 701
tren@@ 701
walker 701
furnizorul 701
conservarea 701
ționa 701
ţigări 701
asigură-te 701
mall 701
chen 701
nai@@ 701
festival 701
asi 701
obișnuită 701
ieşirea 701
antul 700
italiei 700
ismului 700
vorbele 700
părului 700
todd 700
nim 700
stația 700
raportează 700
williams 700
animalul 700
fondatorul 700
organisme 700
ena 700
fundația 699
wen@@ 699
scapa 699
lungimea 699
umblă 699
de-aia 699
prevederile 699
deşteaptă 699
creezi 699
prostule 699
propriilor 699
extern 699
frumusețea 699
pieţei 699
controlate 699
probele 699
previous 699
iepure 699
controleze 699
scăzute 699
aceleasi 699
chinezesc 699
simboluri 699
regiunii 699
colonele 699
rul@@ 698
gândiți-vă 698
coali@@ 698
masive 698
sfârşi 698
jamie 698
rușine 698
stabilitatea 698
secţia 698
coincidenţă 698
concrete 698
conștienți 698
refugiați 698
invită 698
adânci 698
dă-@@ 698
iubească 698
influenţă 697
politicieni 697
tiţi 697
tehnologic 697
lini@@ 697
mario 697
antrenat 697
împart 697
poto@@ 697
cho@@ 697
înde@@ 697
lisabona 697
cămin 697
înghi@@ 696
reclamă 696
peisaj 696
începeţi 696
referință 696
zombi 696
detective 696
cărţii 696
organizațiilor 696
ideală 696
consecinţele 695
recuperat 695
ţiuni 695
binecuvântarea 695
cd 695
jordan 695
ească 695
intrebarea 695
obişnuiţi 695
fenomenul 695
declarația 695
fin 695
extremi@@ 695
sud-est 695
coloana 695
îndreptăm 694
vat@@ 694
rãu 694
generos 694
gîn@@ 694
rețelei 694
sha 694
protejezi 694
r.@@ 694
adauga 694
oxi@@ 694
favorit 694
donat@@ 693
amintirea 693
aranja 693
cadoul 693
jet 693
d-o 693
sară 693
cimitir 693
locotenente 693
prinţ 693
împotrivă 693
protectie 693
ira@@ 693
leon 693
tase 693
înseamna 693
revăd 692
pan 692
puii 692
ñ@@ 692
ocupaţi 692
tarilor 692
scar@@ 692
x-@@ 692
cuprinzătoare 692
rochii 692
statut 692
părăseşti 692
înființat 692
sufere 692
ae 692
grăbim 692
ditate 692
comisie 691
procesare 691
denun@@ 691
mașinile 691
captur@@ 691
sărace 691
allen 691
veni@@ 691
spuneţi-mi 691
las@@ 691
dam@@ 691
org@@ 691
dialogul 691
—@@ 690
echipaj 690
furnizat 690
închiri@@ 690
cunoscuta 690
brooklyn 690
îno@@ 690
şte-mă 690
specializare 690
iacov 690
conținutului 690
distracție 690
ţăr@@ 690
sigurantă 690
slu@@ 689
sticle 689
culc 689
educatie 689
ziceam 689
încarcă 689
biologic 689
simpli@@ 689
dobân@@ 689
benjamin 689
‑@@ 689
incer@@ 689
vasi@@ 689
zdro@@ 689
analiz@@ 689
palat 688
bet 688
sep@@ 688
anunţă 688
greciei 688
masiv 688
veneau 688
mează 688
pradă 688
da-i 688
frun@@ 688
dă-mi-l 688
insulei 688
renunţe 688
revol@@ 688
paharul 687
căsătoresc 687
vizuale 687
înșiși 687
împuşc 687
eșuat 687
dirij@@ 687
aştep@@ 687
febră 687
plictisit 687
rănile 687
țională 687
accesibil 686
largi 686
paginii 686
producţiei 686
stăpân@@ 686
construc@@ 686
frunze 686
necaz 686
continuarea 686
liniște 685
prezentei 685
laboratoare 685
gates 685
jenny 685
minti 685
intei 685
diamant 685
ameninţat 685
copacul 685
07 685
slăbit 685
computerele 685
urce 685
permisul 685
murile 685
toria 684
ştiinţifică 684
designer 684
desen 684
patrimoniului 684
scăpare 684
porci 684
riei 684
enie 684
premier 684
vitale 684
ţo@@ 684
kaspersky 684
atorie 684
impor@@ 684
manhattan 684
ibm 684
zbur@@ 684
planific@@ 683
uniune 683
penisul 683
galerie 683
lăsând 683
amentele 683
hawaii 683
graniţa 683
rati@@ 683
ditatea 683
împrumutat 683
plănuit 683
specializat 683
poata 683
itatile 683
acti@@ 683
identific@@ 683
tokyo 683
inţa 682
integritatea 682
omorât-o 682
mergeti 682
ff@@ 682
gard 682
îndeaproape 682
postului 682
clinica 682
tim@@ 682
iert 682
fol@@ 682
ridicaţi 682
barbatul 682
adunare 682
matice 682
detaliate 681
coroana 681
visez 681
bbc 681
undă 681
critica 681
cota 681
ambul@@ 681
divină 681
protec@@ 681
conferinţa 681
exprimare 681
și/sau 681
violenţa 680
arca@@ 680
cookie-urile 680
cn@@ 680
transporta 680
gon@@ 680
oh@@ 680
wit@@ 680
percy 680
statistică 680
revolu@@ 680
orientare 680
permise 680
ned 680
ey 679
suspendat 679
îndepărtate 679
şte-o 679
potter 679
refugiaţi 679
termo@@ 679
televiziunea 679
administraţia 679
băieţel 679
rasă 678
conduc@@ 678
relatia 678
ves 678
anima@@ 678
binecuvântat 678
tabelul 678
canadian 678
tis 678
recen@@ 678
ţine@@ 678
reflecta 678
situ@@ 678
politicienii 678
sion 678
gin 678
cho 678
forţei 678
seaza 678
gazda 678
ți-ai 678
diversi@@ 678
unghi 678
black@@ 678
salvați 677
vopsea 677
asistentă 677
rita 677
marină 677
cash 677
zați 677
pornim 677
nun@@ 677
tradi@@ 676
amiază 676
sarcinii 676
răspundere 676
visează 676
ii-lea 676
demnitate 676
închin@@ 676
j. 676
dana 676
bla 676
aver@@ 676
inte 675
gandesti 675
vizitatorii 675
expertiza 675
buc@@ 675
superbă 675
strâng 675
întoarceţi 675
lt 675
necesitate 675
imaginezi 675
îmbunătăţirea 675
confor@@ 675
voci 675
băi 675
dră@@ 675
isaia 675
stap@@ 675
single 675
bunicule 674
împlini 674
grăsimi 674
japonezi 674
adăugarea 674
ucig@@ 674
disparut 674
voinţa 674
gemeni 674
închipu@@ 674
ecologice 674
io 674
abuz 674
experții 674
păreau 674
îmbă@@ 674
^ 674
şoc 674
tho@@ 674
obligatorie 674
sarcinile 674
1988 673
construcția 673
determin@@ 673
proto@@ 673
tatalui 673
înca@@ 673
lecţii 673
disciplină 673
mentală 673
contractului 673
elibereze 673
blair 673
wor@@ 673
căsătorită 673
promovat 673
mont 673
speciala 673
ușă 673
ambalare 673
etaje 672
mam 672
poziții 672
citim 672
filosofie 672
interioare 672
doctorului 672
sno@@ 672
zen 672
pungă 672
componentele 672
țional 672
mânt 672
tărilor 671
hă@@ 671
aven@@ 671
vindecare 671
porti 671
randul 671
mut@@ 671
experimentul 671
eti@@ 671
stuart 671
memor@@ 671
primăria 671
valuri 671
wifi 671
exer@@ 671
dă-l 670
mărturia 670
antivirus 670
baterii 670
nelson 670
menționate 670
gândiţi-vă 670
detecta 670
capetele 670
înălțime 670
administrație 670
roagă 670
bang 670
laţi 670
ei@@ 669
semnează 669
terenuri 669
cumpărăm 669
piscina 669
da-@@ 669
agenții 669
determinarea 669
legenda 669
activității 669
administrator 669
baterie 669
mină 669
activi@@ 669
row 669
profita 669
durilor 669
ami 669
mus 669
frankie 668
deţin 668
nopții 668
dog 668
personalitatea 668
credincioşi 668
atrag 668
ină@@ 668
dul@@ 668
sectoare 668
operaţiuni 668
mire@@ 667
bote@@ 667
păstrarea 667
miron@@ 667
sindromul 667
lucrând 667
obţii 667
stanley 667
evitat 667
instrucţiuni 667
războinic 667
viteze 667
refu@@ 667
ologia 667
compară 667
înmormântarea 667
complicată 667
amandoi 667
castig@@ 667
căţea 667
p.m 667
mortal 666
îndeplinesc 666
1985 666
aflată 666
freddy 666
învățăm 666
participare 666
ăr@@ 666
devo@@ 666
închidă 666
călătoriei 666
anei 666
decid 665
30.000 665
maică-ta 665
dăunătoare 665
spă@@ 665
privească 665
racheta 665
dificultate 665
virtual 665
investitii 665
melodie 665
action@@ 665
mozilla 665
arei 665
serbia 665
lipsei 665
ochi@@ 665
catalog 665
târg 664
onorată 664
vers 664
young 664
1986 664
integral 664
merci 664
vila 664
creștini 664
adoră 664
sportul 664
negativă 664
soldați 664
shakespeare 664
planta 664
supă 664
înro@@ 664
gã@@ 664
revoluţie 663
lux@@ 663
vizionari 663
respiraţia 663
fire@@ 663
haz@@ 663
umblat 663
invizibil 663
încălcarea 663
reacție 663
1970-2016 663
răzgândit 663
chiri@@ 663
apăsați 663
1984 663
consecință 663
tare@@ 663
controlului 663
nebunia 663
ava 663
activitati 662
șanse 662
semneze 662
nasol 662
scurta 662
fbi-ul 662
consumat 662
junglă 662
proşti 662
întor@@ 662
apelor 662
înfrân@@ 662
îndeplinirea 662
serv@@ 662
nem@@ 662
mason 661
martorul 661
instantaneu 661
convo@@ 661
magică 661
08 661
vanzare 661
construcții 661
tabloul 661
procur@@ 661
oraşele 661
agriculturii 661
acționează 661
selectaţi 661
yn@@ 661
trimisă 661
complicate 661
chat@@ 661
inspiră 661
încetezi 661
boy 661
trăiţi 660
configurare 660
călăre@@ 660
road 660
măm 660
moderni@@ 660
ee 660
veniți 660
educaţiei 660
libia 660
malaezia 660
conferință 660
arătaţi 659
saint 659
inauntru 659
rooms 659
clădirile 659
volvo 659
expiră 659
alia 659
tti 659
alerg@@ 659
didactice 659
minu@@ 659
plecati 659
eforie 659
moder@@ 659
deschi@@ 659
înfricoşător 659
plângă 659
gest@@ 659
pamantul 659
schi 659
ilegală 658
doborât 658
publicarea 658
surprize 658
păsa 658
primirea 658
dezvoltatorii 658
bã@@ 658
ãsta 658
situate 658
alizează 658
saţi 658
moara 658
expus 658
petro@@ 658
sociala 658
view 658
ază-mă 657
ficate 657
sin 657
umanitatea 657
turul 657
ologice 657
lecţia 657
eficienta 657
parisul 657
concret 657
extremă 657
scorul 657
eşuat 657
selecție 657
extindă 657
vorbeasca 656
ick 656
cuvintelor 656
acopere 656
1940 656
imposibilă 656
psihiatru 656
dv@@ 656
devina 656
preajmă 656
imaginați-vă 656
express 656
1979 655
raţi 655
conectarea 655
munci 655
îngrijora 655
incidentul 655
articul@@ 655
ţea 655
sten@@ 655
să-n@@ 655
operatorul 655
interesa 655
cehă 655
ajutaţi-mă 655
sângelui 655
islanda 655
recepţie 654
uti 654
lig@@ 654
îngrijorează 654
stați 654
holmes 654
americanilor 654
amin@@ 654
striga 654
stor@@ 654
relațiilor 654
urasc 654
câştigăm 654
cerea 654
premiului 654
locurilor 654
rănesc 654
glob@@ 654
acceptarea 654
aborda 654
necesara 653
adâncă 653
malcolm 653
ceşti 653
chimic 653
finaliza 653
suită 653
construcţii 653
desen@@ 653
urez 653
enti@@ 653
indiei 653
dinti 653
spune-o 653
repar 653
micuţa 652
aripile 652
fumezi 652
ducea 652
luare 652
opinii 652
veniturilor 652
lama 652
francezii 652
groapă 652
încuraja 652
trecutului 651
traseul 651
gun@@ 651
duble 651
mutarea 651
expertiză 651
profit@@ 651
aminteşte-ţi 651
inelor 651
mecanismul 651
gravit@@ 651
variante 651
ştire 651
stanga 651
seth 651
mortii 651
învă@@ 651
nii 651
stins 651
mu 650
eria 650
booking 650
alese 650
timi@@ 650
făgădu@@ 650
chri@@ 650
dă-mi-o 650
etice 650
vizibile 650
corecta 650
explo@@ 650
stării 650
sesi@@ 650
toarelor 650
greş 650
murdară 649
condiţie 649
ere@@ 649
dinamică 649
democraţie 649
kiev 649
insu@@ 649
ologică 649
2/@@ 649
pretind 649
dimensiunile 649
cabina 649
stadiu 649
povară 649
ien@@ 649
pasărea 649
ționată 648
învățământul 648
spaniei 648
specific@@ 648
omorâ@@ 648
dumnezeului 648
anthony 648
tatoare 648
efectu@@ 648
domnisoara 648
belle 648
donna 648
pahare 648
tulburări 648
esenţial 648
jonathan 648
praful 647
aniversarea 647
renunta 647
nigeria 647
rutier 647
gla@@ 647
parcarea 647
ţu@@ 647
� 647
vaz@@ 647
pula 647
ferată 647
protejăm 647
impu@@ 647
mări@@ 646
instituţii 646
muşcat 646
crud 646
oaie 646
concluzii 646
urgentă 646
fantastică 646
avionului 646
polul 646
creativitatea 646
azi-noapte 646
cheltui 646
percep@@ 646
olimpic 646
planificat 646
inițială 645
bunătatea 645
antici@@ 645
nas@@ 645
transfera 645
a-ți 645
mărturi@@ 645
ti-vă 645
venise 645
scene 645
vas@@ 645
facuta 645
nepo@@ 645
înceteze 645
hotar@@ 645
terminată 645
regi@@ 645
tui 645
d-l 645
ziceai 645
dispre@@ 645
chestiuni 645
rară 644
umorului 644
convinsă 644
sivă 644
rock@@ 644
substanţe 644
ologic 644
japonezii 644
broker 644
riscă 644
groaznică 644
gust@@ 644
violență 644
dispozitie 644
nu-si 644
local@@ 644
nevastă 644
easca 644
investi@@ 644
magazinele 643
făcân@@ 643
căsătorească 643
rural 643
intervenit 643
operator 643
nemernicule 643
rapida 643
fiscală 643
und 643
ash 643
pam 643
spirituale 643
fc 643
stiai 643
respectăm 643
examinare 643
lipsi 643
maior 643
mir@@ 643
pescu@@ 643
frontiera 642
dio@@ 642
verificaţi 642
fericiti 642
codului 642
recompensă 642
jumate 642
polonez 642
luptei 642
vizi@@ 642
reprezentând 642
ponta 641
expuse 641
3000 641
cauzează 641
ics 641
09 641
producătorul 641
diferiţi 641
mişcăm 641
câștige 641
băieții 641
pricepe 641
od 640
propuneri 640
acţiona 640
ază@@ 640
pomen@@ 640
urii 640
evitarea 640
rela@@ 640
exprimă 640
țineți 640
vaccin@@ 640
front 640
dosare 640
generaţii 640
atică 640
fiilor 640
crimin@@ 640
folosești 640
stic 639
kam@@ 639
soţii 639
autostradă 639
siunea 639
aților 639
abilităţile 639
philip 639
satisfac@@ 639
garantează 639
owen 639
masuri 639
episod 639
muncitorilor 639
tovară@@ 639
ştiaţi 639
emoţii 639
teşte 639
pierre 638
reglementările 638
chloe 638
efectueze 638
otravă 638
favorite 638
prada 638
cot@@ 638
alin@@ 638
ach 638
tratamentului 638
sali@@ 638
lansate 638
exploat@@ 638
terorism 638
scuza-ma 638
dating 638
automate 638
semnătura 638
pilotul 637
atacurilor 637
у@@ 637
accesului 637
-vă 637
credinţei 637
secundar 637
generații 637
hu 637
necesi@@ 637
facilita 637
tanar 637
opiniile 637
îmbolnă@@ 637
u.@@ 637
cădere 637
az-o 637
platit 637
plati 636
pati@@ 636
unicul 636
calatorie 636
echivalentul 636
elliot 636
oral 636
transfer@@ 636
cadavrele 636
back 636
zit 636
experimenta 636
uniforma 636
farmacie 636
regale 636
religii 636
ţinea 635
diavol 635
rugăciunile 635
poe@@ 635
traduce 635
taj 635
sony 635
identifice 635
func@@ 635
dore@@ 635
franței 635
enia 635
tradițional 635
influenta 635
pregătiţi-vă 635
s.u.a 635
ingineria 635
fuga 635
şezi 635
vizitez 635
guru 635
capturat 634
creştină 634
şiţi 634
fili@@ 634
nepoata 634
aprobare 634
preface 634
încălcare 634
ţională 634
secţiunea 634
comedie 634
sel 634
arm@@ 634
sați 634
competitiv 634
demonstr@@ 634
arest@@ 634
țile 634
tatuaj 634
fantoma 634
spectacole 634
victimei 634
muzicală 634
intelectuale 633
îndeplinit 633
franţei 633
plantelor 633
regulilor 633
musulmanii 633
balan@@ 633
comunitățile 633
versiunile 633
rurale 633
ius 633
răbdarea 633
turismul 633
avertizează 633
felix 632
elaborarea 632
inchis 632
misterul 632
penale 632
referendum 632
noroi 632
glorie 632
baftă 632
guy 632
sap 632
cat-o 632
aste 632
cp 632
nenorociţi 631
dansa 631
pieţele 631
regimului 631
ceremonia 631
taiwan 631
păstrați 631
interesaţi 631
cumpăr@@ 631
recompensa 631
emisii 631
ambasadorul 631
african 631
actualul 631
aruncaţi 631
poet 631
bare 631
constantin 631
mișcă 631
hil@@ 631
vede@@ 630
bogă@@ 630
ado 630
autoritatile 630
depăr@@ 630
cenţi 630
vibr@@ 630
neagra 630
cristina 630
feme@@ 630
royal 630
iam 629
comunicații 629
semna 629
funcțion@@ 629
nici@@ 629
perspectivele 629
poştă 629
obişnuia 629
prefer@@ 629
2-3 629
watson 629
exceptia 629
vacă 629
neutr@@ 629
presiuni 629
înţelepciune 629
regenerabile 629
fabricarea 629
dedesubt 629
monstrul 629
funcționarea 629
vizitator 629
grat@@ 629
sperat 629
aie 629
promoveze 629
descuraj@@ 629
adâncul 628
bibliei 628
mandatul 628
terminarea 628
flir@@ 628
greșeli 628
colecție 628
dărâ@@ 628
construcţie 628
amprentele 628
agra@@ 628
uș@@ 628
simțiți 627
interog@@ 627
ursul 627
timpuri 627
vasile 627
uber 627
rom 627
ane@@ 627
incredibile 627
stâr@@ 627
circ 627
pierdut-o 627
ajelor 627
prevăzut 627
mid@@ 627
adevăraţi 627
alfa 627
totale 627
,000 627
aba 627
mecanic 627
tronul 626
contemporane 626
satului 626
consecinţă 626
pin 626
minciunile 626
360 626
garantat 626
sclav 626
duș 626
vânător 626
invad@@ 626
inginerii 626
recunoscătoare 626
jennifer 626
ming 626
maritim 626
principiilor 626
vinovată 626
asiatice 626
ses 626
perechi 626
serialul 626
aventuri 625
funcționare 625
oficiul 625
exagerat 625
inteligenta 625
deschideți 625
mecanică 625
ir 625
adaptare 625
meste@@ 625
forumul 625
bleste@@ 625
mananca 625
alătur@@ 625
le-aţi 625
capcana 625
pr 625
comerţului 625
predarea 625
posibila 625
slujbe 625
închipui 625
urâ@@ 625
pădurile 624
mătuşă 624
litera 624
tere 624
gel 624
raiul 624
crize 624
cămaşa 624
lipi@@ 624
prevenire 624
seseră 624
porsche 624
rezolvi 624
kes 623
constanta 623
smartphone 623
ranit 623
portofel 623
liz@@ 623
matic 623
distinc@@ 623
locu@@ 623
evaluări 623
şarpe 623
plăți 623
sesc 623
cumpărați 623
jurisdic@@ 623
peştele 623
suspectul 623
închiderea 623
proaspătă 623
operațiuni 623
obse@@ 623
puş@@ 622
cariere 622
macro@@ 622
garanție 622
institute 622
turciei 622
răului 622
prostesc 622
afurisit 622
perfecte 622
apreci@@ 622
non-profit 622
cetăţenilor 622
inţă 622
interpretarea 622
19:@@ 622
laudă 622
peru 622
fat 622
tatul 622
cezar 622
tva 622
defect 621
văzând 621
cantități 621
inocen@@ 621
identificate 621
poftă 621
mie@@ 621
puzzle 621
curtis 621
echipajului 621
beneficiul 621
ităţile 621
cunoștință 621
regională 621
initi@@ 621
apocalipsa 621
ază-ţi 621
robotul 620
destinaţie 620
dinamic 620
uitati 620
trad@@ 620
anxietate 620
mobila 620
variantă 620
iubești 620
faliment 620
impus 620
aparen@@ 620
revenirea 620
indicator 620
acordarea 620
criptare 620
nespus 620
înţe@@ 619
efectelor 619
fâ@@ 619
ture 619
purtător 619
urbană 619
periodic 619
arzi 619
luptător 619
fiicele 619
găzdu@@ 619
competiţie 619
reputaţia 619
marchează 619
luminos 619
toc@@ 619
adopte 619
zâmbeşte 619
excursii 619
html 619
mexico 619
jig@@ 619
înăuntrul 619
ascundem 618
unghiile 618
ităţi 618
alegeţi 618
security 618
oprește 618
gu 618
secven@@ 618
naţiuni 618
identice 618
spal@@ 618
locuim 618
producției 618
ționale 618
consecinţe 618
propul@@ 618
out 618
natalie 618
bach 618
ethan 617
directori 617
contra@@ 617
procentul 617
capitalului 617
umana 617
plăcintă 617
plasat 617
m- 617
audi 617
determinată 617
blând 617
operaţiune 617
rundă 617
fră@@ 617
tându-se 617
lită 617
răcire 617
48@@ 616
extr@@ 616
gare 616
obisnuit 616
vir@@ 616
calităţii 616
aplau@@ 616
rezerve 616
iere 616
rezolvată 616
amân@@ 616
idiotul 616
durerii 616
povara 616
distribuie 615
minime 615
ates 615
pentru@@ 615
nepoliticos 615
curţii 615
love 615
permitem 615
debar@@ 615
trandafir 615
plăcute 615
africane 615
casetă 615
cetățenilor 615
combinate 615
vârstei 615
sân 615
numiţi 615
tus 615
completat 615
surprinsă 614
onorat 614
americana 614
comoară 614
impuls 614
dic 614
blocată 614
tac 614
rezistență 613
ferate 613
mitch 613
wat@@ 613
cowboy 613
texte 613
retragă 613
viz@@ 613
33@@ 613
actorul 613
testosteron 613
prezinta 613
ă-ţi 613
tit@@ 613
nicole 613
solicitare 613
wh@@ 613
implicați 613
trebu@@ 613
parole 613
licen@@ 613
ajunga 613
descriu 613
înconjoară 613
sn@@ 613
boo@@ 612
luptele 612
cortul 612
oile 612
malware 612
bului 612
decizi 612
sume 612
temeiul 612
gătesc 612
intereseaza 612
ocazii 612
deopotrivă 612
lovească 612
agă@@ 612
angajati 611
22:@@ 611
conexe 611
lipsită 611
acoperirea 611
dizabilităţi 611
peri@@ 611
depozitul 611
3/@@ 611
careva 611
urmări@@ 611
conte@@ 611
întrebat-o 611
constituti@@ 611
dispozitivului 611
discute 611
demonstreze 611
als 611
tăiere 611
greu@@ 611
bot@@ 611
dependent 611
negoci@@ 611
legen@@ 611
încur@@ 611
alineatul 611
'neaţa 611
compen@@ 611
pocă@@ 610
timisoara 610
senzori 610
a-te 610
dvd 610
ostatici 610
calculat 610
ardă 610
mas 610
democratice 610
trupului 610
telefonului 610
blocuri 610
jenant 610
tari@@ 610
comportamentului 610
adopta 610
adevăr@@ 610
homo 610
newton 609
împiedicat 609
înve@@ 609
alter@@ 609
gheaţa 609
prinde@@ 609
minţii 609
lenjerie 609
caine 609
adjunct 609
mani@@ 609
mireasă 609
conştiinţă 609
temporară 609
amintească 609
toxice 608
halloween 608
lã@@ 608
ţului 608
graham 608
mântuire 608
sezonului 608
lansată 608
pietrele 608
roata 608
liniştea 608
lească 608
valori@@ 608
ooh 608
micuţul 608
statu@@ 608
individu@@ 608
musculare 608
gong 608
desăvâr@@ 608
ipote@@ 608
radu 608
justiţiei 607
nească 607
lați 607
împiedic@@ 607
ziduri 607
nelegiu@@ 607
romeo 607
megan 607
înfi@@ 607
interviul 607
jucătorul 607
cântând 607
temp@@ 607
expirat 607
nav@@ 607
terasă 607
ms@@ 607
opreste 607
nast@@ 607
ricky 607
review 607
serial 606
de-acolo 606
tranzi@@ 606
terii 606
stabilește 606
monitor 606
lucraţi 606
plătită 606
directorului 606
pierderile 606
mişcări 606
cosmo@@ 606
felicitari 606
aza-te 606
politist 606
end 606
v-aş 606
nostim 606
sco 606
bucătar 605
trădător 605
arizona 605
cupluri 605
bernard 605
stem 605
patrio@@ 605
cau 605
i- 605
gil@@ 605
deosebite 605
agu@@ 605
lene 605
peretele 605
aplicatii 605
dt 605
oxford 605
scrisul 605
pista 605
anderson 604
demen@@ 604
primară 604
yn 604
executive 604
priori@@ 604
ţinutul 604
aple@@ 604
hipo@@ 604
binecuvânteze 604
daţi-vă 604
performan@@ 604
obişnuiam 604
proprietăți 604
naţiune 604
rica 604
ofiţerul 604
profet 603
întreprin@@ 603
king@@ 603
câști@@ 603
nicky 603
radical 603
întăriri 603
winston 603
urmăriţi 603
senatorul 603
strădu@@ 603
întârzie 603
con 603
vite 603
descenden@@ 603
descoper@@ 603
comenzile 603
fir@@ 603
4/@@ 603
op 602
specialiști 602
rogi 602
ți-l 602
depresia 602
trecu@@ 602
dedic@@ 602
curăţenie 602
investitorilor 602
ez@@ 602
leşte 602
str 602
elicopterul 602
etica 602
desfăşoară 602
confruntăm 602
generator 602
supăraţi 602
probabilitatea 602
orbi@@ 602
antică 601
daisy 601
calde 601
vibra@@ 601
parlamentare 601
picătură 601
vărsat 601
dansăm 601
demon 601
anunțuri 601
senior 601
vroiai 601
itorului 601
ministrului 601
greşelile 601
grăbit 601
iartă 601
baut 600
expozi@@ 600
linist@@ 600
daruri 600
zon@@ 600
bloca 600
degraba 600
discount 600
împărtășesc 600
obstacol 600
trimiteți 600
cunoştinţele 599
experţi 599
jill 599
misc@@ 599
whisky 599
disper@@ 599
solului 599
lipseste 599
condiţia 599
protest 599
laptop 599
îmbrăcată 598
trag@@ 598
sacrificiu 598
potrivește 598
du-şi 598
răni@@ 598
căsnicia 598
muzical 598
grăbesc 598
erup@@ 598
bella 598
productia 598
elimine 598
societăţi 598
rachetele 598
dol@@ 598
ționare 598
casatorit 598
introduse 598
hristoase 598
convenția 598
privi@@ 597
tatilor 597
milostiv 597
nano@@ 597
kil@@ 597
abordări 597
sori 597
țiunea 597
într-unul 597
descoperim 597
pompieri 597
ds@@ 597
diplomatice 597
dian 597
plantă 597
conectează 597
recoman@@ 597
ans 597
atelierul 596
înșine 596
obișnu@@ 596
supa 596
muș@@ 596
dispoziţia 596
dă-ne 596
biru@@ 596
к@@ 596
mentul 596
vil@@ 596
constat@@ 596
executarea 596
poftiţi 596
gold 596
înse@@ 596
ire@@ 596
ştiinţei 596
experimen@@ 596
anton 596
flor@@ 595
valabilă 595
paralel 595
duke 595
interpretare 595
iadului 595
meserie 595
preferi 595
telefonice 595
garantez 595
autonome 595
adaptat 595
miș@@ 595
mezi 595
hidrogen 595
n-aveam 595
indicele 595
ska 595
visezi 595
plasa 595
zar@@ 595
monitoriza 595
dulci 594
roboți 594
iso@@ 594
met 594
aprobate 594
bijuteriile 594
blog@@ 594
prostia 594
omorâţi 594
decidă 594
greacă 594
lină 594
benefici@@ 594
scuzele 594
sfârsit 594
confortul 594
apuca 594
mărturisesc 593
braţ 593
astronau@@ 593
profesoară 593
extensibilă 593
zilelor 593
imperi@@ 593
lite 593
dioxid 593
s-a-ntâmplat 593
ran 593
pese 592
umerii 592
confe@@ 592
itare 592
101 592
000@@ 592
salonul 592
r. 592
game 592
-bine 592
echipamentele 592
cifră 592
peti@@ 592
intervenţie 592
odinioară 592
religiei 592
psihologic 592
intelor 592
gheorghe 592
ştiinţific 592
sharepoint 591
preţuri 591
certitudine 591
nau@@ 591
ascen@@ 591
de-acum 591
...... 591
productie 591
deficit 591
salarii 591
t… 591
port@@ 591
întrebați 591
nevo@@ 591
sesiuni 591
convingerea 591
remedi@@ 591
vecin 591
incur@@ 591
clasament 591
ia-mă 591
răzbunarea 591
live@@ 591
notat 591
leul 591
alã 591
clientilor 591
obsedat 591
aliat 590
riile 590
valley 590
bu 590
inare 590
inspector 590
acțiunilor 590
constructii 590
radioul 590
ţule 590
mutare 590
ţelul 590
store 590
premiile 590
personajele 590
diplo@@ 590
ționate 589
rezi@@ 589
răsu@@ 589
diversitate 589
violet 589
infor@@ 589
amintiți-vă 589
disperat 589
dinți 589
diagnostic 589
fele 589
asociaţia 589
vesti@@ 589
tent@@ 589
warren 589
răsplată 589
răspunderea 589
kel@@ 589
\@@ 589
1987 589
consideri 589
âr@@ 589
5000 589
bateria 589
romanul 589
descoperită 588
chiria 588
petrolul 588
doze 588
egalitatea 588
acordată 588
siste@@ 588
pare@@ 588
asistentul 588
naşterea 588
evidentă 588
urma@@ 588
enormă 588
discută 588
floarea 588
comen@@ 588
green@@ 588
intensă 588
vpn-uri 588
taţi-vă 588
codurile 587
redirec@@ 587
investițiile 587
activităților 587
aprin@@ 587
țul 587
disponibilitatea 587
fului 587
ituri 587
lita 587
tuit 587
găm 587
obținute 587
gardă 587
adapta 587
ges 586
ator@@ 586
draguta 586
senin 586
roş@@ 586
talie 586
rezolu@@ 586
trib 586
parţial 586
color@@ 586
nobil 586
tatorul 586
contac@@ 586
112 586
înarmat 586
opusul 586
ţionate 586
olog@@ 586
dis 586
asociată 586
unchiului 586
cătoare 586
bie@@ 586
bage 586
existen@@ 585
oanele 585
văzute 585
şerif 585
nită 585
dedicate 585
situaţiei 585
admir 585
dețin 585
paz@@ 585
aniver@@ 585
rah@@ 585
căcat 585
alzheimer 585
înălțimea 585
măritată 585
salvate 585
aşteptând 584
d-zeu 584
egiptul 584
bc 584
poluare 584
н@@ 584
budapesta 584
comerţul 584
întâmplător 584
negat 584
rotile 584
м@@ 584
personalizat 584
ocazional 584
actualizarea 584
progra@@ 584
înecat 584
balon 584
acţion@@ 584
menit 584
rusesc 584
şah 584
mente 584
denumită 584
sup@@ 584
update 584
politic@@ 584
ep 584
oportunităţi 584
uciși 583
născuţi 583
dupã 583
şampanie 583
jin@@ 583
tradiţie 583
reali 583
distribuție 583
faptă 583
ceo 583
mărturisit 583
pică 583
etiche@@ 583
îmbolnăvit 583
atoarele 583
libertății 583
ciob@@ 583
moșten@@ 583
maimuţă 582
drago@@ 582
recompense 582
infrastructurii 582
umbla 582
comb@@ 582
tax@@ 582
ris 582
îmbraci 582
mântu@@ 582
vizu@@ 582
fon 582
amentului 582
purtăm 582
ralph 582
barb@@ 582
vaci 581
consti@@ 581
convingă 581
limitează 581
fit@@ 581
seturi 581
contradic@@ 581
norme 581
intri@@ 581
cercetat 581
irile 581
comisarul 581
urmând 581
îngădu@@ 581
21:@@ 581
rezistat 580
conducător 580
reuşim 580
vit 580
clas@@ 580
servi@@ 580
scriitori 580
satis@@ 580
părților 580
registrul 580
55@@ 580
lance 580
convingi 580
şedinţa 580
frații 580
soție 580
metale 580
federația 580
adăugată 580
cîteva 580
eh 580
haină 580
1944 580
christopher 579
aț@@ 579
relaţiilor 579
como@@ 579
implice 579
legi@@ 579
analizează 579
intel 579
monitori@@ 579
viermi 579
magice 579
divul@@ 579
șit 579
aspi@@ 579
gli@@ 579
porcărie 579
maro 579
rutină 579
intercep@@ 579
adaugat 579
compor@@ 579
trează 579
ţesc 579
operațiunile 578
dre 578
buzunarul 578
pustie 578
spații 578
diesel 578
j.@@ 578
străinii 578
lui@@ 578
responsabili@@ 578
invitaţi 578
moore 578
tec 578
factura 578
căsătorim 578
napoli 578
productivitatea 578
calvin 577
rel@@ 577
ws 577
activităţii 577
tehnologică 577
mulţimea 577
desenate 577
anulează 577
romantică 577
întrerupe 577
sufle@@ 577
sch 577
demon@@ 577
canalele 577
fizicii 577
conţin 577
comitet 577
aranj@@ 577
trez@@ 577
poliţistul 577
inun@@ 577
distrugem 577
ataş@@ 577
încăr@@ 577
creștin 577
îngrijoraţi 576
genele 576
proiectate 576
pp 576
împușcat 576
pornesc 576
profesoara 576
logo@@ 576
importanţi 576
strică 576
ghicit 576
crema 576
invita 576
tricou 576
primire 576
începerea 576
cavaler 576
arte@@ 576
ţi-mă 576
asasinat 576
hector 576
trân@@ 576
bird 576
colţul 575
muncitoare 575
gher@@ 575
amestecat 575
obişnuite 575
concura 575
eliminate 575
trai@@ 575
şter@@ 575
dă-le 575
îmbunătățească 575
căsătoriei 575
you 575
profesie 575
porţile 575
zoe 575
conducătorul 575
editura 575
renunțat 575
sesem 575
vaccin 575
puneți 575
studiez 575
antren@@ 575
ciuperci 575
huawei 574
iubit-o 574
inului 574
curriculum 574
ping 574
putine 574
crează 574
hotărâ@@ 574
coran 574
orientate 574
colorat 574
raportate 574
ce-ti 574
tarife 574
depăşeşte 574
ola 574
argumente 573
bic@@ 573
curva 573
f. 573
regulã 573
cedat 573
buddha 573
logice 573
copilă 573
46@@ 573
stoc 573
obligă 573
desemnat 573
prins-o 573
fasci@@ 573
relevant 573
înmul@@ 573
căsnicie 573
îne@@ 573
confirmare 573
acțion@@ 573
dublin 573
stra 573
agitat 572
m-as 572
reve@@ 572
indieni 572
națiuni 572
subteran 572
predea 572
disciplina 572
portal 572
sive 572
zeul 572
sinuci@@ 572
pătură 572
modalităţi 572
imaginează-ţi 572
sand@@ 572
microunde 572
informatice 571
lingvistice 571
rez@@ 571
mati 571
anula 571
posibilităţi 571
administrativ 571
idio@@ 571
laz@@ 571
quinn 571
locuin@@ 571
difu@@ 571
nimerit 571
vitamine 571
lău@@ 571
ib@@ 571
dru 571
part@@ 571
israelian 570
manchester 570
vital 570
alilor 570
ucidem 570
bast@@ 570
depășit 570
preocupat 570
argument 570
armoni@@ 570
gal 570
cibernetice 570
reuşeşte 570
politicos 570
matică 570
chic@@ 570
confirmarea 570
panama 570
ţeşti 570
ători 570
puna 570
conserv@@ 570
mă-n@@ 570
exerciţiu 570
conferințe 570
trenuri 570
zadar 570
filosofia 569
orase 569
imediată 569
mie-mi 569
rezistenta 569
abilităţi 569
17:@@ 569
partenerilor 569
competente 569
iar@@ 569
bucurați-vă 569
laterală 569
lane 569
departament 569
arbitr@@ 569
restaur@@ 569
arab 569
obtinut 569
strânse 569
ric 569
amă@@ 569
instan@@ 569
născută 568
disperată 568
acu 568
învățați 568
mes 568
die@@ 568
urmați 568
ţăm 568
aren@@ 568
credin@@ 568
gătoare 568
ce-au 568
a.m 568
tt@@ 568
uimit 567
tradițională 567
trimis-o 567
minus 567
durabil 567
încă@@ 567
major@@ 567
masină 567
damon 567
imprimare 567
duşmani 567
bridge 567
4. 567
emite 567
eroii 567
democraţia 567
decent 567
întin@@ 567
cercetător 567
xi 566
ohio 566
convenţia 566
ela 566
amuzante 566
serverului 566
18:@@ 566
orto@@ 566
frag@@ 566
show@@ 566
trezeşte 566
romanii 566
n-avea 566
maya 566
capri@@ 566
complexitatea 566
cazinouri 566
guest 566
iranian 566
padure 566
depăși 566
republică 566
gori@@ 566
semeni 566
cor 566
reglemen@@ 565
serveşte 565
primavara 565
romei 565
martha 565
scrip@@ 565
tendinţa 565
katherine 565
baietii 565
confuzie 565
gers 565
chemarea 565
modific@@ 565
împuşti 565
expunere 565
vesti 565
definite 565
telefonie 565
ne-aţi 565
versi@@ 565
reamintesc 564
umeri 564
adresează 564
feţele 564
noe 564
concentrarea 564
organice 564
trimiteţi 564
facultății 564
franklin 564
albu@@ 564
sue 564
aplicației 564
refer@@ 564
penis 564
evită 564
tabile 564
informa 564
deficien@@ 564
mercur 563
distanța 563
diploma@@ 563
simţul 563
supraviețui 563
sion@@ 563
eliberaţi 563
incerci 563
rudă 563
bii 563
ocuparea 563
descurcăm 563
suspen@@ 563
psiholog 563
călătoriile 563
garea 562
eşec 562
solicitate 562
muncească 562
alismului 562
preturi 562
handicap 562
puiule 562
sponsori@@ 562
75@@ 562
ascã 562
curiozitate 562
implementat 562
1974 562
gestion@@ 562
v.@@ 562
păduri 562
țate 562
aripa 562
conflictele 562
atragă 561
cumpar@@ 561
întreprinderilor 561
oaspeții 561
te-n@@ 561
individul 561
gas@@ 561
examina 561
worth 561
meri@@ 561
du-@@ 561
german@@ 561
dal 561
rafin@@ 561
chen@@ 561
med@@ 561
trezească 561
aşii 561
sparg 561
acceptată 561
geți 561
cosmetice 561
julian 561
desfășurare 561
comunice 560
stran@@ 560
fumul 560
sâni 560
transmiterea 560
giu@@ 560
serena 560
1975 560
inaintea 560
îmbunătățit 560
primi@@ 560
alităţii 560
rico 560
locuia 560
lake 560
stimula 560
scumpa 560
fetiţo 560
main 560
spăl 560
simțim 560
vinuri 560
independența 560
elefant 559
notele 559
țăr@@ 559
inso@@ 559
moni@@ 559
scuzi 559
turneul 559
wikipedia 559
urmăm 559
dezvoltată 559
core 559
sosire 559
marc 559
conversație 559
posturile 559
comandante 558
dulciuri 558
zeilor 558
trupurile 558
muţi 558
circulă 558
vizitezi 558
muncitor 558
educațional 558
fapta 558
ativele 558
tr 558
craig 558
л@@ 558
talente 558
stâncă 558
atacaţi 558
cî@@ 558
ridicăm 558
mâ@@ 558
person@@ 558
victorii 558
îndemână 558
gere 558
creez 557
percepe 557
situatii 557
cheltuielilor 557
adolescent 557
omenire 557
adevar 557
salvaţi 557
psihologice 557
scările 557
admin 557
zătoare 557
colectare 557
cetățean 557
îmbunătățire 557
obliga 557
panoul 557
arena 557
indrep@@ 557
țiuni 557
hrăni 557
amator 557
războaiele 557
plăcu@@ 557
convenit 557
tarifele 556
prefac 556
confidențialitatea 556
depună 556
expre@@ 556
curgă 556
canti@@ 556
performanţă 556
comă 556
durerile 556
trupă 556
ia-i 556
păianjen 556
antic 556
microfon 556
fumez 556
distra 556
monedele 556
renume 556
incuraj@@ 555
curen@@ 555
globala 555
gaseste 555
satan 555
neşte 555
mulțumit 555
imobili@@ 555
organ 555
fraudă 555
rese@@ 555
acuzaţii 555
evacuare 555
să-@@ 555
nan 555
pav@@ 555
izolare 555
ulu@@ 554
sufo@@ 554
lene@@ 554
poate@@ 554
ceremonie 554
eșec 554
tati@@ 554
miner@@ 554
întocmai 554
orientat 554
1973 554
ierte 554
organelor 554
israeli@@ 554
exterioară 554
veneția 554
spam 554
tricoul 554
transplant 554
şefului 554
lega 554
policy 554
ǎ@@ 554
sotie 553
vecinul 553
pil@@ 553
profesioniștii 553
zelor 553
cola 553
salată 553
orbi 553
aţa 553
fondului 553
răpi@@ 553
ându-mă 553
murdă@@ 553
jess 553
ativa 553
supune 552
traieste 552
guvernamental 552
ascultaţi-mă 552
ella 552
costisitoare 552
videoclip 552
vitatea 552
agresiv 552
stăpîn@@ 552
margin@@ 552
detectat 552
distin@@ 552
alternativ 552
rosii 552
loialitatea 552
gândiți 552
omorat 552
qatar 552
stam 552
otto 552
sectoarele 551
privin@@ 551
iat@@ 551
ie-@@ 551
bătă@@ 551
tore@@ 551
friptură 551
antic@@ 551
suferin@@ 551
natur@@ 551
bomb@@ 551
jar@@ 551
adresat 551
consolida 551
hans 551
geamul 551
lecții 551
blake 551
bebeluş 551
lucrării 551
violen@@ 551
danseze 550
amprenta 550
0.00 550
amprente 550
inovație 550
giu 550
standardelor 550
eta 550
ajungând 550
oarea 550
falun 550
antarctica 550
urâte 550
-ar 550
eficace 550
anca 550
ante@@ 550
băg@@ 550
caraibe 550
defecte 550
mez 550
dig@@ 550
integr@@ 550
intervalul 550
d-voastră 550
umiditate 550
1978 550
raman 549
yeah 549
tune@@ 549
wood@@ 549
homosexuali 549
ston 549
vege@@ 549
prizonierii 549
prim-ministru 549
rarea 549
ct 549
ţionare 549
negociere 549
bogați 549
norii 549
bingo 549
1948 548
interviuri 548
vizion@@ 548
pensii 548
fabricate 548
inimi 548
inalta 548
united 548
potenţialul 548
răsplata 548
xix-lea 548
agro@@ 548
perver@@ 548
flexibilitate 548
tendința 548
zicând 548
forțe 548
adoptate 548
phoenix 548
bet@@ 548
tânăra 548
zach 548
provocate 548
hit@@ 547
ruși 547
medicala 547
sherlock 547
livrat 547
colegilor 547
inregistrat 547
exporturile 547
jurământ 547
cut 547
simţea 547
titul@@ 547
falsi@@ 547
acoperi@@ 547
seiful 547
blocare 547
nervoasă 547
circul@@ 547
ameninţări 547
alerg 547
indirect 547
bacteriile 547
fișierelor 547
prealabil 547
gab@@ 547
site-urilor 547
îndrăzne@@ 547
elsa 547
execută 547
az 547
bătrânii 546
wn 546
audit 546
izbucnit 546
salută 546
pastilele 546
patru@@ 546
ona 546
economisi 546
diferențe 546
chirurg 546
furnizeze 546
1976 546
podeaua 546
af 546
beta 546
preo@@ 546
oaspeţi 546
tancuri 546
păpuşă 546
uriaşe 546
clay 545
teafăr 545
mând 545
asume 545
evidenţă 545
literalmente 545
apari 545
kent 545
1969 545
întreabă-l 545
sosi 545
invitaţie 545
doisprezece 545
7/@@ 545
dus-o 545
carmen 545
oblig@@ 545
hab@@ 545
baiete 545
remar@@ 544
kenya 544
transmisie 544
cunoștințelor 544
le-ați 544
concentrează-te 544
asociere 544
spon@@ 544
superman 544
măsurilor 544
prințul 544
leadership 544
wendy 544
bărbaților 544
rezolvate 544
timp@@ 544
durut 544
comunicatul 544
sergentul 544
cios 544
tto 544
pără@@ 544
scoli 544
memoriei 544
lăr@@ 544
lanț 544
blocate 544
reuters 544
thi@@ 544
ispă@@ 543
bonusuri 543
directia 543
citire 543
misto 543
1971 543
poste@@ 543
1982 543
schimburi 543
îndrept 543
francisc 543
italiene 543
fasole 543
sub-@@ 543
folosesti 543
raze 543
tător 543
directiva 543
olivia 543
п@@ 543
notific@@ 543
oro@@ 542
campaniei 542
exploatare 542
blan@@ 542
esenţiale 542
lenin 542
sprijine 542
anal@@ 542
urmaţi 542
duca 542
kir@@ 542
gros 542
învăţaţi 542
vorbeau 542
reformă 542
sfătu@@ 542
spiri@@ 542
dulapul 542
strici 542
sr 542
peninsula 541
islamul 541
mentare 541
societăți 541
experimentală 541
examinat 541
tragic 541
senzaţia 541
măsur@@ 541
măritat 541
ignora 541
groapa 541
tast@@ 541
primare 541
gerile 541
regat 541
cf@@ 541
clien@@ 541
ignorat 540
infer@@ 540
ființe 540
00-@@ 540
neamul 540
ters 540
ther 540
ambasador 540
asculti 540
împuș@@ 540
pereţi 540
wan@@ 540
ceau 540
pusa 540
decursul 540
invo@@ 540
cooperării 540
generate 540
reţele 540
ack 540
discipl@@ 540
itali@@ 539
copia 539
gheata 539
popoare 539
administratorul 539
într-@@ 539
loial 539
iubitor 539
ospă@@ 539
democratic 539
acuză 539
stație 539
operație 539
vechii 539
incepem 539
gigant 539
protejată 539
schema 539
link@@ 539
popoarele 539
siunii 539
desc 539
valul 539
speli 539
mintit 539
făcuţi 539
occident 539
întoarceţi-vă 539
smart 539
apara 539
exerciţii 539
tabilă 539
11-@@ 539
conso@@ 538
nicidecum 538
geţi 538
palmer 538
til@@ 538
xx@@ 538
ată@@ 538
adormi 538
cuge@@ 538
v. 538
picat 538
jon@@ 538
medicamentelor 538
prinsă 538
centimetri 538
accidentului 537
coreeană 537
pregăte@@ 537
creativă 537
buf@@ 537
tulbur@@ 537
chine@@ 537
nuci 537
londrei 537
colorate 537
purile 537
ştiinţe 537
ameninţă 537
absen@@ 537
adusă 537
traseu 537
copilăria 536
lanseze 536
sã-l 536
adunării 536
list 536
b.@@ 536
demonstra@@ 536
praj@@ 536
înveți 536
redu@@ 536
miron3@@ 536
informat@@ 536
experienţe 536
atri@@ 536
norman 536
oaspeţii 536
deli@@ 536
teoriei 536
speria 536
embri@@ 536
ateliere 536
muntelui 536
leziuni 536
vâr@@ 535
congo 535
dante 535
cazi 535
lara 535
ține@@ 535
întrebă 535
învăț@@ 535
g. 535
1939 535
şters 535
parerea 535
merkel 535
scapat 535
comunicaţii 535
expri@@ 535
free@@ 535
ilu@@ 535
urmatoare 535
păstraţi 535
firul 534
angajaților 534
combinat 534
itorii 534
terorismul 534
aranjez 534
şită 534
coro@@ 534
1972 534
stimularea 534
vazut-o 534
artistice 534
norocoşi 534
oaspete 534
gon 534
izbă@@ 534
galbenă 534
filmare 534
miza 534
simpli 534
ofiţeri 534
controlată 534
rătă@@ 534
dită 534
aeronave 534
afecteaza 534
sid 534
gazul 534
refuzi 534
bagajul 534
preferata 533
1967 533
raf@@ 533
publici 533
coș 533
darwin 533
filozofie 533
nebunul 533
lucrărilor 533
entitate 533
întele@@ 533
see 533
fraier 533
republic@@ 533
dii 533
scufundat 533
atrac@@ 533
vizibilă 533
construcţia 533
md 533
buck 533
statuia 533
galaxy 533
nebunesc 533
democrația 533
închidem 533
lanţul 533
adau@@ 532
cristal 532
devenise 532
antreprenori 532
universitățile 532
interven@@ 532
textului 532
iot 532
desktop 532
2.0 532
imper@@ 532
xxi 532
îngrijorare 532
demoni 532
masivă 532
telefo@@ 532
stockholm 532
frumusete 532
severe 532
gau@@ 532
extin@@ 532
setul 532
recunoaștere 532
răspândirea 532
solo 532
rin 532
cinematogra@@ 531
cautam 531
scârbos 531
pătruns 531
ţaţi 531
yer 531
salve@@ 531
power 531
tâmpitule 531
-şi 531
orei 531
dom@@ 531
umărul 531
atractiv 531
ud@@ 531
târgul 531
turn@@ 531
amo@@ 531
amenințări 531
tinere@@ 531
ofertele 531
soi 531
eve 530
provocărilor 530
buddy 530
liderilor 530
trupelor 530
renunțe 530
îngheţat 530
ţionaţi 530
sson 530
raul 530
software-ului 530
dormim 530
liftul 530
revendic@@ 530
wireless 530
apără 530
coborî 530
net@@ 530
ulterioară 530
tere@@ 530
vastă 530
profesorilor 530
seri@@ 530
instalați 530
tweet 530
lock 530
greşite 530
eforturilor 529
ons 529
propriului 529
să-si 529
baker 529
binare 529
anex@@ 529
şeriful 529
diplome 529
ascunde@@ 529
drogurilor 529
cunoști 529
nevinovaţi 529
chan 529
optimizarea 529
echivalent 529
summit 529
nega 529
keith 529
schimbari 529
misterioasă 529
judy 529
necrezut 529
cautarea 529
amu@@ 529
jer@@ 529
minore 529
frați 529
spânzurat 529
premieră 529
asigurari 529
ito 528
sabo@@ 528
pornind 528
turner 528
statisticile 528
sensibilă 528
rezolvare 528
recordul 528
diţi 528
senatului 528
hrănit 528
zbori 528
scriem 528
n-aveţi 528
incet 528
cunoaştere 528
echi@@ 528
nsa 528
louise 528
întâlneşte 528
bâ@@ 528
obisnu@@ 528
cunoaștem 528
poruncă 528
ediție 528
bău@@ 528
impri@@ 528
pomp@@ 528
licit@@ 527
margine 527
viol 527
whoa 527
impozite 527
băiatului 527
leaza 527
db 527
respir 527
toalett@@ 527
săpun 527
localizare 527
dentist 527
divorţ 527
grafia 527
prețurilor 527
intimitatea 527
impactului 527
ţită 527
pofta 527
schimbată 527
ționează 527
oli 527
priviți 527
familiar 527
conducerii 527
tradiţionale 527
scădea 527
frumuse@@ 527
metroul 527
fur 527
ght 527
bou@@ 527
ăstia 527
silor 527
geografice 527
ania 526
anunta 526
g.@@ 526
alb@@ 526
zidurile 526
înființarea 526
şor 526
vul 526
moştenirea 526
famili@@ 526
arăți 526
utilizăm 526
prostituată 526
grec 526
diferențele 526
lume@@ 526
ikea 526
sanatos 526
sse 526
primiți 526
mecanisme 525
abel 525
bră@@ 525
scor@@ 525
git 525
marinei 525
amendament 525
motocicleta 525
permanente 525
izol@@ 525
kde 525
spit@@ 525
sportului 525
birourile 525
țat 525
lion 525
ocupate 525
atle@@ 525
stăteau 525
gândirii 525
peisajul 525
minist@@ 525
20:@@ 525
ooo 525
frumusețe 525
umili@@ 525
reforme 525
р@@ 524
nixon 524
sincroni@@ 524
autentific@@ 524
dragonul 524
rosa 524
grasă 524
deschisa 524
fost@@ 524
prezentăm 524
dusă 524
glob 524
poliției 524
autentic 524
oportunitățile 524
figură 524
actriţă 524
detroit 524
hărţu@@ 524
rinichi 524
actorii 524
fitness 524
neglij@@ 524
duşmanul 524
hgh 524
ble@@ 524
indienii 524
operaţiunile 523
105 523
lanţ 523
micile 523
caracteri@@ 523
investi 523
rupte 523
arts 523
riscant 523
a.com 523
opta 523
egali 523
matur 523
ridicarea 523
suites 523
timid 523
generala 523
pacat 523
ieste 522
dimine@@ 522
ien 522
nou-@@ 522
teri@@ 522
apartine 522
simp@@ 522
inchide 522
comunică 522
vorb@@ 522
6/@@ 522
prostul 522
infla@@ 522
universităţii 522
strălucitor 522
prăjitură 522
ruth 522
confer@@ 522
şco@@ 522
deșeuri 522
shin 522
umanitate 522
sustin@@ 521
tir@@ 521
nivele 521
salutări 521
little 521
locotenentul 521
nin@@ 521
cabină 521
aptitudini 521
aţi-i 521
excelenta 521
zise 521
vehiculul 521
inteligența 521
şuri 521
tăi@@ 521
frumo@@ 521
vehiculele 521
creând 521
valurile 521
publicitatea 521
partidă 521
l'@@ 520
posesia 520
întunericului 520
sind 520
noptii 520
toast 520
preven@@ 520
pofida 520
științele 520
piz@@ 520
instalate 520
ajungeţi 520
curăţat 520
observ 520
îndepăr@@ 520
iov 520
lupul 520
atu 520
existenţei 520
precise 520
š@@ 520
ara@@ 520
decor@@ 520
dispusă 520
păcă@@ 519
meze 519
kins 519
fumează 519
intenţionează 519
soluțiile 519
criteriile 519
prietenele 519
bate@@ 519
chrome 519
legă@@ 519
drăgu@@ 519
rite 519
ener@@ 519
sufer@@ 519
guesthouse 519
arestaţi 519
to-@@ 519
nation@@ 519
icile 519
fiat 519
vampiri 518
criticat 518
eficacitatea 518
ef@@ 518
deficitul 518
copenhaga 518
ciclului 518
tigru 518
patri@@ 518
profunzime 518
pertur@@ 518
plimb 518
provizii 518
atotputernic 518
interzicerea 518
cretin 518
bunicului 518
gar 518
nie@@ 518
care-ţi 518
fenomene 518
înscri@@ 518
actualitate 518
recunoaştere 518
managerii 518
calmă 518
prioritatea 517
musulman 517
cior@@ 517
creștină 517
ato 517
scut 517
întâlnit-o 517
modalitatea 517
grătar 517
generația 517
gram@@ 517
seattle 517
băsescu 517
ţinută 517
şi/sau 517
reînno@@ 517
chirie 517
reacţia 517
colectăm 517
întârzia 517
iner 517
sosesc 517
plaza 517
pretin@@ 517
saci 516
strategiei 516
sediu 516
cauzată 516
reci@@ 516
creștinii 516
taţii 516
repetate 516
mt 516
dd 516
afecteze 516
altădată 516
apăsat 516
muni@@ 516
gazelor 516
sovietic 516
5. 516
acciden@@ 516
vs 516
amin 516
mm-hmm 516
stăpâni 516
ță@@ 516
desp@@ 516
familiari@@ 516
socotit 516
şte-ţi 516
sprijinit 516
abe 516
biologică 516
răspun@@ 516
organismele 516
concentrezi 515
zător 515
greșită 515
houston 515
consultant 515
posibilități 515
gaseasca 515
hd@@ 515
categoriile 515
agit@@ 515
ness 515
scuzati-ma 515
ţine-l 515
panica 515
circulație 515
ceaşcă 515
montreal 515
formatul 515
furtul 515
deti 515
potrivita 515
calific@@ 515
adeseori 515
ţiona 515
mobi@@ 515
depăș@@ 514
reali@@ 514
copile 514
urmează-mă 514
uşoare 514
nenorociţii 514
mângâ@@ 514
iluzie 514
domni 514
liniștit 514
teribilă 514
infectat 514
discriminare 514
târâ@@ 514
ila 514
febra 514
tală 514
amintește 514
casey 514
chu@@ 514
clinic 514
curata 514
depre@@ 514
6.000 514
south 514
intele@@ 514
cuvîntul 514
creierii 514
ziune 513
derile 513
fantezie 513
reciprocă 513
tec@@ 513
on-@@ 513
gripa 513
apropi@@ 513
trăia 513
vindecarea 513
crezând 513
violentă 513
steri@@ 513
formeze 513
staf@@ 513
nd 513
vraja 513
numărat 513
convenție 513
binecuvân@@ 513
examinarea 513
mixte 513
volkswagen 513
constru@@ 513
مطعم 513
ior@@ 513
collins 513
hrănesc 513
inflama@@ 513
minibar 513
inta 513
pute 513
cur 513
revistei 512
declin 512
corabie 512
67@@ 512
critic@@ 512
atatea 512
extensie 512
aparte 512
conflictelor 512
obișnuite 512
lena 512
competen@@ 512
singurătatea 512
care-şi 512
adri@@ 512
sanatatii 512
cump@@ 512
predate 512
mace@@ 512
marti@@ 512
whit@@ 512
savan@@ 512
gurii 512
dinamica 512
entă 512
aferente 512
pilor 511
pânã 511
păcăto@@ 511
juriul 511
totala 511
logistică 511
acreditare 511
accelera 511
wright 511
mosten@@ 511
breve@@ 511
virusului 511
indicatori 511
gată 511
patria 511
asa-i 511
ţare 511
anța 511
oferită 511
pamantului 510
şte-mi 510
scoateţi 510
tap@@ 510
experiențele 510
atacului 510
depozite 510
încetin@@ 510
săracă 510
urcăm 510
învierea 510
completarea 510
legislative 510
petersburg 510
împărţim 510
stella 510
confi@@ 510
bazei 510
facturile 510
ek 510
ţiunea 509
spiritului 509
sesti 509
posedă 509
tă-te 509
jurământul 509
pătrat 509
sexuala 509
lemne 509
depășește 509
sân@@ 509
şirea 509
exclude 509
conştienţi 509
renuntat 509
contabil 509
aaa 509
laolaltă 509
brody 509
râsul 509
pay@@ 509
neşti 509
încadrează 509
12-@@ 509
singuratic 509
tot@@ 509
vechime 509
valiza 509
întrerup 508
populatia 508
evadat 508
lule 508
sigi@@ 508
jucaţi 508
sher@@ 508
politiei 508
corpuri 508
delic@@ 508
cincisprezece 508
betty 508
unsprezece 508
subiectele 508
ilumin@@ 508
chase 508
colonie 508
zborului 508
trecând 508
yahoo 508
siei 508
arhitec@@ 508
gno@@ 508
recunoașterea 508
hugo 508
cary 508
concerte 508
mision@@ 507
s'au 507
sexi 507
gători 507
sălbatică 507
temerile 507
distribuite 507
dow@@ 507
iernii 507
jurnalist@@ 507
usoara 507
antreprenor 507
punea 507
yi 507
ecologic 507
coboare 507
declan@@ 507
inse@@ 507
pictat 507
eficiență 507
1965 507
wang 507
varea 507
fişier 507
rezervat 507
vizualiz@@ 507
extinse 507
divin 506
explorarea 506
recunoscători 506
hindu@@ 506
ech@@ 506
orbita 506
bucatarie 506
interfață 506
pru@@ 506
posibili@@ 506
profesionişti 506
crescută 506
cană 506
foc@@ 506
comise 506
irlandez 506
exterioare 506
evenimentului 506
mol@@ 506
plumb 506
curajoasă 506
tăria 506
circulaţie 506
nora 506
vacan@@ 506
1920 506
contemporană 506
medalia 506
tags 506
galbene 506
mis 506
bishop 505
200.000 505
uşii 505
imaginaţia 505
enorme 505
roboţi 505
sambata 505
presedintelui 505
ţâ@@ 505
tehnicile 505
burta 505
politician 505
randy 505
light 505
prag@@ 505
influență 505
chin 505
ascultarea 505
cir@@ 505
occidentală 505
competitive 505
orbită 504
mancarea 504
învăţare 504
tas 504
ţionează 504
ază-i 504
loialitate 504
acţiunilor 504
tradiție 504
porcăria 504
dezvălu@@ 504
supravieţuire 504
amă 504
proprietari 504
teme@@ 504
sentin@@ 504
artistul 504
inscrip@@ 504
kilo@@ 504
gândesti 504
vizualizarea 504
scanare 504
prevăzută 504
castle 504
bărb@@ 503
suparat 503
juli@@ 503
baruri 503
învăţământ 503
gle@@ 503
lice@@ 503
seg@@ 503
deru@@ 503
tle@@ 503
sirea 503
reed 503
popo@@ 503
duşman 503
constituit 503
adapteze 503
împără@@ 503
litatea 503
grevă 503
măsurare 503
creatura 503
perfor@@ 503
vremii 503
legitim 503
adulti 503
var 503
documentar 503
spațiului 503
analytics 503
echip@@ 503
studierea 503
râuri 503
senatul 503
nemernicul 503
celebri@@ 503
exercitarea 503
khan 503
pumn 502
mexican 502
incercam 502
scă 502
inalt 502
ilie 502
răspân@@ 502
insigna 502
hun@@ 502
back@@ 502
uscate 502
stului 502
iasa 502
urmăriți 502
pacienților 502
logan 502
controlezi 502
44@@ 502
shu@@ 502
125 502
sfâ@@ 502
mecanice 502
simulare 502
magnetic 502
ray@@ 502
nădejde 502
jocuri@@ 502
ines 502
citit-o 502
pennsylvania 501
bumbac 501
1930 501
gag@@ 501
sănătoşi 501
9/@@ 501
rechin 501
limitarea 501
indiferen@@ 501
burse 501
supraveghe@@ 501
cainele 501
christine 501
london 501
închei 501
cami@@ 501
regi 501
bot 501
aşteaptă-mă 501
in-@@ 501
cori@@ 501
foaie 501
serverele 501
ţial 501
vitate 501
scriptura 501
document@@ 500
la-@@ 500
viru@@ 500
ring 500
filozofia 500
felicit 500
idioţi 500
tremur@@ 500
sandy 500
taxiul 500
autorului 500
vaca 500
linistit 500
atei 500
evoluează 500
nare 500
doară 500
creştinii 500
veneţia 500
talentat 500
intin@@ 500
speranţe 500
acţioneze 500
discuri 500
odih@@ 500
vâs@@ 500
parteneriate 500
iești 500
cheme 500
recic@@ 500
cire@@ 500
permisă 500
wu 500
apart@@ 500
services 499
rî@@ 499
ns 499
traiesti 499
apela 499
șilor 499
tri 499
urcaţi 499
și-@@ 499
rezervele 499
teritorii 499
fondurilor 499
miei 499
vesel 499
bunătate 499
hanna 499
crede@@ 499
valutar 499
mcdonald 499
selecta 499
toby 499
artiști 499
dite 499
fãrã 499
popu@@ 499
5/@@ 499
marcel 499
fluctu@@ 499
peştii 499
mulţumi 499
tortul 499
înjunghiat 499
hărți 499
cititorii 498
documentelor 498
creaţie 498
inchirieri 498
pho@@ 498
drăguţe 498
executa 498
albumul 498
lib@@ 498
încrezător 498
accesați 498
locuieste 498
acro@@ 498
py@@ 498
produsă 498
ae@@ 498
refeream 498
wol@@ 498
apari@@ 498
liniei 498
rating 498
recunoaste 497
jedi 497
rezon@@ 497
bruno 497
hon@@ 497
relatiile 497
head 497
alfred 497
asele 497
rel 497
pâ@@ 497
voința 497
regulate 497
feedback 497
consecințele 497
casatorie 497
amer@@ 497
petr@@ 497
diver@@ 497
mariei 497
mincinoşi 497
bay@@ 497
pos 497
bucat@@ 497
00:@@ 497
lingu@@ 496
adverse 496
99@@ 496
bum 496
sherman 496
barack 496
folositoare 496
ţială 496
cindy 496
™ 496
ută 496
ă-mă 496
naşpa 496
județul 496
gy@@ 496
munceşti 496
matri@@ 496
cum@@ 496
ficată 496
declanş@@ 496
book 496
descar@@ 496
1918 496
stanford 496
ast 496
bud@@ 496
reusi 496
plastice 495
rusești 495
închişi 495
kai 495
connor 495
hoţi 495
proprie@@ 495
audrey 495
vate 495
lipsea 495
vorbe@@ 495
traian 495
odihna 495
şesc 495
menţinerea 495
numi@@ 495
ţi-mi 495
relat@@ 495
gramada 495
1983 495
locuinţa 495
cerebral 495
melo@@ 495
liban 495
erec@@ 495
debbie 495
structurile 495
latura 495
susținerea 495
răspundeţi 495
boris 495
distrez 495
siva 495
sem@@ 495
infracţiuni 495
kle@@ 495
anunță 495
supărare 495
continentul 495
întreținere 495
psihologia 495
tanara 495
siți 494
oo@@ 494
stiinte 494
întoarce@@ 494
altar 494
conservare 494
deplasează 494
ju 494
vizualiza 494
extrac@@ 494
mântuit 494
alistă 494
socie@@ 494
cher@@ 494
cker 494
pieţe 494
armament 494
nașterea 494
negrii 494
trăiești 494
mașinii 494
neam 494
10,@@ 494
solul 494
le-o 494
includă 494
tech@@ 494
înlocuiască 494
ellie 494
paşii 494
paypal 494
saturn 493
profesorului 493
săptămânal 493
bloca@@ 493
poduri 493
brexit 493
iala 493
vize 493
neplăcut 493
filip 493
islami@@ 493
trait 493
sportivi 493
asasin 493
învăță@@ 493
coordonatele 493
poveștile 493
schimbate 493
noti@@ 493
wade 493
thor 493
ţiţi 493
exploatarea 493
otrava 493
contrast 493
dependen@@ 493
prepar@@ 493
conduse 493
depuse 493
colin 493
belarus 493
culturile 493
temeţi 493
întări@@ 492
coş 492
anul@@ 492
mick 492
locuiește 492
rezervări 492
reprezentantul 492
lou@@ 492
straniu 492
olog 492
dim 492
antrenamentul 492
maroc 492
anunţa 492
tinta 492
florrick 492
spaţiale 492
cristoase 492
odihnească 492
tabere 492
ajunul 492
organizatiei 492
colegiului 492
orientarea 491
nit@@ 491
independenţa 491
1981 491
conferinta 491
robbie 491
vedeta 491
rebecca 491
dezbateri 491
recomandare 491
frăţioare 491
pension@@ 491
realizările 491
asiei 491
componenta 491
cititor 491
cobori 491
isis 491
muniţie 491
satelitul 491
ială 491
sã-i 491
fiice 491
unealtă 490
rezoluție 490
hectare 490
amenzi 490
constituţia 490
sã-mi 490
lipit 490
concluziile 490
farmecul 490
duşmanii 490
13.@@ 490
câsti@@ 490
coti@@ 490
servici 490
ferme 490
inilor 490
oz 490
mircea 490
flori@@ 490
amesteca 489
cuprin@@ 489
stabilesc 489
lucrați 489
sfar@@ 489
rădăcinile 489
întoc@@ 489
împarte 489
coordonarea 489
sacru 489
îmbunătățește 489
corupt 489
corporală 489
cremă 489
ecolog@@ 489
gândea 489
supersti@@ 489
spală 489
ally 489
hârtia 489
gale 488
stocarea 488
pen 488
abonament 488
poloniei 488
tonă 488
bad@@ 488
conflictului 488
măreţ 488
circuit 488
tabel 488
lectura 488
atrăgătoare 488
semnarea 488
activelor 488
aceiaşi 488
singurătate 488
minor 488
demo 488
violența 488
dj 488
odi@@ 488
condiție 488
experţii 488
permiteţi 488
mark@@ 488
supără 488
prezice 488
slovacia 487
afir@@ 487
operatorii 487
definită 487
12,@@ 487
hac@@ 487
reabilitare 487
indiana 487
cardiac 487
lucrătorii 487
senti@@ 487
atot@@ 487
incan@@ 487
matematice 487
asiguri 487
recrutare 487
luxemburg 487
finn 487
constanţa 487
creşterii 487
primeste 487
moştenire 487
dorinţele 487
blocaţi 487
kit@@ 487
1968 487
doctor@@ 486
nag@@ 486
împărtăși 486
volan 486
discutam 486
urmăre@@ 486
sof@@ 486
ţează 486
mc 486
gg 486
dobitoc 486
radar 486
jucăriile 486
competiție 486
ce-aţi 486
consta 486
creştine 486
nicul 486
vindecă 486
monitorul 486
răniți 486
inutilă 486
reglementări 486
gic 486
obișnuiți 486
se-@@ 486
abilității 486
mozart 486
municipiului 486
industri@@ 486
structurii 486
comuni@@ 486
oricand 486
selectează 485
razboiului 485
păcatului 485
expune 485
orală 485
sms 485
dentare 485
parcuri 485
tuns 485
combinaţie 485
galaxii 485
şefa 485
traduceri 485
pol 485
caracteristica 485
ziei 485
urss 485
cazinou 485
poten@@ 485
porunci 485
deșeurilor 485
bangkok 484
legislaţia 484
muncim 484
răspunde-mi 484
mini-@@ 484
vizuală 484
investească 484
vierme 484
evo@@ 484
bine-@@ 484
ităţilor 484
conci@@ 484
obţinem 484
imprimantă 484
dex 484
locuitor 484
girl 484
printul 484
balul 484
justiției 484
rele@@ 484
altitudine 484
lock@@ 484
dorul 484
semnez 484
îmbrac 484
acade@@ 484
lentă 484
prezenţi 483
dica 483
comparat 483
îmbră@@ 483
amatori 483
traim 483
nirea 483
inser@@ 483
cite 483
plângând 483
încăpere 483
bah@@ 483
maxi@@ 483
putina 483
furată 483
șă 483
exemplare 483
umani 483
siri 483
recompen@@ 483
protestan@@ 483
arcul 483
albine 483
diviz@@ 483
încărca 483
arest 483
vorbeai 483
creasca 483
încărcarea 483
besc 483
que@@ 483
depor@@ 483
unic@@ 483
îngăduit 483
blondă 482
repare 482
kol@@ 482
purtând 482
suit 482
lacului 482
hello 482
tel@@ 482
dansat 482
clin@@ 482
trezirea 482
ţească 482
1949 482
introduceţi 482
încuiat 482
grupe 482
asistența 482
chirurgie 482
eugene 482
divizie 482
dinăuntru 482
explozii 482
actualiz@@ 482
tru 482
pulsul 482
săracul 482
ofici@@ 482
vulnerabile 482
ţionată 482
rig@@ 481
reziste 481
vizionări 481
parteneriatul 481
vitreg 481
dificultăți 481
epuiz@@ 481
greşesc 481
1977 481
îndoieli 481
autorităţilor 481
învățământului 481
pc@@ 481
accentu@@ 481
portocale 481
pop@@ 481
leac 481
spitalele 481
iat-o 481
kun@@ 481
atenți 481
aglomerat 481
vich 481
kenny 481
globalizarea 481
mancat 481
browserul 481
electorale 481
ţarea 481
modifice 481
existentă 481
țial 480
pericole 480
bilaterale 480
dezvoltăm 480
grâu 480
remarcabile 480
vanessa 480
galeria 480
îndepărta 480
dispreţu@@ 480
relaxat 480
tana 480
marti 480
repro@@ 480
sunăm 480
sunetele 480
inteligenţa 480
xul 480
glas 480
plas@@ 480
jiang 480
localizat 480
recunoaştem 480
partaj@@ 480
elită 480
închideţi 480
cac@@ 480
consili@@ 480
instituțiilor 480
clima 480
teni 480
diminu@@ 480
arestare 480
vânzător 480
ecologică 480
mi-era 480
aplicațiilor 480
arhe@@ 480
observi 480
paţi 479
mijlocii 479
atlanta 479
sibiu 479
dispariţia 479
distincte 479
bineînteles 479
scadă 479
sloturi 479
arogan@@ 479
vânzărilor 479
lunile 479
vieti 479
operaţii 479
shin@@ 479
ral 479
php 479
sirian 479
șa 479
multimedia 479
excesiv 479
tropicale 479
plã@@ 479
arc 479
grupurilor 479
michigan 479
pătrunde 479
interferen@@ 479
cauți 479
remarcabilă 479
mijloacelor 479
500@@ 479
fia 478
națiune 478
pension 478
toronto 478
liniştiţi 478
spusese 478
meni 478
republican 478
450 478
deca@@ 478
riley 478
tratezi 478
tiu 478
douglas 478
asumă 478
wi 478
170 478
esenţială 478
surd 478
glumesti 478
închidere 478
reno@@ 478
1942 478
1500 478
înarmaţi 478
bon 478
asuma 478
21@@ 478
leag@@ 478
imaginaţi-vă 478
deranj@@ 477
vizibilitate 477
portugheză 477
electri@@ 477
1941 477
pictor 477
apărat 477
pămînt 477
fixat 477
muzee 477
tual 477
esență 477
loi@@ 477
transporturilor 477
chester 477
consecințe 477
măsoară 477
vinci 477
minun@@ 477
dezvoltatori 477
elec@@ 477
menite 477
sinceri 477
fruc@@ 477
maritime 477
23:@@ 477
mafia 477
victoriei 477
sorul 477
crip@@ 477
intui@@ 477
tradus 476
înlătur@@ 476
isteţ 476
2017@@ 476
cele@@ 476
valoroasă 476
eficien@@ 476
arhive 476
inteligenţă 476
încurajat 476
revoltă 476
rase 476
bad 476
tali@@ 476
multumit 476
asamb@@ 476
sonny 476
înv@@ 476
imaginilor 476
materii 476
fostului 476
stabilim 476
echipate 476
demonii 476
holly 476
oul 476
condiția 476
bucăți 476
arestarea 476
exercițiu 476
opere 476
licenţă 475
merite 475
reuniunea 475
mananci 475
înlocuirea 475
medicului 475
respectate 475
preturile 475
zer@@ 475
condamn@@ 475
accesat 475
gam@@ 475
stevens 475
folosita 475
enervat 475
dong 475
explicit 475
bli@@ 475
prezis 475
duncan 475
instalează 475
austin 475
înapo@@ 475
unităţile 475
neputin@@ 475
mesc 475
separată 475
bateriei 475
fotograf 475
electrica 475
turc 475
crăciunului 475
progno@@ 474
otel 474
insistă 474
monetar 474
bisericile 474
inv@@ 474
reşti 474
anţii 474
factorul 474
veneam 474
terestre 474
sprijinirea 474
fermieri 474
chit 474
bosch 474
luminoase 474
atomice 474
combina 474
ts@@ 474
joy 474
locuiască 474
coranul 474
garanţie 474
maxima 474
remor@@ 474
coborâm 474
diferiți 474
respiri 474
deplasare 474
eur@@ 474
explozi@@ 474
beată 474
citirea 474
ură@@ 474
emise 474
earl 474
ti-ar 473
iubitoare 473
dispozi@@ 473
reuni@@ 473
colega 473
pl 473
barnes 473
aşa-@@ 473
democratică 473
cole@@ 473
soft 473
trăsături 473
tinde 473
femin@@ 473
chestiunea 473
supraviețuit 473
depăşi 473
tita 473
pont 473
malta 473
atomică 473
stiluri 473
difuzat 473
intitulat 473
grey 473
orleans 473
dispozitivelor 473
aportul 472
nik 472
discre@@ 472
suf@@ 472
drăguță 472
marijuana 472
omni@@ 472
prosti 472
timpurii 472
îndră@@ 472
infin@@ 472
vandut 472
resursă 472
fondator 472
lli 472
masinile 472
nos 472
joan 472
adul@@ 472
specializată 472
şan@@ 472
administraţie 472
vãzut 472
ciclism 472
submarin 472
discrimin@@ 472
demisionat 472
spiritele 472
grani@@ 472
mikey 472
preocupare 472
repri@@ 472
quin@@ 472
fascin@@ 472
yan@@ 472
mişcările 472
ruta 471
anunț@@ 471
tv@@ 471
onală 471
duş@@ 471
moarta 471
ivan@@ 471
puș@@ 471
1962 471
rădăcini 471
floren@@ 471
ediţie 471
simpatic 471
hotmail.com 471
progre@@ 471
soia 471
ființă 471
clasamentul 471
iste@@ 471
excel 471
chilo@@ 471
impresion@@ 471
oarbă 470
curiozitatea 470
fă-i 470
lemnul 470
instituţiile 470
albinele 470
investigaţie 470
galaxie 470
studentul 470
binecuvântare 470
point 470
arad 470
depun 470
acoperită 470
entuziasm 470
povestiri 470
dansatoare 470
teza 470
țială 470
incendi@@ 470
ignoră 470
legitime 470
ușoare 470
lescu 470
rent 470
platesc 470
aki 469
flan@@ 469
curioasă 469
discutie 469
blocarea 469
nik@@ 469
arterială 469
săli 469
booth 469
sburg 469
iesim 469
fermierii 469
sculat 469
naturala 469
15.@@ 469
dobândit 469
haw@@ 469
catedrala 469
revoluţiei 469
optimist 469
victori@@ 469
ecranului 469
infarct 469
bombar@@ 469
evadare 469
itat 469
beneficiu 469
pasionat 469
carto@@ 469
ţine-o 469
dee 468
râdă 468
oribilă 468
intern@@ 468
cumplit 468
ţineţi-vă 468
roade 468
împărțit 468
crucial 468
fuzi@@ 468
fru@@ 468
incheiat 468
stelelor 468
3,5 468
greci 468
regreta 468
leşinat 468
plecată 468
datează 468
week-end 468
aturile 468
recu@@ 468
întâlnirile 468
avort 468
bagaje 468
intreprin@@ 467
cairo 467
panouri 467
terul 467
preţu@@ 467
emoţiile 467
chemăm 467
farfurie 467
viktor 467
costu@@ 467
bunic@@ 467
philadelphia 467
implemen@@ 467
compre@@ 467
lg 467
scoase 467
conversia 467
sedinta 467
împărţit 467
campanii 467
sot 467
tch 467
confeder@@ 467
apuc 467
toxic@@ 467
vat 467
exi@@ 467
părăseşte 466
împuş@@ 466
aperi 466
lanțul 466
inar 466
păcătos 466
marius 466
orizon@@ 466
folositor 466
clasat 466
minimum 466
participanților 466
16.@@ 466
brandon 466
pedro 466
promisiuni 466
diabetul 466
franci 466
africană 466
cerebrale 466
telefonică 466
magist@@ 466
viitoarea 466
cronică 466
fizi@@ 466
rai@@ 465
semnalele 465
ceşte 465
amenaj@@ 465
restitu@@ 465
incidente 465
anelor 465
generatie 465
relevantă 465
♫ 465
decen@@ 465
îmbătrân@@ 465
inspectorul 465
infectate 465
şi-n 465
confec@@ 465
ziceau 465
misiunile 465
analizeze 465
îngenun@@ 465
împuşca 465
potrivire 465
stări 465
înfiinţat 465
alergi 465
music 465
ceapă 465
frecvență 465
păsat 465
facea 465
ive@@ 464
găse@@ 464
măn@@ 464
500.000 464
dublat 464
pii 464
benefic 464
dureroasă 464
mase 464
modulul 464
gent 464
sincronizare 464
cerințelor 464
indivizii 464
elementelor 464
cocos 464
franci@@ 464
interfe@@ 464
zvonurile 464
l- 464
conge@@ 464
в@@ 464
aer@@ 464
canceroase 464
vocile 464
kitt 464
scriitorul 464
span@@ 464
adi 464
încurcat 464
căsătoreşti 464
suflare 464
renumit 464
kers 464
ţeşte 464
dorită 464
luther 464
confortabilă 464
arunc@@ 463
tub 463
suger@@ 463
ameninţarea 463
punând 463
apelurile 463
migre@@ 463
fortele 463
intar@@ 463
company 463
ficatul 463
expansiune 463
bim 463
iepur@@ 463
păsărică 463
maiestatea 463
kira 463
lif@@ 463
angajarea 463
figur@@ 463
sunaţi 463
ca-i 463
expi@@ 463
retro@@ 463
1,2 463
înain@@ 463
realizări 463
ierusalimului 463
celorlalți 463
elimin@@ 463
nelor 463
partenerului 463
etnice 463
muzeului 463
fiin@@ 463
învârte 463
flexibile 463
anoni@@ 463
categori@@ 463
bow@@ 463
ându-şi 462
alizării 462
luptători 462
semnezi 462
analizele 462
instruirea 462
drăguţi 462
ampli@@ 462
1900 462
reduc 462
page 462
organizeze 462
tranzacțiile 462
permiţi 462
meta@@ 462
nebuna 462
acuzaţiile 462
ninja 462
infracţiune 462
pruden@@ 462
farmaceutice 462
lăudat 462
plătiți 462
implementare 462
relevan@@ 462
adresele 462
realizăm 462
autori 462
poloneză 462
reușesc 462
eliberez 462
patrimoniul 462
generalului 462
testelor 462
închirierea 462
prevederilor 462
puşcă 462
căpă@@ 462
revoluție 462
progresele 462
servește 462
medicilor 462
rezervor 462
darurile 461
diamantele 461
voca@@ 461
mi-as 461
jor@@ 461
spion@@ 461
obţinerea 461
morţilor 461
restricții 461
gunoaie 461
tracy 461
porcul 461
organic 461
soț 461
băuturile 461
tineret 461
over@@ 461
dureaza 461
colecţie 461
înscriere 461
ce-şi 461
graf 461
imunitate 461
smul@@ 461
furioasă 461
speciile 461
exploda 461
49@@ 461
1.2 460
mișcări 460
jec@@ 460
staţi@@ 460
vinov@@ 460
completează 460
obţinute 460
ocu@@ 460
distribuţie 460
identi@@ 460
cot 460
preziden@@ 460
digit@@ 460
semnific@@ 460
ținând 460
ance 460
efectuată 460
travis 460
tineti 460
autorităților 460
bud 460
bus 460
desenat 460
apucă 460
referinţă 460
1.1 460
anţa 460
rod 460
pătrun@@ 459
democrație 459
registru 459
preşedin@@ 459
încrederii 459
răsfă@@ 459
continental 459
lah 459
ide 459
explodeze 459
investiție 459
ucise 459
regizor 459
speriaţi 459
cărilor 459
dispută 459
adune 459
force 459
înnebun@@ 459
adoptă 459
para@@ 459
folosea 459
som@@ 459
colectează 459
nefericită 459
interactive 459
dispuşi 459
ambelor 459
sacri@@ 459
flexi@@ 459
ces 459
randall 459
caldura 459
bebeluşul 459
parinti 459
ambulanţă 459
pon 459
uneltele 459
expul@@ 459
uriașe 458
drew 458
detaliată 458
cf 458
omenească 458
urmatorii 458
epuizat 458
împrumuta 458
coşul 458
purtătorul 458
santiago 458
testate 458
bucuroasă 458
turnat 458
ateri@@ 458
pai@@ 458
prognoză 458
doamnele 458
nazist 458
zească 458
lunare 458
kaz@@ 458
network 458
emb@@ 458
toriu 458
tism 458
adaptate 458
discutii 458
chia 458
debu@@ 458
consoli@@ 458
geloasă 458
vreuna 458
consultan@@ 458
acest@@ 457
pirat@@ 457
1947 457
camp 457
scuza 457
intelegere 457
a-n@@ 457
dora 457
adulții 457
guvernamentală 457
deghi@@ 457
[...]
