#version: 0.2
s t
p o
n e
r o
n í</w>
t e
o v
c h
t o</w>
j e</w>
r a
l e
s e</w>
n a</w>
j e
a l
p ř
d o
k o
n a
j s
c h</w>
t a
n o
e n
ž e</w>
l a
i n
e m</w>
p ro
l i
t o
h o</w>
a n
r á
t e</w>
o d
z a
í m</w>
n i
m o
b y
j a
c e</w>
s k
v ě
d ě
v e
d e
ř e
v y
m e</w>
p a
n ě</w>
n á
n ě
o b
l a</w>
p r
k a
k d
t i
v á
m a
v o
k y</w>
m i</w>
js em</w>
b u
m ě
c o</w>
l i</w>
l o
v i
v a
h o
př e
l e</w>
s i</w>
st a
s e
n í
c i</w>
c e
r e
l á
š e
m á
d i
b o
k u</w>
r i
j í</w>
k u
ž i
b y</w>
z e
m i
n é</w>
m e
l u
k te
s o
v í
ý ch</w>
p ra
ř í
s t</w>
č e
. .</w>
m u
t y</w>
t ě</w>
t ě
d a
ja k
ž e
š í</w>
m ů
. ..</w>
r u
l o</w>
al e</w>
j i
v ý
př í
o u</w>
m u</w>
n e</w>
ov a
m í
d á
c k
j í
d y</w>
př i
ta k</w>
b e
z á
d e</w>
p e
d o</w>
do b
s a
s po
é ho</w>
pr o</w>
k a</w>
kte r
t i</w>
m ě</w>
t u</w>
n o</w>
d u</w>
ro z
ta k
t u
l í
c í</w>
st i</w>
d í
ja k</w>
n y</w>
s i
h od
o r
n ý</w>
je d
p rá
m y
v e</w>
no u</w>
p i
k á
c i
n á</w>
j i</w>
ko n
js ou</w>
jak o</w>
z a</w>
kd y
st e</w>
t a</w>
l y</w>
a r
ov á
s í
my s
ne b
ne j
ova t</w>
č i
j á</w>
js i</w>
s v
z e</w>
t r
ov é</w>
so u
c o
st u
neb o</w>
t á
ř e</w>
f i
t ře
š i
z i
v í</w>
b i
st á
pra v
` `</w>
po d
v še
je n</w>
é m</w>
n i</w>
č a
js me</w>
t í</w>
st e
o d</w>
kdy ž</w>
v z
u ž</w>
ý m</w>
h le</w>
d u
l ov
n u</w>
s vě
n ím</w>
li d
al a</w>
č í
b a
te l
' '</w>
ž í
by l</w>
st i
m en
j ste</w>
po u
b ý
c í
s le
lo u
ř i
l ní</w>
p ě
n ov
t v
kd o</w>
š e</w>
m á</w>
d a</w>
p á
u je</w>
ní ch</w>
bu de</w>
no sti</w>
st o
á d
h a
ne ní</w>
vá m</w>
z na
ře k
h e
prá v
r y</w>
r a</w>
ko u</w>
ro v
mů že
2 0
g i
no st</w>
al i</w>
c en
r u</w>
ve l
bý t</w>
ch o
vše ch
m a</w>
j te</w>
u t</w>
pře d
ová ní</w>
kter é</w>
m y</w>
k la
p ů
p o</w>
kd y</w>
z d
p u
t ím</w>
ne ch
ř í</w>
š tě</w>
h la
s ob
mo h
a by</w>
p la
m in
b í
mo ž
l é
b ě
d ní</w>
k rá
d ů
ž d
n u
š í
ku d</w>
d en
st ra
ko u
by ch</w>
v ní</w>
sk é</w>
k e
r y
dě la
al i
pro č</w>
má m</w>
de n</w>
ne ž</w>
v a</w>
t í
te l</w>
ta dy</w>
by lo</w>
s y
v ím</w>
st ře
h le
v á</w>
t y
l u</w>
v y</w>
s u
by la</w>
t ní</w>
po tře
z í</w>
st í</w>
ně co</w>
f or
p l
ck é</w>
t ra
an o</w>
v la
pa d
s ím</w>
je ho</w>
ch á
k ov
ta m</w>
dob ře</w>
a k
m lu
mí st
g ra
t ro
vá s</w>
to m</w>
le č
ži vo
v š
p í
an e</w>
ř i</w>
te n</w>
to ho</w>
po kud</w>
te n
do u</w>
va t</w>
č ní</w>
bu de
z ná
d r
d ov
kd e</w>
d al
n ých</w>
ch od
le p
b ra
a u
te ď</w>
ž en
b a</w>
me z
spo leč
h ra
dob r
ch y
dě lá
mů že</w>
j o</w>
ž í</w>
g e
s lu
vě t
jí cí</w>
st ví</w>
s á
ní ho</w>
f e
ni c</w>
f o
mě st
t é
je ště</w>
ce l
d í</w>
ko li
z í
ka žd
d ne
j ší</w>
r t
j in
jí t</w>
k ů</w>
sk u
st rá
no ut</w>
to hle</w>
be z
le t</w>
v od
pa k</w>
pro to
m é
pra c
k o</w>
po ř
tak é</w>
l í</w>
ná s</w>
č í</w>
v ů
á lní</w>
ne s
t é</w>
vla st
ž ád
k ro
vi dě
v en
mu sí
ch ce
mo c</w>
mě l</w>
kter ý</w>
an i
a ž</w>
s na
an i</w>
ze ní</w>
0 0</w>
proto že</w>
vi t</w>
h u</w>
s í</w>
vo u</w>
o n</w>
č á
k á</w>
b e</w>
k ra
m no
pře d</w>
e x
c a
20 1
in y</w>
vě dě
ji ch</w>
l y
le m</w>
t ov
v lá
ra n
ví ce</w>
ve r
sv é</w>
u r
tak že</w>
p en
al o</w>
od po
1 9
d ru
še ní</w>
ů m</w>
po z
jed no
l ím</w>
ho tel</w>
te č
h u
od e
do sta
t vo
še l</w>
může te</w>
ch tě
m r
m al
děla t</w>
t ý
ná m</w>
in á
pou ží
pa t
z ku
prav du</w>
k i
mů j</w>
š tě
ý mi</w>
h i
w e
dě l
na bí
j de</w>
po li
c t</w>
š ko
všech ny</w>
ho u</w>
ni kdy</w>
potře bu
ch u</w>
te r
řek l</w>
ne u
t ů</w>
n ého</w>
má š</w>
ova l</w>
m an
h rá
j u</w>
v u</w>
je jich</w>
ze m
ve d
pro sím</w>
po s
ste j
o te
č e</w>
k em</w>
po ko
ž u</w>
kter á</w>
všech no</w>
f a
k é</w>
je st
bez pe
po dí
lep ší</w>
ro d
s u</w>
ni t</w>
st ě</w>
vá ní</w>
ů j</w>
h a</w>
r ů
č i</w>
s ně</w>
sle d
z mě
ry ch
ví š</w>
j de
má te</w>
mys lím</w>
sk á</w>
h á
t ky</w>
u n
le ži
š i</w>
st ro
p ane</w>
é mu</w>
če r
dal ší</w>
sk ý</w>
cí ch</w>
strá n
ře j
v ši
ob ra
ma jí</w>
do u
vel mi</w>
g a
pr e
ch a
da t</w>
má me</w>
l in
te k</w>
s em</w>
in for
b u</w>
v ě</w>
m ů</w>
to mu</w>
tak ov
ch ci</w>
mož ná</w>
ro u</w>
po j
m o</w>
jest li</w>
s pě
z pů
ro ce</w>
mí t</w>
je me</w>
mů žu</w>
ch la
s a</w>
a me
h em</w>
ně jak
pr ů
vo l
mys lí
ten to</w>
le n
stu p
a by
př i</w>
k e</w>
v é</w>
ví c</w>
u jí</w>
c ky</w>
pro stře
mu sí</w>
mez i</w>
p lá
pr vní</w>
o n
š ím</w>
ch ni</w>
ame ri
o sob
bo u</w>
u ži
r ů</w>
č in
pro b
á l
kte ří</w>
bu dou</w>
v ra
a k</w>
k li
ř a
ta ky</w>
vši chni</w>
ka z
v rá
h lá
pa r
infor ma
z ů
ne m</w>
bu du</w>
a si</w>
sy st
va še</w>
v r
an é</w>
h y</w>
če ní</w>
po mo
s la
dne s</w>
te ch
sta r
lo gi
sk y
vš ak</w>
ro p
zd ra
lov ě
pod le</w>
d lou
roz hod
ma r
ch e
be z</w>
č lově
mo je</w>
ž a
moh l</w>
na še</w>
sku teč
r d
či t</w>
u ni
mu se
h ov
ší ch</w>
bezpe č
poř ád
o pravdu</w>
cho m</w>
mo hou</w>
ko ne
g o
b lí
s pe
e v
po č
ck ý</w>
mě li</w>
l é</w>
al o
m é</w>
ně jší</w>
ča s</w>
ce st
s y</w>
pro gra
j mé
každ ý</w>
pro to</w>
le ní</w>
mě la</w>
ři t</w>
r e</w>
k r
ni c
dru h
je den</w>
ne vím</w>
pě t</w>
svě t
s lov
ob chod
or g
ř en
b á
s ly
dí ky</w>
vá ž
h ro
da l</w>
sa mo
te be</w>
j o
sk ých</w>
ku r
n ým</w>
živo t</w>
in u</w>
lid í</w>
z o
př á
ob la
ří ka
d ě</w>
l ý</w>
ti t</w>
mys le
b li
sk a</w>
na n
ck ých</w>
st o</w>
je te</w>
ně kdo</w>
te le
ov á</w>
d i</w>
ji m</w>
b ar
ne za
mi li
ev rop
je jí</w>
o ch
f un
a p
d va</w>
m í</w>
ro ku</w>
do kon
lid é</w>
tr a</w>
g u
ro di
sou bo
by li</w>
koli k</w>
k ý</w>
st an
z en
te m</w>
vi d
n ové</w>
k ti
d á</w>
vi dí
může me</w>
pa rt
b ě</w>
s práv
m ně</w>
v in
z ra
dů leži
prá ce</w>
au to
stá le</w>
p u</w>
1 0</w>
n y
to m
c ů</w>
t ně</w>
ote v
chá zí</w>
rá d</w>
j ů</w>
s né</w>
ž á
zna men
před sta
chce š</w>
po sle
nej lepší</w>
mě sí
mu sím</w>
ní k</w>
ří ct</w>
ví te</w>
t rá
i n</w>
dobr ý</w>
pod po
děla l</w>
co o
f ran
r ní</w>
va jí</w>
vy pad
č en
pro ti</w>
sk o</w>
ck á</w>
způ sob
z vlá
k y
pořád ku</w>
do st</w>
dě ku
min ut</w>
ex i
no stí</w>
ro dní</w>
sk ého</w>
k re
práv ě</w>
si l
po dob
o tá
míst o</w>
s vou</w>
t ři</w>
t ku</w>
g en
je š</w>
ří zení</w>
va l</w>
vá š</w>
vlast ní</w>
ko m
be r
ci ální</w>
vý ro
0 0
vě z
kla d</w>
zí sk
mez iná
by ly</w>
po sky
a ho
ne r
to u</w>
může š</w>
hod no
20 0
bude te</w>
te dy</w>
k to
s ch
pou ze</w>
s lo
i t</w>
č ka</w>
slu ž
ve li
jed nou</w>
prá ci</w>
poř á
stu den
musí me</w>
poli ti
za č
coo ki
w i
stej ně</w>
ně te</w>
aho j</w>
to to</w>
svě tě</w>
koli v</w>
pou ži
žd y
v ždy
do ká
pro du
v če
roz u
nabí zí</w>
s mě
ne k</w>
h ne
e s</w>
di t</w>
tv r
dě ti</w>
spo je
ne z
ji st
e ko
al y</w>
tro chu</w>
ře ní</w>
té to</w>
po h
sk u</w>
ve ní</w>
le j</w>
2 0</w>
ni ce</w>
podí ve
o sta
b í</w>
krá t</w>
vy so
k lu
lo u</w>
ma ti
pla t
ko ho</w>
sk vě
zá kla
d em</w>
s ko
by s</w>
ú da
b r
pe r
jed in
vy š
z y</w>
š en
an g
m nou</w>
č ně</w>
d ne</w>
ob je
ni kdo</w>
myslí š</w>
ur či
č ku</w>
l ů</w>
s ní
h lí
t ý</w>
vů li</w>
b ri
ne po
by t
de j</w>
s kou</w>
k ri
z u
bude me</w>
vi l</w>
š ť
s cho
že ní</w>
prac ov
a bych</w>
se d
d ří
za bi
u dělat</w>
by ste</w>
otá z
min u
a ť</w>
jde me</w>
k an
chtě l</w>
d ra
bude š</w>
te ch</w>
odpo vě
č ky</w>
váž ně</w>
in ter
man že
sv ůj</w>
hod ně</w>
no m</w>
pro mi
ka m</w>
be c</w>
min i
ň te</w>
ri e</w>
da r
j du</w>
vě ci</w>
in g
ch i
ď te</w>
chce te</w>
ve če
z řej
ke j</w>
na š
li t</w>
ho l
tě ž
ně ní</w>
m ode
nu tí</w>
ch rá
ji ž</w>
no mi
pro stě</w>
te le</w>
u ží
ši ch</w>
ty to</w>
po sta
dá m</w>
znamen á</w>
k vůli</w>
st alo</w>
š pat
ž dy</w>
b an
vše ch</w>
ti l</w>
b en
je nom</w>
a t</w>
t ka</w>
pořá d</w>
we b
p an
a le
ka t</w>
ho tel
k ni
za ce</w>
ni ch</w>
vět ší</w>
tře ba</w>
z obra
po čí
ko li</w>
m lou
s mr
vědě t</w>
vů bec</w>
je m</w>
mlu vit</w>
vidě l</w>
a d
sv ého</w>
o s
pro je
v še</w>
by chom</w>
rů z
sto u
m ý
ho r
mo c
r o</w>
org ani
chá ze
ze mě</w>
z de</w>
lid i</w>
exi stu
ho st
ří ká
ši t</w>
k ce</w>
st ane</w>
dá v
a t
strán ky</w>
bě hem</w>
z i</w>
va tel
stu di
k lá
to ho
mi lu
hne d</w>
t á</w>
ta to</w>
o t
z ni
po d</w>
tv ůj</w>
a l</w>
fi l
se be</w>
č ty
n ém</w>
b rá
společ nosti</w>
hlá šení</w>
v ždy</w>
sá m</w>
vy tvo
ve řej
zřej mě</w>
posle dní</w>
l ob
x i
je m
ni t
ve n</w>
zů sta
dě ji</w>
eko nomi
vá l
za jí
och ra
z nov
ú če
vě do
člově k</w>
h věz
t vá
dě je</w>
la n
ně j</w>
o pa
z ov
ne vy
kte rou</w>
ná š</w>
p e</w>
r em</w>
p le
dělá š</w>
mno ho</w>
ž i</w>
ní mi</w>
ch ce</w>
an ý</w>
b ů
v o</w>
st ru
pří klad</w>
o na</w>
ří ká</w>
ny ní</w>
mu ni
5 0</w>
pen í
ob sa
d vě</w>
ku l
vidě t</w>
č ím</w>
m ov
ch u
do mů</w>
pá r</w>
d lo</w>
k ové</w>
m la
informa ce</w>
poj ď</w>
l ém</w>
ro k</w>
kon tro
vý m</w>
f ak
prob lé
dá ní</w>
i l</w>
n ů</w>
uni ver
obla sti</w>
1 0
k v
ne j</w>
ne bo
h ar
co ž</w>
ap li
ze mi</w>
e le
z la
zi t</w>
pení ze</w>
h r
vi de
sk y</w>
bů h</w>
prostře d
sti t</w>
za čí
měst a</w>
ži t</w>
fi nan
toho to</w>
ho te
bo r
či l</w>
č em</w>
vo j
ne můžu</w>
stu p</w>
ú pl
žád né</w>
vědě l</w>
pa d</w>
cooki es</w>
musí š</w>
dov o
ně kdy</w>
r en
za po
v ně</w>
pře s</w>
scho p
z kou
sou kro
pos lou
li e</w>
st a</w>
ni l</w>
ka m
kra č
t re
moh la</w>
rych le</w>
dobr é</w>
st ě
po ru
že na</w>
sa k
mé ně</w>
le ti
říka l</w>
ch ví
se r
w ar
a b
st u</w>
v ý</w>
kdy by</w>
sle du
ob ě
ti vní</w>
z y
kone c</w>
o fi
pří pad
dlou ho</w>
je n
moh li</w>
ve z
in g</w>
pod ni
žád ný</w>
no logi
řek la</w>
l á</w>
a part
s va
p lo
po krač
na t</w>
nech á
počí ta
t ovat</w>
no r
za l</w>
t ru
b al
společ nost</w>
s rd
bo j
ck ého</w>
u ká
m od
k lí
za hra
ka pi
t h
dá l</w>
kon tak
produ k
z práv
děku ji</w>
kov ý</w>
stá t</w>
ko muni
1 8
vypad á</w>
svě t</w>
na ší</w>
he r
tí m
zi ci</w>
pře sně</w>
p sa
po r
sou ča
s mí
ov ých</w>
w a
ži l</w>
při po
p al
so b</w>
tele fo
ví me</w>
v ky</w>
spo lu
bu dou
mysle l</w>
tě ch
d ro
l ně</w>
no st
pu bli
u byt
ge ne
ci e</w>
h nout</w>
cel ý</w>
o r</w>
znov u</w>
c ar
u dělal</w>
na příklad</w>
sv ob
dí tě</w>
apli ka
tech nologi
čí s
te bou</w>
ně me
hote ly</w>
z bra
va ž
tech ni
vý zku
s ný</w>
tak hle</w>
t ví</w>
děl á</w>
nov ý</w>
u ra
vz ta
ú spě
ne bude</w>
musí te</w>
c ím</w>
prob lém</w>
dobr á</w>
na d</w>
vě c</w>
ne te</w>
u m</w>
- li</w>
é st</w>
ja sně</w>
se s</w>
vo d</w>
vlast ně</w>
ště ní</w>
3 0</w>
in ě</w>
c u
potře b
do la
za ji
še ho</w>
z pá
zem í</w>
q u
jmé no</w>
vid ím</w>
mí n
u dr
těch to</w>
samo zřejmě</w>
po hod
rá da</w>
hotel u</w>
za se</w>
meziná rodní</w>
vět ši
d la</w>
sna d</w>
vždy cky</w>
st í
z u</w>
mož né</w>
s vo
s lou
ne jsem</w>
o ná
p y</w>
zd ro
bo že</w>
za řízení</w>
e l
tě ch</w>
če k</w>
z ji
za v
pře sta
s li
kv ali
1 5</w>
l ze</w>
š la</w>
t ri
zpá tky</w>
na jít</w>
ne mám</w>
t la
ne jsou</w>
v u
j men
ce la</w>
ka ž
z ní</w>
00 :
za sta
re sta
ja zy
e ner
u sa</w>
ní ci</w>
du ch
urči tě</w>
s ov
zi den
blí z
no c</w>
ne ch</w>
u mě
d an
spo lu</w>
pro hlášení</w>
0 00</w>
dob ě</w>
po moc</w>
mo bi
če ká
p tá
dosta t</w>
nech ci</w>
sak ra</w>
svě d
lin e</w>
s en
pří li
pi t</w>
na u
če t</w>
rá no</w>
o pe
jed na</w>
di spo
ma te
se t
leži to
di č
pě k
mo u</w>
h roz
dá t</w>
ká ch</w>
dokon ce</w>
ne moc
da le
c k</w>
žen y</w>
tvo je</w>
leti ště</w>
hrá t</w>
s an
sob ě</w>
to bě</w>
t ří
f á
ři l</w>
svě ta</w>
z tra
při šel</w>
me tr
ubyt ování</w>
vče tně</w>
na chází</w>
so f
sv ých</w>
to li
a n</w>
vy k
ob e
vy pa
vz dělá
do kto
j u
š lo</w>
ce ní</w>
v al
n ými</w>
pa ma
ti sí
po n
ak tu
in di
ní ků</w>
m ého</w>
sou hla
zá ko
dá le</w>
osta tní</w>
h á</w>
c em</w>
spo u
ofi ciální</w>
d ně</w>
nit ř</w>
jí cích</w>
pr y
. co
hi sto
v an
výro b
ní ky</w>
po ste
chla p
poko je</w>
příli š</w>
dělá m</w>
de k</w>
w w
k lid
in te
k tu
živo ta</w>
st y
re gi
pre ziden
zku še
o ni</w>
nějak é</w>
gi e</w>
ze r
svob od
s pá
k le
na sta
ak ti
ka r
s h
t né</w>
vy uží
za měst
ne do
b ro
ště stí</w>
š li</w>
zá vi
pry č</w>
mo n
d ý
je t</w>
ste ch</w>
ho spo
č lá
dispo zici</w>
posky t
manže l
ko lem</w>
he j</w>
moh u</w>
g lob
o k
u mož
tel é</w>
hla vní</w>
de jte</w>
při prav
veče r</w>
dů m</w>
li v
ň uje</w>
úpl ně</w>
pa ní</w>
a f
c kou</w>
s kon
ně kolik</w>
vo la
vel ké</w>
tom to</w>
e d
existu je</w>
ř ím</w>
chví li</w>
sna d
progra m</w>
vy ba
zá sa
proje k
ne byl</w>
a m
a st
u s
syst ém</w>
mu ž</w>
vá me</w>
in ve
uži vatel
le tí</w>
dá vá</w>
da jí</w>
pro fe
o ko
služ by</w>
ne má</w>
k ry
h y
pří mo</w>
aby ste</w>
1 2
ele k
spo ň</w>
st ala</w>
d ny</w>
jak é</w>
na d
pr v
prostře dí</w>
měst ě</w>
tu to</w>
.co m</w>
zem ře
de se
poko j</w>
pro ce
su d</w>
ší ho</w>
resta ura
nic tv
podíve j</w>
di l</w>
ch od</w>
zají ma
lí bí</w>
vi l
jin é</w>
ná ní</w>
mý š
ne vě
nabí d
že t</w>
ote c</w>
mi l
inter ne
způ sob</w>
na l</w>
k ým</w>
ji stě</w>
te r</w>
k ala</w>
na le
men t</w>
l od
ně které</w>
my š
na šich</w>
ang li
případ ě</w>
z dar
o by
hle d</w>
ja kou</w>
po lo
ste r
dě lej</w>
zdar ma</w>
h lu
fun g
za bí
o mlou
fi r
měst o</w>
vz dá
vo lá
š tí</w>
an al
jed nu</w>
ú to
ča sto</w>
zvlá š
pen ě
ti cké</w>
při pra
ze p
1 1
o k</w>
ne š</w>
z alo
ka z</w>
nějak ý</w>
úda jů</w>
s ů</w>
myslí te</w>
po ra
po tom</w>
gra fi
jed no</w>
prav da</w>
pr vé</w>
le tech</w>
bo ží</w>
aby chom</w>
ně j
kul tu
krá lov
o u
lí bi
o kam
mr tv
vý zna
po ža
s pí
při j
okam ži
s vým</w>
z ví
ří t</w>
u děl
ov i</w>
ta n
si t</w>
de l
ov ý</w>
le h
si g
poz ději</w>
h al
kur va</w>
to u
svě tov
s mu
de l</w>
si tu
1 2</w>
vel ký</w>
b lo
prů mys
tra n
šť ast
použi tí</w>
č ních</w>
vz po
ka ma
pří bě
řek ni</w>
ji na
jedno ho</w>
ob rá
ně koho</w>
k ó
le ží</w>
ží t</w>
st ří
aby s</w>
jak ý</w>
pr i
pře ce</w>
ne me</w>
ová n</w>
bu ď</w>
dal ších</w>
b ře
ho u
zá kaz
bě ž
toli k</w>
do ma</w>
g e</w>
fo to
h ry</w>
vod u</w>
ve den
ře šení</w>
budou c
čá st</w>
pama tu
fak t</w>
ch ar
jo h
ze k</w>
to r</w>
chtě la</w>
ve de
pe ní</w>
ř á
ni ci</w>
k vět
cel é</w>
ti na</w>
c ku</w>
dosta l</w>
ma i
poz or
za chrá
ci ál
dale ko</w>
zá pa
syst é
čís lo</w>
ká ní</w>
ne může</w>
mla d
st y</w>
mo ř
m ím</w>
hod in</w>
jde š</w>
sly še
je ní</w>
slu š
univer zi
ch y</w>
pr in
1 5
do kud</w>
st or
co u
kro mě</w>
si l</w>
z vý
ov ala</w>
nictv ím</w>
ri i</w>
dob u</w>
ov ou</w>
ro ky</w>
nov á</w>
bo ha</w>
d ve
roz en
míst ě</w>
nech tě
k m</w>
ně m</w>
každ é</w>
ž ím</w>
hvěz dič
d ce
po cho
pro cen
poč kej</w>
p í</w>
do by</w>
19 9
tel né</w>
po ci
dola rů</w>
d vo
do hod
re publi
po t
bu r
vš em</w>
s pi
vý sled
tak ové</w>
š em</w>
větši na</w>
m em</w>
z lo
ch a</w>
u jící</w>
t ních</w>
h uje</w>
zobra zit</w>
z n
na z
s c
čty ři</w>
te li</w>
po ku
vy bra
ne c</w>
se bou</w>
k ům</w>
je ží
po má
srd ce</w>
pří stup</w>
míst ě
z da</w>
le ty</w>
sk ém</w>
zná m
vyš ší</w>
j di</w>
omlou vám</w>
dá š</w>
vy svět
po čet</w>
b lá
o hle
má lní</w>
mě ř</w>
pa ci
g re
ov ali</w>
ná stro
li l</w>
po sled
prostřed nictvím</w>
d é
metr ů</w>
u vidí
1 6
ni e</w>
ne o
ra t</w>
promi ň</w>
pro vo
sku p
té měř</w>
situ a
web ové</w>
ve j</w>
e l</w>
e -
dří v</w>
na ho
ce lou</w>
sá h
co že</w>
no ci</w>
vod y</w>
se zna
ú ča
soubo ry</w>
ž ní</w>
důleži té</w>
th e</w>
s k</w>
b l
jina k</w>
ná sledu
w in
ka l</w>
na ši</w>
pod mín
dě le
vá dě
1 7
so n</w>
vá mi</w>
poh y
ma mi</w>
t r</w>
slu že
za t</w>
o h</w>
nej větší</w>
1 4
si s</w>
pe l
st al
prac ovat</w>
1 00</w>
v ka</w>
sta ro
zí tra</w>
p y
informa cí</w>
ob a</w>
pat ří</w>
za tím</w>
tu je</w>
vý vo
d va
u jeme</w>
f é
b ní</w>
lé ka
f in
muse t</w>
ved l</w>
po de
he z
l l</w>
ro ve
ž dě
va ší</w>
pi s</w>
st r
j n</w>
u místě
sto jí</w>
ka mi</w>
vš tě
u li
ča su</w>
z pět</w>
před po
d ala</w>
obchod ní</w>
t ým</w>
t v</w>
na ci</w>
1 3
de r
s ť
ta l</w>
š ky</w>
ti la</w>
jmé na</w>
au to</w>
o f</w>
bo ha
sa ma</w>
pomo ci</w>
odpově d
syst ému</w>
pře mýš
vi li</w>
te x
mě r
hro ma
pi l</w>
s r
meziná rod
st ani
k va
ja pon
zdra vo
čí n
ro vat</w>
a gen
promi ňte</w>
osob ní</w>
lo n
men tá
zla to</w>
ta ti</w>
u s</w>
dří ve</w>
ú ža
u ji</w>
vi la</w>
se st
ná mi</w>
c vi
pří ležito
míst a</w>
k ovat</w>
ne na
s s</w>
še t
že n</w>
čer ven
ck o</w>
za mě
o prav
č an
ova cí</w>
e u
1 1</w>
e r
druh é</w>
pů j
kapi tá
ob vyk
se x
ne bylo</w>
č len
an á</w>
ze n</w>
zná m</w>
rove ň</w>
p a</w>
říká m</w>
š a
prav dě
sta l</w>
po prvé</w>
mu ž
vzdá le
on ů</w>
pravdě podob
že l</w>
obe c
t h</w>
problé my</w>
pu sti
vě cí</w>
lo sti</w>
s in
- -</w>
roz dí
mno hem</w>
b od
práv a</w>
dou fá
host é</w>
sti tu
poslou che
2 5</w>
takov ý</w>
ra ce</w>
apart má
ne měl</w>
za čá
n ku</w>
na konec</w>
použí vání</w>
vo le
vel ká</w>
m ně
m ne</w>
ka jící</w>
bli ž
fa jn</w>
roz vo
zd á</w>
z by
í t</w>
stá vá</w>
ko sti</w>
ce t</w>
s mys
mož nost</w>
va ši</w>
to n</w>
ko mu</w>
ri á
čá sti</w>
z mi
e n</w>
ru ce</w>
zahra ni
jin ého</w>
v zá
vidě la</w>
po l
pro hlí
ne při
na víc</w>
d ů</w>
ro st
ar má
š ní</w>
va šich</w>
ová ním</w>
dr ž
krá s
hla v
poz or</w>
do prav
dě t
podíve jte</w>
o ri
ne w</w>
u či
ve de</w>
jde te</w>
ad re
h ru
u kra
hle dá
d ali</w>
tv é</w>
re zer
sof t
vz ít</w>
skuteč ně</w>
z ru
v te</w>
ko le
čá stí</w>
cí ho</w>
nech ce
č né</w>
br zy</w>
a si
zdra ví</w>
ten hle</w>
za tím
potřebu ju</w>
z ovat</w>
pa n</w>
i zra
no u
by d
do poru
za pla
za hr
po zi
spe ci
kone čně</w>
ú rov
nech at</w>
ne pře
mě lo</w>
cel ém</w>
s lá
a g
soubo rů</w>
aplika ce</w>
af ri
d ce</w>
c y
vě řit</w>
pl y
sta čí</w>
h lou
ú čin
lé pe</w>
tě lo</w>
mo ci</w>
sk ým</w>
chtě jí</w>
ma n</w>
u mí
d lu
po chy
de sti
ná kla
dů vě
ke jte</w>
hle dem</w>
ab so
an ých</w>
k ře
mys lí</w>
sv ém</w>
lo st</w>
f e</w>
pra vid
dělá te</w>
u m
voj á
moh lo</w>
slov a</w>
st é</w>
do má
po važ
ně koli
st re
t al
o ny</w>
o čeká
bo u
4 0</w>
zatím co</w>
pomo cí</w>
he le</w>
v ala</w>
ni la</w>
s pa
z or
ď me</w>
t s</w>
st ali</w>
stan ov
potřebu je</w>
v né</w>
vždy ť</w>
od bor
on line</w>
kter ých</w>
le ta
na vr
ta t</w>
po š
ý ho</w>
mi mo</w>
g u</w>
ti fi
v hod
e fe
v ést</w>
in e</w>
š an
tru m</w>
jed ním</w>
tý den</w>
při je
doufá m</w>
kama rá
jin ý</w>
rov na</w>
co n
š ku</w>
od mí
otev ře
z lep
slov o</w>
mu ži</w>
práv o</w>
živo tě</w>
k ých</w>
je j</w>
ce p
ma t
f re
do w
strán ce</w>
l ové</w>
to ti
p s
ne byla</w>
ra z
ov lá
muse l</w>
pohod ě</w>
růz ných</w>
š é
je di
z rovna</w>
toti ž</w>
fran cou
ce lá
dob rou</w>
st rov
mar ke
pra ved
stá ty</w>
otev řen
sk r
ná vště
nu l</w>
mu že</w>
pan ě
de ch</w>
ri zi
vě ři
d y
d vou</w>
zna me
či la</w>
ma tka</w>
organi zace</w>
š paně
mysle la</w>
žád ná</w>
ku chy
vrá tit</w>
mili onů</w>
ma na
ká m</w>
me di
po tra
připrav en
pře kva
1 8</w>
potřebu jeme</w>
mal é</w>
vy tvá
in stitu
za ci</w>
dob í</w>
po ví
in stal
bezpe čí</w>
ra d
z uje</w>
w o
i m
cen trum</w>
ni mi</w>
jedno t
tele vi
c a</w>
dělá me</w>
získ at</w>
smr ti</w>
ti li</w>
člově ka</w>
ne js
s ra
do spě
sko ro</w>
in f
l ých</w>
mě ní</w>
sa mi</w>
ob lí
sta v
ko st</w>
kou pel
vědě la</w>
zn alo
do ku
b la
ní ka</w>
vidí š</w>
jedno duch
cest u</w>
o či</w>
č ný</w>
s ho
ž ství</w>
lí to</w>
řek nu</w>
i r
t ního</w>
s dí
osob ních</w>
úča st
ri é
vo st</w>
se l
n ce</w>
zůsta t</w>
kan celá
kdy bych</w>
zkuše nosti</w>
t ům</w>
p sá
va šeho</w>
stra ny</w>
o pět</w>
n d</w>
je z
z ku</w>
2 4</w>
španě l
bo le
ti v
použí vá</w>
ú č
krá t
k ři
le d
peně z</w>
m ž</w>
sly šel</w>
če ho</w>
m ní</w>
o zna
ze mě
ná rodní</w>
z trá
t ých</w>
v ali</w>
bě ž</w>
pr ch
vi dí</w>
p é
h é</w>
stra te
vý bě
poci t</w>
c ro
j ím</w>
poža da
způsob em</w>
p lu
bu dov
poj ďme</w>
l s</w>
po zd
l ů
dne ska</w>
n al
ck ým</w>
za ch
ová na</w>
dů vod</w>
mal ý</w>
g ar
g h
ci i</w>
v l
u vědo
e j</w>
a ch</w>
ti on</w>
k ali</w>
nech te</w>
r á</w>
pr de
cen tr
úda je</w>
jí dlo</w>
při jde</w>
tí ch</w>
y or
t ého</w>
ne pří
nic tví</w>
to r
ce lo
na šeho</w>
de mo
de mi
fun k
cí lem</w>
zákla dě</w>
zá ba
sy n</w>
soft war
mno ha</w>
se be
spoje ných</w>
k al
ri sti
dě tí</w>
na pro
vz ni
zabí t</w>
s o</w>
rych le
úspě š
správ ně</w>
psa l</w>
pí s
e u</w>
1 6</w>
v nitř</w>
ová ny</w>
společ en
č ko</w>
anal y
c la
k en
pře svěd
tře tí</w>
ne ná
t ním</w>
po žá
vá te</w>
če mu</w>
sle č
ta jem
f u
m rt
je de
h ra</w>
zpráv y</w>
re ali
č ů</w>
j dě
ě jší</w>
spo ko
2 4
po vě
6 0</w>
ž ky</w>
po té</w>
l ních</w>
st vo</w>
od stra
ná sled
g a</w>
ch ů
příbě h</w>
ní ku</w>
pa má
foto grafi
vý chod
tá h
ne budu</w>
otáz ky</w>
te h
ce na</w>
ne máte</w>
tře ní</w>
ná d
dr ž</w>
de sá
desti naci</w>
ži la</w>
ka te
fe ren
be l
k t</w>
m ci</w>
d le</w>
pe r</w>
ne můžeš</w>
ško ly</w>
pla tí</w>
c tví</w>
ni ž
ně jakou</w>
ní mu</w>
cen y</w>
ná rod
z cela</w>
prá zd
před tím</w>
do sa
ku p
tě jší</w>
d vě
z prac
rozhod nutí</w>
pře de
m ani
pos la
le s</w>
k ru
1 4</w>
sou vi
jdě te</w>
č te
hu d
ča l</w>
francou z
g y</w>
1 :
1 3</w>
f y
sou částí</w>
je jí
t ové</w>
du še</w>
na šel</w>
progra mu</w>
dá me</w>
dá ř
e r</w>
pomo ct</w>
t ná</w>
h an
nasta vení</w>
lid em</w>
ma pu</w>
ka ce</w>
stru ktu
v em</w>
ze v</w>
do stup
posled ních</w>
ver ze</w>
sto letí</w>
cen tra</w>
cha t</w>
ří kala</w>
z vu
vy z
tr hu</w>
w al
tr é
použí t</w>
stra ně</w>
g al
w or
nov ou</w>
naš em</w>
e t
ži li</w>
měsí c</w>
vede ní</w>
dve ře</w>
stra š
tá ta</w>
vče ra</w>
1 .
zvláš tní</w>
le k</w>
aktu ali
ná ro
bu d
změ nit</w>
po lov
jak é
předsta v
finan ční</w>
po pu
o zná
cí tím</w>
m ým</w>
v zal</w>
dese t</w>
r t</w>
ch o</w>
ne bezpeč
ž ou</w>
k ování</w>
skuteč nosti</w>
do mu</w>
tisí c</w>
ven ku</w>
do lů</w>
či li</w>
č tvr
prá v</w>
pu stit</w>
nov ých</w>
pracov ní</w>
stra ch</w>
s ně
těž ké</w>
ob rov
ko mi
te da</w>
technologi e</w>
mlu vil</w>
kti vní</w>
pa du</w>
pod sta
podmín ky</w>
zá leží</w>
š ke
le to
ale spoň</w>
procen t</w>
služe b</w>
pří sluš
veli ce</w>
vo lu
rov é</w>
hor ší</w>
m p
m l
vš ím</w>
jedin ý</w>
k ů
poj ďte</w>
do cela</w>
na mi</w>
me r
i de
kom ple
sku pi
u dá
hvězdič kový</w>
za čal</w>
te ra
1 7</w>
ce stě</w>
má ma</w>
oblí ben
g o</w>
ne můžeme</w>
ná bo
re k</w>
vy uži
mili ar
ar chi
tel ů</w>
pr ve</w>
hospo dář
vidě li</w>
fun kce</w>
smu s</w>
ho tov
ně kteří</w>
jin ých</w>
vět š
myš len
ve smí
ha t</w>
pří sa
j me</w>
w .
pů sob
neza po
získ á
vod ní</w>
st en
inve sti
vě ří
obvyk le</w>
ví tě
ak ce</w>
201 8</w>
ně jak</w>
n uje</w>
o hro
dáv no</w>
děla jí</w>
ob nov
glob ální</w>
ne dosta
rů st</w>
odpo ví
ne jen</w>
b ru
několi ka</w>
paci en
se k</w>
ma ri
hod iny</w>
win dow
š pi
ji t</w>
vy ža
ú ko
fy zi
bi o
nov ého</w>
z é
la du</w>
pla ne
o ce
ná zev</w>
č le
st ov
mě ly</w>
ru je</w>
kro k</w>
rodi če</w>
ww w.
me to
m ých</w>
začí t</w>
ck ém</w>
podí vat</w>
19 8
l ého</w>
te lem</w>
tí t</w>
rá di</w>
sta vu</w>
ne n
zji sti
m ali
jed ná</w>
vý mi</w>
prde le</w>
kaz y</w>
jed né</w>
s mlou
odpově ď</w>
pa ří
ová no</w>
ne pro
če t
sk a
po sí
z ba
t k
ze jména</w>
ck a</w>
stá tů</w>
mlu ví</w>
s mu</w>
teh dy</w>
plá n</w>
skvě lé</w>
ve ške
window s</w>
mi l</w>
g y
d nů</w>
a ka
j ní</w>
ve r</w>
vlá da</w>
stani ce</w>
gene rá
la ce</w>
s p
e- mai
še st</w>
wi l
po zná
zaměst nan
š ka</w>
přá tel
pů l</w>
nech al</w>
na vš
č ního</w>
dov ed
ne doká
ved le</w>
k do
an ti
n ému</w>
roz ší
pra kti
demo kra
soukro mí</w>
tí š</w>
souča s
čí na</w>
vidí te</w>
k ří
ži je</w>
ra zi
h ří
ro vání</w>
by t</w>
nale z
stra n</w>
uvidí me</w>
pře sto</w>
s h</w>
cen u</w>
ú řa
zá ří</w>
lon dý
ob čan
mode rní</w>
každ ého</w>
s praved
se ver
st ů</w>
úče ly</w>
jí st</w>
marke t
ma t</w>
lo ž
ná vr
ener gie</w>
společ ně</w>
k ého</w>
b re
mi lov
kli en
smr t</w>
pozd ě</w>
děku ju</w>
te jte</w>
pro de
žen é</w>
posky tuje</w>
u vnitř</w>
skvě lý</w>
měsí ců</w>
f lo
spoje né</w>
so ciální</w>
ha j
ob dobí</w>
du je</w>
ro n
přá telé</w>
ť te</w>
o me
cooki e</w>
2 5
zví řa
jed ná
dob ro
poli cie</w>
š ti</w>
te o
po zna
2 3
ty hle</w>
spo tře
z ky</w>
p sy
bezpeč nost
telefo n</w>
ne jsi</w>
mno žství</w>
poslouche j</w>
ste r</w>
de sig
si oná
zabi l</w>
x i</w>
naho ru</w>
h ů
ne máš</w>
mí ch</w>
takov á</w>
ce mi</w>
h lé
ně kde</w>
st vo
říka jí</w>
lů ž
histo ri
vz du
při jí
bi li
aka demi
po tvr
mo u
e t</w>
1 .</w>
me n</w>
ope ra
ká mo</w>
zákla dní</w>
ve k</w>
ja sné</w>
dov nitř</w>
ta ce</w>
tel ný</w>
přesta ň</w>
potřebu jete</w>
ov šem</w>
všech na</w>
g an
vý hod
nej lep
s al
ná pad</w>
vš u
druh ý</w>
vo jen
ko re
ameri cké</w>
milu ju</w>
fil m</w>
m ém</w>
ze le
org á
hodno cení</w>
ochra ny</w>
naš li</w>
po stup
co koliv</w>
ze mích</w>
změ ny</w>
v ku</w>
při šla</w>
201 6</w>
rodi na</w>
ro u
použí vat</w>
nád her
od dě
á l</w>
poz o
z vo
bo hu</w>
da ta</w>
h ů</w>
sna ží</w>
tra di
i den
hrá l</w>
stej né</w>
růz né</w>
profe sioná
o p
den ně</w>
svo je</w>
ru ku</w>
zemře l</w>
nebo ť</w>
dá vat</w>
blí ž</w>
ni li</w>
fung uje</w>
pravid la</w>
vra ž
žen u</w>
studen ti</w>
potřebu ji</w>
m ra
mi le</w>
po vin
hla s</w>
stan u</w>
souča sné</w>
ka me
ta j
cest a</w>
lá ska</w>
re j</w>
prohlí že
va cí</w>
čí st</w>
. ...</w>
rozdí l</w>
rozu mím</w>
vál ky</w>
di v
ne závi
s pl
o nu</w>
t ali
ů v</w>
zása dy</w>
hle dat</w>
c ti
špat ně</w>
19 7
mys let</w>
ce r
dá te</w>
cel kem</w>
ochra nu</w>
čen o</w>
pa ra
ří zen
kr é
ot ce</w>
i tá
t ři
tu hle</w>
part ne
apartmá ny</w>
vel kou</w>
u kaz
cháze jící</w>
d l</w>
umě ní</w>
c y</w>
i na</w>
a spoň</w>
mo ře</w>
di gi
poč kat</w>
te ro
201 9</w>
vytvo řit</w>
si lí</w>
pro stor
elek tro
ři lo</w>
restaura ce</w>
hal ó</w>
va tel</w>
na ti
auto mati
uděl ala</w>
odmí t
od sud</w>
sa n</w>
doku men
k ali
pe ri
ja s
rod iny</w>
rá mci</w>
u veden
r ně</w>
ši l</w>
o z
st va</w>
význa m
ro ze
spou stu</w>
kou pit</w>
zbra ň</w>
začí ná</w>
výsled ky</w>
ně ž</w>
tran s
takov ých</w>
chce me</w>
jist ý</w>
j ád
d ím</w>
nej de</w>
hla vně</w>
i l
star ší</w>
z hru
kli mati
va jící</w>
par k</w>
zhru ba</w>
vě de
ch ž</w>
m ý</w>
ší le
t ko</w>
l né</w>
dvo u
tě la</w>
do pl
l ovat</w>
zí ch</w>
kov á</w>
všu de</w>
su n
člá nek</w>
ve jte</w>
t he
zá roveň</w>
o pi
st ri
kaž dou</w>
svět ové</w>
m s</w>
b i</w>
bri t
p li
zá j
2 .
techni cké</w>
hla vu</w>
sta v</w>
u čin
ne máme</w>
i i</w>
ž al
zá vě
ní z
mi t</w>
bri tá
h rd
še k</w>
f i</w>
má lo</w>
vě t</w>
stře dní</w>
chla p</w>
pra vide
2 1</w>
pr ý</w>
sly ší
vě ku</w>
u zav
s é
pří tel</w>
ja sný</w>
míst ní</w>
da vi
š tina</w>
ne můžete</w>
d nu</w>
napro sto</w>
201 7</w>
ho ste
sy na</w>
nes s</w>
z po
o g
cest y</w>
le dne</w>
kaž do
ří dit</w>
che mi
každ á</w>
00: 0
kli d</w>
mal á</w>
mé di
ra ději</w>
ha l</w>
mo ji</w>
ch tít</w>
stá tní</w>
ží š</w>
rad ši</w>
jak á</w>
c or
m m</w>
skup iny</w>
okamži tě</w>
ob le
jí z
rá t</w>
au ta</w>
ň ují</w>
ne mohl</w>
preziden t</w>
go l
akti vi
ře di
kter ým</w>
le y</w>
sk á
k la</w>
sk la
ta m
1 9</w>
šet ř
pravděpodob ně</w>
vyba ven
hlu bo
zapo mně
č ov
vzdělá vání</w>
hro má
otáz ka</w>
chtě li</w>
e li
ti n</w>
navš tí
kre a
tr en
při jít</w>
podpo ru</w>
s ha
201 5</w>
rozhod ně</w>
ka rié
2 7
u jte</w>
j dou</w>
z ne
rov á</w>
z boží</w>
živo tní</w>
k l</w>
č uje</w>
ta hle</w>
pů jdu</w>
re ži
tv á</w>
v é
vrá til</w>
star ý</w>
pa u
tu r
vědě li</w>
tá lní</w>
vý bor
stan dar
d re
í ch</w>
pe v
mate riá
evrop ě</w>
ne s</w>
centr u</w>
vola t</w>
ob a
vy ře
no ční</w>
3 0
ru kou</w>
vzpo mí
re volu
t ními</w>
da m</w>
v ti
t ný</w>
jak mile</w>
sex u
n é
so ci
spo rt
2 2</w>
umož ňuje</w>
vá ním</w>
o strov
mu ze
existu jí</w>
s hromá
st r</w>
mys li</w>
smys l</w>
ý vá</w>
zaji štění</w>
be r</w>
j á
o sla
rozu mí
ti tu
nic méně</w>
hol ka</w>
opa tr
zá zna
v ovat</w>
vola l</w>
tu d</w>
se dě
veli kost</w>
za ká
aktu ální</w>
vědo mí</w>
nábo žen
di a
se n</w>
na hra
če n</w>
in ky</w>
za cí</w>
ú no
l ky</w>
ne hod
ob chod</w>
kontak tovat</w>
vlá dy</w>
abso l
řek li</w>
p le</w>
ne va
ch vil
léka ř
měsí ce</w>
u ju</w>
potřeb ovat</w>
vyba vení</w>
ne mají</w>
říka t</w>
dan ě</w>
dr žet</w>
tě te</w>
tím to</w>
ma xi
vide o</w>
kate go
bý vá</w>
zo r</w>
ten to
vě řím</w>
pochy b
ři li</w>
obra zov
u klid
ra l</w>
n ky</w>
blíz ko</w>
vrá tí</w>
evrop ské</w>
sezna m</w>
to ry</w>
o pak</w>
opa tření</w>
h en
ka jí</w>
le te
tr h</w>
u jete</w>
zbra ně</w>
te -li</w>
d ci</w>
co m
go og
ni lo</w>
u ješ</w>
nes mí
e m
potře by</w>
kře sť
kon kré
ber te</w>
od ha
i la</w>
lu je</w>
z em</w>
p ho
ro b
m lá
o s</w>
výbě r</w>
p hi
o či
do stá
in ova
slu nce</w>
rov něž</w>
tento krát</w>
nej vět
ze na</w>
tajem ství</w>
ru sko</w>
de r</w>
pa pí
společ ností</w>
pí š</w>
ne měla</w>
he l
má lně</w>
bo m
nechtě l</w>
k nout</w>
i li</w>
h ý</w>
do z
tv rt
st á</w>
a ra
budouc nost</w>
mož nosti</w>
využí t</w>
před cho
dlou ho
vě zení</w>
vy ni
u pří
ři la</w>
fo t
chá pu</w>
če ká</w>
pa mě
ge r</w>
č ním</w>
vá dí</w>
pad lo</w>
za tra
softwar e</w>
tí te</w>
va tele</w>
f a</w>
sí te</w>
situa ce</w>
ov liv
tu re
s ové</w>
kon kur
rod in
o f
st ý
ží me</w>
u dělám</w>
8 0</w>
jest li
t in
vši m
e mi
snad no</w>
u kon
market ing
prů měr
: 3
nej více</w>
f an
po ten
vý kon
di s
ty s</w>
li vé</w>
do mov
di la</w>
20 0</w>
dů sled
dů vod
nu tné</w>
d rá
mini ster
s l
pří stup
m c
ved la</w>
fir my</w>
fe k
ší mi</w>
ov ní</w>
kon stru
výzku m</w>
i d</w>
l ního</w>
auto bu
otev řít</w>
mode r
svo ji</w>
předpo klá
před mě
ty p</w>
tv rd
k lo
na rodi
te j</w>
lo ď</w>
že le
2 6
do mě</w>
při šli</w>
s si
jak ý
men ší</w>
te s</w>
mo ut</w>
pří pad</w>
rá lní</w>
cel á</w>
pro sto
něj ších</w>
žád nou</w>
vál ka</w>
rov i</w>
č tvrt
vy hra
sed m</w>
speci ali
dovo le
dne šní</w>
kon ci</w>
prac uje</w>
há m</w>
ba zé
prv ním</w>
do šlo</w>
záko n</w>
psa t</w>
s hi
strate gi
chy ba</w>
chů ze</w>
su per</w>
ob ě</w>
při tom</w>
f ar
sv ému</w>
kov ých</w>
vý ji
kó d</w>
s ní</w>
te m
4 5</w>
f li
šan ci</w>
kov i</w>
mů žou</w>
u j</w>
mlu víš</w>
důleži tější</w>
interne tu</w>
ne be
začá tku</w>
krá l</w>
kon ce</w>
výzku m
zí me</w>
poko jů</w>
š te</w>
ve s
z ó
přede vším</w>
1 ,
ši ro
ov a</w>
je ž</w>
při nes
poč kejte</w>
dvě ma</w>
z ím</w>
úrov ni</w>
pokrač ovat</w>
spe k
zby tek</w>
s ran
nost mi</w>
cí l</w>
lé č
d nout</w>
lov á</w>
tí me</w>
nechce š</w>
z pí
lu x
re kla
fe de
pe n</w>
říká š</w>
dru hou</w>
rod inu</w>
tě m</w>
a ce</w>
ne měli</w>
zobra zení</w>
angli č
produk ty</w>
zapo me
mlu vím</w>
pá n</w>
vz hledem</w>
strá nek</w>
pro vádě
kter ého</w>
haj z
do my</w>
jí cím</w>
restaura ci</w>
jedin á</w>
ě ní</w>
an ge
úče t</w>
ko ho
v li
kre v</w>
e ní</w>
sou ladu</w>
obsa huje</w>
špat né</w>
pro mluvit</w>
h ý
t ha
roz ví
klu k</w>
k de
jestli že</w>
ohle dně</w>
do da
pří prav
č kou</w>
následu jící</w>
ba r</w>
mrtv ý</w>
zná te</w>
pří j
mi cro
zá jem</w>
na jednou</w>
n ské</w>
i s</w>
zmi ze
po da
mi cha
mi mo
la s</w>
nej vyšší</w>
v stou
pří jem
dr ží</w>
nor mální</w>
stra na</w>
dob a</w>
poko ji</w>
o no</w>
vý z
z mí
sch ů
le r</w>
tr pě
vi n</w>
di li</w>
a d</w>
ci ty</w>
cen trá
univer si
nej dřív</w>
l ka</w>
d ních</w>
vybra t</w>
lá ní</w>
u lo
pi s
3 .
děle jte</w>
do n</w>
2 3</w>
ma tu</w>
bezpeč nost</w>
bo hu
té ž</w>
li š
u t
vy ro
jmen uje</w>
spá t</w>
ško le</w>
cí r
potře ba</w>
pá nové</w>
co pak</w>
t ří</w>
ji žní</w>
zná š</w>
t ho
ma gi
5 00</w>
3 5</w>
od kud</w>
201 3</w>
rezer va
j ších</w>
veške r
konkur en
201 4</w>
po kro
ní kem</w>
pl ně</w>
ru š
p s</w>
zpráv a</w>
vy sí
pen zi
v nit
a m</w>
tě ho
obchod u</w>
udr ži
na opak</w>
po hle
mu l
ne viděl</w>
co l
výzku mu</w>
lid mi</w>
9 0</w>
ch ování</w>
vnit ř
do mo
l ku</w>
ob li
domá cí</w>
ně mu</w>
při rozen
ko p
mo ni
sc é
za há
z ů</w>
ve dou
to st</w>
for má
do sáh
chvil ku</w>
so ciál
svět lo</w>
ne lze</w>
li sto
kni hy</w>
te li
uděl ali</w>
dí vka</w>
sever ní</w>
2 8
na p
znalo sti</w>
vod a</w>
o h
pěk ně</w>
- hvězdičkový</w>
o nal</w>
ne řekl</w>
lid ské</w>
řek něte</w>
jen že</w>
takov ého</w>
s bo
h l</w>
při bliž
zá ch
krá sné</w>
h mo
da r</w>
t vou</w>
nech ce</w>
kon feren
de fin
anal ý
bra tr</w>
v alo</w>
ty pu</w>
l ním</w>
z na</w>
sí ly</w>
ob á
je l</w>
li li</w>
ja der
: 5
č te</w>
ho n
rá m</w>
tý kající</w>
archi te
uká z
s s
uživatel ské</w>
od e</w>
bohu žel</w>
a však</w>
ro li</w>
ri a</w>
z veřej
z ře
ma ji
pře jete</w>
dě v
- to</w>
progra my</w>
bezpečnost ní</w>
pá na</w>
h nu
4 .
ni koho</w>
k ni</w>
ni cké</w>
' s</w>
web ových</w>
rozvo j</w>
v i</w>
se š</w>
jazy k</w>
n in
u zná
den ní</w>
cháze jí</w>
zá ležito
u plat
ně kterých</w>
pi la</w>
ježí š</w>
pří ští</w>
m bo
nalez nete</w>
ja ko
ko r
di sku
2 8</w>
: 4
nov i</w>
vy p
pro ti
no s</w>
příležito st</w>
os n</w>
bezpeč nosti</w>
se j
part ner
fa ce
gy p
pozor nost</w>
ní kům</w>
zasta vit</w>
po může</w>
vyso ké</w>
star é</w>
pusti l</w>
mo r
č ná</w>
ho ž</w>
de te
čen é</w>
ov ého</w>
sleč no</w>
neu věři
star á</w>
e gyp
7 0</w>
š t
spou sta</w>
no hy</w>
le g
sá hnout</w>
sva t
bý val
studen ty</w>
ko mentá
h ovat</w>
zač ala</w>
d s</w>
strán ku</w>
jist é</w>
in i
du b
ne ví</w>
chod u</w>
zdro jů</w>
to ale
iná ř
zpráv u</w>
slyše t</w>
sti cké</w>
klí č
požada vky</w>
zji stit</w>
větši nou</w>
tvr dí</w>
ří ci</w>
dokon al
bal í
nějak á</w>
goog le</w>
li t
d ri
201 2</w>
ne budou</w>
bi lní</w>
š ť</w>
pa t</w>
ne myslím</w>
an d</w>
plá n
micro sof
pů jde</w>
ď á
o to
š tí
na jí</w>
še t</w>
skupi na</w>
zprac ování</w>
me ní</w>
or u</w>
ci vi
pad á</w>
jíz dy</w>
př iná
vy šetř
chy tr
cel ého</w>
studi e</w>
ba bi
re la
ň ovat</w>
zdro je</w>
či lo</w>
sou stře
ma g
potřebu jí</w>
takov ou</w>
k ém</w>
t lu
ode jít</w>
mez en
cí tit</w>
d ovat</w>
dá vají</w>
ně ho</w>
kter ém</w>
na ši
d ře
spí š</w>
jedi ne
něme cko</w>
chy bí</w>
stej ný</w>
strán kách</w>
vítě z
před cházející</w>
nes ly
k vě
u ka
ško la</w>
po mal
auto mobi
lůž kový</w>
kri ti
jede me</w>
do stali</w>
čer v
tom hle</w>
ne mohu</w>
h ru</w>
vy rá
2 9
boj ovat</w>
z o</w>
ně né</w>
ho dou</w>
tře tích</w>
a i
ky ně</w>
ci t
slo sti</w>
dá r
v nější</w>
me xi
li la</w>
tov á</w>
nal é
vývo j</w>
we b</w>
pamá tek</w>
d ku</w>
vě jší</w>
komuni ka
me s</w>
sled ovat</w>
sou tě
neu stále</w>
ap ple</w>
ča se</w>
pě ti</w>
z odpověd
při ja
mi lá
universi ty</w>
201 0</w>
ř te</w>
f le
te plo
bi l
proce s</w>
u tí
po čá
vi du
face bo
hou se</w>
pra vit</w>
tak to</w>
muse la</w>
s rov
t va
systé my</w>
z vyš
po vat</w>
moh ly</w>
li gen
po vo
l d</w>
žen ý</w>
z kontro
s ý
st ů
2 7</w>
soukro mé</w>
pi sy</w>
po blíž</w>
kla si
sk ými</w>
li i</w>
ck ými</w>
po hled</w>
oby če
stá tu</w>
jed nání</w>
s vými</w>
na rozen
ro čně</w>
zep tat</w>
re ch</w>
itá lie</w>
pro bí
čí ně</w>
jedin é</w>
2 6</w>
pu ště
studen tů</w>
z prav
míst nosti</w>
ha m
obsa h</w>
slo ži
ener ge
če kat</w>
slou ží</w>
projek t</w>
muž ů</w>
zru šit</w>
předsta vit</w>
na r
souhla síte</w>
há ní</w>
st ý</w>
soubo r</w>
ro vá
ro bo
re cep
vyni kající</w>
roz hov
od tud</w>
dva krát</w>
f al
l ný</w>
le l</w>
c ov
rychle ji</w>
i tal
pe c</w>
di o
19 6
vů či</w>
po dě
ří j
do ta
vě ří</w>
vo zi
- fi</w>
problé mů</w>
schop nost</w>
vše ho</w>
sli bu
ná ch</w>
ná moř
ch ov
do stala</w>
ne ří
u h
v stá
me k</w>
vz bu
vy prá
králov ství</w>
volá m</w>
obli če
vzdělá ní</w>
zdravo t
teč né</w>
ko n</w>
chla d
ani ž</w>
ne se</w>
n t</w>
í rá
ob čas</w>
jí ch</w>
su per
shromá ždě
s ová</w>
iná ch</w>
t ování</w>
be j
hol ky</w>
hod inu</w>
u pozor
nástro je</w>
do le</w>
op ti
jmé nem</w>
te d</w>
os m</w>
po tě
děl ala</w>
s fé
na dále</w>
od a
ni i</w>
n ý
mo to
s líbi
boha t
po ji
c ům</w>
ne musí</w>
hla vy</w>
obla st</w>
201 1</w>
udr ž
ne jsme</w>
kapi to
pří ro
země děl
zatra cen
pe k
nez byt
zá stup
le n</w>
spe ciální</w>
au tem</w>
200 8</w>
tv ého</w>
ně n</w>
práv ní</w>
vy hledá
veče ři</w>
ne od
on -
spoko je
cí le</w>
ta i
si ce</w>
re ál
tel ná</w>
ko ru
každ ém</w>
na psal</w>
vzta h</w>
be re
se ku
fi re
sí lu</w>
plat for
je st</w>
ma min
ví tejte</w>
fotografi e</w>
čí me</w>
situa ci</w>
potřebu ješ</w>
inte ligen
že h
lá rní</w>
r ka</w>
při dat</w>
vla sy</w>
indi vidu
sa teli
s bí
vypa dáš</w>
skvě le</w>
na posle
bo ra
po sti
mlu v</w>
pre zen
ob o
vý bo
sk le
zachrá nit</w>
nati onal</w>
pří kla
men tu</w>
neva dí</w>
do stane</w>
u vol
doká že</w>
spoje ní</w>
od mě
podni kání</w>
cha ra
m ové</w>
ra ke
microsof t</w>
sí tě</w>
b le
dokto r</w>
řen é</w>
klu ci</w>
žen ý
v dě
te st
hra je</w>
pa l</w>
vyso ce</w>
sto j
psy cho
hlav ním</w>
vý raz
po ča
pro hlá
spolu práci</w>
profe so
strán ka</w>
glob ál
logi e</w>
sty lu</w>
va z
nej ste</w>
blíz kosti</w>
po sa
po je
ó n</w>
ne existuje</w>
prů bě
ve na</w>
pří pa
ná zor
k ci</w>
ch ová
tel ně</w>
nej nov
dce ra</w>
s ví
manže l</w>
z vě
vi ly</w>
lin i
oble čení</w>
sk lá
tvá ř</w>
mi lo
uká zat</w>
t nost</w>
řek ne</w>
prostře d</w>
3 6
va šem</w>
set kání</w>
naho ře</w>
mo jí</w>
zdravo tní</w>
ce stu
po ško
pro sin
sna žím</w>
iden tifi
doved nosti</w>
nákla dy</w>
jí cího</w>
ch ou</w>
poste lí</w>
zprav oda
d ka</w>
tr vá</w>
chod it</w>
in žený
ce n</w>
zen o</w>
mí st</w>
bu ďte</w>
i g
vše obec
vez mu</w>
smí ch</w>
pří tom
vi r
správ né</w>
y a</w>
roz dě
ov ě
ov o
na ce</w>
si la</w>
po kr
ve ru</w>
ci oná
2 9</w>
0 1:
ř ů</w>
sla v
vin u
tý mu</w>
u prch
a s</w>
k é
ha jí</w>
druh á</w>
produk tů</w>
doká že
d ky</w>
průmys lu</w>
a č
ná vra
budouc nosti</w>
s lo</w>
ameri cký</w>
šen ím</w>
li vě</w>
ř ka</w>
nejs píš</w>
g in
vrá tím</w>
stro j</w>
naš la</w>
joh n</w>
ra z</w>
hlou p
di e</w>
va hu</w>
zahrani čí</w>
tě mi</w>
sch vá
js ké</w>
ť á
agen tu
s ma
per fek
to mu
tisí ce</w>
lí p</w>
hodno ty</w>
a nebo</w>
be n</w>
ener gi
u na
vy jád
s lí
tro u
la ska
otáz ku</w>
su b
oddě lení</w>
interne t</w>
obyče j
prosto r</w>
nes mí</w>
me zi
prin ce
sig ná
tv a</w>
má ní</w>
pomal u</w>
ko ste
ú roveň</w>
chod em</w>
ra kov
la bora
pre mi
pohy b</w>
le s
jed nat</w>
za brá
wi -fi</w>
ná zor</w>
za stře
he r</w>
kni ha</w>
5 0
ú zemí</w>
mana že
chla pe</w>
vyso ko
cháze t</w>
ka na
ob tí
20 20</w>
poča sí</w>
schop nosti</w>
host y</w>
ta ci</w>
do m
v stup
nebo j</w>
plá nu</w>
jist á</w>
u čení</w>
p ali
ne r</w>
blá zni
lov ou</w>
že nou</w>
krás ná</w>
histo rie</w>
zá kon
technologi í</w>
prohlíže če</w>
bez plat
: 0
ži vu</w>
cí mi</w>
zdra vím</w>
posla l</w>
na jdete</w>
al koho
ne se
řa dě</w>
ze ch</w>
umístě ní</w>
ma je
g ri
za stá
poč tu</w>
analy tické</w>
absol ven
uli ci</w>
v ých</w>
milu ji</w>
č iny</w>
ji nou</w>
pod la
snad né</w>
sle dek</w>
přibliž ně</w>
pře s
zahr nuje</w>
to sti</w>
hov o
nes ná
hroma dy</w>
sy n
č ce</w>
vli v</w>
rozhod l</w>
odpo ledne</w>
hvězdič kové</w>
n ní</w>
dů stoj
ne věděl</w>
zna l</w>
lá sku</w>
mana ge
ři di
klid ně</w>
ni m</w>
kou z
mo sk
histo rii</w>
se l</w>
spolu práce</w>
komi se</w>
ca m
v ní
počíta če</w>
z pě
na pl
ser vi
nemoc nice</w>
š vý
tá ch</w>
samo sta
po su
řa du</w>
cer tifi
mí ru</w>
dru h</w>
smě rem</w>
ochra ně</w>
kdy bys</w>
vy ko
marketing ové</w>
s me</w>
ob vin
t kem</w>
pů jdeme</w>
bu l
jednoduch é</w>
mul ti
ven kov
tý dny</w>
po bře
pi li</w>
tvo ří</w>
ná hra
spraved l
tov i</w>
politi ky</w>
ba re
c an
li vý</w>
d ové</w>
chy bě
200 9</w>
pů vod
ba l</w>
se x</w>
z jist
pří tel
va r
bar u</w>
a s
ch ri
ge org
ša ty</w>
po pla
po tí
bo ž
koupel ny</w>
pu štění</w>
neb e</w>
har ry</w>
do sáhnout</w>
žen o</w>
pomá há</w>
jednot liv
ban ky</w>
stě ž
pro bu
za du</w>
květ iny</w>
pro dej</w>
dí me</w>
va nou</w>
ř uje</w>
úspě ch</w>
po vr
naz ý
k něte</w>
evrop y</w>
muse li</w>
pl ný</w>
podpo ra</w>
použí váním</w>
nechá m</w>
zajíma vá</w>
efe kti
dí š</w>
tu jí</w>
ta bá
bi e</w>
ra dy</w>
u děláme</w>
stra nu</w>
chá pe
do ru
pí t</w>
britá nie</w>
manžel ství</w>
mr zí</w>
d voj
při chází</w>
ne víš</w>
čer st
b le</w>
pozi ce</w>
ř ád
pí še</w>
pe s</w>
dů vodu</w>
c á
s pr
b ob
ti sk
děl ali</w>
če na</w>
re cen
o cho
yor ku</w>
uni e</w>
vý hled</w>
m ó
po znám
a ma
re ag
bě h
me ch
speci fi
l há
vo sti</w>
odpo věděl</w>
u prostřed</w>
sní daně</w>
izra el
pa le
jedno m</w>
z t</w>
křesť an
služ ba</w>
zbra ní</w>
u te
r ty</w>
ne dě
n ovat</w>
sle dov
ri í</w>
leto s</w>
elek tri
teč ně</w>
ni chž</w>
pro pa
je zd
ch lá
švý car
ná z
ne bezpečí</w>
s vá
špat ný</w>
rů stu</w>
člá nku</w>
nabí ze
na hrá
po rt
z ved
pro boha</w>
ž ku</w>
fa le
rá ní</w>
str ý
sest ra</w>
představ uje</w>
projek tu</w>
chod í</w>
um ře
on- line</w>
c al
z je
bo j</w>
po ně
dá my</w>
an dro
st ní</w>
vý mě
te prve</w>
kon zu
do hromady</w>
čís la</w>
ver zi</w>
listo padu</w>
stá tech</w>
ne w
ží te</w>
prac oval</w>
ov ané</w>
vez mi</w>
oko lí</w>
ra dost</w>
kdy si</w>
spo leh
pa ti
t t
tla čí
jedno du
o mlu
ško l
svět la</w>
stre et</w>
bi l</w>
vez me
fil mu</w>
z te</w>
mi n</w>
pí se
0 .
2 .</w>
zvířa ta</w>
mech ani
fi t
mili ony</w>
krá sný</w>
pod rob
penzi ony</w>
dr .</w>
služ bu</w>
z ce</w>
por t</w>
mezinárod ních</w>
se kto
di va
jin á</w>
té ma</w>
d ním</w>
že k</w>
vyža duje</w>
prin ci
s mlu
nau čit</w>
republi ka</w>
politi cké</w>
ciál ně</w>
sla d
t te</w>
pře su
poli ci
úč tu</w>
změ na</w>
vy pl
ameri ckých</w>
by tu</w>
pří spě
pr u
ne budeš</w>
mí r</w>
za va
ši la</w>
pá ni</w>
důvod ů</w>
obla stech</w>
ak tivní</w>
mě r</w>
ú mlu
so u</w>
lan d</w>
s la</w>
fe r
ohle du</w>
podpo ruje</w>
li n</w>
pě šky</w>
kni hov
volá ní</w>
uživatel ů</w>
pa na</w>
19 4
an ého</w>
pu s
dlouho dob
skuteč né</w>
n ést</w>
záko ny</w>
zaměst na
milu je</w>
dal ším</w>
e di
kon fli
á ch</w>
co s</w>
le ch</w>
společ ného</w>
zůsta ň</w>
pokrač ováním</w>
ž ď
tá bo
civi li
st ovat</w>
f f
mobi lní</w>
v te
vy zkou
běž te</w>
cest ou</w>
počíta č</w>
s prch
mys l</w>
ka p
au strá
vide a</w>
lá sky</w>
v lo
větš inu</w>
tý ká</w>
ode šel</w>
průbě hu</w>
í me</w>
stí ž
ban kov
zahr nu
di plo
hle dání</w>
a da
řa da</w>
u dělej</w>
předcho zí</w>
ara b
me tra</w>
di n</w>
vše mi</w>
osob y</w>
je jím</w>
lo stí</w>
jen ž</w>
před se
ra jí</w>
re gu
nezapo me
osta tních</w>
dě j
ven ý</w>
st in
pod mí
3 2</w>
š vé
za sra
ne dělej</w>
tero ri
nej méně</w>
v le
re krea
připo mí
vhod né</w>
oprav dov
spí še</w>
li cen
ni komu</w>
ma dam</w>
vi di
so n
fo n
tu m</w>
t ské</w>
kontak t</w>
s mi
ro o
při hlá
d né</w>
prů zku
mě nit</w>
podni ka
stů l</w>
úža sné</w>
s hod
labora to
h ých</w>
ví ken
stře l
kni hu</w>
me ch</w>
lod i</w>
je ze
v iny</w>
i ce</w>
blí ží</w>
sta ti
kri ze</w>
změ ní</w>
domo v</w>
z kla
politi ka</w>
d li</w>
souvi se
hu jí</w>
výbor ně</w>
zápa dní</w>
3 00</w>
3 1</w>
sezna mu</w>
ná hodou</w>
vál ce</w>
hoste l</w>
při způsob
2 ,
zů stává</w>
z r
w hi
tá ní</w>
slyše la</w>
pl od
fi lo
: 00</w>
systé mů</w>
pro spě
dr že
gra ce</w>
pří rod
oce á
t ová
cí til</w>
vzta hy</w>
čí ch</w>
sla b
ná dra
ob jedná
lí š</w>
e le</w>
kou sek</w>
cen tra
čty ř
zname ní</w>
qu e
fale š
říká te</w>
vytvo ření</w>
fran cie</w>
ztra til</w>
veřej né</w>
sna žil</w>
pus ť</w>
zá zra
přá tele</w>
hra ní</w>
vý u
pamatu ješ</w>
nezávi s
ře tě
ma il</w>
i rá
pěk ný</w>
di vo
sr p
vytvá ře
ov aný</w>
ka ta
v uje</w>
ukra jin
t ala</w>
dom ní
ch an
zvlá ště</w>
připo jení</w>
šťast ný</w>
k i</w>
přísa hám</w>
roz voj
ne y</w>
n ová
niž ší</w>
nej prve</w>
lov ý</w>
drž te</w>
ba mi</w>
kli du</w>
t ř
zaji stit</w>
změ nil</w>
tu ri
hroz ně</w>
ob ou</w>
z mr
200 7</w>
sa u
vesmí ru</w>
ka ma</w>
pl né</w>
o stro
o sob</w>
mlu víme</w>
s he
oby vatel
pad ne</w>
lov ých</w>
j a</w>
zajíma vé</w>
adre su</w>
d na</w>
sí ť</w>
dal o</w>
bá t</w>
hla s
men u</w>
jin ým</w>
čin nosti</w>
u mí</w>
čí ny</w>
kdo ž</w>
vá leč
st vím</w>
myš lení</w>
ex peri
vy hod
jedno duše</w>
umě le
ne dávno</w>
nap ř</w>
par la
ně která</w>
ka be
vz ala</w>
h ně
proce su</w>
univerzi ty</w>
a na</w>
ji sto
tá m</w>
pa ne
kon čí</w>
mi kro
živo tního</w>
připraven i</w>
chara kte
kontro lu</w>
vr cho
vě dci</w>
nádra ží</w>
doporu č
čtvr ti</w>
k ní
st aly</w>
m hle</w>
eu r</w>
o nemoc
tu dy</w>
z ná</w>
slu ne
ak ci</w>
ekonomi cké</w>
y e
sí la</w>
připra ven</w>
di na</w>
pro te
za řízen
z in
ne musíš</w>
š á
lí me</w>
archite ktu
r ny</w>
us d</w>
pocho pit</w>
mil ovat</w>
r né</w>
od liš
zd r
v ého</w>
pla tit</w>
chví le</w>
lí te</w>
dokto re</w>
sa mé</w>
či n</w>
zdro j</w>
po le</w>
ně kam</w>
katego rie</w>
progra mů</w>
předsta vi
4 0
hra nice</w>
za volat</w>
vá no
ov alo</w>
b o</w>
nej důležitější</w>
do pis</w>
čí š</w>
ň ování</w>
dě lí</w>
minu losti</w>
su i
vzdu chu</w>
pro u
ved lo</w>
ná ku
po zem
ki lo
ne budete</w>
význa m</w>
energe ti
spotře bi
pře du</w>
sou du</w>
zep tal</w>
ne znamená</w>
ci a</w>
u ji
3 3</w>
pra chy</w>
z al
pad l</w>
druh ého</w>
osob ně</w>
19 5
o tro
kultu rní</w>
ka men
podsta tě</w>
klí č</w>
re for
bra n
straš ně</w>
pé če</w>
digi tální</w>
zač ne</w>
obra ťte</w>
š u
yor k</w>
par kování</w>
dobro vol
kuchy ně</w>
in n</w>
zahrani ční</w>
fa kul
spo n
ku s</w>
chla pec</w>
podob ně</w>
do sud</w>
ro n</w>
at mo
e k</w>
for mu
služe b
mate mati
3 5
do dáv
o l</w>
zá pad
soubo ru</w>
char lie</w>
obtí ž
centrá lní</w>
posla t</w>
vě ru</w>
ná sob
be re</w>
- co</w>
ká mo
kan á
chrá nit</w>
o cen
sy mbo
mode l</w>
v sa
rekrea ční</w>
ne tu
vra ť</w>
ved li</w>
vý še</w>
ře čeno</w>
získ al</w>
bole st</w>
ve změ
švé d
pořád ně</w>
na živu</w>
l ým</w>
ne musíte</w>
nej horší</w>
vedou cí</w>
bazé n</w>
vy ví
n ala</w>
ch ro
aplika cí</w>
ra da</w>
po m
ně ji</w>
logi cké</w>
jí dla</w>
dne ch</w>
ch em</w>
úko l</w>
způsob y</w>
poslouche jte</w>
se r</w>
ly m
gra n
šen ý</w>
t iny</w>
ně ný</w>
na ším</w>
ne budeme</w>
kre di
t nou</w>
nechá pu</w>
ba t</w>
atmo sfé
blá zen</w>
men ts</w>
i e</w>
x e</w>
dí vky</w>
roz to
poste l</w>
u dělá</w>
t le
bo ty</w>
umož ní</w>
desá t</w>
dopl ň
zač ali</w>
úža s
ře n</w>
in o</w>
stu pu
ne ga
dva cet</w>
pu sť
oko lo</w>
re n</w>
ro val</w>
gene race</w>
f la
s co
prostřed ky</w>
měr ně</w>
tla k</w>
poste le</w>
něj ším</w>
nejnov ější</w>
rych lost</w>
ná ct</w>
nej dříve</w>
g é
č ané</w>
ná kup
di stri
ke r</w>
zapomně l</w>
ome zení</w>
a ha</w>
čty ři
té hle</w>
šan ce</w>
v ané</w>
prů vod
pro chá
ne l
če kal</w>
tří dy</w>
oby vatel</w>
dosta nete</w>
čte ní</w>
in spi
ří kali</w>
u čit</w>
použí váme</w>
ná silí</w>
n ka</w>
cí tí</w>
šen é</w>
wi t
vítěz ství</w>
uka ž</w>
sa z
sty l</w>
naposle dy</w>
řek neš</w>
st ou</w>
ku je</w>
hu de
chlap i</w>
u vedl</w>
kvali fi
dvou lůžkový</w>
př in
pou ště
ma pa</w>
t nt</w>
x u</w>
e mo
sk ry
pu stí</w>
li vost</w>
k ty</w>
vešker é</w>
vý ta
ba te
vy berte</w>
o ku</w>
dí te</w>
sta bili
vol á</w>
květ na</w>
še mu</w>
d ani</w>
sta ve
po ro
i slá
a no
3 6</w>
sh ing
c zech</w>
nábožen ství</w>
ú lo
r ku</w>
ner v
kon cep
kur z</w>
pře č
sou d</w>
mal ou</w>
kur zy</w>
í š</w>
vzdále nosti</w>
tr vat</w>
tradi ční</w>
e š</w>
be ach</w>
5 .
rizi ko</w>
le jší</w>
poli cii</w>
poda řilo</w>
aplika ci</w>
po zici</w>
mlad ý</w>
7 5</w>
žá dost</w>
lid ských</w>
nejlep ších</w>
ší mu</w>
be k</w>
sk ří
čin u</w>
ukaz uje</w>
ro man
pe č
univerzi ta</w>
f ra
vý kon</w>
mo zek</w>
hu bu</w>
ča u</w>
schop ni</w>
chce te-li</w>
budou cí</w>
ál ně</w>
mi st
zají má</w>
č tí</w>
p ů</w>
bl b
b ali
da tum</w>
aktivi ty</w>
ško da</w>
ča j</w>
zku r
jí š</w>
dá l
ý t</w>
pře ži
he re
hla d</w>
ši li</w>
kou ze
ide ální</w>
a re
nástro j</w>
ho d</w>
li d</w>
znám ý</w>
kov ou</w>
j ou</w>
ž ka</w>
zvý šení</w>
zd ů
příležito sti</w>
st em</w>
ča so
stro je</w>
pos l
ok na</w>
po mohl</w>
ně komu</w>
pře prav
p d
mu sli
do stanu</w>
bra tr
pří ště</w>
použí vají</w>
e ri
souča sně</w>
chu d
miliar d</w>
z dá
kov ého</w>
ov ě</w>
da ří</w>
tov ý</w>
ne vin
b in
ježí ši</w>
č nou</w>
na vždy</w>
u če
ov aly</w>
ameri ce</w>
a h</w>
po kou
regi oná
sov ě
staro sti</w>
záko na</w>
ne mohla</w>
ekonomi ka</w>
zo u
pe k</w>
kvali ty</w>
fan ta
vel kých</w>
ča stě
republi c</w>
úče lem</w>
mož ností</w>
od vět
lod ě
l l
červ na</w>
poh ř
pu st
srd ci</w>
c re
za s</w>
do n
zů stane</w>
perfek tní</w>
t t</w>
za volám</w>
o sa
u blí
lo s</w>
do pro
20 00</w>
wa shing
ně kým</w>
podob né</w>
pi lo
4 8</w>
profesioná lní</w>
r i</w>
narodi l</w>
pů vodní</w>
poli ce
z ala</w>
pusť te</w>
vě dí</w>
m p</w>
ru s</w>
o čí</w>
komuni kace</w>
d lem</w>
ne líbí</w>
vy bí
ná po
k ně
udrži tel
inter national</w>
desig n</w>
uži vatele</w>
h ři
ne t</w>
y i</w>
te ční</w>
rozvo je</w>
rozumí š</w>
v ních</w>
tá mhle</w>
kvali tní</w>
doprav a</w>
a c
hod in
de vět</w>
skvě lá</w>
hodno tu</w>
na me</w>
bo lí</w>
po rozu
c ování</w>
dete kti
ál ů</w>
pří tele</w>
c lou
abso lu
u věřit</w>
slyší š</w>
dě l</w>
cen ý</w>
vol by</w>
zov ané</w>
o l
di ska</w>
fir ma</w>
mno zí</w>
mod u
kou pil</w>
š am
vz or
ú silí</w>
sk em</w>
s me
vnitř ní</w>
skuteč ný</w>
och rá
vy stou
ope race</w>
li du</w>
minu lý</w>
dostá vat</w>
za bezpe
sk ému</w>
h ování</w>
sil ný</w>
přesta t</w>
inf ra
gh t</w>
prostor u</w>
preziden ta</w>
sil né</w>
mezinárod ního</w>
apartmá n</w>
ja cku</w>
fo tky</w>
ká vy</w>
dov e
ch á</w>
roz sa
m lé
j ším</w>
ň á
čet l</w>
si li</w>
pode zře
obje vil</w>
rod ině</w>
zachrá nil</w>
je mně</w>
návr h</w>
za se
vti p
sob o
dohod y</w>
říj na</w>
přá ní</w>
ta jí</w>
kdy byste</w>
o mezen
pro ná
zá sob
c ra
bu si
myšlen ky</w>
e-mai ly</w>
čer no
le tě
co koli</w>
ra kou
dů kaz</w>
200 6</w>
ča ro
mi la</w>
výrob ky</w>
vý hledem</w>
kom pli
se zná
dě di
vy hrá
mo ment</w>
bezpeč né</w>
a ir
připra vit</w>
pro mě
stra n
we bu</w>
k tu</w>
po chází</w>
zá ži
o he
mod r
cen é</w>
é r</w>
nech ala</w>
tov ých</w>
te p
pozna t</w>
líbi t</w>
p h
mil oval</w>
í te</w>
ga re
dí vat</w>
d le
ó ny</w>
strate gie</w>
pi tí</w>
vý sledek</w>
spo j
studi a</w>
využi tí</w>
tě ší</w>
ch vá
prv ního</w>
návště v
pi su</w>
něme cku</w>
telefo nu</w>
t nosti</w>
pří rodní</w>
ne víte</w>
r ry</w>
udá losti</w>
studen tům</w>
vi ce</w>
d ního</w>
ně na</w>
t -
pi e</w>
na instal
b lu
n ci</w>
dese ti
vypa dat</w>
ka paci
východ ní</w>
ne dá</w>
lo kali
0 ,
vezmě te</w>
pěk né</w>
důleži tá</w>
och ran
l ce</w>
s hroma
po dává</w>
obec ně</w>
do drž
zna čky</w>
cvi čení</w>
a tra
zjisti l</w>
živo ty</w>
ru ské</w>
s niž
ameri cká</w>
o li
ty py</w>
slo v</w>
pobře ží</w>
la ci</w>
přij mout</w>
neu dělal</w>
žen á</w>
bi t</w>
prosin ce</w>
cí tíš</w>
ta len
hodno ta</w>
ži jí</w>
distri bu
na vzá
tý dnů</w>
r ný</w>
dne š
ová ni</w>
o lym
hlav ních</w>
důleži tý</w>
z ali</w>
jak ým</w>
za p
mrtv á</w>
ni čku</w>
neří kej</w>
na ro
r na</w>
n ali</w>
mysle li</w>
obsa hu</w>
výhod y</w>
nevě ří
č u
če ština</w>
le gi
navzá jem</w>
3 8</w>
r ních</w>
oko l
bá m</w>
veli kosti</w>
navští vit</w>
joh n
bře zna</w>
pochyb nosti</w>
přiná ší</w>
bej t</w>
červen ce</w>
ve ro
host ům</w>
ja ck
bá ch</w>
začá tek</w>
ti to</w>
d ané</w>
cen ter</w>
š ká
rych lý</w>
nechce te</w>
vi e
vz hů
hol či
sly ším</w>
po ptá
e li</w>
plá ny</w>
měsí ci</w>
ber lí
udr žet</w>
k cí</w>
vz ali</w>
vál ku</w>
do tk
ekonomi ky</w>
ší me</w>
tomu to</w>
no stech</w>
dis ci
podí l</w>
kar ty</w>
y o
o sud</w>
en á
nov ým</w>
vzhů ru</w>
strá ž
produk t</w>
led na</w>
ně no</w>
v p
nu tím</w>
neza jí
kom bi
poskyt nout</w>
evrop ská</w>
apart ments</w>
španěl sko</w>
zava za
vidí me</w>
ve j
obrá zek</w>
i sla
kal ho
ko ně</w>
ch i</w>
vysvět lit</w>
vir tu
na mi
urči té</w>
kan di
z ují</w>
sho w</w>
ta mi</w>
ne mohou</w>
mate ri
do r
- a</w>
po zdra
3 4
ma l</w>
zůsta l</w>
lux us
investi ce</w>
za č</w>
stej nou</w>
spo čí
komple x
inf o</w>
šé f</w>
ál ním</w>
zaměstnan ců</w>
z účast
jedi nou</w>
mo ti
lé ky</w>
mlu vili</w>
mi lý</w>
ova nou</w>
h ře</w>
fa nou
bra tra</w>
ot če</w>
h ala</w>
zaji šť
lov i</w>
čín ské</w>
magi ster
fi li
vy lep
va n</w>
překva pení</w>
e pi
vy rov
kli matu</w>
cha l</w>
sprch ou</w>
ps ala</w>
pa nebo
tu risti
ri s</w>
vá n</w>
nau čil</w>
dostup né</w>
ber t</w>
3 4</w>
va ším</w>
busi ness</w>
1 50</w>
shroma žď
s má
ru jí</w>
s chod
po hov
panebo že</w>
jin ými</w>
orgá n</w>
ni ly</w>
br ž</w>
zvlá dne
pů jdeš</w>
o ne</w>
osta tními</w>
p ě</w>
í k</w>
hotov o
ško d
t vým</w>
scho pen</w>
js eš</w>
těž ko</w>
dese ti</w>
ra do
elektro ni
nechtě la</w>
se t</w>
či ní</w>
vyso ká</w>
vi na</w>
pohle du</w>
nej víc</w>
přá tel</w>
pal u
pře ko
potřeb né</w>
of fi
lé ta</w>
du ši</w>
3 9</w>
ó zní</w>
zá lo
tr val
slyše li</w>
dí k</w>
ku řá
konkré tní</w>
čí te</w>
mimo chodem</w>
se h
manžel skou</w>
dosta neme</w>
kla da
e ti
proto ko
hud ba</w>
z lodě
uprch lí
u važ
psá t</w>
za t
du jí</w>
brá t</w>
roz sáh
ný brž</w>
dé le</w>
par ku</w>
u tr
ro kem</w>
dě tem</w>
čen ý</w>
vol ala</w>
3 8
zna ky</w>
rezerva ce</w>
zvu k</w>
ne byli</w>
aktuali zace</w>
pro dá
ti nen
spo lé
na děje</w>
š le
vě dy</w>
je hož</w>
výro by</w>
sen á
vzpo mín
ko lo
minu ty</w>
úto k</w>
při spě
osob a</w>
člen ů</w>
za ru
její ho</w>
9 9</w>
i dio
je de</w>
- ne</w>
hla vě</w>
x e
de tai
dal šího</w>
se zó
dá rek</w>
še n</w>
wo od
su r
mé mu</w>
zlep šení</w>
dovo lit</w>
chy b
y ho</w>
ti cho</w>
stati sti
sran du</w>
průmys l</w>
ob oru</w>
f u</w>
3 7
á m</w>
di e
c ti</w>
fung ovat</w>
c s</w>
ne byly</w>
leta dlo</w>
f ron
hvěz dy</w>
sní žení</w>
stá vají</w>
hla š
g or
ad mini
p sa</w>
au tě</w>
vel kým</w>
na jdeme</w>
c u</w>
vě ř</w>
e jte</w>
poslou chat</w>
p lí
sedě t</w>
mo n</w>
g -
pro fi
přípa dech</w>
klu bu</w>
nabíd ky</w>
joh ne</w>
ing u</w>
ptá m</w>
výji m
ma tku</w>
hod ný</w>
3 7</w>
vil la</w>
potřeb oval</w>
kr ve</w>
va ši
č ník</w>
zen é</w>
společen ství</w>
w n</w>
ri sk
kapitá ne</w>
da tabá
krá le</w>
kle s
kdy bychom</w>
f em</w>
vy sla
t ře</w>
studi um</w>
sou se
naš tv
k ing</w>
ma ry</w>
dí těte</w>
armá da</w>
prac ují</w>
chu t
po p
s se</w>
pa dy</w>
ov ým</w>
fi e</w>
po pis</w>
ob lé
indi e</w>
dr žel</w>
svobod u</w>
pad la</w>
hez ký</w>
vo lej</w>
ori en
mod lit
la t</w>
organi zací</w>
dru hy</w>
ří me</w>
z vyk
rychle jší</w>
pho ne</w>
mini st
zku sit</w>
povo lení</w>
celo světov
ní me</w>
moř ád
mi mořád
ře šit</w>
u p
te bní</w>
sv á</w>
pracov ních</w>
ova tel
va d
po rov
van á
po le
na sa
sní dani</w>
prav é</w>
ste ro
zná me</w>
do l
d ž
pos ly
6 0
s -
ga n</w>
vra cí</w>
di lo</w>
ni kam</w>
míst nost</w>
da jící</w>
cy k
he slo</w>
ca j
t oval</w>
d vaná
mo j
ká me</w>
h d
počíta č
j or
fran cii</w>
energi i</w>
k rov
v ního</w>
ro stou
revolu ce</w>
da ň
re spe
vě k</w>
po byt</w>
nov ě</w>
vy vinu
uplat nit</w>
u l
ně ny</w>
mlu vila</w>
infra struktu
ge o
chy bu</w>
bra t</w>
andro id</w>
nebezpeč né</w>
milá čku</w>
chlap če</w>
uká zal</w>
stá nu</w>
sexu ální</w>
mo zku</w>
pis uje</w>
pi vo</w>
ná mi
děku jeme</w>
chy by</w>
bar vy</w>
dů kazy</w>
tvo ji</w>
plo chou</w>
mov i
skon čí</w>
leta dla</w>
komple tní</w>
vý bu
vypad ni</w>
ti vně</w>
sle ch
ú mys
zem řít</w>
s ny</w>
r ky</w>
obje ví</w>
ní š</w>
ředi tel</w>
re konstru
mlad ší</w>
automati cky</w>
a na
zná mé</w>
televi zi</w>
ní ž</w>
olym pi
před stí
v ze
di o</w>
al ter
vlast ním</w>
rov ý</w>
zvý šit</w>
k lini
je ď</w>
nevě řím</w>
st ři
kon gre
uli ce</w>
mě t</w>
žen ých</w>
čá st
offi ce</w>
bo n
doká zal</w>
zemře la</w>
po každé</w>
stá hnout</w>
vzta huje</w>
ma tky</w>
vi ze</w>
pře sto
oba vy</w>
ří z
tex t</w>
žele zni
obě d</w>
kapi tali
exi sten
u c
te st</w>
dět mi</w>
jez du</w>
svo jí</w>
výro bu</w>
posle ch
kancelá ře</w>
ča s
za m
n ský</w>
zlep š
sta vy</w>
dohod u</w>
na ci
d v
zav ře
kra bi
čer né</w>
změ nu</w>
hle dá</w>
zvláš ť</w>
d ani
ta tí
pamě ti</w>
e d</w>
r d</w>
na s
dce ru</w>
z lob
podmí nek</w>
ne dáv
dě jin
jem né</w>
ál ních</w>
zápa s</w>
přesto že</w>
poh ře
g ové</w>
rych lé</w>
poten ci
pd f</w>
odpově di</w>
ma x</w>
e ch</w>
muse um</w>
vy dě
či štění</w>
ne záleží</w>
vy táh
sou sed
4 00</w>
ne t
5 5</w>
úža sný</w>
ví no</w>
klu b</w>
inte g
zu by</w>
ven ce</w>
u stanov
zi e</w>
prv ních</w>
na zna
kro ky</w>
kla du</w>
pro jít</w>
en é</w>
médi a</w>
ká vu</w>
šen á</w>
tv ů
200 5</w>
zná t</w>
si den
ž lu
vz do
obra z</w>
čá ste
nemoc nici</w>
bar celo
por tu
mo st</w>
ř ské</w>
ú smě
i ště</w>
fil my</w>
1 -
du še
vývo je</w>
sociál ních</w>
za slou
tro šku</w>
pro ká
hod i
teo rie</w>
obchod ních</w>
sdí let</w>
opatr ně</w>
nej lépe</w>
ne víme</w>
d in
a ti
pá tek</w>
pro vin
ně me</w>
ne dovo
kte m</w>
ge r
c d</w>
maxi mální</w>
be ru</w>
bi t
z krá
pozi tivní</w>
ch ů</w>
zku ste</w>
u spo
pr del</w>
bo ji</w>
řen o</w>
průvod ce</w>
pokro či
muze um</w>
u skuteč
s dě
na jdu</w>
kla dy</w>
u pí
tě mi
mě st</w>
miliar dy</w>
ě te</w>
pa tr
na ku
k oval</w>
mí stech</w>
dov i</w>
šťast ná</w>
ří dil</w>
če mž</w>
pře hrá
zni čit</w>
zač alo</w>
di vné</w>
budov y</w>
8 .
sbo hem</w>
ško lu</w>
dov ě
dob rej</w>
re so
minister stvo</w>
čin nost</w>
jin de</w>
c le
ši f
zi l</w>
regi stra
řen y</w>
poslou chá
při ta
ohe ň</w>
be l</w>
v ni
sy nu</w>
sta žení</w>
nes l</w>
georg e</w>
jedin ě</w>
zá va
pon dělí</w>
ozná mení</w>
h m</w>
tv ých</w>
gra tu
gene ra
že s</w>
na padlo</w>
mě j</w>
hez ké</w>
l te</w>
ch ovat</w>
odstra nit</w>
o su
efe ktivní</w>
do po
hle dám</w>
součas nosti</w>
řen ý</w>
kapito la</w>
mai l
je du</w>
vyprá vě
to rů</w>
do bou</w>
de sí
smlou vy</w>
t ině</w>
kata stro
in t</w>
vole jte</w>
ova tel</w>
pří bu
mlu víte</w>
m ovat</w>
sdí le
sch ov
kov ané</w>
řen ím</w>
přá teli</w>
pomo zte</w>
vol ný</w>
gu e
- ano</w>
tvů r
po há
vrá tila</w>
poli caj
zen y</w>
kdy koliv</w>
sled ování</w>
9 5</w>
dá vám</w>
naši m</w>
ma c</w>
facebo ok</w>
vy sta
n ská</w>
cí sa
so ne</w>
odpo či
té ma
vi c
tvo r
ti cký</w>
klí če</w>
d é</w>
zabezpe čení</w>
y a
to nu</w>
otáz kami</w>
odvět ví</w>
l ly</w>
vy hov
pří še
institu ce</w>
vod ě</w>
hra ni
zá ní</w>
ve l</w>
u děláš</w>
na pi
ž te</w>
sport ov
kuchy ni</w>
uvidí te</w>
rozví jet</w>
ka ci</w>
jí me</w>
inte ra
pal á
od sou
důsled ku</w>
á lu</w>
obla stí</w>
8 0
chlap ci</w>
zpravoda je</w>
žen ě</w>
ru sku</w>
druh ů</w>
souhla sím</w>
mí ry</w>
h ali
del ší</w>
bu n
vol ba</w>
upří m
š né</w>
vyrá bě
vp n</w>
vyso kou</w>
by tek</w>
jo se
jedno tky</w>
boj ím</w>
wil li
vi lo</w>
t z
le sk</w>
hospo din</w>
4 2</w>
lid ská</w>
dub na</w>
rizi ka</w>
po st
ochra na</w>
obě tí</w>
3 ,
tel ných</w>
ne vidím</w>
londý ně</w>
spo r
podpo rovat</w>
m te</w>
pří š
ka t
výji me
nej bliž
men u
kter ými</w>
ur t</w>
p tal</w>
qu e</w>
oz bro
cír ke
znamen á
těmi to</w>
ostro v</w>
o pustit</w>
pů l
vzta hu</w>
den ství</w>
skon čil</w>
razi l</w>
národ ů</w>
6 5</w>
kaz uje</w>
zna t</w>
umístě n</w>
ni zo
bar va</w>
uklid ni</w>
a ri
společ né</w>
le gra
boj ov
chu ť</w>
o ka
vel kého</w>
ran de</w>
posta vení</w>
za chy
u bo
tre st</w>
g h</w>
n ýho</w>
fran ci
ru ky</w>
ne daleko</w>
hle diska</w>
h ře
z ování</w>
ty pi
še sti</w>
svob o
la u
d ni</w>
ru ka</w>
jí te</w>
e s
z neu
plu kov
ru ska</w>
dlou hé</w>
rov nou</w>
přísluš ný</w>
slo st</w>
karié ru</w>
ji ní</w>
ú z
v aný</w>
skuteč nost</w>
postup ně</w>
ní te</w>
medi cí
s rá
otevřen é</w>
zatracen ě</w>
sli b</w>
potra vin</w>
pi sů</w>
vyře šit</w>
f ri
du ch</w>
- já</w>
počíta či</w>
potí že</w>
šé fe</w>
zname nat</w>
otá zek</w>
špi na
vy hrát</w>
hrá či</w>
s ce</w>
ta n</w>
tou to</w>
průměr ná</w>
z ně
ja ck</w>
c ovat</w>
ž an
pře ká
re akce</w>
jo e</w>
pí š
podpo ry</w>
ná mě
i zo
dosta tečně</w>
filo zo
člá nky</w>
wa y</w>
pou hých</w>
nějak ého</w>
in ten
h la</w>
ban k</w>
tu jte</w>
přij dou</w>
meto dy</w>
tr hy</w>
člově če</w>
zí te</w>
cest ování</w>
vyšetř ování</w>
stá l</w>
před lo
poste li</w>
čer ná</w>
pří teli</w>
po vole
a z
ji ho
ben á
srp na</w>
ne movi
m my</w>
o ne
přesta ňte</w>
pro zkou
je li</w>
ser ver</w>
ma so</w>
a ci</w>
z ka</w>
apart má</w>
nov ém</w>
váno ce</w>
odpověd nost</w>
bí lé</w>
ga le
evrop a</w>
prode j
pro vést</w>
ná hod
ze ň</w>
v aly</w>
slíbi l</w>
per so
k in
ban ka</w>
softwar u</w>
hen ry</w>
f bi</w>
admini stra
ter mí
li b
mě ru</w>
líbi lo</w>
br zo</w>
tr valo</w>
po si
ji chž</w>
pře lo
jednodu š
za bý
č oko
zabi ju</w>
vlast nosti</w>
skr ý
hla va</w>
pra vou</w>
bo jí</w>
zalo žena</w>
ex tré
z ří
vý vojá
při čemž</w>
inář ství</w>
va len
b ů</w>
9 .
vo dou</w>
uživatel é</w>
stře do
pra cí</w>
jaké koli</w>
zi vní</w>
ro ste</w>
ne mo
ale x
úspě chu</w>
sní žit</w>
chlap a</w>
ča ta</w>
úrov ně</w>
vlast nictví</w>
lu m
zku s</w>
je li
zách ra
slov y</w>
vlá dní</w>
stov ky</w>
ck e
ú ře
k ými</w>
ha t
dlou hou</w>
ve se
tlačí tko</w>
kon tinen
za u
ro ční</w>
otev ři</w>
ř u</w>
ri char
největ ších</w>
4 4</w>
jaké koliv</w>
dí l</w>
dy nami
ná le
prohlá sil</w>
ini ci
čoko lá
titu l</w>
ro le</w>
ne če
dro b
sov i</w>
rov ých</w>
ne sta
le ž</w>
polov ina</w>
mili onu</w>
fi el
paří ži</w>
na j
mrt ví</w>
vá ny</w>
vyhledá vání</w>
s .
rá na</w>
vybaven é</w>
sa ra
ú c
h nutí</w>
bo ží
vě řil</w>
vy hrál</w>
2 2
sport ovní</w>
před em</w>
6 .
regi onu</w>
n ů
vy lou
v ný</w>
tv ém</w>
po pisuje</w>
největ ším</w>
ho ry</w>
bohat ství</w>
slyší te</w>
ser veru</w>
ko lá
f f</w>
le te</w>
dosa žení</w>
bo je</w>
ameri čan
vy dání</w>
po kle
na psat</w>
di a</w>
univerzi tě</w>
ú tě
výraz ně</w>
tu s</w>
sch ová
rov nová
vy le
d ný</w>
ta r
an dre
vojen ské</w>
ko la</w>
kali for
ko pí
ig no
vzá c
ves nice</w>
ameri ky</w>
le gen
č nost</w>
úda j
ote ví
organi za
od ve
d r</w>
bra l</w>
nezbyt né</w>
soci ali
finan čních</w>
ždě ní</w>
do jde</w>
ač koli</w>
y ou
police jní</w>
stani ci</w>
se ch</w>
nov inky</w>
i hned</w>
bo d</w>
zlep šit</w>
bí lý</w>
pu l
o le
me dvě
vzdu ch</w>
veče ře</w>
7 .
ško lení</w>
luxus ní</w>
vel ko
obrov ské</w>
da mi</w>
roz kaz</w>
pot lesk</w>
onemoc nění</w>
ry by</w>
dě ní</w>
š ly</w>
če ská</w>
t ém</w>
kultu ry</w>
pá ní</w>
tě le
for d</w>
chy stá
af g
komentá ře</w>
jí del</w>
sle p
r ské</w>
davi d</w>
zapla tit</w>
ji l</w>
funk ci</w>
techni k</w>
ne řekla</w>
gal a
upří mně</w>
stá r
bod ů</w>
tro j
tex tu</w>
sí me</w>
me r</w>
ho sti
přemýš le
cí tila</w>
přemýš let</w>
domá c
kov ě</w>
výrob ků</w>
d -
nabíd nout</w>
zvlá dnu</w>
vzdělá vací</w>
fe r</w>
pu stí
projek tů</w>
obě ti</w>
na štěstí</w>
jeli ko
izra el</w>
pusti la</w>
ro l
ké ž</w>
za volej</w>
vý da
sex y</w>
jeliko ž</w>
ge n</w>
do oprav
ří dí</w>
k s</w>
ško l</w>
mentá lní</w>
přátel ství</w>
fé nem</w>
dí v
evrop ských</w>
vo li
vi ta
ně ná</w>
č ují</w>
skr ze</w>
hod inky</w>
da nou</w>
za jisté</w>
ba vit</w>
ur o</w>
se dí</w>
rezer vovat</w>
na to
le tý</w>
asi sten
hud bu</w>
zákaz níků</w>
re spek
je la</w>
v čas</w>
re di
na to</w>
pé či</w>
an ým</w>
sově t
narozen iny</w>
zjisti li</w>
kapitá n</w>
člen ové</w>
ni čka</w>
nabíd ka</w>
provo zu</w>
dooprav dy</w>
dohod a</w>
d la
vo le</w>
ne v
hol ku</w>
uži teč
ka vá
zba vit</w>
záj mu</w>
3 d</w>
200 4</w>
rozší ření</w>
spolu pracovat</w>
pravide lně</w>
bo ur
ži dov
mo ři</w>
ž ra
zr ca
dospě lí</w>
slune ční</w>
pře no
úřa d</w>
ne znám</w>
le tu</w>
pomá hat</w>
obrá zky</w>
ká lní</w>
no sti
da ní</w>
následu jících</w>
ve dou</w>
signá l</w>
vy hlá
pře ru
š ný</w>
mail .com</w>
květ inářství</w>
kancelá ř</w>
vraž du</w>
ele gan
t ma
roz ši
dvo ji
sto py</w>
pri ori
ot ci</w>
zvě da
vla j
poji štění</w>
obá vám</w>
kto r</w>
dru hu</w>
čí ň
tě le</w>
t ků</w>
hi l
ce ti</w>
čle nem</w>
o ti
dosta neš</w>
mi lé</w>
k tů</w>
půj čov
kou kni</w>
armá dy</w>
3 .</w>
w an
ply nu
osta tním</w>
mě jte</w>
zví ře</w>
afri ce</w>
vytvá ření</w>
vy ra
u čí</w>
s ci
da y</w>
vz ruš
případ ů</w>
pra ví</w>
o š
fot bal
žá do
odpoví dá</w>
popu lace</w>
obrazov kou</w>
le tní</w>
bole sti</w>
nej men
před ní</w>
hla vou</w>
san ta</w>
pusti li</w>
ří m
či sté</w>
projek ty</w>
dí tě
smlu vní</w>
po měrně</w>
a u</w>
wor ld</w>
požada v
ne viděla</w>
z vy
to ny</w>
srov nání</w>
spi s
re d</w>
ova ní</w>
ob těž
č ování</w>
vý ho</w>
prav dě</w>
milu ješ</w>
v stup</w>
t ali</w>
web ovou</w>
výsled ků</w>
psy chi
čer ve
úno ra</w>
vla k</w>
si vní</w>
p ím</w>
fotografi í</w>
4 7</w>
tím hle</w>
h ové</w>
p ni</w>
funk cí</w>
vů dce</w>
rozhod la</w>
ně k</w>
plu s</w>
or y</w>
u spoko
okamži k</w>
ka pe
televi ze</w>
stíž nostmi</w>
sateli tní</w>
auto ri
čer ný</w>
ob ý
dov á</w>
že š</w>
za sa
tam hle</w>
po kry
úspěš ně</w>
ví na</w>
požá dat</w>
ok no</w>
ma ster</w>
ká š</w>
kom bin
t wit
svobod y</w>
manže la</w>
vy dá
dra há</w>
dosta tek</w>
rů ž
počá tku</w>
ži jeme</w>
r ý
individu ální</w>
z bývá</w>
hov no</w>
pi sto
ovo ce</w>
o práv
smys lu</w>
le e</w>
l ům</w>
bla ho
war d</w>
zá ha
o po
f t</w>
če st</w>
nebo jte</w>
čaro děj
poko j
jí cími</w>
ne možné</w>
hra d</w>
vytvá ří</w>
s prav
p ani
konferen ce</w>
k ne</w>
pohy bu
bu ň
an ě</w>
po u</w>
stu dovat</w>
perso ná
kama rád</w>
ti lo</w>
m l</w>
tvá ří</w>
ku f
adre sa</w>
závi sí</w>
pomo z</w>
po žeh
e c</w>
zra nění</w>
te pl
sou část</w>
li a</w>
9 0
dne m</w>
au stra
z blázni
ofi ciálně</w>
in ové</w>
d ců</w>
tov ou</w>
přítel kyně</w>
tr v
studi í</w>
p to
zása dní</w>
h ád
za ne
odpo čí
od pad
ma s</w>
zába va</w>
portu gal
ře na</w>
zvířa t</w>
ob lo
m ba</w>
u klá
war e</w>
do nu
austrá lie</w>
20 .</w>
t .</w>
při jdu</w>
britá nii</w>
ře ky</w>
přines l</w>
manage ment</w>
králov na</w>
fi rem</w>
dokumen ty</w>
lu jí</w>
vy dělá
okamži ku</w>
le d</w>
tr y</w>
materiá l</w>
m m
do pad</w>
by sme</w>
š at
ko mer
všeobec né</w>
dola r</w>
vzpomí nám</w>
ven á</w>
dou fa
veřej nosti</w>
reso rt</w>
hajz lu</w>
ak ci
zach ra
každ ému</w>
br ý
- je</w>
še st
ča sem</w>
chápe š</w>
ře cko</w>
ál ního</w>
rozhod nout</w>
o kra
uká žu</w>
poř a
pomo c
oči ma</w>
námě stí</w>
kvali tu</w>
ck ému</w>
z ně</w>
kouze l
tře ch</w>
ně ných</w>
ho nem</w>
ter e</w>
po no
men o</w>
pos ád
ha m</w>
dia man
mno ho
u vádí</w>
smlou vu</w>
přije l</w>
dá ch</w>
tu l
ně mž</w>
na tá
n g</w>
zkuše ností</w>
/ a</w>
vyz ved
pá rty</w>
ni koli</w>
k ý
zd i</w>
vytváře t</w>
návra t</w>
působ í</w>
pě tí</w>
nástro jů</w>
di alo
si on</w>
sed m
afg há
ú va
ova č</w>
materiá ly</w>
200 3</w>
sk ri
posta vit</w>
ci gare
zd rá
výrob ce</w>
b ři
p ka</w>
řen á</w>
ne rozumím</w>
duch a</w>
4 5
sna žit</w>
p i</w>
hla d
stě hov
pro ro
provo zuje</w>
pozna l</w>
ne stalo</w>
za ví
qu i
vy drž</w>
ti ch
ká tní</w>
poru čí
otevře te</w>
myš le
sna žíme</w>
zaměst nání</w>
ti ly</w>
angli cky</w>
ň ů</w>
mal ých</w>
zla tí
zabi li</w>
we r
vy mě
fit ness</w>
ste n</w>
mini málně</w>
ti cká</w>
poh ád
c z</w>
zkontro lu
ro y
os m
di ag
vů le</w>
ni koliv</w>
do č
ř em</w>
hle dají</w>
cí títe</w>
bra tři</w>
pro hlé
kri sta</w>
hez ky</w>
si e</w>
dro gy</w>
lož nice</w>
ca n</w>
příbě hy</w>
prav di
nabí zíme</w>
bod y</w>
se da
změ nila</w>
hle dal</w>
at d</w>
š la
vi tu</w>
pří slu
kter ému</w>
f ó
be th</w>
ře č</w>
vi et
televi zní</w>
mlad é</w>
manžel ka</w>
samo t
ot cem</w>
li na</w>
l iny</w>
kr vá
e la</w>
sní m
japon sko</w>
ameri ckého</w>
še tření</w>
le o
seku n
tre st
důvě ru</w>
sub je
ra d</w>
a mi</w>
na vzdo
fran ku</w>
úto ku</w>
přeč těte</w>
k lob
gra m</w>
6 4</w>
kilo metrů</w>
navzdo ry</w>
má lem</w>
zá vod
ně čím</w>
ja me
s pat
paří ž</w>
hledá te</w>
de pre
bo hem</w>
tvo jí</w>
tré nin
ca l</w>
koupel na</w>
blá z
takov ým</w>
po sto
na ději</w>
3 9
náz vem</w>
jedin ým</w>
za tk
výta h</w>
druh ým</w>
4 3</w>
m alo</w>
lé to</w>
cí lů</w>
čen ím</w>
je -li</w>
ve čí
sto p</w>
nabíd ku</w>
mů m</w>
budov ě</w>
využí vat</w>
změ nilo</w>
vý cho
in de
zaměstnan ci</w>
v ním</w>
o my
vý ši</w>
c lu
m to</w>
ry ho</w>
produk tu</w>
vyhra zena</w>
oka y</w>
ci zin
cu k
7 0
recen ze</w>
zi ma</w>
bá je
na jde</w>
at lan
pra ha</w>
mu n
li vá</w>
so tva</w>
li ší</w>
zí š</w>
podíve jme</w>
mla dá</w>
hod it</w>
záj my</w>
se ní</w>
prav ý</w>
politi ku</w>
po hla
gratu lu
inova ce</w>
zákaz níky</w>
uvědo mu
in stru
ch lu
nov o
čen á</w>
t l</w>
rá ch</w>
micha el</w>
a stro
ve du</w>
pra vo
ka len
u h</w>
leg ální</w>
še la</w>
od bo
ni jak</w>
lá m</w>
vzpo me
vy u
sleč na</w>
roz mani
dá vej</w>
píse ň</w>
plán ování</w>
světov á</w>
s .com</w>
nej te</w>
k vi
řa dy</w>
tiv ních</w>
sklá dá</w>
neb i</w>
v ování</w>
skla d
očeká vá</w>
v sta
nizo zem
mezinárod ním</w>
děv če</w>
3 -hvězdičkový</w>
ví ce
ode šla</w>
8 5</w>
sti l</w>
roz bi
sto lu</w>
spo rt</w>
a pa
ma ď
v ují</w>
me na</w>
je jichž</w>
sdí lení</w>
z lé</w>
ko st
ř ovat</w>
výrob ní</w>
f y</w>
sest ry</w>
sil nější</w>
w at
mno hé</w>
znalo stí</w>
republi ky</w>
4 1</w>
pamatu ju</w>
fle xi
bra zí
i s
dobr o</w>
ameri ka</w>
přemýš lel</w>
u si
lí k</w>
to též</w>
sti cký</w>
lo ni</w>
inžený r
s pí</w>
poznám ka</w>
hři ště</w>
5 -
zlo čin
pr vo
ži vé</w>
ň ské</w>
cír k
ta ne
ma ce</w>
byd lí</w>
za milov
ovlá dání</w>
ne mohli</w>
po ky
naro zení</w>
poví dat</w>
je mu</w>
dobr ého</w>
zdá lo</w>
ne věděla</w>
ne stačí</w>
sh i</w>
le vné</w>
ků že</w>
ko lo</w>
sa m</w>
po st</w>
její ch</w>
dět ství</w>
ostrov ě</w>
bri d
for my</w>
problé mu</w>
zkuše nost</w>
kom pati
hvěz da</w>
vide o
mini mální</w>
dá n
běž né</w>
železni ční</w>
zlatí čko</w>
původ ně</w>
nesná ším</w>
čen y</w>
le c</w>
l la</w>
2 -
nech ali</w>
l n
k č</w>
schů zku</w>
bě lo
znov a</w>
po psá
ru ko
přístup u</w>
certifi ká
4 6</w>
z práv</w>
ne stane</w>
stá h
do ra
analy ti
dal šími</w>
z bý
všim l</w>
těž ký</w>
rozhod li</w>
obě ť</w>
he i
4 9</w>
častě ji</w>
tr h
c in
va rování</w>
se vero
tha js
nejlep ším</w>
div ný</w>
osob u</w>
d nou</w>
círke v</w>
- jo</w>
skon čila</w>
ro vou</w>
o pat
li ly</w>
ci zí</w>
chá zím</w>
ča je</w>
nádher né</w>
iden ti
pře sné</w>
obliče j</w>
míst ních</w>
vy ma
od hali
kou le</w>
žen ím</w>
zabrá nit</w>
studen t</w>
dědi ctví</w>
věři li</w>
příkla dem</w>
mamin ka</w>
do chází</w>
tři krát</w>
4 ,
závi slosti</w>
oblíben é</w>
bo st</w>
předsta vení</w>
při šlo</w>
finan cí</w>
rozhov or</w>
vě řte</w>
va č</w>
zákaz níkům</w>
vá ch</w>
pocho pení</w>
správ ný</w>
popu lární</w>
nov iny</w>
mla dí</w>
ka re
mili ó
vý chod</w>
sekto ru</w>
hu mani
f í
uspo řá
pod vod
ní že</w>
z prá
před ná
zá važ
změ n</w>
pl nou</w>
čer tu</w>
seku nd</w>
ou t
ú vě
da cí</w>
kli kněte</w>
k li</w>
naši mi</w>
ško lá
utr pení</w>
ser žan
lod í</w>
p h</w>
i re</w>
ar gu
sed ni</w>
dě si
viet na
n alo
dlou há</w>
bro u
jednoduch ý</w>
5 1</w>
t ce</w>
plá ž</w>
nedosta tek</w>
nej vyš
vzá jemně</w>
na ru
vti p</w>
pře kro
vi z</w>
de s</w>
bi n</w>
potře bí</w>
tě lo
nápo je</w>
no sit</w>
ú prav
vě da</w>
svě tu</w>
ori gin
ni cká</w>
5 .</w>
z hor
vy bud
po za
vyro ben
londý n</w>
stej ná</w>
scé ná
člově ku</w>
gol f
ce nou</w>
vi ď</w>
maď ar
ja n</w>
da i
pa ten
ja mes</w>
for mě</w>
teo re
fo re
y e</w>
vě d</w>
sk e
inve stor
va teli</w>
ří te</w>
čte ná
su m
požá dal</w>
partner ství</w>
tr ži
to s</w>
1 00
jazy ka</w>
rozumí te</w>
zázna my</w>
využí vá</w>
10 .
pěk ná</w>
médi í</w>
mi str</w>
kancelá ři</w>
účin ky</w>
váž né</w>
vi rus</w>
re s</w>
j an
slov en
pří či
p c</w>
nu la</w>
víken d</w>
vypa dají</w>
souvise jící</w>
roz hraní</w>
pat ri
vě r
příslu šen
neza měst
zůsta ňte</w>
telefo nní</w>
resta u
4 7
za dek</w>
vlá du</w>
u té
ma rie</w>
lé tě</w>
myslí me</w>
do jem</w>
hlu pá
dovole nou</w>
te ni
mlu v
zapome nout</w>
za potřebí</w>
vzta hů</w>
va ri
to le
vý let</w>
vy sky
spravedl nost</w>
rostou cí</w>
pra xe</w>
cvi č
zač neme</w>
zem ře</w>
sto n</w>
ježí še</w>
poskyt ova
ne moci</w>
mi krov
uvidí š</w>
pí še
pl ná</w>
pracov níků</w>
dí lo</w>
svobod a</w>
se že
reži mu</w>
ja kou
a e
regioná lní</w>
pra vil</w>
we r</w>
vy vá
u ta
druh ém</w>
tře mi</w>
sta ví</w>
u šet
světov ý</w>
och ut
foto gra
be ní</w>
a r</w>
čle ny</w>
vra h</w>
ra di
prakti cky</w>
se y</w>
dobro dru
bo nu
vy tá
zná sil
mi lá</w>
demokra cie</w>
zabi je</w>
dů vody</w>
dí vku</w>
ku cha
stře du</w>
psa ní</w>
klu ka</w>
dů kaz
uži tečné</w>
u dělejte</w>
pohod lný</w>
moni to
vyso ký</w>
obchod ování</w>
ne moc</w>
techni ky</w>
me c</w>
kni ze</w>
ve le
mini str</w>
chi ca
u vidí</w>
rop y</w>
i p</w>
ú ro
stu pe
fi gu
bo x</w>
opa ku
ano ny
zástup ce</w>
po vzbu
pe vně</w>
nalé ha
za mí
o ko</w>
min á
k lep
fire fo
dan á</w>
ří š</w>
vojá ci</w>
se zení</w>
lid stvo</w>
histori cké</w>
ž em</w>
pro dat</w>
osa mě
mo ct</w>
jede š</w>
to p</w>
od hod
men ty</w>
toho hle</w>
nákup ní</w>
m .</w>
digi tá
úmlu vy</w>
mili on</w>
ne buď</w>
ji na</w>
ke n</w>
iná rní</w>
červen é</w>
mo no
i phone</w>
z vá
z kra
so na</w>
rodi nou</w>
poko jích</w>
ni čemu</w>
nezají má</w>
be j</w>
tu re</w>
kdy koli</w>
hr dina</w>
č ům</w>
lan d
4 .</w>
stu po
pre ss</w>
dá ním</w>
špat ného</w>
vrá tili</w>
je ru
6 6</w>
200 2</w>
ně čeho</w>
nega tivní</w>
doda vatel
bo ok
mrtv ých</w>
nezaměst na
ma z
tě mto</w>
při spí
poj men
pomá hají</w>
hledá me</w>
chlap ce</w>
a ut</w>
scho ol</w>
ran t</w>
indi i</w>
výbo r</w>
píš u</w>
podí val</w>
bu fe
zna jí</w>
posly š</w>
plane ty</w>
vez me</w>
pod zi
e- mail</w>
an to
pos pě
ov y</w>
ne roz
a bra
z lo</w>
pu n
ozbro je
co un
zá pad</w>
stvo řil</w>
z nu</w>
probí há</w>
polov inu</w>
vlast ního</w>
od jí
bi tv
přá l</w>
ča n</w>
li mi
g á
přije tí</w>
nená vi
z bož
vz kaz</w>
vy h
posky tovat</w>
plá nov
něj šího</w>
le na</w>
studi jní</w>
ni kde</w>
studi o</w>
rov ané</w>
prode je</w>
dlou hý</w>
ur e</w>
dra hý</w>
4 8
zázna m</w>
organi zaci</w>
mi se</w>
jmen uji</w>
col le
či stý</w>
produ kce</w>
i r</w>
pozo ru
shromáždě ní</w>
ne kone
uči tel
če kají</w>
u z
sov ý</w>
me ta
chu dá
če l</w>
správ ce</w>
sou dce</w>
mož ný</w>
námi tky</w>
jednoduš ší</w>
c m</w>
pá dně</w>
pi z
rodi čů</w>
li be
k nutí</w>
ce l</w>
tel nou</w>
p in
f urt</w>
ali zace</w>
z ka
obrov ský</w>
izra ele</w>
ško lní</w>
poku s</w>
na cí</w>
3 :
posky tují</w>
hude bní</w>
b ří
po va
opera ci</w>
nov iná
lin g</w>
zů stala</w>
doru čení</w>
ví tá
la n</w>
flo ren
vy hnout</w>
t inu</w>
zapome ň</w>
nezapome ňte</w>
nedě li</w>
ste ve</w>
vytvo řil</w>
vte ř
spravedl nosti</w>
sta rat</w>
pra xi</w>
lo n</w>
informa ční</w>
sí tí</w>
slou žit</w>
pr vky</w>
ví tr</w>
dne y</w>
uči tel</w>
oš kli
odpo vědět</w>
sil ná</w>
ne dí
každo pádně</w>
ka fe</w>
budov a</w>
vi a</w>
to ra</w>
ta bu
pamě ť</w>
babi čka</w>
5 2</w>
i lo</w>
stu povat</w>
r ního</w>
pi xe
nu to</w>
ko or
minu tu</w>
mi e</w>
špat ná</w>
sí d
re siden
kvali ta</w>
formu lá
cho ro
vy lé
umí š</w>
tr u</w>
léka ř</w>
finan cování</w>
sa t</w>
žd í</w>
ší len
zvyš uje</w>
zaká zá
sti cká</w>
po sou
an y</w>
vrá tíme</w>
pot kal</w>
ma y
k no
b ode
va jících</w>
plá že</w>
kur zu</w>
tr pí</w>
výro ba</w>
po to
pacien tů</w>
l li
pohy bu</w>
nov in
při ká
ov ém</w>
on s</w>
na vi
řek nete</w>
úřa du</w>
kvě tin</w>
bu m</w>
čen i</w>
t hi
hod né</w>
agen t</w>
člově kem</w>
ú mr
získá ní</w>
vysvět lení</w>
těž ší</w>
růz nými</w>
získ ala</w>
pou š
pří padu</w>
nesly šel</w>
asi i</w>
kan ál</w>
názor y</w>
g mail.com</w>
potenci ál</w>
po stup</w>
ví ru</w>
od hlášení</w>
klob ou
kame ry</w>
g ru
g la
ti cky</w>
ni čeho</w>
věří me</w>
vo u
va jí
o svobo
hrá li</w>
en vi
úko ly</w>
vý hra
lo ň
pá ki
zdra vé</w>
u prav
men e</w>
vý so
tvá ře</w>
ra du</w>
o ku
z lý</w>
re prezen
origin ální</w>
několi krát</w>
s nou
posta rám</w>
okol ností</w>
da n</w>
poza dí</w>
ú ter
vypa dal</w>
stro m</w>
lod ě</w>
h d</w>
ak cí</w>
o tra
nej krás
kontak tujte</w>
komplex ní</w>
po ly
zahrnu jí</w>
uté ct</w>
roz děle
bit co
tz v</w>
for t</w>
těho ten
kon ver
set kat</w>
obra ny</w>
jeru zal
g rou
zeměděl ství</w>
ob klo
úpl né</w>
získ ali</w>
pale stin
le se</w>
hra jí</w>
standar dní</w>
a ko
re feren
ka š
še na</w>
tvrd ě</w>
sly ší</w>
pře ci</w>
tov ané</w>
ra la</w>
odpověd nosti</w>
odbor né</w>
6 00</w>
východ ě</w>
pře číst</w>
vybra l</w>
prac ujeme</w>
l le</w>
ga s</w>
doprav ní</w>
bez va</w>
mně l</w>
gra du
ch e</w>
4 9
vil le</w>
žá r
od děle
na slou
mentá lně</w>
podnika tel
set ká
ná sledov
fanou š
nech y
muž em</w>
vá na</w>
ven ci</w>
ko stí</w>
h mm</w>
ně čem</w>
lé k</w>
b ních</w>
obě ma</w>
ma dri
le mi</w>
institu cí</w>
2 50</w>
žen ská</w>
ři ly</w>
větš ině</w>
nechá me</w>
vel vysla
od lo
kandi dá
bě ží</w>
č ného</w>
zavaza del</w>
za volejte</w>
um řít</w>
ti ce</w>
ov o</w>
asi e</w>
stá n</w>
reži m</w>
pla n
a jí</w>
pro dlou
potra viny</w>
b ang
nedoká žu</w>
doká žu</w>
pro běh
nor málně</w>
mobi l</w>
jako ž</w>
hod nosti</w>
ce ch</w>
šé f
rá me</w>
prostřed ků</w>
do předu</w>
ko rá
vte ři
vo zů</w>
správ nou</w>
š ab
uži vatel</w>
tru mp</w>
ri ty</w>
při pa
prav o</w>
ha n</w>
alex an
- tak</w>
tý če</w>
vlast ních</w>
produ kti
pokr my</w>
zodpověd nost</w>
w a</w>
mo udr
ti ka</w>
te ru</w>
léka ři</w>
klá dá</w>
dv d</w>
facebo oku</w>
ex per
dokáže š</w>
- jak</w>
tra dič
ste k</w>
smr tí</w>
ova cích</w>
min i</w>
před ví
nasta vit</w>
laska vost</w>
pravid lo</w>
ni ckých</w>
žád á</w>
souvi sí</w>
po li</w>
od i
o čích</w>
la tin
kontro ly</w>
funk ční</w>
dokto ra</w>
býval ý</w>
ze t</w>
mikrov ln
islá m
vi ci</w>
hrá č</w>
ode hrá
nerv ózní</w>
ma sá
je sky
7 2</w>
š tá
vaši m</w>
tov ého</w>
par don</w>
hroz í</w>
ztra tila</w>
na pa
mou dro
jaký ch
o pustil</w>
j ane</w>
ali ce</w>
slibu ju</w>
a soci
2 1.</w>
ši lo</w>
v zadu</w>
prav á</w>
o m
násled ně</w>
naz ývá</w>
19 .</w>
stou pit</w>
l ování</w>
slo žky</w>
o xi
kontro lou</w>
200 1</w>
š ce</w>
n ó
kar tu</w>
fre k
ka ra
auto r</w>
t hu
rela x
envi ron
technologi i</w>
rozu m
připrav te</w>
premi é
sobo tu</w>
od kaz</w>
nejbliž ší</w>
lo r
dosta nou</w>
dokon čit</w>
sí š</w>
an ce</w>
za volal</w>
vyzkou šet</w>
vysí lání</w>
tá tu</w>
prav dy</w>
připo je
nu t
mu r
kalen dá
hy po
ma rt
zi sk
pravide l</w>
ač koliv</w>
vý cvi
u ši</w>
dce ry</w>
by tě</w>
rozvo ji</w>
na vště
10 00</w>
stra nou</w>
lí ch</w>
zají malo</w>
vá noční</w>
va šemu</w>
poskyt ování</w>
en i
za slouží</w>
vývo ji</w>
pri má
seh nat</w>
orgá ny</w>
há me</w>
ztrá ty</w>
zabi la</w>
při padá</w>
h oval</w>
zav řít</w>
st mi</w>
roz lou
podni ky</w>
pixe lů</w>
omlu vte</w>
leto š
la r
výbo ru</w>
t le</w>
ov aných</w>
ja l</w>
umě l
u nes
pře ji</w>
spá nku</w>
s mo
provádě t</w>
nech á</w>
muze a</w>
iná m</w>
hod í</w>
ar gen
vzdále nost</w>
sto lem</w>
přin ést</w>
každ ým</w>
chy tit</w>
vy čer
standar d</w>
pu su</w>
pa pe
a ne
zmr z
te sty</w>
mag ne
dět ské</w>
úře d
vojá ků</w>
v nu
hd p</w>
al -
sa m
širo kou</w>
násled ovat</w>
na jděte</w>
do jet</w>
povin nost</w>
popla tky</w>
da ce</w>
člá n
spa l</w>
sara h</w>
příslušen ství</w>
něme cké</w>
za řa
pad nout</w>
hon g
trans for
příprav u</w>
b ky</w>
zákaz níci</w>
ztra tili</w>
zmize l</w>
p p</w>
o svět
a gre
pa s</w>
dě de
ukaz ují</w>
od rá
mat ce</w>
připra vena</w>
pau l</w>
vý sta
ven é</w>
ji mmy</w>
ši r
tří dě</w>
skup inu</w>
otevře l</w>
nic kou</w>
inteligen tní</w>
doporu čení</w>
charakte risti
vra ždy</w>
při hlášení</w>
poža dov
nechá pe
důleži tou</w>
vysoko škol
tu be</w>
pohy b
j šího</w>
ange les</w>
připraven ý</w>
ku pu
žal u
ti ckých</w>
za vá
ná dobí</w>
mě ří
ar e</w>
těho tná</w>
ser ví
fede rální</w>
běž ně</w>
brit ské</w>
to rem</w>
po bytu</w>
fot bal</w>
ří ch</w>
cel kové</w>
šam pi
prospě ch</w>
čty ř</w>
re le
ni cí</w>
pře hled</w>
nabíze jí</w>
di vá
zov aný</w>
u rá
tu šení</w>
provo z
me č</w>
man u
lu jící</w>
kou pe
chlá pek</w>
19 0
způsob it</w>
tero risti
systé mem</w>
očeká vání</w>
ž u
sta di
myšlen ka</w>
minu lost</w>
c li
ká men</w>
ri z
vý stav
pohla ví</w>
kontak tu</w>
tov ali</w>
ne p
ne cho
konzu l
d lu</w>
bode ch</w>
sin ga
shromáždě né</w>
bio logi
vy hlí
přítel ky
příležito stí</w>
neuvěři telné</w>
st vu</w>
le va</w>
5 5
prin c</w>
sé rie</w>
ne obvyk
brá nit</w>
uzav ře
6 9</w>
tři cet</w>
par kov
ang lie</w>
špi č
proná jem</w>
od vahu</w>
čeká m</w>
otevřen ý</w>
nost em</w>
6 8</w>
ocen ění</w>
obtíž né</w>
návště vu</w>
kri min
cest ovní</w>
akademi cké</w>
ú spo
zá klad</w>
vstá vej</w>
e na</w>
an děl
vypad alo</w>
irá ku</w>
in do
nej oblíben
s qu
par chan
kter ý
vz nést</w>
hle du</w>
vy rost
kre vní</w>
souvi slosti</w>
infor mu
dá n</w>
de ch
11 .</w>
zná má</w>
hospodář ské</w>
doprav y</w>
záležito st</w>
ztra tit</w>
zou fal
u snad
s se
ar t</w>
no hou</w>
inici ati
správ y</w>
mode ly</w>
mimo zem
fran k
nov a</w>
ř ský</w>
vzni k
p ky</w>
hoste ly</w>
sed mi</w>
pří kaz</w>
použí váte</w>
kter é
i t
e uro</w>
čet la</w>
zna čně</w>
příro dy</w>
ako rát</w>
jednotliv ých</w>
bar vu</w>
zákla dních</w>
naz dar</w>
učin il</w>
u smí
sch rá
pr sty</w>
lid ského</w>
de mon
brá cho</w>
stou p
star ého</w>
souhla s</w>
ne myslíš</w>
stro my</w>
překva pi
pře klad</w>
chytr ý</w>
st ůj</w>
sna žila</w>
kdo koliv</w>
veřej ných</w>
řek něme</w>
vy chut
vra ťte</w>
krá sa</w>
co lo
či st
regi stro
še ri
zdů raz
pří s
pust ím</w>
plane tě</w>
6 7</w>
vie w</w>
rodin né</w>
jaké ho
č ným</w>
ukáz alo</w>
plá nu
s dru
ra li</w>
připo jit</w>
no sí</w>
japon sku</w>
šíle ný</w>
vů z</w>
tří da</w>
vy chází</w>
udá lostí</w>
sil ně</w>
zách ran
stá lo</w>
odstra nění</w>
stup te</w>
klíč ové</w>
8 00</w>
vě cech</w>
hod ná</w>
příbu z
mezi tím</w>
lá tky</w>
ú vahu</w>
zá da</w>
předpoklá dám</w>
kou kej</w>
be ze</w>
rozu mí</w>
poci ty</w>
en ce</w>
do r</w>
šab lo
ně t</w>
i mi
fe sti
závi s
míst em</w>
wa y
dokon čení</w>
ř ou</w>
uc tí
sou dní</w>
opera ční</w>
a ven
ší te</w>
ti me</w>
obchod ě</w>
i lu
sta vě
sa r
pí te</w>
pama tovat</w>
e mi</w>
tý dne</w>
potře bami</w>
metr y</w>
milu jí</w>
k lou
úsmě v</w>
za úto
stří let</w>
nor má
mu s</w>
ma na</w>
bá l</w>
pří znaky</w>
podě kovat</w>
pi i</w>
otáz kou</w>
la dy</w>
ca ro
al a
24 -
zru šení</w>
výkon u</w>
j ó
de va
6 2</w>
tělo cvič
ry bá
ov aná</w>
ho mo
d aný</w>
ře či</w>
úter ý</w>
vsa dím</w>
sej fem</w>
pop san
p ó
du ší</w>
vyko ná
správ a</w>
po krok</w>
ber g</w>
č ných</w>
před pisy</w>
komuni ty</w>
doku ment</w>
kr ku</w>
ho ď</w>
fran k</w>
če st
ex plo
něme cka</w>
v ce</w>
pi rá
měsí ční</w>
e ho</w>
ú drž
vzruš ující</w>
uveden é</w>
pro zra
posta rat</w>
po můžu</w>
mě ry</w>
krá st</w>
ce s</w>
b lou
čle n</w>
mrt vo
le té</w>
hlav ního</w>
vesmí r</w>
posl ali</w>
te rá
te mno
bra tře</w>
ú schov
u ví
krát ké</w>
ja d
sti sk
pi to
nů ž</w>
fo u
ti hle</w>
vy jedná
ně ním</w>
fá ze</w>
bí lá</w>
m b</w>
lá sce</w>
eu roz
úřa dy</w>
měsí cích</w>
ve ďte</w>
sej f</w>
připomí ná</w>
zví tě
deseti letí</w>
zen ý</w>
sta čilo</w>
pře žít</w>
en o</w>
7 7</w>
ř ování</w>
ň a
v ů</w>
c ob
podob ě</w>
ší š</w>
pr sten</w>
po mohla</w>
dr žím</w>
bezplat né</w>
anglič tině</w>
u vidím</w>
mě ření</w>
materi álů</w>
dve ří</w>
ukra dl</w>
ta nec</w>
doká zat</w>
mal a
kre s
u zdra
živo tem</w>
úmr tí</w>
význam né</w>
vteři n</w>
lov ého</w>
hla si
anglič tina</w>
te j
ta cí</w>
u spě
pokrač ujte</w>
podí váme</w>
še li</w>
z vole
sva tého</w>
u by
re a
ne funguje</w>
svě do
neu mí
leti šti</w>
am bi
star ých</w>
k g</w>
jez d</w>
ň ující</w>
zpí vat</w>
vě novat</w>
skuteč ná</w>
příjem né</w>
přesta l</w>
podí vám</w>
o re
n iny</w>
ma u
chy stá</w>
virtu ální</w>
maje tek</w>
jed em</w>
d oval</w>
hlu b
eu ro
věří te</w>
čín ská</w>
věří š</w>
dra ž
předse da</w>
stu s</w>
pokrač uje</w>
gra nd</w>
cen ě</w>
výsled kem</w>
vypa dám</w>
van á</w>
prakti cké</w>
me -li</w>
w en
tu ne
g au
ap k</w>
ř ství</w>
ze len
x y</w>
to stí</w>
pří jem</w>
elek trá
sou pe
o proti</w>
no n</w>
lin u</w>
dokto r
ch le
sr de
p si</w>
jed ená
úč ty</w>
zjisti la</w>
stou pil</w>
nech od
ku jí</w>
b b
umož ňují</w>
to to
sa me</w>
roz li
jin ém</w>
dovo lte</w>
čin i
záži tek</w>
ho ši</w>
ča sy</w>
sí ti</w>
trv ale</w>
překva pen
pro veden
opa kov
m ni
kon zer
4 -
uni kátní</w>
disci pl
u sa
mi li</w>
kni h</w>
fé r</w>
evrop ský</w>
y u
pracov ala</w>
od kazy</w>
jader né</w>
inte rié
afghá ni
6 .</w>
obchod y</w>
bate rie</w>
a spek
stan da
lin g
5 3</w>
tra p
i os</w>
ž to</w>
r ci</w>
hod il</w>
h vě
ck rát</w>
živo tu</w>
čtvr tek</w>
zen ím</w>
tren é
lid stva</w>
ka nad
fo tku</w>
zů stanu</w>
taj né</w>
při zná
o kouz
domov a</w>
w e</w>
minister stva</w>
mar tin</w>
služ bě</w>
průmys lové</w>
jazy ky</w>
do nal
2 :
vy hý
stá ní</w>
kon tra
hvě zd
červen á</w>
t her
použi l</w>
oči vid
da řilo</w>
va mi</w>
politi ckých</w>
skon čit</w>
pře de</w>
mo tor</w>
r gi
ná me</w>
mi t
ka te</w>
jí zda</w>
správ u</w>
příspě vek</w>
komunika ci</w>
i sa
grou p</w>
e a
te ra</w>
ne viděli</w>
jí zd
dou f
do dal</w>
v ře
strá vil</w>
sedě l</w>
měst em</w>
zaji stí</w>
vl h
stří le
pomo hou</w>
říká me</w>
u mím</w>
saz by</w>
počíta t</w>
ná hle</w>
mě stech</w>
jí del
h rů
exi stovat</w>
zá sil
z la</w>
krát ko
d ra</w>
ch or
architektu ry</w>
výbě ru</w>
kre té
hospodář ství</w>
ale x</w>
věz te</w>
umře l</w>
ni cký</w>
ne mělo</w>
ne musím</w>
l ži</w>
kri zi</w>
bezpeč ně</w>
čín ský</w>
využí vání</w>
kontro la</w>
če lí</w>
záležito sti</w>
veřej ného</w>
roo m</w>
ri um</w>
námoř ní</w>
fo r</w>
austra l
žá dám</w>
získ ejte</w>
ob jed
jmé nu</w>
ji ž
důvod em</w>
5 9
stvo ření</w>
r é
nějak ej</w>
mat kou</w>
ků ži</w>
de ba
zkontro lovat</w>
ra mi
pro spe
manage mentu</w>
le né</w>
du ba
zázra k</w>
po vím</w>
má mu</w>
5 6</w>
ví tej</w>
peně žen
pa nen
maji telů</w>
světov ých</w>
pa ráda</w>
obnov it</w>
nejmen ším</w>
ě jších</w>
js ký</w>
an g</w>
3 -
č ními</w>
z ové</w>
muse lo</w>
vy dal</w>
učin it</w>
sui tes</w>
nákla dů</w>
zla ta</w>
stří br
standa rd
zasta vte</w>
tel nost</w>
soukro mý</w>
ro ad</w>
opti mali
ho rní</w>
h ale</w>
vysí la
vče re
mo r</w>
národ ního</w>
dá vání</w>
stře di
sin o</w>
me l
be t
ameri čané</w>
, 5</w>
či ly</w>
správ ná</w>
nepo cho
zá vod</w>
za dní</w>
výjim kou</w>
ustanov ení</w>
obyvatel é</w>
cen i</w>
uží vání</w>
itá lii</w>
inženýr ství</w>
li ber</w>
6 3</w>
vraž da</w>
razi li</w>
mari a</w>
cí mu</w>
smě r
rozdí ly</w>
mrtv é</w>
stra chu</w>
r ním</w>
představ ují</w>
ně m
g ro
fili pí
věde cké</w>
sledu jte</w>
ublí žit</w>
světov ého</w>
mal ého</w>
restaura cí</w>
r nu</w>
ple men
gu ver
15 .</w>
že na
or ů</w>
od ě
mo tor
ko čka</w>
u děláte</w>
ti e</w>
příš tích</w>
pla y</w>
pla y
vytvo řili</w>
vy či
vozi dla</w>
tu ry</w>
m ane</w>
ex ter
í mi</w>
zapomně la</w>
vzpomín ky</w>
n oval</w>
mí ň</w>
stupe ň</w>
ho li
brý le</w>
z má
vstou pit</w>
posled ním</w>
názor u</w>
nehod a</w>
nechá š</w>
har d
ň ujeme</w>
zahrani čních</w>
wo od</w>
sta r</w>
nějak ým</w>
vz hled</w>
pamatu ji</w>
kur zů</w>
chrá ní</w>
soutě ž</w>
ptá t</w>
náhra dy</w>
nepře trži
be zdrá
pamá t
i b
čí mž</w>
ví ra</w>
telefo ny</w>
přítom nost</w>
pro po
obvin ění</w>
5 4</w>
č ném</w>
ten krát</w>
analý za</w>
ru ský</w>
poda ří</w>
nádher ný</w>
kapitá lu</w>
že te</w>
pro kle
kou s
hrá čů</w>
js kých</w>
důvě ry
po ho
g ang
u jících</w>
ciál ních</w>
u p</w>
li tera
hroz né</w>
ukon čení</w>
bur g</w>
se riá
pa desát</w>
per spe
ko v</w>
ma m
ztrá ta</w>
z rá
kuchy ň
zele né</w>
stup ně</w>
hotov o</w>
círk ve</w>
cioná lní</w>
za znamená
důsled ky</w>
ru m</w>
roz po
pocho pi
nená vidím</w>
hong kon
ho ř
sledu je</w>
ne vz
mlad ých</w>
lékař ské</w>
dou cí</w>
pla ve
le hnout</w>
do p
sva tební</w>
evrop ského</w>
do ča
zač nou</w>
tá rní</w>
na proti</w>
kal á
1 20</w>
takov ém</w>
přirozen ě</w>
nech u
závě r</w>
mo z
dve ř
rov a</w>
při blí
problé mem</w>
p em</w>
ho st</w>
sko t
postup y</w>
k alo</w>
8 6</w>
pro si
palu bě</w>
le kce</w>
če ské</w>
zna k</w>
restau rant</w>
nech ť</w>
na pětí</w>
z ma
che l</w>
ví de
ulo žit</w>
u věz
prince zna</w>
elegan tní</w>
chi ru
5 9</w>
5 8</w>
ú kolem</w>
pro sa
mati cké</w>
hotel s</w>
en y</w>
c t
ú sta
ví ry</w>
ne h
kte ch</w>
6 1</w>
by z
bal kó
ži lo</w>
ú ni
ps ali</w>
hrá če</w>
de ví
cen á</w>
bankov ní</w>
vý raz</w>
pro dávat</w>
l hal</w>
tý dně</w>
do jít</w>
údaj ně</w>
sku tku</w>
zase dání</w>
sk i</w>
popsá ny</w>
stá vající</w>
po sed
hro u
budouc nu</w>
ž uje</w>
výro čí</w>
ve ch</w>
skupi n</w>
ra li
potře bu</w>
ozná mil</w>
ná ladu</w>
ji n</w>
ze ď</w>
plat nost</w>
ba y</w>
neo mezen
hra nici</w>
zav ři</w>
inova tivní</w>
ad vo
od hal
jako by</w>
guver né
flo ri
z ti
s co</w>
preziden tem</w>
kamará di</w>
francouz ské</w>
zpo ždění</w>
rozsa h</w>
ra m
pro šel</w>
li vosti</w>
in spe
způsob ů</w>
e c
do dnes</w>
posa ďte</w>
po pí
colle ge</w>
angli i</w>
pozná ní</w>
nechce me</w>
no hu</w>
kou sen
změ ně</w>
uží t</w>
se me
s her
prů měru</w>
podni ků</w>
lhá t</w>
bi ble</w>
úča st</w>
singa pu
po rá
h t
znamen alo</w>
osob ním</w>
mu zi
začí nají</w>
potřeb ovala</w>
na mí
provo z</w>
líbi l</w>
le v
dí val</w>
i p
hud by</w>
žeh li
ú do
země tře
sva tý</w>
sest ru</w>
rov ala</w>
pe ter</w>
nechtě jí</w>
zdravot nictví</w>
pohod lné</w>
mani pu
chá ní</w>
ta x
skr z</w>
n -
klá dat</w>
kamará de</w>
en ý</w>
vzpomí náš</w>
vy jad
těhoten ství</w>
popsan ými</w>
o mez
ba kalá
vol ali</w>
po tá
k ing
z le</w>
vzdělá va
tradi ce</w>
ti sk</w>
prostor y</w>
peč livě</w>
kri stus</w>
důleži tě
dé lka</w>
ří še</w>
sv al
rodin ný</w>
žele z
rozvoj ových</w>
nepří tel</w>
ma r</w>
komunika ční</w>
š per
uží vat</w>
u vedla</w>
sta bilní</w>
desig nu</w>
cest ovat</w>
tu n</w>
č lu
pří lo
mali č
c ové</w>
uvědo mil</w>
pou ští</w>
jmen uješ</w>
řidi č</w>
sy dney</w>
mode lu</w>
jazy ků</w>
š uje</w>
to ru</w>
s hel
obrá z
ná te</w>
bar em</w>
vy ch
vrá tíš</w>
slibu ji</w>
před nost</w>
nevy hnu
na šemu</w>
gu i
pá s
poš lete</w>
lé či
rych losti</w>
mi strov
ha si
9 8</w>
č ovat</w>
z bro
s bě
ni a</w>
zamě řuje</w>
fak ta</w>
c ur
št ině</w>
přesvěd čit</w>
li ve</w>
detai ly</w>
vz dát</w>
u de
d ná</w>
cest ov
bo o
8 .</w>
venkov ní</w>
progra m
kaž te</w>
kon cem</w>
i muni
zba bě
t nější</w>
obje vila</w>
me j
ko mo
8 8</w>
ř ují</w>
vi zu
smlou va</w>
d '
an na</w>
si lou</w>
žád ném</w>
pozná vám</w>
pochy bu
js ká</w>
h ova
u plynu
po di
í ku</w>
vi ty</w>
vezme me</w>
příbě hu</w>
o ži
ko mu
generá lní</w>
gale rie</w>
a j
u to
roz lo
chy t
zasta vil</w>
za klada
ter é
pe kla</w>
zne poko
ky slí
ke r
ca st
podni ku</w>
zasta v</w>
přin u
plat né</w>
od stav
im plemen
ovlá dat</w>
krá sně</w>
ko kte
i so</w>
teč ný</w>
nej menší</w>
kon centra
5 7</w>
souhla sí</w>
mlé ko</w>
hu b
staro st</w>
poně tí</w>
dobr ým</w>
ry tí
lo g
há dat</w>
vybaven ých</w>
an ů</w>
ra l
cháze l</w>
tu jeme</w>
sý rii</w>
ko le</w>
databá ze</w>
za sáh
o logi
nahra dit</w>
léč by</w>
24- hodin
partne r</w>
dá no</w>
ak redi
agentu ry</w>
ú vodní</w>
un g</w>
pro vá
na je
teplo ty</w>
rov ali</w>
do slova</w>
soustře dit</w>
pro poje
kro u
dal y</w>
ře k</w>
zna čka</w>
pů vodu</w>
procen ta</w>
pod r
e i
an děl</w>
7 6</w>
vzdále né</w>
udá lost</w>
tov ala</w>
kon figu
vě ky</w>
ve gas</w>
to ři</w>
o ni
b em</w>
h tt
di l
brá ní</w>
u e</w>
to me</w>
kokte j
indi á
vy rů
ku la
dá val</w>
bí š</w>
ze l</w>
zač aly</w>
sil nice</w>
porozu mění</w>
rov aný</w>
vej ce</w>
sui te</w>
po bo
sv ý</w>
rekla my</w>
pří no
ne rov
lid ský</w>
doved ností</w>
by tí</w>
a a
propa ga
blo n
s vi
příj my</w>
dá vejte</w>
pracov ali</w>
ro bert</w>
re por
kaz u</w>
ni čky</w>
z mate
pravděpodob né</w>
kar ta</w>
dá na</w>
zů stá
předsta vte</w>
práv ník</w>
ki m</w>
ha ma</w>
f ro
sí ch</w>
mí ra</w>
zem ní</w>
sed nout</w>
občan ů</w>
ně ni</w>
ji la</w>
investi ční</w>
zprac ová
tře jší</w>
psá no</w>
zá li
v skutku</w>
v ali
recep ce</w>
mo mentálně</w>
mi len
toto ž
stup ňů</w>
smě r</w>
p ti
ro má
ob vi
lé mu</w>
živo tů</w>
va t
si mu
papí r</w>
ne vypadá</w>
ne myslel</w>
svě de
rá k</w>
použi jte</w>
milió nů</w>
hez ká</w>
ge or
dra hou
v ší</w>
tu ra</w>
sled oval</w>
s jedno
přeži tí</w>
mě ny</w>
lin u
cti hodnosti</w>
při ví
náku p</w>
do stalo</w>
4 -hvězdičkový</w>
u rych
se veru</w>
něme cký</w>
londý na</w>
i d
fir mu</w>
dobrodru žství</w>
bob by</w>
a my</w>
ří dím</w>
tak z
složi té</w>
nej starší</w>
u pravit</w>
společen ské</w>
polov ině</w>
podni k</w>
ob di
o st
instal ace</w>
hle dali</w>
f en
dan ny</w>
cestu jící</w>
washing ton</w>
rozhod ování</w>
vše mu</w>
mě k
mo rá
ke l
doporuč ujeme</w>
ture cko</w>
se kre
reag ovat</w>
ko smi
ci t</w>
9 6</w>
zů stali</w>
va ku
obrazov ky</w>
lí st
barcelo na</w>
pů dy</w>
muse jí</w>
kov aných</w>
kon ců</w>
ce le
s pustit</w>
rá š</w>
na řízení</w>
zaká z
za jít</w>
pově z</w>
otevřen á</w>
hlas ování</w>
níz ké</w>
nád he
in du
f fe
ťá k</w>
vezme š</w>
uká že</w>
spa mu</w>
hrá la</w>
so fi
předpo vě
profeso r</w>
le dov
am ster
vhod ný</w>
test ování</w>
moj ží
spo l
spo jit</w>
nalé zt</w>
konferen ci</w>
jin dy</w>
byd lení</w>
povin nosti</w>
len ými</w>
k ř
ci r
ro hu</w>
ri o</w>
lá sko</w>
dro g
afri ky</w>
8 3</w>
zlo čin</w>
pe tro
náro d</w>
ma pě</w>
h ali</w>
řek nou</w>
z l</w>
ta ční</w>
politi ce</w>
kaž dej</w>
akademi e</w>
ov i
nes praved
kó dy</w>
8 9</w>
výzkum né</w>
s nu</w>
ka toli
hotel ů</w>
he v</w>
cho p
balí ček</w>
an ne</w>
magister ský</w>
dvaná ct</w>
chá zíme</w>
autobu s</w>
výso sti</w>
sran da</w>
jisto tu</w>
fá zi</w>
van ých</w>
strá vit</w>
rych lo
prac uji</w>
če lit</w>
za hy
z oval</w>
ro ck
po tla
ko čky</w>
b ka</w>
pá nu</w>
mov ý</w>
ka ri
drže la</w>
c uje</w>
zele ná</w>
za vra
tr žní</w>
vi den
ru ská</w>
parla mentu</w>
che j</w>
ch ová</w>
﻿ ﻿
zá chod
vy volá
ru kama</w>
isla nd</w>
for ma</w>
dá ma</w>
připraven á</w>
provádě ní</w>
mlá de
mist ře</w>
h ř
přemýš lím</w>
potě šení</w>
otev ření</w>
hu jící</w>
dějin y</w>
samo tné</w>
kro ků</w>
ka cí</w>
absolu tně</w>
vy nále
ar d</w>
spočí vá</w>
prá del
po nen
jist ěte</w>
dodáv ky</w>
blo g</w>
ta xi</w>
roz p
pokrač uj</w>
při cházejí</w>
pocho pil</w>
ne přátel
lá skou</w>
fakul ty</w>
za dejte</w>
va řit</w>
se sta
otevře n</w>
od puštění</w>
mi ke</w>
ba kte
tr zích</w>
sko čit</w>
objedná vky</w>
na jdou</w>
chod il</w>
akti vit</w>
7 1</w>
upozor nění</w>
předsta vu
ute kl</w>
po tre
o pravit</w>
vla kem</w>
o č
znám ky</w>
komentá ř</w>
získá te</w>
mó dní</w>
moř ské</w>
klid né</w>
ji li</w>
ba lení</w>
reál ném</w>
přihlá sit</w>
při jdeš</w>
poško zení</w>
post gradu
hlá sit</w>
částe čně</w>
vy da
s sa
na jdi</w>
3 hvězdičkové</w>
zo pa
ju li
ba ví</w>
z ve
paří že</w>
on ali
dů kla
ži vý</w>
z de
you tube</w>
stero i
skup ině</w>
po vý
cla ire</w>
zřej mé</w>
poste lemi</w>
návra tu</w>
la h
z ření</w>
vni tro
šť á
va ti
ekonomi ckých</w>
austrá lii</w>
zkou šky</w>
zblázni l</w>
vyso kých</w>
ne přišel</w>
přípa dy</w>
při nese</w>
ge t</w>
m ová</w>
c ri
vo js
ved lejší</w>
u hlí
pře jít</w>
hmo tnost</w>
- ale</w>
zdra vý</w>
vz rost
příro da</w>
národ ních</w>
neu ro
pat ře</w>
ukra jina</w>
tu dí
pohod lí</w>
ná bytek</w>
fa ra
p r</w>
ne rad</w>
lov u</w>
sti mu
out lo
dob ří</w>
za pá
stej ném</w>
ti ky</w>
ob leč
dar mo</w>
chybě t</w>
0 -
zemětře sení</w>
se ru</w>
příjem ný</w>
předmě ty</w>
m ými</w>
h ne</w>
modr é</w>
kamará dka</w>
vy ho
tudí ž</w>
obsa hují</w>
nevě ří</w>
zapo mí
ne hý
krát ce</w>
ve čer
fiel d</w>
199 9</w>
krá de
tu ji</w>
tr o</w>
o lej</w>
byz ny
vla sů</w>
toale tními</w>
stře lil</w>
ra y</w>
ply n</w>
ne ste</w>
každo denní</w>
gu a
tě s
jede te</w>
alkoho l</w>
zep tejte</w>
vel kém</w>
davi de</w>
zaměstnan ce</w>
registra ce</w>
po vání</w>
g r</w>
se ver</w>
podob ný</w>
po jist
obvin ě
ná pady</w>
sv r
kultu ra</w>
de š</w>
cha ri
zá bě
u še
údo lí</w>
zvlá dnout</w>
způsob uje</w>
spr cha</w>
robo t</w>
pří telem</w>
ho me</w>
fu k</w>
úto ky</w>
za r
veřej nost</w>
při znat</w>
plá ži</w>
očivid ně</w>
nesmí š</w>
cen o</w>
rele van
kr k</w>
doká zali</w>
vi zi</w>
ur čit</w>
pos lání</w>
očeká vat</w>
koru p
buň ky</w>
asoci ace</w>
vr tul
pře stá
m koliv</w>
úva zek</w>
to pení</w>
li st</w>
jakých koli</w>
veli čen
po kla
nez u
hla sy</w>
drže li</w>
ži ly</w>
zkrá tka</w>
tý dnu</w>
nená vidí</w>
cel kově</w>
vy slov
vlá d
sí ť
soutě že</w>
č níky</w>
zmi zí</w>
neu mím</w>
írá n</w>
sel hání</w>
s hr
je r
rozsa hu</w>
ně mci</w>
mý ho</w>
go ri
gala xi
doz vědět</w>
šká lu</w>
u dě
n ského</w>
m b
lo v</w>
elek tř
7 .</w>
vádě t</w>
30 .</w>
zkontrolu jte</w>
tr ž
nesmí rně</w>
analý zy</w>
akti vně</w>
10 .</w>
sy ste
jednoduch á</w>
desí tky</w>
za ční</w>
výz vy</w>
m s
bra li</w>
si de</w>
ro se</w>
po vede</w>
5 ,
ří jen</w>
vic to
re akci</w>
připrav uje</w>
plat by</w>
na po
for mu</w>
zahra dy</w>
odbor níků</w>
od va
má mě</w>
krá li</w>
8 -
zač něte</w>
hod inách</w>
dobr ých</w>
politi cká</w>
an dy</w>
ře ší</w>
tře tím</w>
rů že</w>
bud ování</w>
roz ko
indo né
hne me</w>
zabi já
výro bě</w>
t j</w>
partne ry</w>
ck er</w>
vy jde</w>
prosi nec</w>
fak tory</w>
tý mi</w>
pra sk
na místo</w>
ma sa</w>
f armá
du n
š ná</w>
t kou</w>
pořá dek</w>
dra hé</w>
do mé
9 .</w>
7 -
talen t</w>
p sy</w>
ov la
na pří
absolu tní</w>
01: 0
skvě lou</w>
rá nu</w>
pro ni
polo žky</w>
chla pí
žal ob
sov ou</w>
průzku m</w>
gen i
g b</w>
k men
alter nati
ží cí</w>
zdro jem</w>
z važ
tr ů
ká va</w>
dr o</w>
civili zace</w>
bul har
agentu ra</w>
7 4</w>
ve nezu
ukon čit</w>
ser ve
náro dy</w>
lou i
bo jíš</w>
zji stí</w>
u k</w>
ne vidi
ne kou
rozu m</w>
přá t</w>
pora denství</w>
nes na
ma le
lokali ta</w>
hi t
zneu ží
svědo mí</w>
par en
lep šího</w>
ex klu
řá d</w>
květ nu</w>
stej ným</w>
po pi
nemoc ný</w>
f -
da ň</w>
cel kový</w>
země mi</w>
vý ži
ne kuřá
dře vě
9 3</w>
11 .
přirozen é</w>
milo sr
jedno tka</w>
vozi del</w>
u čil</w>
r ná</w>
ba star
8 4</w>
v inu</w>
roz vinu
ní kovi</w>
be rou</w>
stá la</w>
lin ky</w>
společ ný</w>
pos lá
ma ke
kaná ly</w>
ž o
úspěš né</w>
ope rá
investi c</w>
hlubo ko</w>
zaměst ná
poz nala</w>
uživatel ům</w>
tře tí
ohle dem</w>
letě t</w>
i ii</w>
bazé nu</w>
vlá dě</w>
eko logi
dé šť</w>
hla sů</w>
globál ního</w>
úžas ná</w>
vra cet</w>
u š
termí n</w>
nes práv
lete cké</w>
dí cí</w>
pek lo</w>
brid ge</w>
če kala</w>
zra ni
zná mo</w>
vě nu
ra ci</w>
půj čit</w>
: 30</w>
zalo žené</w>
prac uju</w>
ai r</w>
vyža dují</w>
sko -
p p
jí dlu</w>
chy b</w>
set kal</w>
ostrov y</w>
os mi</w>
foto apa
vede na</w>
od váž
char les</w>
be d</w>
b -
stá tě</w>
pí ch
p neu
hra ješ</w>
d ing</w>
bu da
bil ly</w>
nejkrás nější</w>
8 2</w>
sa ú
pamatu jete</w>
ni na</w>
fung ují</w>
ada p
17 .</w>
zvládne š</w>
výda je</w>
u chová
svě tem</w>
mož no</w>
mov i</w>
ekonomi ku</w>
ce lej</w>
vy spě
un g
po žád
o puště
nes mys
kalho ty</w>
in tele
7 9</w>
stro jů</w>
obliče je</w>
generá l</w>
fo nd</w>
defin i
bi ll</w>
skuteč nou</w>
pří zni
ne pod
léka ře</w>
hvěz d</w>
formá tu</w>
a de
sna žili</w>
sle va</w>
he rní</w>
8 1</w>
ply nu</w>
mod rá</w>
kouz lo</w>
hovo ří</w>
fire mní</w>
clu b</w>
clou d</w>
cha m
aktuali z
tel ství</w>
mini barem</w>
ko la
pro dává</w>
ko lum
inve sto
větš iny</w>
uby tov
odbor níci</w>
drahou šku</w>
8 7</w>
zep tala</w>
tla ku</w>
podpo rují</w>
lov a</w>
hu n
ve den</w>
ste j</w>
sta t</w>
ná c
léč ba</w>
bla ck
absolven ti</w>
čen ých</w>
zu jící</w>
považ uje</w>
komuni kovat</w>
koli krát</w>
jez dit</w>
he jte</w>
ves nici</w>
neza bi
bí t</w>
žádo sti</w>
při vedl</w>
i a</w>
zemře li</w>
politi k</w>
ov ými</w>
li ve
7 8</w>
studi u</w>
nebezpeč ný</w>
hrd in
7 3</w>
v liv
svat bu</w>
od vez
to wn</w>
sti li</w>
námoř nictv
mlu vte</w>
kro kem</w>
al l</w>
. cz</w>
vra ce
ve mte</w>
ná cti</w>
l ými</w>
6 -
zi l
ne štěstí</w>
di k
12 .</w>
šen o</w>
r ce</w>
che r</w>
spl nit</w>
s ing
posl ala</w>
lá tek</w>
diva dlo</w>
če la</w>
zá vaz
roz kazy</w>
chro ni
t ta</w>
při stý
pře z
ko ší
napří č</w>
na pá
na ka
kry pto
dlouhodob é</w>
vě ž</w>
la m
k ému</w>
zvo lit</w>
vy hro
tě ším</w>
proce sů</w>
pra š
pode zření</w>
pat náct</w>
o kre
fede rá
ev ange
servi s</w>
na jdeš</w>
hří ch</w>
hru b
we l
proce sy</w>
bená tky</w>
že me</w>
tran sa
kři ž
ku rá
doprav u</w>
d dy</w>
čtyři cet</w>
vi brá
při nejmenším</w>
nale zeno</w>
zna čné</w>
umístě ný</w>
pracov níci</w>
návr hy</w>
kredi tní</w>
zname nal</w>
zi sk</w>
podrob nosti</w>
koste l</w>
zmí r
oceá nu</w>
hlé d
člen ských</w>
m ala</w>
rost liny</w>
předsta vu</w>
na jíst</w>
k nu</w>
buda pe
a ku
vol né</w>
pamatu j</w>
ovla da
nezávi slost</w>
h alo</w>
golf ové</w>
199 0</w>
pora zit</w>
pla vat</w>
informa ci</w>
hla dov
dopo ledne</w>
zobra zí</w>
zalo žení</w>
bom ba</w>
vy žá
posta vil</w>
východ u</w>
pamatu jte</w>
ne potřebuju</w>
mrt vej</w>
instal aci</w>
199 8</w>
standar dy</w>
mar k</w>
jezd í</w>
in k</w>
fé n</w>
věří cí</w>
nezapome ň</w>
měst ské</w>
alter na
zába vu</w>
ode sí
ne můžou</w>
n ali
idio t</w>
č ky
sil nici</w>
pracov ním</w>
sa my</w>
ra n</w>
ob čané</w>
n d
ma py</w>
jeze ra</w>
s no
nor my</w>
dveř mi</w>
vů d
adre sy</w>
za blo
návště vy</w>
kana da</w>
je rry</w>
jak á
ang ha
zavra ždě
vy stra
hi stor
fil mů</w>
vy pořá
soft wa
o svobod
kon ce
zů stávají</w>
vy dělat</w>
ve ď</w>
mi ž</w>
ben zí
při vez
mysle te</w>
hol ly
fede race</w>
18 .</w>
w in</w>
přírod ních</w>
mí č</w>
mi ke
kompati bilní</w>
ji st</w>
žád ného</w>
vo zu</w>
vle vo</w>
re e
požadav ků</w>
nádhe ra</w>
ko t
karié ry</w>
dokonal ý</w>
ben e</w>
žra lo
zi mní</w>
trans paren
sy nem</w>
poji šť
legi sla
de ní</w>
začí nám</w>
rá dio</w>
leto šní</w>
kombi naci</w>
úspěš ný</w>
výzkum ných</w>
vi zi
v před</w>
ur čen</w>
nej rychleji</w>
m ních</w>
každ ých</w>
dokumen tů</w>
to ki
stí n</w>
sa mo</w>
po mohli</w>
kontak ty</w>
vz kří
potřeb ovali</w>
o do
zaji ště
tru m
skr ývá</w>
skla pni</w>
sa mý</w>
pořa dí</w>
diag nosti
že bří
sku tky</w>
pře h
le ním</w>
infor m
brazí lie</w>
washing tonu</w>
tá hnout</w>
pacien t</w>
nedoká že</w>
hle danou</w>
cel ých</w>
4 :
vypad ala</w>
tý my</w>
trpě livost</w>
sex u</w>
s ve
připo me
pro vedl</w>
le no</w>
fyzi cké</w>
še jí</w>
zd vo
s v</w>
pro vádí</w>
po int</w>
perspe kti
obchod ů</w>
neu stá
ší ření</w>
so nová</w>
podpo ru
násled ky</w>
ví tá</w>
odmít l</w>
n alo</w>
jednot livé</w>
i šti</w>
blí že</w>
sk i
pís mo</w>
poně kud</w>
disci plí
bre ak
zá m
se miná
po c
ko m</w>
bře znu</w>
vý š</w>
to xi
leh ké</w>
dé mo
a -
pozo ro
le ný</w>
hajz le</w>
di sk</w>
zni čil</w>
h ur
dů chodu</w>
tr hů</w>
strategi i</w>
pří jezdu</w>
nov y</w>
nes u</w>
narodi la</w>
mal o
inve st
dr žení</w>
dopro vá
di vize</w>
7 00</w>
zápa du</w>
rov no
ra y
nej důležitě
leo nar
finan ce</w>
9 2</w>
řen ých</w>
stup u</w>
posled ního</w>
partne ra</w>
od bě
o pra
ne dělám</w>
sto ne</w>
pan y</w>
medi ální</w>
kamará dy</w>
studi j
klimati zace</w>
američan ů</w>
á š</w>
ro m
bo ku</w>
tra gé
ne dává</w>
kde koliv</w>
alkoho lu</w>
re kor
pů jdete</w>
odmě nu</w>
průmys lových</w>
lo g</w>
lan du</w>
ham bur
doporuč uji</w>
armá du</w>
zákla dy</w>
we st</w>
vyš lo</w>
od jet</w>
la ční</w>
tě sně</w>
sil ni
odpoví dající</w>
ly n
kolo ni
bl bost</w>
vin e</w>
ur l</w>
umí rá</w>
pře hlí
proce so
kr va
g iná
existen ce</w>
za to</w>
tom my</w>
nes mr
na před</w>
f iná
chá zíte</w>
centra l</w>
že la</w>
u kažte</w>
téma ta</w>
svěde ctví</w>
nost ní</w>
kó du</w>
hlubo ké</w>
b s</w>
36 5</w>
ti ská
ne dělá</w>
mal ým</w>
kou pila</w>
každo ročně</w>
j mu</w>
ba cha</w>
b ku</w>
šíle né</w>
š ování</w>
vá š
milov ala</w>
kon cer
inten zi
exi st
doplň ky</w>
brá ny</w>
r nou</w>
ni n</w>
bře zen</w>
sc in
pě ti
lí cí</w>
jazy ce</w>
g g
br z
al lá
tě sné</w>
pře stě
dí vá</w>
čer ven</w>
způsob u</w>
re zi
ná ma</w>
bud d
vol ně</w>
ukáz ala</w>
ta ri
pi tom
an ém</w>
y s</w>
s .</w>
stře dově
ov u</w>
navi ga
for mou</w>
za ja
ti p</w>
mi si</w>
co py
zahra du</w>
veli tel</w>
po měr</w>
p ý
na psala</w>
kra t
kov ým</w>
k ční</w>
​ ​
zajíma t</w>
vol te</w>
star ších</w>
ně čemu</w>
nu tně</w>
naje vo</w>
mnoho krát</w>
kov aný</w>
dítě ti</w>
14 .</w>
sto le</w>
pře v
maje tku</w>
an ými</w>
vý slov
vysvět luje</w>
ruko j
recep ci</w>
příči nou</w>
ma xi</w>
li ví</w>
do ne</w>
chemi cké</w>
9 1</w>
6 ,
zen ých</w>
vidě ní</w>
t ský</w>
počíta čů</w>
ple te
far ma
ci den
č t
tam tud</w>
nádher ná</w>
mosk va</w>
mobi li
led nu</w>
klien t</w>
tur na
pří mé</w>
maxi málně</w>
konkuren ce
host in
pře smě
o x
duch ovní</w>
c tv
vypa dáte</w>
o -
ma lej</w>
jeruzal é
9 7</w>
tho mas</w>
pro mluvíme</w>
m ali</w>
kr ý
en á</w>
bo l
čin ností</w>
vý pově
přij ďte</w>
pro hlaš
meto da</w>
le sa</w>
interne tové</w>
ameri ckou</w>
červ nu</w>
skří ň
pře vážně</w>
ho t
fa scin
dý chat</w>
bali t</w>
zajišť uje</w>
sy m
přijí ma
pod ru
otev ře</w>
leh ce</w>
l .
di ly</w>
ck em</w>
ru ka
popla tek</w>
le vnější</w>
dokonal é</w>
červe nec</w>
vi e</w>
sy nové</w>
smě ru</w>
x x
vzá jem
uzná ní</w>
př ená
na ra
kou ření</w>
klimati zací</w>
ji hu</w>
in i</w>
bere me</w>
vhod ná</w>
svat ba</w>
saú d
pře pí
pro ží
ocho t
la r</w>
teo rii</w>
takov ej</w>
residen ce</w>
pě ní</w>
bod u</w>
va ření</w>
slu ší</w>
poru šení</w>
po volání</w>
ova tele</w>
špat nou</w>
škol ství</w>
dale ka</w>
ky se
hloup ý</w>
doč kat</w>
uveden ých</w>
sy r
lu cy</w>
l oval</w>
ků ň</w>
1 /
zach ování</w>
vy pr
porov nání</w>
p -
jed na
dí la</w>
dokáže te</w>
bo b</w>
a mi
zapla til</w>
zajíma vý</w>
samo tě</w>
ku m</w>
cen t</w>
zá kaz</w>
ste in</w>
spe r
ne n</w>
dosáh l</w>
stěž ovat</w>
prac ujete</w>
posto j</w>
moj žíš</w>
komer ční</w>
c ca</w>
bo žím</w>
vy slech
pos vá
ti m</w>
přijí mat</w>
j ové</w>
dlu ho
ří mě</w>
tomu hle</w>
roy al</w>
obra zu</w>
o ran
ně mi</w>
nes kon
y lo
sledu j</w>
rá ny</w>
od tamtud</w>
mo un
kultu ru</w>
evrop skou</w>
di skri
zov aných</w>
zlo men
sk vr
prob le
ne šlo</w>
licen ce</w>
ch ti
adre sá
ven o</w>
u tra
sk an
kom pe
j dem</w>
gu e</w>
gi r
ak cie</w>
živo či
zákon ů</w>
vo do
prohlíže č</w>
povr chu</w>
pohod l
li dech</w>
dovole né</w>
afgháni stánu</w>
oddě lenými</w>
o slov
ško dy</w>
ved ly</w>
so r
hotovo st</w>
rozší řit</w>
respe ktu
pravděpodob nost</w>
na klá
materiá lu</w>
lož te</w>
kra jin
ha s
fotogra f
vypad nout</w>
vi ce
paci fi
ku n
ka jících</w>
he sla</w>
elektri cké</w>
v pravo</w>
pad li</w>
ohro m
odmít nutí</w>
ná pad
ja bl
schop ný</w>
pá nem</w>
partne ři</w>
ju lie</w>
bezpeč nější</w>
zí ho</w>
hří š
fi sk
ti še</w>
se ri
m ské</w>
vzni ku</w>
mi ne
tí cí</w>
mi min
lá hev</w>
k vá
hon g</w>
by tosti</w>
an dě
teč ná</w>
soukro mých</w>
pro dal</w>
platfor my</w>
pl ý
dospě lé</w>
tel ným</w>
přija l</w>
prá dlo</w>
o pě
netu ším</w>
chápe te</w>
změ nách</w>
rozví je
kontro lovat</w>
ši ly</w>
ty pů</w>
t ing</w>
ob dob
ne ctví</w>
l le
fre e
bu s</w>
10 -
zahra dě</w>
rov ého</w>
ok ru
i stan
firefo x</w>
ex tra</w>
chytr é</w>
sou d
líbi la</w>
jeze ro</w>
ga rá
francouz ský</w>
paří ž
mi che
me d</w>
jader ných</w>
c c</w>
č o
v stří
s ná
nesmí te</w>
nejoblíben ější</w>
maji tel</w>
kri té
bý val</w>
úmys lu</w>
re jte</w>
práv ních</w>
premi ér</w>
šťast né</w>
vojá k</w>
udrž ovat</w>
ri ght</w>
nepří tele</w>
ži ju</w>
zůsta nou</w>
sna žíš</w>
ozna čení</w>
ne dělejte</w>
na i
infrastruktu ry</w>
ří cí</w>
poskyt ne</w>
pamá tky</w>
mí ří</w>
a h
zna ků</w>
univer zit</w>
té r</w>
ori giná
o svě
ni čí</w>
mi ami</w>
ex e
vá ží</w>
tvr zení</w>
tran sak
sta čit</w>
oh ně</w>
l -
z rych
stej ného</w>
působ i
py šní</w>
pre fe
o t</w>
in ciden
akci í</w>
automobi lů</w>
s hu
pla v
mal í
informu jte</w>
ama z
po klá
palá c</w>
neu mí</w>
kr vi</w>
at ri
market ing</w>
vyra zit</w>
te a</w>
rakov iny</w>
poz val</w>
potře b</w>
do leva</w>
c ru
atra ktivní</w>
zen i</w>
trá pí</w>
plá nuje</w>
nejs il
nedoká zal</w>
zdvo ři
vo stí</w>
teplo ta</w>
nau čila</w>
lé ká
japon ské</w>
pro puště
pokro ku</w>
jazy kem</w>
br en
stave bní</w>
podzi m</w>
ostrov a</w>
ob ran
hra čky</w>
b la</w>
9 4</w>
z dě
w y
pa desá
ne stojí</w>
bezpečnost ních</w>
ž ce</w>
pa no
hroz ný</w>
fon du</w>
pře ju</w>
necho ď</w>
ka si
bou ře</w>
16 .</w>
ve re
přines la</w>
náhod a</w>
jí de
boha tý</w>
š vi
ti es</w>
rozhod ne</w>
pi er
pal ace</w>
nepo chyb
konkré tně</w>
ho riz
vů ně</w>
ve s</w>
n s</w>
krá lem</w>
fo to</w>
ží ch</w>
večí rek</w>
tva r</w>
sa mu
příj mů</w>
podmín kách</w>
pa dají</w>
léč bu</w>
jed l</w>
do b</w>
ch ova
výrob ci</w>
ti be
squ are</w>
prince z
polo ž</w>
ca s</w>
bitco in</w>
z ou</w>
mu si
kru ci</w>
do stává</w>
žád nej</w>
či stě</w>
navr žen</w>
zti cha</w>
uh lí</w>
pot kala</w>
ne sou</w>
e volu
dí vej</w>
so phi
phi li
zába vné</w>
za hrát</w>
vla ku</w>
ká te</w>
kov ali</w>
armá dě</w>
šílen ství</w>
ti sku</w>
má lo
kompe ten
kom ponen
detekti v</w>
ře šením</w>
zo ta
zje vně</w>
výhra dně</w>
urči tou</w>
dlu h</w>
- proč</w>
rych lostí</w>
politi cký</w>
ovliv ňuje</w>
obec né</w>
o šetř
legra ci</w>
duše vní</w>
tří dní</w>
sen i
s mů
poz nali</w>
ob div
o svěd
m z
hle dejte</w>
byd let</w>
bo ok</w>
vil la
to ri
prav dou</w>
o cit
nu tý</w>
č ků</w>
zi mě</w>
ro t
mě ří</w>
kore a</w>
dr ži
b lan
6 :
či stá</w>
pří stavu</w>
nov inář
inteligen ce</w>
holči čka</w>
bom bar
zů stalo</w>
zjist ěte</w>
případ ně</w>
poky ny</w>
ni co
tr pa
t nictví</w>
st ný</w>
ra chel</w>
or e</w>
ohro žení</w>
nemo cí</w>
meto d</w>
le tá</w>
dě cka</w>
dokáže me</w>
ti ckou</w>
při nes</w>
k ovací</w>
vel kej</w>
kat alo
sti ckých</w>
sp ala</w>
re ak
host ů</w>
gol f</w>
star t</w>
pe tr</w>
konzer va
ba se
rakou sko</w>
ozná mila</w>
mo tiv
říj nu</w>
zach ovat</w>
smá t</w>
při mě
ovliv nit</w>
lé ků</w>
razi la</w>
moc ný</w>
me tr</w>
dne šek</w>
d vi
- ahoj</w>
posa ď</w>
nes chop
mi lost</w>
zku sím</w>
za ba
opti mi
lid skou</w>
ku li
krátko dob
dota zy</w>
č kem</w>
techni ka</w>
stá tních</w>
ni us</w>
ne musíme</w>
komi sa
k ováno</w>
da ve</w>
chor vat
zví ře
struktu ra</w>
pro násled
va na</w>
tatí nek</w>
schop ností</w>
předmě t</w>
li lo</w>
je ďte</w>
dokon ale</w>
do pisy</w>
al bum</w>
tý kají</w>
svobod ný</w>
so li
papí ry</w>
no rt
ekonomi cký</w>
bu ch
bezpeč ný</w>
vý no
veřej ně</w>
stu pi
pří činy</w>
hne š</w>
čá sti
zn ala</w>
vstup u</w>
utí kej</w>
přesvěd čení</w>
ps ané</w>
nov ými</w>
nainstal ovat</w>
k -
há dám</w>
alkoho li
ň oval</w>
wor k</w>
shromá ž
ne hodno
ká zal</w>
hů ř</w>
a vi
š pe
š o
á ly</w>
politi ckou</w>
o žen
ne vidí</w>
l ními</w>
eli za
dota z</w>
dospě lých</w>
charakte r</w>
c vo
studen é</w>
regi strov
prin ce</w>
mikrovln nou</w>
kombi nace</w>
do hlí
výz va</w>
rizi k</w>
návště va</w>
kate drá
formá t</w>
cha jí</w>
ca t</w>
bu dem</w>
za darmo</w>
s d</w>
potě šením</w>
poručí ku</w>
ni čkou</w>
n cem</w>
kapitá l</w>
je v</w>
dá váme</w>
chá zení</w>
vypad něte</w>
vrcho lu</w>
vlá dou</w>
rela tivně</w>
pů vod</w>
p he
odpo čin
nesmí me</w>
me tro
emo ce</w>
že hlí
ti mes</w>
pí me</w>
pla ce</w>
na hlas</w>
milosr denství</w>
me t
ch ři
zá chod</w>
vše cko</w>
s pal
přizpůsob it</w>
pan u</w>
koste la</w>
veče ra</w>
st né</w>
re ziden
prázd nin
letě l</w>
vari an
podpo řit</w>
milo srd
le žet</w>
ptá š</w>
pohře b</w>
o '
ví ch</w>
rado stí</w>
občan ské</w>
kou řit</w>
ae ro
0 1</w>
zvý ší</w>
vyjád řit</w>
sta nou</w>
návště vě</w>
mno ž
break fa
ba t
auto r
re be
poš tov
po tom
ode slá
nena padlo</w>
mě na</w>
kámo š</w>
13 .</w>
z daleka</w>
průměr ný</w>
pokroči lé</w>
lou pe
požada vek</w>
použi tím</w>
po dávají</w>
obnov i
je ži
efe kt</w>
bí lého</w>
staro vě
s puštění</w>
homo sexu
generá le</w>
c lo
b ry
3 3
za dku</w>
veden ím</w>
s plá
o má
mobi lních</w>
inve stovat</w>
hotovo sti</w>
zodpověd ný</w>
obje m</w>
m -
li k
dě jí</w>
do v</w>
bo li
analý zu</w>
ve nej</w>
u kli
stup uje</w>
globál ním</w>
žena tý</w>
pr sa</w>
obráz ků</w>
ob i
hude b
wo w</w>
uvědo mit</w>
sní h</w>
poví dá</w>
oblíben ý</w>
šťast ní</w>
věři la</w>
sil nou</w>
h li</w>
vý ška</w>
uči tele</w>
skon čilo</w>
o tře
jmen uju</w>
ed die</w>
širo ké</w>
či nek</w>
vyzved nout</w>
tre stu</w>
okouz lující</w>
g i</w>
emi ly</w>
d ování</w>
bá s
vi ta</w>
ny ho</w>
ca me
č níku</w>
vádě ní</w>
počítač ové</w>
par ty</w>
li by
ko sme
g on</w>
sle m</w>
p tá</w>
opravdov ý</w>
jedno tek</w>
apart hotely</w>
ú tu
pen ny</w>
dí ly</w>
ži dé</w>
předsta vil</w>
obje vili</w>
ma c
ja cí</w>
zla tý</w>
sdru žení</w>
neu vědo
kom promi
dra mati
zla té</w>
vol no</w>
ven y</w>
přísluš né</w>
po stře
odpoči nout</w>
na vá
g on
a ro
zu jeme</w>
ti py</w>
ob zvláště</w>
ži ješ</w>
zemře lo</w>
zasra ný</w>
sý rie</w>
poš lu</w>
dora zí</w>
a rá
ň uji</w>
te mp
ne x
jin ému</w>
existen ci</w>
boha té</w>
úče l</w>
u dělají</w>
přítelky ni</w>
plukov níku</w>
na dace</w>
kone c
víde ň</w>
sti pen
se k
s nů</w>
rost ou</w>
pís ma</w>
nepří jem
m /
- ty</w>
ča sov
účin nost</w>
toale tní</w>
plave cký</w>
odbor níky</w>
wo l
naštv aný</w>
navr hu
jak ého</w>
i ma
hrd ý</w>
energe tické</w>
t ma</w>
re du
překo nat</w>
krás nou</w>
gra ci</w>
f fe</w>
ch risti
zahá jení</w>
upřím ný</w>
sv é
pla za</w>
obje vit</w>
dva ceti</w>
draž ší</w>
zov ali</w>
uprchlí ků</w>
syn chroni
rová no</w>
konfli ktu</w>
č ující</w>
wi ki
vy pu
tiv ním</w>
risk ovat</w>
intele ktu
emi sí</w>
9 -
če kali</w>
pro vedení</w>
pi š</w>
nej nižší</w>
mar sh
jmen oval</w>
doufa l</w>
rá mec</w>
posí lení</w>
kana dě</w>
vl ny</w>
te ta</w>
povin ností</w>
globál ních</w>
do ty
zastá vka</w>
u klí
opa kovat</w>
kame ra</w>
vyso ko</w>
plá ž
ná růst</w>
le t
jedine čný</w>
záko nem</w>
se jdeme</w>
advo ká
ta tivní</w>
snad ný</w>
pneu mati
centr e</w>
. 0
vole b</w>
ur čení</w>
roz ru
přírod ě</w>
po vedlo</w>
po sel
následu je</w>
ka u
jedin ého</w>
fir mě</w>
dár ky</w>
ne půjde</w>
jedine čné</w>
cy klu
c -
ča sové</w>
zač nu</w>
z hrou
všech en</w>
profi l</w>
nezapo mí
manžel ská</w>
kaz ují</w>
hlubo ce</w>
cyk lu</w>
cen né</w>
veličen stvo</w>
uče b
reži sé
pře nos</w>
ga y</w>
žen ský</w>
závě re
sto jím</w>
pově st</w>
ne řeknu</w>
n ing</w>
mov ých</w>
le du</w>
ži jete</w>
tř iná
ten den
pos pí
mů žem</w>
kabe lovou</w>
eliza beth</w>
dopro vod
rozdě lení</w>
madri d</w>
- dobře</w>
sta rou</w>
prosin ci</w>
pi c
nehodno cený</w>
kam pa
c é
bu di
a man
vě c
ry b</w>
pe te</w>
odpo věděli</w>
ko ná</w>
jíz du</w>
genera ci</w>
dí vám</w>
atlan ti
ži tí</w>
zásob y</w>
vibrá tor
u děle
t ováním</w>
rt ů</w>
opatr ný</w>
od chodu</w>
něme cká</w>
minu lého</w>
lí bá
ji h</w>
g r
sk lo
návr hu</w>
in fek
el li
discipl inární</w>
se a</w>
pokrač ování</w>
nez tra
in je
hř bi
e ta
chytr á</w>
au di
anglič tiny</w>
we ll</w>
vystou pení</w>
tr y
sta vi
doporu čuje</w>
no si
mo rální</w>
ko nat</w>
j -
dokumen tu</w>
obnov ení</w>
ne musel</w>
j mout</w>
ekonomi e</w>
a tom
ra mi</w>
nedě le</w>
mo cí</w>
kov ala</w>
he l</w>
den ík</w>
chle ba</w>
ve nou</w>
rodi čům</w>
ý chod
vra že
tá tou</w>
náku pu</w>
here c</w>
uči telé</w>
sebe vraždu</w>
rakov inu</w>
katego rii</w>
hov or</w>
š ovi</w>
zalo žený</w>
z an
pl nění</w>
obo ha
n ských</w>
zep tej</w>
zalo žen</w>
vlá dních</w>
una vený</w>
po se
obrá zku</w>
krá lí
kri ste</w>
žen ské</w>
ře ch</w>
tvr dil</w>
po div
odpově dí</w>
nou cí</w>
mo le
kří dla</w>
je ssi
vá no</w>
seržan te</w>
přesu nout</w>
o mluvit</w>
krát ký</w>
bere te</w>
revolu ci</w>
potra v
poten ciální</w>
pau le</w>
ne říkal</w>
har moni
transa kce</w>
ta riá
souča sný</w>
pro tiv
kampa ň</w>
in va
šen y</w>
če nou</w>
uži jte</w>
t z</w>
pali va</w>
ochrá nit</w>
obchod ním</w>
be rt
si mo
richar d</w>
pracov níky</w>
pot kali</w>
pokle s</w>
po nor
nu ta</w>
naposle d</w>
jin ýho</w>
tv ému</w>
rezerva ci</w>
č kách</w>
zač le
republi ká
přij ď</w>
při dejte</w>
po če
jaký koli</w>
hodno t</w>
a dop
vyhod it</w>
t lou
re d
pu s</w>
p t</w>
od y</w>
no cí</w>
nes mysl</w>
n né</w>
bra la</w>
španěl sku</w>
výcho zí</w>
vý chov
vla kové</w>
správ ným</w>
s par
pospě š</w>
pochy by</w>
a qu
vzni kla</w>
sta vět</w>
nu té</w>
bi b
twit teru</w>
srd cem</w>
nepro dle
ne existují</w>
hle d
h ým</w>
de bi
šen i</w>
vychut nat</w>
u jistěte</w>
plane ta</w>
me ze
je re
bur žo
199 2</w>
zabí jet</w>
vy šel</w>
japon ska</w>
zem ím</w>
va k
tou ží</w>
po l</w>
ne pla
mys li
moder ním</w>
mlá dí</w>
ba ra
zlodě j</w>
pozor nosti</w>
obdi vu
legra ční</w>
gre en
afri ka</w>
š ti
závě ru</w>
z pochyb
takov ý
pol štá
ob haj
hří chy</w>
cen ím</w>
řa dí</w>
republi ce</w>
ptá te</w>
o dol
nau čí</w>
k aly</w>
aven ue</w>
an s</w>
úče tní</w>
t la</w>
sku teční</w>
skon čili</w>
popu lá
neu dělala</w>
klí dek</w>
zahá je
vstá ní</w>
m koli</w>
leta del</w>
boží ho</w>
zná mě
vz ru
vad ž</w>
těž ká</w>
tě šit</w>
ne ode
jina m</w>
člen ské</w>
zůsta neš</w>
uměle c</w>
uji stit</w>
u kry
tex a
sli b
s si</w>
potře bám</w>
poptá vka</w>
pa nem</w>
občan y</w>
john ny</w>
vyrá bí</w>
vita mí
tá tovi</w>
příspě vky</w>
neprodle ně</w>
ko l</w>
199 4</w>
řá du</w>
vy dat</w>
ob jednat</w>
kole na</w>
ch ur
zmize t</w>
ze ptám</w>
zasra nej</w>
wal l</w>
vy sa
spá nek</w>
spo třeba</w>
obyčej ný</w>
floren cie</w>
199 5</w>
ži vá</w>
u n</w>
tep lo</w>
pa rá
nabíd ce</w>
mosk vě</w>
ma ra
en g
chod ím</w>
úno r</w>
zástup ci</w>
ze b</w>
protoko l</w>
po klad</w>
mi zer
lo gy</w>
hla ste</w>
duch em</w>
vz ne
teč e</w>
sest ři
pře tr
medi a</w>
ho land
e vaku
ca m</w>
č nosti</w>
za vedení</w>
uka za
pa sti</w>
jedno mu</w>
ch ang
írá nu</w>
uni ted</w>
ni čím</w>
li ba
georg i</w>
dí ry</w>
vojá ky</w>
porozu mět</w>
odliš né</w>
le o</w>
klíč ových</w>
k lo</w>
de lux
dan ých</w>
brá na</w>
. 000</w>
vybra li</w>
tri k</w>
princi py</w>
po cti
ne potřebuje</w>
ke cy</w>
k ova
cel ým</w>
25 .</w>
198 9</w>
tr e</w>
te tování</w>
ne patří</w>
ne dostal</w>
n ing
mu m</w>
e viden
že lo</w>
za volá
za kou
poně vadž</w>
ov ce</w>
klien ta</w>
jak ém</w>
čá tku</w>
zá dy</w>
za sí
va telem</w>
svěd ky</w>
při vést</w>
pod ně
o trá
každo den
i ra</w>
ap p</w>
ane b</w>
18 0</w>
úschov nu</w>
výu ky</w>
vytvo ří</w>
tren ér</w>
strategi cké</w>
ri n</w>
ne nechte</w>
klien ty</w>
frank furt</w>
chu tná</w>
zmize la</w>
osvět lení</w>
na cházejí</w>
ky ber
přije li</w>
prac uješ</w>
pos ra
lo w</w>
le grace</w>
eko no
dů raz</w>
děv čata</w>
s pa</w>
podru hé</w>
o ch</w>
kon textu</w>
kama ráda</w>
žen ám</w>
ovlá dáním</w>
moder ních</w>
vyp nout</w>
táh l</w>
techni ckých</w>
te v</w>
sta tus</w>
ma ci</w>
evrop u</w>
s har
ri tu
ri s
po ke
personá l</w>
pen ím</w>
o pen
klien tů</w>
dostup ná</w>
červen ý</w>
uni i</w>
tera su</w>
sra čky</w>
po jedeme</w>
orgá nů</w>
ne nechám</w>
bo x
sk en
sk al
pol da</w>
osta tně</w>
kdo koli</w>
domác nosti</w>
chy třejší</w>
ca sa</w>
vý voj
vá hu</w>
využí vají</w>
jame si</w>
ch ali</w>
tera pie</w>
ser ver
předpoklá dá</w>
opi ce</w>
d ví
vtip né</w>
oby vatele</w>
lé tat</w>
kov ém</w>
inter pre
ž kou</w>
zd voj
souhla sit</w>
rozhov oru</w>
199 7</w>
ú činek</w>
z da
u věřili</w>
považ ován</w>
podob ného</w>
ne vrátí</w>
křesť ané</w>
jí ždě
gar den</w>
00: 4
č tr
zen á</w>
te ku
sy l
po sil
nemoc ná</w>
na tolik</w>
efekti vně</w>
ře ka</w>
zo o</w>
prů měr</w>
obra zy</w>
náro da</w>
lov y</w>
du chu</w>
brit ská</w>
bi r
al s</w>
a /
7 ,
sal á
ni čem</w>
nej hor
ji me</w>
e ar
dáv ali</w>
ck er
ai ds</w>
zákla dnu</w>
za řídit</w>
význam ný</w>
v ná</w>
sl ý
použi ty</w>
postgradu ální</w>
plane tu</w>
na bi
hra nic</w>
zvu ky</w>
zved ni</w>
sta rej</w>
sr pen</w>
lin ka</w>
le den</w>
konec konců</w>
hra ju</w>
vr st
sa bo
poznám ky</w>
odpo věděla</w>
obo jí</w>
lá zně</w>
ekonomi ckého</w>
zpo čátku</w>
přítom nosti</w>
produk ci</w>
pozo rování</w>
outlo ok</w>
nic ku</w>
kre sle
konkuren ční</w>
jaký koliv</w>
i ly</w>
faleš né</w>
ch ala</w>
berlí n</w>
an u</w>
2 hvězdičkové</w>
199 6</w>
šablo na</w>
pla tební</w>
byd lím</w>
. ....</w>
ř ská</w>
vý stře
vy pá
vol bou</w>
urči tých</w>
kare t</w>
dr ink</w>
zna čku</w>
su dek</w>
spor tu</w>
slad ké</w>
pro zatím</w>
poz ná</w>
men y</w>
za bezpeč
vy šetření</w>
pře žil</w>
oblíben á</w>
ar che
vstou pil</w>
tvá ři</w>
ra j
protoko lu</w>
nákla ďá
navš ti
ch lo
u va
bá la</w>
zachrá nila</w>
vy fo
tel ům</w>
sa da</w>
ob žal
no te
ne cítím</w>
klobou k</w>
zach ová
váž ím</w>
v ové</w>
předsta v</w>
pravide l
použí vejte</w>
jas ná</w>
cí tili</w>
v lou
rov ná</w>
l /a</w>
gratulu ji</w>
francouz ská</w>
d ry</w>
zu m</w>
sko k</w>
ob slu
nevě dí</w>
m t</w>
jo e
ex pe
cvi čit</w>
znám ých</w>
vyprá vět</w>
tov aný</w>
sla t</w>
rá di
obje kt</w>
mimozem šť
he li
bu je</w>
zne čištění</w>
za š
wa n</w>
slou žil</w>
obsa hovat</w>
krat ší</w>
diskri mi
am ba
roz počet</w>
prozkou mat</w>
fe kce</w>
sk lo</w>
papí ru</w>
pa dá
p ta
nepři jde</w>
k alo
d ý</w>
d .</w>
bel gi
zkou mání</w>
s nu
půj dou</w>
na s</w>
lá ch</w>
kame ru</w>
vy stře
partner em</w>
informa čních</w>
identifi kovat</w>
dosáh li</w>
člán ků</w>
zor u</w>
una vená</w>
stá tem</w>
pre sti
ne věděli</w>
koupel nu</w>
ji hov
důvě ry</w>
západ ě</w>
vy č
tě les
potvr zení</w>
ná t</w>
hne te</w>
ře z
ru chu</w>
di vně</w>
ž ovat</w>
vě dců</w>
scéná ř</w>
ne zvlá
dodrž ovat</w>
do mini
ch ý
ó nu</w>
univer zá
tv ý</w>
sy nku</w>
se le
s mem</w>
ob lek</w>
líst ky</w>
l hů
izra eli</w>
doká zala</w>
zamě řit</w>
vyví jí</w>
veške rá</w>
slá va</w>
h my
ali ance</w>
úče tnictví</w>
ú klid</w>
parla ment</w>
mi le
dub nu</w>
vzá jemné</w>
to v</w>
sti n</w>
sci ence</w>
mon d</w>
legi ti
králov ské</w>
in stan
epi demi
an ější</w>
všim la</w>
to ne</w>
spoj uje</w>
sk ó
pá d</w>
profe sní</w>
od pusť</w>
na de
je d</w>
hodno tit</w>
zákla dem</w>
zi i</w>
u vá
té matu</w>
t to</w>
re fle
pano ra
nes la</w>
fore x</w>
an nie</w>
/ /
zná mého</w>
výrob ních</w>
va rovat</w>
rozsáh lé</w>
ná jem
hodno tě</w>
bla ck</w>
čá k</w>
z právě</w>
t s
sr b
s výho</w>
parla men
ná rok</w>
kvě ten</w>
ho re
ekonomi ce</w>
cí li</w>
čty řech</w>
sko čil</w>
průzku mu</w>
posti žené</w>
nepřetrži tě</w>
výhod u</w>
tre fi
stra ši
sta te</w>
pu tin</w>
prode ji</w>
pohybu je</w>
n ům</w>
k tní</w>
hloup é</w>
co n</w>
úspě chy</w>
vy chová
t kách</w>
srov ná
obrov ská</w>
moti va
klíč ová</w>
glob al</w>
záležito stí</w>
takov é
strý c</w>
neo čeká
ne žá
hle dáš</w>
d c</w>
ukrajin ě</w>
straš né</w>
sl zy</w>
respe kt</w>
li st
de kla
chy til</w>
zalo žil</w>
refor my</w>
re zo
poku sil</w>
po pe
ode šli</w>
hit ler</w>
c tion</w>
sprav ovat</w>
ředi tele</w>
zdvoj násob
zapo jit</w>
vy držet</w>
sy ny</w>
přá la</w>
ko pie</w>
její ž</w>
bra zil
šé fa</w>
zasta ví</w>
su s</w>
připo mín
pora dce</w>
obchod ního</w>
laborato ře</w>
kamen y</w>
hov á</w>
zni čí</w>
we ll
tole ran
min g</w>
hypo té
ri ta</w>
pacien ta</w>
neří kejte</w>
mě ní
hlá sí</w>
ed war
di vu</w>
čí nu</w>
stvo ři
soukro má</w>
po mohlo</w>
nu li</w>
ko či
hospodář ský</w>
dá ny</w>
vě čně</w>
tr pět</w>
re r</w>
pře je</w>
prázd ný</w>
pod é
no ha</w>
kov a</w>
in ovací</w>
bob e</w>
16 0</w>
zlo či
v na
sva té</w>
společ nou</w>
spa t</w>
set kali</w>
rová n</w>
provo zní</w>
podpo ře</w>
evange li
e hm</w>
199 1</w>
řetě zce</w>
sekto r</w>
popu la
o pustila</w>
man che
do zadu</w>
chudá k</w>
c tí</w>
aspek ty</w>
světov ou</w>
statisti ky</w>
s so</w>
marke t</w>
bi li</w>
atmosfé ru</w>
přita ž
pě ší</w>
dě jin</w>
svět le</w>
ra cí</w>
pra se</w>
krá sy</w>
institu t</w>
dneš ním</w>
snou ben
neuvěři telně</w>
ne sa
da ry</w>
d ly</w>
bare v</w>
z odpově
vy pla
se jít</w>
neza sta
centr em</w>
zi la</w>
w hat
vě tr
třetí ho</w>
sna ze</w>
samo tný</w>
při roze
ob zvlášť</w>
horiz on
hi ll</w>
gue st</w>
finá le</w>
cí me</w>
boj oval</w>
an tní</w>
záva zek</w>
sy novi</w>
sti la</w>
pří ru
ne zákon
dě vka</w>
z ml
sta rt
souhla sil</w>
odpo r</w>
n ut</w>
men tů</w>
lin col
le tou
klasi cké</w>
instal a
hloup á</w>
di um</w>
bou ch
ba to
švýcar sko</w>
šir ší</w>
vtip ný</w>
t ských</w>
sto ck
prů kaz</w>
ne vidíš</w>
navšti vte</w>
mo tory</w>
blon dý
an no</w>
zdro j
psa cí</w>
ope n</w>
kra ji</w>
čí sel</w>
zázna mů</w>
zmí nil</w>
y ová</w>
součas ných</w>
princi p</w>
po v
ni ma</w>
nej známě
ne měly</w>
napi šte</w>
la mi</w>
deví ti</w>
budi ž</w>
u ti
spo dní</w>
sch e</w>
ne myslíte</w>
manžel ku</w>
h e</w>
bonu s</w>
červen ci</w>
tro pi
no v</w>
moder ni
cyklu s</w>
auto no
žád ní</w>
t ty</w>
pilo t</w>
ma ro
bar bar
. 00</w>
sob e
of f</w>
nej význam
liv ých</w>
diplo ma
vrá cení</w>
práv em</w>
mexi ku</w>
joh na</w>
inte grace</w>
in ze
se zo
que en</w>
poč kám</w>
ná ru
mo ha
e co
za vr
peně zi</w>
pa cha
nepře s
ex press</w>
y ou</w>
ozna čené</w>
krea tivní</w>
kontak tní</w>
ak cep
zkur vy
u vádě
ta na</w>
stu doval</w>
rová ny</w>
při hlaš
ova telé</w>
od su
manaže r</w>
šam pa
tě ma</w>
t nímu</w>
sta ří</w>
poz vá
le ná</w>
klá š
hroma dě</w>
filozo fie</w>
demokra tické</w>
chu doby</w>
blíz ké</w>
vybud ovat</w>
s p</w>
posí lit</w>
nau čili</w>
bi tva</w>
9 ,
199 3</w>
vy měnit</w>
stre j
py rami
pra ch</w>
politi ci</w>
no be
moudro st</w>
kte rej</w>
hra jeme</w>
di ce</w>
ce st</w>
be ne
ú sta</w>
vy drží</w>
veške rou</w>
us b</w>
ti va</w>
rost lin</w>
nevy pa
cy kli
bere š</w>
z volte</w>
z ních</w>
uklid něte</w>
bu dov</w>
ž né</w>
vi kto
to na</w>
pro vě
ku re
ck s</w>
° c</w>
za h
pek ingu</w>
manže lem</w>
geo grafi
ba sti
symbo l</w>
rych lá</w>
přemýšle la</w>
ote pl
nechápe š</w>
ko nem</w>
důvě ř
řidi če</w>
zname nají</w>
umí te</w>
tal í
ru ských</w>
rake ty</w>
obrov skou</w>
moto ru</w>
i ro
bo hové</w>
šen ých</w>
ta ylo
ru sové</w>
py t
posel ství</w>
listo pad</w>
ex pan
modu l</w>
chla pe
3 /
1 10</w>
zába vy</w>
vyrábě t</w>
u my
cháze li</w>
žá dat</w>
zařízen ím</w>
t ných</w>
stro j
roz počtu</w>
reali ta</w>
pojišť ov
po prav
neu dělám</w>
mm f</w>
min ce</w>
milu jete</w>
ho ří</w>
- no</w>
příkla dy</w>
nedo tk
js kého</w>
vole bní</w>
trans fer</w>
prv ků</w>
na plán
krát kou</w>
kri stov
kli k
ý ma</w>
mi d
m g</w>
g ů</w>
zařízen ích</w>
rá te</w>
přij ali</w>
prázd né</w>
po lí
plat nými</w>
parkov iště</w>
letoš ního</w>
účin né</w>
rozp tý
rezerva ční</w>
pří vě
níz ká</w>
naj mout</w>
5 6
zvláš tního</w>
zkou šel</w>
vysvět lil</w>
soukro mým</w>
rodi či</w>
posta vy</w>
oti sky</w>
mole ku
la w
inten zivní</w>
dí vek</w>
dneš ního</w>
čerst vé</w>
č tu</w>
úprav y</w>
zapla tí</w>
vra ha</w>
takov í</w>
st ru</w>
ob u
kou sky</w>
de ko
čeká me</w>
vdě čný</w>
so lid
sní daní</w>
ra dio
pol sko</w>
oceá n</w>
minu lou</w>
m .
knihov na</w>
še jte</w>
čer nou</w>
zji šť
začá tkem</w>
za ko
sniž uje</w>
přispě t</w>
ot ví
odmít nout</w>
no hama</w>
jist ě
bel la</w>
pro na
podé l</w>
p uje</w>
kapaci ta</w>
do ko
bu něk</w>
šper ky</w>
š kou</w>
čí nou</w>
če le</w>
zmá č
vyhrá li</w>
udržitel ného</w>
tiv ního</w>
ti chu</w>
představi telé</w>
ode vz
kv an
kup ón</w>
žen ého</w>
ř ských</w>
čín ských</w>
úča sti</w>
wi ll</w>
tich ý</w>
sta hování</w>
sen dvi
roz poč
přije la</w>
po lé
p lní</w>
na h</w>
di re
ca r</w>
brit ský</w>
tan covat</w>
p tala</w>
htt p</w>
diva dla</w>
detekti ve</w>
d ane</w>
alterna tivní</w>
3 50</w>
ú stavu</w>
zane prázd
vy kou
vo zí
v oval</w>
proble mati
opakov aně</w>
o str
ja ro</w>
in sta
in fekce</w>
zá mek</w>
zakázá no</w>
sekre tá
1, 5</w>
ví zum</w>
slo žení</w>
pi se</w>
nasta l</w>
k rt
3 2
vede me</w>
posta ven</w>
ne g
naštv aná</w>
demokra cii</w>
bra mbo
u viděl</w>
mi ku</w>
je mnou</w>
dro g</w>
copy right</w>
řek neme</w>
za ží
pří stroj</w>
poslou chal</w>
opera cí</w>
nezávi slosti</w>
konkuren ce</w>
en ých</w>
5 8
trpa slí
prá šky</w>
po bí
opi lý</w>
ome zit</w>
mrtv ého</w>
le vé</w>
ke y
he y</w>
dě t</w>
výro bek</w>
uči telů</w>
ro čník</w>
mistrov ství</w>
lov ém</w>
kr ýt</w>
vý hod</w>
to n
síd lí</w>
s puště
rozdě lit</w>
posta v</w>
nepo může</w>
l ova
infor movat</w>
celosvětov ě</w>
š angha
če l
z me
pře mě
kor pora
du r
desá tých</w>
char le
bal l</w>
a dam</w>
zprá vou</w>
z moc
ver zi
uče d
st ka</w>
polov iny</w>
obra nu</w>
mi gran
energi í</w>
důvě ra</w>
do m</w>
srp nu</w>
otevře la</w>
od kaz
bar bie</w>
spolé háme</w>
smu tný</w>
rukoj mí</w>
propo jení</w>
opráv nění</w>
ni kým</w>
ne změ
čeká ní</w>
zov ala</w>
pi l
doká žou</w>
uli cích</w>
smě šné</w>
slav ný</w>
nebe s</w>
knihov ny</w>
j uni
dů chod
bu b
blu e</w>
čtvrt ý</w>
re da
p .</w>
on g</w>
neu blí
kultu rních</w>
ha i
flexi bilní</w>
či sto
tá ž</w>
ru mun
po ka
nad šení</w>
lep ším</w>
kte ří
in stin
chlá p
ř ům</w>
po e
pe vné</w>
len ce</w>
dějin ách</w>
a ca
ře t</w>
útě k</w>
ty g
twit ter</w>
su san</w>
má mou</w>
ko tě</w>
dopo sud</w>
zákaz ník</w>
z men
vá k</w>
su l
sti ckého</w>
re j
poslouchá m</w>
žen i</w>
ža da
ter s</w>
st .</w>
předstí rat</w>
automati cké</w>
úno ru</w>
ptá k</w>
ne říkám</w>
dov a</w>
cla u
bě žet</w>
věde ckých</w>
spe ciálně</w>
so fie</w>
ku ře</w>
de jme</w>
chi l
ch t</w>
ďá bel</w>
úrov ní</w>
tělocvič nu</w>
tábo r</w>
pa ro
nic k</w>
ne vi
kde koli</w>
doz věděl</w>
analy zovat</w>
úč tů</w>
stou pí</w>
požeh nání</w>
pat rové</w>
naku povat</w>
g ps</w>
ex ce
28 .</w>
že jí</w>
san kce</w>
re ce
ran ní</w>
příj mu</w>
nej rychlejší</w>
hra du</w>
hod ina</w>
dí l
delux e</w>
urči tý</w>
s ani
rozvoj ové</w>
předmě tů</w>
p ala</w>
obý vací</w>
hří chu</w>
elektro nické</w>
dani el</w>
zahra da</w>
ti ve</w>
st ně</w>
hor ké</w>
hmo tnosti</w>
zí ská</w>
zač nete</w>
tren dy</w>
tr vání</w>
pochopi telně</w>
navští vil</w>
do s</w>
zra k</w>
pří mý</w>
prode jní</w>
para metry</w>
od pá
nevě řil</w>
na pravit</w>
krá su</w>
ji z
čtvrt é</w>
zalo žit</w>
vstup ní</w>
tan čit</w>
pro sit</w>
kolá č</w>
4 hvězdičkové</w>
s r</w>
ro dí</w>
odrá ží</w>
klí čem</w>
infor mov
finan čního</w>
zkou ška</w>
zi m
tov ě</w>
su ch
slab ý</w>
od ra
nez ná</w>
nabíd l</w>
kalifor nie</w>
angli cký</w>
č tější</w>
vol bách</w>
struktu ry</w>
sho p</w>
půjčov na</w>
přistý lce</w>
připra vil</w>
pla st
pacien ti</w>
ne děje</w>
hle dala</w>
g ur
cha tu</w>
ter min
ki n</w>
2 -hvězdičkový</w>
vy n
po wer
po děla
osu du</w>
ji stí</w>
dr žíte</w>
bour ne</w>
ye ah</w>
rodi n</w>
nedáv né</w>
in tu
ber ta</w>
za hrá
táh ne</w>
teré nu</w>
t krát</w>
sma zat</w>
ry ba</w>
pře sa
pos lan
pe če
ná sil
důkaz ů</w>
ci li
úlo ži
ú vod</w>
ru čníky</w>
přije de</w>
píse m
pe js
mala js
gre en</w>
7 :
vylep šení</w>
vi p</w>
t ská</w>
souvise jících</w>
podob ných</w>
po ní
nabíze jící</w>
ki na</w>
inde x</w>
ho me
dítě tem</w>
bang ko
časo pis</w>
ta ť
sledu jí</w>
s we
ra yi</w>
preziden te</w>
cla r
vaz by</w>
sto nu</w>
spis ovatel</w>
reali ty</w>
psycho logi
kou kněte</w>
ch oval</w>
čí ho</w>
záj mů</w>
vr ch
se ar
povo lit</w>
podpo rou</w>
o kla
ni s</w>
nehod ě</w>
kři čet</w>
in ku</w>
že li</w>
zapomně li</w>
pl nit</w>
ob ál
ne znáš</w>
na n</w>
li tovat</w>
le a
kontro lní</w>
dě lo</w>
dow n
ště m</w>
za prvé</w>
uži l</w>
ta b
svat bě</w>
sti ckou</w>
před ních</w>
nepo dařilo</w>
nedo šlo</w>
micha ele</w>
ku po
kro ku</w>
ko lí
f r
dů raz
do dává</w>
cestu jících</w>
vyz ý
va dí</w>
schop né</w>
povr ch</w>
ne mluví</w>
li e
chri s</w>
bib li</w>
ameri can</w>
ž ha
ň u
z prostřed
uži vateli</w>
tou ha</w>
partne rů</w>
odpoví dat</w>
ky vad
fung ovalo</w>
du ben</w>
c lin
tov a</w>
terori smu</w>
pře vod</w>
od jel</w>
no i
neb a
konfli kt</w>
kde pak</w>
d nice</w>
bate rií</w>
ole je</w>
na pole
d ži
še ň</w>
š ovat</w>
zabi j</w>
vsta ň</w>
va roval</w>
tel ného</w>
po šli</w>
he ro
do rt</w>
dialo g</w>
cestov ního</w>
ři dič
tho ma
předsta va</w>
nebo jím</w>
kalendá ř</w>
jiho afri
ce ti
bu il
be st</w>
ve ge
se stro
s ú
ra zni
příj mení</w>
pisto li</w>
chemi ckých</w>
zasta vení</w>
vy řa
v daná</w>
s sa</w>
pod vod</w>
po plat
pi va</w>
c .</w>
asi jské</w>
tu č
sed něte</w>
ptá ci</w>
pro stitu
oprav dové</w>
nale zení</w>
lí stek</w>
de set
úto ků</w>
vy ři
stá tního</w>
sov a</w>
pl no</w>
vz o
stře dním</w>
sezná mit</w>
příprav y</w>
nepochyb ně</w>
ne a
na sa</w>
mluv čí</w>
hi tle
fakul ta</w>
ekonomi cká</w>
vě nov
s my</w>
něj šími</w>
nechá te</w>
kře h
koupel nou</w>
kně z</w>
bom bu</w>
po dat</w>
ho ra</w>
důleži tých</w>
4 6
ú na
tren d</w>
tepl é</w>
tel nosti</w>
si a</w>
před pisů</w>
platfor ma</w>
no r</w>
ke y</w>
h i</w>
chrá mu</w>
ban á
ž ování</w>
šťast nější</w>
všech nu</w>
vybra la</w>
sma rt
revolu ční</w>
mo re</w>
man n</w>
kom pi
hra jete</w>
důstoj ník</w>
b né</w>
air port</w>
z jednodu
po slu
ne přátelé</w>
ho j
ex tra
zov aná</w>
ve y</w>
umě t</w>
samot ného</w>
ro ne</w>
považ ovat</w>
ná vy
ne dal</w>
mí ře</w>
ji sti</w>
ital ské</w>
bro ok
, 000</w>
zu ji</w>
vede š</w>
umře la</w>
tla kem</w>
sla bo
pokrač oval</w>
naz val</w>
mat ko</w>
le ten
emi se</w>
zn ali</w>
zi li</w>
nejlep šího</w>
li kvi
inf ar
e-mai lu</w>
bi g</w>
ba j
čtvrt letí</w>
t cha
po strá
mu jící</w>
ko ko
hov ě
su ver
sledov ali</w>
sch ovat</w>
po dej</w>
pa sa
o ka</w>
le wi
konce rt</w>
humani tární</w>
záchra nu</w>
ni o</w>
for mální</w>
dě j</w>
ba n</w>
ad mi
při znal</w>
odmí tá</w>
nenávi st</w>
nej častěji</w>
g s</w>
dž ung
de ri
certifiká t</w>
spl nění</w>
příš tím</w>
pod pis</w>
pla t</w>
neza bil</w>
ne mluv</w>
ko pii</w>
fre e</w>
dopl něk</w>
dobrovol ně</w>
defin ice</w>
švéd sko</w>
šet řit</w>
útě ku</w>
ú střední</w>
ti ckého</w>
sa l</w>
s ple
otáz ce</w>
mimořád ně</w>
vé zt</w>
u krást</w>
sun dej</w>
p nout</w>
ne zisk
myšlen ku</w>
kla de</w>
jihov ýchod
há ně
f ru
vypl ývá</w>
ukra den
stupu jí</w>
sto pu</w>
st ům</w>
smu tné</w>
serve ry</w>
pá du</w>
pora dit</w>
pa pr
odpočí vat</w>
ma jor
kon čím</w>
hlé dnout</w>
úda jích</w>
zni čení</w>
zne či
z zi</w>
z ová</w>
trval é</w>
sk ej</w>
pri ma</w>
nepo t
metr o</w>
li fe</w>
k ha
há ch</w>
hal l</w>
disku se</w>
chiru r
za slech
te ori
do prdele</w>
ži va</w>
ver zí</w>
s so
profeso re</w>
pod lé
ja ře</w>
investo ři</w>
duch ov
bě hl</w>
ba h
stu je</w>
rovnová hu</w>
new s</w>
nechtě li</w>
ka ční</w>
hez čí</w>
ven ti
rozu mět</w>
předví da
port fo
pan ě</w>
od chod</w>
o c
ne d
n ko</w>
dostup ný</w>
bý vají</w>
anděl é</w>
stáh něte</w>
sní mek</w>
se a
půl noci</w>
klu ky</w>
je dou</w>
dáv ky</w>
cháze la</w>
zkou mat</w>
spo ji
s padl</w>
py šný</w>
psycho logie</w>
ok .</w>
n skou</w>
k si
há š</w>
v ova
předcho zích</w>
prde li</w>
pohyb ovat</w>
má la</w>
klí čov
ztra tí</w>
uzav řít</w>
tá lně</w>
tre ch</w>
pro mluvil</w>
prac ující</w>
po ker</w>
nedo stane</w>
na půl</w>
moder ního</w>
milu jeme</w>
leta dle</w>
institu tu</w>
he j
dě da</w>
druh ému</w>
dru ž
dob e</w>
cen ově</w>
1 30</w>
vak cí
stou pení</w>
ster n</w>
sk lep
schop ná</w>
lá ze
fung ování</w>
cuk ru</w>
chlá pka</w>
ce stá
úko lů</w>
r ům</w>
pří sně</w>
mini bar</w>
h aly</w>
univerzi tní</w>
trénin k</w>
sk ů</w>
s sel
koor di
za bra
z ní
plat ný</w>
náro čné</w>
k ován</w>
bo t</w>
že r
vy mýš
vlá k
uji šť
stra nami</w>
roz měry</w>
prohlé dnout</w>
pravide lné</w>
poslouchá š</w>
od vo
ne zdá</w>
hor mo
euroz óny</w>
ší ří</w>
č kami</w>
úmlu va</w>
w s</w>
uveden o</w>
symbo li
pr stů</w>
ně který</w>
ma j
g lo
ex pre
do kola</w>
ame n</w>
zvý šil</w>
zjist íme</w>
vu jte</w>
tel ka</w>
te am</w>
roz klá
pode psat</w>
ne potřebujeme</w>
na ko
mode lů</w>
l že</w>
hlé dl</w>
dy ho</w>
co 2</w>
způsob il</w>
zamě ření</w>
spokoje ný</w>
sky pe</w>
port ovat</w>
ne vá
ne platí</w>
ne jisto
metr u</w>
le tého</w>
im peri
chemi e</w>
cel ku</w>
ba sk
za bývá</w>
vaši mi</w>
spotře by</w>
ri ká
počíta čem</w>
omy l</w>
o m</w>
na rá
bro w
pře chod
lov e</w>
gi n</w>
f t
dr s
donal d</w>
ch al
5 g</w>
ži ví</w>
š -li</w>
té mu</w>
stře chu</w>
sak ru</w>
jakého koli</w>
hospo d
é ry</w>
zjist íte</w>
zele ný</w>
vstou pí</w>
specifi cké</w>
pře stala</w>
pě st
pá trá
podla hu</w>
nov inách</w>
nej du</w>
ko lé
dvoj násob
de fi
zdů razni
tov ým</w>
skry té</w>
s le</w>
ro bin</w>
ov e
ne změní</w>
kalifor nii</w>
ka de
ha w
dá váš</w>
a zy
práv níka</w>
podob ná</w>
nut no</w>
navr hl</w>
ba by</w>
zvládne me</w>
tra m
soused ství</w>
podí vala</w>
nej častě
do pady</w>
čí cí</w>
w ho</w>
vyjád ření</w>
veli teli</w>
polo žek</w>
ka bel
hajz l</w>
f o</w>
akti v
že l
ča sů</w>
zají mají</w>
ti k</w>
stů jte</w>
pře chod</w>
poje du</w>
po ol</w>
interne tových</w>
druh ých</w>
12 .
ň me</w>
zkuše bní</w>
te c</w>
sý r</w>
svobod ě</w>
stu dov
stre su</w>
pode psal</w>
mezinárod ně</w>
fla sh</w>
ubyt ovat</w>
počí tá
po hromadě</w>
p .
nazna čuje</w>
nas hle</w>
mo tý
la no</w>
la l</w>
l lo</w>
l '
d lí</w>
bom by</w>
pa na
ozna č
oh ni
ná pově
léč bě</w>
ly n</w>
ka ro
hlub ší</w>
ed ward</w>
dou fe
cen ých</w>
are álu</w>
akti v</w>
vysvět lím</w>
par ke
ko -
dosáh la</w>
di i</w>
andre w</w>
č těte</w>
záva zky</w>
záli vu</w>
zi sku</w>
s m
ru ského</w>
pr é
kří ž</w>
jistě že</w>
chlapí k</w>
5 +</w>
příprav a</w>
nezávis lé</w>
di sku</w>
/ den</w>
zastá vky</w>
vývojá ři</w>
těž ce</w>
st vem</w>
oto č</w>
důleži tým</w>
bí l
24-hodin ovou</w>
19 45</w>
člen ství</w>
zkou šku</w>
víken du</w>
ti cho
sva zu</w>
ro me
použí vám</w>
ne y
mini mali
instal ovat</w>
e mai
bl bec</w>
ban ce</w>
aktu álně</w>
zpo mal
za svě
sním ky</w>
respek tovat</w>
pří stroje</w>
poz vání</w>
považ ují</w>
inspe kto
di no
book ing
a dobe</w>
zatracen ý</w>
z ani
su n</w>
rů v</w>
lo aj
jesky ně</w>
gra mů</w>
extré mně</w>
egyp tě</w>
dře vo</w>
dovole ná</w>
do padne</w>
čeká š</w>
zna ček</w>
výmě nu</w>
te re
sociál ního</w>
pro chází</w>
počá teční</w>
kuchy ň</w>
ci o</w>
3 1.</w>
telefo nem</w>
součas ná</w>
rová na</w>
otepl ování</w>
de ta
ch lé
b ra</w>
amster dam</w>
zákaz níka</w>
vítě z</w>
vy myslel</w>
val u</w>
studi i</w>
ne sti
8 ,
ztrá tu</w>
stro mu</w>
pane l</w>
cel ková</w>
zvá žit</w>
za vě
willi am</w>
va g
te ri
sou těž
ru čně</w>
reál né</w>
přesvěd čen</w>
kry tý</w>
ki e</w>
ježí š
fe li
řa d</w>
čtyř mi</w>
sé rii</w>
sa int</w>
relevan tní</w>
od jezdu</w>
od cházím</w>
ni cích</w>
kteří ž</w>
jedine čnou</w>
ba bek</w>
vy zná
vy dala</w>
kole gy</w>
ha ck</w>
chlad ničku</w>
zapo je
pa vel</w>
na kr
l t
balkó nem</w>
ameri ckým</w>
žen skou</w>
za ta
ven ím</w>
stro mů</w>
srá či</w>
rozu měl</w>
pří stav</w>
připraven é</w>
pozor ně</w>
po psat</w>
pi šte</w>
kontro le</w>
ň uju</w>
vědo mě</w>
veli ký</w>
signá ly</w>
nale zen</w>
by tku</w>
aktuali zovat</w>
ví ře</w>
udrži telné</w>
u zaví
u sil
proje v</w>
m že</w>
epi z
anony mní</w>
27 .</w>
rozto milý</w>
přijí má</w>
pře vod
la ne</w>
dostup nosti</w>
23 .</w>
2 2.</w>
- ne
čaroděj nice</w>
úto či
udr žení</w>
slov em</w>
ptá ka</w>
neb ýt</w>
me j</w>
hotel ové</w>
de me</w>
daň ové</w>
d .
běž ný</w>
ze c</w>
vyso kým</w>
vi nout</w>
sv ině</w>
prázdnin ové</w>
odpově z</w>
mi ly</w>
lib ovo
ga bri
chod ila</w>
ži vého</w>
sní st</w>
působ it</w>
pro slu
měří tku</w>
mi losti</w>
l .</w>
je vi
děv ko</w>
arab ské</w>
ale rgi
že nami</w>
ú st</w>
sí dlo</w>
ná čel
do mem</w>
boj uje</w>
vzni kl</w>
pamatu je</w>
národ ním</w>
ne řekneš</w>
na č</w>
koncep t</w>
- na</w>
šen ě</w>
čín ského</w>
politi ckého</w>
po ch
kles á</w>
filozo fi
be na</w>
vě du</w>
vy držte</w>
t ována</w>
spon den
spo ry</w>
po ledne</w>
osob ního</w>
oprav y</w>
musli m
účast níci</w>
r .</w>
odha duje</w>
ne vzdá
mi zí</w>
lá tor</w>
vla di
trou bu</w>
t ó
rov ě</w>
potra vin
posí lá</w>
pa vou
nu tná</w>
nebe sa</w>
glob alizace</w>
št iny</w>
vhod nější</w>
sy mp
s wa
pří ští
předpo ví
práv u</w>
po in
ku sů</w>
ken ne
ka tal
i v</w>
ge l</w>
bru sel</w>
bou ti
ži jící</w>
zalo žená</w>
va če</w>
t ter</w>
sniž ování</w>
obje kty</w>
ne i
n ců</w>
mo ckrát</w>
c tor</w>
ú h
z vět
vyprávě l</w>
va čka</w>
uvol nit</w>
uměle cké</w>
te stů</w>
poz vat</w>
por tá
pacien ty</w>
ma ster
hu mor</w>
cuk r</w>
ba rié
zlepš ování</w>
zachrá nili</w>
soukro mého</w>
při pad
postup ů</w>
ná la
lo ck
le tou</w>
la ke</w>
hov i</w>
formulá ř</w>
do dá
zabí jení</w>
vá ha</w>
ute kla</w>
po jem</w>
kla u
do spí
depre se</w>
bře hu</w>
bl bej</w>
vl na</w>
v ani
sko č</w>
samosta tně</w>
s ca
nej růz
linu x</w>
interié r</w>
zákla dním</w>
vý ch
vá ma</w>
vietna mu</w>
rá ku</w>
po můžeš</w>
marketing u</w>
lov ala</w>
li í</w>
kon i</w>
hovo řit</w>
dospě lý</w>
c ry
bratr y</w>
b l</w>
an ga
š ou
čin it</w>
roman tické</w>
pla te
o hroz
ni k</w>
ne přátele</w>
ho rách</w>
festi val</w>
dán sko</w>
dra ho
autobu sem</w>
smi th</w>
sluš ně</w>
pře klada
pracov ního</w>
posta vený</w>
p lou
ne našli</w>
kou pili</w>
kla dů</w>
chrá m</w>
či na</w>
z pravidla</w>
t ného</w>
působ ení</w>
poh lí
lou is</w>
jako žto</w>
h re
dlu žím</w>
t ského</w>
patr ně</w>
o logie</w>
ne dělal</w>
mag gie</w>
en ím</w>
bro n
vytvo řila</w>
vy lo
veřej ná</w>
tý kat</w>
regi on</w>
posád ky</w>
poh l
p l</w>
lož nici</w>
lin k</w>
drob né</w>
alo st</w>
a/ nebo</w>
žehlí cí</w>
vy jít</w>
vlo žit</w>
ve lení</w>
tu ju</w>
hroz bu</w>
ga ran
dáv ala</w>
b ali</w>
ar bi
zobra zeno</w>
zabi t</w>
tem né</w>
předpově ď</w>
mi tu</w>
koupe lně</w>
kongre su</w>
dva cá
do t
ce lní</w>
so l
ro ck</w>
mar s</w>
karié ra</w>
ch ra
boj ovali</w>
berlí ně</w>
absolven tů</w>
šťast ně</w>
udrži telný</w>
tré novat</w>
smě je</w>
smr dí</w>
provin cie</w>
obrá tit</w>
japon ská</w>
jak ej</w>
f rá
bra t
a i</w>
zvu ku</w>
zprac ujeme</w>
vo zy</w>
sí le</w>
spr chu</w>
polici sta</w>
pa y
ni cky</w>
na né</w>
k .</w>
jakou koli</w>
doufá me</w>
do mlu
zku sil</w>
vysoko rychlo
uži tí</w>
to čí</w>
rakov ina</w>
otevřen o</w>
měsí čně</w>
hně v</w>
dotk nout</w>
5 7
zd vi
výcvi k</w>
vol ného</w>
up gra
těho t
techni cká</w>
při stání</w>
před ča
pá ry</w>
pape ž</w>
osla vu</w>
nej moder
n g
m 2</w>
f fi
ak cioná
zahr novat</w>
f lu
al ar
9 00</w>
ti ons</w>
recen zí</w>
pří kazy</w>
pí sně</w>
ov í</w>
fa cili
exter ní</w>
e in
da go
a spe
úlo hu</w>
zá ření</w>
vzpome nout</w>
u le
tel ní</w>
sně mov
s pla
ru ční</w>
přeno su</w>
na de</w>
li vější</w>
klep něte</w>
kam paně</w>
zo m
u pev
publi kum</w>
plukov ník</w>
mod i
lé čit</w>
kon ta
i se</w>
hlí dat</w>
- kdo</w>
zlo činy</w>
vá šeň</w>
vypořá dat</w>
va z</w>
mod lit</w>
mi lo</w>
fo tka</w>
d ale</w>
účast níků</w>
za bere</w>
posta vili</w>
opě tov
nejsil nější</w>
modr ý</w>
mně la</w>
mal ém</w>
laborato ř</w>
zji ště
w ho
vešker ý</w>
ven i</w>
sna žíte</w>
pan á
me l</w>
fotografi i</w>
az ure</w>
způsob í</w>
ze nou</w>
vě že</w>
dosta ň</w>
chlé b</w>
chla py</w>
zapla tím</w>
vyrov nat</w>
sv aly</w>
schop na</w>
prou d</w>
inf lace</w>
dlouho době</w>
z rekonstru
vz dal</w>
ta r</w>
směr nice</w>
rado sti</w>
přij ala</w>
pá té</w>
pou šti</w>
nepo čí
n du</w>
mě jí</w>
ho chu</w>
dov ý</w>
za volala</w>
vý sky
téma tem</w>
stí nu</w>
slíbi la</w>
sluš ný</w>
ro čníku</w>
přines u</w>
při jet</w>
po pravdě</w>
osob nost</w>
od chází</w>
na věky</w>
my ši</w>
kontak továním</w>
exklu zivní</w>
dri ve</w>
tvo řit</w>
se kce</w>
oba ma</w>
la rry</w>
křesťan ství</w>
jedená ct</w>
cestá ch</w>
var ša
tá ty</w>
stre s</w>
pohá r</w>
ner vy</w>
který ž</w>
egyp t</w>
stár nutí</w>
ste ri
soukro mou</w>
ruka vice</w>
po tichu</w>
obje kti
ně hož</w>
nehod y</w>
jer sey</w>
al u</w>
věde cký</w>
stra vování</w>
pustí me</w>
podí váte</w>
min e</w>
ka bát</w>
dodrž ování</w>
vy hla
těle sně</w>
ta h</w>
registro vat</w>
osvobo zení</w>
o stra
kou pím</w>
císa ř</w>
breakfa st</w>
b ního</w>
atra kcí</w>
8 :
ztrá cí</w>
zapo jení</w>
vzděláva cích</w>
vy dali</w>
vozi dlo</w>
vojen ských</w>
příští ho</w>
lini e</w>
ing s</w>
gar y</w>
ciál ním</w>
ušet řit</w>
u trá
st ine</w>
přij me</w>
pre ven
počí tá</w>
ply nů</w>
ne čekal</w>
děde ček</w>
char lo
bo w
ameri čtí</w>
24 .</w>
vol bu</w>
přístup em</w>
pře stane</w>
prou du</w>
o kej</w>
mý t</w>
lo rd</w>
ku povat</w>
e va</w>
civi lní</w>
bra vo</w>
a j</w>
spo ru</w>
mexi ko</w>
liba no
ku bá
jazy cích</w>
cháze lo</w>
chlad ničkou</w>
autobu su</w>
za vraž
udrž uje</w>
tex ti
su šen
nějak ém</w>
holly wood
ha va
fe no
chi e</w>
zat čen</w>
uni knout</w>
tr ů</w>
slo žku</w>
pů dě</w>
konstru kce</w>
ko ři
he d
gu ar
chá m</w>
29 .</w>
ře ce</w>
posly šte</w>
nechá vá</w>
li vým</w>
jas no</w>
hospodář ského</w>
ale xi</w>
tvrd é</w>
ru skem</w>
ro ků</w>
při šly</w>
přesvěd či
předpo kladu</w>
o o
nevěří cí</w>
nebezpeč ná</w>
katego rií</w>
hlas ovat</w>
dostup nost</w>
chá zíš</w>
zavře te</w>
z dát</w>
trou ba</w>
stor e</w>
po stará</w>
po cházejí</w>
pe dago
ná stup
mu je</w>
ko bere
klimati zaci</w>
do mi
byt kem</w>
ú zce</w>
zor y</w>
zji štění</w>
zapo menu
sy nov
sně ji</w>
platfor mu</w>
o plá
mož ných</w>
mo tel</w>
jí dlem</w>
jednotliv ce</w>
jazy kové</w>
chá pat</w>
- už</w>
zůsta neme</w>
wor d
vyví jet</w>
roo ms</w>
pro mí
kov aná</w>
ji mi</w>
dět ský</w>
bo ura
výrob ců</w>
veřej ný</w>
tě lem</w>
správ ní</w>
skupi nou</w>
pří chod</w>
mobi le</w>
mar su</w>
gue st
egyp ta</w>
ch cí
au ten
všeobec ně</w>
vytváře jí</w>
uvědo mila</w>
stock hol
stabili tu</w>
poštov ní</w>
poskyt l/a</w>
navr hnout</w>
manžel ky</w>
jakou koliv</w>
igno rovat</w>
hy gi
con ne
zó ny</w>
za žít</w>
wi fi</w>
velko lep
tý kajících</w>
rozli šení</w>
pouště t</w>
pokr ý
modlit by</w>
gé nius</w>
d t</w>
cast le</w>
a ten
sest ro</w>
pravdi vé</w>
ou s</w>
dosa hu</w>
14 0</w>
uspořá dání</w>
steroi dy</w>
s ním</w>
qu in
ne k
kon tej
h ého</w>
gi l
an der
živo tním</w>
ští tky</w>
získ ají</w>
zlo činu</w>
teni s</w>
překá žky</w>
naš t
farma ce
di čky</w>
ama té
znalo st</w>
zav ést</w>
sta jí</w>
sou sta
s pad
plý t
man hat
i e
bouti que</w>
blíz kém</w>
váž ný</w>
svobod né</w>
pís ničku</w>
ne mě
kov y</w>
h é
za tí
vzni ká</w>
veli ké</w>
rekla ma</w>
opaku ji</w>
nepřes nostech</w>
dru ži
ch ové</w>
2 /
- kde</w>
čet li</w>
zá tě
whi te</w>
t ován</w>
středi sko</w>
policaj ti</w>
ně ného</w>
ná prav
neva dilo</w>
nedosta tku</w>
kr ví</w>
kaná lu</w>
ca sino</w>
švýcar sku</w>
vod í
rozhov ory</w>
poku sí</w>
opatr ní</w>
ně čí</w>
nehod u</w>
n '
ma sk
ho ďte</w>
dlu hu</w>
cho v</w>
školá ch</w>
š ar
vybí rat</w>
si li
obchod ník</w>
ně nou</w>
ne mluvím</w>
ne l</w>
dlu ž
what sa
vrcho l</w>
victo ria</w>
tra gi
strý čku</w>
procen to</w>
pro šla</w>
police j
podsta tné</w>
lí dr
kap sy</w>
cu s</w>
bo s
ře č
slab é</w>
schů zky</w>
roz tr
předmě tem</w>
hotov á</w>
digitá lních</w>
by tost</w>
širo ký</w>
za dr
vzpo mněl</w>
umístě né</w>
táh ni</w>
stě ny</w>
sta letí</w>
rodi la</w>
ra m</w>
p m</w>
obyvatel stva</w>
nech ají</w>
m ²</w>
kv i</w>
ku ku
9 :
ř ského</w>
teh de
noviná ři</w>
li ce</w>
g ali
dovo l</w>
šif rování</w>
zu bní</w>
zra dil</w>
sé ri
st ra</w>
spo lehnout</w>
sophi e</w>
ov z
nad měr
kap se</w>
a be
zdra vá</w>
výkon ný</w>
sva tá</w>
reag uje</w>
použi li</w>
in -
š pí
polici sté</w>
pla vání</w>
pi lo</w>
naku pování</w>
ka ze
gi tea</w>
dá váte</w>
a to
turisti cké</w>
staro sta</w>
služ bách</w>
odhali t</w>
hlu k</w>
ce m
aktuali zaci</w>
zved nout</w>
zku síme</w>
t su
sun g</w>
s l</w>
polov i
osob nosti</w>
na c
i pad</w>
an n</w>
ě jším</w>
výmě na</w>
vy pra
umístě ním</w>
produ cen
medicí ny</w>
jmen ujete</w>
har ri
h růz
bel gie</w>
ří ma</w>
t ník</w>
t ká
souhla su</w>
sa du</w>
před nost
probu dil</w>
por tré
pa v
od vě
hlupá k</w>
dan ého</w>
chla zení</w>
bil le</w>
ab sur
whi sky</w>
význa mu</w>
um ře</w>
s pro
s my
rozpo ru</w>
rezo lu
ob držel</w>
ne pat
na psáno</w>
g he
. net</w>
zov ý</w>
veli ko
tvrd ý</w>
poli bek</w>
náhra dní</w>
nemovi tost</w>
komple tně</w>
istan bu
dce rou</w>
bo hy
ře me
zákla d
vyjád řil</w>
vo n</w>
učitel ka</w>
smě š
při jdete</w>
li šit</w>
l ci</w>
j un
úpl ný</w>
vojen skou</w>
technologi cké</w>
s ha</w>
polo žit</w>
pek le</w>
ově řit</w>
otro ctví</w>
oteví rá</w>
oran ž
mlu ví
li mit</w>
le sy</w>
klid ný</w>
jí ce</w>
je an</w>
d kou</w>
zi sky</w>
vytvo řen</w>
vatel é</w>
tě l</w>
t ovány</w>
po vědomí</w>
ne mluvil</w>
medvě d</w>
lé ta
budov u</w>
bud ovat</w>
vyš la</w>
tvo r</w>
myšle nek</w>
lov e
ca fe</w>
5 :
tý dnech</w>
schod ech</w>
píše te</w>
nu lo</w>
nex t</w>
ne legální</w>
mlé ka</w>
les bi
g b
bole sti
všim li</w>
vol ná</w>
upozor ňujeme</w>
ul tra
smlu vních</w>
pů lku</w>
prochá zku</w>
p ku</w>
lo gové</w>
jí má</w>
ře nou</w>
nena šel</w>
mě ste
kan álů</w>
extré mní</w>
dře va</w>
brá cha</w>
198 0</w>
vytáh l</w>
vrá títe</w>
tře tina</w>
při lá
pe ch</w>
obrazov ce</w>
men i</w>
jak ých</w>
de li
archi v</w>
z rů
stou pen
ro du</w>
k ly</w>
hra čka</w>
cháze jících</w>
chod ili</w>
au gu
š krá
ta nu</w>
společen ských</w>
roz vr
ko ka
hla sov
g em</w>
ar thu
vese lé</w>
sch vál
ple ť</w>
ne potřebujete</w>
liv ého</w>
hla su</w>
dá rní</w>
da ci</w>
blo gu</w>
ali ty</w>
x -
me tri
de te</w>
d žá
zvlá dne</w>
vý pla
vzo rek</w>
vyža dovat</w>
u jít</w>
rekla mu</w>
krabi ci</w>
j ch</w>
há dej</w>
diaman ty</w>
au dio</w>
0 2</w>
zbý vající</w>
učin ili</w>
tou hle</w>
to re</w>
thajs ko</w>
při neste</w>
ni miž</w>
nepří jemné</w>
lov ým</w>
ko medi
fo un
důvěry hod
do razil</w>
ce r</w>
úrov ních</w>
willi am
výbu š
tera pe
t my</w>
sví tí</w>
poku sit</w>
omezen é</w>
odehrá vá</w>
ja na</w>
boj ují</w>
čí š
zákla dny</w>
svě dek</w>
stře dního</w>
skle ní
po pra
pe j</w>
odmě na</w>
o e
k še
fisk ální</w>
bio logické</w>
aktualiz ováno</w>
spa si
skó re</w>
servi ce</w>
la se
krea ti
fak torů</w>
zá dech</w>
potvr dit</w>
opravdov á</w>
ma in</w>
l t</w>
kuřá ky</w>
ir sko</w>
ht ml</w>
hroz ba</w>
che n</w>
zabi tí</w>
vědo mo
váleč né</w>
te lit</w>
srde ční</w>
přátel ům</w>
oce li</w>
ne znáte</w>
elektř iny</w>
věde c</w>
tu ru</w>
si r</w>
s wi
pohod lně</w>
ni ckého</w>
dne ška</w>
y m</w>
sla ví</w>
ob ří</w>
ne pi
m ware</w>
kana dy</w>
har ryho</w>
ban ku</w>
ba u
10 1</w>
ži dle</w>
žd ě</w>
čá stech</w>
z aly</w>
vy hledat</w>
po dání</w>
náku py</w>
nejvyš šího</w>
li vou</w>
identi tu</w>
ho war
de vá
amaz on</w>
ak ční</w>
whatsa pp</w>
prázd niny</w>
polo hu</w>
penzi on</w>
od pad</w>
obje vují</w>
nov i
manže lé</w>
in s</w>
facili ties</w>
dohod ě</w>
ab stra
- v</w>
vý mlu
udá lo
t mě</w>
skr ýt</w>
proje vu</w>
palá ce</w>
ne myslela</w>
jmen ovat</w>
fyzi ky</w>
existu jící</w>
be ch</w>
zabý vat</w>
sta n</w>
slep ý</w>
při dal</w>
poko je
pochy b</w>
modi fi
milá n</w>
ma ga
lhá ř</w>
zdro ji</w>
z mín
výpově ď</w>
uklá dání</w>
to k</w>
primá rní</w>
ob há
lá me</w>
ku jte</w>
chri si</w>
a .</w>
čt vere
texa su</w>
pů du</w>
prostře dek</w>
kri stu</w>
kon ven
dosa h</w>
chod íš</w>
angli cké</w>
vyhov uje</w>
u se
ti s</w>
při stěhov
pr sten
krabi ce</w>
in ová</w>
ha y
stanov i
schvál ně</w>
rozhod ující</w>
ku sy</w>
ho r</w>
flexi bili
experi ment</w>
doufe jme</w>
al p
zása h</w>
vů dci</w>
tva ru</w>
st ali
s ům</w>
pre vence</w>
ob čerst
dál nice</w>
ži v
vě tru</w>
vají čka</w>
strategi í</w>
stav ba</w>
pře sný</w>
pev nost</w>
ne potřebuji</w>
me t</w>
ko ši
edi tovat</w>
za žil</w>
well ness</w>
vy buch
tábo ra</w>
sí dlem</w>
si lní</w>
přetr vá
pen ta
obyčej né</w>
mo kr
hospo din
dí lů</w>
a c</w>
žá ci</w>
zu ba
z vra
vybaven y</w>
vola jí</w>
svat by</w>
po vi</w>
nov in</w>
na f
lo kální</w>
go t</w>
ge s</w>
zrá dce</w>
vý sle
vel kými</w>
trpě l</w>
svá tek</w>
stav by</w>
rá m
rt ovat</w>
ra s</w>
mě n</w>
mla dí
ki r
j šími</w>
žá dal</w>
za volá</w>
ve c</w>
služ bám</w>
po můžeme</w>
na řídil</w>
manžel kou</w>
jád ro</w>
e lem</w>
bíl kov
bo r</w>
zása d</w>
zastře lil</w>
vě n
vě jších</w>
ve ter
pustí š</w>
pr st</w>
mili óny</w>
ba g
ře l</w>
vý prav
tech no
taj ný</w>
pře dat</w>
píše š</w>
pozná te</w>
podí le
masá ž</w>
klik nutím</w>
k nul</w>
dokonal á</w>
dialo gu</w>
žen ým</w>
začí náme</w>
přísluš ných</w>
o stu
nevěří š</w>
mov ou</w>
mar co</w>
kří ž
environ mentální</w>
e du
disku tovat</w>
chemi ká
že ne
t .
stá li</w>
slu nci</w>
skuteč ným</w>
pod pů
naci onali
mon tre
mar t</w>
lu ci
lov ané</w>
ky ta
h p</w>
d ová
če te</w>
účin nosti</w>
vyjedná vání</w>
tur né</w>
techni cky</w>
spraved livé</w>
roz liš
ne nu
ma gie</w>
b c</w>
še nou</w>
způsob i
vět šího</w>
vizu ální</w>
ná cti
le ny</w>
fanouš ci</w>
vz te
vyro bit</w>
sc ri
hor ko</w>
fi al
z lého</w>
včere jší</w>
vy myslet</w>
u bliž
má te-li</w>
mi lí</w>
kone čné</w>
jíde lně</w>
b ce</w>
26 .</w>
zdravot nické</w>
se cu
s pen
neče kan
kto ry</w>
- up</w>
zkla mání</w>
zby tečné</w>
vyhro ž
vy klá
vi o
vezme te</w>
pomá hal</w>
poku šení</w>
níz kou</w>
mno h
minu lých</w>
kon g</w>
b m
20 -
zí tře
zvyš ování</w>
tu ne</w>
přemýš lej</w>
nov ější</w>
dí ru</w>
dr žíš</w>
chtě lo</w>
bitv y</w>
zně lo</w>
využi tím</w>
vydělá vat</w>
rov ně</w>
ni cemi</w>
dí ra</w>
dosta ňte</w>
apli kovat</w>
ameri čan</w>
za veden
y o</w>
pří kaz
poč tem</w>
občan ství</w>
mí nění</w>
lov ali</w>
kobere c</w>
e ro
e mail</w>
dia be
ck ý
a .
zá su
učin ě
přesvěd čeni</w>
logi sti
so lá
si e
prezen tace</w>
ovz duší</w>
ne sty
kon stan
jed ova
jed li</w>
indu stri
here čka</w>
ekonomi ckou</w>
důleži tého</w>
dohod li</w>
bi i</w>
absolven ty</w>
telefo nů</w>
straši del
nesly ším</w>
ko řeny</w>
ka za
individu álním</w>
ze vnitř</w>
vá žení</w>
univerzá lní</w>
sou dit</w>
se basti
př en
ni k
my ho</w>
klasi fi
kapitá na</w>
jo na
ja c
hro b</w>
cu l
architektu ru</w>
an tar
a par
význa mnou</w>
vybra né</w>
ovliv ňují</w>
od padu</w>
nu že</w>
en ter
ňá k</w>
zabí jí</w>
výsled ku</w>
vyči stit</w>
stříle jte</w>
slad ký</w>
růz ná</w>
p g</w>
ře cku</w>
zač ni</w>
umě lé</w>
s ó
pře jeme</w>
pra chu</w>
od a</w>
náz vu</w>
ne li
exe cu
dě la</w>
bo let</w>
vlaj ka</w>
tý hle</w>
te stu</w>
stisk něte</w>
s bur
ry ba
pocho pili</w>
po vězte</w>
pen i
nazý vají</w>
mí le</w>
je ví</w>
dí vala</w>
dne me</w>
ř ky</w>
svěd kem</w>
ry t
ra dě</w>
použi t</w>
o .
kri tické</w>
konferen ční</w>
dlu hy</w>
chara kter
we st
sou th</w>
růz no
pro bou
nábožen ské</w>
nu ty</w>
neuvěři telný</w>
m ří
hlad iny</w>
do dat</w>
cigare ty</w>
bitv ě</w>
šíle ná</w>
typi cké</w>
toale ta</w>
spotřebi telů</w>
se at
rekor d</w>
reali zovat</w>
oč kování</w>
kou kat</w>
za d
váž ná</w>
vede te</w>
s paní</w>
pru ž
podmín kami</w>
nesly šela</w>
mat the
kov ými</w>
doča sně</w>
boha tí</w>
tisí ci
stí ha
rozhod ovat</w>
probu zení</w>
odpoči nek</w>
minu tku</w>
hlou post</w>
fa ši
e p</w>
zajíma vější</w>
význam ných</w>
vlá dne</w>
utí kat</w>
s ů
průměr né</w>
pohře š
po dá
pasa ž
par ťá
ostrov ů</w>
ko čku</w>
hod ině</w>
žád ným</w>
vědě ní</w>
umož nit</w>
ukrajin y</w>
svěd čí</w>
rekla mní</w>
požád ala</w>
náz vy</w>
mě te</w>
mati cký</w>
mar gare
lid ové</w>
del fí
be t</w>
ú stavy</w>
zám ku</w>
z lá</w>
s ná</w>
r .
pou hé</w>
pali vo</w>
mí rně</w>
min g
milov ali</w>
li o</w>
l ho
ku dy</w>
h ly</w>
budouc na</w>
vál kou</w>
vy zna
umí rají</w>
sur f
stro ji</w>
půj čky</w>
pře vzít</w>
pe re</w>
návr há
lan ce</w>
kyber ne
kuku ři
ježi ši</w>
de na</w>
dal šímu</w>
2 1:
ži dů</w>
vra cím</w>
smě ry</w>
ru j</w>
ra si
prázd ná</w>
pr k
por tu</w>
lé če
li sbo
ho ro
če pi
zde jší</w>
z ká
spokoje ni</w>
hospo da
španěl ska</w>
ří man
zml kni</w>
vi nen</w>
ru jící</w>
ro na</w>
při jdeme</w>
pospě šte</w>
pa ris</w>
nemovi tostí</w>
dov ých</w>
do pad
blo k</w>
antar kti
zvý šila</w>
zpo mali
trá vit</w>
su ro
se g
s /
pra ze</w>
organiza ční</w>
ne říká</w>
mě ři
moudr ý</w>
mechani smus</w>
dě cko</w>
8 8
rozumí me</w>
mon t</w>
holi day</w>
bě hat</w>
budou cích</w>
zvu ko
zby tku</w>
zby tečně</w>
vě rný</w>
vě nuje</w>
výbor ný</w>
vzpomí náte</w>
univerzi tu</w>
tov aných</w>
ochut nat</w>
obje v</w>
minist ra</w>
lov ě</w>
for em</w>
bare vné</w>
absur dní</w>
živo u</w>
ži dli</w>
vě čnost</w>
tová rny</w>
při vádí</w>
ple s</w>
kultu ře</w>
ku předu</w>
ku p</w>
byzny s</w>
budd hi
198 5</w>
úloži ště</w>
tov aná</w>
samo tnou</w>
sa mi
připo jte</w>
posí lat</w>
pen sion</w>
lon don</w>
l lo
komuni ta</w>
kole gové</w>
clou du</w>
zu bů</w>
sy nů</w>
sk rom
se e</w>
pře stěhov
psá na</w>
pol dové</w>
po hostin
pal a
nejs la
mo zi
mo na
ma jo
její mu</w>
hla sem</w>
ží zeň</w>
účast nit</w>
zbra němi</w>
zapome ňte</w>
zachrá ní</w>
x box</w>
vzdále ný</w>
vra ždě</w>
uveden y</w>
tane ční</w>
skuteč ného</w>
sbí rat</w>
policaj t</w>
nená vidět</w>
na pít</w>
moti v</w>
l ó
caro l</w>
akademi ckých</w>
z ován</w>
věc mi</w>
si lo</w>
poví dej</w>
ov aného</w>
ne spo
le me</w>
jack son</w>
hy per
0 3</w>
za klá
vytvo řte</w>
spoje nci</w>
pro mluvím</w>
pro hrál</w>
po ma
p san
osob ě</w>
ne přátel</w>
mo ří</w>
hrů za</w>
3 00
účast ní</w>
znamen ala</w>
vysoko školá
tu jící</w>
rá ty</w>
rá j</w>
ovlá dá</w>
o pí
chi le</w>
ará bie</w>
zem ního</w>
zdravo tním</w>
vy tr
sch é
ble sk</w>
západ ním</w>
tem po</w>
stá ří</w>
struktu ru</w>
nekuřá cké</w>
kry t</w>
cizin ci</w>
an -
7 7
š pa
zau j
za slá
uh ni</w>
té hož</w>
spou sty</w>
ru jte</w>
procen tní</w>
p ali</w>
odpo ví</w>
ochot ni</w>
ja ku
do hled</w>
výz vu</w>
vy dí
ve lo
tragé die</w>
spolu byd
server ů</w>
pre venci</w>
nejdůležitě jších</w>
mari o</w>
ger s</w>
cem bur
c ují</w>
c n
book ing</w>
arbi trá
vy pi
vy hodno
se ženu</w>
pře vést</w>
odbor ných</w>
ne nech</w>
instru kce</w>
bi la</w>
z ni</w>
rezi g
patr o</w>
obje vuje</w>
nevin ný</w>
lékař ů</w>
lu cembur
kra va
kle t
důvě řovat</w>
chystá m</w>
žá k</w>
ži vě</w>
vý ra
tří d</w>
sed mi
rov aná</w>
otáz kách</w>
neu trá
kalho t</w>
dokon čil</w>
vlá d</w>
u stupte</w>
karié ře</w>
je tí</w>
dý chej</w>
dosa ženo</w>
do min
car d</w>
4 50</w>
š kr
ře ku</w>
za miloval</w>
význa mně</w>
vy ta
vojen ská</w>
tla čit</w>
mexi ka</w>
kou pí</w>
duch ové</w>
doz víte</w>
brazí lii</w>
a ční</w>
úspěš ná</w>
sv in
re y
při z
dí lu</w>
domov em</w>
celo světové</w>
bohat ší</w>
ban ké
výu ku</w>
vli vu</w>
ver e</w>
spoleh livé</w>
plo chu</w>
ná h
nevě sta</w>
ma k
ko zy</w>
jí dle</w>
hol kou</w>
hod ila</w>
go r</w>
při sti
pá tra
pozo rovat</w>
posta va</w>
poslou chá</w>
per son
koncentra ce</w>
demon stra
část ku</w>
ú hel
zá no</w>
změ nili</w>
z přístup
vý hodou</w>
vz děla
vedou cích</w>
pří t</w>
po vstání</w>
pan na</w>
li sabo
de št
ce lek</w>
- mám</w>
špi oná
vědo mi</w>
vz ná
the a
tel ské</w>
sna ha</w>
při dání</w>
pla tek</w>
natá čení</w>
nalez l</w>
kru hu</w>
gi a</w>
eu rop
vez mou</w>
ur čuje</w>
smě ř
roz lu
při pou
ob drží</w>
ná ra
le da</w>
l hala</w>
ji mž</w>
hi v</w>
gratulu ju</w>
g ó
do zor
by ť</w>
be d
b ím</w>
- cože</w>
ši roce</w>
část ky</w>
vzdále ná</w>
va ní</w>
takov ýho</w>
studen ta</w>
pře jděte</w>
odmít la</w>
ocho ten</w>
mě rem</w>
me ri
latin ské</w>
h nu</w>
dě sí</w>
chod i
še sti
seriá l</w>
s mím</w>
nedo tý
ne mění</w>
mi ze
la jí</w>
hrd inové</w>
c r
anti bio
zá slu
z vedl</w>
vo ní</w>
sear ch</w>
přiká zání</w>
pátrá ní</w>
prostře dní</w>
ná sledek</w>
ni či
nese ní</w>
ne známý</w>
musi c</w>
me jte</w>
ke t</w>
doká ží</w>
bratr em</w>
škod livé</w>
v ový</w>
ture cké</w>
rozklá dací</w>
připraven o</w>
proce du
pro dávají</w>
odpoví dají</w>
o ld</w>
nástro jem</w>
ly ža
di men
star ém</w>
osob u
organiza cemi</w>
o nech</w>
ni ki
nezapo menu</w>
neza č
ne pamatuju</w>
ko šili</w>
grafi cké</w>
e sa
dodáv ka</w>
a y
3 000</w>
výrob ku</w>
tra u
spotře bu</w>
samo tná</w>
pří to
pouš tím</w>
plat nosti</w>
laborato ři</w>
ko ny</w>
co ur
be nou</w>
aktivi ta</w>
ši kov
z ší</w>
neza bí
ma tou
jihovýchod ní</w>
hra j</w>
ga te</w>
ck et</w>
zeměděl ské</w>
vět ším</w>
výbu ch</w>
vyu č
smu tná</w>
připra v</w>
proká zat</w>
podezře lý</w>
p á</w>
odpočin ku</w>
nej deš</w>
l k</w>
diag nó
bojov ník</w>
boha tá</w>
12 5</w>
é ru</w>
zákla dna</w>
vlast ností</w>
součas ného</w>
slo žek</w>
použí vané</w>
maji tele</w>
licen ci</w>
l žeš</w>
kou kám</w>
intera kce</w>
francou zi</w>
edi tor</w>
di nou</w>
ře čí</w>
váš ni
vlá dnout</w>
vi i</w>
spolu pracuje</w>
roz pa
ob jas
o no
je /
gra f</w>
efekti v
cen ti
bu sh</w>
vy dává</w>
to ron
poš le</w>
ne půjdu</w>
musli mové</w>
moř ských</w>
minu tách</w>
lá š</w>
lin ku</w>
k ována</w>
formulá ře</w>
de ale
šle chti
v stal</w>
uměl ci</w>
tý mem</w>
skuteč ností</w>
přísa hal</w>
poč káme</w>
poh ni</w>
obje vily</w>
na razil</w>
na je</w>
mo ra
li ver
jed nalo</w>
infar kt</w>
ho tové</w>
ha jící</w>
ge no
cel kového</w>
5 000</w>
že hne
villa ge</w>
s hov
registra ci</w>
přehrá vač</w>
pěk nej</w>
poví dal</w>
poručí k</w>
le kci</w>
ko de
execu tive</w>
domní vám</w>
dokto rka</w>
byd le
bask et
žehne j</w>
červe nou</w>
vyžá dání</w>
vy nalo
veřej nou</w>
v stu
sedě la</w>
poví dám</w>
považ ována</w>
n ova
králov ny</w>
dosáh ne</w>
c le</w>
bi bli
w to</w>
usil ovat</w>
uprchlí ky</w>
toli ka</w>
spa ce</w>
má my</w>
me zí</w>
lá ká</w>
ka ren</w>
hroz by</w>
fer ra
exper t</w>
chy tí</w>
bu ti
zá měr</w>
zje vení</w>
večer ní</w>
the r</w>
spo r</w>
sa d
pro vedli</w>
polo ha</w>
obsa hující</w>
o ha
děl níků</w>
ci tu</w>
ch en
ca tion</w>
0 4</w>
žd ím</w>
ž ující</w>
vyle z</w>
po sluš
návštěv níků</w>
ne potřebuješ</w>
ne ni</w>
e na
dce ři</w>
bio logie</w>
zele nou</w>
uči ní</w>
unes co</w>
tře tiny</w>
teč nou</w>
pozdra v</w>
poslech nout</w>
památ kám</w>
ová ní
osobu /den</w>
muž ům</w>
kongre s</w>
ko stý
hu h</w>
bu t
198 8</w>
uzav ření</w>
tří du</w>
sebe vědomí</w>
regioná lních</w>
předsta vy</w>
pro cházet</w>
pre j</w>
po myslel</w>
ope ra</w>
ode slat</w>
ne ru
matemati ky</w>
mar ku</w>
lon g</w>
js ou
dostup ných</w>
com ment</w>
šťast nou</w>
šá lek</w>
čte te</w>
vyk ři
trá ví</w>
pol sku</w>
ne vidíte</w>
na čase</w>
na te</w>
histori ckých</w>
argu men
198 7</w>
znásil nění</w>
um řu</w>
trá vu</w>
symp to
so lární</w>
pro brat</w>
podí let</w>
f c</w>
barcelo ně</w>
al gori
š lá
čeká te</w>
zu jte</w>
za d</w>
vz or</w>
vyhrá la</w>
strá vili</w>
stej ní</w>
stanov í</w>
spat řil</w>
potvr dil</w>
poptá vky</w>
po lá
p sů</w>
mz dy</w>
lu pi
katastro f
jakého koliv</w>
he at
cí š</w>
a ta</w>
. it</w>
za o
vla sti</w>
situ ovaný</w>
s m</w>
reali zaci</w>
páki stá
pu r
porov ná
pev ný</w>
p ce</w>
mili on
le v</w>
i -
čle na</w>
zá ruka</w>
zpí vá</w>
z ovány</w>
vo r
tý denní</w>
reali tu</w>
po můžete</w>
ova telů</w>
ni čení</w>
n ském</w>
la na</w>
kom pen
kde s</w>
faleš ný</w>
d iná
che l
ambi ci
198 4</w>
á rní</w>
zastře lit</w>
vypl ý
složi tější</w>
sa s</w>
ně kterým</w>
modu ly</w>
mal in
le tů</w>
l nou</w>
dět ská</w>
de sky</w>
d ného</w>
še j</w>
u vést</w>
tax í
sna hy</w>
přes nost</w>
pr vek</w>
povin né</w>
odjí ž
mi na</w>
ko ber
john son</w>
hmo ty</w>
dáv ku</w>
zane d
vyhra je</w>
tisk nout</w>
spou ště
sou rce</w>
přispí vá</w>
pla ká
mer ce
me dai
l d
kru h</w>
ki a</w>
japon ský</w>
be jte</w>
ú chy
zabi ješ</w>
psa cím</w>
prohlí žení</w>
jedno lůž
hrd iny</w>
e ra
ba bi</w>
a té
zázra ky</w>
z bylo</w>
we stern</w>
uklid nit</w>
ture cku</w>
společ nostmi</w>
pro vedla</w>
pro puštění</w>
objedná vku</w>
o ho
na da</w>
krát ká</w>
investor y</w>
hrani ční</w>
h ry
atmosfé ra</w>
ří dila</w>
vstá vat</w>
scé nu</w>
schvá lení</w>
rů st
ro vací</w>
povole no</w>
podmín kou</w>
pen is</w>
ocen ě
ne známé</w>
muze u</w>
l kou</w>
kri zí</w>
kan c
je sse</w>
hra bě
ho f</w>
grafi e</w>
g un
domá cích</w>
bezpeč ná</w>
žalu dek</w>
ča je/
čaje/ kávy</w>
ztra cené</w>
zrca dlo</w>
vý poče
vzor ky</w>
ur čena</w>
t výho</w>
připra ví</w>
p sí</w>
jak koliv</w>
hlá sil</w>
d nutí</w>
coun try</w>
chová š</w>
ý mu</w>
výbor né</w>
ur čené</w>
slá vu</w>
roz dr
pře četl</w>
profesioná ly</w>
poč ty</w>
oblo ze</w>
nezbyt ná</w>
lete cká</w>
ky tice</w>
kní žku</w>
j ste
hroz ná</w>
h lin
e kvi
dov ou</w>
bě h</w>
tvr do
taj ná</w>
ren ov
ozna čuje</w>
nan cy</w>
na mal
na jící</w>
na dří
kámo ši</w>
komuni stické</w>
kombin uje</w>
i bi
hy dra
che jte</w>
č ci</w>
vl k</w>
re al</w>
prvo třídní</w>
pohov kou</w>
ot cov
obrá til</w>
nej ch</w>
nedovo lím</w>
ko fe
je f
idio te</w>
ha vá
domní vají</w>
chlap ů</w>
a te</w>
zaká zat</w>
společ ných</w>
specifi kace</w>
sla vné</w>
serví ruje</w>
pe ar
nau číte</w>
ma kro
dosa va
a o
2, 5</w>
zá n</w>
zemře š</w>
vý lety</w>
vy brá
vstu pen
u znat</w>
stabili ty</w>
sně hu</w>
skrý vat</w>
roz vod</w>
pro sil</w>
něme ckých</w>
ka sino</w>
ja r
ja cu
dvoj čata</w>
bí lém</w>
č ů
tisí ci</w>
stu du
ri sku
při řa
oto čil</w>
mo stu</w>
doufa t</w>
domní vá</w>
do lní</w>
běž ná</w>
bez pochyby</w>
al bá
řetě zec</w>
řetě z
za mýš
v ší
ta ble
páki stánu</w>
pri va
počítač ových</w>
piz zu</w>
no t</w>
mam ka</w>
d ské</w>
blb ý</w>
admi rá
6 4
zra něný</w>
web ová</w>
way ne</w>
tisk ové</w>
působ il</w>
pohov ka</w>
po volá
ově ření</w>
modlit ba</w>
ki lo</w>
ho ře</w>
h ob
b á</w>
00:0 1:
ště dr
útoči ště</w>
te de</w>
sva z</w>
sa dy</w>
pod ro
nebe sích</w>
ne si
menu tí</w>
kři k</w>
kore ji</w>
katalo g</w>
hy dro
frek vence</w>
dola ru</w>
bude -li</w>
ří k</w>
we e
ukra dli</w>
tri bu
spotře b
publi kováno</w>
prádel nu</w>
propaga ční</w>
posta ví</w>
poku sím</w>
ea st</w>
dvo jí</w>
bel le</w>
za drž
tě šíme</w>
te sto
posi ly</w>
o stří
ma x
fascin ující</w>
ekvi valen
z z</w>
tlačí tka</w>
taj ně</w>
sů l</w>
soukro mém</w>
populá r
poku sy</w>
poku su</w>
pla títe</w>
pi sem</w>
pa st</w>
ode jdi</w>
na ta
komi si</w>
j men</w>
fa c
di vím</w>
úža sně</w>
we i
tri ky</w>
stí t</w>
slu ní
sen ti
ri ch</w>
po líbit</w>
pi í</w>
nákla dní</w>
nez kou
m pe
jedno značně</w>
fit centrum</w>
d ník</w>
ško la
zvlá dli</w>
vyrost l</w>
těle sné</w>
tvr dit</w>
te a
ptá ků</w>
pra v</w>
mu čení</w>
ce k</w>
bal kon</w>
0 5</w>
í cí</w>
zneuží vání</w>
výsta va</w>
si i</w>
potrav inář
nez lo
mezinárod ními</w>
kredi tů</w>
ka bi
inte graci</w>
hla vi
5 00
závi slost</w>
v stát</w>
prů kop
por no
no su</w>
mou th</w>
lů v</w>
e-mai lovou</w>
důleži tost</w>
be zna
ba i
ameri ku</w>
pru d
podsta tně</w>
g alo
der s</w>
brá nu</w>
autono mní</w>
zamě řením</w>
vů r</w>
vo lit</w>
t hy</w>
sní ží</w>
sau nu</w>
pů m</w>
požá r</w>
osob ou</w>
obchod ovat</w>
měsí cem</w>
allá h</w>
ž ních</w>
zkla man
zamě řené</w>
tradi ci</w>
so ny</w>
smr tící</w>
průmys lová</w>
pau zu</w>
oh něm</w>
ob ce</w>
ná leží</w>
kapaci ty</w>
go nu</w>
experi mentální</w>
doporu čit</w>
dobr ém</w>
deta il</w>
ži d</w>
žehli čkou</w>
změ nám</w>
v kou</w>
tep la</w>
systé mech</w>
sla bost</w>
por no</w>
po znám</w>
nes li</w>
nepří telem</w>
ck en
úc tu</w>
svět lem</w>
sle pi
ser va
rozu mění</w>
po vé</w>
nepři ja
mosk vy</w>
ib m</w>
hodi nou</w>
f ú
00:0 3
řidi či</w>
časo pisu</w>
účin ně</w>
záži tky</w>
velvysla nectví</w>
sou hr
pů va
polo žil</w>
ode m
koste le</w>
koor din
ke a</w>
ka to
hu riká
fo n</w>
databá zi</w>
cha os</w>
by ty</w>
bo jíte</w>
bare v
ba ck</w>
- jsem</w>
číň ané</w>
záko no
zvole n</w>
zaru čit</w>
vý stup
ubytov na</w>
ta šku</w>
strá že</w>
si lím</w>
přiká zal</w>
předsta ven
pro rok</w>
po stupu
něme ckého</w>
ne jenom</w>
lí d
li terá
ku ře
ke lly</w>
hod nej</w>
fun gu
ústa vní</w>
zní t</w>
vzni k</w>
vojen ský</w>
set káme</w>
ri tu</w>
připome nout</w>
požadav kům</w>
pisto le</w>
os praved
kopí rovat</w>
k ovány</w>
cho le
š ok</w>
zákono dár
vy ka
smí chu</w>
pře bí
pohř bu</w>
pe ru</w>
li čku</w>
kvali tě</w>
koncep ce</w>
balí k</w>
vybra nou</w>
tá k</w>
spraved livý</w>
sna zší</w>
přijí mání</w>
pot kat</w>
poh lé
pi e
oto čit</w>
investor ů</w>
environ mentá
blíz ký</w>
alo sti</w>
šá k</w>
ř skou</w>
zá vodní</w>
vítá me</w>
va je
turi stů</w>
ri ck</w>
prav ého</w>
posky tujeme</w>
pa to
mě rů</w>
krvá cení</w>
jí c</w>
hu m
hotov ý</w>
ha d</w>
e f
dil lí</w>
davi da</w>
zvláš tním</w>
zem řu</w>
tex ty</w>
pře žili</w>
pre feren
os mi
min u</w>
komuni tě</w>
kla dem</w>
indi ká
hle dy</w>
galaxi e</w>
ali ta</w>
zápa sy</w>
trval ý</w>
svobod ná</w>
sun dat</w>
regu la
od říz
nej těžší</w>
mal í</w>
ma sku</w>
le želo</w>
do klady</w>
čin ů</w>
čin il</w>
situa cích</w>
pokoje /</w>
pi ly</w>
p tali</w>
ne je
im pé
gen y</w>
co m</w>
chybě l</w>
ca ter
zúčast nit</w>
uh li
ti vy</w>
studi os</w>
sto jíš</w>
pl no
ob ča
nahra dí</w>
margare t</w>
le r
kry tí</w>
kam koliv</w>
gh t
exi stov
disku ze</w>
al fa</w>
akti va
0 6</w>
š rou
zmrz linu</w>
zasta ra
zamí t
vdě čná</w>
teplo tu</w>
sh e</w>
ren t</w>
představ oval</w>
proná jmu</w>
pro šli</w>
premié ra</w>
lete ctví</w>
kvalifi kace</w>
kov i
klien ti</w>
ev ro
ele c
dí váš</w>
doktor ko</w>
ba b
2. 0</w>
z mra
wal ter</w>
u skuteční</w>
tý mů</w>
prodlou žení</w>
problé mům</w>
pra vým</w>
pa stý
ova cím</w>
ok ně</w>
neza staví</w>
kontinen tální</w>
identi ty</w>
dosta tečné</w>
chy tili</w>
car rie</w>
be ll</w>
al li
al bert</w>
ži vých</w>
za cházení</w>
wil le</w>
vy ha
tradič ním</w>
teore tické</w>
stě hu
singapu r</w>
se ň</w>
pě stí</w>
pohy by</w>
po wer</w>
od vá
od pustit</w>
nenávi sti</w>
ma to
ka zach
hro bu</w>
ho spi
geni ální</w>
chorvat sko</w>
5 /
20 30</w>
žen e</w>
čin ě</w>
závě ry</w>
zlodě ji</w>
zabi jí</w>
vraž d</w>
spo rů</w>
ra meno</w>
que en
příbě hů</w>
pá tý</w>
ožen il</w>
kultu rního</w>
dlu žíš</w>
desig né
de stru
bezplat ná</w>
ar ts</w>
zd í</w>
straš ný</w>
situa cí</w>
sa mého</w>
recen zi</w>
představ ovat</w>
pat řil</w>
one n</w>
obsa hem</w>
nes mím</w>
kopí rování</w>
klimati cké</w>
k ve
jí címu</w>
do staly</w>
ře cké</w>
čer ného</w>
výu ka</w>
vy volat</w>
to uží
pořád ný</w>
ko smo
ko men
i mu
eviden tně</w>
živo tnost</w>
řa dou</w>
smá l</w>
pá r
poli cy</w>
po tru
na no
li ště</w>
le y
in ový</w>
h něte</w>
e ste
bri an</w>
197 0</w>
vyso kého</w>
vy jí
uhli či
tábo ře</w>
te pel
sv lé
stu r
roz děl
recep t</w>
re l</w>
přirozen ý</w>
odstav ce</w>
netu šil</w>
neh ty</w>
kolá če</w>
ji m
islá m</w>
dub rov
ber nar
španěl ské</w>
zavaza dla</w>
vě čný</w>
stě hovat</w>
skle ničku</w>
sco tt</w>
s d
připa dám</w>
pro saz
poz ů
poslá ním</w>
nov o</w>
indi cké</w>
hrá ch</w>
dokto ři</w>
do šel</w>
tře te</w>
před chů
prodej ce</w>
otevře nou</w>
neumí š</w>
le c
kv anti
je hov
ex tre
e-mai lové</w>
ví za</w>
sdě lit</w>
prá sk
občerst vení</w>
nezapo menu
nez kla
neu m
ne všiml</w>
domo rod
chri sto
a va
0 8</w>
vy řídit</w>
vla ky</w>
su peri
sna žte</w>
singapu ru</w>
sestro u</w>
po vod
pla cené</w>
pane lu</w>
o pustí</w>
nu da</w>
nedo z
křesťan ské</w>
i pho
gra ční</w>
dino sau
anto nio</w>
zat čení</w>
vy m
trénin ku</w>
souse dy</w>
pá ru</w>
po pel
neu dělá</w>
míst ním</w>
le tích</w>
kámo še</w>
kamará dky</w>
her mi
děsi vé</w>
ch vi
afri cké</w>
90 .</w>
ško dí</w>
zou f
ze r</w>
začá teč
ver ti
va dit</w>
tře ba
tro ji
t cích</w>
stá vajících</w>
scé ny</w>
klini cké</w>
zí t
uše tří
tradič ních</w>
tenden ci</w>
t hor
stro jem</w>
sp i</w>
sk li
rela tivní</w>
r ných</w>
pří měří</w>
práv ního</w>
paro há
ode jdu</w>
letoš ním</w>
d vůr</w>
ci al</w>
cen tů</w>
y an
tá t</w>
stanov ení</w>
s ových</w>
re i
poli s</w>
podě lit</w>
pla til</w>
pani ka
o ken</w>
ní .</w>
ne buďte</w>
nasa zení</w>
my š</w>
islá mu</w>
hongkon gu</w>
duše vního</w>
dne š</w>
ší řit</w>
změ nily</w>
wor k
vní mání</w>
van u</w>
syn dro
seriá lu</w>
samosta tné</w>
pá ch</w>
nádher ně</w>
me ši
ka ch
ga r</w>
ar ti
úspo ry</w>
zlepš uje</w>
výbě rem</w>
vyhod ili</w>
vstří c
sá l</w>
smě n
sekun dy</w>
rozu mu</w>
roz pozná
rov y</w>
přija ta</w>
posád ka</w>
kon sta
d ge</w>
ciál ního</w>
bá zi</w>
zal í
u přednost
přátel ský</w>
poro du</w>
nebo li</w>
nas hledanou</w>
nabíze t</w>
mel bourne</w>
ma ry
le i
kra j</w>
intera ktivní</w>
euroz ó
ca esa
a v
či stou</w>
word press</w>
výda jů</w>
vy sto
tex as</w>
rozmani tost</w>
regu lace</w>
přátel ské</w>
použi ta</w>
pa dej</w>
nu tá</w>
mě nové</w>
leh čí</w>
jacu zzi</w>
6 9
zmi z</w>
vědo m</w>
vy stav
tcha j-
společ ná</w>
podob u</w>
plá nů</w>
nov í</w>
lo ká
jedno tku</w>
inter ní</w>
chystá te</w>
zásil ky</w>
vliv em</w>
u vedení</w>
to tálně</w>
strý ček</w>
sovět ského</w>
pustí te</w>
pi lu
od díl</w>
new sle
nes hod
mili oná
kon vici</w>
jed ny</w>
hov ory</w>
gal le
fanta stické</w>
vysky tuje</w>
vyhlí dky</w>
tre zor</w>
tou hy</w>
příkla du</w>
par ní</w>
nev ší
knihov ně</w>
hote lový</w>
0- 2016</w>
žlu té</w>
zé land</w>
zjist ím</w>
zasta vili</w>
x ní</w>
v ém</w>
sí tích</w>
sovět ský</w>
sever ním</w>
sed ím</w>
ospraved l
ní ček</w>
nu tnosti</w>
nov ému</w>
na stane</w>
logi i</w>
kyslí ku</w>
vytá hnout</w>
v rt
tma vé</w>
ta gy</w>
t …</w>
stra nách</w>
stave b
sta tion</w>
scé ně</w>
rozhod nete</w>
pek ing</w>
nort h</w>
mý lil</w>
křiž ova
kon ala</w>
e re
da ta
ar te
amba sá
4. 0</w>
van ého</w>
sum mitu</w>
smě s</w>
smys lu
rov aných</w>
přistěhov al
prá dla</w>
po tu
po divné</w>
obje vovat</w>
ob jí
nale zena</w>
médi ích</w>
krá va</w>
jo nes</w>
dovole no</w>
dis ney</w>
d ře</w>
cír kvi</w>
7 8
3 60</w>
část ka</w>
zla tá</w>
zdra vější</w>
vy stří
po sezení</w>
p py</w>
obje ktů</w>
matemati ka</w>
kon zo
japon ci</w>
hý bat</w>
ham ma
e sto
dostá vají</w>
do sti</w>
buržo a
agen ta</w>
ští tek</w>
čí tání</w>
vá ni</w>
vla ková</w>
s padla</w>
p tají</w>
otevře na</w>
neobvyk lé</w>
na podob
mimin ko</w>
ká ř</w>
ja b
guest house</w>
dí t</w>
du m</w>
tři ceti</w>
tvor ba</w>
ti ku</w>
svěd ků</w>
pře vra
ova če</w>
moudro sti</w>
konfli ktů</w>
h ům</w>
ctv o</w>
chy ť</w>
chiru rgi
bí lou</w>
bakte rie</w>
azy l</w>
věr nost</w>
vrtul ník</w>
u jícím</w>
sdě lení</w>
posou zení</w>
ohro mující</w>
odha lení</w>
ode jde</w>
obje mu</w>
mon t
m t
ke cá
ja cob
ho t</w>
fil tr</w>
běž ných</w>
tri čko</w>
tram va
toale tou</w>
sto lní</w>
ste ru</w>
při poj
profi lu</w>
ochran né</w>
nezaměstna nost</w>
nemovi tosti</w>
mari na</w>
ch tu</w>
bo hů</w>
šampa ňské</w>
řen i</w>
w he
ta ge</w>
požadov ané</w>
použí ván</w>
ob čan</w>
ni gé
naslou chat</w>
mo lly</w>
minu lé</w>
me mo
h z</w>
ci zích</w>
ale r
2 1
žu pany</w>
špina vé</w>
ďá b
zahá jit</w>
zahra dní</w>
to nová</w>
sta tes</w>
společen ský</w>
si m
radi ká
elek tři
distribu ce</w>
dan ém</w>
a spi
za pal
vě cem</w>
vyprá ví</w>
sum mit</w>
spokoje ná</w>
smí šené</w>
sest řen
před sed
pře kladu</w>
pro kurá
na dějí</w>
mov ého</w>
micha ela</w>
leg álně</w>
kreté n</w>
korá n</w>
i tu
finan čním</w>
chica gu</w>
asisten t</w>
žádo stí</w>
zá ři
ztra cený</w>
zi nec</w>
zem řou</w>
vege tariá
uli c</w>
tvůr čí</w>
tan cu
stou pila</w>
rost lin
pro st
neomezen ý</w>
mla dík</w>
le ne</w>
centra li
ce jí</w>
býval ého</w>
benzí n</w>
ba d</w>
atmosfé ře</w>
zlo mil</w>
té mat</w>
se šli</w>
rů ží</w>
předsta vila</w>
propuště n</w>
použi je</w>
nějak ých</w>
no sím</w>
nezávis lý</w>
ne mohlo</w>
m ky</w>
koru na</w>
er s</w>
chova jí</w>
zdravo tních</w>
u bí
seh nal</w>
sa tan</w>
s děl
opti mální</w>
ně ným</w>
ná poj
inžený r</w>
hr dí</w>
douf ala</w>
dob ách</w>
198 6</w>
zna č
vývojá ř</w>
s ňa
ru n
rodi čov
ro zení</w>
průzku m
plo chy</w>
li vými</w>
kou li</w>
komunika čních</w>
izrael ské</w>
gen tle
firefo xu</w>
do ru</w>
197 9</w>
řízen é</w>
ter ry</w>
sta teč
příči na</w>
pís nička</w>
prochá zka</w>
par ti
ně la</w>
nezaměstna nosti</w>
mi ra
m ování</w>
kráde ž</w>
ga mi</w>
fre d</w>
douf á</w>
doporu čené</w>
tu ni
superi or</w>
sto jíme</w>
ro v</w>
podla ze</w>
plane t</w>
pla kat</w>
pla cení</w>
ok nem</w>
li te
le sů</w>
kucha ř</w>
hi gh
gen e</w>
dáv ka</w>
a tion</w>
a nem</w>
stí ny</w>
při dru
ps aný</w>
premi um</w>
pal ce</w>
obchod níci</w>
nej líp</w>
jak e</w>
získá vání</w>
ve šel</w>
stře še</w>
schrá nky</w>
obje ktu</w>
o pustili</w>
meto du</w>
li ght</w>
kop ce</w>
kní žky</w>
in fi
há te</w>
cí tíme</w>
ch va
anti vi
agen ti</w>
zít řka</w>
výmě nou</w>
vyža d
ozbroje ných</w>
odpoví da
nej jednodušší</w>
nej dražší</w>
mi ssi
kole kti
ja rní</w>
de c</w>
wat ch</w>
tha n</w>
te ď
super marke
stře diska</w>
pr ší</w>
nedí vej</w>
lov it</w>
lhá ři</w>
le tím</w>
kavá rně</w>
jez te</w>
he len</w>
dál nici</w>
z has
uděl alo</w>
techni ku</w>
stoup á</w>
se o</w>
pro lo
ply ne</w>
pla tím</w>
ně kterými</w>
monito rování</w>
minu tová</w>
kry sy</w>
heli kop
f au
ar mé
ší řka</w>
z mlá
vy spat</w>
ve př
te sla</w>
poptá vku</w>
nepři šla</w>
nej delší</w>
mau ri
kup uje</w>
kuf r</w>
kar tá
kade ř
genera cí</w>
ab by</w>
00:0 6
0 7</w>
ž vý
význam ným</w>
vol ném</w>
ukáz ali</w>
skon čení</w>
sekun du</w>
rá tu</w>
obyčej ně</w>
lá k</w>
loň ském</w>
kno f
bru se
znov u
wa ter
transak cí</w>
sto pa</w>
sle vu</w>
roz poznat</w>
regi stru
pěk nou</w>
pre siden
ochra nou</w>
new yor
nedosta neš</w>
mr z
le ni</w>
har vey</w>
f 1</w>
ca ther
boj ové</w>
ba víme</w>
19 60</w>
0 9</w>
zveřej nění</w>
van ě</w>
u čím</w>
tou r</w>
speciali zace</w>
rozto milé</w>
otevřen ě</w>
nu ly</w>
nehý bej</w>
mi ss</w>
le da
kasi na</w>
in ka</w>
h no
fyzi cky</w>
experi men
dovo z</w>
ci oni
bra tra
blu e
zdá n
we n</w>
vě dě</w>
vyp ni</w>
pro gre
po chod
peněžen ku</w>
omlu vu</w>
mlad ého</w>
le vný</w>
kre sli
hlou bě
feno mé
dří vější</w>
abso r
ti sla
spokoje nost</w>
sou cit</w>
při hlaste</w>
poš to
po niž
palu bu</w>
ma da
kyslí k</w>
katastro fa</w>
jen ny</w>
jed í</w>
fotoapa rát</w>
chud é</w>
ben ja
ba vili</w>
4 /
00: 5
tu jete</w>
sest ře</w>
r ného</w>
půj čil</w>
pozna tky</w>
o pal
muse ly</w>
de ště</w>
a sa
úpl ná</w>
vstou pila</w>
uspoko jení</w>
tr val</w>
pří mou</w>
po trvá</w>
odha d</w>
nedosta tky</w>
na vý
kontej ne
do padlo</w>
cu krov
ar a</w>
1. 1</w>
… …
šat nou</w>
čtvrt á</w>
tr vala</w>
rozhod čí</w>
pá n
or ga
on g
omy lem</w>
no min
ne a</w>
mo men
lu jeme</w>
ital ská</w>
intu i
hi gh</w>
bo ot
če š</w>
výmě ny</w>
vzác né</w>
vyhod il</w>
vi sta</w>
tvůr ci</w>
telefo n
se mi
priori tou</w>
po še
odve ďte</w>
no n-
nepří zni
mist ra</w>
kli ma</w>
důstoj nost</w>
dovo lil</w>
anga ž
ří ši</w>
zá měrně</w>
su jí</w>
pří nos</w>
potí ží</w>
ne stěž
lou n
kyvad lová</w>
kup óny</w>
králov nu</w>
hed vá
h nul</w>
farmace u
ex port</w>
do hledu</w>
char li
čas ování</w>
z ována</w>
ture cka</w>
trans plan
sou řa
sl ali</w>
růž ové</w>
ro h</w>
pro mo</w>
pro dáv
n sko</w>
m ber
lí ky</w>
ko ní</w>
klasi cký</w>
in tel</w>
do lo
9 9
zouf ale</w>
výbu chu</w>
vel cí</w>
užiteč ný</w>
smu tek</w>
probu dit</w>
obra na</w>
ob orů</w>
neu ká
na jal</w>
mat t</w>
l nímu</w>
ka mi
ir sku</w>
identifi kaci</w>
her ci</w>
domác ností</w>
de velo
dale ko
cam bridge</w>
bá sní
bulhar sko</w>
ť me</w>
willi a
vu l
tá me</w>
trou bou</w>
te ti
tane č
si n</w>
samosta tná</w>
rozlou čit</w>
pra sa
poš ta</w>
plo cha</w>
ov li
od da
mal á
l ží</w>
ge re</w>
da tové</w>
charlo tte</w>
brit ského</w>
bod em</w>
bo n</w>
zvyš ovat</w>
zby tky</w>
vě čné</w>
vyzkou šejte</w>
va le
svěd ka</w>
star ým</w>
skvě lej</w>
secu rity</w>
připo jil</w>
pl ném</w>
hodi lo</w>
eko logické</w>
dě lo
co sta</w>
ad ri
z lepší</w>
vý stup</w>
veli telství</w>
portugal sko</w>
pad nou</w>
ovli vní</w>
kul ka</w>
infrastruktu ru</w>
ho lo
bez prostřed
za jist
výjime čný</w>
služ bami</w>
si lách</w>
s ních</w>
rá dy</w>
připoje ním</w>
pan ov
osob ám</w>
oba v</w>
králov ská</w>
kalendá ře</w>
hou by</w>
diplo m</w>
afri cký
ze j</w>
zalo ženo</w>
zabrá nilo</w>
stě ží</w>
spotřebi tele</w>
soutěž i</w>
pá ně</w>
návštěv níci</w>
neu spě
nes pl
konver zace</w>
iniciati vy</w>
dosa huje</w>
chy ťte</w>
bre čet</w>
ře z</w>
věz ni</w>
si ro
sa telit</w>
průbě h</w>
postup u</w>
para di
opera čního</w>
občan ská</w>
o byt
nápo j</w>
minu le</w>
kole kce</w>
in ti
i .
do razili</w>
bal konem</w>
š a</w>
velko ry
sou stavy</w>
sa in
ro vým</w>
použí val</w>
po psal</w>
nechy bí</w>
ho lu
da mu</w>
bratra nec</w>
al ží
zamě řen</w>
výjim ky</w>
vý ši
vz dání</w>
vysokoškol ské</w>
tre stní</w>
sti na</w>
sti e</w>
spoko jen</w>
souhla sila</w>
pří čin</w>
nesná ší</w>
moun t</w>
lá tka</w>
li sty</w>
kompi lá
enter pri
dív kou</w>
cor pora
ameri ckém</w>
zů staly</w>
získá vá</w>
zi mu</w>
zdůrazni l</w>
vě d
vyprávě ní</w>
tou hu</w>
tlu stý</w>
ti ci</w>
sním ků</w>
slov í</w>
potvr zuje</w>
plod y</w>
moř ská</w>
li ne
hroz bou</w>
for ce</w>
du jeme</w>
čtyři krát</w>
ze zadu</w>
přesmě rováno</w>
pá lí</w>
odbor ník</w>
maďar sko</w>
kra j
iná l</w>
institu te</w>
h ni</w>
bangko k</w>
80 .</w>
6 7
ředi telem</w>
če ský</w>
zi lo</w>
umí stit</w>
u cho</w>
tla čí</w>
studij ních</w>
stanov it</w>
s hledanou</w>
příbu zní</w>
pré mi
progra má
nedo rozumění</w>
napl no</w>
nabí dne</w>
mi cke
ma j</w>
kle sa
ja cka</w>
generá la</w>
franci sco</w>
e de</w>
de s
zří dka</w>
zamě ř
veřej ném</w>
su rov
sbě ra
překo ná
nej mladší</w>
lin ii</w>
kompati bili
klá ve
jose f</w>
elektrá rny</w>
do dání</w>
c z
b ruce</w>
využi jí</w>
var d</w>
turi sty</w>
sklad ování</w>
sedě li</w>
s alo
rozum né</w>
re pu
os ví
ne známe</w>
ne nechá
ma cu</w>
leh ký</w>
hospodář skou</w>
gan g</w>
diplo mati
cit livé</w>
a pošto
- o</w>
za dat</w>
vyrov ná
stá tům</w>
stru m</w>
sluš né</w>
pozd ní</w>
okra ji</w>
ne šel</w>
ma sky</w>
korup ce</w>
i .</w>
f lá
dí váte</w>
do lu</w>
do kazuje</w>
de bil</w>
ce ň
bři cho</w>
arthu r</w>
č nímu</w>
zobra zuje</w>
uvaž ovat</w>
udržitel nosti</w>
tu ješ</w>
ste ven
pře pa
pro g
poskytova tele</w>
po t</w>
měst ská</w>
major e</w>
la w</w>
hal lo
exist oval</w>
﻿﻿ ﻿﻿
živo to
úto č
w -
sym pati
produk ovat</w>
po me
pev nosti</w>
osamě lý</w>
oblé kání</w>
ná jem</w>
fa zo
byd líš</w>
bm w</w>
zmr de</w>
vu j</w>
symbo lem</w>
stráž ce</w>
strá vila</w>
sledov ala</w>
přeprav u</w>
měst ských</w>
me ga
manche ster</w>
l ha
há ním</w>
ho ru</w>
důkla dně</w>
com pany</w>
chví lí</w>
bruse lu</w>
bankov nictví</w>
a o</w>
1 20
ště né</w>
číň an
zobra zovat</w>
změ nou</w>
vzkří šení</w>
tvor bu</w>
t ing
stře lec</w>
sle y</w>
ry sy</w>
roze šli</w>
roz sudek</w>
pokry tí</w>
ne ví
ma turi
hov ala</w>
hloubě ji</w>
gen ní</w>
doz věděli</w>
dola ry</w>
d ha
co lum
chur ch</w>
vě noval</w>
ta s</w>
spe ciálních</w>
soustře dě
slo žka</w>
přísluš nými</w>
pě tkrát</w>
pe ter
o su</w>
nechod í</w>
ne jedná</w>
laska vě</w>
kles l</w>
do k
bi ku</w>
člu n</w>
á zer
vz tek</w>
vol no
ven ých</w>
upí r</w>
tvo ry</w>
te ddy</w>
s od
re u
pří činu</w>
prů švi
proro ctví</w>
pro hrá
of f
krité ria</w>
ji stej</w>
i pod</w>
e x</w>
de zer
ce nej</w>
ab sen
úro kové</w>
zni čila</w>
vati ká
stá tním</w>
sobo ta</w>
simo ne</w>
si mon</w>
rozši řuje</w>
re vi
pří stupo
py tel</w>
pi lí
odhod lání</w>
l ler</w>
kalo rií</w>
dodavatel ů</w>
administra tivní</w>
způsob ené</w>
za le
věz ně</w>
obe c</w>
ná roky</w>
největ šího</w>
ne tu</w>
ko řen
glob ali
da v</w>
cele bri
bar ů</w>
aby sme</w>
ú stav</w>
zved něte</w>
ublí žil</w>
táh něte</w>
techni cký</w>
stra sse</w>
přita huje</w>
pri vi
pe re
net work</w>
nejčastě jší</w>
mike u</w>
me dví
kom fort</w>
domi nan
do mně
dlouhodob ý</w>
di cí</w>
deva te
ca ssi
ú der</w>
zása dě</w>
zo hled
wiki pe
vzta zích</w>
umě lce</w>
syst em</w>
stu jí</w>
so novi</w>
ptá ky</w>
proto ž</w>
považ ovány</w>
o těhot
minu tami</w>
legen da</w>
law ren
kone čný</w>
jaký mkoliv</w>
ha na</w>
fil tro
angli ckého</w>
akti va</w>
abra ha
ča sté</w>
ú de
zá vody</w>
vyvolá vá</w>
systé mové</w>
sklení kových</w>
příspě v
prá vech</w>
poža duje</w>
pova hy</w>
nez lob
je j
do jdu</w>
chy bu
chica go</w>
bo y
an t
10 :
ř ku</w>
vě ta</w>
svo lení</w>
nedoká zala</w>
ka tie</w>
hor ký</w>
hodi nami</w>
hlav ními</w>
gol d</w>
g m</w>
energeti ky</w>
doplň ků</w>
d něte</w>
c s
báje čné</w>
a ga
za zpí
vz pou
technologi ckých</w>
ste v</w>
sli by</w>
přehrá va
pě ta
poskyt l</w>
pi kni
nez mí
ne hle
na va
manaže r
kon gu</w>
do hledem</w>
vzrost l</w>
tra ce</w>
sená tu</w>
se bral</w>
s mů</w>
pře sou
prokle tí</w>
počí naje</w>
por sche</w>
ne mlu
ne líbilo</w>
nau čte</w>
na chy
lí bíš</w>
lux u
leta d
lan g
k vět</w>
inter disciplinární</w>
ec b</w>
dov ě</w>
da s</w>
bou cha
ber g
čerst vý</w>
ú te
zá vodu</w>
včere j
vyře ší</w>
vysvět lovat</w>
ro s</w>
pocho pila</w>
pobře žní</w>
pe t
níz ko
le sní</w>
kapitali smu</w>
jmen ovala</w>
insta gram</w>
formá ch</w>
chu dí</w>
balí čky</w>
žá ků</w>
zajíma vých</w>
vyba ven</w>
tá n</w>
suro vin</w>
předpoklá dat</w>
peně zích</w>
oce l</w>
lo ty
konkuren ci</w>
in bur
ce re
bí lých</w>
apart ment</w>
výhod a</w>
vá lek</w>
vrch ní</w>
vod ních</w>
uži li</w>
sh an
repor té
předlo žit</w>
po povídat</w>
o ře
na tali
ma sivní</w>
ky le</w>
kom pre
kom for
již ním</w>
ch ty</w>
blb á</w>
b ala</w>
00:0 4
ři na</w>
zasta vila</w>
zamilov ala</w>
val ley</w>
v ku
st é
ro d</w>
pů da</w>
neu dělali</w>
ne te
mě nu</w>
mine rá
le vou</w>
kuf ru</w>
helikop té
dotk l</w>
ck é
ó z
vá hy</w>
vyz val</w>
vykoná vat</w>
vy vinout</w>
třeba že</w>
pro s
popla ch</w>
ote ch
od volá
ná vod</w>
nu s</w>
krimin ál
kontak tů</w>
kla ví
ital ský</w>
in ů</w>
i da</w>
do na</w>
by tů</w>
- díky</w>
z hub
th ane</w>
ter mi
stíž nosti</w>
stor y</w>
soli da
sam sung</w>
ry bu</w>
ri ch
pá s</w>
opa kování</w>
od pla
oblíben ým</w>
nevy ža
ne měj</w>
nazna čují</w>
nad šený</w>
li nes</w>
ide álním</w>
hvěz du</w>
fre y</w>
e a</w>
198 1</w>
špat ným</w>
u -
nabí zeny</w>
ly ho</w>
hlad inu</w>
di u</w>
cir ku
15 -
to čit</w>
stří lej</w>
studen á</w>
s é</w>
rozví jí</w>
ode brat</w>
ne re
mí rové</w>
m po
li sa</w>
le žel</w>
le vá</w>
ků v</w>
ko nají</w>
js kou</w>
den íku</w>
chang e</w>
bá j
š iny</w>
zni čili</w>
vyma zat</w>
tvůr ce</w>
stran né</w>
st ím</w>
sloven sko</w>
sezó ny</w>
příprav ě</w>
pronásled ování</w>
perfek tně</w>
odmě ny</w>
od volání</w>
ná řadí</w>
no te</w>
ne cké</w>
lo ži
kři čí</w>
kouz la</w>
kou ř</w>
izrael ský</w>
i c</w>
hr del
dokon čena</w>
cigare tu</w>
ch ý</w>
cather ine</w>
c ovou</w>
š kami</w>
za vede</w>
vý šky</w>
vz buď</w>
ve stavě
uži j</w>
u tě
tech nickou</w>
stej ných</w>
slu chá
scé na</w>
pře stali</w>
progra mem</w>
pro jí
potá pění</w>
poru chy</w>
podob á</w>
po o
obě d
noviná ř</w>
na klo
loň ského</w>
g ov
fo tek</w>
filipí ny</w>
fanou šky</w>
bohy ně</w>
// www.
že mi</w>
šíle ně</w>
zlepš ovat</w>
vy vo
vteř inku</w>
t ným</w>
stro ng</w>
so r</w>
při veďte</w>
potenci álu</w>
o považ
kra je</w>
explo rer</w>
car l</w>
b ani
akti vovat</w>
197 5</w>
še lo</w>
vzru šení</w>
so l</w>
rov nost</w>
re zor
ova cího</w>
obá vat</w>
ob klí
na me
miche lle</w>
m …</w>
jack ie</w>
fanouš ků</w>
e p
de le
blo ku</w>
198 2</w>
zdravot nických</w>
v ními</w>
transfor mace</w>
terape u
tatí n
správ ě</w>
risk antní</w>
pod zemní</w>
o šetření</w>
jak koli</w>
dneš ních</w>
an tho
standard ů</w>
py šná</w>
poví dali</w>
pot ká
pod rá
ná dr
koši le</w>
irá k</w>
en t</w>
ba si
adre se</w>
zodpově dní</w>
ze sí
vteř inu</w>
test ovací</w>
sty ku</w>
připra vili</w>
pře mí
pro hlou
poža d
ob da
nesmys ly</w>
na padl</w>
leta dlem</w>
kompilá ce
f s</w>
děl níci</w>
dovo lí</w>
cest oval</w>
bi sku
šé fem</w>
š ko</w>
či stí
úko lu</w>
zrca dla</w>
zdů vod
y ar
vy je
stý ská</w>
sp ím</w>
sezó na</w>
při vá
použí vali</w>
ne znal</w>
libe rá
le ných</w>
krás ných</w>
klíč ovou</w>
její mi</w>
da te</w>
chro me</w>
brit ských</w>
zdůraz ňuje</w>
výta hu</w>
ved le
tře tinu</w>
taylo r</w>
spoleh livost</w>
sbo ru</w>
s vitu</w>
přepí nám</w>
po znamenal</w>
lé t
kři čel</w>
konfli kty</w>
hrub ý</w>
ge l
ba se</w>
šeri fe</w>
zvy k</w>
vyhov ě
tvo ři
stří lí</w>
po stý
po pá
parohá č
ohro ž
nej populár
nebo jí</w>
ne dokon
libe rální</w>
komponen ty</w>
hra bě</w>
cob y</w>
17 0</w>
úspě šní</w>
zaklada tel</w>
te rová</w>
schů zka</w>
promě n
okol nosti</w>
odhod lá
ně jací</w>
na ný</w>
mr tev</w>
dý chání</w>
bra tran
žá ky</w>
čí slem</w>
x p</w>
ví tám</w>
tá to</w>
sk la</w>
rozsáh lou</w>
poš tu</w>
lo ck</w>
kres lit</w>
jezd em</w>
foun da
fo x</w>
f é</w>
evrop ském</w>
dra k</w>
doz ví</w>
ban kro
ban da</w>
zá pla
zkou má</w>
zač neš</w>
vlast nit</w>
to wer</w>
pro síme</w>
považ ováno</w>
na mo
mon strum</w>
krá sky
katal á
jed la</w>
hy p
hospo dy
gol d
di ště</w>
di ci</w>
5 -hvězdičkový</w>
žá n
tov ém</w>
ta ma</w>
t ci</w>
sta tu
pří jezd</w>
proje vuje</w>
pocho pí</w>
pat řit</w>
ode z
obchod ech</w>
o cení</w>
ná hrdel
lid sko
kontinen tu</w>
histori cký</w>
hil ton</w>
fanta zie</w>
efe kty</w>
c ali
be ze
be i
balí čku</w>
a pod</w>
196 9</w>
šen ého</w>
zabijá k</w>
st ry</w>
shromažď ování</w>
přesvěd čil</w>
pochybu ji</w>
nezávis le</w>
nena jdete</w>
nejznámě jší</w>
l ná</w>
komi k
for du</w>
důkaz em</w>
brat rovi</w>
ber ry</w>
adre s</w>
9 11</w>
6 6
, 00</w>
čini dlo</w>
vy kop
tra sy</w>
tan k</w>
sně dl</w>
po ta
odsou zen</w>
no rem</w>
nejvyš ším</w>
ke vin</w>
há nět</w>
frek ven
drá hy</w>
bás ník</w>
bi a</w>
z alo</w>
vy slý
vesmí rné</w>
va jícím</w>
v nou
udrž ování</w>
star tu</w>
sateli tním</w>
ry bí</w>
při mět</w>
pro vi
poř ad</w>
po rod
or le
námořnictv a</w>
mra mo
le re</w>
jeruzalé ma</w>
hla dina</w>
še l
še desát</w>
š tít</w>
ří dili</w>
čen ého</w>
če tné</w>
úto čí</w>
zvyš ují</w>
vze stup</w>
uta jení</w>
spá chal</w>
smě ná
ry an</w>
přev lé
potře tí</w>
och rání</w>
obhá j
námořnictv o</w>
nedo sáh
jen ni
han nah</w>
ce j</w>
bu ry</w>
197 3</w>
zpo mal</w>
zoufal ství</w>
zachra ň</w>
věz ňů</w>
titu ly</w>
te d
smů lu</w>
pru dce</w>
posti žením</w>
ozná mit</w>
obrá bě
o kr
nic a</w>
nepo má
meto di
maz lí
konzerva tivní</w>
ju jící</w>
fó ra</w>
ca se</w>
bra tří</w>
babi čky</w>
ří kej</w>
získ ané</w>
zasí lání</w>
spolé hat</w>
servi ces</w>
reali zace</w>
pora zil</w>
ozna čil</w>
nápad ů</w>
nu kle
nevěří te</w>
mra ky</w>
masá že</w>
hři šti</w>
hongkon g</w>
de e</w>
d wi
d ing
chy bíš</w>
c c
b ing
vin g</w>
v ovali</w>
tisíci letí</w>
tel u</w>
spoje nými</w>
princi pu</w>
pravděpodob ností</w>
po pře
parchan te</w>
novin ka</w>
neu děláš</w>
ne vzpomínám</w>
mar ty</w>
kně ží</w>
kaš lu</w>
k ino</w>
ha rol
dí vají</w>
dlu ží</w>
ar m
řá dek</w>
řen ého</w>
zachy tit</w>
za cházet</w>
urči tá</w>
stani c</w>
pe ra
ohle dech</w>
objed nal</w>
naléha vé</w>
konkré tních</w>
ko nání</w>
klid ná</w>
ima ge</w>
diskrimi nace</w>
4 4
švéd sku</w>
šampi oná
řád ně</w>
zápa sů</w>
přines li</w>
použi la</w>
posta rej</w>
poh nout</w>
ne ra</w>
na stup</w>
mor gan</w>
domá cího</w>
cho zí</w>
chi na</w>
a mo
196 8</w>
živo tních</w>
zvlá dl</w>
za kle
un der
sleč nu</w>
se re</w>
přehrá vání</w>
obě tovat</w>
množ stvím</w>
manže lovi</w>
kte rá
krá lové</w>
koší k</w>
koktej ly</w>
ga y
dů v</w>
dvaná cti</w>
do sti
do ha
chá pání</w>
197 2</w>
zvěda vý</w>
zabi jou</w>
za mo
za ha
stíž nost</w>
re y</w>
pre ce
po klo
gi o</w>
ga me</w>
f ur
cvo k</w>
cen ný</w>
apar ta
čokolá du</w>
zatk nout</w>
ve vnitř</w>
stra nám</w>
st ro</w>
ro y</w>
polo žte</w>
po stupovat</w>
p hy
opa čném</w>
ně l</w>
mimořád né</w>
kri ste
jedi ní</w>
j ma</w>
0 6
ň ovala</w>
způsob ila</w>
ze me</w>
w ale
vzni kají</w>
vy pro
u mýt</w>
techno logy</w>
spl ňuje</w>
rob in
pom sta</w>
ne mysli</w>
lé tání</w>
lov ec</w>
dé r</w>
ba m
a č</w>
zom bie</w>
zkla mal</w>
x em</w>
vyš ších</w>
vlast nost</w>
sha ke
samosta tnou</w>
s che
ru b
organi zovat</w>
následu jícím</w>
líd ři</w>
kancelá ří</w>
hospodář ská</w>
hla sové</w>
he bre
francouz sky</w>
eri c</w>
cha ze
toki o</w>
stro jí
sebe vražda</w>
proběh la</w>
princez no</w>
pou ště</w>
politi cky</w>
o ut</w>
ne musela</w>
ku j</w>
de sk
běž ného</w>
197 0-2016</w>
žalu dku</w>
čtvr ť</w>
č u</w>
zázna mu</w>
přemýš lí</w>
pla cenou</w>
nechápe te</w>
demokra ti
řím ské</w>
zkou šet</w>
ur čeny</w>
sbí rku</w>
s ms</w>
roz či
poz dě
plá če</w>
o mluv</w>
mla di
ml čení</w>
majo r</w>
ma di
generá lního</w>
fó rum</w>
b lo</w>
auto ři</w>
zabi jte</w>
sta ňte</w>
seržan t</w>
se ž
sch val
s pan
pro najmout</w>
prav ím</w>
ob drželi</w>
nu jí</w>
mak lé
hroma du</w>
dí vejte</w>
dá mo</w>
dne te</w>
bri tové</w>
zásil ku</w>
způsob ilo</w>
vývo z</w>
využi l</w>
vlast ními</w>
takové to</w>
stře dních</w>
staro st
sp in
sní žila</w>
ri ck
re sponden
posu nout</w>
po vahu</w>
nale vo</w>
mamin ku</w>
lete ckých</w>
le tá
jste -li</w>
hmy z</w>
dove de</w>
charakter u</w>
bý valo</w>
bra tisla
ba ck
ž ur
zaměstna nec</w>
vý stavy</w>
utí kejte</w>
u chaze
ti ta
stru čně</w>
ro nal
re cy
rakou sku</w>
q l</w>
předmě tu</w>
oži vení</w>
nor sko</w>
neza slou
mart ine</w>
lincol n</w>
informa cemi</w>
cham ti
účin nější</w>
zůsta nete</w>
výzkum níci</w>
ukáz aly</w>
se an</w>
pu ls</w>
posí lám</w>
pa sá
me lod
m mm</w>
krá vy</w>
base bal
ň ovali</w>
z li</w>
titu lek</w>
sušen ky</w>
náru čí</w>
neza čí
le č</w>
jabl ko</w>
inte re
g ini
ed inbur
d d</w>
bo stonu</w>
bláz ni</w>
be ta</w>
197 8</w>
úmys lně</w>
zápa su</w>
zma tek</w>
za kry
z ům</w>
výcvi ku</w>
společen ská</w>
spi knutí</w>
plat ná</w>
personá lu</w>
ne dám</w>
mi r</w>
kro ví</w>
finan c
enterpri se</w>
dve řím</w>
desti nace</w>
ca mp
bod ě</w>
blíz ka</w>
bb c</w>
7 9
zu jete</w>
způsob ují</w>
vojs ka</w>
vo lan
uvol nění</w>
uspě t</w>
symbo ly</w>
skle nici</w>
rozto milá</w>
pár krát</w>
pi n</w>
ne jenže</w>
kvalifi kaci</w>
kon sen
hle ní</w>
budou cím</w>
boha tých</w>
bez domov
čin ění</w>
ča sový</w>
zó ně</w>
zaměstna nosti</w>
psá n</w>
pane ly</w>
os car
obyčej ná</w>
nu tnost</w>
naku pu
koho koliv</w>
isla ndu</w>
fin sko</w>
bezplat nou</w>
00:0 7
zvládne te</w>
vyz ývá</w>
to tální</w>
tel nější</w>
sli tov
skri p
ro lí</w>
ra tes</w>
působi vé</w>
or g</w>
obklo pen
ní cích</w>
la te
kó dování</w>
komuni tu</w>
informa cím</w>
en d</w>
dí vali</w>
cu ry
ck ej</w>
a pol
- dobrý</w>
zítře k</w>
vy nu
vní mat</w>
v r</w>
titu lky</w>
soubo j</w>
slá vy</w>
slyší me</w>
při vedla</w>
před su
podob nou</w>
ode jděte</w>
obliče ji</w>
me te</w>
maxi mum</w>
loun ge</w>
ja mie</w>
ha ck
ferra ri</w>
exce lence</w>
drá hu</w>
dra ma</w>
dr žíme</w>
chrá nil</w>
c ode</w>
agre sivní</w>
úpl nou</w>
yo ung</w>
vy dělal</w>
var nou</w>
turi sté</w>
strojí ren
pohybu jí</w>
očeká vají</w>
od le
nizozem sko</w>
ne pá
na pravo</w>
limi ty</w>
ko ut</w>
k nou</w>
h r</w>
e ra</w>
da na</w>
d ží
ci vil
ří kalo</w>
zahá jila</w>
w i</w>
vě zeň</w>
vý lu
vide u</w>
v s</w>
tě lu</w>
tu ku</w>
troj úhel
tre f
stře dně</w>
sbí rka</w>
salá t</w>
pří chodu</w>
pě cho
prac ujících</w>
posta vu</w>
poku tu</w>
há je</w>
hospodář ských</w>
hlubo ký</w>
dív ce</w>
bro wn</w>
ře cka</w>
we i</w>
wa ter</w>
ve terá
uplynu lých</w>
syste mati
star ším</w>
sha re
sendvi č</w>
ro bert
ra mena</w>
pěst ování</w>
platfor mě</w>
od vézt</w>
obrazov ku</w>
mláde ž</w>
js em
j ob
fin chi</w>
f r</w>
divo ké</w>
cen ého</w>
ar é
židov ské</w>
zá leželo</w>
vze tí</w>
vy ber</w>
vsta ňte</w>
veden i</w>
v klad</w>
troj násob
sly šení</w>
sle vy</w>
s mra
ru ší</w>
relax ovat</w>
pou li
pokou ší</w>
nesa hej</w>
míst ního</w>
loty š
l cd</w>
imuni tní</w>
b r</w>
6 8
vatel ů</w>
umí rám</w>
ubo hý</w>
trů n</w>
s cen
pří platek</w>
přemýšle jte</w>
přede š
použi té</w>
o ční</w>
návštěv níky</w>
nov ej</w>
ne dale
mů ra</w>
lá h
kam bod
jenni fer</w>
ha cke
ří kejte</w>
zota vení</w>
věde ckého</w>
veli tele</w>
un d</w>
ta in</w>
stra vy</w>
souse d</w>
slíbi t</w>
přiblí žit</w>
poten ciálně</w>
pokou šel</w>
podr ž</w>
po řídit</w>
pi je</w>
pe p
oxi du</w>
moc né</w>
lo ď
jmen ován</w>
hodno tou</w>
ci í</w>
autobu sové</w>
účast níky</w>
zé landu</w>
y aho
vol vo</w>
tehde jší</w>
program ování</w>
následu jí</w>
lov o</w>
kole ktivní</w>
desti nací</w>
coo l</w>
bi otech
á n</w>
získá me</w>
zločin ci</w>
vy platí</w>
trá pení</w>
ta šky</w>
sta ral</w>
sa mém</w>
rovnová hy</w>
omlou váme</w>
nech me</w>
metro poli
an tal
vytvo řené</w>
ver zní</w>
sti ku</w>
rozvíje jících</w>
re akcí</w>
pohy bli
ne pořádek</w>
nau čím</w>
me s
léče b
ke s</w>
k ví
jízd en
go od
dáv kování</w>
dovo líte</w>
dou t
da tových</w>
z dají</w>
vypl nit</w>
vi bra
sva ty
sla l</w>
se stře
rozhod uje</w>
romá n</w>
posta vena</w>
podmí ne
per o</w>
pará dní</w>
ne vlastní</w>
ml č</w>
maga zí
ka b
fak tor</w>
býval é</w>
bl be
bezdrá tové</w>
vytvo řeny</w>
vo lní</w>
uspořá dat</w>
svobod ně</w>
san ti
sa ta
původ ního</w>
pís mena</w>
pokle su</w>
pa tra</w>
na ser</w>
na há</w>
ms c</w>
jaká koli</w>
h níz
doča sné</w>
an dr
aktivi tu</w>
19 50</w>
červen ého</w>
če li</w>
z nění</w>
z klid
vy lí
v -
stře chy</w>
str čil</w>
ru šit</w>
ra sy</w>
půjčov en</w>
přizná ní</w>
při veď</w>
propa g
potřeb ných</w>
pho to
p sem</w>
oko lní</w>
nejmoder nější</w>
marsh al
ma rii</w>
kur t</w>
kreté ne</w>
ju pi
hrd á</w>
he al
ca p
au ti
ali tu</w>
abra ham</w>
- jsi</w>
vzta hují</w>
ry bo
ri ver</w>
r ko</w>
při dej</w>
práv níci</w>
prece den
použí vány</w>
parchan t</w>
na rů
kon tin
komo ry</w>
je no
jaká koliv</w>
ho lek</w>
e .
bě žel</w>
blo ky</w>
b n
atmosfé ry</w>
astro nau
197 1</w>
zá ruky</w>
zra něn</w>
vle čení</w>
tabu lky</w>
spolubyd lící</w>
slu ncem</w>
si bi
požá ru</w>
potru bí</w>
pe tere</w>
ohro žuje</w>
o nem</w>
nepře stá
ne řekli</w>
jed nal</w>
ho ward</w>
dluho pisů</w>
an ému</w>
0 7
úsmě vem</w>
vý stři
vy pí
vl ko
va jícího</w>
v lí
tří lůžkový</w>
trap né</w>
tan ky</w>
tak též</w>
pí sek</w>
oplá tku</w>
od teď</w>
ne vrátím</w>
ma tek</w>
lá te</w>
kr ém</w>
hard ware</w>
eli min
ca ste
bra d
automobi ly</w>
arab ských</w>
0 2
ži dy</w>
šen ým</w>
á á
zaslou žíš</w>
z bohat
vysí lat</w>
vy lu
tvrd á</w>
stře d
slov u</w>
sho ra</w>
sa har
prů lo
podnikatel ské</w>
osla va</w>
opatr ná</w>
oh ni</w>
nen tní</w>
e la
blo g
194 8</w>
č r</w>
zábě ry</w>
za jetí</w>
teroristi cké</w>
tera sa</w>
studen tské</w>
rome o</w>
přeč ti</w>
ne půjdeš</w>
mon gol
kří že</w>
kon ali</w>
instan t</w>
hallo we
epidemi e</w>
doda vatele</w>
do čas
de lní</w>
bole stí</w>
analý ze</w>
závaž né</w>
zná mou</w>
vyčer pá
u slyšíte</w>
tu j</w>
tera pii</w>
spon zo
seže ň</w>
představi vost</w>
pro jde</w>
polici í</w>
podpo ří</w>
olympi á
na hý</w>
me trech</w>
lé čení</w>
ko l
k neme</w>
k lon
hu a
da d</w>
byd lel</w>
bi de
é ra</w>
v ložte</w>
subje kty</w>
so s</w>
předná šky</w>
pís ní</w>
poh r
pi x
o na
newsle tter</w>
nevy svět
na padá</w>
na cházíte</w>
my čku</w>
ma fi
kra dl</w>
jedine čná</w>
hospoda ření</w>
hod lá</w>
egyp tské</w>
de b</w>
bá seň</w>
auto půjčovna</w>
ří dící</w>
čte š</w>
zavraždě n</w>
vylé čit</w>
van ým</w>
u rov
tabu lka</w>
st ví
schod y</w>
sal va
s vý
rozu mi
rov né</w>
pro test
pa i
na píšu</w>
ky sel
k ová
joe y</w>
jednotliv ci</w>
ja son</w>
ha za
gra vi
gh ts</w>
budape šť</w>
bar ry</w>
ambi ce</w>
al ja
- bran
š ují</w>
účin ků</w>
zaslou žil</w>
uží vá</w>
teore ticky</w>
takov ými</w>
spoleh livý</w>
přeprav ní</w>
pí sku</w>
pr d</w>
podezře lé</w>
piz za</w>
ně -
ne myslí</w>
nalez li</w>
micha eli</w>
lor de</w>
kru c
itu nes</w>
i za
i ra
de ska</w>
c au
apart hotel</w>
šla p
ša ty
zasra ná</w>
zakáz ané</w>
xx x</w>
vy cházet</w>
vrace jí</w>
vla kového</w>
sou dem</w>
s pra
re l
pře žije</w>
pohle dy</w>
po ze
oli ver</w>
ne b</w>
moto rů</w>
klien tům</w>
kavá rny</w>
j .</w>
frek venci</w>
še tr
částe čný</w>
č nější</w>
ú stní</w>
zprá vách</w>
ze stár
vi na
u vedli</w>
stov ek</w>
sto krát</w>
stav bu</w>
odvět vích</w>
ne ře
me nem</w>
licen cí</w>
i nou</w>
holči čko</w>
generá tor</w>
zvláš tních</w>
výpoče tní</w>
vyko ři
ušetří te</w>
uspo řád
těž kých</w>
t ine</w>
svá tky</w>
ro s
re na</w>
přen ést</w>
pracov ník</w>
počíta čov
počí tám</w>
počá tkem</w>
or che
o si
na sra
kore je</w>
jist ou</w>
de b
bli n</w>
čtená ři</w>
čer ném</w>
údrž bu</w>
ú hel</w>
zkur vený</w>
zav řené</w>
zamilov aný</w>
vzbu dil</w>
unes li</w>
sou dy</w>
ru ch</w>
předse dou</w>
pře chodu</w>
produkti vity</w>
po dal</w>
křesť an</w>
kon fron
founda tion</w>
fa ktem</w>
70 .</w>
vdě ční</w>
sleč ny</w>
sk ý
r s</w>
popu laci</w>
nápoj ů</w>
nedo poru
ne ní
kriste pane</w>
jose ph</w>
ji sk
báje čný</w>
7 50</w>
ú mrt
zó na</w>
zvy ky</w>
ztrá tě</w>
tě žit</w>
t řá
sal ly</w>
ru dé</w>
pře krač
pravid ly</w>
poskyt nutí</w>
ph e</w>
odpověd ný</w>
o a
nech ej</w>
ne zvládnu</w>
ne týká</w>
nahrá vání</w>
litera tury</w>
la del
elektri cký</w>
argen tin
ál ové</w>
zač něme</w>
zatk li</w>
to -
tlu mo
ti mo
t kami</w>
společen ského</w>
slov in
slad ká</w>
sdě lil</w>
příro du</w>
průměr ně</w>
poze mek</w>
podni knout</w>
okamži té</w>
oblíben ých</w>
o ča
ne rozumí</w>
mobi lu</w>
mal l</w>
lik vid
kou kejte</w>
imi gran
ge ra</w>
dopro vod</w>
diaman t</w>
com pu
chud ých</w>
caro line</w>
bor de
blíz cí</w>
bi te
bar y</w>
aro gan
a cti
00 1</w>
z pro
výkon né</w>
vykoři sť
ve jde</w>
uči li</w>
u tvá
sou části</w>
ren t
pa s
okru hu</w>
obvyk lé</w>
naš tva
míst ními</w>
mosk ev
lé st</w>
kře slo</w>
juni or</w>
ji nej</w>
g gy</w>
duba j</w>
dispo nuje</w>
dani el
c la</w>
by ho</w>
bl bě</w>
bi rd</w>
žen í
ča t</w>
zvu kové</w>
zi sten
zahrnu jící</w>
ri cku</w>
při děle
překvapi vě</w>
po kání</w>
pli c</w>
pe tra</w>
no kia</w>
ne nechal</w>
moha nem</w>
lož nicemi</w>
intelektu ální</w>
dá lku</w>
ce lému</w>
au di</w>
. .
za par
vz hledu</w>
vi s</w>
stří lel</w>
stri p
sken ování</w>
silni ční</w>
sc a</w>
recy kla
ra dia
povr ch
pome ran
obrá tí</w>
no cle
neutrá lní</w>
necho ďte</w>
mal ovat</w>
kov u</w>
be a
zveřej něno</w>
zov aného</w>
zloči nec</w>
začí nal</w>
vě ze
vyp něte</w>
v kus</w>
u l</w>
tělocvič na</w>
s mart</w>
pře sněji</w>
osvě žující</w>
ná ší</w>
ni cho
mó dy</w>
málo kdo</w>
len ým</w>
které ž</w>
efekti vitu</w>
colo r</w>
choro by</w>
báj džá
bu d</w>
ang u</w>
1 18
úz ké</w>
za r</w>
výkon nost</w>
vz ore
u měl</w>
připraven y</w>
posta ral</w>
pe t</w>
nahrá vky</w>
me si
léta jící</w>
ja y</w>
fil mech</w>
e tické</w>
alexan der</w>
198 3</w>
žen i
ze šíle
za me
vě ty</w>
vývo jem</w>
výro ční</w>
vir gini
tro cha</w>
tera se</w>
správ ném</w>
shi pi
oprav a</w>
odstav ci</w>
nepři bliž
nedoká žeš</w>
nebezpeč nější</w>
narozen inám</w>
nale zeny</w>
klimati zovaný</w>
já ko
exist ovala</w>
dě ťá
dě ti
ázer bájdžá
zamilov aná</w>
wor d</w>
vě ro
vy budov
uskuteč nit</w>
tra je
sna ž</w>
situ ován</w>
re ko
připo jí</w>
poslu cha
posled ně</w>
ob or</w>
nez bývá</w>
ne to
komentá řů</w>
jame se</w>
down lo
do hod</w>
a g</w>
196 7</w>
12 3</w>
žlu tá</w>
želez nice</w>
ří kal
[...]
