#version: 0.2
n i
i e
s t
c z
p o
r z
ni e</w>
d z
r o
r a
s z
n a
o w
j e
i e</w>
n a</w>
c h</w>
s i
w i
t e
z a
c h
k o
p rz
a r
l i
g o</w>
t a
m o
a n
w y
ni e
si ę</w>
t o</w>
l e
m a
d o
w ie
w a
c i
j a
t y
k a
m i
a ł
r e
prz e
ż e</w>
y ch</w>
ó w</w>
w o
s t</w>
dz i
m y</w>
ni a</w>
n e
d a
o b
je st</w>
d o</w>
s z</w>
n e</w>
c j
st a
p a
e m</w>
k t
ł a
o d
b y
n y</w>
p ra
cz e
dz ie
s k
c i</w>
l a
c e
n o
p ro
a l
m i</w>
c ie</w>
i n
m ie
cz y
u j
e r
o r
k i</w>
b i
d e
rz e
l i</w>
ow a
prz y
y m</w>
r ó
l u
p i
k o</w>
w sz
k a</w>
c o</w>
s a
p ie
ż y
p e
ś ć</w>
l o
d y</w>
n ych</w>
kt ó
ś ci</w>
k ie
z na
k u</w>
rz y
ł o
m e
r y
b y</w>
ja k</w>
. .</w>
r u
. ..</w>
ż e
l a</w>
ro z
t y</w>
wi a
j ą</w>
c ie
s po
pra w
dz ie</w>
m u
c y</w>
k i
f i
w e
cz y</w>
c e</w>
cj i</w>
l e</w>
j e</w>
wi ę
ta k</w>
s ł
c o
t u
któ r
y st
cz a
ł a</w>
g o
g a
m ó
b e
n t
d y
al e</w>
n i</w>
do b
je st
t o
d u
z a</w>
b a
k u
b ę
m u</w>
z y
b o
o d</w>
po wie
z o
m a</w>
na j
ł o</w>
uj e</w>
w a</w>
t a</w>
d la</w>
k ow
ra z</w>
sz e
h o
g ra
m y
d ow
j a</w>
e ś</w>
je d
wsz yst
n ą</w>
ś ci
n o</w>
te go</w>
s e
ch o
ne go</w>
j ą
s y
i ch</w>
n ow
c y
po d
ty m</w>
s ob
s ą</w>
p o</w>
s p
m nie</w>
k ie</w>
p u
n ym</w>
k ów</w>
b ar
t u</w>
b u
d a</w>
g i
rz e</w>
ko n
` `</w>
s u
ne j</w>
ś my</w>
b ie
mo g
r a</w>
c a</w>
mo że</w>
j u
prze z</w>
t wo
dzi ał
ro bi
ś li</w>
ł em</w>
a ł</w>
' '</w>
st o
a m</w>
ty l
an e</w>
b ra
sz cz
tyl ko</w>
z e
e j</w>
ł y</w>
dz i</w>
s o
ś cie</w>
owa ć</w>
r y</w>
2 0
ni u</w>
st ę
cj a</w>
t ow
t rze
s ie
st ro
je śli</w>
je go</w>
s wo
sł u
mo ż
t ra
e go</w>
lu b</w>
r i
ł u
rz ą
an y</w>
w ar
w ła
ś wia
w ó
f or
d ę</w>
d i
je j</w>
c a
by ć</w>
m ar
sz y
no ści</w>
ju ż</w>
l u</w>
ał a</w>
ch a
g l
pie r
t e</w>
ho te
g e
p ar
o n</w>
zo sta
stę p
ni a
my ś
nie j</w>
mi ę
rz y</w>
sz e</w>
pe w
c ał
b ie</w>
g dy</w>
ci a</w>
j ę
be z
st y
o ne</w>
i m</w>
w ie</w>
wa ż
bę dzie</w>
ró w
ty cz
c z</w>
k ę</w>
cze go</w>
a by</w>
uj ą
z d
mi a
n u
b li
sz ę</w>
dz e
k ła
te n</w>
b a</w>
z e</w>
k ra
li śmy</w>
ł ow
mo że
któr e</w>
te m</w>
in te
ka ż
k re
cj e</w>
ko rzy
g a</w>
w o</w>
mó wi
p li
ał em</w>
z i
f a
ro ku</w>
d la
jest em</w>
t rzy
dz o</w>
b o</w>
bar dzo</w>
u ży
c ja
o na</w>
ał o</w>
ci ą
cz ę
ń st
w y</w>
st an
ci ę</w>
ce j</w>
ł ą
f e
z robi
g od
w e</w>
s ow
me n
sp ó
ma m</w>
s er
h i
t r
o ny</w>
ra z
st ar
kie m</w>
ś wie
g ó
ki ch</w>
si ą
c ę</w>
jest eś</w>
an i</w>
mu si
j s
wa ć</w>
p ó
ż y</w>
uj ę</w>
d ni
m ow
k t</w>
u n
a d
ta m</w>
no ść</w>
wi ą
an ych</w>
t i
wię c</w>
s a</w>
dzi ę
st ra
s u</w>
wszyst ko</w>
cy j
0 0</w>
nie j
ob a
20 1
co ś</w>
s ka
wię k
g ł
g i</w>
p re
cza s</w>
k ą</w>
cj ę</w>
sk ie
s ie</w>
si ę
gl ą
h a
by ł</w>
pier wsz
mie js
cz ne</w>
kie dy</w>
uj ą</w>
na s</w>
pro wa
s ó
owa nia</w>
ko ń
u mie
sob ie</w>
pe ł
wi n
nie m</w>
moż na</w>
po trze
sz a
czy ć</w>
zna j
l an
ch od
dob rze</w>
n ą
z ie
sk i</w>
t ni
wię cej</w>
dz a
g dzie</w>
só b</w>
r ę
ni c</w>
by ło</w>
ró ż
st e
ła m</w>
te ż</w>
c ą</w>
ma sz</w>
ł eś</w>
s praw
hote l</w>
la t</w>
o sob
o n
po ko
pa n</w>
owa nie</w>
o raz</w>
wie m</w>
pro du
le p
te raz</w>
ro dzi
p ła
d łu
1 9
a u
s i</w>
sz a</w>
ra n
g u
dzi ał</w>
y mi</w>
p y
ki m</w>
pro gra
j u</w>
szcz e</w>
m er
d ro
s pa
ch ce
pra c
w i</w>
ch i
sz y</w>
je szcze</w>
sk a</w>
na u
k ry
sa mo
ta j</w>
ko le
te j</w>
d ź</w>
d u</w>
wie l
sz cze
w z
ob ie
prze d
t kow
mię dz
któr y</w>
cz ą
by m</w>
z oba
d ar
ja ko</w>
c ych</w>
k ar
korzy sta
ty ch</w>
ł y
for ma
bez pie
g ro
pi ę
st u
moż li
ó w
dla czego</w>
m ie</w>
dzie ć</w>
g u</w>
dzie j</w>
d ą</w>
t ę</w>
sz ych</w>
może sz</w>
w ró
ś nie</w>
rów nie
ow e</w>
równie ż</w>
ś mie
g ło
sz u
n ę</w>
ce nt
l ę</w>
zo st
po r
j i</w>
ch ci
pro szę</w>
po li
ow ych</w>
g ie
ę ż
mog ą</w>
ko m
na d</w>
v i
kt o
t or
bar dziej</w>
w spó
jed na
ro dow
k e
s yst
wy da
we t</w>
cie bie</w>
mog ę</w>
na wet</w>
je sz</w>
d ru
ni ć</w>
ał y</w>
kt u
d ku</w>
j ę</w>
ta k
wó j</w>
praw dę</w>
j o
w er
h e
b ó
cz o
cz nie</w>
od powie
st rze
t ro
t ów</w>
fi r
m o</w>
si a
s y</w>
je my</w>
jed no
f er
sz ą</w>
u ro
ni m</w>
wo l
ni ż</w>
wszyst kie</w>
z u
chce sz</w>
be z</w>
ą d</w>
wa nia</w>
dzi ć</w>
ni ę
ob e
jedna k</w>
na m</w>
p la
c u
o sta
s ko
c u</w>
ł e
po z
st a</w>
da ć</w>
sz ko
cz nych</w>
te ch
za le
po dob
r o</w>
k ty
z mie
in forma
trzy ma
wie le</w>
bę dzie
ją c</w>
mó j</w>
mi nu
ni gdy</w>
prze d</w>
cz u
ch cę</w>
jest e
wią za
wsz e</w>
szy b
k ró
l ar
s pe
cja l
lo gi
czy wi
po w
py ta
nt ów</w>
te le
za wsze</w>
ni ka
sze j</w>
wie r
cze nia</w>
b le
ał am</w>
cho dzi</w>
ow i
ma my</w>
któ rzy</w>
cze nie</w>
tu taj</w>
inte r
ż a
ni k</w>
pra cy</w>
te r
roz umie
na stęp
o m</w>
ki l
że by</w>
t ru
z wy
do stęp
wa l
or i
t ob
łow ie
wie sz</w>
k ro
c ów</w>
sz ym</w>
p ły
dze nia</w>
n ę
na prawdę</w>
by ła</w>
pro st
i st
ro w
cz łowie
li z
ko bie
potrze b
ni ków</w>
ści ą</w>
tak że</w>
n t</w>
1 0</w>
kie go</w>
po mo
k to</w>
na le
lu dzi</w>
li za
sł y
li cz
g ru
u m</w>
mer y
wa nie</w>
mie sz
przy ja
re m</w>
k ó
ci u</w>
ba da
wszyst kich</w>
owa ł</w>
k la
de n</w>
p ani</w>
dzie ń</w>
dz ę</w>
p an
spo sób</w>
wła s
o fer
o fi
j m
ch ro
do mu</w>
po win
k cji</w>
cze ka
n ymi</w>
ni ch</w>
po d</w>
stro na</w>
prz y</w>
t nie</w>
pro ble
l ow
sk ie</w>
r z</w>
cz a</w>
po wo
p ró
o t
b ro
je dy
l ne</w>
p ry
ży cie</w>
m ów</w>
wy glą
ka za
za bi
świa d
ni ą</w>
rz u
d anych</w>
f un
sze go</w>
rz a
dział a
ne r
da le
syst e
s cy</w>
o j
cz ny</w>
pli ków</w>
szcz ę
do sta
sk u
pa mię
pro je
co o
na rodow
po ś
t ą</w>
pi s
a mery
czy m</w>
znaj d
s ą
p er
ku r
dzię ki</w>
f o
v e
ko nt
u słu
go dzi
by ś</w>
za po
dzie ci</w>
d nia</w>
ci a
ma ją</w>
ł ó
ch e
nie go</w>
po nie
skie j</w>
lu dzie</w>
ni o
jeste śmy</w>
e le
ch y
wła śnie</w>
świe cie</w>
na z
naj lep
za pew
t rz
in nych</w>
zrobi ć</w>
ńst wa</w>
u ni
ko l
wi a</w>
któr a</w>
pu bli
myś l
le pie
gra ni
ga ni
wsz y
ną ć</w>
e uro
st o</w>
któ re
z god
sz o
lepie j</w>
p y</w>
któr ych</w>
bę dą</w>
spo łe
dz e</w>
e k
ni ka</w>
ał eś</w>
da w
r e</w>
hi st
k l
wszy scy</w>
dzie w
2 0</w>
ne k</w>
coo kie</w>
t ki</w>
u waż
wspó ł
t ka
g ę</w>
wo j
sł ow
s ła
d ni</w>
g ar
prze ci
w ra
kie j</w>
du ż
re a
ko na
po rzą
może my</w>
de n
u wa
zd ro
ży cia</w>
ci ć</w>
kt u</w>
t h
o kre
cz e</w>
dzię k
g dy
ał a
al i</w>
s pra
lo ka
raz em</w>
fi l
ła t
sk ich</w>
rz ę
d ów</w>
swo je</w>
ta kie</w>
sk o</w>
ko mu
ś li
pro ce
do da
ż o
c t
powie dział</w>
l nie</w>
ta ch</w>
or gani
wa ż</w>
ma ł
dz ą</w>
d nie</w>
f ran
gł ów
kole j
ż ad
s ów</w>
u sta
kon ta
wie k</w>
sz am</w>
ni j</w>
20 0
t ar
m niej</w>
w ło
n ku</w>
an o</w>
zosta ł</w>
cza su</w>
lu bi
ow y</w>
praw da</w>
re n
dob ra</w>
ponie waż</w>
międz y
prze pra
chy ba</w>
przy sz
wy so
ch ło
u ra
mo je</w>
te ma
wie lu</w>
p ie</w>
za ch
zna le
z da
ist nie
d e</w>
obe c
je den</w>
j ść</w>
ch wi
sie bie</w>
ru m</w>
międz y</w>
al bo</w>
skie go</w>
dziew czy
k li
stro ny</w>
miesz ka
minu t</w>
te mu</w>
st wo</w>
te k</w>
dla tego</w>
o ko
po czą
ą c</w>
j cie</w>
każ dy</w>
ka z
pod czas</w>
de cy
wa t
ni i</w>
s ji</w>
b er
dze nie</w>
dzie c
inter ne
wi ć</w>
sta nie</w>
1 0
st i
s prze
słu cha
d ź
śmie r
s em</w>
cz nej</w>
p a</w>
wsz e
le m</w>
t wój</w>
sa m
mi li
z ło
ży ć</w>
cent rum</w>
ś ro
każ de
przepra szam</w>
pię k
m ęż
wa m</w>
d wa</w>
l ny</w>
uży tkow
na ch</w>
ła ś</w>
a par
b i</w>
za rzą
wia do
na mi</w>
mo ja</w>
musi sz</w>
mu szę</w>
o sób</w>
sa m</w>
roz ma
czywi ście</w>
rz a</w>
miejs ce</w>
kto ś</w>
ch ce</w>
przy pa
pó ź
szu ka
h an
ni cy</w>
szcze gó
rze czy</w>
bezpie cze
kol wiek</w>
lo tni
s e</w>
nie nia</w>
mi ał</w>
wo ści</w>
wa s</w>
kil ka</w>
powie dział
ne m</w>
me nt
tra n
za sa
u r
men t</w>
o k
świe t
ofi cjal
między narodow
b an
te dy</w>
kó j</w>
bę dę</w>
5 0</w>
ję zy
spo tka
po zna
powie dzieć</w>
że j</w>
te r</w>
dzięk uję</w>
ka ch</w>
pa nie</w>
rzy ć</w>
ch ę</w>
pi sa
kt ów</w>
ko ch
w cze
mu si</w>
ńst wo</w>
p lan
wy ma
po nad</w>
pry wat
da j</w>
porzą dku</w>
l nych</w>
a na
kl ie
go ś</w>
praw dzi
c ó
prac ow
war to
o ni</w>
wy ra
po zy
pa na</w>
st ru
prost u</w>
g wia
tru d
ko ści</w>
dzi ś</w>
w tedy</w>
kty w
po mó
pierwsz y</w>
mie ć</w>
tro chę</w>
n u</w>
zd ję
dz y</w>
musi my</w>
na sze</w>
mi ło
wła ści
d z</w>
wa ł</w>
swo ich</w>
o na
mó wi</w>
r ę</w>
po wi
d li
na da
tech no
ją ce</w>
mi ni
m an
go tow
g or
inte re
wy po
na d
a ch</w>
d ł</w>
kt y</w>
t wa
bie ra
w an
z do
ce lu</w>
k sią
d wie</w>
i m
o g
po ja
bi or
co m</w>
hist ori
ka mi</w>
u rzą
będzie sz</w>
s ło
k lu
trze ba</w>
i le</w>
c k</w>
cz na</w>
za m
in g</w>
cz one</w>
wy ż
dzie n
myś li
a n</w>
p le
two je</w>
spo r
st wa</w>
ko nie
o zna
dale j</w>
ni ę</w>
m ną</w>
cz nego</w>
kont ro
d em</w>
przy kła
ż u</w>
komu nika
pod sta
da nie</w>
re dni
więk szo
cią g
t rzy</w>
te ri
st wo
o czywiście</w>
ś cie
o k</w>
in ne</w>
3 0</w>
po zi
t ku</w>
mia st</w>
now y</w>
w s
d er
mi ę</w>
ce n
ł od
mar t
sk im</w>
znale ź
b ry
g e</w>
dzi sz</w>
na szej</w>
nia ch</w>
na n
ow ej</w>
u zy
ar ty
je m
ja ki</w>
li ście</w>
cze j</w>
l nego</w>
z jedno
no r
po de
st ało</w>
1 5</w>
znajd uje</w>
t wier
o chro
mo r
by t</w>
swo ją</w>
ró d</w>
t re
by ły</w>
dob ry</w>
ta ki</w>
cj ą</w>
nale ży</w>
ja s
na zy
ni ki</w>
dz wo
pi ta
ą ce</w>
ja k
zwy k
pró b
wy korzysta
now e</w>
c ar
go spo
ja kie
ko cha
o p
roz wiąza
cze r
a b
bra ć</w>
mie ście</w>
ują c</w>
praw a</w>
li ć</w>
powi nie
ni kt</w>
naj bardziej</w>
dz a</w>
od e
d ane</w>
w em</w>
wy star
s h
s s</w>
rozma wia
ó d</w>
a ktu
przeci w
po sia
do świad
świa ta</w>
sy tu
re sta
nie ch</w>
informa cji</w>
że nie</w>
ma t
st y</w>
z er
ka cji</w>
ro bo
w u
n ki</w>
we go</w>
sto s
wo ść</w>
pe ra
ko sz
c em</w>
do tycz
b lo
a le
tob ą</w>
techno logi
cią gu</w>
stan owi
zoba cz</w>
o cze
g re
bó g</w>
t ry
ofer uje</w>
ka ń
wy ch</w>
ją cych</w>
q u
duż o</w>
gl ę
ch u</w>
cze mu</w>
pu n
męż czy
raz y</w>
ja ki
oficjal na</w>
rze nia</w>
o gó
cał y</w>
wz glę
1 8
pre ze
ow ane</w>
świa t</w>
zarzą dza
n ów</w>
ują ce</w>
któr ym</w>
ł u</w>
c ym</w>
k się
e ner
a ż</w>
wró ci
ta kich</w>
or y
la z
ksią ż
k m</w>
ce go</w>
se k
czy ta
na sz</w>
ty w
z ni
sprze da
au to
poli ty
ro k</w>
owa na</w>
myś lę</w>
u cie
a k
fun k
mo im</w>
bu d
uzy ska
sz an
in g
zale ż
organi za
samo chod
kie dy
sk u</w>
wi z
o ce
men ty</w>
szyb ko</w>
ce r
oko ło</w>
tr z</w>
nada l</w>
m łod
zam k
ge ne
st ą
i i</w>
ż a</w>
fi nan
na szych</w>
l l
waż ne</w>
wi dział
kom pu
ka na
resta ura
d wó
pro si
ch y</w>
ko ść</w>
hote le</w>
ty god
i n</w>
prze sta
bo że</w>
s ł</w>
na tu
de k</w>
osta tni
ow i</w>
me t
cza sie</w>
gospo dar
t łu
w w
wiado mo
ż ony</w>
bu dow
po le
ja kie</w>
s ja</w>
po łą
obie kt</w>
wi do
m niej
śro d
apar ta
ta mi</w>
cz ar
two ja</w>
fir my</w>
o sią
za wie
wcze ś
ż ą
. com</w>
pe n
pomó c</w>
naj więk
z ne
w pły
g rze
na dzie
tema t</w>
g na
ow a</w>
z wie
nie nie</w>
g ry
do kła
stu di
pła t
cho le
tra fi
a pli
jed nym</w>
w nę
n owa
se n
a t
pi ć</w>
spo ko
bi zne
k r
ku l
gi i</w>
po tem</w>
ci ęż
l l</w>
od le
sz ta
fa ce
ś wię
ow any</w>
s koń
dzie my</w>
o no</w>
h ar
ują cych</w>
re sz
dzi ł</w>
po da
1 2</w>
z byt</w>
po l
b or
znaleź ć</w>
będzie my</w>
póź niej</w>
za wo
progra m</w>
c k
st re
po wia
s k</w>
g łow
zie mi</w>
cze ść</w>
cz ną</w>
czy ł</w>
tycz nych</w>
za ba
w ska
m e</w>
dzi sia
n g</w>
st er
po my
dzisia j</w>
sk ła
p u</w>
ow ego</w>
cz nym</w>
ob ra
t ować</w>
w zi
zosta ć</w>
ek sp
sa mi</w>
ro dza
pó ł
każde go</w>
po kój</w>
zost ała</w>
do m</w>
cyj ne</w>
u sa</w>
wypo sa
spa ni
to r</w>
ob owi
praw ie</w>
ch a</w>
cz te
ge n
prze glą
da m</w>
h u
obowi ą
dow o
ni ą
lu dz
no ścią</w>
rze nie</w>
po ra
g ł</w>
czę sto</w>
w spani
poś redni
przed sta
u cz
bo ga</w>
mo jego</w>
so n</w>
w prowa
chod ź</w>
le nia</w>
sły sz
się cy</w>
in we
euro pe
w ane</w>
wy korzy
ele kt
że li</w>
0 00</w>
1 2
w ro
dwó ch</w>
przyja cie
ś rodow
wie ku</w>
g an
ł e</w>
dzie sz</w>
okre ś
ó ł</w>
r .</w>
te n
wz ro
środow i
ob y</w>
u cze
g ry</w>
to n</w>
wnę trz
v er
sz tu
ją cy</w>
czy li</w>
robi ć</w>
zapo m
powie dz</w>
kra j
l nej</w>
wyglą da</w>
w ą</w>
l na</w>
sk ar
nau kow
st u</w>
naj mniej</w>
kró t
poz wo
większo ść</w>
cha ć</w>
za ło
t owa
o grani
mie sią
dłu g</w>
ozna cza</w>
korzysta ć</w>
cz ło
al ne</w>
we j</w>
dow ie
osią g
g ie</w>
poko ju</w>
ch ow
je żeli</w>
nie z
ce p
we n
wszyst kim</w>
progra m
tele f
n g
d ra
po za</w>
europe j
ci ę
t k
po łu
amery kań
praw o</w>
wy m</w>
syst em</w>
po sta
o gro
dzie je</w>
le cz</w>
przykła d</w>
s wój</w>
st ów</w>
st ąd</w>
no c</w>
w ę
w cią
nt a</w>
la ta</w>
g łu
zoba czyć</w>
tycz ne</w>
w ą
informa cje</w>
za czy
bie rz</w>
m ę</w>
s al
ja z
ma teri
roz wo
pa ra
mężczy z
dział a</w>
swo im</w>
pie nią
człowie k</w>
s an
jo na
dziec ko</w>
ob słu
o to</w>
osta t
ni ł</w>
re gu
han d
możli we</w>
ło ści</w>
d ym</w>
cz ą</w>
odle gło
w ę</w>
sk ą</w>
łó ż
stę p</w>
m ą
zna czy</w>
o st
ma ch</w>
bi u
sytu a
i de
do ty
miejs cu</w>
mi na
k wa
ma i
f ro
me di
poko je</w>
sze dł</w>
interne tow
t h</w>
że nia</w>
ot war
pamię ta
no c
war un
v e</w>
robi sz</w>
mia sta</w>
za mie
dłu go</w>
we dług</w>
tech ni
by łem</w>
mi any</w>
myśli sz</w>
obec nie</w>
d an
cał ym</w>
1 5
po zosta
wcześ niej</w>
róż nych</w>
bu r
hote lu</w>
prze j
sa me
osob y</w>
które go</w>
o pi
po ma
me tr
da l
by śmy</w>
wcią ż</w>
1 00</w>
li ne</w>
kul tu
mo jej</w>
d ne</w>
kow i
ro bi</w>
o pie
ow ie</w>
ce l
ty le</w>
ści a</w>
niej sze</w>
k rzy
cyj nych</w>
usłu gi</w>
dzie dzi
prze cie
które j</w>
stro nie</w>
ź ró
od kry
swo jej</w>
za kre
do sko
człowie ka</w>
1 1</w>
czę ść</w>
wy kona
na rzę
dzi w
sk ąd</w>
tra k
e k</w>
z mia
i a
czy n
z wią
twa rza
l nym</w>
mo de
sty tu
ko mi
z wiąza
wra ca
o pera
s jona
uważ a
pozi o
ni ko
gwia zd
my śli</w>
świa tow
pew nie</w>
na wi
te k
podob nie</w>
ała ś</w>
wy pa
szy ć</w>
pew no</w>
czo nych</w>
czło n
wie dzieć</w>
e ko
ż one</w>
2 5</w>
po bli
sob ą</w>
cał kowi
doda tkow
mu zy
pode j
przecie ż</w>
par t
mo ją</w>
ś ród</w>
mow y</w>
chci ał
nia mi</w>
na r
in sta
no mi
produ k
do ść</w>
przypa dku</w>
prze strze
mówi ć</w>
sa mo</w>
da ją</w>
by ł
powo du</w>
arty ku
zna laz
cie r
swo jego</w>
uni wer
każ dym</w>
now ych</w>
mi o
liza cji</w>
proble m</w>
jed ną</w>
g ą</w>
istnie je</w>
ro wać</w>
do ku
no cy</w>
u su
ą cych</w>
m em</w>
szczę śli
z rozumie
przy j
le nie</w>
wi ar
l d</w>
wy ją
s konta
k sy
k an
po waż
wie nia</w>
któr ą</w>
v a
na szym</w>
pienią dze</w>
szta ł
ta ka</w>
kra ju</w>
jm uje</w>
ja ch</w>
sz ar
z ji</w>
a ktyw
m p
j my</w>
dosko na
19 9
t ę
1 6
mi ałem</w>
ow ą</w>
mo c
ta kiego</w>
bezpiecze ństwa</w>
te l
th e</w>
i z
da nia</w>
po now
syste mu</w>
wsze ch
kli ma
me r</w>
po ło
czeka j</w>
jedy nie</w>
by li</w>
wy ja
k ształ
kiedy ś</w>
kow e</w>
pre zy
roz po
bi o
ła zie
go ście</w>
rze czywi
ow ie
tob ie</w>
przyja ci
metr ów</w>
cie c</w>
roz wi
pa ńst
u zna
wy łą
gdy by</w>
dzie l
gł ę
wy j
ch ar
miejs ca</w>
ży ciu</w>
progra mu</w>
nau czy
oj ciec</w>
prze sz
a m
t ne</w>
pomo cy</w>
now ego</w>
4 0</w>
e -
tr o</w>
od wie
wi l
je m</w>
zosta nie</w>
w spo
z więk
su k
słucha j</w>
d wu
n d</w>
ry zy
f i</w>
mi ała</w>
ł ów</w>
wa j</w>
on ów</w>
sz czy
za nim</w>
e l</w>
pra cę</w>
p i</w>
z y</w>
nadzie ję</w>
ał e</w>
ł ę
da sz</w>
raz ie</w>
k tem</w>
h er
0 0
z ła
do star
pyta nia</w>
uzyska ć</w>
zost ały</w>
wy bra
b ę</w>
rozwo ju</w>
roz u
zost ało</w>
có ż</w>
s pi
poz wa
1 7
koń cu</w>
kompu te
jaki ś</w>
m ś</w>
mó gł</w>
ną ł</w>
jas ne</w>
u d
trzyma ć</w>
y wa
słow a</w>
odpowie dzi
bo ga
cz ony</w>
prze wo
rodzi ny</w>
o program
możli wość</w>
ad re
z ga
da ł</w>
no si</w>
potrze bu
cie m</w>
cj ona
s prz
go ści</w>
jed nego</w>
ś le
konie c</w>
nie sz</w>
spe cjal
wa ją</w>
obie ktu</w>
f u
ko ści
i a</w>
i ść</w>
kobie ty</w>
k uje</w>
do lar
e n
szu ki
or a</w>
wyda je</w>
k e</w>
jakie ś</w>
1 3
wi o
sy te
stu de
dob re</w>
bra n
e du
uniwer syte
fir ma</w>
sto p
i s
ow o
sp ar
b ą
za koń
za ję
ow ym</w>
następ nie</w>
ser w
na szego</w>
za pa
o trzy
g wa
pobli żu</w>
praw do
men ta
prze my
bada nia</w>
a f
myśl ałem</w>
g ra</w>
d rz
rozumie m</w>
odległo ści</w>
1 8</w>
ty fi
sie ci</w>
dob r
po ka
stan dar
sam ym</w>
finan sow
mar ke
gl ob
gie m</w>
1 4
intere s
mi c
źró d
pomo cą</w>
two im</w>
je zu
l od
e fe
ż ona</w>
pierwsz e</w>
j nie</w>
świa t
re gi
pod ró
ti on</w>
st e</w>
ż ar
stro n</w>
wyma ga
aktu a
wró cić</w>
pó j
czę ści</w>
po mi
wie rzy
le n
wie nie</w>
usłu g</w>
w any</w>
jed na</w>
ja po
wy bor
rze cz</w>
ś nia
tycz nie</w>
proje kt
ra ch</w>
po pu
i sto
sze nie</w>
si ł
g in
spo sob
cz ki</w>
dru gie
sa ma</w>
j ne</w>
ko goś</w>
gra fi
co dzien
ty pu</w>
k ą
mi st
la cji</w>
g li
ują cy</w>
mówi ę</w>
b ru
ma n</w>
ko lo
ó ł
cho dzi
warto ści</w>
o f</w>
s ę</w>
jo h
por t</w>
naj lepiej</w>
i mię</w>
sp ró
gene ra
dotycz ące</w>
je chać</w>
bu dy
two ich</w>
ń ski</w>
1 6</w>
lo ny</w>
t war
sie r
cie ka
kow y</w>
cel ów</w>
pyta nie</w>
ra mi</w>
wsze l
1 4</w>
cz ności</w>
przed się
za czą
u kry
sta ć</w>
me ntów</w>
cz ych</w>
zu peł
we j
lo ne</w>
je ch
i lo
ar e
k wia
de mo
ch ód</w>
two jej</w>
natu ra
jed no</w>
o kaz
ję t
d s</w>
si l
tłu ma
kur wa</w>
pu ści
ż d
o dz
re jest
n ta
zgod nie</w>
on line</w>
ste r</w>
a p
no si
go t
wo dy</w>
produ któw</w>
in nego</w>
ni mi</w>
zoba czy
wie dział
2 4</w>
do stęp</w>
za u
cz ka</w>
ch cą</w>
wą t
ź le</w>
rz ę</w>
uwa gę</w>
nie mie
dzie li</w>
śmier ci</w>
b al
pa l
dokła dnie</w>
re zer
pro fe
zwy cza
ra cję</w>
có r
e l
chło p
rozmawia ć</w>
z decy
zgod y</w>
f a</w>
ka pita
prowa dz
k we
ca ch</w>
b łę
st rzy
mu szą</w>
n ka</w>
bez płat
cho ro
przy k
u li
chło pa
zdję cia</w>
ar chi
1 3</w>
ru cho
żad nych</w>
za czę
ło ść</w>
di a
odpowiedzi al
cza sem</w>
an ej</w>
owa niu</w>
koch am</w>
ry nku</w>
po przez</w>
ru sza
wo r
miło ść</w>
u możli
za dzwo
pie nię
pra g
ce nie</w>
nie które</w>
możli wości</w>
j or
dolar ów</w>
- gwiazd
lotni ska</w>
pomo c</w>
ni niej
spó j
u czy
na sza</w>
m ą</w>
podsta w
nie m
co raz</w>
cyj ny</w>
ju tro</w>
ł ym</w>
1 7</w>
gie l
ro s
począ tku</w>
ą ć</w>
sy j
mia sto</w>
ku ch
umie jęt
n p</w>
k ować</w>
u s</w>
k rę
na gro
da je</w>
z ja
s peł
za raz</w>
u s
wy ba
wa ła</w>
ca mi</w>
wi dzi
zwyk le</w>
ana li
1 .
cze niu</w>
n ny</w>
two ją</w>
r ą
wie dli
z miany</w>
licz ba</w>
an giel
spra wiedli
histori i</w>
ob ro
chod ź
tu r
ra j</w>
i r
wykorzysta niu</w>
ni ct
wi dzę</w>
an ym</w>
wie my</w>
hi sz
star y</w>
e x
mó gł
eksp er
li n
wi ł</w>
w spar
po trafi
mówi sz</w>
tra dy
l ności</w>
sze ro
h ej</w>
cie j</w>
za kła
t ka</w>
ochro ny</w>
w śród</w>
wy z
ra k
zmie ni
po ni
z de
wyja ś
o two
liza cja</w>
o nych</w>
re zy
po czu
ży ł</w>
kil ku</w>
l ną</w>
ó r</w>
la tach</w>
rze ć</w>
sta ł</w>
tele wiz
b rz
sto sow
sp ę
e u
sze nia</w>
przedsię bior
de o</w>
kie row
za pi
st any</w>
ko s
za j
naj waż
ni kiem</w>
bada ń</w>
g h
6 0</w>
zwią z
cze k</w>
z now
w ną
gra ć</w>
obowią z
godzi n</w>
drz wi</w>
g no
in stytu
cent ra
ró b</w>
pra w</w>
po przed
cze ń</w>
sk i
pe r</w>
me dy
i um</w>
bi t
za ku
mo cy</w>
o glą
przyk ro</w>
zjedno czone</w>
znow u</w>
g dzie
w u</w>
d niu</w>
l la</w>
na ty
nie zależ
marke t
m ę
przy czy
two jego</w>
korzysta nie</w>
ka te
warto ść</w>
kó ł</w>
róż ni
zasa dy</w>
pa d
po łow
iz ra
ma szy
t wó
dostęp ne</w>
le t
ł ego</w>
dow od
sku te
ta m
ra no</w>
technologi i</w>
si ost
pra ca</w>
eko nomi
ko r
glob al
wną trz</w>
f ra
ucze st
wiadomo ści</w>
g ów</w>
pienię dzy</w>
organi z
ży je</w>
hisz pa
gwia z
ma ma</w>
świa do
wy świet
u m
wa mi</w>
cz ę</w>
mi l
działa nia</w>
kto r</w>
świe tnie</w>
chci ał</w>
d rze
tran s
szcz a</w>
wy obra
ni ku</w>
czte ry</w>
cho cia
an ego</w>
mo ich</w>
kon ty
zarządza nia</w>
de r</w>
do ro
zjedno czonych</w>
poko i</w>
pla t
le k
na ro
prezy de
łe k</w>
bi bli
wy sy
no ści
fe ren
bą dź</w>
lan di
sk rzy
stra te
spe cja
z u</w>
suk ce
przypa d
rów no</w>
pię ć</w>
ś la
ją ć</w>
sz cza
znaj o
p ę
pra wi
o czy</w>
powin ni
chwi li</w>
kwe sti
wystar czy</w>
le s</w>
mie sięcy</w>
cał e</w>
pi ą
cze goś</w>
spo kój</w>
lan d</w>
pa ństwa</w>
i dź</w>
kie ru
wa sz</w>
osob owych</w>
lo n
oj ca</w>
sow e</w>
chole ra</w>
zakre sie</w>
dro gi</w>
in nym</w>
ch ry
zapew nia</w>
ży w
ener gii</w>
przy ję
co n
cho ć</w>
ga ć</w>
in dy
te ra
powinie n</w>
pa s
po m
chci ałem</w>
lubi ę</w>
o s</w>
e t</w>
wi dzisz</w>
myś le
p sy
kon su
in ny</w>
cja ch</w>
nor ma
użytkow ników</w>
jeste ście</w>
za a
sta ra
a mi</w>
pie ra
wo lu
prze twarza
je żd
u kra
sto su
mi ar
stru ktu
re li
now a</w>
so f
ty tu
cz uję</w>
s cy
in nymi</w>
kom ple
powie m</w>
te re
auto ma
s ch
pisa ć</w>
k ąd</w>
201 8</w>
rz em</w>
jak by</w>
cze śnie</w>
trze ch</w>
stan ą</w>
ponow nie</w>
czer wo
towa rzy
ja kości</w>
społe cze
l y
chocia ż</w>
zale dwie</w>
e n</w>
c ki</w>
chi ń
bó r</w>
wzglę du</w>
ko la
przeciw ko</w>
g er
n ne</w>
cz ność</w>
trze ci
mow a</w>
pa c
za równo</w>
mow e</w>
d na</w>
s h</w>
pó ki</w>
d ny</w>
pier w</w>
ko mó
i na
sk ry
mi a</w>
win dow
w .
o pła
rów na
prac ować</w>
produ kty</w>
stra ci
po kaza
w łą
pi o
ta kim</w>
2 1</w>
sz pita
mi n</w>
le g
połu dni
ni one</w>
pow ro
za pyta
mówi ł</w>
h al
ry sty
apli kacji</w>
naj wyż
samo lo
róż ne</w>
godzi ny</w>
chwi lę</w>
każde j</w>
ka ta
bó j
d re
z mniej
wy bór</w>
an ą</w>
ment u</w>
obie ktem</w>
tr wa
pier o</w>
wie lo
umiejęt ności</w>
now ym</w>
ce ny</w>
raz u</w>
d r
telef on</w>
nia ją</w>
ch rze
śmier ć</w>
dzie się
z mar
prze chow
nu mer</w>
wa na</w>
do piero</w>
201 6</w>
fran cu
cał ą</w>
now ocze
kobie t</w>
o trzyma
za stos
201 7</w>
mó z
le ka
chciał bym</w>
na szą</w>
kocha nie</w>
prze kona
amery ki</w>
mówi ą</w>
pi a
sło ń
bi ał
urzą dze
powiedział a</w>
bra k</w>
bez pośredni
cz kę</w>
klie ntów</w>
wyją tkow
ta ń
przy najmniej</w>
chce my</w>
całkowi cie</w>
s ma
li i</w>
apli ka
window s</w>
przy zna
s or
naj pierw</w>
produ kcji</w>
nia ć</w>
t ri
apar t
ce nia</w>
za jm
o par
ho u
ww w.
li a</w>
ro syj
stra sz
wa li</w>
ud ało</w>
przesta ń</w>
mili onów</w>
wi ta
naty ch
ze spo
nauczy cie
aparta menty</w>
jed nej</w>
prywat ności</w>
ne r</w>
że niem</w>
o li
ch or
a trak
cho dz
co m
fi zy
te m
słow o</w>
wi deo</w>
t ny</w>
ma pie</w>
19 8
je ść</w>
po twier
łat wo</w>
za pła
nie nawi
nie sie
sprz ę
nie ść</w>
tor a</w>
ci ała</w>
szko ły</w>
decy z
ob ywa
wia ją</w>
wy kon
o l
w czo
ma ły</w>
af ry
włas nych</w>
b ri
widział em</w>
o pis
p rę
najlep sze</w>
1 9</w>
kobie ta</w>
wska z
zrobi ł</w>
in nowa
szyb ciej</w>
kow ane</w>
u kła
plat for
mow i
szczę ście</w>
pry sz
stą pi
po nad
e kra
se n</w>
cha rak
da ch</w>
cze s
po in
powinni śmy</w>
dosta ć</w>
od powia
ta jem
ni czego</w>
o pa
cza ją
ł ych</w>
po praw
pac je
za gro
m s</w>
ina czej</w>
ma mo</w>
pozi om</w>
czeka ć</w>
woj ny</w>
za tem</w>
cz ona</w>
bro ń</w>
organiza cji</w>
l ę
ś pie
samo chód</w>
kła m
prowa dzi
zapom ni
2 2</w>
następ ny</w>
mat ka</w>
ma cie</w>
zmie nić</w>
spraw y</w>
stro nę</w>
ra mach</w>
same go</w>
dzi a</w>
o u
rozwi ja
zna m</w>
o strze
pomy sł</w>
st wier
ż ą</w>
f ar
koń ca</w>
dale ko</w>
rzeczywi sto
mi mo</w>
prowa dzić</w>
konta kt</w>
wie cz
o le
mu ze
p lo
ogro m
y a</w>
zwy cię
rów nowa
chrze ści
popu lar
dziewczy na</w>
wia ć</w>
w ki</w>
tele wi
sł a</w>
ze gar
ma gi
za bra
po dzie
po ję
u two
posia da</w>
pa pie
f re
śmie ch</w>
li p
a l</w>
ty sią
pół noc
rzą d</w>
kró le
m ło
ko go</w>
nie ste
f an
pa trz</w>
przysz łości</w>
nieste ty</w>
ci ało</w>
klu cz
ktu j</w>
pra kty
now ej</w>
o fe
ro wania</w>
przy gotow
sa ch</w>
za da
pierwsz ym</w>
w raz</w>
za uwa
polity ka</w>
zdro wia</w>
2 .
mog li</w>
ze sta
w rze
dź wię
spo n
powie trz
drugie j</w>
c al
zd ra
s ję</w>
inwe sty
potrzeb uję</w>
szczegó lnie</w>
re k</w>
wie n</w>
chrześci ja
re la
bry ta
aktu al
zabi ć</w>
mia r</w>
we z
ra bi
nie których</w>
a li
wiel ka</w>
trzyma j</w>
do kona
sy n</w>
ob u
proble my</w>
ciąg le</w>
stude ntów</w>
le r</w>
r ów</w>
met od
podob a</w>
ana liz
naz wi
s pie
u jemy</w>
i ż</w>
ga ż
zupeł nie</w>
nie my</w>
l ą
gru py</w>
d uje</w>
ab so
słu ch
wiel ki</w>
st ała</w>
powiedział em</w>
par k</w>
ponad to</w>
sta cji</w>
cie m
wspo m
men cie</w>
c or
k in
dział al
zau fa
na g
tran spor
pozwa la</w>
przy jem
fil m</w>
su b
ce na</w>
pracow ników</w>
ł ka</w>
elekt ry
on u</w>
z bro
gdzie ś</w>
że byś</w>
201 9</w>
bli sko</w>
cho dzą</w>
sze d
gó ry</w>
wy gra
u l
wia m</w>
b łą
po ten
se ku
ce l</w>
p ę</w>
nowocze s
wy brać</w>
pe wien</w>
sz kole
pan u</w>
cz war
ty mi</w>
ta j
by łam</w>
ch cie
e li
zna cznie</w>
z nów</w>
mi ało</w>
do god
b la
sk ó
dz t
cja mi</w>
spraw ę</w>
wer sji</w>
spraw ie</w>
mie li</w>
mo ni
dział u</w>
dro dze</w>
za sob
pen sjona
19 7
ba r</w>
nie sa
ów ki</w>
osta te
w sta
re kla
i dzie</w>
niesa mowi
da mi</w>
prze zna
n y
mi ło</w>
u my
potrzeb uje</w>
cy fro
sz ło</w>
po między</w>
spo j
l n</w>
do łą
e g
ob o
l ność</w>
dzie r
odpowie dni
wię zie
tow e</w>
zapo zna
f al
o szczę
k le
t uje</w>
go ści
ty j
skonta ktuj</w>
p ri
ze k</w>
t nych</w>
ser ca</w>
u dział</w>
przedsta wi
cza sami</w>
z na</w>
ro wanie</w>
ch ę
ce lem</w>
ku pi
rzy ł</w>
sy na</w>
n ków</w>
każ da</w>
t t
for mu
bezpośredni o</w>
ucz ni
dostęp na</w>
ser ce</w>
u rodzi
cał ego</w>
komó r
k ło
do j
preze nt
ogó le</w>
rzu ci
sa n</w>
kt ować</w>
jedno cześnie</w>
spój rz</w>
ostatni ch</w>
8 0</w>
użytkow nika</w>
a gen
mai l</w>
i s</w>
za miast</w>
kre dy
za sta
pozna ć</w>
mieszka ń
dob re
dy re
z wo
we wnętrz
201 5</w>
spraw a</w>
pa ństwo</w>
mie nia</w>
w nio
roz wój</w>
nię cia</w>
poni żej</w>
ki mi</w>
f la
her ba
wiadomo ść</w>
t he
pró cz</w>
ka ć</w>
niej szych</w>
le y</w>
2 5
pierwsz a</w>
na pis
n ó
kont a</w>
tow ego</w>
peł ni</w>
z bli
d ie
wie t
z gin
wa lu
że k</w>
0 -
sko ro</w>
j ny</w>
spoko jnie</w>
u dostęp
ob sza
du że</w>
c ka</w>
cał o
po t
poz wó
wy niki</w>
głę bo
nie którzy</w>
za chod
wiel kie</w>
skoń czy
prawdo podobnie</w>
mówi łem</w>
wy sp
ter mi
po kaz
w ca</w>
l ować</w>
ri i</w>
histori a</w>
bę d
s korzystać</w>
ze wnętrz
c am</w>
2 3</w>
po zost
daw no</w>
st w</w>
par y
s ar
tycz ny</w>
archi te
chry stu
miło ści</w>
zale ży</w>
rę ce</w>
sły sze
osob ist
rz ą</w>
kraj ów</w>
dłu go
a ka
be l
ł ki</w>
sta n</w>
ja ką</w>
1 ,
sł ów</w>
odz y
ra cji</w>
ad mini
spró b
z wła
lon dy
ho ste
słu ż
wy god
an gaż
ł nie
u nika
codzien nie</w>
fir m</w>
z ie</w>
wąt pli
go og
gro ma
sk lep
war to</w>
u czu
2 8</w>
b u</w>
wy zna
d ować</w>
wło sów</w>
ty sięcy</w>
elekt ro
zwie rzę
sty cz
restaura cji</w>
e mi
ostat ni</w>
pla n</w>
znajd ują</w>
kon ku
c ale</w>
k s</w>
pa ź
or ów</w>
20 0</w>
ve r</w>
be c</w>
ś re
mówi ąc</w>
musi ał</w>
proble mów</w>
poprzed ni</w>
pensjona ty</w>
in ży
d wo
ra czej</w>
inży nie
ta ką</w>
stu den
właści wie</w>
czę ścią</w>
paź dzier
zwła szcza</w>
now ą</w>
korzy sta</w>
ocze ki
rodzi na</w>
ch u
wczo raj</w>
2 4
c ała</w>
spó ł</w>
ą cy</w>
kr wi</w>
związ ku</w>
zawie ra</w>
przyjaci ół
wy bierz</w>
h y
da my</w>
wpły w</w>
zo staną</w>
ze spół</w>
ws piera
mi an
k ing</w>
f li
za łat
kości o
inte li
by łeś</w>
rz u</w>
ow o</w>
ne ss</w>
powinie ne
kra jach</w>
spa cer
mał e</w>
fe de
cho dzić</w>
wyda j
prowa dzi</w>
ct wem</w>
po cz
t ków</w>
u de
wzi ę
potrze by</w>
mo dli
cie p
bo ha
gi a</w>
bry tyj
dziec ka</w>
to m</w>
k ł</w>
proce s</w>
poważ nie</w>
żo łnie
wyma ga</w>
techni cznych</w>
natych miast</w>
admini stra
dru gi</w>
we jść</w>
te li
proje kt</w>
ze bra
au tob
śnia danie</w>
wy mie
u tra
a ta
rozpo czę
3 5</w>
był oby</w>
za dowo
naj now
adre s</w>
u rucho
powiniene ś</w>
bezpiecze ństwo</w>
k se
wy sta
nie u
zna sz</w>
mic ro
doty czy</w>
za strze
gło si
in stru
in ni</w>
we k</w>
wo bec</w>
poś wię
ws chod
wi dzieć</w>
pod wó
ni z
che mi
o f
wyra ź
zaba w
po równa
mał że
zawie ra
słu g
ty ki</w>
żad nego</w>
lu dzi
ide al
wiel bi
spo wo
konty nu
nie bezpie
z rozu
powie rz
krót ce</w>
f ie</w>
t s</w>
ob ok</w>
po tra
o kaza
goog le</w>
dal sze</w>
hou se</w>
ge r</w>
pod róż
2 7</w>
li cen
rze ń</w>
zawo dow
wie rzę</w>
ori i</w>
lo na</w>
ma ło</w>
wystar czają
fun kcji</w>
mi ałam</w>
dzi sie
e dy
mi kro
właści cie
wie dzy</w>
te s</w>
urzą dzenia</w>
bizne sow
7 0</w>
zni k
trud no</w>
powin no</w>
gi na
o prócz</w>
za pro
ser i
myśle ć</w>
me ta
la s</w>
stę po
na to
l y</w>
li ł</w>
w cale</w>
rodza ju</w>
w krótce</w>
2 6</w>
obe jmuje</w>
odpowie dzi</w>
szy mi</w>
muze um</w>
ni ony</w>
ja w
li byśmy</w>
cz u</w>
rozwiąza nia</w>
euro pie</w>
nię cie</w>
wy żej</w>
d owanie</w>
ż ę</w>
edu ka
te st
4 5</w>
o publi
zrozumie ć</w>
3 .
plan e
b owie
je cie</w>
ga ją</w>
' s</w>
ma ksy
myś l</w>
market ing
a c
po ży
my wać</w>
p ho
brz mi</w>
m m</w>
ga m</w>
wido k</w>
sta je</w>
w za
u jesz</w>
prze r
dziel nicy</w>
spacer u</w>
dź cie</w>
ą ł</w>
po rozmawiać</w>
kar ie
ja ka</w>
dzie sią
wi du
ra di
ją ca</w>
zdję cie</w>
ak cep
wie cie</w>
myśl ałam</w>
mi ał
hist ory
dzisie j
sz la
aka de
wa ch</w>
prze stęp
wi na</w>
ro l
odpowie dź</w>
cał ej</w>
twó r
r u</w>
pisa ł</w>
współ pracy</w>
joh n</w>
do ra
sa teli
naz wa</w>
cyj nego</w>
ko d</w>
za grani
mi n
do póki</w>
b e</w>
błą d</w>
9 0</w>
od da
wy peł
maksy ma
sytua cji</w>
ś redni
r ą</w>
ją cym</w>
kwa te
o świad
jezu s</w>
p le</w>
proce nt</w>
fo to
ł ą</w>
wiel kiej</w>
może cie</w>
zaczy na
ma ć</w>
najlep szy</w>
przysz łość</w>
tor ium</w>
au stra
t kiem</w>
po jedy
k cja</w>
fi ni
wykorzy sty
by ście</w>
s hi
mog ła</w>
i t
nazy wa</w>
pó ł</w>
te ry
p e</w>
resz cie</w>
wie dzą</w>
profe sjona
ku pić</w>
jedno st
chi ny</w>
zna czne</w>
ra cja</w>
c kie</w>
ją cego</w>
cyj nej</w>
201 3</w>
książ ki</w>
mo bi
b rze
sz ła</w>
demo kra
ci ś
sł y</w>
języ k</w>
he n
oprogram owania</w>
po n
5 00</w>
po słuchaj</w>
h a</w>
dziewczy ny</w>
specja li
wy biera
sy m
pro c</w>
środowi ska</w>
tyfi ka
dzie cia
kon feren
pamię tam</w>
by liśmy</w>
do kąd</w>
s mu
wó d</w>
micro sof
przed e</w>
sprzeda ży</w>
pow ta
wi dać</w>
potrzebu jesz</w>
si ły</w>
cza nia</w>
ź ni</w>
pozio mie</w>
sza c
zach ow
ń skiej</w>
wer sja</w>
zna czenie</w>
i ra
zamk nij</w>
row ane</w>
re wolu
wrze ś
dziedzi nie</w>
wi try
au tor
sł od
bowie m</w>
nę ła</w>
kuch ni</w>
e ta
ka m
rezer wa
ńst wie</w>
wie rzyć</w>
pu szcz
trzeci ch</w>
przewo dni
zwycza j</w>
przeglą dar
cze ka</w>
wo kół</w>
spa ce
lo s</w>
p s</w>
u lubi
ser wa
pra k
doświad czenie</w>
201 4</w>
ża sz</w>
ni ca</w>
mo c</w>
owa liśmy</w>
za bie
wykorzy st
si ad
cał kiem</w>
l ta
ci o
ś wią
ta to</w>
zrobi ę</w>
niko go</w>
przed mio
me s</w>
niej szy</w>
3 1</w>
k owania</w>
prawdzi we</w>
e d
u wielbi
usta wie
ma l</w>
pa li
t na</w>
ostatni o</w>
mor der
dz one</w>
trzy m
indy widu
ch wa
tre ści</w>
liza cje</w>
czy mś</w>
v a</w>
ow anych</w>
tran sa
mar i
mą ż</w>
kow any</w>
ge nt
o powia
bli ż
wzro st</w>
cy mi</w>
wa j
ob serw
an d</w>
klie nta</w>
sło ne
se kre
podsta wie</w>
pew nością</w>
ć wi
klima ty
zi m
wy wo
powierz ch
2 9</w>
le tni
part ne
osta tnie</w>
ne s</w>
an ty
tow ych</w>
i dziemy</w>
wróci ł</w>
u e</w>
ują cym</w>
myś la
ma ła</w>
ma l
ma ga
we ź</w>
przy się
stan u</w>
zamk nię
dzie ci
ra b
wa niu</w>
telewi zo
poka ż</w>
zaczy na</w>
u bra
kło po
mili ar
pow strzy
za nie
l s</w>
za insta
pośredni ctwem</w>
ty dzień</w>
za cz
pierwsz ej</w>
zmia n</w>
se k</w>
gdy bym</w>
jaz dy</w>
potrzebu jemy</w>
wzi ąć</w>
sy pi
i mi</w>
z ba
roz sze
powin na</w>
inwe st
po peł
wie dział</w>
ę dzie</w>
wszyst kiego</w>
l owe</w>
ke r</w>
włas ne</w>
osob a</w>
sz u</w>
do ce
ze wnątrz</w>
na pi
l ą</w>
kow ych</w>
ry nek</w>
przechow y
ona l</w>
ob raz</w>
pozwó l</w>
że bym</w>
zosta wi
twar z</w>
szuka ć</w>
sto pa
powin ny</w>
komunika t</w>
lo g
warun ki</w>
tow y</w>
fi gu
wi zy
związa ne</w>
su per</w>
stan ów</w>
pie nia</w>
nau ki</w>
sy gna
ła by</w>
trze ć</w>
prę d
czu jesz</w>
ta kiej</w>
sz al
se zo
co kolwiek</w>
rozumie sz</w>
kate g
wy sła
ro we</w>
bran ży</w>
prac uje</w>
f y</w>
ofi ar
ś wi
le kar
to ale
are sz
czyta ć</w>
e r</w>
6 5</w>
zapozna j</w>
rodzi ce</w>
ko pi
szcze nia</w>
l owych</w>
ne y</w>
kli k
spraw dzić</w>
po szuki
microsof t</w>
współ czes
t kę</w>
t ho
201 2</w>
o stro
bie g
uważ a</w>
spo dzie
d ności</w>
eu ro</w>
ot wie
wy stęp
przeglą danie</w>
mo n
l le
ga n</w>
tycz nej</w>
wiedział em</w>
pier do
konku ren
ory gina
gó w
poło żony</w>
ała bym</w>
ch em</w>
ż ał
u dogod
p lu
dro gę</w>
tygod niu</w>
st ą</w>
sam e</w>
wspar cie</w>
przemy sł
uwa ga</w>
podró ży</w>
ko m</w>
a r</w>
pu szcza
pojedy n
j ów</w>
ko re
spo ty
nato miast</w>
księ ży
dobr ym</w>
o te
języ ka</w>
ta ta</w>
wy bu
a d</w>
: 00</w>
przyjaci ół</w>
face bo
im pre
wa ło</w>
a ma
za kwate
dy na
ma pa</w>
u sytu
słysz ałem</w>
wyposa żone</w>
marketing owych</w>
i dę</w>
se j
l o</w>
sł o</w>
4 .
landi i</w>
dza ć</w>
- -</w>
ra dy</w>
prób ow
al nych</w>
d ba
prze kaza
kolej ny</w>
ka wa
ka mer
ch o</w>
par ti
fa k
człowie kiem</w>
bro ni</w>
nika mi</w>
pamięta sz</w>
t rze</w>
c kich</w>
kra j</w>
kro k</w>
owa niem</w>
dział ała</w>
za zwyczaj</w>
gru pa</w>
u mar
archite ktu
ja kość</w>
przy go
part ner
ta n
od no
ba b
s wego</w>
pa kie
k łó
d i</w>
no ro
tu j</w>
ob ja
wybor u</w>
ro sji</w>
anali tycznych</w>
za ś</w>
niem cy</w>
le ży</w>
dz ony</w>
l ie</w>
kon kre
ń skie</w>
spotka nie</w>
m ln</w>
d nych</w>
pew nego</w>
za angaż
większo ści</w>
mo ści</w>
rzeczywisto ści</w>
sta bi
i d</w>
i t</w>
wa my</w>
obywa te
gło s</w>
kt ora</w>
klie n
ści ć</w>
wie czo
d ała</w>
face t</w>
u j</w>
gł od
dro ga</w>
kiedy kolwiek</w>
us d</w>
rodza j</w>
zapi sy
si r</w>
powro tem</w>
miejs c</w>
me cha
lu bi</w>
e m
5 -
su szar
c an
aparta ment</w>
robi ę</w>
mie liśmy</w>
3 0
prezyde nt</w>
go l
e- mail</w>
dz o
sy w
podob ne</w>
ku che
ć mi</w>
je ź
t le
poja wi
kro tnie</w>
w dzię
strze la
ci ą</w>
przy got
atrak cje</w>
e mo
wsz ędzie</w>
zapo bie
prze wi
naj bliż
tytu ł</w>
stre et</w>
o sie
są dzę</w>
201 0</w>
zapew nić</w>
z wro
nag le</w>
ma ni
najlep szych</w>
stan owi</w>
s owania</w>
z wol
syste mów</w>
mie niu</w>
za pra
kla sy</w>
kow i</w>
su per
istnie ją</w>
głów nie</w>
przy ci
jedno znaczne</w>
tu rysty
wy cie
kla sy
ver si
dru ży
sły szy
bo m
obe j
ma g
poję cia</w>
przy wó
s s
m c
chci ałam</w>
li stopa
ilo ść</w>
mężczyz n</w>
cza ć</w>
ri a</w>
' ego</w>
f ał
prosi ć</w>
żad nej</w>
na ti
ge or
śro dku</w>
sek su
do st
ją cą</w>
prze ra
fil my</w>
ap ple</w>
wy szuki
kro p
wy co
t v</w>
st ó
chodź my</w>
for m
pięk ne</w>
czy ła</w>
narzę dzia</w>
ha m
l ni</w>
kró low
gdy ż</w>
ż on
materi ał
tr wa</w>
psy cho
przetwarza nia</w>
oprogram owanie</w>
k owanie</w>
cięż ko</w>
ści u</w>
in di
od e</w>
do n</w>
mar y
do m
ty m
gor ą
komunika tem</w>
wyra żeniem</w>
obie c
zarządza nie</w>
ob raz
z ę</w>
tem pera
dru gie</w>
j ski</w>
tycz nego</w>
ń skiego</w>
kre a
łazie nki</w>
u da</w>
ukra i
jaz d</w>
nie ń</w>
d yst
u da
licz by</w>
głow y</w>
wątpli wości</w>
po stanowi
same j</w>
gi p
bo ra
s ce
kow ym</w>
p ów</w>
met ra</w>
czte re
ów ka</w>
wa łem</w>
cy k
t ó
wi ru
re publi
gó r
artyku ł</w>
du m
woj sk
uwa gi</w>
lu dź
mężczyz na</w>
sze ść</w>
po rozumie
ludź mi</w>
ń ska</w>
nie bie
o s
nt om</w>
ście j</w>
li sty</w>
za projekt
cy wi
ser wi
wyglą dasz</w>
praw dy</w>
nie co</w>
su i
pięk na</w>
par ę</w>
ma tki</w>
z biera
b ą</w>
e la</w>
kontro li</w>
gi m</w>
ża den</w>
de l</w>
po wszech
n nych</w>
proje ktu</w>
uży wać</w>
urządze ń</w>
na si</w>
pew ne</w>
or y</w>
po cią
2 3
za bój
interne t</w>
201 1</w>
je mu</w>
d ż
ują cego</w>
2 7
ro lę</w>
po ga
na rze
cho dzie</w>
ter ro
kry zy
d ła</w>
cj on
t ąd</w>
s si
rezy gna
samochod ów</w>
por t
aktua lizacje</w>
a nio
do kto
szcze nie</w>
zaa wan
uni k
ta tu
o skar
ostro ż
poli cja</w>
zrobi łem</w>
u r</w>
po wiąza
ne mu</w>
międzynarodow ych</w>
la ch</w>
studi ów</w>
na po
działa ś</w>
v o
mi ały</w>
cu dow
ja ko
społe cz
ów kę</w>
ob szar
by wa</w>
funk cje</w>
wy nosi</w>
e gip
pie prz
obe jm
uj cie</w>
sz waj
ka z</w>
po może</w>
l le</w>
środ ki</w>
robi ą</w>
miesią c</w>
sztu ki</w>
zach ę
​ ​
d r</w>
skonta ktować</w>
ori a</w>
o puści
cze niem</w>
ludzi om</w>
kur s</w>
ka mie
f lo
nict wa</w>
prze sy
mo mencie</w>
k cie</w>
powie sz</w>
b ło
żo nych</w>
wyso kiej</w>
dowie dzieć</w>
wi dzenia</w>
ja kim</w>
mi i</w>
wyłą cznie</w>
a i
świat ła</w>
sypi al
dosta w
dow e</w>
ch ri
za bezpie
du ży</w>
w reszcie</w>
pi l
er a</w>
o ch</w>
świat ło</w>
w pa
restaura cje</w>
j nych</w>
bu j</w>
oko li
ni ż
n r</w>
0 ,
prost e</w>
bra t</w>
po prze
sie ć</w>
korzy ści</w>
u bie
ry n
począ tek</w>
k wiet
v p
pod kre
i den
logi i</w>
1 -
b re
ll y</w>
ct wa</w>
hand lu</w>
pot ęż
podró ż</w>
zaczą ć</w>
tere nie</w>
li n</w>
tempera tu
rz ad
słucha ć</w>
mi gra
je dzenie</w>
czy cy</w>
ar z</w>
pierwsz ą</w>
ł bym</w>
s ha
potrzeb ne</w>
b od
ga tu
samochod em</w>
t wi
dzi łem</w>
wi tam</w>
zie mię</w>
wszel kie</w>
wi taj</w>
reli gi
ują ca</w>
studen ci</w>
pierwsz ego</w>
pre mie
wystarczają co</w>
wal ki</w>
szwaj car
robi my</w>
ryzy ko</w>
hand low
dze niu</w>
te ra</w>
kar ty</w>
miejs c
ze sz
c la
sto li
pa trz
autob u
poma ga</w>
rea liz
la bora
pa trzy
sow y</w>
z ja</w>
bi ur
tow ej</w>
będzie cie</w>
pozwa la
ku p
za trzyma
in n</w>
b ów</w>
regu la
3 2</w>
. ...</w>
za mó
pli ki</w>
histori ę</w>
czy taj</w>
tor ów</w>
ują cą</w>
pra wić</w>
światow ej</w>
za brać</w>
sta ro
ro śli
za interes
telewizo r</w>
ch wy
każ de</w>
s ho
st ę</w>
cie szę</w>
pię ciu</w>
- fi</w>
edu kacji</w>
ment s</w>
s he
kow ie</w>
wieczo rem</w>
szko le</w>
mow ę</w>
an gli
spa ć</w>
t nej</w>
nie mal</w>
samochod u</w>
dow y</w>
cyj nym</w>
pod ło
głów na</w>
ucie ka
z rób</w>
uni versi
powinie nem</w>
o ka
wykon y
ko ho
ku jemy</w>
niej sza</w>
kieru nku</w>
zdro wie</w>
ct wo</w>
sprzeda ż</w>
euro py</w>
zabi ja
lotni sko</w>
da vi
kwia ty</w>
bi le
m le
cyj na</w>
rze kł</w>
i ć</w>
pie c</w>
an ge
e la
o ści</w>
dz am</w>
ci ł</w>
sty czne</w>
pa le
doświad czenia</w>
tajem ni
wiado mo</w>
cia ste
z łe</w>
w sty
u l</w>
ch mu
nati onal</w>
ty ny</w>
g al
wy naj
s ę
osob owy</w>
ku po
g ła
k cje</w>
wy ciąg
ot wó
spraw dź</w>
strate gi
po wró
ga mi</w>
rozwiąza nie</w>
czę ściej</w>
kon to</w>
cy fi
szed łem</w>
doro sł
na gra
me ksy
okre s</w>
kon figu
lep sze</w>
zie m
naukow cy</w>
mu l
kre w</w>
pan owie</w>
wy jść</w>
kon wen
z my
z równowa
u koń
pa ć</w>
z ły</w>
woj na</w>
od rzu
b le</w>
ob li
zasta na
budy nku</w>
wa sze</w>
loka lnych</w>
minu towego</w>
z jeść</w>
we e
al ny</w>
zd u</w>
li nii</w>
pi s</w>
mi cha
sz er
dłu żej</w>
d łow
hoste l</w>
ga d
mu sie
t t</w>
cztere ch</w>
wiecz ór</w>
wspó lnego</w>
pozwo li
ku ra
pozy cji</w>
źród ło</w>
ma ja</w>
kon stru
ru chu</w>
u sią
otrzy mywać</w>
wi od
ow ała</w>
mi ałeś</w>
ja ck</w>
c t</w>
tra kt
ści ach</w>
z i</w>
o szu
któ ry
tycz na</w>
cho dzę</w>
mog łem</w>
19 6
sz em</w>
osiąg nąć</w>
działa ń</w>
kry p
kon cent
-gwiazd kowy</w>
polity ki</w>
zaawan sow
p l
intere sow
od wa
jor ku</w>
roz wią
ra dę</w>
pro to
fun da
mo nt
kolej ne</w>
rezygna cji</w>
le s
u jaw
rę kę</w>
be n
sza le
produ ktu</w>
ró j
niniej szego</w>
ban k</w>
rz ał</w>
przeci w</w>
dziw ne</w>
lo u
za rejest
społe czności</w>
języ ku</w>
wol ności</w>
n kę</w>
g nie
2 6
fran cji</w>
spo zy
or u</w>
ke n
gotow y</w>
okreś lo
a na</w>
k ru
wrześ nia</w>
chole r
u f
po ry</w>
eksper y
200 8</w>
li fi
dy sku
ca m
b in
kos mi
gó rę</w>
gie r</w>
bibli ote
ka ra
ni czym</w>
inteli gent
prz od
per spe
a s
n ce</w>
wsz y</w>
st wie</w>
efe ktyw
ustawie niach</w>
pro fi
mo s
hal o</w>
internetow ej</w>
ch ów</w>
pamię taj</w>
sty lu</w>
ba wi
sta nach</w>
r ie
poko na
fi lo
ś nie
niezależ nie</w>
fa kt</w>
ka cje</w>
20 20</w>
u wierzy
zwie rzą
zdo by
sym bo
mo ra
2 8
odzy ska
p ta
ob u</w>
wi -fi</w>
o powie
środ ków</w>
ne t</w>
o to
powiedział eś</w>
zi ć</w>
wo da</w>
przy pom
wy sł
ko menta
pod ję
rze czywiście</w>
ni ła</w>
działa ć</w>
al koho
qu e
fun du
najważ niejsze</w>
dłu ż
wiel ką</w>
s je</w>
ra nt
al u
rodzi ców</w>
mow ych</w>
v ie
trud ne</w>
chi nach</w>
ra por
do r
pozy tyw
umożli wia</w>
mo i</w>
rz cie</w>
ci ty</w>
p hi
lubi sz</w>
restaura cja</w>
zrobi łeś</w>
po ru
l no
be ach</w>
zapisy wania</w>
gło ś
cza ją</w>
pi ę</w>
li sta</w>
kości ół</w>
f in
3 3</w>
wyba cz</w>
p d
sek s</w>
pli k</w>
ł by</w>
kwa lifi
pod le
mi ni</w>
wyra żasz</w>
i ni
twa rzy</w>
stycz nia</w>
ro man
roz pozna
for mie</w>
przy jech
an dro
vp n</w>
bo gu</w>
pow tó
sp y
medi a</w>
roz począ
w anych</w>
to m
wi r
wal czyć</w>
uży ć</w>
prawi dłow
po chodzi</w>
m pi
wa ły</w>
3 00</w>
łó ż</w>
pli ku</w>
t rój
ł ej</w>
we b</w>
chce cie</w>
zdję ć</w>
0 .
żo ną</w>
wspani ał
uży ciu</w>
wy kry
za tru
ją cej</w>
zmia na</w>
dy plo
li by</w>
przestrze ni</w>
gwa ł
nie ba</w>
y o
uważa j</w>
róż noro
prywat ne</w>
or ie
potrze ba</w>
gu bi
d ół</w>
z obowią
znale zi
dze niem</w>
an g</w>
nie ć</w>
spra w</w>
prawdzi wy</w>
produ kt</w>
wy mia
skie m</w>
sier p
kow ej</w>
we r</w>
universi ty</w>
kró l</w>
czy ków</w>
a zji</w>
zga dza</w>
tę sk
pi ł
szan sę</w>
rzy ło</w>
ż an
ru ch</w>
biu le
me l
al nej</w>
di ab
ś lu
wó w
de l
zosta w</w>
ga ze
ar t</w>
owa ń</w>
li st</w>
kościo ła</w>
wyma g
chci ała</w>
pew na</w>
te d</w>
czy sz</w>
sk owe</w>
jedy nym</w>
pokaza ć</w>
mo rze</w>
filo zo
ner w
interne tu</w>
u pew
po wie</w>
pa nią</w>
nosi ć</w>
międzynarodow ej</w>
czer wca</w>
4 8</w>
roz dział</w>
nę ło</w>
stwo rzyć</w>
s kom
ser wer
działal ności</w>
sk le
dzi ła</w>
ge o
x i
tele fo
spra wia</w>
do tk
b rzy
so li
bra kuje</w>
zesta w</w>
modli t
fede ra
2 ,
progra mów</w>
od ci
ł oby</w>
dzie ćmi</w>
ż ół
ro n</w>
me k</w>
ga ch</w>
pozosta je</w>
ka li
u rzę
z ę
je dziemy</w>
st ym</w>
okaz ji</w>
o rze
pie ń</w>
pój dę</w>
niez bę
dostęp u</w>
peł no
książ ka</w>
ła ch</w>
cier pli
ź ć</w>
sz ne</w>
op ty
o cza
dobre go</w>
zwierzą t</w>
ro wych</w>
pozio mu</w>
sta cja</w>
konie czne</w>
wów czas</w>
pode jm
u sz</w>
po god
uważ am</w>
roz pa
p h
kon fli
zwierzę ta</w>
sukce s</w>
pie k
nie możliwe</w>
mo ść</w>
re cep
n na</w>
poten cjal
pi a</w>
głow ę</w>
człon ków</w>
wie dzę</w>
ok rę
5 5</w>
syste my</w>
poś re
kontro lę</w>
in f
zobowią za
dob ro
nazwi sko</w>
d ri
potra fi</w>
dru ga</w>
trak cie</w>
wra ca</w>
prze ży
wo je
fi t
nie c</w>
po strze
d owania</w>
ma mi</w>
200 7</w>
de fini
ter ów</w>
l .com</w>
nar ko
naj gor
gru dnia</w>
tow ar
s se
elektro ni
zauwa ży
widział eś</w>
łat wie
of fi
o h</w>
m na
umie ra
rzą du</w>
wzglę dem</w>
ma ile</w>
spó ź
ob ia
z go
uczest ni
maga zy
przy szedł</w>
loka lizacja</w>
zwią zek</w>
ku j</w>
dob ra
ście ż
z ła</w>
t ren
te o
póź no</w>
cyj ną</w>
paździer nika</w>
nie bo</w>
móz gu</w>
j an
ho l
d ło
o pracow
sie dem</w>
uli cy</w>
apart ments</w>
abso l
fa bry
2 -
sytua cja</w>
państ w</w>
z m</w>
inte gra
ła bym</w>
wzro stu</w>
la mi</w>
jezu sa</w>
g ni
c kiej</w>
rozma wi
miesz ka</w>
za gra
sz we
sy n
księ ż
wi dział</w>
cz nik</w>
ta ć</w>
to ż
prze prowadz
wy rzu
prze jść</w>
kolo r</w>
jak ą
je zu</w>
200 9</w>
łóż ka</w>
wysy ła
połą czenie</w>
gości om</w>
si n
mode l</w>
ta le
la n</w>
tygod ni</w>
z mę
włas ną</w>
o czy
ni my</w>
młod y</w>
zdro wo
spotka ć</w>
3 6</w>
sateli tar
li nie</w>
ro bie
ki mś</w>
o nie</w>
choro by</w>
c kiego</w>
kon cep
f e</w>
co ny</w>
ga nia</w>
u dzie
regu lar
ma c
wy ści
d ą
s o</w>
k wi
da ta</w>
d ność</w>
d ki</w>
ń skich</w>
najlep szym</w>
wy na
preze nta
szko ła</w>
lo t</w>
sej f</w>
lu m
europej skiej</w>
ta ra
powin ni</w>
bud ować</w>
przy ro
wło chy</w>
osob owe</w>
in spi
g rzy
7 5</w>
ty s</w>
okre sie</w>
wol ność</w>
lu k
kosz tów</w>
społecze ństwa</w>
sow ych</w>
czy my</w>
ser cu</w>
zmie nia</w>
v an
przyjacie l</w>
or gan
nia nia</w>
cieka we</w>
dotycz ących</w>
rz o
słuch am</w>
nie zwyk
d ie</w>
ow ali</w>
2 9
perspe kty
ó d
wia sz</w>
niniej szej</w>
s cho
we wnątrz</w>
ra do
pamię ci</w>
f ie
dziesię ć</w>
ode j
od bi
myśl ą</w>
y e
progra my</w>
m nó
s c
godzi nę</w>
urzą dzenie</w>
uniwersyte t</w>
st ały</w>
przy da
u śmie
komunika cji</w>
żyw ności</w>
za sko
bada w
nau czyć</w>
zna ć</w>
sie dzi
ener ge
skła da</w>
zaczą ł</w>
mar ca</w>
znaj dziesz</w>
technologi a</w>
przy jm
row any</w>
ka wy</w>
cj o
wy wia
k tach</w>
3 d</w>
s co</w>
stan ę</w>
sk ra
dz ąc</w>
dru gim</w>
st ał
sprzę t</w>
nio nych</w>
słysze ć</w>
za jmuje</w>
bryta nii</w>
s ce</w>
prysz ni
p su
re s</w>
prze ka
prysz nic</w>
bo i
z mu
kont ra
ta nie</w>
dzie liśmy</w>
skła dni
za interesow
ró b
dzien nie</w>
wol no</w>
p r
cza nie</w>
chi n</w>
cer tyfika
zna czenia</w>
dow ych</w>
bezpłat ne</w>
sk ów</w>
pi sz</w>
la nie</w>
decy zji</w>
war i
na sto
b ła
środ ka</w>
udogod nienia</w>
la m
now i
ber t</w>
mini ma
two rzenia</w>
zrobi sz</w>
offi ce</w>
e- maile</w>
chrystu sa</w>
chro nić</w>
/ nie</w>
t ra</w>
ta cji</w>
kl ę
ży ciem</w>
zna ny</w>
seku nd</w>
u szko
ty ków</w>
za war
og rze
że ń</w>
tysią ce</w>
fał szy
od wo
ilo ści</w>
y a
pu ść</w>
ja ka
nie wol
ma tema
gwa rant
nie źle</w>
d ra</w>
klik nij</w>
bizne su</w>
u wol
me to
dzie wię
poko jach</w>
kow anych</w>
rz ony</w>
cór ka</w>
mógł by</w>
by tu</w>
o czywi
mieszkań ców</w>
wi ę</w>
rodzi nę</w>
men u</w>
ła ń
za cji</w>
psy chi
fan ta
wymaga nia</w>
we ź
dy spon
progra mie</w>
kwesti i</w>
głów nym</w>
do tar
d niej</w>
po stępo
pamięta ć</w>
ra mi
łań cu
muzy ka</w>
płat ności</w>
wcze s
stwo rzy
spo ro</w>
niko m</w>
komu ni
co ne</w>
moc no</w>
we ne
inte n
z groma
sz cz</w>
i dziesz</w>
sze re
x x
ucz ci
kow a</w>
znaj dź</w>
zna czą
dar mowe</w>
di a</w>
wy ch
3 4</w>
no gi</w>
kwiet nia</w>
proble mu</w>
mi ć</w>
akade mic
lip ca</w>
widział am</w>
ro sja</w>
pięk ny</w>
za biera
kultu ry</w>
szko da</w>
sk an
3 8</w>
t ha
na ci
prze prowa
5 0
przyjacie le</w>
pro ś
mo du
czy ż</w>
ar i
bó l</w>
wa sza</w>
przy sług
par king</w>
herba ty</w>
spozy cji</w>
vi lla</w>
dobr ą</w>
a spe
zrobi my</w>
po stęp
ki lo
pa sa
wró cę</w>
je dzenia</w>
in nej</w>
sek wen
ni sz</w>
narzę dzi</w>
5 .
za czekaj</w>
d ałem</w>
r uje</w>
ne w</w>
ma sa
1 50</w>
ś ć
od nale
seri o</w>
dza ją</w>
dodatkow e</w>
czar ny</w>
ba ga
słyszy sz</w>
wiel kim</w>
s -
pozost ał
4 4</w>
u łat
h or
chci ałabym</w>
oj cem</w>
mili ony</w>
państ w
poli cji</w>
du cha</w>
związa nych</w>
w ka</w>
niej szym</w>
nia jąc</w>
telef onu</w>
poprze dni
at mos
wyso kości</w>
20 00</w>
4 0
zabi ł</w>
dzi a
ce nę</w>
by cie</w>
o krop
proce su</w>
po kry
obia d</w>
ob serwa
zasob ów</w>
t ną</w>
sta tu
pro mo
pie lę
per so
międzynarodow e</w>
4 2</w>
biule tyny</w>
telewiz ji</w>
sz ony</w>
u pa
mart w</w>
k rze
de pozy
wol ny</w>
ó sł</w>
wy kaza
la nia</w>
bra zy
słoń ce</w>
osob ą</w>
a ir
si g
ła mi</w>
on z</w>
naz wę</w>
kompu ter</w>
studi a</w>
oce ny</w>
3 7</w>
zależ ności</w>
dro gą</w>
źród ła</w>
że gna
liza cję</w>
cią ży</w>
3 9</w>
abso lu
przywó d
przeglądar ki</w>
kata lo
ty po
me n</w>
luk su
st em</w>
społecz ności
a rab
rz am</w>
pomó ż</w>
st ra</w>
sprz ą
po wyżej</w>
j na</w>
z du
peł ne</w>
l li
do jechać</w>
bada nie</w>
tu ż</w>
kow ego</w>
otwó rz</w>
ob ie</w>
ne go
me tra
licz bę</w>
kosz ty</w>
1 :
ek spor
wypa dek</w>
wska ź
cz uje</w>
za ma
od czu
metod y</w>
sie d
za trzymać</w>
u praw
t -
zało ży
ge ni
wraca ć</w>
o cho
b lu
ni ona</w>
i di
okreś lone</w>
bra ta</w>
toż samo
osob i
pho ne</w>
spo śród</w>
robo ta</w>
pow sta
gra tu
dy j
prezyde nta</w>
pa t
o l</w>
p ł
ch un
pun kt</w>
si ł</w>
zasa d</w>
two rzenie</w>
korzysta nia</w>
dre w
sprze daw
króle w
u trzyma
twier dzi</w>
nia nie</w>
wró ci</w>
rze c</w>
bal ko
środowi sko</w>
zobaczy my</w>
zaj mie</w>
minu ty</w>
u mowy</w>
je zi
zasa dni
wyso ki</w>
t nego</w>
bez pośre
mnó stwo</w>
dru gą</w>
przesz ka
wy kła
now i</w>
do strze
wy no
czy ło</w>
powietrz a</w>
po czy
sprób ować</w>
ne t
mie nie</w>
me go</w>
za rabi
rz one</w>
na dz
jeżd ża
ow ałem</w>
przy pomi
go sła
zni sz
przedstawi cie
potrzeb ują</w>
zespo łu</w>
te st</w>
re zu
prezy den
waż ny</w>
u wierzyć</w>
a ni
dr in
cze ch</w>
cj an
roz e
nie bie</w>
se kcji</w>
posia da
sze k</w>
prze czyta
e mu</w>
sk y</w>
za słu
wiel kiego</w>
geor ge</w>
rezu lta
zie mia</w>
pol ski</w>
proce du
gdy byś</w>
rezy g
z ł</w>
pó jść</w>
da waj</w>
pd f</w>
g la
9 9</w>
u dowod
g ri
wyz wa
sku r
po cho
ciaste czek</w>
po mie
nict wo</w>
mieszka nie</w>
seku n
mógł bym</w>
funk cja</w>
s co
drugie go</w>
że go</w>
l or
gó rze</w>
syste mie</w>
pomi mo</w>
tu jesz</w>
sy nu</w>
o r</w>
la ć</w>
tow a</w>
st wem</w>
dział em</w>
ście m</w>
mi u</w>
al ną</w>
wykorzysta ć</w>
w hi
obsłu gi</w>
wło sy</w>
wi dzi</w>
dostęp ny</w>
wspar cia</w>
użytkow nicy</w>
na pę
powiedział am</w>
al nie</w>
wir tu
ty sty
pozy cję</w>
nie rucho
mło dzie
jako ś</w>
produ cent
c -
włas nej</w>
ga nie</w>
chłopa k</w>
po rozmawia
dyst ry
więk sze</w>
scy pli
er i
bryta nia</w>
łóż ko</w>
po słu
męż a</w>
li na</w>
kon cer
w pad
resz ta</w>
prac ował</w>
a kcji</w>
słoń ca</w>
połą czenia</w>
a po
spró buj</w>
se r</w>
powró t</w>
tre ni
funk cjona
z organiz
st ri
kan dy
automa tycznie</w>
ste k</w>
odpowie dnie</w>
dy fi
szczęśli wy</w>
o gie
stą pić</w>
przy nio
ca ć</w>
sam ą</w>
ni łem</w>
pio sen
mo ty
internetow ych</w>
fi li
u le
wo li</w>
two rzyć</w>
f f</w>
widzi my</w>
pun któw</w>
materiał ów</w>
inf o</w>
su r
p ło
gh t</w>
wypa dku</w>
kró la</w>
k ują</w>
otwie ra
ka nie</w>
pow stał</w>
sto i</w>
na pisał</w>
jaką ś</w>
ty p</w>
o głosi
kom for
szczegó łow
ga my</w>
sam ych</w>
kompute ra</w>
wo dę</w>
po biera
bo giem</w>
włas nego</w>
tow any</w>
dzi my</w>
ty ka</w>
znalaz łem</w>
nie win
/ i</w>
roz miar</w>
nie spo
no m</w>
robo ty</w>
ra port</w>
poli cjan
pun ktu</w>
naz wy</w>
tycz nym</w>
po byt</w>
ci sz</w>
mo ment</w>
następ nym</w>
mi ą</w>
szac un
sz one</w>
4 7</w>
zda nie</w>
klimaty za
wiar y</w>
mai l.com</w>
ma le
d ało</w>
szyb ki</w>
sz k
er ów</w>
t owania</w>
na ra
mo j
tor y</w>
landi a</w>
dar mo</w>
skom pli
roz ry
mo dyfi
mi sji</w>
8 0
me ne
narzę dzie</w>
dobra noc</w>
z robi</w>
tech nik</w>
tek st</w>
sza ć</w>
siost ra</w>
mężczy źni</w>
ne ga
znalaz ł</w>
roz mowy</w>
u czyć</w>
ba sen</w>
mo n</w>
ce le</w>
ta cy</w>
jedy ną</w>
i na</w>
z uży
koch a</w>
fir mę</w>
3 6
za danie</w>
począ tkow
po myśl
star a</w>
pokaz uje</w>
zosta je</w>
po kła
la cja</w>
każ dą</w>
t ował</w>
budy nek</w>
rozwiąza ń</w>
poko j
ostate cznie</w>
nie do
gu e
4 -
miesią ce</w>
listopa da</w>
y god
dy scypli
19 5
nale żą
daw na</w>
go ść</w>
dzi li</w>
a da
od pa
dy spozycji</w>
czy ni</w>
uni i</w>
zgin ę
zda niem</w>
wyso kość</w>
li sz</w>
rea g
bit co
wy bo
kole i</w>
c le
za trud
t z
r i</w>
otwar te</w>
południ owej</w>
przyjaciół mi</w>
mówi ła</w>
ba se
mał ych</w>
chłopa ki</w>
bud że
t ch
rzą c</w>
na pa
duż ą</w>
ni am</w>
mini ster
pan em</w>
mog ło</w>
szy ł</w>
po wód</w>
tygod nie</w>
ob ni
nie wiele</w>
wspani ałe</w>
łat we</w>
pomo c
par la
kra je</w>
10 -
ń skim</w>
zoba czenia</w>
od dy
wiar ygod
nie ważne</w>
powo dów</w>
potrze b</w>
uczni ów</w>
c s</w>
star e</w>
mar ki</w>
lep szy</w>
pozwo lić</w>
pole ga</w>
niesamowi te</w>
4 3</w>
4 1</w>
szczę ścia</w>
ni ósł</w>
najwięk szych</w>
fran ci
de ł</w>
ma c</w>
wspani ale</w>
ener gi
bior ąc</w>
t r</w>
przesz łości</w>
z łego</w>
sta m
re prezent
ra chun
pu l
po prosi
ń cie</w>
za prze
ob y
ostat nia</w>
miejs cem</w>
po czekaj</w>
telewiz ję</w>
sp a</w>
u trzy
u bezpie
al na</w>
l la
głów ne</w>
ar d</w>
szuka j</w>
f ry
wraca j</w>
prost o</w>
spotka nia</w>
mie j
świet ny</w>
pie s</w>
po land</w>
nie niem</w>
mo no
ga la
zja wi
ro wie</w>
o ku
biu ra</w>
włas ny</w>
wa jąc</w>
t li
u szy</w>
na ru
głow ie</w>
świą ty
zna k</w>
ją ł</w>
wspom ni
nazy wam</w>
dziec kiem</w>
d any</w>
3 5
nię te</w>
fir mie</w>
dyna mi
zosta ń</w>
t nt</w>
mar y</w>
japo nii</w>
in ną</w>
re b
łą czy</w>
zdecy dowanie</w>
przyja z
pie nie</w>
bur g</w>
za zna
li stę</w>
by łaś</w>
t i</w>
pla ży</w>
otwar ty</w>
for d</w>
bezpie czne</w>
porówna niu</w>
działa nie</w>
o ca
lu tego</w>
książ kę</w>
i l</w>
usytu owany</w>
prawdzi wa</w>
ni li</w>
cz nymi</w>
zmar ł</w>
bie rze
ob licz
ko p
do kon
prze ba
od niesie
terro ry
są sie
sposob ów</w>
północ nej</w>
ogie ń</w>
niem czech</w>
interne cie</w>
te l</w>
bło gosła
ni om</w>
cz ników</w>
jor k</w>
sprawiedli wości</w>
ma r</w>
ci ar
mieszka nia</w>
now o</w>
no ś
mówi łeś</w>
amerykań ski</w>
cz ni</w>
co f
tycz ną</w>
wyda rzenia</w>
skar bie</w>
ro wał</w>
sz li</w>
ryzy ka</w>
ka b
po sił
w kła
nale ż
od dzie
organiza cja</w>
konta kt
sto n</w>
staro ży
otwo rzyć</w>
kow o</w>
ja kiego</w>
gospodar ki</w>
pro m
opie ki</w>
budow any</w>
zdo być</w>
wró ć</w>
użytkow nik</w>
s mo
najwięk szym</w>
dostęp em</w>
ńst wem</w>
ł ę</w>
przyj dzie</w>
d ło</w>
każ ę</w>
wyposa żenie</w>
re sor
jaka ś</w>
dzt wo</w>
waż na</w>
sow ej</w>
bie żą
spowo dow
da ń</w>
szcze rze</w>
spoty ka
si a</w>
d wa
włas ności</w>
sk ę</w>
metra ch</w>
ow ymi</w>
który mi</w>
-gwiazd kowe</w>
bi ały</w>
prawdo podob
fil mów</w>
ro m</w>
księż ni
pozost ałe</w>
gwa ran
po cał
in fra
młod ych</w>
je dzie</w>
dystry bu
bar ce
ma x</w>
fran k</w>
cz o</w>
s ować</w>
cz cie</w>
wy ro
ode jść</w>
nie dzie
gwiaz dy</w>
międzynarodow ego</w>
st owa
jakie goś</w>
charak te
musi cie</w>
jedna k
gów no</w>
a a
wyposa żony</w>
dotycz ą
kaza ł</w>
g rę</w>
v an</w>
skry p
żon ę</w>
zna ne</w>
ro wy</w>
a kt
u fa
4 00</w>
pyta ń</w>
po e
gra m</w>
zanie czy
9 5</w>
transpor tu</w>
nie zwykle</w>
a ge
opi nie</w>
stowa rzy
wiedział am</w>
micha el</w>
sł em</w>
pa trzeć</w>
klu cz</w>
na ś</w>
cięż ar
zarzą dz
o ne
za zdro
bu ty</w>
so r</w>
sierp nia</w>
po le</w>
j ki</w>
przetwarza nie</w>
v al
t nym</w>
moj że
powierzch ni</w>
ow ano</w>
bie ra</w>
tor y
da jąc</w>
po grze
pier wo
ob razu</w>
so na</w>
powin naś</w>
decyz ję</w>
ok na</w>
b ły
pierwsz ych</w>
jednak że</w>
d ry</w>
u p</w>
stanowi ą</w>
bie rze</w>
sa u
posta ci</w>
żo nego</w>
o ść</w>
n nej</w>
cza sach</w>
bi ć</w>
wido kiem</w>
cza sów</w>
chłop cy</w>
samo bój
powo li</w>
nie sie</w>
sk y
dodatkow ych</w>
z godzi
podstaw owe</w>
m ych</w>
ja mi</w>
filozo fi
3 ,
o ka</w>
kor pora
organ ów</w>
sta tysty
biur ko</w>
ro cznie</w>
fe r</w>
ch e</w>
wa szy
cz em</w>
chodzi ło</w>
w zy
t owanie</w>
od bior
mian ę</w>
la u
prze pły
od por
wy mi</w>
ser ii</w>
dzi an
za si
od twarza
przemysł u</w>
p sa</w>
waszy ng
p ała
ele menty</w>
prze tr
kata stro
kur sy</w>
h am</w>
o gło
bezpłat ny</w>
więk szą</w>
spe cyfi
qu e</w>
muzy ki</w>
d ka</w>
n ować</w>
ne w
de sig
mo rza</w>
ok no</w>
fran cja</w>
4 9</w>
op cji</w>
hiszpa nia</w>
da jcie</w>
zapom nij</w>
to p</w>
g roz
działal ność</w>
bi a
mie ni
ochro na</w>
jedy ny</w>
do dać</w>
de li
aplika cje</w>
czu ć</w>
analiz y</w>
rze niu</w>
poten cja
pl any</w>
materi ały</w>
c ra
prosi my</w>
poczu cie</w>
e mery
pracow nicy</w>
ną łem</w>
f t</w>
zie lo
pi sy</w>
dź my</w>
u bo
ś le</w>
rusza ć</w>
nasto la
i mieniu</w>
s che
ban ku</w>
mówi my</w>
głów nych</w>
u wzglę
re cen
proje któw</w>
opis uje</w>
no s</w>
for my</w>
dodatkow o</w>
diab ła</w>
4 6</w>
wy miany</w>
stan owie
pro te
d ną</w>
są dzisz</w>
ma s</w>
po tę
doj rz
ta n</w>
mu se
funk cjon
cia ch</w>
międzynarodow y</w>
le ci</w>
ch le
je r
200 6</w>
nie pełno
le czenia</w>
im per
rów nie</w>
niezbę dne</w>
da li</w>
szkole nia</w>
st ej</w>
sk ró
nie zawo
móz g</w>
dza nie</w>
ż li
tu ry</w>
mo sk
lekar z</w>
powin nam</w>
techno lo
gotow i</w>
co lle
za my
ro wi</w>
opera cji</w>
obsłu g
k ta
swo bod
o ni
zosta li</w>
nie długo</w>
nie dawno</w>
zdecy dow
wia ł</w>
tu ry
szero ki</w>
sty l</w>
różni ca</w>
prac uję</w>
kie rować</w>
in gu</w>
stu jemy</w>
ob ję
chę tnie</w>
dza nia</w>
ti n</w>
pol ska</w>
po two
infra struktu
wra żenie</w>
pacje ntów</w>
robi ł</w>
nt u</w>
kateg orii</w>
dziewczy nę</w>
podej rz
liz ować</w>
al nego</w>
sze ni</w>
mie się
ll o</w>
pew nym</w>
powie dzieli</w>
ży ła</w>
wy nik</w>
ostatni m</w>
kobie tą</w>
biu ro</w>
nega tyw
inter national</w>
fil mu</w>
duż ych</w>
wyją tkiem</w>
sze f</w>
stos ować</w>
moni to
cie szyć</w>
posia dają</w>
l ki</w>
dro b
był by</w>
osobi ście</w>
ze m
du p
wska za
odpowiedzial ność</w>
że niu</w>
otrzy m
g ę
oko licz
koń c
wy sił
stosow ane</w>
rodzi nie</w>
g h</w>
ż u
mu zu
10 00</w>
ski mi</w>
połow a</w>
por tu
wspó lno
st ka</w>
przyjacie lem</w>
duż a</w>
3 -
wydaj ność</w>
rów no
po bierz</w>
musie li</w>
m p</w>
dobre j</w>
z gło
po wiado
wy niku</w>
wia jąc</w>
pro ro
s ją</w>
k cję</w>
nię ty</w>
ką pie
pi ą</w>
d v
bo ję</w>
naro dów</w>
muzu ł
je k</w>
kola cję</w>
dłu gi</w>
za ła
za się
parti i</w>
ch an
szpita la</w>
i phone</w>
de te
be r</w>
studi o</w>
koń czy</w>
śre dnia</w>
y ou
pod pis
uwielbi am</w>
kon sekwen
prze ło
po bytu</w>
n s</w>
konty ne
za dania</w>
nę ły</w>
le t</w>
k wo
bu si
roz wa
li mi
kłopo ty</w>
chcie li</w>
z nie
uważa sz</w>
ob a</w>
następ nego</w>
komi te
regi ona
pozwo li</w>
wu j</w>
pra ce</w>
u p
szko dli
specjal ne</w>
nu mer
człowie ku</w>
transa kcji</w>
ni owe</w>
zamie rza
mówi łam</w>
z loka
wie c</w>
chwi la</w>
wy nika</w>
prywat ny</w>
ponie dział
przy spie
a para
niej szą</w>
loka lizacji</w>
ka l
głów ny</w>
następ ujące</w>
doskona le</w>
w stęp
stwo rzył</w>
let ni</w>
izra ela</w>
ży wo</w>
szuka m</w>
jeżd ża</w>
sub stan
gotow a</w>
usu nąć</w>
amery ce</w>
kr wa
m l</w>
chole ry</w>
tow ane</w>
zach ować</w>
sł owa
medi ów</w>
chło piec</w>
wła dzy</w>
rze j</w>
m ro
by cia</w>
logi czne</w>
roz są
łó żek</w>
ofer ty</w>
j ka</w>
f em</w>
8 .
eksp lo
czy łem</w>
za gad
uniwersyte tu</w>
obraz ów</w>
niespo dzian
minu tach</w>
odpowia da</w>
opi nii</w>
wspani ały</w>
r d</w>
prze gra
ucie k
stop niu</w>
mow ej</w>
z mart
gie ł
twi t
a war
uczni owie</w>
ra ka</w>
osie m</w>
o pe
j i
resz tą</w>
przyjacie la</w>
in na</w>
spo dob
al ter
usta wienia</w>
pew ność</w>
ują cej</w>
n ką</w>
karie ry</w>
bli żej</w>
powie dzi
niepełno spraw
społe cznych</w>
podob no</w>
musi ała</w>
no -
ka len
pa la
obo je</w>
kon stytu
bu tel
rze czą</w>
re du
ma jąc</w>
le gen
ele mentów</w>
ły by</w>
ma t</w>
za pis
dwu osobowy</w>
ostat niej</w>
la p
mia n</w>
kryp tow
ele gan
kryptow alu
apart hotel</w>
200 5</w>
opi s</w>
sta ch</w>
st ego</w>
pi kse
nie leg
um rzeć</w>
i migra
fo l
obro ny</w>
myśla ł</w>
ma na
ini cja
dyre ktor</w>
ba rze</w>
ela sty
e pi
e a
musi ałem</w>
liz owane</w>
finansow ych</w>
za py
z bior
pa ch</w>
na ście</w>
mi ke</w>
od gry
sza my</w>
dorosł ych</w>
a stro
7 .
spoko ju</w>
li sty
o ra
głu pi</w>
cz uj
przestrze ń</w>
prze by
zakwate rowanie</w>
wra cam</w>
najlep sza</w>
ko szu
be l</w>
v in
op cje</w>
nie ś</w>
kon gre
łazie nka</w>
unik nąć</w>
doda j</w>
ał bym</w>
wz moc
u zupeł
pryszni cem</w>
atmos fer
s .
ni ce</w>
l ka</w>
włas nym</w>
sow ego</w>
po myślałem</w>
le k</w>
zosta wić</w>
nau czania</w>
rodzi ną</w>
z gubi
nagro dy</w>
le ń</w>
doku menty</w>
angli i</w>
platfor my</w>
mógł byś</w>
la r</w>
j nego</w>
dom ki</w>
p c</w>
la m</w>
po bra
opty ma
labora torium</w>
bo x</w>
ży ją</w>
za twier
zwięk szyć</w>
wspó lnie</w>
ga z
kocha sz</w>
fit ness</w>
korzy st
d ował</w>
ś w</w>
da y</w>
tak só
la cje</w>
sły szę</w>
ro we
rodzi n</w>
na de
ca l</w>
sta le</w>
l ane</w>
ci cho</w>
zdo lność</w>
ści ą
zastos owanie</w>
su ger
obsłu gi
ob chodzi</w>
ubie gł
ty łu</w>
szczegó lności</w>
natu ry</w>
prze su
si on</w>
on s</w>
niko mu</w>
klien ci</w>
zło ta</w>
ra ny</w>
og ród</w>
o kła
ca n</w>
warto ści
se t</w>
kłam stwo</w>
więzie nia</w>
wiel kości</w>
u trzymać</w>
sta ją</w>
uży wane</w>
6 .
sposob y</w>
pu sty
w kę</w>
zrobi ła</w>
odległo ść</w>
samolo t</w>
warun kach</w>
jedy ne</w>
za stęp
poin t</w>
k lub</w>
a ve
szczegó ły</w>
ob cią
c d</w>
a s</w>
g mail.com</w>
ma na</w>
głu p
da nie
char lie</w>
busi ness</w>
wę g
kandy da
wyso kie</w>
s ali</w>
po dzi
be n</w>
8 5</w>
zna my</w>
ukła d</w>
i p</w>
szczy t</w>
za miar</w>
f u</w>
mał ą</w>
e ty
cze ni</w>
ba zy</w>
st ró
i r</w>
da n</w>
ła p
miejs cach</w>
wo lę</w>
przyci sk</w>
chodzi my</w>
powo dzenia</w>
foto gra
znalezi ono</w>
sposob em</w>
para metrów</w>
najwięk szy</w>
ta l</w>
swo imi</w>
low ane</w>
prze kro
y wać</w>
resor t</w>
maszy ny</w>
ka to
prze kształ
u nek</w>
de k
st rz
najwięk sze</w>
par ta
mo to
do chod
d niach</w>
za jąć</w>
po jem
sprzę tu</w>
dziesię ciu</w>
teri i</w>
nt ow
al o
ża ć</w>
prac ują</w>
ni by</w>
ksią żek</w>
zni szcz
si ła</w>
sen s</w>
miło sier
d ry
a t</w>
skle p</w>
nie niu</w>
zy wać</w>
ura tować</w>
ob razy</w>
niemie c</w>
li tera
dostęp nych</w>
ci my</w>
a to
za prawdę</w>
sił ę</w>
zebra ne</w>
por tu</w>
odpowiedzial ności</w>
-gwiazd kowym</w>
szan sa</w>
kaz uje</w>
czę sto
mog ły</w>
dzie cie</w>
zdo lności</w>
zabaw ne</w>
ofer ują</w>
gl oba
trze ci</w>
krea tyw
jed ź</w>
do ktor</w>
słysz ałeś</w>
szuka sz</w>
za akcep
w dro
stó p</w>
rzu cić</w>
najlep szą</w>
naj częściej</w>
d że
6 0
z le
u lep
sia daj</w>
przesta ć</w>
ko ło</w>
wy ników</w>
du żej</w>
przypad kach</w>
li czy</w>
ti ve</w>
wo ka
ou t
wykorzy stujemy</w>
d ge</w>
ko lum
budow y</w>
nu r
foto grafi
an ymi</w>
s ny</w>
obsza r</w>
wil li
rusza j</w>
ge n</w>
osiąg nięcia</w>
zapew nienia</w>
sta tek</w>
4 5
ty z
te a
o t</w>
ko ro
wyj ścia</w>
wy róż
po dzięk
k ował</w>
syste mem</w>
rozpo czy
absol we
wa n</w>
ucie c</w>
ro śnie</w>
a tak</w>
środowi sku</w>
bizne s</w>
trzy ma</w>
ga ł</w>
9 .
gotow e</w>
londy nie</w>
angiel ski</w>
wcze śnie</w>
przy stan
on ymi</w>
ni gdzie</w>
myś lenia</w>
baga żu</w>
zobaczy sz</w>
wyraź nie</w>
zaję cia</w>
se tki</w>
proble mem</w>
t te</w>
podej ście</w>
d ują</w>
usłu ga</w>
pa ul</w>
dow ód</w>
stra ch</w>
oglą dać</w>
materi ał</w>
zegar ek</w>
wi ą</w>
ludz kości</w>
eg za
w ście
nau ka</w>
chro ni
zagrani cznych</w>
peł na</w>
mecha niz
dz onych</w>
u st</w>
okoli cy</w>
ha sło</w>
z dob
wła dze</w>
st ki</w>
kompute rze</w>
e wolu
długo ść</w>
du szy</w>
w si</w>
ma nie</w>
czeka m</w>
sz ki</w>
ra da</w>
osob ę</w>
mu ni
śli ć</w>
dokto rze</w>
wita my</w>
ser vi
nia my</w>
leka rza</w>
owo ści</w>
k g</w>
li j
kow ą</w>
c kim</w>
z wło
nie daleko</w>
3 7
wor ld</w>
pamię ć</w>
klucz owe</w>
ja kiej</w>
ja kich</w>
inwesty cji</w>
bra wa</w>
mi na</w>
- nie</w>
ś ni</w>
zatru dni
zesz łym</w>
zasa dzie</w>
warun ków</w>
przy chodzi</w>
po glą
w strzy
k ing
hote low
de parta
chodź cie</w>
zaba wy</w>
austra lii</w>
przygo tować</w>
za plan
mist rz</w>
mi j</w>
znaj dziemy</w>
wy brze
lubi ą</w>
ja mes</w>
f ur
stos owania</w>
przewi dy
cho dzisz</w>
robie nia</w>
n nego</w>
mat ką</w>
bez przewo
za koch
o -
żo nym</w>
wszyst kimi</w>
pod ą
do u
zawo dni
tow ą</w>
je mnie</w>
facebo ok</w>
se na
witry ny</w>
l ie
/ w</w>
og nia</w>
papie ro
zapew ne</w>
za to
wa y</w>
tr ą
przemy słow
ni n</w>
mie sz</w>
kana łów</w>
czo ści</w>
mó c</w>
men tem</w>
g rze</w>
fak tycznie</w>
zapyta ć</w>
v o</w>
cało dob
ros ną
/ to</w>
w rę
u t
okaza ło</w>
jakie j
c re
łą cznie</w>
am ba
komple k
śmier te
re si
mer i
letni skowe</w>
dia gno
aplika cja</w>
doku mentów</w>
śli j</w>
zu j</w>
perso ne
do szło</w>
czy ste</w>
pi lo
woj nę</w>
praw em</w>
na me</w>
fi na
boha te
potrafi ę</w>
decyz ja</w>
trze cie</w>
rezerwa cji</w>
przyja ź
połow ie</w>
śro dek</w>
zakre s</w>
poja wił</w>
li s
d -
i zo
uży wa</w>
le ktu
ą cego</w>
z rezyg
czy nienia</w>
żad ne</w>
dow a</w>
6 4</w>
n nie</w>
ś lub</w>
resz tę</w>
kom pa
instytu cji</w>
wy pi
wie rzy</w>
pa pier
wy myśli
h o</w>
a ją</w>
a nie</w>
prowa dził</w>
uj my</w>
po szczegó
natura lne</w>
bo ż
bo ok
połu dnie</w>
prawdzi wym</w>
kontro l
inten syw
znaj dzie</w>
słysz ałam</w>
pas uje</w>
j nym</w>
li czyć</w>
wykona ć</w>
y fi
wi ony</w>
technolo gie</w>
rozwija ć</w>
powstrzy mać</w>
st ych</w>
kosz t</w>
sob o
połu dniu</w>
davi d</w>
wy do
n nym</w>
ocza ch</w>
nę li</w>
daw ane</w>
sp er
n -
kam pa
stró j</w>
od poczy
mul ti
inter fe
rea lizacji</w>
le n</w>
zach owanie</w>
pod su
wza jem</w>
podwó jne</w>
źró deł</w>
po szedł</w>
h d</w>
e d</w>
dowie dz</w>
świę tego</w>
projekt owania</w>
two i</w>
sz pie
sui te</w>
obiec uję</w>
hote l
powo duje</w>
zda je</w>
więk szy</w>
t le</w>
ow anym</w>
6 6</w>
5 1</w>
plu s</w>
mą dro
kamer y</w>
dzię kujemy</w>
bi a</w>
rzy my</w>
obie tni
klima tycznych</w>
kato li
p em</w>
ogrze wanie</w>
stra ż
pra sowania</w>
obywa tel
tę dy</w>
to rem</w>
stąpi ł</w>
od kąd</w>
al bu
wol ne</w>
sow a</w>
praw ej</w>
tu ne
wo od</w>
wer yfi
pro gno
liz m</w>
fo r</w>
uży wany</w>
sow i</w>
ar gu
amerykań skich</w>
1 1
rę cz
rze niem</w>
ra kie
strate gii</w>
ra j
o świet
go rzej</w>
kocha ć</w>
dobr ych</w>
ra tu
ni owo</w>
mówi li</w>
mo ne
czy k</w>
bio logi
ni ał</w>
jedy na</w>
3 8
mu n
mikro fal
krzy w
stą pi</w>
pod łą
ni na</w>
sta di
port fe
sz ó
skó ry</w>
s ąd</w>
roz gry
mi ny</w>
słucha jcie</w>
prób uje</w>
potrzeb ny</w>
w ano</w>
sukce su</w>
space rem</w>
chi ca
ce s</w>
pi sze</w>
ży li</w>
wiel kich</w>
s la
gospodar ka</w>
o póź
o ko</w>
ha t
wyglą dać</w>
o czu</w>
wal ka</w>
mag ne
t ują</w>
pre ss</w>
zaczę ła</w>
w cie</w>
pią tek</w>
m ld</w>
kos me
cz ko</w>
ła ć</w>
więk sza</w>
wi one</w>
szyb kie</w>
po patrz</w>
mi ły</w>
ą cym</w>
wydaj ności</w>
sin ga
rodza je</w>
mode lu</w>
pu ł
isto tne</w>
ca my</w>
wa łam</w>
poja wia</w>
two rzy</w>
dyspon uje</w>
cie l</w>
amba sa
j nej</w>
strasz nie</w>
na wzajem</w>
4 ,
wy tłuma
u rodziny</w>
do my</w>
cie ń</w>
sze ściu</w>
produk cja</w>
co na</w>
w st
uży te
u trzym
samo dzie
od de
charak ter</w>
kon wer
chci ałeś</w>
ro li</w>
dzie cię
ał by</w>
podstaw owych</w>
mili on</w>
czę ści
wszel kich</w>
row ą</w>
mili ona</w>
mow ego</w>
służ by</w>
klie nt</w>
kali for
rozwiąza ć</w>
ogrom ne</w>
dosta ł</w>
d niego</w>
pięk nie</w>
medy cy
wyż sze</w>
szpita lu</w>
nau k</w>
konferen cji</w>
ga le
po la</w>
miar u</w>
mu jemy</w>
le ni</w>
zło to</w>
su ge
do l
po ch
pis ów</w>
nor we
ni s</w>
le wej</w>
al nym</w>
200 4</w>
wy nika
uczu cie</w>
puści ć</w>
przy jść</w>
jednost ki</w>
ba ch</w>
5 2</w>
wa kacje</w>
obywate li</w>
nie si
ni k
dowod y</w>
znaj dą</w>
cze kola
uży tku</w>
międzynarodow ym</w>
do sy
są dzie</w>
for um</w>
deli ka
cz my</w>
cen ter</w>
ł ko</w>
wa łeś</w>
to ny</w>
ko ment
zna ki</w>
wyjaś nić</w>
pe ter</w>
it p</w>
gł e</w>
żad na</w>
tu be</w>
to le
mow ą</w>
woj nie</w>
s sa
proje kty</w>
kos mo
lu n
/ a</w>
sta li</w>
par ku</w>
obejm ują</w>
o nym</w>
l kę</w>
z bi
przy cią
d kę</w>
wykorzyst uje</w>
ochro nę</w>
zmie ni</w>
re kor
or e</w>
ba wić</w>
afry ki</w>
re d</w>
ka wiar
preze nt</w>
na ri
finansow e</w>
u chodź
mist rz
jech ał</w>
i l
doty ka
szu ka</w>
regi onie</w>
aparta ment
wy le
sta mi</w>
war sza
przod u</w>
p sy</w>
dz ona</w>
ó b</w>
wra żli
niebezpie czne</w>
kobie tę</w>
wy pła
t ni</w>
obsłu ga</w>
noc le
hiszpa nii</w>
go kolwiek</w>
du ch</w>
ety kie
dza sz</w>
dow ej</w>
9 9
r gi
pew ny</w>
najnow sze</w>
for mow
drze wa</w>
a byś</w>
ograni czenia</w>
ce nt</w>
pod mio
de kla
pun ktach</w>
no ż
andro id</w>
ry wa
przypad ków</w>
praw y</w>
ob by</w>
od nowi
wię ź
vi a</w>
peł nym</w>
na szymi</w>
dzi ad
ska za
ce chy</w>
za ofe
so ju
wymag ane</w>
oficjal nie</w>
błę dy</w>
za bierz</w>
nt i
do jazd</w>
ma ster</w>
rozpoczą ć</w>
wie rzą</w>
łatwie j</w>
u słyszeć</w>
sza blo
skrzy w
prze kra
ho me</w>
czą c</w>
ż ki</w>
meto d</w>
ar mii</w>
rzad ko</w>
inte gro
umy sł</w>
dokona ć</w>
al ar
wa niem</w>
sz ka</w>
rozu mie</w>
zna czników</w>
za blo
jo e</w>
cza jąc</w>
rę ki</w>
k y
za mor
in i</w>
7 -
zach owania</w>
robo tni
prz ód</w>
mog łam</w>
z uje</w>
dział y</w>
zwro tu</w>
pre cy
odpowie dział</w>
kr ą
ba ć</w>
żołnie rzy</w>
za ra
wa liśmy</w>
naj szybciej</w>
komunika tu</w>
wysła ć</w>
u ru
przy tu
roz kła
będ ąc</w>
200 3</w>
ludz kie</w>
efe kt</w>
siost ry</w>
cz ką</w>
z wal
s nąć</w>
pielę gni
je sie
inter pre
tym czasem</w>
dosy ć</w>
p -
od ro
przemy sł</w>
pod jąć</w>
oj czy
la ta
miesią cu</w>
f bi</w>
me cz</w>
sy nem</w>
n ty</w>
colle ge</w>
specjal nie</w>
kon tek
jaki mś</w>
ange les</w>
zada ń</w>
t uję</w>
ro wej</w>
le ki</w>
da r</w>
zy ska
za ża
wybu ch
pa tri
u sza</w>
o ś
mi l</w>
angiel skiego</w>
le ków</w>
wia my</w>
patrz cie</w>
cór ki</w>
tygod nia</w>
ni owych</w>
bra cie</w>
po prawić</w>
pary żu</w>
dziewczy ną</w>
w uj
powie trze</w>
po żą
chica go</w>
techni czne</w>
roz waż
8 -
znisz czyć</w>
znale zie
wyz wanie</w>
te orii</w>
s se</w>
m .
0 1</w>
u pra
praw dą</w>
za rzu
sen su</w>
dzi łam</w>
do le</w>
pozy cja</w>
ogrom ny</w>
fo re
wyszuki wania</w>
pri ory
mu j</w>
działa ją</w>
priory te
ow szem</w>
mog libyśmy</w>
dze ń</w>
pun kty</w>
kapita nie</w>
bezpie czny</w>
li to
izra el</w>
czy tel
wa gę</w>
se kto
świę ty</w>
oj cze</w>
komu ś</w>
k owana</w>
har ry</w>
zadzwo nić</w>
szcz u</w>
ra y</w>
roz kaz
fra g
ba k
o kie
ko ry
ofi ar</w>
nagro dę</w>
biznesow ych</w>
ode bra
sz ona</w>
po st</w>
małże ństwo</w>
6 -
we se
gi mna
tu re
opis anych</w>
muse um</w>
ta ble
odwie dzić</w>
kie r
głębo ko</w>
często tli
zrobi li</w>
naz wie</w>
konwen cji</w>
e s</w>
de ka
zd ów</w>
umar ł</w>
rozwią zy
powie dz
d ano</w>
ck y</w>
cie le</w>
błę dów</w>
znaleź liśmy</w>
więk szej</w>
da na</w>
szan se</w>
resi den
po ran
or ie</w>
miesią ca</w>
komór ki</w>
kan ów</w>
grani cą</w>
za sług
pielęgni ar
doty ch
bezpie cznie</w>
aktua lizacji</w>
a zja
słu żyć</w>
ja n</w>
ła byś</w>
zapła cić</w>
wie działa</w>
społecze ństwo</w>
mieszkań cy</w>
po żegna
prze mocy</w>
ma sz
zi den
no szą</w>
ko ra
ko mer
przedsiębior stwa</w>
po lu</w>
od by
a ć</w>
stosu nku</w>
nego cja
zrobi łam</w>
tery torium</w>
wschod niej</w>
przykła dem</w>
w ów</w>
przeci wie
duż ym</w>
za r
qu i
ogó lnie</w>
g ha
wskaz uje</w>
połow ę</w>
komi sji</w>
de pre
zasob y</w>
węg la</w>
ogó lne</w>
fa jnie</w>
ba mi</w>
ce n</w>
a zu
h ała
de s</w>
słysz ał</w>
ra m</w>
oce na</w>
vi n</w>
wa ga</w>
ra na</w>
okaz ję</w>
han del</w>
z wrócić</w>
wyglą d</w>
ro o
najwięk szą</w>
naj star
e s
dzi liśmy</w>
za wartość</w>
wywo ł
wykorzysta nie</w>
wierzy sz</w>
v i</w>
su mie</w>
sto pień</w>
człon kow
wróci ła</w>
wie ści</w>
potrafi ą</w>
po sz
po daj</w>
peł ną</w>
myś le</w>
i ii</w>
ziden tyfi
zajm ę</w>
wzi ął</w>
u działu</w>
mie r
dzie ła</w>
człon kiem</w>
wer sję</w>
produ cen
naukow ców</w>
a pe
publi cznego</w>
dow i</w>
auto r</w>
zna ków</w>
nierucho mości</w>
mo na
stwo rzenie</w>
rela k
należą cej</w>
gimna sty
euro pa</w>
plan u</w>
ły śmy</w>
wy kształ
są du</w>
ca ją</w>
dźwię k</w>
kolej nych</w>
in o</w>
u ma
sz kół</w>
pręd kość</w>
p ą</w>
li czne</w>
kon serwa
ś ró
pasa ż
dziesią t</w>
c m</w>
ci u
ter mina
rz ona</w>
ko du</w>
czy ły</w>
świę ta</w>
wyglą dają</w>
na pię
kar t</w>
cz ter
l nymi</w>
s wych</w>
prywat nych</w>
po pra
o nego</w>
ni ło</w>
rzuci ł</w>
gru p</w>
dz ono</w>
powta rza
oba j</w>
wy pra
row anych</w>
le czenie</w>
wy gry
ro wa</w>
kur su</w>
at lan
widzi cie</w>
singa pu
ra ba
po sła
odnale źć</w>
ni ane</w>
i os</w>
znaj dę</w>
wy chodzi</w>
dzi ale</w>
bizne sowe</w>
3 9
zamie rzam</w>
kontynu ować</w>
h od
wysp y</w>
sie ci
s prowa
poga dać</w>
ma la
izra el
zapom nieć</w>
a h</w>
gwiaz d</w>
szed łeś</w>
poin form
mow i</w>
inte ra
10 .
przysług ujących</w>
odzyska ć</w>
nienawi dzę</w>
n ko</w>
lar z</w>
2 50</w>
zaża lenia</w>
ofer ujemy</w>
20 -
prak tycznie</w>
pa sz
afry ce</w>
ó wek</w>
przyję cie</w>
mart wić</w>
dzt wa</w>
d nego</w>
sta tku</w>
samochod y</w>
no ta
lu j</w>
tka mi</w>
szczęśli wa</w>
sty cznych</w>
stam tąd</w>
inteli gen
wy klu
potrzeb na</w>
konie cznie</w>
autor y
zarządz anej</w>
pi z
usłu gę</w>
s nu</w>
prze pisy</w>
ofiar y</w>
nie możli
b zdu
vi c
księży c</w>
dzi u
uważa ją</w>
ro py</w>
nie cie</w>
naukow ych</w>
k uję</w>
na pisać</w>
ran t</w>
pię tro
odz wier
ok ru
społe cznej</w>
kole ś</w>
kana ł</w>
dosta niesz</w>
z ra
wyco fa
spo ży
reli gii</w>
powie działaś</w>
ni cę</w>
z integro
lin k</w>
kin gu</w>
zrozumie nie</w>
trz ę
po ważne</w>
p ch
doda ł</w>
do trzeć</w>
6 7</w>
5 3</w>
po każę</w>
odzwier cie
o pu
b row
au to</w>
a kty
wy grać</w>
c lar
uży j</w>
t z</w>
ro y
pro cent
ży dow
standar d</w>
prze szko
pod wo
od biera
ni jmy</w>
książ ę</w>
dowo lnego</w>
ze zna
sui tes</w>
du jemy</w>
o ku</w>
ko men
fi re
pisa nia</w>
ko ła
wie dza</w>
odpowiedni o</w>
do tąd</w>
ubra nia</w>
po py
ku jesz</w>
dwo ma</w>
tu jemy</w>
słu sz
dora d
da la</w>
an na</w>
z bud
pikse lowych</w>
ta li
przysię gam</w>
6 00</w>
przyzna ć</w>
proce sów</w>
wypo ży
pe k</w>
gro ź
sł u</w>
ok rą
o prac
o pan
nu s</w>
na tyw
balko n</w>
we b
komi sja</w>
ke nd</w>
ek scy
sytua cję</w>
niej szego</w>
młod a</w>
klie ntom</w>
1 /
zmie nił</w>
zapew niają</w>
z gi
wez mę</w>
ma ją
f l
perspekty wy</w>
d ałeś</w>
tym cza
transpor t</w>
ro wego</w>
po dać</w>
pie przy
miar y</w>
czerwo ny</w>
hen ry</w>
vi lle</w>
obec ność</w>
kow ało</w>
że laz
zwycię z
decyz je</w>
dan ej</w>
więzie niu</w>
op cja</w>
li de
energi ę</w>
bo l
s przed
zadowo lony</w>
sze fie</w>
stop nia</w>
publi cznych</w>
plane ty</w>
okaz uje</w>
dowod ów</w>
chodz ących</w>
i ny</w>
zaczę ło</w>
telewi zy
rę kach</w>
trzy dzie
przysz łym</w>
na prawić</w>
komenta rze</w>
godzi nach</w>
p ro</w>
joh n
je dziesz</w>
je b
ad woka
wee kend</w>
społe czne</w>
do mem</w>
c ke
ja ja</w>
dziewczy nka</w>
do prowadzi
prób ował</w>
for m</w>
czo nego</w>
aktua lizacja</w>
ze j
publi cznej</w>
europej ska</w>
d ney</w>
p l</w>
stwo rzenia</w>
s owanie</w>
odwie dza
w dra
przy wi
mu la
er s</w>
bo ur
su kie
obsza rze</w>
s c</w>
naj więcej</w>
ma lu
lep szego</w>
cha j</w>
wy trzyma
wskaz ówki</w>
ta kimi</w>
jaz da</w>
za ka
star ego</w>
o sa
le e</w>
ła dnie</w>
wyso ko</w>
wio s
poli tycznych</w>
pocią g</w>
dro g
dosta wy</w>
ż am</w>
zmieni ło</w>
właści wości</w>
try b</w>
sk rę
m ba</w>
go n</w>
ń ców</w>
ą ca</w>
s mi
s .com</w>
prac ujemy</w>
c li
d łem</w>
zga dzam</w>
v ar
ko ście
7 2</w>
s wej</w>
poniedział ek</w>
d nym</w>
cza row
sp u
or o</w>
ofer tę</w>
najwyż szy</w>
mie ści</w>
5 6</w>
świet ne</w>
sie dzieć</w>
poli cję</w>
nadzie i</w>
do na
bó lu</w>
absolu tnie</w>
za trzym
przypomi na</w>
mu jesz</w>
kwesti a</w>
kryzy s</w>
ją dro
b s</w>
z orie
v ol
otrzyma ł</w>
g -
5 4</w>
pro kura
face ta</w>
x y</w>
out lo
ży jemy</w>
st ie</w>
pojedyn cze</w>
oczywi ste</w>
ności ach</w>
nowoczes ne</w>
miliar dów</w>
architektu ry</w>
ry su
dete kty
czy sto
so u
ni jcie</w>
kro ki</w>
kom pe
ja b
zamk nąć</w>
śmier cią</w>
wymaga ją</w>
ro wana</w>
li ny</w>
kto kolwiek</w>
świado mość</w>
sto py</w>
j nik</w>
si u</w>
interes uje</w>
dost ałem</w>
cia mi</w>
woj ow
mat kę</w>
ata ku</w>
a meri
za rezer
tara s</w>
roz bi
prakty ki</w>
lo n</w>
c- f</w>
teo re
pół nocy</w>
prawdzi wą</w>
p h</w>
au di
mi ałaś</w>
ko szy
ń ską</w>
pol sce</w>
le wi
ka wę</w>
poda tkow
pi i</w>
mie my</w>
h t
zrozumie nia</w>
wi no</w>
współ pracę</w>
prost y</w>
odniesie niu</w>
metod a</w>
kre w
chor ób</w>
bo li</w>
an to
z wa
z resztą</w>
ry by</w>
mar ia</w>
kompu terów</w>
ta cja</w>
spy ta
low i</w>
człon kowie</w>
łóż ku</w>
z budow
uczu cia</w>
innowa cji</w>
biu rze</w>
pan no</w>
m ym</w>
lotni czy</w>
insta lacji</w>
gre cja</w>
ve n
sza f
19 0
wa szych</w>
a te
ucze lni</w>
sy nów</w>
przy sto
ko rea
źród łem</w>
sza ją</w>
rze ki</w>
po si
ni łeś</w>
charakte rysty
sklep u</w>
ni czne</w>
kolej owej</w>
bra cia</w>
zadzwo ń</w>
mał ym</w>
czo no</w>
tu ra</w>
róż ni</w>
e t
a tra
przedsiębior stw</w>
mog łeś</w>
5 7</w>
zabi ję</w>
skoń czy</w>
serwer a</w>
in fe
y wania</w>
d nej</w>
a gre
proto ko
wo dą</w>
lod ówkę</w>
kar ta</w>
sk ło
in du
sygna ł</w>
sztu ka</w>
tu r</w>
publi czne</w>
na czy
mia st
li der
a la
zaję ty</w>
sk ro
pu de
o ta
nię ta</w>
klima tu</w>
ra dość</w>
puł kow
po rów
cza sy</w>
angiel skim</w>
przyjem ność</w>
li stów</w>
ale ż</w>
wyświet la
ser we
ru j</w>
europej skich</w>
kieru n
ch łod
wnio sek</w>
ska ch</w>
pra c</w>
gra czy</w>
ł byś</w>
stop ni</w>
so cja
przekaza ć</w>
ostroż nie</w>
wo ścią</w>
ri char
za miesz
wybor y</w>
oba wiam</w>
do jść</w>
artyku łu</w>
znaleź li</w>
wspo mina
trze cia</w>
stosu n
zakre su</w>
wej dź</w>
2 :
li nia</w>
tor i
kultu ra
klimaty z
pro win
obie któw</w>
lu du</w>
bezpie cz
prac ujesz</w>
5 8</w>
ów ce</w>
zna komi
wyobra zić</w>
sce nari
peł en</w>
jak bym</w>
inwe sto
czo nym</w>
ale x
zaku py</w>
niez będ
mał ego</w>
k war
ła nia</w>
wi sz</w>
stwier dził</w>
sier żan
pój dzie</w>
ka cja</w>
wście k
u zależ
premie r</w>
ri s</w>
kontro la</w>
godzi na</w>
stanowi ć</w>
b rzu
za bezpiecze
wła dzę</w>
słu ży</w>
suk in
przeci ę
poni ż
o sła
si lny</w>
j skie</w>
co l
spor t</w>
ga r</w>
ekra nem</w>
drin ka</w>
le wo</w>
dwo je</w>
/ na</w>
łat wy</w>
z mu</w>
serw owane</w>
śmie szne</w>
rela cje</w>
ol brzy
ga s</w>
potrafi sz</w>
potencja ł</w>
lu dności</w>
przera ża
powie dzenia</w>
obsza rach</w>
a bra
przysz ła</w>
ła ci
ze psu
wó r
uży tk
re ży
kwia ciar
ber g</w>
amerykań skie</w>
wypo czyn
wa gi</w>
s p</w>
ro la</w>
następ ne</w>
mow ie</w>
ama zo
zapew nienie</w>
zamknię te</w>
w ku
poja wi</w>
tu re</w>
rewolu cji</w>
opie ku
ludz kiego</w>
a wan
zaczą łem</w>
so n
prze ję
kate gor
5 9</w>
wy prze
kawa łek</w>
i re</w>
wpły wu</w>
przy by
liz owany</w>
cało ści</w>
zna nych</w>
zd ą
stos owanie</w>
lu x
chciał byś</w>
8 00</w>
boi sz</w>
sę dzi
chwi le
twier dzą</w>
t wego</w>
nie prawda</w>
7 7</w>
por tre
j im
cza so
artyku ły</w>
8 6</w>
to rzy</w>
sh a</w>
7 0
wzi ą
wysp ie</w>
po ra</w>
p p</w>
ku zy
d wor
iden tyfika
ostat niego</w>
dob ę</w>
spó łki</w>
poja zdów</w>
inte lektu
dzieci om</w>
dział ów</w>
cie szy
za ktu
indi ach</w>
da ty</w>
zaufa nie</w>
wyna jem</w>
wspó lne</w>
mo mentu</w>
geo grafi
fe sti
ciś nienie</w>
zach ód</w>
te at
rzą dów</w>
re lacji</w>
maksyma lnie</w>
dzien nika
4 9
zastrze żone</w>
zasa da</w>
y u
uczest ników</w>
cór kę</w>
bi ałe</w>
wi ce
cie ć</w>
bi li
śmie ci</w>
znajo mych</w>
prób uję</w>
nale żą</w>
te rze</w>
kar tę</w>
wia jące</w>
suszar ką</w>
specjali stów</w>
rzy sz</w>
dum ny</w>
czeka my</w>
agen cji</w>
z głosi
sposob u</w>
pozostał ych</w>
doku menta
b em</w>
zgod ne</w>
u sta</w>
pi wo</w>
naj mniej
in t</w>
czo ł
bo żego</w>
z ję</w>
uzyska nia</w>
rzy ła</w>
an u</w>
sekre tar
odpowie dni</w>
na przód</w>
ą cej</w>
rą k</w>
od mie
ci ał</w>
ale x</w>
/ ale</w>
u spokój</w>
stó j</w>
i lu</w>
chi ński</w>
światow ego</w>
wie dzieli</w>
is o</w>
u mowę</w>
pla sti
he l
uru cha
stre fy</w>
sied miu</w>
poz być</w>
poś pie
opar ciu</w>
ko mu</w>
doku ment</w>
try bu
dru kar
dba ć</w>
wsta waj</w>
u mowa</w>
podej rze
e wan
dwu dzie
kosz tow
j s</w>
z wari
wza jem
odpowiedzial ny</w>
wykorzysta nia</w>
wi fi</w>
towar ów</w>
występ uje</w>
tz w</w>
roz kaz</w>
alter natyw
6 8</w>
sal ę</w>
powta rz
czo ną</w>
te sty</w>
ro n
każde mu</w>
czą cy</w>
chwile czkę</w>
ży wo
j ną</w>
1 20</w>
w ny</w>
przej rzy
do cho
zastos owania</w>
zagro żenia</w>
spoj rzeć</w>
początkow o</w>
ob ró
kura t</w>
a kurat</w>
prze bie
pozwala ją</w>
ma ł</w>
f f
an oni
stanowi sko</w>
producent ów</w>
na f
ro l</w>
od su
dow ego</w>
wprowa dzenie</w>
niemie cki</w>
lu d</w>
kra dzie
rzy m
low any</w>
logi a</w>
bo b</w>
ru chy</w>
wprowa dzić</w>
zada niem</w>
właści we</w>
wyj ście</w>
skoń czyć</w>
radi o</w>
po par
ma j
in dziej</w>
sa ra
przyczy ny</w>
porzą d
kosz tuje</w>
internetow e</w>
dow ód
świa tem</w>
ura tow
idi o
bitco in</w>
wo dzie</w>
waż ną</w>
urzę dni
spra wi
liza cją</w>
ki n</w>
e po
do mów</w>
ofe rowane</w>
gło su</w>
cza m</w>
tech niki</w>
popu lacji</w>
liz mu</w>
ho ng
zgin ął</w>
przy po
międzynarodow a</w>
mar k</w>
dzie ło</w>
ż by</w>
śnia da
ła du
za mek</w>
wiar ę</w>
wer sje</w>
narze ka
go ścia</w>
dział o</w>
kontro lować</w>
do r</w>
trud ności</w>
sprzą ta
ja zdu</w>
to na</w>
sku tki</w>
ka pe
a bym</w>
świet na</w>
sen sie</w>
pary ż</w>
zaczyna ją</w>
w pis</w>
przy zwycza
głę b
ga zu</w>
organiza cje</w>
flo ren
wia nie</w>
wyda rzeń</w>
popraw y</w>
pi sto
alkoho lu</w>
ta a</w>
ewan ge
wier z</w>
po szło</w>
nieu stan
6 9</w>
zagro żenie</w>
za bu
uczy nić</w>
prze pisów</w>
du ch
wy szedł</w>
obec ny</w>
j skich</w>
j ane</w>
zrównowa żonego</w>
w łó
scho ol</w>
na gry
mi ła</w>
m -
ele ment</w>
z mianę</w>
pręd kości</w>
kuch nia</w>
wy kre
sezo n</w>
prze sła
for ma</w>
bi r
we st</w>
emi sji</w>
bu k
kur cza
klu bu</w>
jas no</w>
hu mani
ho no
ce ń</w>
b ow
ta na</w>
stara m</w>
okre ślić</w>
hand lowe</w>
rzu ć</w>
dv d</w>
du sza</w>
anali za</w>
p t</w>
informa cja</w>
pró bu
n ną</w>
zadzwo nię</w>
sow ą</w>
o ną</w>
z dzi
przypa dek</w>
po brać</w>
pakie t</w>
ocho tę</w>
najlep szego</w>
dzie lić</w>
al u</w>
wyda rzyło</w>
s qu
proś bę</w>
ll y
że byśmy</w>
zmie nia
z realiz
wan ego</w>
p łu
jaki ch
8 8</w>
współ praca</w>
tow i</w>
podob ny</w>
lo r</w>
d le</w>
rze ź
ja na</w>
czerwo ne</w>
ą cą</w>
zamó wienie</w>
za cja</w>
wypa d
sły chać</w>
wia tr</w>
lar y</w>
ar e</w>
zaufa nia</w>
wol ą</w>
prze śla
po stanowie
kam pu
zaczyna my</w>
wielo ma</w>
tek stu</w>
tam tej</w>
spraw ą</w>
samo chodzie</w>
ni owy</w>
ukła du</w>
6 3</w>
6 1</w>
za potrzeb
za gi
wi ny</w>
roz mowę</w>
po ne
pisa nie</w>
a my</w>
za ko
ti ons</w>
prze le
po myśl</w>
za wartości</w>
wy ru
nie ograni
mię k
konsu lta
i b
g b</w>
za kłó
mode le</w>
ja dę</w>
dziewię ć</w>
amerykań skiej</w>
6 2</w>
wy ślij</w>
s reb
s mart
rekla my</w>
drze wo</w>
dowo lnym</w>
chciał by</w>
ża nia</w>
zost ałem</w>
po szu
mał ej</w>
kore i</w>
dza my</w>
cy ber
a tak
y s</w>
t ności</w>
partner ów</w>
języ ków</w>
dro gie</w>
wa rzy
kry ty
cu r
c ri
usią dź</w>
przy god
przekona ć</w>
bu fe
ży dów</w>
za trzymaj</w>
statu s</w>
rza mi</w>
mi ne
grze ch</w>
po zostać</w>
je roz
odpowie dzieć</w>
ne uro
dyplo ma
de le
tow ym</w>
jeroz oli
je cha
ide alne</w>
dwa dzie
ści śle</w>
tr u</w>
mart wy</w>
dziw nego</w>
wiel kość</w>
in form
formu la
pła skim</w>
og ni
na sta
bo i</w>
z no
wyraź niej</w>
opar te</w>
hote lem</w>
gol f
ciąg nąć</w>
x x</w>
space r</w>
pio se
n ci</w>
koch an
gru po
by łaby</w>
szere g</w>
ochro ną</w>
choro ba</w>
ro ad</w>
i dą</w>
tłuma czenie</w>
jas na</w>
eli min
z rób
teri a</w>
ro bert</w>
regular nie</w>
pi ra
ekscy t
długo termi
ał oby</w>
w chodzi</w>
pu łap
natych miast
kolej na</w>
global nej</w>
dzi ło</w>
du ba
zaktu a
wy cią
prawdzi wego</w>
ma dry
konta kty</w>
ja nie</w>
b rea
7 6</w>
you tube</w>
w cy</w>
uniwersyte cie</w>
tożsamo ści</w>
przy jąć</w>
i d
cho dził</w>
bó j</w>
zim no</w>
wrę cz</w>
wa ń</w>
mie niem</w>
ludz kich</w>
7 1</w>
sza nie</w>
poma gają</w>
pali wa</w>
twó r</w>
stude ntom</w>
pie ra</w>
osobist e</w>
nu me
zna ją</w>
t ce</w>
lo no</w>
afry kań
zwycię stwo</w>
sal a</w>
outlo ok</w>
mi sja</w>
amery ka</w>
u lo
pi w
ba z
zapa ch</w>
straci ł</w>
pięk no</w>
funk cję</w>
ża ją</w>
zaba wa</w>
wyz wania</w>
najbliż szych</w>
kwia tów</w>
w sa
pla y
mło dzi</w>
ludz kiej</w>
inicja ty
ał y
za prosi
wa szym</w>
połą czeń</w>
królow a</w>
a syste
żar tujesz</w>
zer o</w>
naj pięk
wy nagro
jak byś</w>
ekonomi i</w>
zapo mina
ter min</w>
ste ve</w>
prze czytać</w>
pozwo lę</w>
porozumie nia</w>
po chodzą</w>
leka rze</w>
ją cymi</w>
por ta
osiąg nię
ma ce
gru pę</w>
wła d
regula min</w>
kapita n</w>
rzą dy</w>
prze sa
popular ne</w>
najważ niejszych</w>
fa scy
dan ego</w>
wygod ne</w>
meksy ku</w>
dwadzie ścia</w>
wpły wa</w>
ow anej</w>
eksper tów</w>
try bie</w>
st r</w>
poli tyczne</w>
ne ra</w>
n uje</w>
mi le</w>
im pon
gratu lacje</w>
cza ł</w>
średni o</w>
zna na</w>
sprze dać</w>
przypo mina
ie c</w>
h tt
za łą
sta r</w>
daw cy</w>
czeka jcie</w>
z o</w>
wyso ka</w>
proce sie</w>
pra co
ofi ce
5 ,
ła ł</w>
s cie
resta u
pomy sły</w>
nio no</w>
nie bio
maszy na</w>
inżynie rii</w>
3 -gwiazdkowy</w>
wej ście</w>
wa ka
pew nych</w>
lo nych</w>
kie p
ha n</w>
gro up</w>
dostaw ców</w>
czar ne</w>
au st
waż nych</w>
9 6</w>
robo tę</w>
pale sty
obsług uje</w>
gł ych</w>
trzy mam</w>
po mogą</w>
nie dź
bli ź
skute czne</w>
robi cie</w>
pró by</w>
mini ster</w>
san ta</w>
norma lne</w>
czeka ją</w>
be k</w>
9 8</w>
wę gie
fie ld</w>
e i
d ing</w>
różni ce</w>
po siad
in spe
ty łek</w>
druży ny</w>
samolo tu</w>
c .</w>
ws chód</w>
upew nić</w>
sow o</w>
rzeczywi stym</w>
prze czytaj</w>
ostatni ą</w>
eg ze
uży cia</w>
usta wy</w>
umie szcz
umie ra</w>
ni czych</w>
loka lne</w>
lo ja
urodzi ł</w>
u prze
sy dney</w>
rzeczywisto ść</w>
ciem ności</w>
z je</w>
wy chow
czyn ności</w>
zmie niać</w>
zakwate rowania</w>
podsta wy</w>
opuści ć</w>
o dzie
mieszka ć</w>
boga ty</w>
zosta niesz</w>
we so
praw ne</w>
e ki
czyn niki</w>
wy stą
wol nego</w>
ska li</w>
restau rant</w>
ow anego</w>
kolej nym</w>
gwiaz dek</w>
de szcz</w>
zrobi łaś</w>
sa ty
narodow ego</w>
n gu</w>
m no
9 -
8 2</w>
prze dłu
począ ć</w>
mo nta
zoba czę</w>
s pro
od bywa</w>
fil mie</w>
sklep ie</w>
przyjacie lu</w>
kla sie</w>
ga bi
zmniej szyć</w>
ta bli
si ód
rz ym</w>
masz ti
le ni
di alo
cza jące</w>
c lub</w>
ży łem</w>
zauwa żyć</w>
tysią c</w>
le d</w>
doskona łe</w>
chrystu s</w>
azu re</w>
t ie
stra cić</w>
odpowiedni ch</w>
a e
wzro sła</w>
wyco f
sprawiedli wość</w>
low y</w>
gra nd</w>
war te</w>
si lne</w>
rze k
przeka zy
mia ste
b r
pię ć
kolej ną</w>
ak ce
za spoko
szko dzi</w>
obja wy</w>
met ry</w>
głu pie</w>
tere n</w>
połą czyć</w>
da wi
200 2</w>
za opa
u pad
trans fer
s na
nazwi ska</w>
7 8</w>
z ło</w>
opła ty</w>
gru pie</w>
f le
aktyw ności</w>
y or
wi zu
waszyng to
war szta
ro cz
pój dziesz</w>
pozy cje</w>
kilo metrów</w>
8 9</w>
8 7</w>
kategor ie</w>
zasta nawi
za prezent
prze łą
me tro
maszy n</w>
opie ra</w>
drz wia
chor y</w>
lo tu</w>
wi dzieliśmy</w>
przy słu
pokaz ują</w>
bo u
podzie lić</w>
muzy kę</w>
miar ę</w>
bo j
wal ce</w>
se y</w>
przechow al
ke l
amery kanie</w>
rozpoczą ł</w>
dosta w</w>
szy ła</w>
ru n
pier si</w>
or u
ni cze</w>
chłop ca</w>
strasz ne</w>
zrobi liśmy</w>
zapyta ł</w>
po czekać</w>
ke y</w>
kar y</w>
z musi
pro mieni
ni łam</w>
cza mi</w>
ł ku</w>
pat rząc</w>
minister stwo</w>
j o</w>
bra ci</w>
ży jesz</w>
zła pać</w>
zę by</w>
zaczę li</w>
za oszczę
z je
u czenia</w>
szkole nie</w>
społeczności owych</w>
po cie
światow y</w>
z re
star u
sie dzi</w>
mia stach</w>
in do
u czy</w>
za ro
wie rzą
roz przestrze
li li</w>
kocha na</w>
grani ce</w>
te stów</w>
prowa dzenia</w>
ob i
umie ścić</w>
fir mą</w>
zainsta lować</w>
za kaza
t ność</w>
9 0
usu ń</w>
prze nieść</w>
zakoń czeniu</w>
z budować</w>
szan s</w>
społe czność</w>
ideal ny</w>
fu ntów</w>
ta cję</w>
napis ane</w>
i lu
dłu gie</w>
wz ra
wy ga
nauczycie li</w>
genera cji</w>
c ro
ba y</w>
wo do
do pa
wyz wo
wy mog
sz kę</w>
opowie ść</w>
de ro
zach wy
fran k
re mo
zachod niej</w>
sta l</w>
ok ej</w>
koment arz</w>
francu ski</w>
akt or
fa kty</w>
śró dzie
szuka my</w>
spa d
pokona ć</w>
podkre ś
londy n</w>
zda rza</w>
za wi
wy lą
s we</w>
obec ności</w>
do słow
ar gen
amerykań skiego</w>
ży sz</w>
ło dzi</w>
ro ber
progra mi
nie podle
mo imi</w>
imper ium</w>
e lu</w>
cało ść</w>
inwest orów</w>
próbow ałem</w>
poja z
pa ti
dan ym</w>
3 65</w>
nie mow
nagro da</w>
głów ną</w>
7 3</w>
st ro</w>
s koncent
pój dziemy</w>
po mogę</w>
azja ty
wielo krotnie</w>
wa szej</w>
ta ty</w>
ta be
bra ku</w>
/ że</w>
wyobra ź
wy twarza
c ane</w>
15 -
zda nia</w>
zamó wienia</w>
pa ki
naj wyraźniej</w>
n cie</w>
mi nęło</w>
magi ster
ku mp
ca sa</w>
6 ,
ży my</w>
śla dy</w>
ła dne</w>
zo stanę</w>
wa mpi
przysz łych</w>
preze s</w>
myśli cie</w>
kana ły</w>
za ch</w>
ser wer</w>
platfor ma</w>
mi ona</w>
g le
li te
intere s</w>
świado mości</w>
z gła
waż nym</w>
szla che
prze ga
powszech nie</w>
pa nie
oka y</w>
obszar y</w>
niedź wie
wza jemnie</w>
ws chodzie</w>
zu jemy</w>
przeciwie ństwie</w>
mist rza</w>
kar a</w>
wyposa żonych</w>
c ką</w>
łow y</w>
wi dzą</w>
usią ść</w>
ra ń
o nej</w>
niesie nia</w>
użytkow nikom</w>
stro ju</w>
zawiera ją</w>
trzeci m</w>
sy rii</w>
prze ja
gdzie kolwiek</w>
przy jmuje</w>
po spie
pa te
o per
czu łem</w>
9 2</w>
wia nia</w>
szy fro
szczęśli wi</w>
otwar cie</w>
me j</w>
kalen da
c lou
uży cie</w>
b ał
absolwe ntów</w>
zabi je</w>
ofer ta</w>
konsu mentów</w>
ja c
i p
stra chu</w>
fire fo
du jesz</w>
da ję</w>
a ku
spra wić</w>
o że
niepełnospraw nych</w>
kur sów</w>
efe kty</w>
zamie rza</w>
wi działaś</w>
spra wach</w>
finan sów</w>
du szę</w>
co s</w>
cj om</w>
wykorzysty wane</w>
tu rę</w>
owo ść</w>
się g
re prezenta
przechowy wania</w>
chry ste</w>
cho ć
u ci
skute cznie</w>
l t</w>
króle stwo</w>
cia l</w>
kom bi
k er
dow i
do myśl
wy stępo
al la
wa szego</w>
vie w</w>
od dać</w>
zmart wych
wie ki</w>
następ ujących</w>
mi łe</w>
emo cjona
architektu rę</w>
ste ro
for t</w>
eduka cja</w>
li my</w>
la ł</w>
ży ci
sto p</w>
l cie</w>
bufe tu</w>
ła nie</w>
u pły
od czy
kto rem</w>
bierze sz</w>
an ti
wskaź nik</w>
tor ia</w>
przej dź</w>
potrzeb ował</w>
męż em</w>
i mienia</w>
cza my</w>
bi ll</w>
u koch
two rzą</w>
przy łą
nazy wają</w>
istnie ć</w>
istnie nia</w>
wyda wało</w>
osob om</w>
na ród</w>
8 1</w>
zakoń czyć</w>
nu j</w>
li łem</w>
k b</w>
ekra nu</w>
bab cia</w>
słone czny</w>
pogod a</w>
ni o</w>
na mie
di i</w>
ś pi
wróci sz</w>
są siad
sza nia</w>
stoli cy</w>
spi s</w>
od wro
chłop cze</w>
naro du</w>
am ster
przy szedłem</w>
ni ły</w>
ga sz</w>
dow ą</w>
a ro
8 4</w>
za cznie</w>
opowie ści</w>
małże ństwa</w>
g owie</w>
dołą cz</w>
da l</w>
7 4</w>
uczy nił</w>
przeciw nym</w>
kro ków</w>
gala kty
dzia dek</w>
walu ty</w>
okre su</w>
klimatyza cję</w>
czwar tek</w>
znalaz łam</w>
zapobie c</w>
przy mie
pod glą
do p
bibli a</w>
auto stra
powietrz u</w>
po więk
ow aną</w>
kró tki</w>
karie rę</w>
ży czenie</w>
zrozu miałem</w>
wy dział</w>
spę dzić</w>
se tek</w>
po stęp</w>
go tów</w>
żad nym</w>
sil nik</w>
kol orów</w>
fa st</w>
bri dge</w>
ści ami</w>
gło sów</w>
dosta nie</w>
cza ro
bi sku
szo no</w>
posta ć</w>
kró lem</w>
bile ty</w>
sie dzenia</w>
py ta</w>
pre mi
ń ca</w>
sze niu</w>
re feren
pła cić</w>
naj ąc</w>
kultu ra</w>
ge t</w>
doro śli</w>
czy liśmy</w>
zabra ł</w>
wierzy my</w>
rza ją</w>
republi ki</w>
ode brać</w>
l t
bi uro
żo no</w>
zamierza sz</w>
sła b
prze mie
prowa dzą</w>
peł ny</w>
oświad czenia</w>
hist orie</w>
przedsta wić</w>
iden tyfi
dzie liście</w>
dzi łeś</w>
czte ro
norma lnie</w>
najwięk sza</w>
li ła</w>
książ ce</w>
czyn ników</w>
7 9</w>
w to
utrzy my
przyczy ną</w>
mart wi</w>
grani cy</w>
wybor ów</w>
uśmie ch
te sta
pozna j</w>
mog łoby</w>
kar e
bru kse
amery kanów</w>
sła bo
sypial nia</w>
su n
ni owej</w>
na stu</w>
mar ka</w>
in die</w>
glob alne</w>
mog łaby</w>
intere sy</w>
dow ym</w>
chłopa ka</w>
se sji</w>
rosyj skiej</w>
napo je</w>
mężczyz ną</w>
kom pone
star ych</w>
spó ł
od y</w>
char les</w>
8 3</w>
ro u
re cy
przyję cia</w>
la ją</w>
kuch nię</w>
ko k
grze sz
frank fur
ener gia</w>
ścią g
zapra szamy</w>
zapi sz</w>
ni ck</w>
kateg oria</w>
dziedzi nach</w>
ca j</w>
stra ty</w>
now ie</w>
b -
ła dny</w>
zdro we</w>
praw nych</w>
orie nta
nu e</w>
głow a</w>
bła gam</w>
ucieka j</w>
prze ką
pra cą</w>
nad chodzi</w>
200 1</w>
ż em</w>
wygod ny</w>
wróci my</w>
po pro
pa lenia</w>
ma rzenia</w>
buk ka
zało żyć</w>
sal on</w>
ko ścią</w>
od ma
kla sa</w>
kwa dra
be ra
poja wiają</w>
be th</w>
auto nomi
an dre
wi n</w>
th er
sze ń</w>
s we
s sa</w>
py tam</w>
pro pon
polity kę</w>
niez ły</w>
ni cznych</w>
mi koła
dze ni</w>
zgod ę</w>
utwo rzyć</w>
t to</w>
prowa dzę</w>
mog liśmy</w>
i dźcie</w>
bior ę</w>
an g
wido czne</w>
k tami</w>
i g
głów nego</w>
wiar a</w>
u zbro
rz my</w>
mo st</w>
m b
walu t</w>
różni c
sto i
spó łka</w>
he r</w>
h i</w>
ś miało</w>
wiedział eś</w>
stro nach</w>
porozumie nie</w>
właścicie l</w>
spotka my</w>
pomi ar
natu ra</w>
za lo
wykona ne</w>
o trzymać</w>
trzę sie
ta l
powo dem</w>
okreś la</w>
zde fini
pokła dzie</w>
ow ani</w>
ż ka</w>
technologi ę</w>
przy nieść</w>
o ma
gu j</w>
za ska
w ców</w>
precy zy
franci sco</w>
demo n
wa l</w>
okolicz ności</w>
lan dz
global nego</w>
pal ących</w>
z robienia</w>
wie niu</w>
nu kle
gatu nków</w>
ale k
- tak</w>
ws pi
ser ia</w>
przygot owanie</w>
ostrze żenie</w>
op cję</w>
na kła
atra kcji</w>
to ksy
parti a</w>
to ki
tho mas</w>
przeciw nie</w>
i gno
za uważ
tka ch</w>
rzy j</w>
p rą
ek stre
rosyj ski</w>
dwo rzec</w>
u bezpiecze
sły szy</w>
sy l
od począć</w>
głu pi
charak tery
ber lin</w>
wspani ała</w>
wie ni</w>
pro sta</w>
kow ała</w>
nad szedł</w>
gwał tow
re da
mo rzu</w>
mar tin</w>
star t</w>
przy bor
obej rzeć</w>
niebie ski</w>
mu m</w>
me ble</w>
kol ory</w>
godzi nie</w>
wyda ją</w>
sp ła
kamie ń</w>
ga jąc</w>
c c</w>
ar mia</w>
a byśmy</w>
spra wo
o mi
mode li</w>
jakiej ś</w>
chor wa
za bro
ru r
pan na</w>
telewiz ja</w>
strze l
rozpo wszech
ną łeś</w>
gar dero
ak cje</w>
z bu
regi onu</w>
pi j
mi łego</w>
le niem</w>
gwiaz da</w>
świa de
uwzglę d
u stanowi
trans forma
telef onów</w>
szer y
sz cie</w>
star szych</w>
po ża
pew ności</w>
opła t</w>
obowią zek</w>
b c</w>
ar bi
t ta</w>
st ałe</w>
po su
liz uje</w>
ja ck
g ał
pole cam</w>
nauczycie l</w>
czy sty</w>
sh i</w>
ś lep
zwięk szenie</w>
zale ty</w>
u to
narodow y</w>
mow ym</w>
zmieni ła</w>
urucho mić</w>
miło ścią</w>
j sze</w>
współ pracować</w>
wróci łem</w>
po go
pamię ta</w>
obszar ów</w>
ni skie</w>
mog łabym</w>
czter dzie
pakie tu</w>
opie ra
mężczyz ny</w>
księży ca</w>
d niem</w>
szcze ń</w>
m pe
cier pi
be d</w>
adre su</w>
sto le</w>
podzięk ować</w>
po kar
na wiąza
clou d</w>
ve gas</w>
łazie nce</w>
szacun ku</w>
mene dż
z wi
wyż szego</w>
tra ge
d waj</w>
czy mi</w>
z ny</w>
nie poko
do stosow
wó z</w>
ve n</w>
przy chod
obie cał
hand lowych</w>
dro ż
d ały</w>
cyk l</w>
wie ń</w>
ce low
� �
zwięk sza</w>
sz ąc</w>
owo ce</w>
naj niż
na by
licen cji</w>
li byście</w>
ju li
wyj dzie</w>
polity ce</w>
p s
mię so</w>
do me
pr in
poszczegó lnych</w>
ka wa</w>
eu r</w>
zorie nt
wz bu
minu tę</w>
i da</w>
czu cie</w>
co u
ci li</w>
tru mp</w>
po ciąg
obec nej</w>
nade j
ideal nie</w>
bada niach</w>
nawi ga
na wy
kontek ście</w>
kon gu</w>
ha sła</w>
ła dna</w>
wło sze
wan ną</w>
trze ciej</w>
ska lę</w>
ró g</w>
roz mowa</w>
ofer ując</w>
mary nar
ma mą</w>
gdy byśmy</w>
yst y
vi lla
przygot owania</w>
ma nia</w>
blo ck
włosze ch</w>
ser ver</w>
roz dziel
zapomni ałem</w>
sklep ów</w>
saty s
mo re</w>
konta ktu</w>
zobaczy łem</w>
standar dy</w>
gospo da
wy r
wy dru
re kru
pod wyż
mniej sze</w>
la tem</w>
komó rek</w>
zamy ka
us b</w>
przesz łość</w>
kocha ją</w>
głow ą</w>
g ich</w>
dale ka</w>
znalaz ła</w>
szcze niu</w>
mene dże
krót ko</w>
internetow a</w>
zapy taj</w>
za by
unika ć</w>
sztu k</w>
ocze kuje</w>
g li</w>
zakoń czenie</w>
wyra zi
st ow
rewolu cja</w>
po proszę</w>
b r</w>
wę gl
rz ałem</w>
pa u
pa li</w>
określo nych</w>
ogro mną</w>
mu r
le ż
au ta</w>
śle dzić</w>
wraca my</w>
wan ej</w>
uchodź ców</w>
sty czny</w>
ste p
oli mpi
m kolwiek</w>
hote ls</w>
gó ra</w>
gi gan
ama tor
9 3</w>
zapro pon
si ć</w>
cięż kie</w>
7 00</w>
wsze dł</w>
s q
pół noc</w>
poin formow
pocho dzenia</w>
młod e</w>
gor y
eta pie</w>
doskona ły</w>
ave nue</w>
u spoko
szk lan
roz win
rodzi nne</w>
prze prowadzi
mil y</w>
9 7</w>
partne ra</w>
o po
kompe ten
wi ll</w>
po żar
pię t
ist ni
he li
dziecia k</w>
cz ku</w>
wspiera ć</w>
tożsamo ść</w>
s mar
prze no
kwar ta
stop niowo</w>
po rusza
dzwo nię</w>
dziecia ki</w>
szuka ją</w>
rodzi nny</w>
ra m
mia mi</w>
cyk lu</w>
w um</w>
t ry</w>
ni liśmy</w>
j skiej</w>
gospodar czej</w>
autob us</w>
zau f
z bie
ubiegł ym</w>
czo nej</w>
bru ta
temperatu ra</w>
nazy wasz</w>
cza ch</w>
3 0-
wyjątkow y</w>
temperatu ry</w>
sky pe</w>
leka rzem</w>
wyż szych</w>
ują cymi</w>
tr wać</w>
ster y
se le
s m
prag nie</w>
pow stała</w>
od będzie</w>
hote li</w>
dziw nie</w>
zło śli
trans fer</w>
mo der
ki na</w>
inwesty cje</w>
świę to</w>
ucie kać</w>
pozosta nie</w>
poję cie</w>
pi ł</w>
d ałam</w>
wie niem</w>
udowod nić</w>
tow n</w>
s wą</w>
pła ka
odkry ć</w>
londy nu</w>
kana da</w>
h ow
cyfro wych</w>
archi wum</w>
sza cu
spo ko</w>
pa mi</w>
kwiaciar nia</w>
kró li
ka /
bezpie czna</w>
woj ska</w>
sz czy</w>
logi cznych</w>
japo nia</w>
f -
ste row
j ó
ów ką</w>
zaufa ć</w>
wy czy
sze mu</w>
sił ą</w>
kab low
j im</w>
fa ra
dan ymi</w>
ty k</w>
r k</w>
japo ń
wro ga</w>
naukow e</w>
ka p
7 ,
rodza jów</w>
pun kcie</w>
masa ż</w>
istnie nie</w>
elektry czny</w>
ste in</w>
rę ka
ho len
bra kowało</w>
trak ta
sku tek</w>
pa trzy</w>
niesie nie</w>
króle stwa</w>
kontro lą</w>
sub skryp
przedsta wia</w>
ob rzy
mieszka niu</w>
aktual nych</w>
agen cja</w>
za mian</w>
z wraca</w>
wy śmie
sh are
prze słucha
now o
nie ni</w>
is lam
ch i</w>
wyglą dam</w>
sze fa</w>
społecze ństwie</w>
rozpoczę ła</w>
po myśleć</w>
naz wać</w>
men tach</w>
interes ujące</w>
znalaz łeś</w>
uzy sk
part ner</w>
oświad czenie</w>
nosi ł</w>
mi ra
zmia nach</w>
kt orów</w>
kompute ry</w>
al l</w>
a k</w>
wz mac
ta gi</w>
miał by</w>
ku p</w>
kape lu
chodz ące</w>
bi i</w>
znik nął</w>
zmia nie</w>
z bo
poko lenia</w>
chłop ców</w>
al -
śmier tel
ćwi czenia</w>
re pu
oczeki wania</w>
mo tyw
gło sy</w>
załat wić</w>
wol nym</w>
struktu ry</w>
rośli ny</w>
owo -
my szy</w>
lep sza</w>
kraj owych</w>
gospodar czego</w>
zacz nij</w>
warun kiem</w>
ukry ć</w>
specjal nych</w>
pan ora
odnowi ony</w>
obsłu gę</w>
mo tory
koście le</w>
im por
he i
desig n</w>
d '
upew nij</w>
przewodni k</w>
na ło
dosłow nie</w>
wej ścia</w>
se l
miesią cach</w>
ko or
hi po
ce sar
zosta wił</w>
rośli n</w>
indo ne
ie ństwo</w>
zde j
stanowi ska</w>
pary ża</w>
oj cu</w>
ni ng</w>
na zi
w zd
pa ni
li kwi
face tem</w>
do zwo
bez robo
residen ce</w>
europej skiego</w>
ak cja</w>
śre dniej</w>
bra tem</w>
aktual nie</w>
a z
zaku pu</w>
tni k</w>
szpita l</w>
ry t
ow ałam</w>
nukle ar
ma u
ko nia</w>
mię sa</w>
d r.</w>
za s
u k</w>
pocz ty</w>
natura lnie</w>
loka lnej</w>
g s</w>
dzien ni
3 :
zaa tak
st ałem</w>
po ci
udostęp nia</w>
s chod
regu ły</w>
przedmio ty</w>
po bi
pasaż erów</w>
języ kiem</w>
wy czer
wro gów</w>
war ia
ta niec</w>
sty cznej</w>
spój rzcie</w>
po sa
mo m</w>
zmie ń</w>
w nu
sku pić</w>
mówi łaś</w>
af gani
że ni</w>
widział a</w>
przeglą d</w>
ow ałeś</w>
modlit wy</w>
europej ski</w>
szwajcar ii</w>
podob nych</w>
pa cyfi
księ g
199 8</w>
wspom nienia</w>
t ty</w>
pier ście
kierow ca</w>
jed z</w>
an ul
tr wania</w>
sze fem</w>
rado ści</w>
na to</w>
dow ie</w>
cie szy</w>
apartament owe</w>
rzy mie</w>
przedmio tów</w>
pomó gł</w>
le sie</w>
cie la</w>
al a</w>
o kra
kształ t</w>
i ne</w>
głów nej</w>
dni j</w>
u ło
pozosta ją</w>
po szła</w>
li ng</w>
arbi tra
zabi łeś</w>
u dać</w>
profe so
nia sz</w>
k roku</w>
wykona nia</w>
t ko</w>
samobój stwo</w>
przywi le
przy nosi</w>
od szedł</w>
międzynarodow ą</w>
la j</w>
a kredy
zna cie</w>
zabezpiecze ń</w>
słod kie</w>
sz to
róż nymi</w>
róż nić</w>
poda je</w>
od wró
gorą co</w>
dźwię ku</w>
czło nek</w>
ży ję</w>
wi d
prawdo podobne</w>
dzi wa
du r
cy f
ce ni</w>
wiz ji</w>
usytu owane</w>
re n</w>
od naj
wyna laz
wto rek</w>
ten den
sz t</w>
niedzie lę</w>
li ce
ko ni
dłu gości</w>
wyda rzenie</w>
ra n</w>
pomy słów</w>
pis ma</w>
bior ą</w>
z bio
wyż szy</w>
mie ń</w>
certyfika t</w>
bro nią</w>
block cha
blo g</w>
ś mi
se ktora</w>
sal o
zbli ża</w>
um rze</w>
szko łę</w>
ro ba
prze jm
ope n</w>
obie kty</w>
koń czyć</w>
air port</w>
uważa ć</w>
par a</w>
jakie kolwiek</w>
dob ro</w>
zło żyć</w>
zoba czył</w>
tera pii</w>
zaję ć</w>
wst rzą
u leg
hi l
da chu</w>
umy słu</w>
powiąza ne</w>
pierdo l</w>
mle ko</w>
do jeżdża</w>
ze zwo
u śmiech</w>
powo dy</w>
ole j
oce an</w>
mi che
dzie wi
b lan
waż niejsze</w>
spodob a</w>
nau kę</w>
la to</w>
dostaw cy</w>
demokra cji</w>
choć by</w>
obec ne</w>
niepodle gło
moni tor
eksper ci</w>
ed war
dzienni kar
market ingu</w>
które mu</w>
cz ce</w>
amerykań ska</w>
administra cji</w>
księ gi</w>
jedno stek</w>
elekt row
czeka ł</w>
199 9</w>
zało żona</w>
uży wamy</w>
u aktual
po dawane</w>
pla c</w>
ow ały</w>
od nosi</w>
dostar czenia</w>
sh er
pla ża</w>
komite t</w>
wskaz ują</w>
wal kę</w>
ti s</w>
substan cji</w>
roy al</w>
krót kie</w>
doświad czeń</w>
do jazdu</w>
c n
ben zy
wyż sza</w>
wiet na
tur cji</w>
proce sy</w>
l owania</w>
dź wi
czy sta</w>
chri sti
strzela ć</w>
o kiem</w>
nie skoń
grze chu</w>
9 1</w>
zbro dni</w>
ti na</w>
lo m</w>
dob ie
sekto rze</w>
s korzysta
ri o</w>
prze kon
plan uje</w>
konsu mp
e di
czy łeś</w>
bur gu</w>
ban ki</w>
za stąpi
klu cze</w>
9 4</w>
sza m
pił kę</w>
dziec ku</w>
ai r</w>
zaprojekt owany</w>
zainteres owanie</w>
nó ż</w>
k -
wz or
podsu m
le ona
le a
kow ano</w>
klucz owych</w>
ciep ła</w>
c tion</w>
bo n
blo n
śmie sz
ro na</w>
prób ować</w>
prag nę</w>
pe ter
c ał</w>
c ali</w>
artyku le</w>
ży dzi</w>
wschod u</w>
ste rowania</w>
prze stro
pro sta
peł nej</w>
nie palących</w>
lo g</w>
ciś nij</w>
zatrud nienia</w>
pod nie
p ki</w>
myś lenie</w>
let nia</w>
le tnie</w>
zauwa żył</w>
ur lo
te oria</w>
spo żyw
s ca
ry nków</w>
powro tu</w>
powiedz my</w>
po jech
an ów</w>
zaku p</w>
występ ują</w>
wy sz
te go
star szy</w>
pu st
portu ga
pi ot
pew ną</w>
jó ze
jim my</w>
ci ła</w>
bo les
5- minutowego</w>
zmie niają</w>
zde nerw
za nu
rozwi ja</w>
odno śnie</w>
mar ek</w>
ko dy</w>
k lo
dy sku</w>
doda je</w>
łó dź</w>
zoba czmy</w>
wyglą dał</w>
tema ty</w>
t ką</w>
paździer nik</w>
ga dać</w>
emo cje</w>
z różnic
rę cznie</w>
po sze
dłu ga</w>
a dam</w>
zabi or
wypo czy
wyjątkow o</w>
wybra ny</w>
th a</w>
szal ony</w>
s wa
opubli kowane</w>
do czekać</w>
zie lone</w>
profe sor</w>
o puszcz
kole go</w>
ka te</w>
je n
4 :
żołnie rze</w>
zna ł</w>
zmy war
zmar ła</w>
zawiera ć</w>
treni ng</w>
szyb kość</w>
szacu nek</w>
swo jemu</w>
partne rem</w>
nie sprawiedli
grze chy</w>
do s</w>
di s
angiel sku</w>
wyjątkow e</w>
ry b</w>
maksyma lna</w>
kalifor nii</w>
zdrowo tnej</w>
wraca ją</w>
nor my</w>
miał bym</w>
dwu krotnie</w>
zni szczy
ty py</w>
pla za</w>
instytu t</w>
gue st</w>
dziewczy nki</w>
an ki</w>
age nt</w>
zie mią</w>
ucze l
rozmawia liśmy</w>
przyda tne</w>
pla y</w>
orze czenie</w>
ludz kość</w>
g any</w>
f on
szy f
stra szy
dosta je</w>
b rą
zegar ków</w>
wyda wać</w>
ogłosi ł</w>
oba wy</w>
now any</w>
nada je</w>
mieszka m</w>
me s
lun ch</w>
ku ta
konsekwen cje</w>
dra ma
tow ano</w>
suszar kę</w>
rowe rze</w>
j skiego</w>
ho t
bli skim</w>
wnio sku</w>
u bó
rejest racji</w>
ra dziec
mia stem</w>
in ę</w>
fili pi
ekra n</w>
do kt
co nt
piętro wym</w>
czer w
sow ym</w>
les bi
star sze</w>
rza ć</w>
ro wym</w>
ro kiem</w>
kampa nii</w>
indi i</w>
ba j
strz ał
re krea
re d
r t</w>
państ wu</w>
mi t
da wać</w>
budow a</w>
zach owa
si de</w>
robi łem</w>
licen cja
cią gł
zewnętrz ny</w>
po chwa
ograni czeń</w>
facebo oku</w>
e y</w>
bibli i</w>
za pisać</w>
y wanie</w>
uważ nie</w>
su ple
stosun kowo</w>
prze żyć</w>
pora dzić</w>
pa ch
ok .</w>
brazy lii</w>
wyglą dało</w>
twó rz</w>
ran u</w>
posił ki</w>
pi wa</w>
kie szeni</w>
pro st</w>
powo ł
da ż</w>
che r</w>
se me
ręcz niki</w>
prze klę
pozna łem</w>
pora dy</w>
wy szła</w>
samodzie lnie</w>
po myślałam</w>
materiał u</w>
jo se
apo sto
zaufa j</w>
x t</w>
wąt pienia</w>
wysp a</w>
tur cja</w>
zie lony</w>
war e</w>
spa mu</w>
ry s
rozry wki</w>
przezna czony</w>
fe rze</w>
arty sta</w>
ś pi</w>
kra jem</w>
john son</w>
d owa
cyj nie</w>
8 ,
przer wy</w>
k ujące</w>
bo ku</w>
zalo guj</w>
rozpoczy na</w>
otwie ra</w>
mo d
miło ś
da le</w>
cie ple
serwi s</w>
pacje nta</w>
konie czności</w>
fotogra f
cz ują</w>
cie go</w>
wi dzieli</w>
ty be
nieustan nie</w>
czar na</w>
2 2
szwe dz
szczegó łów</w>
skła d</w>
orygina lny</w>
akce s
żo łą
z ów</w>
wy ko
tch ó
po wer
leka rzy</w>
aplika cję</w>
że ć</w>
war st
trady cji</w>
s konfigu
pró ba</w>
prowa dzenie</w>
musi ałam</w>
gu i
bo ską</w>
ur l</w>
s przed</w>
mi ł
jednost ką</w>
budy nków</w>
ści any</w>
x -
wyjaś nia</w>
tre ść</w>
piek ło</w>
mana ge
forma t</w>
czy żby</w>
z łym</w>
sto ne</w>
st rzał</w>
roz dzie
postępo wania</w>
o puszcza
zło dzie
więź ni
po ku
piek ła</w>
konsu men
k era</w>
ała byś</w>
ń cy</w>
zwie rzę</w>
zaawansow ane</w>
zarządza ć</w>
wol na</w>
ska mi</w>
natura lnych</w>
dzie m</w>
du chow
cyj nymi</w>
ła two
zewnętrz nych</w>
par y</w>
pala ce</w>
ll s</w>
k sa</w>
co ur
ch c
si ng
po prawi
oca lić</w>
dob e</w>
bo ją</w>
zaa ta
wycie czki</w>
w prost</w>
v ale
sy ry
przybor y</w>
prak tyczne</w>
li nu
barce lona</w>
dza jąc</w>
audi o</w>
an ne</w>
wy działu</w>
użytk owania</w>
te ni
sę dzia</w>
morder stwo</w>
me czu</w>
ma rzenie</w>
ko pal
zaba wki</w>
spa dek</w>
s wi
kryzy su</w>
części owo</w>
austra lia</w>
a ra
zgod a</w>
wybo rem</w>
rów ności</w>
przy wró
po prosić</w>
obowiąz ki</w>
i sa
dostęp ność</w>
a dobe</w>
zginę ło</w>
wz gó
roz woj
okie n</w>
be sti
obserw ować</w>
księ ga</w>
ho me
ukrai na</w>
dyscypli nar
centra l</w>
wyso kim</w>
dzt wie</w>
ba zie</w>
ał aby</w>
ś licz
u szu</w>
roze j
no cą</w>
nie wiarygod
najwyż szej</w>
dołą czyć</w>
c le</w>
świet le</w>
zaczę ły</w>
standar dów</w>
s lo
produk cję</w>
po piera
dri ve</w>
za gwarant
wy /
ty pów</w>
przej ście</w>
ob ser
najwyż szym</w>
komunika cja</w>
j ar
głod ny</w>
su row
przysług uje</w>
nię tych</w>
mo le
mo jemu</w>
mili o
katalo g</w>
uży wają</w>
rę ką</w>
ru mu
re be
pojawi ły</w>
m k
korzysta jąc</w>
argen ty
środowi sk
wrześ niu</w>
ti c</w>
szko l
rze sz</w>
finansow ego</w>
bro nić</w>
ż owe</w>
uży wasz</w>
so ur
sho w</w>
sau dyj
przyjem nością</w>
przy le
poczu ć</w>
o powiedzieć</w>
nia k</w>
na ma
mojże sz</w>
ma mę</w>
czy sto</w>
roo ms</w>
pod pi
nt ari
je nia</w>
book ing
wo lo
wia j</w>
tury stów</w>
prze prosi
mą dry</w>
mikrofal ową</w>
e li</w>
cudow nie</w>
cie li</w>
wan ym</w>
wa szą</w>
szwajcar ia</w>
ryn kach</w>
roz strzy
r ki</w>
pa ł</w>
o '
nio sła</w>
ma py</w>
bi ja
an s</w>
to ma
sti n</w>
przygo towa
cier pie
po jechać</w>
opie kę</w>
od rę
le niu</w>
js i</w>
a byście</w>
zła p
za trzy
wy/ herbaty</w>
sze f
poka z</w>
kon tak
ka wy/herbaty</w>
ć my</w>
zastana wiam</w>
tu rze</w>
skompli kowane</w>
narko tyków</w>
kole j</w>
g ła</w>
formu j</w>
ży ły</w>
właścicie lem</w>
uczest nicy</w>
tow ymi</w>
star ym</w>
po ro
cza niu</w>
chcie liśmy</w>
4 -gwiazdkowy</w>
t owana</w>
straci łem</w>
oś miu</w>
absol wen
u przej
doda tek</w>
ci łem</w>
świe ż
zasię gu</w>
vi deo</w>
bibliote ki</w>
ra chu
do lar</w>
de ba
au ten
średni owie
wy wie
wszech świat</w>
urzą d</w>
są sia
produ ktyw
na du
za kaz</w>
wynaj ę
szale ństwo</w>
sp ry
dzi ły</w>
ci sza</w>
budow ę</w>
bu ł
badaw czych</w>
poma rań
po du
or bi
opła tą</w>
nę łam</w>
m. in</w>
ko ru
kana dyj
eta p</w>
anio ł</w>
199 0</w>
ć cie</w>
uważa my</w>
sty pen
poś ród</w>
pała c</w>
gu ber
świąty ni</w>
urządze niu</w>
samolo tów</w>
prywat ność</w>
po tom
ma sy</w>
d ro</w>
prakty ce</w>
otrzy masz</w>
na prawi
it d</w>
społe cznego</w>
prowa dź</w>
po rzu
pię trze</w>
ką t</w>
zam ku</w>
so li</w>
rę ka</w>
poma gać</w>
is land</w>
do ktora</w>
die go</w>
aktyw ność</w>
a rabi
toki o</w>
serw uje</w>
har mono
gre cji</w>
da liśmy</w>
c ker</w>
aktyw ów</w>
zapra sza</w>
wzd łu
śli ł</w>
wkła d</w>
v y</w>
se m
pł ci</w>
przyczy n</w>
premi um</w>
ka sę</w>
history czne</w>
chmu rze</w>
żar t</w>
ś mie</w>
zwięk szenia</w>
ry nki</w>
pole cenia</w>
nia jące</w>
medy cznych</w>
m g</w>
kłam stwa</w>
isto ty</w>
roz le
per fe
ho li
gorą ca</w>
g nia
wymia rze</w>
wi ona</w>
tajem nicy</w>
stosu nki</w>
si łow
rejest ra
odde ch</w>
niez ła</w>
mą d
ira ku</w>
dosta wą</w>
tam tego</w>
bą dźcie</w>
10 0
wymaga ń</w>
roz um</w>
prze pa
mie cz</w>
interfe js
da cie</w>
zapew ni</w>
wymia na</w>
stos uje</w>
sobo tę</w>
posia dać</w>
piosen ka</w>
naj popular
indywidu alną</w>
ia l</w>
głu pia</w>
ce sa
bada niu</w>
z rzu
wyba czyć</w>
wizy ty</w>
wi ki
pieprz ony</w>
kopi i</w>
dz ał</w>
czo ść</w>
zawodow ych</w>
za p
umie m</w>
przy zwo
inter wen
dokła dnych</w>
wybra ł</w>
ucie kł</w>
s chro
mist rzu</w>
global nym</w>
ciep ło</w>
wyj dź</w>
roz pro
for tu
bar ie
żo na
zi o
z łych</w>
ulubi one</w>
regi on</w>
prze myśle</w>
połą czeniu</w>
mi sję</w>
he ro
słow y</w>
prezyden tem</w>
pięk ną</w>
ofi a
ma cie
i pa
stosu nków</w>
rozmawi ałem</w>
kieru nek</w>
chri s</w>
spotka łem</w>
r s</w>
cór ką</w>
a u</w>
: 30</w>
zastos owań</w>
zarezer w
szcz u
speł nia</w>
po la
mo u
bi żu
zaczy nam</w>
wzdłu ż</w>
wy dostać</w>
sa mu
prowadz one</w>
mo nd</w>
do mowe</w>
że sz</w>
. /</w>
śpie wać</w>
łóż kami</w>
oku lary</w>
o gar
narodow e</w>
gra cze</w>
wykony wania</w>
spor tow
sku pia
sku pi
s d</w>
praw dzie</w>
p sów</w>
p m</w>
otwo rzył</w>
g lu
zbli ża
s przeci
prywat nego</w>
persone l</w>
ni kim</w>
chwi lą</w>
zamor dow
z ro
ubezpie czenia</w>
spo ka
rozwiąza niem</w>
infrastruktu ry</w>
wie cznie</w>
rapor tu</w>
prze szedł</w>
krzy ż
kamer a</w>
am bi
zwo len
wy ci
u n</w>
prawdzi wej</w>
ofiar ą</w>
na sa</w>
d c</w>
brea k
z wró
urucho mi
uj ę
tań czyć</w>
nika ch</w>
na śla
lap to
głod u</w>
cer tyfi
u świado
st wa
share point</w>
is la
ira n</w>
in de
i v</w>
ła god
pocią giem</w>
pa tro
ocza mi</w>
doskona łości</w>
świą te
o ch
cyfro wej</w>
sma k</w>
skoń czył</w>
organiza cję</w>
gra ł</w>
czyn nik</w>
chodz ąc</w>
za wa
wi dz
spotka niu</w>
ro om</w>
przezna czone</w>
dotych czas</w>
zdecy dować</w>
szyb kiego</w>
nie prawidłow
globa l</w>
dy skry
cier pienia</w>
zapew niając</w>
usta lić</w>
urucha mia
serwer ów</w>
przetr wać</w>
pracow ałem</w>
pa ński</w>
fi a</w>
fede racji</w>
f ru
eksp re
artyku łów</w>
a kt</w>
wy powie
wróci li</w>
przy wo
o kla
nie właści
mo dy</w>
metr o</w>
j ska</w>
i /
cz ci
alek san
łow ych</w>
x a</w>
wz rok</w>
twa rz
pra wo
lek cje</w>
intere sów</w>
dziesię ci
du pę</w>
czy łam</w>
a qu
wewnętrz nych</w>
se cu
komple tnie</w>
grani cę</w>
wan ą</w>
wa jcie</w>
ty gry
tro pi
telef ony</w>
r ie</w>
postanowi ł</w>
piose nki</w>
pieprzy ć</w>
nie mniej</w>
kon g</w>
japo ński</w>
żo nej</w>
wspólno ty</w>
u nia</w>
p .
odpowia dać</w>
na rodzi
kol oru</w>
dy sk</w>
zaku pów</w>
va l</w>
szero ko</w>
sypial ni</w>
so cjal
se ar
regi o
re r</w>
ra cjona
poło żenie</w>
opera cja</w>
od daj</w>
lotni czego</w>
księżni czka</w>
za je
wykony wać</w>
wygra ł</w>
utrzyma nia</w>
rea kcji</w>
ra ć</w>
pew nej</w>
p r</w>
j szy</w>
istnie jących</w>
h ur
e co
blu e</w>
ban ków</w>
wypra wiasz</w>
przeszka dza</w>
po uf
nę liśmy</w>
li bera
instytu cje</w>
że byście</w>
ści o
proje kta
procedu ry</w>
cu kr
błę ki
wią że</w>
ukry te</w>
składni ków</w>
er y</w>
waż nego</w>
w zo
tra sy</w>
sie de
niespodzian ka</w>
hoste le</w>
ban g
s ora</w>
nio nym</w>
mężczyz nę</w>
kuche nkę</w>
zmę czony</w>
wspó l
odpowie dz</w>
mow ane</w>
ho landii</w>
. 0
ża nie</w>
war t</w>
uży wając</w>
sch e</w>
odwa gi</w>
natura lny</w>
na l</w>
l -
ku ro
kombi na
integra cji</w>
danie l</w>
bierze my</w>
łóż kiem</w>
tole ran
posia danie</w>
obrzy dli
co nych</w>
/ z</w>
wywia d</w>
un t</w>
poszuki waniu</w>
pla ce</w>
l .
ją łem</w>
for mę</w>
zainteresow any</w>
yor k</w>
wyłą czyć</w>
wszech świata</w>
telefo ni
ra mię</w>
lep szą</w>
druży na</w>
zasług uje</w>
zale ca</w>
produ cent</w>
k wie
he n</w>
dostar czyć</w>
ba t
ują co</w>
ro wer
zajm ującą</w>
zachod u</w>
zaawansow anych</w>
wu jek</w>
wspó lny</w>
więk szym</w>
w ką</w>
tow anych</w>
si s</w>
servi ce</w>
nazy wamy</w>
naz wą</w>
m b</w>
czą ste
cyfro we</w>
ła dow
za wiod
wiecz oru</w>
wewnętrz ne</w>
roz mów</w>
przy nieś</w>
dysku sji</w>
cla ire</w>
wz ór</w>
przesta ńcie</w>
obowiąz uje</w>
jezi oro</w>
holen der
g le</w>
do prowadzić</w>
cze ć</w>
18 0</w>
stycz niu</w>
patrz ę</w>
do oko
czyta nie</w>
czyta nia</w>
wo w</w>
ve s</w>
teat r</w>
potrzeb ować</w>
nie zmie
mist rzo
joh na</w>
ho lly
global ny</w>
a .</w>
za inwest
tek sa
struktu ra</w>
same mu</w>
roz działu</w>
ra dy
r in
przy puszcza
pro stytu
pow stanie</w>
i ł</w>
zuży cie</w>
wy lu
tyl u</w>
sła w
poważ ny</w>
pojawi ła</w>
peł nego</w>
ni n
ing ton</w>
bar u</w>
zrób my</w>
zaba w</w>
pew ni</w>
nie bezpiecze
nau czył</w>
klimatyz owany</w>
10- minutowego</w>
ślu b
zdro wi
udogod nień</w>
ti me</w>
richar d</w>
po możesz</w>
pi c
nię ciu</w>
kupi ł</w>
kana dzie</w>
jak e</w>
wyda ł</w>
ulubi onych</w>
s li</w>
pi łka</w>
ole j</w>
loka lizację</w>
le d
ga z</w>
cię cia</w>
ó ż</w>
zadowo leni</w>
x i</w>
wido ki</w>
statysty ki</w>
pły ty</w>
publi cznie</w>
prze noś
podob ało</w>
klimatyza cja</w>
cu d</w>
wysy ł
gnie w</w>
dooko ła</w>
czerw cu</w>
cjona r
1, 5</w>
żyw ność</w>
zało żę</w>
wi zer
to reb
prze prowadzić</w>
osobist ych</w>
ma sa</w>
ka ro
ekra nie</w>
bez zwło
ufa ć</w>
przemysł owych</w>
par kingu</w>
let niego</w>
daw ców</w>
bohate rem</w>
blon dy
utrzyma nie</w>
oszczę dności</w>
następ na</w>
na stąpi</w>
zrobi one</w>
wa ty
pisa na</w>
obszar u</w>
kon centra
ke n</w>
chrześcija n</w>
biał oru
b rie
łóż ka/
łóżka/ łóżek</w>
stude nt</w>
sekun dy</w>
projekt owanie</w>
pod nieść</w>
n ob
ir landii</w>
czy ny</w>
b ki</w>
światow a</w>
zna nym</w>
stosow any</w>
naj szyb
la na</w>
dziewczy n</w>
doku mentu</w>
do min
aktual ności</w>
wy kwalifi
słow em</w>
plan ów</w>
od na
mina cji</w>
konkuren cji</w>
k ri
ho ng</w>
boga t
bile t</w>
1 1.
za robić</w>
nie zbyt</w>
n tem</w>
mo na</w>
market ing</w>
kwe stie</w>
ce ch
ńst w</w>
zi ę
two rzy
sezo nie</w>
ob da
mine ra
man n</w>
gi ne
z relak
wy mó
obec nych</w>
myśli my</w>
met r</w>
koncent ruje</w>
amery ka
se a</w>
ba ra
ba n</w>
wykona w
wor d
utra ty</w>
tr e</w>
sto m</w>
podsta w</w>
kierow cy</w>
199 7</w>
/ /
wy elimin
ty bi
stwo rzony</w>
sara h</w>
rachu nek</w>
no n</w>
mun du
l owanie</w>
ameri can</w>
prze ma
od daje</w>
insta la
i ta
finansow ej</w>
zabi łem</w>
z wia
u sze</w>
moty wa
mieszka sz</w>
ma ju</w>
l uję</w>
fascy n
elektry czne</w>
zda rzenia</w>
zaangaż owanie</w>
w ęż
umie sz</w>
sz ku</w>
publi cz
ot óż</w>
odrę b
niez łe</w>
gra nic</w>
gar den</w>
ekonomi czne</w>
drze w</w>
ca r</w>
a h
ści sło
specjal ny</w>
sklep y</w>
on ki</w>
o powiedz</w>
na praw
kok taj
ci n
ba g
ani ma
przyj dź</w>
najgor sze</w>
kontra kt</w>
kompa tybi
du sze</w>
ck s</w>
s .</w>
pyta sz</w>
ole ju</w>
naj młod
bu s</w>
blockcha in</w>
we ll</w>
pała cu</w>
ow ało</w>
ca st
austra lij
wie dząc</w>
wi ła</w>
w g</w>
ucz ą</w>
szcze pi
przysłu gę</w>
prywat nym</w>
połow y</w>
p taki</w>
n kach</w>
gor ące</w>
czę st
bezzwło cznie</w>
związa ny</w>
za sło
wło ch</w>
składni ki</w>
htt p</w>
hipo te
dostar cza</w>
doda tku</w>
ży ło</w>
więk szego</w>
republi ka</w>
producent a</w>
o go
lotni sku</w>
log y</w>
groz i</w>
fe l
e wa
czu ł</w>
cz niku</w>
bo gów</w>
zarządza niu</w>
owie c</w>
odz na
lep szym</w>
l any</w>
błogosła wie
za grać</w>
ws piera</w>
słusz nie</w>
po myślał</w>
od nawi
czer wiec</w>
u tk
spodzie wać</w>
serwi su</w>
r ty</w>
po gar
jecha liśmy</w>
global nych</w>
gi r
cu dzo
błę du</w>
wyciąg nąć</w>
wa jące</w>
ta nie
re f
r dze
przed tem</w>
prze widzi
po rze</w>
medi ach</w>
in dia
d dy</w>
chmu ry</w>
zapra szam</w>
tale nt</w>
sq l</w>
papier u</w>
numer y</w>
kłopo tów</w>
fa jne</w>
dan ny</w>
słu żą
stowarzy szenie</w>
poś lubi
lip cu</w>
la dy</w>
doskona łym</w>
c ru
zę bów</w>
powro cie</w>
ob ó
n ność</w>
koncep cji</w>
gar ni
departa ment</w>
d b
za stąpić</w>
wyszuki wanie</w>
rozwija jących</w>
rozumie ć</w>
pusty ni</w>
cukr u</w>
che ster</w>
szczy cie</w>
ster n</w>
rezy den
od łóż</w>
ni cą</w>
młodzie ży</w>
koru p
innowa cje</w>
facebo oka</w>
3 4
ź nie</w>
świad kiem</w>
ręka wi
różnoro dność</w>
przysz ło</w>
ko ta</w>
gło s
zdro wy</w>
wiru sa</w>
trybu na
sta cjonar
kil ka
fore x</w>
fan ów</w>
chę ć</w>
choler nie</w>
woj sko</w>
sk re
południ owa</w>
pole cenie</w>
odpowie dniego</w>
języ kach</w>
golf owe</w>
2 /
ó s
squ are</w>
scie nce</w>
przyjech ał</w>
pre feren
p szcz
oblicz u</w>
nadzie ja</w>
na i
lice um</w>
kolej ności</w>
fre e
ewa ku
bo n</w>
wyłą cz</w>
wy szło</w>
wy bit
wa liz
t wa</w>
róż nią</w>
o sobie</w>
nie mu</w>
krót ko
ka sy</w>
in wa
de ta
bi g</w>
zło ty</w>
zga d
twit terze</w>
to ść</w>
profi l</w>
poin formuj</w>
lux e</w>
komple tnych</w>
a g
ścież ki</w>
w ani</w>
spoj rzenie</w>
prze moc</w>
do puszcz
dar mowy</w>
d t</w>
zawodow e</w>
wy sa
przycią ga</w>
poli tycznej</w>
pod no
odej dź</w>
głu po
d .</w>
ci ot
bibliote ka</w>
ata ków</w>
3 50</w>
ty to
sekre t</w>
przysz li</w>
obowiąz ującego</w>
nowoczes ny</w>
li łeś</w>
głoś no</w>
dło ni</w>
trady cyjne</w>
producen ci</w>
pier da
mó wienie</w>
manage ment</w>
ma ra
kar ę</w>
bie ż
u mie</w>
t ło
szablo n</w>
skó ra</w>
po to
mar cu</w>
kra wę
eko logi
ch wała</w>
absolwen ci</w>
tha n</w>
spowo dować</w>
ryzy kiem</w>
prze chodzi</w>
po zostało</w>
okaza ć</w>
luksu sowe</w>
zapro szenie</w>
wąt pię</w>
wu l
u chwy
po ciągu</w>
otwar ta</w>
o ży
lod ówka</w>
kow anym</w>
jak że</w>
e wen
5 g</w>
w tycz
uży wania</w>
u gry
pró buj</w>
przy bli
począ wszy</w>
klien tami</w>
dz ej</w>
a ca
zoba czy</w>
usta wić</w>
plane cie</w>
on -
ob cych</w>
mace u
lider ów</w>
języ ki</w>
fu t
be st</w>
. it</w>
ło ścią</w>
zwycię stwa</w>
wy jech
towa r</w>
program em</w>
prag nienie</w>
obu dź</w>
obie ktyw
ni anych</w>
dziw ny</w>
buł gar
5 :
zabra k
wy jechać</w>
szuka ł</w>
siost rę</w>
ro gu</w>
l li</w>
internetow ą</w>
ci ałem</w>
po bu
p in
lo tów</w>
le kcji</w>
kaz u</w>
di re
za szczyt</w>
utrzym uje</w>
trze ciego</w>
ser cem</w>
ode z
królow ej</w>
ko ty</w>
du żego</w>
be j
żą danie</w>
z zi</w>
wz boga
u daje</w>
towar y</w>
ter ie</w>
od dział</w>
le ś
hi ll</w>
gli ny</w>
ewen tu
epi de
du j</w>
cha mi</w>
wa y
uży wanie</w>
rozumie my</w>
p kb</w>
naz wał</w>
mog łabyś</w>
medy czne</w>
ko t</w>
dzi cie</w>
biał ego</w>
arty stów</w>
światow ych</w>
szo nych</w>
symbo l</w>
pa l</w>
barce lo
zrozu mi
wsty d</w>
szwe cji</w>
pow ra
pasa że
nowoczes nych</w>
myśl ałeś</w>
meksy kań
ku lar
kie r</w>
kawiar ni</w>
ho mo
co no</w>
zdo był</w>
zda rzyło</w>
ros ną</w>
ludzi ach</w>
kro kiem</w>
da i
cywi lizacji</w>
wyzwa ń</w>
waszyng ton</w>
th y</w>
terro rysty
stre fie</w>
pu sty</w>
prawdzi wie</w>
pokaza ł</w>
nosi sz</w>
kow ali</w>
c rea
an dy</w>
- to</w>
śniada niem</w>
przykła dy</w>
nie wielu</w>
nad mier
di gi
amazo n</w>
al bowiem</w>
. 00</w>
zapotrzeb owanie</w>
tycz nymi</w>
sie ń</w>
napi sz</w>
n ności</w>
lo ty</w>
czysto ści</w>
biał ych</w>
znalezie nie</w>
przedsię wzię
obywate le</w>
kory ta
czą cych</w>
ba na
zakła d</w>
wy cza
warsza wa</w>
tr ów</w>
przyjaź ń</w>
prze tłuma
o por
loka lizacją</w>
ką tem</w>
informa cję</w>
3 /
znaj ę</w>
tema tu</w>
spotka ń</w>
podkre śla
odpowiedni m</w>
ma lar
li fe</w>
egza mi
cha ch</w>
ze brać</w>
sti tu
północ na</w>
la su</w>
świad ków</w>
z modyfi
wę d
wyso ką</w>
medi o
bi n</w>
be lla</w>
sty czeń</w>
st ół</w>
przechowy wane</w>
okreś lenie</w>
od dział
naci sk</w>
gue st
dzie wią
da tę</w>
ź li</w>
zwro t</w>
włas ność</w>
usta wa</w>
przystan ek</w>
poszuki wania</w>
pole gamy</w>
mist rzem</w>
kolej nego</w>
jeź dzić</w>
god z</w>
a taki</w>
za ci
włą czyć</w>
wła dza</w>
wiz ja</w>
ubezpie czenie</w>
u niemożli
stara my</w>
s m</w>
ro se</w>
przekona ny</w>
osobist ego</w>
o są
now ymi</w>
miejsc ową</w>
ment ar
break fast</w>
an nie</w>
za log
wspi na
uro dzenia</w>
ukrai ny</w>
two imi</w>
ra my</w>
nie ścisło
ko nie</w>
dzwo ni</w>
do stanę</w>
cięż ki</w>
wysła ł</w>
to u
niej szej</w>
nauczycie le</w>
li ve</w>
ko ja
b ra</w>
au dy
żał os
wy koń
sza jąc</w>
s han
połą czone</w>
na krę
medycy ny</w>
en tu
połu dnia</w>
plan owania</w>
lo w</w>
kontakt ując</w>
gie j</w>
f ri
apara t</w>
zainteres owania</w>
wdzię czny</w>
tego ro
szczegółow e</w>
ni nem</w>
ma mie</w>
ku la
cza jnik</w>
był bym</w>
199 5</w>
u licz
premie ra</w>
odro bin
ni ny</w>
ja d
europej skie</w>
daw niej</w>
co n</w>
bit wy</w>
wi dzieliście</w>
two rząc</w>
sekun dę</w>
ran ka</w>
la tać</w>
un g</w>
syn te
przezna czenie</w>
narodow ej</w>
mądro ść</w>
kocha my</w>
doświad czeniem</w>
aktyw ny</w>
198 9</w>
świa tu</w>
u biera
ry 'ego</w>
miejsc owości</w>
ju z</w>
aktyw nie</w>
9 ,
za choro
su fi
rz ała</w>
pły wać</w>
przy niesie</w>
prywat na</w>
poz ba
mieszka ł</w>
k ujących</w>
inteligent ne</w>
gu e</w>
gru dniu</w>
g y</w>
eduka cyjnych</w>
e ar
cz nika</w>
brą z
skończy łem</w>
sil nika</w>
poprzedni ch</w>
nie bezpieczeństwo</w>
na si
jakich kolwiek</w>
dystrybu cji</w>
de luxe</w>
ce ss</w>
ba za</w>
śre dni</w>
ślu bu</w>
zegar ki</w>
wy ży
u kazuje</w>
sytua cjach</w>
przesy ł
ogro dzie</w>
ko ły
bu da
1 .</w>
zmniej szenie</w>
wee ken
urodzi ła</w>
suszar ka</w>
st ry</w>
pi szę</w>
o logi
na dzo
ma rzeń</w>
li s</w>
an ta
wyści g</w>
wy ło
te ori
robi łeś</w>
rea l</w>
prób ują</w>
poz bawi
pi cia</w>
jas ny</w>
3 -gwiazdkowe</w>
ż cie</w>
zewnętrz ne</w>
towarzy szy</w>
ta y
przy kaza
p .</w>
osobist y</w>
lide rem</w>
li nię</w>
klu bie</w>
in cy
drew na</w>
p ty
owo ców</w>
odpa dów</w>
lap top</w>
impre zy</w>
doce nią</w>
ti mes</w>
papie ż</w>
opowia da</w>
mor skiej</w>
ma jące</w>
le cieć</w>
cent re</w>
bi lly</w>
zawar te</w>
umie ści
s cenie</w>
przypom nieć</w>
pozosta li</w>
mi t</w>
ko w</w>
heli kop
gra mów</w>
zabi j</w>
wene cja</w>
trzy masz</w>
szczy ci</w>
sek su</w>
sek sow
rzy łem</w>
ra che
nie widzi
ja me
czwar ty</w>
alar m</w>
wie rz
wie de
studi os</w>
spra wiają</w>
sco tt</w>
rozkaz y</w>
prawdzi wych</w>
pięk nych</w>
pie ni
mini mum</w>
mie rze</w>
ma jo
li cznych</w>
kon t</w>
z nika
podkreś la</w>
m t</w>
ją co</w>
ca nie</w>
b ała
aktyw ne</w>
t c</w>
słysze liście</w>
posi łek</w>
księ cia</w>
formu larz</w>
cie l
chci ałaś</w>
przyro dy</w>
prze test
okaz ja</w>
du n
częstotli wości</w>
199 6</w>
199 2</w>
ży czę</w>
ry ce
pro si</w>
k no
do cie
bu ti
uda wać</w>
ta tyw
sze sz</w>
strate gia</w>
smart f
gabi ne
dum ni</w>
cz al
an u
wyso kiego</w>
wa ha
umożli wiają</w>
tłuma czenia</w>
t hi
sty czna</w>
rosyj ska</w>
har mo
da m
chiń skie</w>
bezpośre dnie</w>
zabezpie czenia</w>
ob rób
na ta
ga ra
chle b</w>
za chodzie</w>
więk szych</w>
wen ty
w my</w>
ukra d
resz ty</w>
re zo
o szal
na pra
miliar da</w>
konta któw</w>
dło ń</w>
bu e
boha terów</w>
znajd ujących</w>
wi łem</w>
sta wić</w>
prowin cji</w>
mie szcz
li we</w>
fizy ki</w>
edy tuj</w>
zasadni czo</w>
techni cznej</w>
przy szedłeś</w>
powierzch nia</w>
par u</w>
pacje nt</w>
ma pę</w>
korzysta ją</w>
kapita łu</w>
fe n
akade mii</w>
stu le
s ceny</w>
ri ck</w>
pre h
musi ało</w>
intera ktyw
filozofi i</w>
da jesz</w>
znaj dow
zdob ę
wi my</w>
rezerwa cja</w>
o pen
mecha ni
kole żan
kil ku
fl ory
by liście</w>
alkoho l</w>
a sz</w>
zabi ja</w>
za gin
wro giem</w>
sta wia</w>
sierżan cie</w>
porzą dek</w>
natura lnego</w>
lu b
konferen cja</w>
do mowych</w>
cza jący</w>
an kie
wię zi
od świe
no gę</w>
i ra</w>
humani tar
fol der
cu krzy
bezpośre dni</w>
za pamięta
speł nimy</w>
preh ĺ
ok nie</w>
mog łyby</w>
miliar dy</w>
koch ał</w>
e in
chodzi ła</w>
buda pe
a dop
świe że</w>
ło m</w>
zwyk ły</w>
wa len
u mów</w>
twa rzą</w>
sty cznie</w>
so l</w>
skó rę</w>
se mina
r uj
pły nie</w>
prę dzej</w>
opuści ł</w>
nie grze
mona chi
i ce</w>
ge l</w>
dostar cz
zdję ciu</w>
za dzi
z ą</w>
vi i</w>
przyzwo i
ni czy</w>
le o</w>
finan sowania</w>
be ne
b la</w>
' em</w>
ra d
lo un
la b</w>
kalen dar
ka sy
dłuż szy</w>
dzisiej szym</w>
dale kiej</w>
zy ski</w>
zastos ować</w>
st ką</w>
soju sz
skur wysy
ran ny</w>
pij any</w>
odzy ski
na stąpi
klucz em</w>
kle j
i grzy
handlow ej</w>
cyfro wy</w>
wypeł nić</w>
tłu szczu</w>
przyjem ności</w>
pra l
odgry wa</w>
kie mu</w>
impre zę</w>
genera lny</w>
wpły wem</w>
rozsze rzenie</w>
pla cu</w>
ochro nie</w>
alex an
0 4</w>
zo o</w>
wido ku</w>
stra j
stowarzy szenia</w>
s jach</w>
roz porzą
rea li
odwie dź</w>
muzuł ma
czą ce</w>
zd em</w>
wyśmie ni
w ste
sc ri
pię cio
pisa mi</w>
narzę dziem</w>
li an
a zy
uczestni czyć</w>
tru m
ta g</w>
publi czny</w>
przy glą
prehĺ tanie
odda lony</w>
brytyj ski</w>
skra dzi
ra t</w>
odpowiedni ą</w>
now ane</w>
mi ng</w>
ki nie</w>
f rie
czar no
ce ch</w>
bra wo</w>
an ek
śnie g</w>
ści sł
współczes nej</w>
tra ci</w>
przyja źni</w>
poło żonym</w>
portu gal
patrzy sz</w>
na wią
men tami</w>
ex press</w>
dia be
bo ok</w>
p rz</w>
ma j</w>
le ra</w>
kwia t</w>
ko ń</w>
h d
dzwo nić</w>
cier pi</w>
ch ora</w>
boha ter</w>
199 3</w>
zasi lania</w>
zaofe rować</w>
u h</w>
swobod nie</w>
smi th</w>
posta wić</w>
po szedłem</w>
pi łki</w>
partne rzy</w>
meksy k</w>
ja dal
i -
dzisiej szy</w>
do stosować</w>
d owana</w>
a -
zło żone</w>
zakła dni
yo u</w>
wier sz</w>
ulubi ony</w>
tre ner</w>
po dział</w>
pisto let</w>
na mio
ma li</w>
je de
indy jski</w>
go m</w>
da ve</w>
d róg</w>
zdra j
wy rok</w>
wspaniał ą</w>
so m</w>
sie dział</w>
powiedzi ano</w>
ogrom na</w>
far maceu
ekonomi cznych</w>
5 5
s r
r ka</w>
prze ze</w>
od sło
kore a</w>
ht ml</w>
hiszpa ński</w>
cie lem</w>
16 0</w>
łazie nką</w>
zmie rza
sz ły</w>
poczu cia</w>
kana dy</w>
ja ku
ie s</w>
zacz nijmy</w>
wa jących</w>
tar ia
pozytyw ne</w>
po słuchać</w>
osiąg nięcie</w>
niemie ckiego</w>
my mi</w>
krót kim</w>
katalo gu</w>
bezprzewo dowy</w>
6 :
z by
wykaza ły</w>
toale towe</w>
sezo nu</w>
rzy mu</w>
prze niesi
pracow nik</w>
ka że</w>
ja ś
genera ł</w>
europej ską</w>
drzwia mi</w>
0 5</w>
0 2</w>
win da</w>
pro mi
po pa
kryp to
g owy</w>
de nerw
chro ni</w>
ż szych</w>
zgod ności</w>
ustawie ń</w>
ter u</w>
t ler</w>
nocle g</w>
nieścisło ściach</w>
ni owego</w>
następ nej</w>
dow o</w>
codzien ne</w>
choro bę</w>
bang ko
porów ny
nie koniecznie</w>
nadz wycza
k ane</w>
ekstre ma
con ne
u zasadni
u stęp
szac uje</w>
sta ran
ob wi
modlit wa</w>
ja j</w>
innowa cyjne</w>
ga j</w>
fa któw</w>
czą t</w>
ba terii</w>
środ kiem</w>
zakoń czenia</w>
zaczę liśmy</w>
zabior ę</w>
wczo raj
sou th</w>
prze wagę</w>
pa s</w>
ie go</w>
bły ska
budy nki</w>
za reag
tech nika</w>
spoko jny</w>
pe u
kształ cenia</w>
kry mina
ka u
inte rak
dyre ktora</w>
do chodzi</w>
cudow ne</w>
chiń skiej</w>
199 4</w>
0 3</w>
potrzeb ę</w>
po u
pa lenie</w>
m d
hal l</w>
fizy czne</w>
balko nem</w>
zauważy łem</w>
xx i</w>
wiru s</w>
trwa łe</w>
sta te</w>
spa da</w>
sh u
rze czach</w>
narko ty
klima t</w>
doku ment
cen ne</w>
zrobi ą</w>
zaczę łam</w>
właścicie la</w>
wene zu
uniwersyte tów</w>
trwa ły</w>
to ści</w>
ri um</w>
poko lenie</w>
pogrze b</w>
pił kar
piosen kę</w>
fla sh</w>
u kara
robo t</w>
pieni ęż
odwo ł
o o
mi ą
ko lacji</w>
ja ć</w>
impre za</w>
łow e</w>
zabija ć</w>
z em</w>
uli cach</w>
ter s</w>
szyb ka</w>
poko je
medy cznej</w>
lotni cze</w>
in stitu
e nt
wybiera sz</w>
uwol nić</w>
st r
pozwó lcie</w>
partne rami</w>
odtwarza cz</w>
l ów</w>
egip tu</w>
di n</w>
cier pienie</w>
rozwiązy wania</w>
pora dzę</w>
pojem ność</w>
naj prawdopodob
mer a</w>
licz one</w>
gó rach</w>
dza j</w>
cie sz</w>
bu n
3 -gwiazdkowym</w>
ł ymi</w>
wy czu
szko dy</w>
ser de
roz cza
mie j</w>
for te
ciś nienia</w>
chcie libyśmy</w>
trzeci ą</w>
re komen
prze widzieć</w>
powsta nia</w>
mat ce</w>
k any</w>
bal l</w>
tatu ś</w>
sy nowie</w>
po został</w>
nio nego</w>
najprawdopodob niej</w>
na peł
mądro ści</w>
k owa
ja cu
czo ła</w>
awar y
au gu
tęsk nię</w>
są dzi</w>
matema tyki</w>
kopi ę</w>
b obby</w>
ści a
wyda ć</w>
uj a</w>
podsta wą</w>
po l</w>
paździer niku</w>
nu jesz</w>
kow ości</w>
ca sz</w>
ca fe</w>
wy biera</w>
tek st
so s</w>
rekla m</w>
li ng
herba ta</w>
fundu sz</w>
fałszy we</w>
chwi lkę</w>
ch ur
bo nus</w>
ża ch</w>
wy sko
tra ktować</w>
różnoro dne</w>
ran d
kola na</w>
forma cie</w>
dziew czę
chwi le</w>
zarzą du</w>
przy wrócić</w>
mi ch
ma y
e go
zy sk</w>
wil la</w>
uf am</w>
przy tom
platfor mie</w>
mle ka</w>
ga li
de szcz
ń cem</w>
wyszuki war
stre fa</w>
speł nić</w>
prze bu
proto kół</w>
ne apo
mili tar
kwie cień</w>
kupo wać</w>
eksplo ata
dum na</w>
czar nych</w>
c ti
c ry
za mi</w>
rea kcja</w>
opty mi
okrop ne</w>
dziesięci ole
błyska wi
zespo łem</w>
w hat
sza mi</w>
pa y
m ni
l uje</w>
ko sti
interfe js</w>
00 :
zmniej sza</w>
za mel
przywód cy</w>
prakty k</w>
p kt</w>
obowiąz ków</w>
młod ego</w>
kalendar z</w>
elektry cznej</w>
dojrz ałe</w>
bra ł</w>
za dać</w>
słod ki</w>
ni czej</w>
musie liśmy</w>
hod ow
fut bo
ali ce</w>
xi x</w>
wyno ś</w>
słu cha</w>
sor ów</w>
sie ro
rze niami</w>
k cją</w>
jacu zzi</w>
do ra</w>
świą t</w>
śle dztwo</w>
uwzglę dni
przyzna ł</w>
protoko łu</w>
pis mo</w>
najwyż szego</w>
ma mu
dost ałam</w>
chrześcija nie</w>
całkowi ta</w>
zba dać</w>
trud ny</w>
szero kość</w>
pi cie</w>
gaze ty</w>
czy nią</w>
t ing</w>
pła sko
przygo tuj</w>
pięk nym</w>
peter s
pa ńskie</w>
odwie dzi
o powiem</w>
lu zy
g ps</w>
dodatkow ą</w>
bi ł</w>
ze chcesz</w>
ti a
szcz ę</w>
przy chodzą</w>
królow ą</w>
jaki kolwiek</w>
dziedzi ctwa</w>
boga te</w>
199 1</w>
wą tro
st wór
robi ła</w>
rache l</w>
py szne</w>
nie n</w>
naj trud
li wy</w>
kon cie</w>
au stri
śnia dania</w>
wita jcie</w>
wcze j</w>
recep cji</w>
podło dze</w>
og ła
ności ami</w>
nie wątpli
ni co
new s</w>
loun ge</w>
chiń skich</w>
wyda tki</w>
wy strze
we st
wa jący</w>
ve l</w>
tema tem</w>
robi li</w>
pu ste</w>
ele mentem</w>
dozwo lone</w>
dona ld</w>
wy mel
tę tni
telefo nie</w>
ta ś
skro m
ra tow
otrzym uje</w>
ograni czone</w>
ni ger
mart wię</w>
ma ro
i/ lub</w>
dotyka j</w>
do mi
automa tyczne</w>
1 10</w>
/ co</w>
związ ki</w>
wy bie
słysz ałaś</w>
spowo duje</w>
spo dnie</w>
opi nię</w>
ogó lno
motory za
alu mini
1 30</w>
wspó lna</w>
ti cs</w>
sto ją</w>
siedzi bą</w>
przygotow uje</w>
pro por
na cze
n kiem</w>
kole kcji</w>
klu cza</w>
gra my</w>
dokła dne</w>
znajo mość</w>
wy twór
szo ści</w>
rady ka
ra y
potencjal nych</w>
poprzed nie</w>
pa na
ograni czenie</w>
narko tyki</w>
le c</w>
dż un
świet ną</w>
zaprojekt owane</w>
zacz niemy</w>
wal ter</w>
uro czy</w>
sa t</w>
s chi
obó z</w>
ni kowi</w>
mat ko</w>
lod u</w>
ho st
gru dzień</w>
char y
żo nie</w>
sier pień</w>
ra l
p ln</w>
mat t</w>
bieg nij</w>
bie dny</w>
wy produ
pła tnie</w>
preze nty</w>
postęp y</w>
para metry</w>
od ży
o me
ly n
la ke</w>
je re
dro p
siost rą</w>
pre sti
o ł
najnow szych</w>
mo cą</w>
m ki</w>
kow anego</w>
konkre tnych</w>
g b
biał ym</w>
b lu</w>
. .
wy chodzę</w>
wewnętrz ny</w>
powie ść</w>
odkry cia</w>
now otwo
komenta rzy</w>
ex cel</w>
de dy
cu s</w>
chemi czne</w>
c lo
ż kę</w>
włą cz</w>
wysił ku</w>
si ze</w>
przyjaz ny</w>
pie kar
opar ty</w>
odci nek</w>
o ld</w>
niezwyk łe</w>
ea st</w>
bud dy
akademic kich</w>
wszel ką</w>
tre ne
transa kcje</w>
sła ł</w>
spotka ł</w>
pa r</w>
ob cy</w>
listopa dzie</w>
he bra
dan ą</w>
biznesow ej</w>
aresz towany</w>
4 6
żegna j</w>
za rę
urządze niach</w>
two rzeniu</w>
sła by</w>
prawidłow o</w>
porozmawia my</w>
nego cj
led wo</w>
konfli kt</w>
klasy fi
ju tra</w>
gra cz</w>
ger a</w>
ćwi czeń</w>
zna czeniu</w>
we ł
u spraw
rapor ty</w>
powinni ście</w>
le gi
kie li
dob rzy</w>
a bo
osob ami</w>
zabi li</w>
wat ch</w>
upraw nienia</w>
umar ła</w>
recep cja</w>
na n</w>
die ty</w>
d wi
8 :
u szem</w>
rze ka</w>
roz poznać</w>
przy bo
powie ści</w>
ob rę
nagra nie</w>
kwiet niu</w>
czar nej</w>
żał uję</w>
wykła dow
sp r
po głę
opera cyjnego</w>
opera cję</w>
nadej dzie</w>
k ha
go tować</w>
face ci</w>
0 8</w>
wy ła
próbu jesz</w>
pra wym</w>
powi ta
po st
oba w</w>
lu cy</w>
gwiazd ą</w>
e e
biał ka</w>
zadzwo nił</w>
wykorzysty wać</w>
wyda nie</w>
wnio ski</w>
umiejęt ność</w>
te a</w>
szkodli we</w>
modu ł</w>
marke t</w>
lou is</w>
kupi łem</w>
zapo mi
wrze sień</w>
willi am</w>
w pis
poprosi ł</w>
okolicz nościach</w>
monachi um</w>
bu tów</w>
bla ck</w>
2 .</w>
wprowa dza</w>
treni ngu</w>
portfe l</w>
podejm owania</w>
od łą
mieszka ją</w>
fi i</w>
en ter
zba wienia</w>
wyobra ź</w>
ucie czki</w>
typo we</w>
so ny</w>
po trwa</w>
po g
nienawi dzi</w>
ko ma</w>
jer ry</w>
jednost ka</w>
ce remo
c s
bi ała</w>
ber linie</w>
aku mula
za kon
trady cyjnych</w>
słucha sz</w>
regio nach</w>
nazy wać</w>
narze kać</w>
gospodar czych</w>
w rzu
umożli wić</w>
to rze</w>
reli gia</w>
odkry cie</w>
nosi ła</w>
młod ym</w>
kola cja</w>
bour ne</w>
ał byś</w>
a mo
w pła
w ci
st ry
spo glą
przy kry
poło żyć</w>
plane ta</w>
ludz ki</w>
li nę</w>
ko szcze
gimnasty czną</w>
daw ca</w>
co 2</w>
bom ba</w>
2. 0</w>
za mówić</w>
właści wym</w>
w pisz</w>
radi o
po ster
mechaniz m</w>
kolej owa</w>
ing s</w>
holly wood</w>
funda cji</w>
ca tion</w>
. net</w>
wy ś
t ie</w>
szacun kiem</w>
seksu alne</w>
ro wer</w>
przy da</w>
prost ych</w>
p kę</w>
nia na</w>
na reszcie</w>
dzisiej szych</w>
czu łam</w>
12 -
te ren
tam tym</w>
sz ał</w>
su jesz</w>
spy tać</w>
piw nicy</w>
pie cho
papie r</w>
na ciśnij</w>
kontyne nta
e ni
bar bie</w>
sąsie dztwie</w>
sa int</w>
prawdopodob ieństwo</w>
pogod y</w>
ma ster
konfli ktu</w>
dźwię koszcze
co mp
ce le
aktyw nego</w>
za miaru</w>
whi te</w>
sprzeda je</w>
spo d</w>
niebie skie</w>
mó wienia</w>
mo k
kosme tyków</w>
konstytu cji</w>
gre en</w>
abra ha
win ny</w>
sprzeda wać</w>
si lna</w>
secu ri
opła ta</w>
funda menta
dowie sz</w>
decy d
d wie
bu l
bre w</w>
wio ski</w>
wcześ niejsze</w>
tra gi
sta tków</w>
sprób uję</w>
rze niach</w>
rusza my</w>
rozma i
platfor mę</w>
niz m</w>
ku pu
js cy</w>
inteligen cji</w>
in tu
dwor ca</w>
dost ałeś</w>
ba h
afry ka</w>
zbiera ć</w>
z nieść</w>
ra cje</w>
przypad kiem</w>
pracow ała</w>
mobi lnych</w>
liz bo
kole dzy</w>
dro dzy</w>
coo kie
wyż szej</w>
wal czył</w>
to s</w>
se ł</w>
se ktor</w>
pa sek</w>
oddy cha
no n-
nag ród</w>
lod y</w>
do pas
współczes nych</w>
wa łaś</w>
u sprawiedli
standar dowe</w>
potęż ny</w>
plan et</w>
ne two
f ę</w>
zwyk łe</w>
wy jazd</w>
wa dy</w>
uniwer sal
tar i
sa l</w>
ryzy kow
pobli ższych</w>
pa rzenia</w>
p róż
ogó lnego</w>
numer u</w>
ne utra
mą drze
mo tel</w>
herba tę</w>
cię cie</w>
albu m</w>
ścież ka</w>
wej dzie</w>
towarzy stwo</w>
tajem nica</w>
spo czy
publi kacji</w>
m 2</w>
kre ty
jedno li
fa ktu</w>
arty sty</w>
ar che
świę te</w>
z budowany</w>
wyso ce</w>
sierp niu</w>
od ło
kó d</w>
kultu rę</w>
g ow
e f
bada cze</w>
y e</w>
u zgod
u wierz</w>
tow ała</w>
sty n
pow staje</w>
na da</w>
jezi ora</w>
gor sze</w>
di um</w>
bizne sie</w>
z ma
wia jących</w>
samolo ty</w>
przy był</w>
po sie
pa mią
kryptowalu t</w>
komfor t</w>
gał ę
blo gu</w>
wolo ntari
wil got
un der
przy wie
przesta ł</w>
ka pła
ka m</w>
gra n
chwa ły</w>
ar ku
łańcu cha</w>
zgin ąć</w>
te ch</w>
pła ci</w>
przestęp stwa</w>
przedmio tem</w>
opi nia</w>
jeź dzie</w>
ideal na</w>
dotycz ą</w>
chor ych</w>
0 6</w>
zarabi ać</w>
wy nikiem</w>
u ści
trafi ł</w>
ser a</w>
se a
puści ł</w>
lotni czych</w>
lo nego</w>
gratu luję</w>
go ściem</w>
ek sk
bla ck
autobu sy</w>
wyra zić</w>
wie ży</w>
wal ne</w>
sze niem</w>
rezulta cie</w>
popraw nie</w>
pa sku
norma lny</w>
m w</w>
le i
ż owych</w>
zaje bi
wie ża</w>
tom my</w>
tar g
straci liśmy</w>
skonta kt
ran dkę</w>
popular nych</w>
pobiera nie</w>
kateg ori
in dek
an der
z nu
wita miny</w>
skończy ła</w>
satys fak
ra d</w>
in styn
eksk luzy
bez płatnie</w>
ał u</w>
zna czyć</w>
wybo rach</w>
wy stąpi
pa zno
od setek</w>
o środek</w>
nie dalekiej</w>
nazy wany</w>
chi rur
zało gi</w>
z wany</w>
te z</w>
równowa gi</w>
ró sł</w>
rozumie ją</w>
prze waż
pi lot</w>
niezbęd nych</w>
hi p
ge s</w>
de ntów</w>
wypo wia
si mon</w>
przyjem ne</w>
przy wiąza
obserwa cji</w>
ma ki
jed ź
dłu gą</w>
d owaniu</w>
chłop cem</w>
ce r</w>
00 -
0 9</w>
światow ą</w>
syn chroni
rodzi cami</w>
ro dzi</w>
prywat ną</w>
oficjal ne</w>
ni owa</w>
mniej sza</w>
mi od
man u
g ły</w>
dzwo nił</w>
c tor</w>
ar th
a st</w>
w stać</w>
vi s</w>
ti que</w>
przyjaciół ka</w>
parla ment</w>
opera cyjny</w>
odwa gę</w>
mani pu
li ve
let niej</w>
ku li
dz ący</w>
dojrz ał
4 7
śro dę</w>
ła ski</w>
słowa mi</w>
społe czna</w>
przyj dę</w>
portre t</w>
poja zdu</w>
mosk wie</w>
mosk wa</w>
la se
dziew cząt</w>
doj dzie</w>
bli ski</w>
automa ty
ża l</w>
wy kra
wraca jąc</w>
trafi ć</w>
skute czność</w>
pier si
p łe
odwiedza jących</w>
monito rowania</w>
kła mie</w>
gatu nek</w>
dolar a</w>
do prawdy</w>
platfor m</w>
kr wią</w>
he y</w>
akces oria</w>
zostawi ę</w>
wan nę</w>
t j</w>
szkol nictwa</w>
mi li</w>
lo go</w>
h rab
g wi
czeka sz</w>
zjawi sko</w>
zabra li</w>
usta wo
suger uje</w>
sh ar
pode k
pacyfi ku</w>
oce anu</w>
o pisać</w>
ne xt</w>
morder stwa</w>
lo nym</w>
guber na
e mily</w>
d no</w>
czy tam</w>
ze r</w>
węgie r
transfer u</w>
sear ch</w>
podek scy
odkry li</w>
od róż
nauczy łem</w>
du m</w>
d ża
ba sti
wytłuma czyć</w>
uzna nie</w>
u słyszałem</w>
sz o</w>
przybo rami</w>
pobra nia</w>
odpowie dniej</w>
nie ś
na pić</w>
lan d
ga jące</w>
fundu sze</w>
eduka cję</w>
dziesią tki</w>
doce niam</w>
ch er
wybra nych</w>
wróci łeś</w>
są dziłem</w>
roz cią
przy pis
powo dzeniem</w>
postęp u</w>
nie wielkie</w>
me try
e ve
dwu tle
ana ly
światow ym</w>
śródzie mno
ze gar</w>
zda rzeń</w>
wszel kiego</w>
usta w</w>
religi jnych</w>
ra tować</w>
pal ce</w>
letni m</w>
kaz ują</w>
genera le</w>
bie nie</w>
wło ski</w>
tłu m</w>
tr wała</w>
szla g</w>
szan gha
spoty ka</w>
spa dła</w>
spa dł</w>
przysz ły</w>
pi śmie</w>
pe ni
od szko
obec na</w>
mię śni</w>
la w
insta lacja</w>
ekspery ment</w>
de biu
chiń skiego</w>
zasa dami</w>
wzy wa</w>
uli ca</w>
tera peu
sią ść</w>
s /
płasko ekra
parla mentu</w>
ob fi
nie powtarz
konstru kcji</w>
autor skie</w>
z łem</w>
wzra sta</w>
wspó lną</w>
trzydzie ści</w>
rozwo jem</w>
podzie m
po gor
p ing
letni ch</w>
lan o</w>
dzie ł</w>
da jący</w>
ci o</w>
b loka
zapomni ał</w>
wyda w
ubiegł ego</w>
u pro
syste mach</w>
specjal nego</w>
ro wała</w>
pla c
napis ałem</w>
głębo kie</w>
ar ka</w>
wyobra ż
stre s</w>
sreb r
se s</w>
scenari usz</w>
rza ch</w>
prób ki</w>
podkre ślił</w>
persone lu</w>
pa ńska</w>
myśle li</w>
mniej szy</w>
minister stwa</w>
liz owana</w>
dzięk uje</w>
ce lach</w>
c r
boha tera</w>
wykorzyst ują</w>
uzna ć</w>
sku tków</w>
ru szy
pę k
poinform ował</w>
owi cie</w>
oczy szcza
nie praw
mo nt</w>
instytu tu</w>
hi v</w>
ex e
do zna
a v
a mi
4 8
łe b</w>
st ore</w>
s wym</w>
elasty czność</w>
ekspery menta
bri an</w>
ap p</w>
śnie gu</w>
zachow uje</w>
szcze ry</w>
samo tny</w>
rosyj skich</w>
re ser
o c
nict wie</w>
ja ski
zagro żeń</w>
towarzy stwa</w>
ss o</w>
spa ce</w>
prze ry
posia dania</w>
obli ga
na ry
k si
fabry ki</w>
do mek</w>
xx x</w>
wzię ła</w>
su m
sho p</w>
rezulta ty</w>
re nt</w>
prób ę</w>
pozwo lenie</w>
pil n
owo c
mog łaś</w>
mie sza
mi nie</w>
k cyjne</w>
amerykań skim</w>
﻿ ﻿
ży wy</w>
wiz ję</w>
w pi
uczu ć</w>
trans misji</w>
seri ę</w>
odbi ór</w>
oce nić</w>
i bi
firefo x</w>
di no
decy duje</w>
czyta łem</w>
całodob owej</w>
wizy ta</w>
um rę</w>
prze prosić</w>
powta rzam</w>
podróż ować</w>
peł no</w>
o ty
nie unik
lu tym</w>
kon te
ie r</w>
gospo dy
fundu szy</w>
do n
cza j</w>
centra lne</w>
ży czenia</w>
stosu nek</w>
przedsta wienie</w>
pozio my</w>
pi ja
li ly</w>
kole gów</w>
jakie gokolwiek</w>
ib m</w>
holi day</w>
gra sz</w>
face tów</w>
emery turę</w>
ar cy
- co</w>
szczęśli we</w>
si o
produk cyjnych</w>
p ka</w>
in stan
guest house</w>
dział am</w>
dotych cza
rekor d</w>
pła cisz</w>
prze analiz
lu ź
kandyda tów</w>
eksp res</w>
de nt</w>
ł zy</w>
zawodow ego</w>
wo od
w ce</w>
u działem</w>
spró bu
roz li
rosyj skie</w>
przewodni czący</w>
poda tków</w>
nię ciem</w>
komite tu</w>
klej no
egze ku
dyre kty
czwar te</w>
bukka ke</w>
zało żenia</w>
zapo wia
wi nien</w>
sk ą
she l
rze my</w>
prze kła
poda tku</w>
otrzym ują</w>
odna laz
n tach</w>
inwesto rzy</w>
i ko
gwarant uje</w>
cu kier
bud owania</w>
boga ctwo</w>
włas nością</w>
s no
rozpoczę cia</w>
publi cznym</w>
ka rze</w>
czy ta</w>
cookie s</w>
centra lny</w>
celow o</w>
ca s</w>
ai ds</w>
wykona nie</w>
we stern</w>
tt i</w>
star ej</w>
rz onych</w>
na wa
głę bi</w>
dochod ów</w>
wybu chu</w>
word press</w>
w ne</w>
un d</w>
ro ck</w>
ratu n
przewi duje</w>
państ wem</w>
pal ców</w>
net to</w>
gory t
dol ców</w>
andre w</w>
an ę</w>
zasię g</w>
tra m
róż nicy</w>
rz ono</w>
ru s</w>
reprezent uje</w>
r nie</w>
podej ścia</w>
ozna cz
nu jemy</w>
hote lowe</w>
al goryt
wybiera ć</w>
su ng</w>
spraw i</w>
sko -
przy ciąg
przej muj</w>
ma musi
ja va</w>
ha ck</w>
bzdu ry</w>
ate ny</w>
0 7</w>
zło żonych</w>
za dbać</w>
uwielbi a</w>
szla fro
pła cz</w>
pomarań cz
od żyw
niemie ckie</w>
moc ne</w>
macie rzy
kolej owy</w>
hy dro
dzi ur
brze gu</w>
wyzwa niem</w>
wybra ne</w>
villa ge</w>
ros janie</w>
program owania</w>
e p
da jmy</w>
zgroma dzenie</w>
sztu kę</w>
su n</w>
rzę du</w>
re ż
koor dyna
fre e</w>
do ma
świado mie</w>
zy sku</w>
wy miary</w>
tu s</w>
satelitar ną</w>
ofiar a</w>
idi ot
du py</w>
dow ci
czy nić</w>
a muni
3 000</w>
ćwi czyć</w>
wyglą dała</w>
sa s</w>
pła cą</w>
postanowi łem</w>
mobi le</w>
demon stra
barcelo nie</w>
zainsta low
wła dz</w>
wy dłu
trzyma ł</w>
spraw dza</w>
rozmawia my</w>
powie dzą</w>
pi gu
nauczycie la</w>
k owaniu</w>
ja j
cof nąć</w>
bou tique</w>
zamknię ty</w>
wspaniał ym</w>
szuka łem</w>
sygna ły</w>
spotka liśmy</w>
pu cha
przy niósł</w>
ograni czyć</w>
o sło
mu r</w>
m s
ll ie</w>
lin co
egip cie</w>
człowie kowi</w>
an ka</w>
stwier dzić</w>
s na</w>
pun ktem</w>
nazy wał</w>
następ nych</w>
me nem</w>
i ma
gospodar stwa</w>
dzien nik</w>
wysił ki</w>
wy si
współ pracuje</w>
wró g</w>
wnętrz a</w>
th eri
podję cia</w>
po p
oddy chać</w>
niesamowi ty</w>
niebezpie czny</w>
mian owicie</w>
low a</w>
instru kcje</w>
gli nia
ba w</w>
aktu alne</w>
z większo
spor tu</w>
sko pi
robi n</w>
py sz
potwier dza</w>
po zdro
pasz port</w>
nó g</w>
m uje</w>
kli ni
kla u
emo cji</w>
dzisiej szego</w>
badaw cze</w>
a a</w>
ży we</w>
więźni ów</w>
uzyska j</w>
syste ma
sty cznego</w>
pi rami
okreś lony</w>
lek ko</w>
la tar
kon kur
inżynie rów</w>
dosko nale
zosta ją</w>
zi ar
zapobie gania</w>
standar dowy</w>
o szuki
kraj owym</w>
k w
h z</w>
doskona ła</w>
detekty w</w>
zaoszczę dzić</w>
wygry wa</w>
więzie nie</w>
w brew</w>
su we
sto ść</w>
równo cześnie</w>
po wer</w>
od blo
nt owi</w>
mar sh
m .</w>
kontak cie</w>
dzieci ństwa</w>
de szczu</w>
czy ki</w>
autory te
wymog i</w>
wpa dł</w>
uwierzy li</w>
toale towymi</w>
spo za</w>
proje kcie</w>
pra lni</w>
nia j</w>
nadz oru</w>
czerwo na</w>
al ber
5 000</w>
1 40</w>
wal l</w>
ucze ń</w>
spowodow ane</w>
rejest racja</w>
no szę</w>
niesamowi cie</w>
narzę dzi
mini st
jakiej kolwiek</w>
związa na</w>
zmartwych w
wymie nione</w>
tema tów</w>
rado ścią</w>
nadzie je</w>
n .
lubi my</w>
korzyst ne</w>
jack son</w>
gospodar czy</w>
cia sto</w>
łow i</w>
witry nie</w>
se u
pu ść
przy jeżdża
nadz or
dło nie</w>
chcie ć</w>
ła ska
z yst
wio nych</w>
war ta</w>
two rzymy</w>
t s
ry gor
pyta ć</w>
przedstawicie le</w>
kom promi
demokra cja</w>
czu jemy</w>
czar nego</w>
ca nia</w>
bue nos</w>
za dłu
wy jeżd
witry n</w>
wios na</w>
u wal
rów na</w>
prosta at
niewątpli wie</w>
niepraw daż</w>
konfigu racji</w>
j .</w>
ga na</w>
cze niami</w>
cal a</w>
agre syw
ń czycy</w>
wal czy</w>
w glą
su j</w>
roz łą
posił ków</w>
opubli kowany</w>
nie niami</w>
j kę</w>
cu da</w>
aspe kty</w>
śle dzenia</w>
w ho</w>
uwierzy tel
tem pie</w>
stadi um</w>
spro stać</w>
rol nictwa</w>
podło gi</w>
podej dź</w>
pod rę
otwar cia</w>
oka że</w>
mojże sza</w>
loka lnym</w>
ken ne
je nie</w>
h mm</w>
elektry cznych</w>
10 1</w>
wie ków</w>
robie nie</w>
proble mami</w>
pozwo lił</w>
pamięta jcie</w>
nie wier
nie jsi</w>
kupo n</w>
j ni</w>
g rz
emi ra
cią g</w>
be zna
ab or
z łą
vi l
toale ta</w>
podob nego</w>
nienawi ści</w>
li ści</w>
le ć</w>
krę ci</w>
kon kurs</w>
kie t</w>
ka sper
k ując</w>
e liza
cza t</w>
bo o
łatwo ścią</w>
zdrowo tne</w>
zarejest ruj</w>
v ie</w>
rzuci ła</w>
papier ów</w>
otrzy ma</w>
ob oj
ludz ka</w>
gru pą</w>
wprowa dź</w>
spo strze
sce nę</w>
ry an</w>
pła kać</w>
pro pa
poz wolą</w>
po ol</w>
li sa</w>
isto cie</w>
fry zu
drop box</w>
członkow skie</w>
wspó lnej</w>
win dy</w>
wi dząc</w>
wez wanie</w>
trwa ło</w>
szczegó lną</w>
różni cę</w>
organiz m</w>
mi sją</w>
imigra ntów</w>
gwaran cji</w>
g wie
fi u
du chy</w>
3 60</w>
wi li</w>
w cze</w>
ver y</w>
ułat wia</w>
tytu łu</w>
servi ces</w>
se an</w>
poka zy
pienię dz
pacje nci</w>
nie wido
ni any</w>
li t</w>
kt a</w>
ex plo
cierpli wość</w>
4 50</w>
spor towe</w>
popy t</w>
pię tro</w>
otrzyma ła</w>
intu i
ed die</w>
dowo lnej</w>
czar ną</w>
a nia</w>
z łą</w>
wzią łem</w>
wojsk owych</w>
tatu siu</w>
t .
sukce sy</w>
przedsiębior stwo</w>
przeba czenie</w>
p łod
moc niej</w>
m /
ko ła</w>
kawa łki</w>
ir landz
chorwa cja</w>
bliź nia
2, 5</w>
ży liśmy</w>
świąty nia</w>
wo lisz</w>
ukrai nie</w>
uczni om</w>
ta tą</w>
sp rę
ra t
opera cje</w>
niezależ ne</w>
naro dzenie</w>
myśle liśmy</w>
li ło</w>
kla wia
funkcjona ri
fundu szu</w>
człon ka</w>
ba l</w>
śla d</w>
łow ie</w>
wysp ę</w>
wy su
w cie
to ta
speł niają</w>
oświad czył</w>
nau ce</w>
mari o</w>
które goś</w>
b li</w>
/ jak</w>
ukra dł</w>
toale ty</w>
stwo rzone</w>
profi lu</w>
powo dować</w>
pie prz</w>
ideal nym</w>
cięż ka</w>
atmosfer ę</w>
zrezyg nować</w>
znajo mości</w>
zloka lizowany</w>
zaję ta</w>
z weryfi
skie mu</w>
se x</w>
przy wita
nowocze ś
mor skich</w>
lo ve</w>
gospodar cze</w>
gaze t</w>
czy stej</w>
czar nu
budże tu</w>
zapomni ałeś</w>
wysł any</w>
wene cji</w>
trzyma jcie</w>
se g
przy cze
poko leń</w>
miar ów</w>
ma da
licz bie</w>
l cd</w>
kla sz
kaza ch
związ ków</w>
zloka lizowane</w>
wykon uje</w>
wie rze</w>
pó r</w>
potwier dzić</w>
panora mą</w>
no sa</w>
na pole
kon dy
informa cjami</w>
formula rza</w>
edy cji</w>
dow ane</w>
czwar ta</w>
ce niu</w>
bo żej</w>
ab sur
3 3
ży wych</w>
zosta liśmy</w>
zakła da</w>
wyzna czone</w>
wo la</w>
tra fi</w>
sp la
ri ght</w>
prac ujących</w>
popraw ę</w>
podejm ować</w>
poda tki</w>
nau czanie</w>
by le</w>
au tora</w>
analiz ę</w>
ai res</w>
a de
za czną</w>
wyso kich</w>
wyda nia</w>
strategi ę</w>
przypad ki</w>
przy jął</w>
podob na</w>
o cieple
któ ż</w>
jedno czes
h u</w>
ek stra
charak teru</w>
bie nia</w>
znajo mi</w>
tem po</w>
su ro
soli dar
ra k</w>
powiedzi ane</w>
odkry ł</w>
od ku
magi a</w>
liz owanych</w>
ke y
kablow ą</w>
znajd ujące</w>
zna nego</w>
wy pły
v ard</w>
sk ow
rzą dowych</w>
p ti
li ver
kla wi
dal szym</w>
cz li
ca si
bom by</w>
zmę czona</w>
zaję ło</w>
wykorzysta niem</w>
wspó lnych</w>
tru ci
szcz one</w>
ro b
pu s</w>
maki ja
linu x</w>
j skim</w>
ga niu</w>
czyta my</w>
bru ce</w>
9 :
9 00</w>
zie lona</w>
rygor ysty
prze pisami</w>
o .
n kami</w>
mia ć</w>
lubi ł</w>
korzy ść</w>
for ce</w>
bo m</w>
12 .
że my</w>
zbi ór</w>
wydo by
uli ce</w>
u więzi
suwe ren
seri alu</w>
przemysłow ej</w>
otwo rzy
naj prost
miesię cznie</w>
innowa cyjnych</w>
i se</w>
chan ge</w>
aust rii</w>
wysy ła</w>
wyba czcie</w>
wa sh
słysze li</w>
recen zje</w>
no gami</w>
gre en
fre d</w>
brazy lia</w>
wycie czkę</w>
trady cyjny</w>
roz sta
począ tk
nosi my</w>
koncer t</w>
jo nes</w>
h r</w>
dziu ry</w>
amator skie</w>
wy bi
wizy tę</w>
stworzy liśmy</w>
roman s</w>
przy mu
pie kie
odrobin ę</w>
nia niu</w>
kry teri
inter dyscyplinar
indywidu alnych</w>
fizy cznej</w>
cent rów</w>
bud owanie</w>
austra li
tytu łow
te nt
szero ką</w>
ro w</w>
rekla ma</w>
regu lacji</w>
pie szo</w>
kry ty</w>
kradzie ż</w>
dźwię ki</w>
bezna dzie
zmie rzyć</w>
wypoży czal
u słyszał</w>
tajemni ce</w>
słysze liśmy</w>
spoj rzał</w>
pre fe
poli s</w>
o świe
nt ka</w>
niezależ nych</w>
ni ski</w>
kapita ł</w>
fa ktem</w>
andro ida</w>
właści wy</w>
wyści gu</w>
wskaz ówek</w>
urucho m</w>
sz ki
rosyj skiego</w>
pro test
pobiera nia</w>
pamięta cie</w>
loka lnego</w>
kasper sky</w>
gie go</w>
chemi cznych</w>
ba zę</w>
ba zy
zrównowa żony</w>
zespo ły</w>
zegar ka</w>
zamknię ta</w>
wyjaś nienia</w>
wra żenia</w>
sy fi
stra szyć</w>
spe kt
ogó lny</w>
ograni czona</w>
no te</w>
mi k
lek cja</w>
ksią dz</w>
klien tem</w>
dz ane</w>
the re
patrzy ł</w>
lu ty</w>
ja sz</w>
i ro
bo gowie</w>
a i</w>
zanieczy szczenia</w>
zaakcep tować</w>
tea tru</w>
różnoro dności</w>
rze ni</w>
pta ków</w>
poświę cić</w>
musi ałeś</w>
man hat
ge ner
e ste
da jące</w>
człon kami</w>
cieka wy</w>
a man
łazie nkę</w>
ę ła</w>
zgroma dzenia</w>
za par
za czekać</w>
z gwał
twa rze</w>
ry ba
prze chwy
po wa
pieniędz mi</w>
p p
ma gii</w>
j ony</w>
ide i</w>
centra lnego</w>
7 :
usu nięte</w>
tow ali</w>
recy kli
lek ce
frankfur t</w>
cięż ar</w>
ca ro
bezpiecze ństwem</w>
ba y
znaj dziecie</w>
wyż szym</w>
spo rzą
skrzy dła</w>
prywat nej</w>
poża r</w>
pod ar
po szli</w>
op cją</w>
gatu nku</w>
e- mai
deka dy</w>
adre sem</w>
znajo my</w>
u st
u kaza
theri ne</w>
t im</w>
sta tki</w>
poprzed niego</w>
niedzie la</w>
magazy n</w>
letni ą</w>
ka pł
diabe ł</w>
chi le</w>
ap te
żona ty</w>
zwyk łych</w>
za wiado
wy mianę</w>
vic toria</w>
usu wanie</w>
tt le</w>
przygotow any</w>
przestrze gać</w>
pozna łam</w>
poka że</w>
ozna czać</w>
ma to
lito ść</w>
izra elu</w>
h ie
cyj ność</w>
bra my</w>
z za</w>
waszyngto nie</w>
te rem</w>
szan sy</w>
przysto jny</w>
prosi ł</w>
oczeki wać</w>
o poda
mor skie</w>
man ów</w>
ly n</w>
kraj owe</w>
k hol
eliza beth</w>
dome ny</w>
cz wór
w trą
urzę du</w>
sty czną</w>
skończy ło</w>
sekretar z</w>
rozwa żyć</w>
re por
prób ując</w>
przedmio t</w>
południ owo-
pospie sz</w>
por no
pan el</w>
obo zu</w>
hi tler</w>
gaz ów</w>
dziewię ciu</w>
doskona łą</w>
czu cia</w>
ct s</w>
ca na</w>
ac cess</w>
4 -gwiazdkowe</w>
środ kowej</w>
łow i
wycofa ć</w>
słu chi
sza ch</w>
spo dni</w>
skute cz
przysz łego</w>
profi t</w>
obsłu dze</w>
nieleg alne</w>
nastola tek</w>
m ²</w>
ka n</w>
daw nych</w>
d ałaś</w>
boga ctwa</w>
u sz
u ne
tro szkę</w>
rachun ku</w>
metod ę</w>
mał żon
l '
konkre tne</w>
dzwo ń</w>
do dano</w>
d rę
ż owy</w>
za ple
un ku</w>
smar t</w>
s ała
kto rzy</w>
de fi
częstotli wość</w>
czerwo nego</w>
be t</w>
10 :
świad czenia</w>
ła dowania</w>
wewnętrz nego</w>
tro n</w>
obsługi wane</w>
obrę bie</w>
niemie ckich</w>
joh nny</w>
intera kcji</w>
ide a</w>
du bli
bar bar
- a</w>
za gubi
wymie nionych</w>
te s
prezenta cji</w>
pe te</w>
pan uje</w>
oper a</w>
nie dob
nie ba
miłosier dzie</w>
menedże r</w>
li nki</w>
i mieniem</w>
gu jesz</w>
budże t</w>
a .
12 5</w>
za razem</w>
u jecie</w>
sza tana</w>
securi ty</w>
re jo
podró że</w>
po łóż</w>
la my</w>
do stała</w>
chiń czycy</w>
a st
uważ ane</w>
usu nięcie</w>
urzą dzone</w>
szwe cja</w>
s przeciw</w>
rapor cie</w>
otrzy my
negocja cji</w>
moder ni
konwen cja</w>
dziecię ce</w>
dosta niemy</w>
dokto ran
cy ta
chemi i</w>
ca t</w>
a gent
zobowiąza ń</w>
zi ma</w>
zdo lny</w>
wygod nie</w>
wie dź
szto khol
stabi lności</w>
skrzyw dzić</w>
ron to</w>
r ują</w>
prze gry
ogro du</w>
mi nął</w>
kamie nie</w>
ho n
hi gie
dotk nąć</w>
ch lo
za szczy
wie dzieliśmy</w>
vi p</w>
to ronto</w>
służ b
restaura cjach</w>
polity ką</w>
pale c</w>
o środki</w>
nio sę</w>
następ uje</w>
kredy towej</w>
i ranu</w>
hong kongu</w>
a pi</w>
ń czyków</w>
zosta wcie</w>
wyj dziesz</w>
w budow
sy mu
skry tka</w>
przynio sę</w>
popar cie</w>
op cjona
najważ niejsza</w>
limi t</w>
koncep cja</w>
kole kcja</w>
dział ał</w>
zna łem</w>
zachow ywać</w>
z ruj
sub skry
regular ne</w>
przy jechać</w>
produk ować</w>
ple cy</w>
or g</w>
o znaj
do mowej</w>
de we
łó że
wszech świecie</w>
wszech stro
wor d</w>
what sa
rezer wuj</w>
re e
próbow ałam</w>
przechowy wać</w>
potencjal nie</w>
poja wić</w>
nienawi ść</w>
mikro f
konstru kcja</w>
kom an
gi n</w>
dziesią tych</w>
du chu</w>
dostęp ności</w>
be ll</w>
astro nau
1 1:
wy stąpić</w>
wartości owych</w>
w chodzić</w>
trud nych</w>
stoli cą</w>
ser y
ró ż</w>
poli tyczny</w>
podstaw owym</w>
po ruszać</w>
najważ niejszym</w>
mło do
kie ruje</w>
czy ka</w>
bu dzi</w>
aust ria</w>
arab skie</w>
zapom nę</w>
za wód</w>
wy dany</w>
w .</w>
te stu</w>
rzą dzi</w>
regi onów</w>
prag ną</w>
osob owości</w>
nagra nia</w>
mistrzo stwa</w>
m ber
jezi o
istnie jące</w>
grafi i</w>
gh ts</w>
b ob
wystą pienia</w>
wymie nić</w>
wpły wają</w>
sprowa dza</w>
rozpo cz
pły ta</w>
ner ów</w>
naj droż
mo te
m t
der a</w>
cza jących</w>
c ku</w>
bie liz
ba ł</w>
sła be</w>
rozpo cznie</w>
ponow ne</w>
podle ga</w>
okla ski</w>
mini bar</w>
dziel nica</w>
czo m</w>
c f
ży łeś</w>
zost ałeś</w>
zoba czcie</w>
zo m
zni szczenia</w>
zgod ność</w>
ze chce</w>
zało żył</w>
wzię ło</w>
uzna nia</w>
re spon
pr ąd</w>
or gany</w>
nie -
lu stro</w>
gale ria</w>
dal las</w>
cza sz</w>
ci k</w>
autobu sem</w>
wykon ywa
ude rzył</w>
so cia
s ra
pa we
ob jaw
mi ł</w>
l da</w>
konie czność</w>
global ną</w>
ekscyt ujące</w>
cu dem</w>
bo k</w>
' owi</w>
ś pią
zajm ują</w>
za li
z gar
uży wana</w>
twit ter</w>
turysty ki</w>
sta wki</w>
spa dnie</w>
ro s</w>
nie wielki</w>
mo zi
ma in</w>
i le
czaro dzie
comp any</w>
żar tuję</w>
światow e</w>
u poważ
sto ści</w>
st .</w>
produk tach</w>
ma jących</w>
kana łu</w>
hi tle
go s</w>
bar ba
5 +</w>
świad czy</w>
ścież kę</w>
wyno cha</w>
ura tował</w>
słod y
sto pa</w>
ran dki</w>
przepły w</w>
pier wsi</w>
oce nę</w>
naz w</w>
kra jami</w>
departa mentu</w>
car l</w>
ab stra
zło te</w>
za opie
tłu szcz
struktu rę</w>
sekre ta
s przyja
pis arz</w>
obli cze
net fli
ko tku</w>
hy dra
fede racja</w>
da nii</w>
bab ci</w>
a spi
żelaz ko</w>
x box</w>
wystar czające</w>
sz ące</w>
sow ie
sche mat</w>
s kon
poko jami</w>
poda tek</w>
plan owanie</w>
l ód</w>
kościo łów</w>
katastro fy</w>
egip t</w>
bez użyte
zawodow ej</w>
technologi ą</w>
pyta ł</w>
pojaz d</w>
p g</w>
leona r
kla s</w>
ke vin</w>
dźwi g
cyj ności</w>
bi l
aktyw nych</w>
z jo
ve y</w>
u zdro
trzy my
spraw dzę</w>
si ó
pozna ł</w>
po chodz
plane tę</w>
ob er
no r</w>
lon don</w>
licz bą</w>
cent ra</w>
z z
wy jeżdża
stabi lność</w>
pu szcza</w>
powtó rzyć</w>
pocho dzenie</w>
pan o
najbliż sze</w>
mówi liśmy</w>
le ku</w>
ho u</w>
h e</w>
cor e</w>
brukse li</w>
zmie rza</w>
zapomni ałam</w>
wylu zuj</w>
uzyska nie</w>
u kierun
tle nu</w>
stosow anych</w>
sp ło
ska ć</w>
low ego</w>
k nąć</w>
ho f</w>
fo li
dialo g</w>
butel kę</w>
zabi ją</w>
ta i
szczegó lne</w>
strate gie</w>
stra ta</w>
ru sza</w>
pa w
możli wy</w>
licz b</w>
ha l</w>
h p</w>
du chem</w>
ści owe</w>
uli cę</w>
u twórz</w>
telewizo rem</w>
s chroni
rozstrzy g
przy dzie
po zdra
po za
odpoczy nku</w>
obro tu</w>
możli wych</w>
mo ze</w>
konsekwen cji</w>
he al
zwy cięż
za mieszka
wy chodzić</w>
tar gi</w>
sie cią</w>
rzu t</w>
pro sto
pojaz dy</w>
poczu jesz</w>
pa ją
ode szła</w>
na wo
cierpli wości</w>
ały śmy</w>
al ba
żą dania</w>
wykształ cenie</w>
wyjątkow a</w>
tr wają</w>
su s</w>
stra ża
s ch</w>
s cena</w>
ran nych</w>
ra l</w>
przyjaciół ką</w>
proje ktem</w>
poma g
po ł
nor th</w>
ka mi
dz cie</w>
dostrze c</w>
dosta wa</w>
choro bą</w>
łóż my</w>
zacz niesz</w>
z wrócił</w>
wzro śnie</w>
przewodni czą
przeprowadz one</w>
opie ka</w>
ju lia</w>
institu te</w>
dwudzie stu</w>
ce za
anto nio</w>
15 00</w>
ukry wa</w>
słone cznego</w>
szy i</w>
ry tu
pią ty</w>
od waż
ni ce
napis ała</w>
mari na</w>
li ber
gło sem</w>
europej skim</w>
che n</w>
brzy d
bie da
zmieni ły</w>
zaj mow
wa cie</w>
ty ka
tam tych</w>
taj landii</w>
re nt
prą du</w>
poli tyczna</w>
nieba wem</w>
kl ą
ham bur
gwaran cja</w>
gi o</w>
francu skiego</w>
du pek</w>
ch t</w>
współ cześnie</w>
wie czne</w>
weź mie</w>
u tale
ostroż ny</w>
ofer cie</w>
krzy ż</w>
je dzą</w>
inicjaty wy</w>
gł ód</w>
e tni
zgodzi ł</w>
wycie czka</w>
wenty la
w kro
sta cje</w>
sko r
que en</w>
prost ą</w>
pod nieś</w>
p sem</w>
opar tych</w>
od cią
ja jka</w>
cz kach</w>
ca me
bezpłat nymi</w>
adre sy</w>
świę tych</w>
w siadaj</w>
słone czne</w>
su san</w>
rozma wia</w>
płaskoekra nowy</w>
pułkow niku</w>
ph ie</w>
pa da</w>
najlep si</w>
na szemu</w>
musi ały</w>
magazy nu</w>
le czeniu</w>
kuro rty</w>
kosz mar</w>
dyplo m</w>
defini cja</w>
4 4
zna kiem</w>
za śpie
u siad
so na
s uje</w>
przepły wu</w>
przedstawicie li</w>
obiec ał</w>
kal orii</w>
homo seksu
gnia z
g nę
fry zje
/ jest</w>
wyróż nia</w>
szal one</w>
sz liśmy</w>
stał ego</w>
r -
o x
kole ga</w>
kobie tami</w>
- size</w>
ży łam</w>
świado my</w>
zapro ponow
wprowa dzenia</w>
w s</w>
turysty cznych</w>
tu m</w>
stan ąć</w>
spor towych</w>
psycho logii</w>
przej ścia</w>
powszech ne</w>
poru czniku</w>
pięk nej</w>
pa ul
nia jących</w>
ko mo
fotografi i</w>
com mer
zorganiz ować</w>
wy gna
te mp
tam ten</w>
służ bie</w>
poważ na</w>
pierwo tnie</w>
ob se
natu rę</w>
hor mo
ga brie
bezpie cznego</w>
zabie rze</w>
właścicie li</w>
wyda tków</w>
wiod ących</w>
whatsa pp</w>
vi su
vi sta</w>
uważ any</w>
utra ta</w>
t no</w>
sto łu</w>
rów ne</w>
re go</w>
rami ona</w>
od par
hała s</w>
du pie</w>
świę tym</w>
śle dzenie</w>
za klę
wynaj mu</w>
vi ii</w>
tar y
se para
sar a</w>
otwar tym</w>
ni szcz
negatyw ne</w>
male ń
jaki mi</w>
gra wita
eduka cyjne</w>
e p</w>
czy szczenia</w>
co lo
chary tatyw
że gl
łańcu ch</w>
wyświet leń</w>
wspaniał ych</w>
wo dny</w>
w stęp</w>
sygna łu</w>
spo wol
s fer
prze sł
naj sil
kow anej</w>
histori ą</w>
eri c</w>
den ty
czar nym</w>
cieka wa</w>
bie gać</w>
amster dam</w>
łą czą</w>
z nę</w>
wiz y</w>
tań ca</w>
prowadzi my</w>
pro sze</w>
poszuki wanie</w>
po została</w>
okrop nie</w>
lep szej</w>
ka me
i za
elektroni cznych</w>
ela styczne</w>
a sh
ś pisz</w>
zabie rzcie</w>
wywia du</w>
sch wy
przypom ni
przeraża jące</w>
kwo tę</w>
gardero bę</w>
dwa naście</w>
żół ty</w>
zaangaż owania</w>
za inspi
wyja śnia
ustawo daw
tor tu
the a
spę dził</w>
prze ła
promo cji</w>
pio nie
pi ó
nt on</w>
norwe gii</w>
nio nej</w>
nie oczeki
m ma</w>
aspe któw</w>
zaczy nasz</w>
wó z
sam sung</w>
przysz łe</w>
praw nik</w>
plo tki</w>
plan em</w>
ne u
kom pozy
gru b
frag ment</w>
cudow ny</w>
com muni
co un
chodzi li</w>
a ga
w ciąg
stara ń</w>
sprząta nia</w>
skar pe
przykła dów</w>
pali wo</w>
niebio s</w>
menedż erów</w>
licz ę</w>
l lo
krze sło</w>
gu ar
czu ła</w>
świat łem</w>
u sił
twór cy</w>
ra si
pracow nika</w>
porozmawia jmy</w>
ku ku
ko per
ge nów</w>
dziedzi ctwo</w>
do chód</w>
as socia
wraca sz</w>
wol ałbym</w>
upa dku</w>
społe czny</w>
specjali ści</w>
par is</w>
lę k</w>
inteligent nych</w>
indywidu alne</w>
depozy towa</w>
198 0</w>
, 000</w>
zobaczy cie</w>
zi gno
zach owań</w>
wzię li</w>
w róż
u par
tery tori
szy ło</w>
sal onie</w>
przej dzie</w>
poprzedni o</w>
po no
pawe ł</w>
od ra
o cal
mi ja
kar to
in s</w>
i co</w>
efe któw</w>
de an</w>
car d</w>
ca d</w>
19 45</w>
za żą
s sie</w>
ri mini</w>
pro pozycję</w>
pojawi ą</w>
nio r</w>
komi sar
etykie ty</w>
du sz
diagno z
cio cia</w>
char lo
zd jąć</w>
trud na</w>
skar b</w>
ra s</w>
pre sji</w>
popeł nił</w>
no mina
niemie ckiej</w>
naj nowocześ
konfli któw</w>
gi l
ci ch
anta ly
zabaw ny</w>
wspo mi
tygod niach</w>
straci ła</w>
roz róż
podsum owanie</w>
pan ny</w>
obec nym</w>
kobie cie</w>
kapita na</w>
je an</w>
ja dą</w>
hotelow ej</w>
h ory
gło sowania</w>
finansow y</w>
desig ner
chle ba</w>
całkowi tą</w>
zło żo
zginę li</w>
zdrowi u</w>
zau toma
s ne</w>
pozwoli sz</w>
podstaw ową</w>
po wrócił</w>
mog liby</w>
kontrol uje</w>
ha w
gale rii</w>
ewolu cji</w>
efektyw ności</w>
cha t</w>
an tar
al ność</w>
2 -gwiazdkowy</w>
zasa dach</w>
wy budowany</w>
wiecz or
ucie ka</w>
sze ść
stam bu
próbow ali</w>
potęż ne</w>
pla nie</w>
no ki
mia na</w>
dziewczę ta</w>
dziewczy nie</w>
doda wanie</w>
do le
bo ta
bit wa</w>
wró cą</w>
we szła</w>
tor by</w>
tk wi</w>
t su
sek cja</w>
oświet lenie</w>
napo jów</w>
n d
im ple
ilo ścią</w>
h indu
gra ją</w>
drob ne</w>
całodob ową</w>
bieżą co</w>
ar ki</w>
2 1
ż ał</w>
zu r
zabi ła</w>
właści wą</w>
t p</w>
sa p</w>
rozsze rzenia</w>
ro czny</w>
prze cią
pow stało</w>
podsu mow
pil nuj</w>
mor u</w>
hory zo
dzo nym</w>
d robi
choler ny</w>
ca jąc</w>
atmos ferze</w>
ada pta
słuch ał</w>
pró b</w>
nor m</w>
naj bogat
m any</w>
la tek</w>
księ dze</w>
ka wał</w>
je sli</w>
instru mentów</w>
głębo ki</w>
fa n</w>
d b</w>
am bit
al bert</w>
° c</w>
towa niu</w>
sz tyw
por sche</w>
pan ów</w>
ogó ł</w>
li liśmy</w>
koń cem</w>
kalenda rza</w>
ekspor t</w>
dokona ł</w>
charakte rze</w>
zna ku</w>
zdecy dował</w>
zainsta l
zacz nę</w>
z wane</w>
wol nych</w>
w chodzą</w>
upraw nień</w>
ukoń czeniu</w>
szczegółow o</w>
rzuci li</w>
nazy wane</w>
naukow ej</w>
najwięk szej</w>
moty w</w>
ha zar
d rea
alter naty
zgi nie</w>
zało ga</w>
w na</w>
te j
sukce sem</w>
ri ch
mówi cie</w>
gó r</w>
gospodar kę</w>
dzo nego</w>
dziel ą</w>
doj rze
członkow skich</w>
b b
zasko czony</w>
wę dro
umiera ją</w>
spó łek</w>
przywó dztwa</w>
posłu sz
po twór</w>
organiz mu</w>
okreś lenia</w>
nocle gi</w>
niebezpiecze ństwie</w>
internetow y</w>
for mą</w>
dosta wca</w>
zatrzyma ł</w>
uszko dzenia</w>
tren dy</w>
studi ować</w>
ryzy kować</w>
rezo lu
produk uje</w>
poglą dy</w>
odzie ż</w>
negocja cje</w>
mię śnie</w>
l d
krew nych</w>
kosmi cznej</w>
i c</w>
dal szych</w>
budow ie</w>
be ta</w>
1 1-
włą cznie</w>
symbo lem</w>
st kę</w>
re y
po ła
objaw ów</w>
niewin ny</w>
naj my</w>
ści anie</w>
zo n</w>
zautoma tyz
wy budow
tłuma czy</w>
tygod niowo</w>
tele sko
tatu a
strasz ny</w>
spa daj</w>
se xy</w>
ran kingu</w>
prag nienia</w>
pod pisać</w>
pie l
od nieść</w>
nie zapomni
napię cie</w>
my lisz</w>
kultu rze</w>
kin o</w>
dzi k</w>
ciem ność</w>
b .</w>
ab u</w>
zgod ny</w>
za cję</w>
y wał</w>
uzna ł</w>
sta ń</w>
so fa</w>
l anych</w>
ko pie</w>
kal kula
fo un
dostar czania</w>
centra lnej</w>
ce li</w>
że la
ł ków</w>
znaczą co</w>
wie ść</w>
trze ź
re mont
psychi a
okaza ł</w>
nar ciar
i tu
go rz
edwar d</w>
dowie dział</w>
de bi
d ba</w>
by łyby</w>
198 8</w>
zdu mie
za prosić</w>
wpa ść</w>
szko łach</w>
s chow
poprzedni m</w>
pomiar u</w>
niebezpie cznych</w>
ko pa
f .</w>
exe cu
duba ju</w>
adre sów</w>
zawodni ków</w>
wę gry</w>
wyjaś nienie</w>
twier dził</w>
tabe li</w>
pow stały</w>
pen ha
nie potrzeb
ne y
ma łeś</w>
ma ty</w>
ludz ką</w>
lapto pa</w>
dow ó
da cji</w>
apart ment</w>
sa mi
ros nąć</w>
ra dzę</w>
publi czność</w>
po ta
pielę gna
pa ste
oblicz e</w>
o do
no ce</w>
napię cia</w>
na stroju</w>
jed ni</w>
ho landia</w>
chłopa kiem</w>
cha o
base nie</w>
świade ctwo</w>
łat wa</w>
zostawi ła</w>
zej dź</w>
zapyta łem</w>
wnio sków</w>
u twór</w>
trój ką
słysz ała</w>
serwer y</w>
sen sow
róż nic</w>
rów ki</w>
profeso rze</w>
pole gać</w>
nume rem</w>
ma te
l ką</w>
gwiazd kowe</w>
fro nt</w>
atlan ty
zesta wu</w>
z likwi
tay lor</w>
t rza
st wami</w>
s li
roz miaru</w>
pł ci
pu r
preze n
okrę t</w>
nie dobrze</w>
in -
ga dasz</w>
ła ź
zidentyfi kować</w>
zer a</w>
za działa</w>
wia tru</w>
ve lo
utwo rzenie</w>
s pis
prze stanie</w>
po wrócić</w>
po prawa</w>
niz mu</w>
na h</w>
mode lki</w>
fa jny</w>
czę ściach</w>
chro me</w>
chiń ska</w>
car ter</w>
6 6
/ do</w>
łatwie jsze</w>
zasob ami</w>
wyj dę</w>
umie szcza
technologi cznych</w>
rozpoczy na
pręd kością</w>
podwó jny</w>
ow ce</w>
o dziedzi
ni szczy
le na</w>
grafi czne</w>
eksp an
e ro
dorosł e</w>
całkowi te</w>
bur żu
bez dom
zim na</w>
wypoczy nku</w>
wi ó
w owe</w>
py taj</w>
psycho logi
przekra cza</w>
ni łaś</w>
nauczycie lem</w>
mary na
lesbi jki</w>
ekonomi cznej</w>
e c
człon ko
ce niem</w>
śle dź</w>
ń my</w>
wy raz</w>
wewnętrz nej</w>
wal czą</w>
two jemu</w>
trakt uje</w>
pły ną
przer wę</w>
prezyden cie</w>
podstaw owej</w>
me d</w>
marynar ki</w>
lo ck
kolej nej</w>
ini cj
bez wzglę
ar mię</w>
an em</w>
zapis ane</w>
wste cz</w>
whi sky</w>
um rzesz</w>
sie m</w>
ra dzić</w>
powi od
popraw ki</w>
oto czeniu</w>
noż nej</w>
na cjona
mar sa</w>
lu bie
koszy k
kolej owego</w>
boż ym</w>
8 8
za wdzię
z redu
wyjątkow ą</w>
wskaź niki</w>
wróci łam</w>
wojsk owe</w>
wa r</w>
tow o</w>
przyja zdu</w>
prakty ka</w>
pie sz</w>
pi k
p tak</w>
możli wa</w>
mają tek</w>
lo nej</w>
kate dra</w>
ka psu
dup ku</w>
blu e
3 .</w>
zewnętrz nego</w>
zdej mij</w>
wysyła ć</w>
wash ington</w>
stro ną</w>
s ną</w>
robo tów</w>
przywód ców</w>
pie czę
obec nego</w>
naf towej</w>
kole gi
handlow ego</w>
głu pie
gra na
g owe</w>
czy kiem</w>
zu jesz</w>
willi am
uni ted</w>
ta ny</w>
sąsiad ów</w>
spotyka my</w>
rozpoczę ciem</w>
publi czna</w>
pri va
on- line</w>
na kar
la tka</w>
krzy czeć</w>
ko me
ke s</w>
cjo ni
b ren
ad ri
a c</w>
wyczer p
t ch</w>
słu żą</w>
sta cję</w>
rz om</w>
roz er
mu sze</w>
mart we</w>
ju rys
h un
dru ku</w>
ci szy</w>
akt a</w>
25 -
żołnie rz</w>
za stą
ubra nie</w>
u stanowie
t we</w>
ro d
profesjona listów</w>
popular ny</w>
odwro tnie</w>
niewiarygod ne</w>
ni skiej</w>
miłosier dzia</w>
mar mu
krawę dzi</w>
ba gaż
5 /
198 4</w>
łow ą</w>
zwyk łym</w>
znik nie</w>
uży waj</w>
utwo rzenia</w>
sę dzie
stu r
ro wali</w>
przyj dą</w>
prze two
piek le</w>
modli ć</w>
metod ą</w>
mel bourne</w>
finan sowanie</w>
f lu
daw ki</w>
d l
18 -
ń scy</w>
w ski</w>
tni ka</w>
sie dzę</w>
ro y</w>
prze budowany</w>
poważ nych</w>
osiąg nął</w>
jurys dy
gi tea</w>
gdy ś</w>
bo ży</w>
198 5</w>
, 5</w>
wy stęp</w>
teori ę</w>
słyszy cie</w>
strzela j</w>
se basti
sateli ty</w>
samo tnie</w>
par ty
lite ry</w>
kierow nik</w>
hil ton</w>
floren cja</w>
dowie my</w>
da tion</w>
czysto ść</w>
5 0-
zi mą</w>
wari an
staran nie</w>
sta rze
spon so
spo tka</w>
rozmawia ł</w>
rachun ki</w>
przechowal nia</w>
niż sze</w>
nie wielka</w>
mar co</w>
ko ni</w>
kamer ę</w>
in fo
czyta sz</w>
b ali</w>
anty bio
wiel ory
wie działaś</w>
wi ło</w>
twar dy</w>
ta jne</w>
r chi
prag niesz</w>
pozna liśmy</w>
orygina lne</w>
najlep szej</w>
kur de</w>
kse m
kre sk
kolo ni
francu skiej</w>
f c</w>
c ko</w>
łow a</w>
zost ałam</w>
wy ka
uży ciem</w>
tni ków</w>
sza tan</w>
sko k</w>
si n</w>
satelitar nej</w>
rze kę</w>
prowa dzisz</w>
podsta wę</w>
pa lan
oto czenia</w>
opera cyjnych</w>
na rzu
młodzie ż</w>
m ru
kierow ców</w>
intelektu alnej</w>
dokt ry
ciem no</w>
bizne s
artyku ł
anty wiru
zrelak sować</w>
zabój ca</w>
zabiera j</w>
ro czne</w>
referen dum</w>
pa to
ma rzec</w>
lu ksem
kurcza ka</w>
i miona</w>
hi gh
grze chów</w>
gra ce</w>
for sę</w>
charaktery zuje</w>
boha ter
amster da
1 20
zni żki</w>
za mieszkania</w>
wyro bów</w>
vi rgi
v on</w>
sof ę</w>
ra mio
profesjona lnych</w>
pil nować</w>
m r</w>
królew skiej</w>
kapelu sz</w>
je h
enter pri
dy skre
czy je
bu ry</w>
bangko k</w>
ba bi
arche o
wy pić</w>
trze ma</w>
stan ow
sow ane</w>
skaza ny</w>
sie dzisz</w>
popra wia</w>
poglą d</w>
or ga
odzwiercie dla
naro dy</w>
kła mać</w>
hu mo
gwie zd
fizy cznych</w>
dziedzi ny</w>
5 00
świad kami</w>
średni ch</w>
ła d
słabo ści</w>
sof twar
ry ba</w>
ra dzi</w>
mor gan</w>
mar ką</w>
lo ng</w>
g r</w>
ekspor tu</w>
charaktery z
świa ty</w>
wyświet lane</w>
wyobra źni</w>
visu al</w>
row uje</w>
pła szcz</w>
ku mpe
kom pi
hu moru</w>
czeka łem</w>
cz onymi</w>
ciep lar
brow n</w>
boga tych</w>
ba wi</w>
7 7
włą czając</w>
trud niej</w>
tra f
sty ki</w>
sour ce</w>
rozpoczę cie</w>
r ym</w>
profesjona lne</w>
pode jść</w>
pita l</w>
obu dzić</w>
naj wyżej</w>
moc ny</w>
mi ng
materi i</w>
li der</w>
kwo ta</w>
kry szta
koch any</w>
ka i
egza min</w>
dowie działem</w>
dosta te
dodatkow y</w>
całkowi tej</w>
cast le</w>
198 7</w>
zobowiąza nia</w>
znik nęła</w>
zakła dy</w>
v -
ta cza</w>
ser ial</w>
rę ku</w>
równowa gę</w>
prze miesz
od był</w>
lo gów</w>
history cznych</w>
czterdzie ści</w>
ba weł
afgani stanie</w>
zgłosi ć</w>
zaspoko ić</w>
zapom nie
wer sjach</w>
sz kie
sta tion</w>
rozry w
pude łko</w>
pty ma
pocał unek</w>
odpowia dają</w>
no te
gów na</w>
ciep łe</w>
bar ów</w>
a ch
/ tak</w>
turysty ka</w>
tren d</w>
spo ry</w>
so phie</w>
so lar
robotni ków</w>
pozio mów</w>
powie my</w>
pomy łka</w>
nie cierpli
ni ska</w>
naczy nia</w>
mie jmy</w>
lekar stwo</w>
ja sk
inwesty cja</w>
forma ch</w>
epo ki</w>
cz niki</w>
chci ałabyś</w>
śle d
zo ptyma
une sco</w>
twa rza</w>
su ko</w>
sprze czne</w>
skoń czę</w>
skar b
przyjem ny</w>
przeglądar ka</w>
prac ując</w>
powiado mienia</w>
najwyż sze</w>
między czasie</w>
mar ii</w>
konie czna</w>
kin s</w>
każ ą</w>
fe li
edy cja</w>
dołą czył</w>
cz kami</w>
bezpłat nym</w>
anio łów</w>
ale rgi
4 -gwiazdkowym</w>
zespo le</w>
z hou</w>
z bada
ubra ń</w>
ru szyć</w>
pszcz o
prze pust
pozna nia</w>
pod dać</w>
pho to
pen sion</w>
nob la</w>
nia jący</w>
ni ową</w>
komfor tu</w>
ko dek
klu czy</w>
jed ne</w>
ca p
zespo łów</w>
zaku po
z łu
z mi
waka cyjne</w>
tur niej
stara ją</w>
sku pia</w>
si li
s son</w>
ro le</w>
raba t</w>
przy stęp
przestęp stwo</w>
odby wają</w>
niej szymi</w>
ne l
mar ie</w>
kwo ty</w>
kryptowalu ty</w>
kom pen
jer sey</w>
ja cka</w>
funda cja</w>
bli skiego</w>
zapew niam</w>
siost ro</w>
ry mi</w>
przy sią
potwier dzenie</w>
po mogła</w>
od prę
ob rze
korpora cji</w>
do myśla
czy szczenie</w>
b mw</w>
zmar łych</w>
zgo nów</w>
wymaga ć</w>
wybrze ża</w>
usu nięcia</w>
szczęśli wego</w>
spoka ja
siede m
sc p-
przedsiębior ców</w>
popu lacja</w>
p łó
ma łem</w>
m ane</w>
low ej</w>
litera tury</w>
kry je</w>
kar cie</w>
dowod u</w>
dawi d</w>
czy ni
ad mira
wy sp</w>
usta wienie</w>
te x
stos owana</w>
star ą</w>
ru sz</w>
re formy</w>
posia damy</w>
pokła d</w>
ow ców</w>
ne ws
mar a</w>
kuche nne</w>
krę cić</w>
interfejs u</w>
gł ą</w>
gru bo
filozofi a</w>
dialo gu</w>
bro o
ba ck
ń sku</w>
z gu
wysta wa</w>
u szcze
płu c</w>
por tal</w>
pomoc ne</w>
pog rą
phi lip
pa ńskiej</w>
ograni czony</w>
odpowiedzi alne</w>
od była</w>
najwięk szego</w>
mone ty</w>
le czyć</w>
kuku ry
ku li</w>
jedno raz
elektrow ni</w>
dal szego</w>
czyn nikiem</w>
bała gan</w>
zmniej szenia</w>
ze jść</w>
zakoń czył</w>
wprowa dzone</w>
subskryp cji</w>
stwier dza</w>
proje ktami</w>
por to</w>
magi stra</w>
go n
fir mom</w>
cudzo ziem
codzien nego</w>
zobaczy łam</w>
zabu rzenia</w>
wyrzu cić</w>
uzy ski
uważ ał</w>
twi n</w>
rę kami</w>
rz ałam</w>
próbu jemy</w>
przystan ku</w>
przyjech ałem</w>
przewo ź
przemysł owe</w>
poda ł</w>
opor u</w>
odpor ność</w>
od mówić</w>
hała su</w>
fra je
fa zie</w>
efektyw ne</w>
da ma</w>
ci ło</w>
bi je</w>
śre dnie</w>
ze zwa
zarzą d</w>
wybu ch</w>
uwa dze</w>
usta ch</w>
pro ponow
poli tycznego</w>
pa lić</w>
ow ło
oskar żony</w>
mi ss</w>
k nął</w>
inżynie r</w>
elegan cki</w>
zrozumie sz</w>
zjawi ska</w>
zba wi
wykorzyst ując</w>
wsta ń</w>
v ing</w>
ra ju</w>
po szukać</w>
perso na
pen ny</w>
obro nie</w>
ni c
mają tku</w>
auto rzy</w>
ż owej</w>
we nt
szal ona</w>
roz wód</w>
powo dują</w>
polity k</w>
pierda laj</w>
papie ry</w>
nota tki</w>
na no
h l</w>
gatu nki</w>
execu tive</w>
codzien nym</w>
chodzi łem</w>
bran ża</w>
biznesow y</w>
a y
zrozu miał</w>
zagro żeniem</w>
wypowie dzi</w>
wy gene
we i
urodzi n</w>
stę pu
s ci
ri ę</w>
pyta ją</w>
przy jedzie</w>
por ę</w>
ograni cza</w>
nie gdyś</w>
mistrz ost
kopi a</w>
kompute rowych</w>
ke lly</w>
dzisiej sze</w>
drukar ki</w>
de ko
có re
ciem ne</w>
bi ny</w>
alla h</w>
12 :
świet nym</w>
zdo ła
wypad ków</w>
uzna je</w>
techno logy</w>
szczy tu</w>
pieprz one</w>
pia ni
organiza cją</w>
o szac
monito rowanie</w>
mobi lne</w>
man chester</w>
lo u</w>
ka ł</w>
jame sa</w>
ho s
h m</w>
forma tu</w>
dże n
był ego</w>
bo y</w>
a ktor</w>
wy strój</w>
poży czyć</w>
potencja łu</w>
po dyplo
osiągnię ć</w>
niepodległo ści</w>
ma sę</w>
low ym</w>
kuche nka</w>
brazy lij
akty wa
zaopa trze
z mem</w>
wysta wy</w>
woje n</w>
star sza</w>
powo d
poja dę</w>
po jedziemy</w>
pano rami
ofer t</w>
mow o</w>
mo stu</w>
luksu sowy</w>
le cz
kredy t</w>
kongre s</w>
józe f</w>
intere sie</w>
fili żan
ex change</w>
dotyczą cej</w>
wprowa dził</w>
tera ź
ta tę</w>
suger ują</w>
roz mia
puszcza j</w>
pul pi
nio ną</w>
nie szczę
mat the
lo pe
j on
ele mentu</w>
ba ck</w>
197 9</w>
ż ne</w>
zesz łej</w>
wyjaś nił</w>
wizy t
trady cja</w>
sła bo</w>
smu tek</w>
sil ną</w>
que en
ponow nego</w>
pomyśl nie</w>
pi sem
odpowiedzi ą</w>
nt e</w>
now ości</w>
najważ niejszą</w>
mówi ono</w>
mar gar
kup uje</w>
jako ścią</w>
izra eli
isto tnych</w>
energi ą</w>
e ti
dwutle nku</w>
a cji</w>
ziem nia
zda ń</w>
włas nymi</w>
wynaj ąć</w>
wi j</w>
sur f
sma kuje</w>
sk rze
rozumie cie</w>
regiona lnych</w>
płe ć</w>
państ wami</w>
od wrócić</w>
o re
mał ymi</w>
inteligent ny</w>
gospodar ce</w>
dżen tel
dyre ktorem</w>
do prowadzi</w>
anul owanie</w>
świado mi</w>
zarezer wuj</w>
zabie gi</w>
trady cyjnej</w>
szuka nie</w>
spój rzmy</w>
przysto j
po słuchajcie</w>
n ba</w>
la sów</w>
je f
chrześcija ńskiej</w>
a ha</w>
zabro nione</w>
usłu dze</w>
sta wi
rzą dowe</w>
prze bra
proje ct</w>
powiedział bym</w>
oprogram owaniem</w>
kła miesz</w>
ja son</w>
identyfi kacji</w>
har moni
dżun gli</w>
czyn na</w>
cho dzenia</w>
chemi cznej</w>
bi de
znaczą ce</w>
zmusi ć</w>
zagwarant ować</w>
wese le</w>
warzy wa</w>
sukin syn</w>
skrzy nki</w>
si ê</w>
samo tności</w>
powiedz cie</w>
oj c
non- profit</w>
mil ler</w>
madry t</w>
lotni ctwa</w>
kwalifi kacje</w>
ko de
hono r</w>
hol mes</w>
ha ń
bo li
bie giem</w>
198 3</w>
zy sków</w>
wy gra</w>
smu tne</w>
rozwin ąć</w>
ra ją</w>
praw nej</w>
pracow ali</w>
ple cami</w>
pięć dziesiąt</w>
opracow any</w>
obro na</w>
mi r</w>
ka mer</w>
gar dło</w>
brz miało</w>
… …
żon ymi</w>
sy pia
super i
struktu ra
spa ł</w>
przypuszcza m</w>
prze jąć</w>
osie mna
opar ta</w>
obowiąz kiem</w>
natura lnym</w>
naru szenie</w>
lo ck</w>
li ę</w>
klasy czny</w>
efektyw ność</w>
e mail</w>
dar mowa</w>
blo ga</w>
bezpie czni</w>
ber ry</w>
age ntów</w>
zabezpie czyć</w>
za stanowić</w>
wyjątkow ym</w>
techni cznego</w>
stre su</w>
sp lu
shi re</w>
rzuci łem</w>
pozytyw ny</w>
or gan</w>
naj częst
księ gę</w>
kra kow</w>
kole k
ja cy</w>
gło sowanie</w>
festi wal</w>
f 1</w>
ci liśmy</w>
bo sto
bel gii</w>
ba z</w>
ba na</w>
zamó wień</w>
wal k</w>
tow er</w>
te nis</w>
stule cia</w>
sko ru
postępo wanie</w>
por tów</w>
od robi
konwen cjona
do koń
bur ga</w>
ali cja</w>
00 1</w>
łu ka
zabi jesz</w>
x ia
wnę trze</w>
w chodzę</w>
rozu m
rozdziel czości</w>
roman tyczne</w>
powierzch nię</w>
pomó żcie</w>
pla ka
owa ch</w>
niewol ników</w>
kil koma</w>
jeste s</w>
interes ują</w>
genera lnie</w>
eg zyst
ch owa
bli skich</w>
ar ts</w>
197 0</w>
wyda rzy</w>
wie ś</w>
wa kacji</w>
sty le</w>
speł niać</w>
poczu łem</w>
osob owość</w>
nie śli</w>
magister skich</w>
lotni skowe</w>
kuche nny</w>
gre cki</w>
fo te
be dzie</w>
śla du</w>
ą cymi</w>
zastanawi ałem</w>
zachod nich</w>
wybrze żu</w>
uży wanych</w>
uspoko ić</w>
st wach</w>
spę dziłem</w>
prowadz ony</w>
praw ą</w>
określo nej</w>
o j</w>
ny 'ego</w>
dz ących</w>
depre sji</w>
ciaste czka</w>
butel ki</w>
age nta</w>
a men</w>
. com
s ci</w>
posłu sze
na mię
młodo ści</w>
kosz tować</w>
kobie tom</w>
festi wa
c ode</w>
c lu
ści anę</w>
zuży cia</w>
urucho mienie</w>
słyszy my</w>
st ałam</w>
ro ger</w>
pułkow nik</w>
pro pozycje</w>
pozy ski
poru sza</w>
po wyższe</w>
obejm ować</w>
mu s</w>
m ka</w>
je śli
gra cza</w>
gol f</w>
ga te</w>
commer ce</w>
cho dzenie</w>
boga ci</w>
atmosfer a</w>
właści wego</w>
ver a</w>
u czenie</w>
su ma</w>
społe czną</w>
proce sem</w>
powtarza ć</w>
p ru
netwo rk</w>
najwyż szą</w>
multi medi
man da
la sz</w>
jakich ś</w>
j on</w>
fil tr</w>
do prowa
bie j</w>
24 -
ślu bie</w>
zwol niony</w>
zim ne</w>
ze n</w>
ye ah</w>
wy trwa
wspiera nie</w>
wi dy
vol vo</w>
utrzy mywać</w>
tele komunika
sch owa
przesz ło</w>
przekona nia</w>
otrzyma liśmy</w>
mani fe
kwesti on
konkuren cja</w>
karie rze</w>
ja m</w>
do k
deta licz
ca mp
architektu ra</w>
świa tów</w>
zasa dę</w>
wy mu
uży wam</w>
test owania</w>
st rze</w>
si ng</w>
se at
samolo tem</w>
roz pra
ro me
prze żył</w>
patrz ą</w>
najlep szymi</w>
nadzie ją</w>
n ował</w>
mer ce
lider a</w>
labora tory
k wan
ipa d</w>
hu a
f low
explo rer</w>
cze niach</w>
cią żę</w>
a lan</w>
zło ść</w>
znajo mym</w>
za gła
wi dow
typo wy</w>
sza j</w>
staroży tnych</w>
se x
s prowadzi
r ne</w>
przypad kowo</w>
producen tem</w>
posia dasz</w>
pod pis</w>
odkry j</w>
niesamowi ta</w>
następ ujący</w>
mo ri
magi ster</w>
ma p</w>
jose ph</w>
japo ńskie</w>
integra cja</w>
he len</w>
da dzą</w>
cier pię</w>
błę dzie</w>
anek s</w>
2 -gwiazdkowe</w>
10 5</w>
za w
za pytania</w>
w nej</w>
u miar
szero kie</w>
stypen dium</w>
przyj rzeć</w>
powia dam</w>
podstaw owy</w>
podsta wa</w>
pocz ta</w>
mart wa</w>
li piec</w>
in fla
ha y
gar y</w>
ewange lii</w>
du brow
do mach</w>
chc ąc</w>
bo ston</w>
bez proble
/ o</w>
v r</w>
ucie r
tow ani</w>
se o</w>
samolo cie</w>
rakie ty</w>
przyro dni
potrafi my</w>
otwie raj</w>
og niem</w>
nie znany</w>
na kaz</w>
cięż kich</w>
bi t</w>
śla dów</w>
znaj dujemy</w>
założy ciel</w>
zabie ra</w>
za wsty
w kra
singapu r</w>
próbow ała</w>
przeglą du</w>
progno zy</w>
młod ą</w>
lo su</w>
how ard</w>
h ura
h rabi
gala xy</w>
bu rza</w>
zło tych</w>
wykorzyst ane</w>
wy jechał</w>
weź my</w>
vi sa</w>
trzęsie nie</w>
strategi czne</w>
rze kom
re alne</w>
przyjm ować</w>
prze to</w>
pro po
or kie
mężczy zna
który ś</w>
kom pli
kl y
jądro wej</w>
ho noro
francu skie</w>
dział ało</w>
cią głe</w>
łow ej</w>
zarejest rować</w>
zabi ty</w>
y o</w>
v s</w>
transa k
szkole ń</w>
publi czności</w>
przewidy wal
przeby wać</w>
ozna czają</w>
oglą dania</w>
katastro fa</w>
inżynie rowie</w>
gra ne</w>
fi la
do głęb
ce mu</w>
bile tów</w>
antaly a</w>
unika lne</w>
rezerwa cję</w>
promieni owania</w>
powiąza nia</w>
poran nych</w>
otwar tych</w>
ofiar ę</w>
na prawy</w>
mana ger</w>
mag gie</w>
kwadra towych</w>
k ni
fil tro
bezpośredni m</w>
zostawi łem</w>
weź miemy</w>
table tki</w>
ta nia</w>
stra ży</w>
speł nienia</w>
ró że</w>
pła tni
propon uje</w>
partner stwo</w>
najnow szej</w>
mog e</w>
me l</w>
ma rzy
li t
le cie</w>
kredy tów</w>
global na</w>
fa ir</w>
dza jące</w>
da s</w>
czerwo nych</w>
a zer
5 7
ła j</w>
zmartwych wsta
zale cane</w>
szyfro wania</w>
statu su</w>
sta wiam</w>
socja listy
samo tna</w>
pod pisał</w>
pi n</w>
nie znane</w>
mi ssi
ko ka
inte l</w>
in try
dzie c</w>
del fi
cał ych</w>
by c</w>
an te
198 6</w>
zwie rza
zda jesz</w>
z wracać</w>
wybra łem</w>
sla j
rodzi com</w>
robi łam</w>
r .
przyj dziesz</w>
pracow nikom</w>
policjan ci</w>
po zarzą
kradzie ży</w>
f ale</w>
doda tki</w>
ch rz
zdro wa</w>
wywo łać</w>
wy two
u cha</w>
the r</w>
porówna nie</w>
pora nek</w>
ogłosi ła</w>
obo zie</w>
no ga</w>
kt ory</w>
kar en</w>
da jemy</w>
łą czyć</w>
we i</w>
tor bę</w>
satelitar nych</w>
ren ce</w>
religi jne</w>
puszcz ę</w>
pali w</w>
lan g
krze sła</w>
konkre tnego</w>
ko fe
in ów</w>
go ld</w>
doświad czyć</w>
bar y
zwol nić</w>
zi ono</w>
zaj mij</w>
za krę
w owych</w>
u doskona
te sto
superi or</w>
stwier dzono</w>
rze cz
ni owym</w>
myś lne</w>
micha ela</w>
interne tem</w>
instytu cjona
fir mami</w>
fil try</w>
du mą</w>
defini cji</w>
cjo now
że niami</w>
zrealiz ować</w>
zniszcz one</w>
zginę ła</w>
załat wię</w>
zaku pi
zachę ca</w>
wybrze że</w>
woj ną</w>
we tery
słow ie</w>
scho dach</w>
przygotow ane</w>
przesta je</w>
otwiera ć</w>
opubli kował</w>
kwarta le</w>
kry teria</w>
komi k
in su
enterpri se</w>
d l</w>
co sta</w>
bab ciu</w>
administra cja</w>
zamie nić</w>
wra żeniem</w>
u trud
tow ałem</w>
tajem nic</w>
spraw dz
publicz ne
przyzna je</w>
przysz łam</w>
produk tem</w>
po j
perspekty wie</w>
on ka</w>
odpowie dnia</w>
mou th</w>
li stą</w>
ka rabi
fabry ka</w>
el li
dziw na</w>
davi da</w>
bur mistrz</w>
20- minutowego</w>
ści ł</w>
zaba wę</w>
wiede ń</w>
warto ścią</w>
tajemni cę</w>
przyjaz ne</w>
przepra szamy</w>
prze ć</w>
od er
ni sko</w>
na rodzin</w>
komuni kować</w>
kolo nii</w>
ka cję</w>
gra f</w>
g owych</w>
ban kie
a vi
3. 0</w>
zapozna ć</w>
zainteresow ani</w>
ul tra
ty na</w>
trafi a</w>
prom ować</w>
potrzeb owała</w>
potrafi ł</w>
por no</w>
pochwa lić</w>
napa st
najgor szy</w>
mar s</w>
lin da</w>
chi na</w>
cha sz</w>
an n</w>
6 7
. 000</w>
zda rzyć</w>
wyra fin
wez wał</w>
ty cy</w>
te ry</w>
szyb sze</w>
szk ła</w>
row anej</w>
profesjona lny</w>
pora żki</w>
pakie ty</w>
p py</w>
ostate cznym</w>
oddy chaj</w>
nieograni czony</w>
netfli x</w>
nau cz</w>
młod ej</w>
lu s</w>
le wa</w>
kow ani</w>
genera ła</w>
eg zo
dosta liśmy</w>
dokła dność</w>
śpi j</w>
z nika</w>
wyświet lić</w>
wy stąpił</w>
wnę trz</w>
wcześ niejszych</w>
tera pia</w>
syste mami</w>
re search</w>
pra sy</w>
kultu rowe</w>
ku la</w>
ku ba
korzysta sz</w>
ju trze
inde ks</w>
formu ł
dziad ka</w>
ada ma</w>
a zja</w>
a j</w>
zdro wego</w>
zatrud nienie</w>
zadowo lona</w>
x ml</w>
wy nale
uzna ne</w>
urlo p</w>
st wó
sil niki</w>
shi p</w>
przy d
przechowy wanie</w>
pożegna ć</w>
pod ane</w>
po do
ph p</w>
perfe k
m c</w>
kon wersji</w>
komi sję</w>
inter nau
instru kcji</w>
bi nar
ar y</w>
zwło ki</w>
z or
szpie g
społeczności owe</w>
softwar e</w>
rozmawia m</w>
przychod ów</w>
prze bieg
potencjal ne</w>
po lubi
pi szesz</w>
o hy
lau ra</w>
kó łko</w>
drew no</w>
do na</w>
5 9
zem sty</w>
za tań
węgie l</w>
stał ych</w>
skur wie
robi liśmy</w>
ra sy</w>
przykła dowo</w>
pre ce
pora dni
po działu</w>
oszu stwa</w>
oj ców</w>
od działy</w>
no n
niemie cka</w>
miliar d</w>
miej skich</w>
lu ke</w>
głupi o</w>
f s</w>
de ll</w>
d li</w>
char le
wia jący</w>
uzna ny</w>
słu szne</w>
stworzy li</w>
star czy</w>
spotka łam</w>
sow any</w>
si ostrze
sa ni
recen zję</w>
pi sy
pi lnie</w>
od jeżdża
myśl ąc</w>
mistrz ów</w>
loka lny</w>
kompeten cji</w>
klucz ową</w>
inżynie ria</w>
i .
ga mę</w>
g ane</w>
funkcjon owania</w>
e bo
dowo dzi</w>
ba t</w>
żela za</w>
śródzie m
zi my</w>
zainteresow anych</w>
za tytułow
ww w</w>
un ę</w>
słoń cu</w>
sąsie dzi</w>
stadi on</w>
skute czny</w>
seat tle</w>
pisto le
pa ńskiego</w>
nio są</w>
g he
ar a</w>
łazie nek</w>
zapła cił</w>
za snąć</w>
wspom nieć</w>
skle pach</w>
ref lek
prze zię
portuga lii</w>
o sz
najważ niejszy</w>
na kle
li ght</w>
i mi
harmono gram</w>
dziecia ka</w>
doprowadzi ło</w>
cze sz</w>
cof nij</w>
ciąg nij</w>
ci r
brytyj skiego</w>
bom bar
a zo
znalezie nia</w>
zielo nej</w>
zdrowo tnych</w>
zda rzają</w>
zajm uję</w>
zajm ować</w>
za ży
ty kę</w>
tatu aż</w>
sy na
s car
prag ną
powie dzenie</w>
phi l</w>
ost ro</w>
oczy ścić</w>
lod ówki</w>
kupo ny</w>
kształ cie</w>
j czyków</w>
is lam</w>
god ne</w>
dele ga
cze gokolwiek</w>
bu kare
bio logii</w>
zmu szony</w>
zasi lanie</w>
ukra ść</w>
tysią cle
so le</w>
skończy liśmy</w>
serw ujące</w>
pomie szczenia</w>
pojawi ło</w>
państ wie</w>
kłopo t</w>
kraj owego</w>
kompute rowe</w>
hi gh</w>
ge ny</w>
dzieci ństwie</w>
cor pora
brukse la</w>
au di</w>
aca de
zastana wiać</w>
ye s</w>
wczes nym</w>
uro cze</w>
u tru
si m</w>
robo czej</w>
ro se
przygotow ano</w>
przygot ował</w>
przesz ła</w>
procedu r</w>
prece den
pol owanie</w>
pau la</w>
pan e
p seu
od y
mo kra
mie ni</w>
kwesti ą</w>
k erów</w>
i sz</w>
fa ce</w>
bol ało</w>
bo nu
1. 1</w>
z ją</w>
wz roku</w>
ty ce</w>
skute czności</w>
prom owanie</w>
pom nik</w>
po chło
metro poli
ka j</w>
gł ej</w>
g war
c b
7 50</w>
ś ru
zga dnij</w>
za suge
wy rzą
transforma cji</w>
sz łam</w>
sz czyć</w>
strz ały</w>
stan ął</w>
spi ra
przyczy na</w>
popular ność</w>
odpoczy nek</w>
od chodzi</w>
morder ca</w>
mi d
me dal</w>
mamu ś
in ge
finansow ym</w>
docho dzenie</w>
certyfika ty</w>
ban kru
świad ka</w>
zaj miemy</w>
y u</w>
wy chodzą</w>
u moc
twarz ane</w>
tra w
tema cie</w>
s le
przod ków</w>
przed szko
pow ło
mosk wy</w>
maszy nę</w>
loka liza
le dwie</w>
l obby</w>
ham burg</w>
dokła d
cn c</w>
cieszy my</w>
chro nione</w>
skrzy ż
się ga</w>
si lnie</w>
przekona nie</w>
pogo dzić</w>
odzwiercie dla</w>
norma lna</w>
noc ne</w>
nię to</w>
natu rze</w>
naj cie</w>
na wie
konfigu racja</w>
edy n
do t</w>
bli sko
bibliote ce</w>
sprzeda ł</w>
odno ś
od dam</w>
napis any</w>
nad chodz
meta lu</w>
klucz owym</w>
karie ra</w>
jeb ane</w>
głod na</w>
finan se</w>
doro sły</w>
co py
ber li
arabi i</w>
anu luj</w>
zi a</w>
ukry wać</w>
ubó stwa</w>
szk ło</w>
skła dają</w>
schod y</w>
repu tację</w>
oli ver</w>
odno szą</w>
od cię
obra żenia</w>
obiecał em</w>
ma x
low e
kosmo s</w>
cie nie</w>
ber nar
zale camy</w>
wyświet lania</w>
wypoczyn kowe</w>
win na</w>
wdra żania</w>
upa dek</w>
su ka</w>
ra ke
przypomi nam</w>
praw nikiem</w>
pił ka
pe kinie</w>
opi sy
kupi ę</w>
jesie nią</w>
je ssi
internetow ego</w>
i ę</w>
fi zjo
com ment</w>
casi no</w>
b ałem</w>
4. 0</w>
łow ego</w>
znaczą cy</w>
wyświet la</w>
wy trzymać</w>
ułat wić</w>
tek sty</w>
słod ka</w>
sędzie go</w>
rów ność</w>
rosną ce</w>
pułap ka</w>
przy byli</w>
pracow nikami</w>
policjan tów</w>
pi je</w>
pad ło</w>
pa kowania</w>
określo nym</w>
obie caj</w>
o m
listopa d</w>
la cję</w>
ka se
jesie ń</w>
jed ności</w>
ho t</w>
grani ca</w>
fa zy</w>
ek stra</w>
czwar tej</w>
cla u
ban dy
al ności</w>
łaci ńskiej</w>
ze landii</w>
zam ro
za łóż</w>
walu ta</w>
uży te</w>
u czył</w>
ti a</w>
szuka jąc</w>
substan cje</w>
sse l
spodzie wałem</w>
si m
ostate czny</w>
ofer ujące</w>
odsu ń</w>
niebezpie czna</w>
mart wych</w>
gości nnych</w>
gan g
g rób</w>
dowód ca</w>
da jących</w>
d ó
c p</w>
ń cu</w>
zrobi ło</w>
warst wy</w>
sk uje</w>
rza nie</w>
po sł
pi szą</w>
ojczy zny</w>
och ra
obni żyć</w>
niniej szym</w>
licen cja</w>
księży cu</w>
ko tów</w>
ide o
gra j</w>
g lo
fa j
dru kowania</w>
dor f</w>
dochod y</w>
bukka ke
bud uje</w>
zdo l
wyja zdu</w>
we ge
u chwa
szcze niem</w>
sy nowi</w>
specjal na</w>
siedzi ba</w>
poga damy</w>
p sal
opis ane</w>
odniesie nia</w>
niemow lę
nie kiedy</w>
należ ało</w>
lek kie</w>
la w</w>
h ob
fa ta
3 00
wściek ły</w>
wymaga na</w>
technologi czne</w>
słucha nie</w>
szyb kości</w>
sym pa
sty cznym</w>
prioryte tem</w>
po mia
odtwarza nia</w>
o us</w>
mi les</w>
le r
la ty
la mp
kraj owej</w>
kontro wer
konserwa cji</w>
je sse</w>
je ff</w>
itu nes</w>
analy tics</w>
zapew niamy</w>
win dę</w>
testa ment</w>
taksó wkę</w>
pra sow
poważ nego</w>
podzi wiać</w>
matema tyka</w>
ludz kim</w>
komer cyjnych</w>
kasy no</w>
genera tor</w>
du sz</w>
c row
au t</w>
5 8
3 2
19 60</w>
wspom nień</w>
wol nej</w>
ty zm</w>
serwe rze</w>
serde cznie</w>
san d
rzy jmy</w>
pó l</w>
ob co
najwyż sza</w>
muzuł manów</w>
mo rzem</w>
linco ln</w>
ktu jemy</w>
grafi cznych</w>
d .
brytyj skie</w>
blo g
b ka</w>
ale r
zdro wych</w>
wy tyczne</w>
wizer unek</w>
weź miesz</w>
way ne</w>
urządze niami</w>
ucze n
słabo ść</w>
so fia</w>
ros ją</w>
po szan
oszu stwo</w>
now oj
no gach</w>
niem ców</w>
miej skiej</w>
klu czyki</w>
ke e
jen ni
dob rymi</w>
co lum
// www.
zakła dów</w>
va na</w>
ta ni</w>
rzo nego</w>
podmio tów</w>
oprac owania</w>
ofer ującym</w>
nowoj or
mi ja</w>
log owania</w>
licen cję</w>
ko n</w>
ja y</w>
dziennika rzy</w>
de ską</w>
16 -
żar ty</w>
zmywar kę</w>
wa t</w>
to n
recen zja</w>
re i
porówna nia</w>
podstaw owa</w>
po chy
papiero sy</w>
na sy
muze ów</w>
modlit wę</w>
ka pu
fizy cznie</w>
ca li
astro no
zom bie</w>
zakoń czone</w>
za strzy
wios ną</w>
szere gu</w>
star si</w>
ser cach</w>
rze cznik</w>
rze czami</w>
rea lizacja</w>
r ku</w>
pojedyn czymi</w>
pen ta
lar d</w>
kow ałem</w>
hou ston</w>
gor sza</w>
drzwia ch</w>
bó jcie</w>
bzdu ra</w>
b tc</w>
awar ii</w>
adwoka ta</w>
ś miać</w>
ńst wu</w>
znajd ź
zabój stwo</w>
wykona j</w>
wy puści
wie rzcie</w>
usta lenia</w>
u dał</w>
tar a</w>
szy li</w>
sma ku</w>
przedstawi one</w>
przedsta wił</w>
pozio mach</w>
musi c</w>
mo da</w>
kto rze</w>
ko penha
ka den
elektroni cznej</w>
delika tnie</w>
de velo
czy stą</w>
cu kier</w>
bro ad
u pi
t nymi</w>
szy ły</w>
syn chro
sto ję</w>
puść cie</w>
postępo wać</w>
po jedna
otrzyma łem</w>
ot h</w>
o a
nowoczes nej</w>
ma y</w>
lewi s</w>
kontro low
kom bin
impon ujące</w>
gu a
e ng
druży nie</w>
c menta
bie dnych</w>
bez e</w>
za dba
warzy w</w>
war d</w>
uczel nia</w>
to p
studi ach</w>
roz mowie</w>
roz grze
przysz łaś</w>
prezent uje</w>
poli tycznym</w>
pod jął</w>
oprac owanie</w>
ogó lnej</w>
ni ki
kow aną</w>
konsu ment
je li
flo ty</w>
do trze
decy dować</w>
charlo tte</w>
bra ci
bom bę</w>
1 200</w>
zewnętrz nym</w>
zawo du</w>
węż a</w>
współczes ny</w>
weź cie</w>
tni o</w>
szam pana</w>
s ms</w>
przesła nie</w>
por ty</w>
po r</w>
kłam cą</w>
kumpe l</w>
kosmo sie</w>
klu bów</w>
ju lie</w>
ju an</w>
je t</w>
ha us</w>
ge jem</w>
cz nością</w>
brytyj skiej</w>
atmosfer y</w>
ape ty
współ czynnik</w>
we ll
waszyngto nu</w>
uciek ła</w>
teri ę</w>
ta ge</w>
rzeczywi ste</w>
re y</w>
polity ków</w>
ow od
oficjal ny</w>
kon sek
komór kowych</w>
kan ce
ka jąc</w>
instru k
gu s</w>
ga daj</w>
cu l
cu dów</w>
błogosławie ństwo</w>
17 0</w>
żyw ności
zwyk ła</w>
zaprosi ł</w>
za obserw
za kaz
za infe
za cie
wykony wanie</w>
ulubi ona</w>
sal onu</w>
ro le
przesy łania</w>
prosi łem</w>
pośpie sz</w>
poru cznik</w>
określo nego</w>
nowoczes nym</w>
me ga
lep szych</w>
fo x</w>
de spe
dal szej</w>
cierpie ć</w>
brzu ch</w>
ba dać</w>
zach wyco
wyelimin ować</w>
wiki pe
usu wania</w>
tropi ka
t ło</w>
se sja</w>
pu ls</w>
proje k
pozytyw nie</w>
per u</w>
lu jemy</w>
ke l</w>
jerozoli my</w>
je ban
isto tny</w>
dow any</w>
dora dztwo</w>
biznesow ego</w>
zaska k
za łóżmy</w>
włó k
wspani al
wojsk owej</w>
ty n</w>
ta r</w>
sły szą</w>
standar dowych</w>
skonfigu rować</w>
przeciw nika</w>
pra ga</w>
posz łam</w>
p ha</w>
ofice r</w>
możli wie</w>
mniej szości</w>
la t
konsek went
ho ł
czwar tym</w>
book ing</w>
bli ska</w>
/ czy</w>
ża jąc</w>
zim nej</w>
wykwalifi kowanych</w>
wol ni</w>
wez wać</w>
służ bę</w>
su mienia</w>
ru chów</w>
prze straszy
porta lu</w>
krzy ża</w>
kry j
komple tne</w>
jeb any</w>
j .
dzie lenie</w>
dokumenta cji</w>
całkowi tego</w>
al fa
4 /
. pl</w>
ży jących</w>
wuj ku</w>
wdzię czna</w>
wczes ne</w>
vi sion</w>
sła wa</w>
pły tę</w>
przega pi
proje ktach</w>
my s
ka j
jedź my</w>
h .
francu ska</w>
dekla racji</w>
czy stego</w>
cier pią</w>
car los</w>
ba u
ak cję</w>
ź li
wierzy ł</w>
unika lny</w>
ucz ę</w>
u porząd
u czę
słu chu</w>
pła cze</w>
przeglądar ce</w>
pole ceń</w>
po jechał</w>
opa kowania</w>
niemie ckim</w>
naro dzenia</w>
lor d</w>
lau rea
kwalifi kacji</w>
kongre su</w>
ko -
god ności</w>
cyfro wego</w>
chodzi ły</w>
zapła cę</w>
za kry
wy chodzimy</w>
współ rzę
wie prz
st or
sr r</w>
s lu
radi a</w>
przy gnę
przekaza ł</w>
powtó rz</w>
o śmie
komór ka</w>
inwest ować</w>
im port</w>
fer ra
dele ktować</w>
de go</w>
ci łeś</w>
bra ćmi</w>
bohate rowie</w>
świę tej</w>
zło żony</w>
zakoń czyła</w>
zabój stwa</w>
wysi łek</w>
wier ny</w>
t ła</w>
si c</w>
róż nego</w>
row ano</w>
rober ta</w>
przyję ciu</w>
prak tycznych</w>
piot r</w>
państw owych</w>
p ał
nauczy sz</w>
m ware</w>
ki r
gal le
ekonomi a</w>
błę dne</w>
zało żony</w>
wzią łeś</w>
wyświet lanie</w>
wywoł uje</w>
wymaga jących</w>
wraca jcie</w>
wdro żenia</w>
super marke
spoty kać</w>
pseu do
proś ba</w>
praw ę</w>
policjan t</w>
po możemy</w>
po danie</w>
nię ć</w>
nadu ży
kwesti ach</w>
komór kowy</w>
komple tny</w>
jo han
fil mach</w>
e .
dotar ł</w>
chę cią</w>
bak terii</w>
zoba czą</w>
zachowa j</w>
z jaz
szczęśli wie</w>
surow ców</w>
społe cznym</w>
ska ły</w>
s d
reser va
regu ł</w>
przedsiębior cy</w>
praw ników</w>
owło si
na szy
me cze</w>
lą t</w>
kosz mar
kompone ntów</w>
ka ż</w>
ha seł</w>
cou nt
chur ch</w>
bie g</w>
ały by</w>
astro nomi
0. 000</w>
ł kiem</w>
wpły wać</w>
wo js
widz ów</w>
rzeczywisto ścią</w>
roz tacza</w>
prze bi
preze sa</w>
poli tyczną</w>
po czę
państ wach</w>
of f</w>
of f
myśl ała</w>
miał aby</w>
lar ry</w>
kopal ni</w>
kli nicznych</w>
gło sow
dotyczą ca</w>
dostaw cą</w>
b ory
6 9
zakwate rowuje</w>
za ką
trakta tu</w>
termi nie</w>
tań sze</w>
ta cje</w>
ste n</w>
sprzedaw ane</w>
spo wie
specja liz
postanowie nia</w>
pod a</w>
pe re
pan elu</w>
odci ski</w>
od pocz
ocho ty</w>
kawiar nia</w>
ha u
fal a</w>
dyscypli ny</w>
be at
ała mi</w>
antar kty
10 2</w>
zwierzę tami</w>
zni szczenie</w>
y -
wykre s</w>
war unek</w>
u cho</w>
trój ka</w>
sł owi
przygod y</w>
mniej szych</w>
kla tki</w>
da niu</w>
czerwo nym</w>
cięż kiej</w>
biznesow ym</w>
base nu</w>
/ jeśli</w>
zła mać</w>
zasi la
wyjaś nię</w>
wdro żenie</w>
ty ł</w>
to rami</w>
sil ników</w>
s nem</w>
praw nika</w>
poży czki</w>
polity cy</w>
po chod
pie niu</w>
od wróć</w>
nieu chro
moni tor</w>
kolo rze</w>
jor dan</w>
fin landii</w>
egzyst en
digi tal</w>
z gry
x p</w>
wą ż</w>
wymyśli ć</w>
wido czny</w>
wczes nych</w>
usta wę</w>
słone cznym</w>
smu tny</w>
sko czyć</w>
pu tin</w>
przedsiębior czości</w>
pro rok</w>
pora żka</w>
pla ya</w>
ph y</w>
ostrze żenia</w>
odpowiedzial na</w>
od pły
należ ał</w>
lis my</w>
i o
dokt or
d wu</w>
agen tem</w>
ła p</w>
za jął</w>
ta śmy</w>
szangha ju</w>
san kcje</w>
prze szcze
prze niesienie</w>
pierście ń</w>
otrzyma ją</w>
ostrze c</w>
osią ga</w>
ogło szenie</w>
obcią żenia</w>
oba wiać</w>
młod szy</w>
języ kowe</w>
g nu</w>
fa jna</w>
dziad ku</w>
defi cy
ck er
cha os</w>
bada czy</w>
ba d</w>
an tho
al fa</w>
197 8</w>
zanieczy szczeń</w>
zakła dam</w>
x a
w sia
szczegó lny</w>
szan ować</w>
sy jne</w>
roz miary</w>
prasow al
podejrz anych</w>
po zostały</w>
pilo ta</w>
pati o</w>
or le
niedo rze
ne l</w>
na przeciwko</w>
mię ś
konsumen ci</w>
i c
foun dation</w>
da te</w>
cesa rza</w>
bli skie</w>
bezpłat nego</w>
ba se</w>
197 6</w>
1. 6</w>
ży czli
że g
świa dek</w>
zwie dzanie</w>
wol ną</w>
słoń cem</w>
stara ć</w>
spor ów</w>
skró cie</w>
rozwi niętych</w>
pokoje /</w>
nur kowanie</w>
nie je</w>
neapo l</w>
naczy ń</w>
międzynarodow ymi</w>
mini stra</w>
miesz ane</w>
konkre tnie</w>
isto tną</w>
do ga
angli a</w>
197 1</w>
zainsta lowany</w>
wysy łka</w>
wy miar</w>
wor k</w>
wdzię czni</w>
stra ż</w>
spe kta
spekta kular
rapor tów</w>
przestęp stw</w>
pra nie</w>
połą cz</w>
poz or
powie cie</w>
power point</w>
potra kt
podglą d</w>
pe ar
ow ałaś</w>
obco kraj
niezawo dność</w>
ni żej</w>
mo unt</w>
kolej i
k ser
ist niał</w>
gar a</w>
frag menty</w>
fałszy wych</w>
e sto
dzi łaś</w>
ciężar ówki</w>
198 2</w>
ży wego</w>
zmia nami</w>
zabezpie czenie</w>
utra tę</w>
u nie
techni czny</w>
t in
stop nie</w>
spra wami</w>
sk ru
sa in
rozmawi ałam</w>
rea lizację</w>
prze ciągu</w>
modu ły</w>
ma stur
ka ni
ha bili
chi nami</w>
ar te
abraha ma</w>
środowi sk</w>
y wane</w>
wysyła nie</w>
wyra żenie</w>
w ho
usta na
ucie czka</w>
turniej u</w>
san tia
roz mieszcz
przy chodzić</w>
przeglą dania</w>
portfe la</w>
po boż
plan ujesz</w>
odwiedzi n</w>
niezależ ny</w>
mar rake
legen dar
l ler</w>
kontynu uj</w>
instytu cja</w>
gu zi
czytel ników</w>
czy n</w>
cy c
brytyj skich</w>
bezpośre dniego</w>
amerykań ską</w>
śle my</w>
¿ e</w>
zaj mujesz</w>
wystar cza</w>
w chodzimy</w>
twór ców</w>
try bu</w>
s cha
rzu ca</w>
prze zwycię
posła ł</w>
pode jmuje</w>
pe ne
organiz mie</w>
odwró t</w>
n ni</w>
moto cyk
magazy nie</w>
li sh</w>
li k</w>
krzyw dy</w>
kościo ły</w>
koch ałem</w>
kana łami</w>
i an</w>
got owania</w>
gnie wu</w>
ele m</w>
zaba wek</w>
właścicie le</w>
wykorzysty wania</w>
w la
udostęp nianie</w>
słu żył</w>
szu fla
sukin synu</w>
scri pt</w>
przy prowadzi
progra mach</w>
produk cyjne</w>
organiza cjami</w>
male zji</w>
ku cha
dziw ka</w>
dv b-
doty kać</w>
der s</w>
certyfi kacji</w>
aresz tować</w>
alumini um</w>
łą czności</w>
zła go
zba wienie</w>
zaktua liz
zainsta lowane</w>
uży ł</w>
tra sę</w>
szko cji</w>
suszar ki</w>
przeszka dzać</w>
podejrz any</w>
ple ca
pie my</w>
noc leg
narodow ych</w>
na strój</w>
na bo
meto do
ma ka
kompute rach</w>
kance lar
gol d
do kończyć</w>
daw ne</w>
ch uja</w>
booking .com</w>
bel gi
autor ów</w>
196 9</w>
12 3</w>
zło żył</w>
zrezyg now
zarzu ty</w>
zapy tam</w>
zakoń czy</w>
wspó lnym</w>
terrory stów</w>
stra t</w>
spó r</w>
sprzedaw cy</w>
san kt</w>
sa unę</w>
rea kcje</w>
prze kierow
pra wami</w>
papiero sów</w>
mo nar
krót ka</w>
indone zji</w>
gli ną</w>
fizy cznego</w>
fa ktu
cech ą</w>
anio ła</w>
2. 1</w>
zależ ało</w>
zabra ła</w>
ya ho
wróci ły</w>
wie loka
w re
temperatu rę</w>
słu ch</w>
sypial niami</w>
straci li</w>
skry tkę</w>
si lnym</w>
przeprosi ny</w>
pro pozycji</w>
po sy
patri ck</w>
p lą
oświet lenia</w>
ofe rowanych</w>
odbi ło</w>
no v
ne d</w>
mu rzy
minima lna</w>
man e
li ły</w>
genera lnego</w>
fan em</w>
entu zjaz
dłu gim</w>
apara tu</w>
an -
ślep y</w>
zakaza ne</w>
wyłą czone</w>
wyj ści
wieloka na
sygna łów</w>
recep cję</w>
re na</w>
pięt naście</w>
obser wuj</w>
ob wo
ne s
następ ną</w>
mor skiego</w>
le i</w>
labora tori
kre m</w>
interwen cji</w>
e .</w>
dawi da</w>
czyta łam</w>
broo kly
znajd ować</w>
zbro jnych</w>
zapa sy</w>
za licz
wia tro
wi de
sze ści
stabi lny</w>
so cial</w>
singapu rze</w>
rzą dem</w>
ri ver</w>
r mo</w>
przy rze
poś ciel</w>
powró ci</w>
pod porząd
pach nie</w>
nie śmierte
me cze
kow bo
eksper tem</w>
cie niu</w>
chiń skim</w>
cent ów</w>
ża jące</w>
znalaz łaś</w>
zebra ń</w>
zagro żone</w>
y d</w>
wło skiej</w>
wyra ża</w>
wykaza ło</w>
wro gowie</w>
sły nny</w>
sz ący</w>
ste re
ru ch
re j</w>
ra p
py tho
przykła du</w>
przeważ nie</w>
pro pozycja</w>
podło gę</w>
podzie l</w>
pie ś
opowia dać</w>
mor ski</w>
li on</w>
hiszpa ńskiego</w>
g m</w>
f fi
f ani</w>
czy kami</w>
cie nia</w>
chciał aby</w>
c ca</w>
znajo mymi</w>
zabi cie</w>
wytwarza nia</w>
wy równa
wi łeś</w>
waż y</w>
usłu gami</w>
urucho mienia</w>
sytua cje</w>
su p
powiąza nych</w>
poszczegó lne</w>
noc ny</w>
mó w
mia nie</w>
meta bo
jo sh</w>
ja dł</w>
gło si</w>
funk cją</w>
eksploata cji</w>
da ta
azer bej
autobu sowy</w>
+ +</w>
środ kami</w>
ła py</w>
wyma gan
wybiera m</w>
współczes ne</w>
wię zi</w>
uważa jcie</w>
umiera ć</w>
ulubi onym</w>
u ps</w>
spotyka ją</w>
specjal ną</w>
s prowadzić</w>
rysu nek</w>
prze czucie</w>
pozna sz</w>
posta ram</w>
porówna ć</w>
porozmawia j</w>
o ly
nia ka</w>
małże ństwem</w>
madry cie</w>
kosmi cznych</w>
japo ńska</w>
fo od</w>
energe tycznej</w>
dó br</w>
de kre
czy cie</w>
chłopa ków</w>
198 1</w>
z srr</w>
współ czucie</w>
urodzi łem</w>
synchro niz
przyspie szyć</w>
przer wać</w>
popy tu</w>
papiero sa</w>
n '
mil czenie</w>
migra cji</w>
li nes</w>
księży c
księżni czki</w>
kon stan
indi an</w>
in ą</w>
funkcjona lności</w>
dziewczy nką</w>
d owaliśmy</w>
arty ści</w>
ap k</w>
14 -
wzmoc nić</w>
towarzy stwie</w>
szyb szy</w>
st ałeś</w>
sobo ta</w>
re u
re no
pój dą</w>
przezna czenia</w>
po są
pier wia
ocze kują</w>
nu dne</w>
na me
muzuł manie</w>
mikoła ja</w>
king -size</w>
i nie</w>
dwu nastu</w>
doda wać</w>
ar ia
5 .</w>
13 -
zmieni one</w>
zesz łego</w>
zachod nim</w>
wynagro dzenia</w>
u bi
ter ra
ss l</w>
ro na
pó j</w>
publi czną</w>
pomie szczeniu</w>
pi j</w>
nio sły</w>
nawiga cji</w>
naci ska
modu łów</w>
man em</w>
kompeten cje</w>
hong kong</w>
dowod em</w>
d ani</w>
chu ck</w>
brytyj ska</w>
booking suite</w>
bak terie</w>
6 8
wy wa
wpły nąć</w>
wierzy cie</w>
v au
tra cą</w>
ta in</w>
syste mowe</w>
rezer wy</w>
redu kcji</w>
realiz ować</w>
przy słał</w>
prze kaz
procedu ra</w>
podob ają</w>
play er</w>
per a</w>
oto czony</w>
niebio sa</w>
mina cja</w>
kow ały</w>
k ciu
f fe
dup kiem</w>
di al
czeka ła</w>
całkowi ty</w>
bo r</w>
be t
b l
autory z
197 4</w>
12 8</w>
1 18
świę t
załat wione</w>
wywo ły
treni ng
trady cyjną</w>
sty ka</w>
sta wiać</w>
spra g
specjal nej</w>
santia go</w>
s łam</w>
prze kle
pierdo lę</w>
pate nt
na stąpił</w>
mikrofal owa</w>
li a
kąpie l</w>
klasy czne</w>
ka mienia</w>
im mu
h ad
gwiazd ki</w>
grafi ki</w>
depozy tową</w>
ce nach</w>
ak war
a sa
4 0-
20 30</w>
zakła du</w>
za szko
wo dne</w>
u zasa
tere ny</w>
stosu j</w>
st wu</w>
sko ja
roz wie
ro sa</w>
proce sor</w>
popro ś</w>
poinform ować</w>
podob nym</w>
nienawi dzą</w>
na de</w>
n b</w>
mikoła j</w>
ma d</w>
koń czą</w>
ka ją</w>
jab łko</w>
inteligen cja</w>
i .</w>
gła d
em pi
elektroni czne</w>
e there
b ny</w>
zapa lenie</w>
wspomni ał</w>
weso łych</w>
wa ter</w>
tre nera</w>
rodzi ć</w>
połą czeniem</w>
pozwo lenia</w>
obró t</w>
o pór</w>
niemie c
n tami</w>
mą dra</w>
ir landia</w>
i g</w>
ha wa
działa my</w>
doda tków</w>
d rze</w>
cz ów</w>
choler ne</w>
ana l
zrozu miałam</w>
wynagro dzenie</w>
wan ny</w>
ta len
stan ę
sprób ujmy</w>
pucha r</w>
piel grzy
ogro dy</w>
nie od
mo ze
mieszka ń</w>
kupo nu</w>
g r
dziu ra</w>
die ta</w>
cz ała</w>
be i
an t
akty wa</w>
adwoka t</w>
1 15
ścio nek</w>
zga dzasz</w>
sz ących</w>
stro ng</w>
stro nami</w>
stra sse</w>
ra dzie</w>
r t
przyjech ała</w>
przesłucha nie</w>
projek tan
produk tami</w>
poda ją</w>
po stąpi
pier ścionek</w>
parla mentar
pakie tów</w>
odpowie działa</w>
now ie
ni cza</w>
naru szenia</w>
mp 3</w>
mał py</w>
kreatyw ność</w>
kora n</w>
i x</w>
ho stal</w>
han k</w>
ekonomi czny</w>
dzi ki</w>
dowie m</w>
zapyta ła</w>
zagrani czne</w>
wynika jące</w>
wil son</w>
wia cie</w>
wej ściu</w>
s nów</w>
robo czych</w>
przyci sku</w>
przy wio
pod ano</w>
ozna czone</w>
ob szer
niezwyk ły</w>
nie uczci
narodow a</w>
kore spon
ju nior</w>
got ówki</w>
czerwo nej</w>
cieka wych</w>
biał ej</w>
zale t</w>
y an
wło żyć</w>
wy dała</w>
wspaniał ego</w>
wier sze</w>
wia liśmy</w>
trakt owane</w>
spę dzać</w>
spraw dzenie</w>
pod waż
od mówił</w>
[...]
