#version: 0.2
α ι</w>
σ τ
π ο
ε ί
ν α</w>
τ ο
ι κ
ε ι
τ η
ο υ
τ ο</w>
ε ι</w>
ε ρ
ι α</w>
α ν
α τ
μ ε</w>
κ αι</w>
π ρ
α ς</w>
α λ
α ρ
ε ς</w>
ν αι</w>
ο υ</w>
α π
ε τ
δ ε
τ α</w>
εί ναι</w>
α ν</w>
α υ
τ ι</w>
σ ε</w>
μ έ
ά ν
ει ς</w>
δ ι
δε ν</w>
ε π
ο ύ
θ α</w>
αυ τ
ε ν
γ ια</w>
ο ς</w>
τη ν</w>
ί α</w>
σ η</w>
το υ</w>
έ ρ
σ υ
α κ
ω ν</w>
ο ρ
πο υ</w>
τη ς</w>
έ χ
ο ι</w>
απ ό</w>
ν τ
μ α</w>
α γ
ε λ
ου ν</w>
ά λ
ε υ
ρ ι
α ι
α σ
μ ου</w>
ά ρ
ω ς</w>
πρ ο
έ ς</w>
τ ι
α μ
. .</w>
α ί
το ν</w>
ο μ
ή σ
τ η</w>
ι στ
τ ρ
ε κ
ό λ
χ ρ
π ερ
ο λ
. ..</w>
ε ί</w>
έ λ
ι σ
μ πο
στ ο</w>
πο λ
στ η
αυτ ό</w>
το υ
ό ς</w>
κ ά
ό τ
ί σ
μ ατ
α φ
ό ν
ό τι</w>
π αρ
ό σ
κ ατ
μπο ρ
η ς</w>
μέ ν
η μ
ε γ
ου με</w>
ι ν
ό μ
έ να</w>
π λ
ικ ή</w>
υ π
αλ λ
ώ ν</w>
α στ
ε σ
ο ν
σ ου</w>
τ ων</w>
α θ
του ς</w>
ικ ά</w>
ρ α</w>
κ αλ
τ ε</w>
ή ς</w>
πο ι
ο ν</w>
ά σ
κ ο
έ ν
ετ ε</w>
ικ ό</w>
μ ια</w>
έ π
στη ν</w>
κ άν
μ π
συ ν
ο γ
ί ζ
ου ς</w>
ετ αι</w>
ί ν
ε ύ
α πο
ι λ
σ ας</w>
ω ρ
γ ι
ε δ
γ ρ
ε ξ
η σ
μ ας</w>
β ρ
τι ς</w>
κ ρ
μ ά
κ λ
άλ λ
ι ο</w>
μ ετ
εί ς</w>
η τ
π ως</w>
τ σ
ώ ς</w>
αν τ
ο ντ
ο ύ</w>
μ α
ει α</w>
ματ α</w>
ή τ
ώ σ
αλλ ά</w>
προ σ
ό χ
τ ερ
ά ζ
ό ρ
υ ν
ο δ
εί μ
επ ι
ήτ αν</w>
σ κ
έχ ει</w>
έπ ει</w>
ξ έρ
ο ι
ρ ω
ά ξ
σ α</w>
ι μ
ί ας</w>
ο χ
ή θ
κ ι</w>
ά δ
πρ έπει</w>
θ έλ
στ η</w>
ω ν
ί δ
όχ ι</w>
φ ορ
έ σ
στ ε</w>
ώ ρα</w>
σ χ
π ά
η κ
η ρ
α δ
ό τη
αί ν
πολ ύ</w>
μ η
β λ
περ ι
εδ ώ</w>
η λ
α ξ
κ αν
στ ι
εί σ
υ ρ
ε μ
γι ατ
ότ ερ
συ μ
ε χ
σ ύ
εί τε</w>
ί ες</w>
ε φ
η θ
τ ελ
` `</w>
γ κ
ού ν</w>
θ ε
η γ
μ όν
α β
π αι
η ση</w>
εί χ
ερ γ
ι τ
όσ ο</w>
είσ αι</w>
ικ ές</w>
ό ν</w>
γιατ ί</w>
είμ αι</w>
ει ρ
ή ρ
ώ ν
κ αθ
' '</w>
εν τ
ή μ
το ς</w>
άρ χ
εί α</w>
στ ον</w>
υ πο
χ αρ
γ ν
π άν
ότ αν</w>
σ ημ
ί λ
ύ τερ
έ φ
αυτ ή</w>
τ υ
μ εγ
ο πο
δ ύ
2 0
α με</w>
αι ρ
εί ο</w>
ου λ
ε θ
τ ώρα</w>
αρ χ
i n
σ αν</w>
ά μ
ού με</w>
ο ποι
ο σ
α ση</w>
τ ες</w>
ού ς</w>
τσ ι</w>
δ ρ
εί π
ά γ
ι ά</w>
χρ όν
πρ ό
υπ άρχ
ικ ής</w>
ο ί</w>
άξ ει</w>
στ α</w>
τ ί
ήσ ει</w>
οντ αι</w>
έ ξ
μπορ εί</w>
εγ ώ</w>
α το
ει δ
ί γ
δ ε</w>
ήσ εις</w>
ά ς</w>
μόν ο</w>
ο ικ
κά τι</w>
t e
ζ ω
π άρ
ο φ
αυ το
υ σ
μέ να</w>
ή γ
δ ημ
κ α</w>
ω τ
έ τσι</w>
π ι
a n
εί ν
π ιο</w>
ου ρ
a r
ισ μ
ν έ
θ ρ
τ ζ
απ λ
πο υ
ότη τα</w>
μ η</w>
π ί
έχ ω</w>
όλ α</w>
κ όσ
β ι
α χ
αστ ε</w>
ο κ
στ ρ
εντ άξει</w>
στι ς</w>
κ ύ
α ζ
δ ικ
μη ν</w>
έχ ουν</w>
ώ ρ
πρ ώ
ότ ε</w>
ξέρ ω</w>
γρ αφ
θ ε</w>
μα ζ
έ γ
θ έ
π ώς</w>
περ ί
κά ποι
ά φ
ερ α</w>
ν ομ
πολ λ
έ ψ
ικ ών</w>
γ ίν
ι ν</w>
θ ηκ
ω ση</w>
ρι ο</w>
ό πως</w>
έν ας</w>
μέ ρ
χ ν
ισ σ
δι αφ
ε β
ή κ
η μα</w>
β ο
πο τ
π ιστ
ά κ
χ ωρ
ω στ
ί κ
έ κ
ευ τ
ο π
ο β
αυτ ά</w>
περ ισσ
τ αι</w>
χρ ει
ου σ
περισσ ότερ
ό γ
π αν
ήσ ω</w>
θ ρω
καλ ά</w>
θέλ ω</w>
αι ν
μεγ άλ
δι ά</w>
εσ ύ</w>
η ν
μαζ ί</w>
ά β
ύ ρ
0 0</w>
πρ αγ
επ ίσ
δ υν
οπο ί
κόσ μ
π αί
φ ύ
επ ιστ
ά π
r e
συμ β
παρ ακ
μ ιλ
υπάρχ ει</w>
φ έρ
ή ματα</w>
τ ά</w>
σ ης</w>
μέ σα</w>
c o
ί ου</w>
αρ κ
εκ εί</w>
λ έ
h o
τ ύ
ε ρ</w>
μέν ο</w>
ολ ογ
πρ όσ
έ ντ
έχ εις</w>
β ασ
κ υ
καλ ύτερ
συ γ
μέν η</w>
θ υ
20 1
ίσ ω</w>
δ ουλ
π ο</w>
έρ α</w>
όμ εν
κά θε</w>
τ όσο</w>
ό μα</w>
έ β
αίν ει</w>
e r
ικ ρ
δύ ο</w>
πρ άγ
κ ιν
ίζ ω</w>
η σε</w>
ομ αι</w>
κάν ει</w>
μετ ά</w>
τ έλ
ά ν</w>
α ία</w>
μπορ ώ</w>
δ υ
θ εί</w>
αν τι
φ ίλ
ξ εν
ποτ έ</w>
κατ ά</w>
φ ρ
χρόν ια</w>
μ ή
ησ ιμ
κο ιν
γ εν
σύ ν
κάν εις</w>
μ ακ
ον ομ
λ ίγ
e n
τυ χ
δ ο
χρ ησιμ
σ κο
υ γ
ι ς</w>
έλ α</w>
φ ω
ευ χαρ
μ εν
υ λ
ασ ία</w>
1 9
τί πο
πραγ ματ
έν αν</w>
ίζ ει</w>
ξέρ εις</w>
άν θρω
μ ία</w>
μ ικρ
ακ όμα</w>
ει ά</w>
οι π
πολ ιτ
έχ ουμε</w>
λ ογ
ίδ α</w>
μ ον
ευχαρ ιστ
όμ ως</w>
ξ η</w>
ά θ
ατ ε</w>
ικ ός</w>
ομ άδ
σ πί
ασ φ
το ύ
μα τος</w>
ικ ού</w>
μ ερ
πρ ιν</w>
π τ
γ λ
ήθ εια</w>
γ υν
π όλ
πάν τα</w>
μ ό</w>
τίπο τα</w>
μ ή</w>
a l
ν ο
δ ω
ω π
άζ ει</w>
ά στ
r o
χρησιμ οποι
π ατ
μέ ρα</w>
κύ ρι
κατ αλ
είχ ε</w>
θ ερ
λ επ
ήσ ουν</w>
τ ότε</w>
ευ ρ
λ ι
κ αρ
κ ορ
κάν ω</w>
s t
τρ ό
απ ό
βρ ίσ
θ αν
αυτ ός</w>
παι διά</w>
έ το
λ οιπ
γν ώ
σπί τι</w>
γρ αμ
πο ύ</w>
είμ αστε</w>
ν ι
πο ς</w>
κ α
ζω ή</w>
ε ων</w>
μπορ ού
ί ς</w>
o r
αμ ερ
ώσ ει</w>
λοιπ όν</w>
εί δ
χ ειρ
έ μ
δι ο</w>
οδ οχ
ξεν οδοχ
ει σ
χρει άζ
κρ ατ
ξ αν
τ ω</w>
ώσ εις</w>
πλ ηρ
οντ ας</w>
αν θρ
φύ γ
ι δι
τ ια</w>
ι δ
β γ
ρι στ
βο ηθ
εθ ν
επίσ ης</w>
ανθρ ώ
φορ ά</w>
παρακ αλ
ορ φ
σ ήμ
τη ση</w>
m a
όλ οι</w>
απλ ά</w>
ήσ ουμε</w>
γυν αί
ντ αι</w>
αμ β
o n
άσ ει</w>
χ ώρ
εκ τ
έ καν
ε μπ
α ύ
αρ ι
είπ ε</w>
θηκ ε</w>
τη λ
α π</w>
χρ ι</w>
σήμ ερα</w>
εχ ν
κ ολ
ήθ ηκ
μπορ είς</w>
φ υσ
ησ ης</w>
ευχαριστ ώ</w>
κ ου
π αγ
άσ εις</w>
μέ χρι</w>
π ίσω</w>
ήθ ελ
πιστ εύ
πά με</w>
ω γ
ακ ού
ψ ε</w>
πρ ος</w>
ύ ν
ι ακ
μέν ος</w>
εσ αι</w>
αγ ορ
κ αιρ
φ ων
ψ η</w>
ίσ ως</w>
στ ους</w>
λ όγ
επ ικ
ά ει</w>
πο ια</w>
ω σε</w>
ικ αν
ατ ρ
κ ό
έσ ει</w>
π έ
κ ίν
μεγ αλ
ημ ερ
πο ι</w>
βρίσ κ
πάν ω</w>
κ ε</w>
προ στ
ξ εκ
ποι ος</w>
εκ είν
a t
φ ιλ
ουρ γ
στ αμ
i c
χ αν
γ εια</w>
επ ιλ
ειδ ή</w>
ή λ
εί ας</w>
χωρ ίς</w>
ίσ ει</w>
ε ν</w>
δημ ι
του ρ
μέ σ
λίγ ο</w>
άλλ ο</w>
κόσμ ο</w>
νέ α</w>
αγ ωγ
παρακαλ ώ</w>
φ αν
δι ά
π ήγ
αγ απ
ασ κ
επ ειδή</w>
π αλ
βλ έπ
μ ι
ίδ ια</w>
υ χ
όλ ο</w>
μέν ων</w>
a c
μπορ είτε</w>
αν ακ
άλ ι</w>
ε άν</w>
οικ ονομ
υπ ηρ
ο τ
ό δ
ι ών</w>
ή στε</w>
ιστ ορ
ω σ
σκο τ
αλ ήθεια</w>
έχ ετε</w>
α ϊ
οι χ
o n</w>
τελ ευτ
σημ αντ
π α</w>
α ερ
τ αξ
σ θ
γ ι</w>
l e
π αθ
θ ες</w>
δουλ ειά</w>
ρ ί
πο τε</w>
διαφ ορ
i t
ο φορ
π ω</w>
σ ωστ
φ τ
ετ ικά</w>
νομ ίζω</w>
ρι β
δημι ουργ
λ ει
χρ ον
χ άρ
τ ας</w>
ακ τ
εί στε</w>
απο τελ
μά θ
αί ρ
σχ έ
λ ες</w>
στι γ
κύρι ε</w>
α σε</w>
γνώ μη</w>
μέν ες</w>
εί ται</w>
ετ αιρ
υπάρχ ουν</w>
παι δ
σ μ
αφ έρ
κάν ουμε</w>
ά χ
ασφ αλ
αγ γ
μ υ
αν ο
μ όλ
πρ επ
αντ ί
μ αν
πράγ ματα</w>
ρ ο</w>
δι αδ
πολλ ά</w>
μέ λ
κά τω</w>
οχ ή</w>
ομάδ α</w>
ευ θ
σ ι
τ εχν
αμβ άν
ακ ριβ
α τη
ι ζ
ισ χ
επ ί
e s</w>
συν εχ
ή ξ
μά τια</w>
δι ακ
ύ χ
χρ ή
γν ωρ
a m
κ ει
παι χν
e r</w>
έξ ω</w>
ε να</w>
γ ου
κ εφ
μέρ ος</w>
αρ γ
πρ ω
ήσ ετε</w>
κ υρ
που ς</w>
1 0</w>
θυ μ
αρ μ
μπορ ούν</w>
ύ ς</w>
άνθρω ποι</w>
δ η</w>
τ έτο
i l
έ α</w>
ού τε</w>
κατ αστ
καλ ό</w>
έρ χ
φ αίν
κλ ηρ
αυτ ές</w>
μόλ ις</w>
μπορ ούμε</w>
δε υ
ν όμ
a s
δυν ατ
έσ εις</w>
ακ όμ
ολ ο</w>
κ αμ
αξ ι
δε δο
θ μ
μ είν
συ χ
αρκ ετ
μ αθ
οικ ογ
ορ γ
εκ ατο
ζ ητ
σ ίγ
καν είς</w>
ντ ας</w>
e l
ολ ου
πρεπ ε</w>
π ηγ
c h
γ κ</w>
π υρ
θε ση</w>
χρόν ο</w>
ασ ίας</w>
δ ίκ
όμ αστε</w>
αφ ορ
προσ παθ
έλ εγ
προσ ωπ
έγ ιν
επι τρ
κ ακ
σύ μ
αι τ
ώ στε</w>
μεγαλ ύτερ
φορ ές</w>
μ ελ
η ματ
γ αμ
θέλ εις</w>
ίδ ι</w>
ακόμ η</w>
έρ γ
ού λ
λεπ τά</w>
ί διο</w>
ε ζ
στ οιχ
ισμ ό</w>
μ ισ
επ αν
στιγ μή</w>
ίσ εις</w>
βρίσκ εται</w>
γίν ει</w>
συ γκ
ει λ
ήγ ορ
άλλ ον</w>
ή ν
περι μέν
πρώ τη</w>
ολ ή</w>
δ ω</w>
τι μ
ο ιν
ά κι</w>
κοιν ων
l o
φ οβ
κρ ά
κο ί
ικ οί</w>
θ εσ
π εδ
ει ας</w>
ί να</w>
γ ερ
ώσ ω</w>
δ ολ
μετ αξ
οδ ηγ
τουρ γ
r i
απο φ
λέ ει</w>
πληρ οφορ
π ετ
ά ση</w>
έρ θ
κυ β
ξ ε</w>
δ εί
ει ν
αλλ αγ
αν αγ
ηθ εί</w>
ίζ ουν</w>
ε το
γρ ήγορ
ικ ούς</w>
υπηρ εσ
μεταξ ύ</w>
π ν
ά ω</w>
στη μα</w>
πλ έ
σ ες</w>
2 0</w>
άστ αση</w>
λ ί
γυναί κα</w>
αυτ όν</w>
ίζ εις</w>
επ ισ
δ ίν
ότερ α</w>
υ ψ
το μ
ότη τας</w>
είπ α</w>
δ ηλ
τρό πο</w>
στρ ατ
λει τουργ
χ έρ
ού ρ
ήθηκ ε</w>
β άλ
μά των</w>
καλ ή</w>
παρ άδ
te l</w>
0 00</w>
δι εθν
τρ α</w>
μ μ
ήμ ουν</w>
ακριβ ώς</w>
στ αθ
κάποι ος</w>
έ πρεπε</w>
γρ άφ
π όσο</w>
θε ωρ
άλλ η</w>
είχ α</w>
πά ω</w>
ρι ά</w>
ή ποτε</w>
ξενοδοχ είο</w>
καλύτερ α</w>
ικ ότητα</w>
αν απ
φ άν
u n
ελ ίδα</w>
στη κε</w>
ύ λ
καθ ώς</w>
ν ες</w>
π ες</w>
α να</w>
20 0
κο ντ
μέν οι</w>
εν ός</w>
οικογ έν
αρ έσει</w>
a p
μπ αμ
οπο ία</w>
εί ες</w>
ερ ό</w>
άρ κ
μ αμ
φ όρ
ήθελ α</w>
ώ ντας</w>
έγιν ε</w>
πρό βλ
πραγματ ικά</w>
εκατο μμ
φω το
ί ο</w>
v α</w>
δι αβ
αί ο</w>
i s
αι σθ
b o
ίζ εται</w>
ελ λ
τ ρι
ότη τες</w>
ό ντ
περισσότερ ο</w>
πλέ ον</w>
π εθ
ολου θ
a l</w>
υ κ
ν τ</w>
ού νται</w>
οποί ο</w>
e s
ε ση</w>
επιστ ήμ
φαίν εται</w>
παιδ ί</w>
γ μα</w>
θέ ση</w>
τ ό</w>
έκαν ε</w>
ωρ αία</w>
έρ ας</w>
χρειάζ εται</w>
εν τρ
κ ομ
περί που</w>
προσ φέρ
ησ α</w>
εν νο
αν ά
ότερ ο</w>
η συχ
βι βλ
θέλ ει</w>
όλ ες</w>
μ ητ
ι σε</w>
επι χειρ
πολ ογ
β αθ
φυσ ικά</w>
κάν ουν</w>
πά θ
u r
ρ ο
λ άθ
επ όμεν
μεγάλ η</w>
σ ένα</w>
κά ποια</w>
ο μα</w>
απ άν
ελ ά
όλ η</w>
a n</w>
φ υλ
η φ
γίν εται</w>
σχ ολ
πά ει</w>
σ ει</w>
μη χαν
χ τ
στ ή
υ περ
ή δη</w>
σωστ ά</w>
ρ υ
διαφ έρ
άμ αι</w>
μ πρ
το μα</w>
n e
αϊ κ
ι ση</w>
u s
σημ αίνει</w>
συμβ αίνει</w>
ν ε
δυ ο</w>
δ ικό</w>
l e</w>
ό που</w>
προ ϊ
σ εις</w>
συμ φων
σκ έφ
καταλ αβ
πι θαν
μαμ ά</w>
περ ιλ
ώ θ
κατ άλ
ο πλ
κ έντ
1 0
σχ εδ
κ αν</w>
θ ήκ
αν άπ
ιστ οσ
δι αθ
κ ερ
μέρ ες</w>
αν αλ
π όρ
ει ες</w>
ά τα</w>
ε πο
ε ικ
ευ ν
έρ ν
σταμ ατ
ών ει</w>
κ ες</w>
ιλ ι
μ αρ
άρ ια</w>
εν ώ</w>
ην ω
ού μεν
κοί τα</w>
ελ π
το ν
μ οι
λ έν
πρόβλ ημα</w>
π ας</w>
κο ιτ
ό πλ
δικ αι
t h
ητ ές</w>
οιν ων
πόλ η</w>
εκ ρ
η πα</w>
l i
ησ αν</w>
ασ μ
ho tel</w>
τέλ ος</w>
α το</w>
αγ άπ
o k
γρήγορ α</w>
υ φ
το πο
δ οκ
επιστ ρ
ζ ή
ιμ ο</w>
ί ων</w>
φωτο γραφ
ω θ
ανθρώ πους</w>
εφ αρμ
γι ο</w>
αγγ ελ
αστ υν
κάποι ον</w>
ά με</w>
όλ ους</w>
δρ όμ
πρό κει
τη γ
ε στ
χ ώρα</w>
ού σε</w>
πράγ μα</w>
ε μά
προ βλ
ιστορ ία</w>
σχ ετικά</w>
επιλ ογ
γ υρ
δε λ
μακ ριά</w>
οδ ρ
ώ μα</w>
δύ ν
π άλι</w>
ανάπ τυ
γερ μαν
ευ ση</w>
γραμ μα</w>
άλλ α</w>
αρκετ ά</w>
συν εργ
τελευτ αία</w>
επικ οινων
τη σε</w>
θ ετ
συν έχ
ξ ει</w>
η μέρα</w>
λ υπ
l a
αυτο ύς</w>
εί λ
εν διαφέρ
όσ α</w>
5 0</w>
άρ ι</w>
θέλ ετε</w>
δύ σκ
β ί
ψ υχ
όν ομα</w>
έ τ
εκτ ός</w>
t i
σ οβ
δ έ
τρ ί
όμ ορφ
o υ</w>
εμ είς</w>
ά ψ
r a
ω ρι
καταλαβ αίν
έ δ
ω σης</w>
ισμ ός</w>
π ήρ
ω τερ
φ αντ
μ ο
3 0</w>
περισσότερ α</w>
άσ ω</w>
λέν ε</w>
πρόκει ται</w>
. 000</w>
έ ζ
ω μα</w>
ε αυτό</w>
άδ ες</w>
οσ ι
γρ άμ
έ ι
ε σε</w>
ουσ ι
μ ν
ολ ό
δι αχ
κορ ί
ή ν</w>
εύ ει</w>
λάθ ος</w>
ανθρώ π
ή ριο</w>
δι α
αιν ε</w>
ασ χ
μεγάλ ο</w>
ευ ρω
ασφ άλ
ίσ ουμε</w>
αν ησυχ
οργ αν
εδ ρ
ου ν
γ ύρ
είχ αν</w>
υ πολογ
π έρ
εί ου</w>
μπορού σε</w>
ξεκ ιν
ασ α</w>
ξενοδοχ εία</w>
β ολ
θε έ</w>
ρ ν
κοντ ά</w>
π ειρ
σοβ αρ
υψ ηλ
τεχν ολογ
μέν ου</w>
γ ον
τι ο</w>
ρω σ
α πολ
μ αι</w>
αστυν ομ
δε ύτερ
ε δι
d i
χ αμ
d o
χ ά
έκ ανα</w>
ώ ματα</w>
μ αλ
εν εργ
πρό γραμμα</w>
ασκ ευ
εμ φαν
στ όχ
φω να</w>
αμερ ικαν
ε μένα</w>
λ ύ
κέντ ρο</w>
δ ήλ
διαφορ ετ
ει ο</w>
β αρ
d e
ύρ ια</w>
σκ εφ
συ λ
εκ τρ
ο στ
αγ ρ
συγ γνώμη</w>
κ τ
πολλ ές</w>
ιστοσ ελίδα</w>
δ ια</w>
άρ α</w>
κάν ετε</w>
υπ ήρ
ν εκρ
κ άλ
αγ όρ
εύ θ
κ ρι
μ ουσ
κατ άσταση</w>
αστ εί</w>
υπ ν
δ ί
ιδ έα</w>
μέ ς</w>
αυτο ί</w>
εκατομμ ύρια</w>
τ ί</w>
σύμ φωνα</w>
εβ δ
γν ωστ
τ αχ
ο κρατ
π όδ
μητ έρα</w>
συ ντ
θηκ αν</w>
εσ α</w>
πιστεύ ω</w>
καθ αρ
εσ είς</w>
οπ ότε</w>
περί μεν
διαδ ικ
ώ π
άζ ουν</w>
ε λ</w>
τελ ει
αγ ων
ερ ε</w>
δελ φ
μ ωρ
ν ό
ευ καιρ
1 5</w>
μ αγ
κ αιν
εύ κολ
ισμ ού</w>
in g</w>
π ια</w>
απ ο</w>
εί ρ
ί στε</w>
β αση</w>
ημ η</w>
ηλ εκτρ
άν τρ
παρ αγωγ
ει γμα</w>
ζω ής</w>
i n</w>
επί πεδ
ε ψ
t o
μι ας</w>
τ ική</w>
πληροφορ ίες</w>
σχεδ όν</w>
δ ική</w>
οποί ηση</w>
βλέπ ω</w>
ει ναι</w>
σύ στημα</w>
άδ α</w>
ελ έγ
αγάπ η</w>
έψ ει</w>
θέ μα</w>
πάρ ει</w>
ί στ
φ ι
παράδ ειγμα</w>
πο ν
τ ές</w>
η το</w>
te r
χ λ
άλλ ες</w>
σχ εδι
λυπ άμαι</w>
π εις</w>
ι ρ
ητ ό</w>
ώ να</w>
ύ ψ
πολιτ ική</w>
εφ τά</w>
μ άλ
προσ πάθ
ασ ης</w>
ά χν
ασ θ
τρ εις</w>
παιχν ίδι</w>
te r</w>
χώρ ες</w>
μ πλ
ασ μό</w>
β ελ
ψ ηφ
κ απ
λι γ
ακ ή</w>
νι ώθ
αντ ικ
1 8
επιστ ημ
στη ρ
παί ρν
ερ ν
τρ ομ
κο π
ίζ ονται</w>
ατ α</w>
γ υ
γυναί κες</w>
v i
άν ει</w>
υ μα</w>
ιστ α</w>
άσ χ
ξ εχ
τρ αγ
εύθ υν
παρ αδ
λ ο</w>
χ ή</w>
π ά</w>
χ ριστ
ε στε</w>
συ χν
ανά γκ
τρ ελ
υπ έρ
καιρ ό</w>
αντι μετ
άνθρω πος</w>
i es</w>
χρή ση</w>
αυ ξ
κ ο</w>
έ στ
το ύ</w>
πο ύ
ού σα</w>
ί ως</w>
καταστ ρ
γ εγ
σχέ ση</w>
άρκ εια</w>
χ ορ
αν αφέρ
υπ ό
περι β
απο στ
δι ατ
ολ ο
ορ ισ
επισ κ
πο ρ
ύχ τα</w>
αναγ ν
ου σα</w>
πο σ
φίλ ε</w>
σκεφ τ
αλ ία</w>
δ ει</w>
λέ ω</w>
εσ ένα</w>
νέ ο</w>
λ ό
κυβ έρν
γιατ ρ
ω ματ
έντ ε</w>
άσ ουμε</w>
αφορ ά</w>
s o
αυτ ήν</w>
ερ φ
ηλ ικ
περίμεν ε</w>
ακ ολουθ
το π
ερ ευν
κ .</w>
ωστ όσο</w>
φ τι
μέσ ω</w>
o υ
ικ α</w>
μπαμ πά</w>
δ είχ
οχ ι</w>
εμπ ειρ
δ ία</w>
λ α</w>
βρ άδ
έ ως</w>
b e
co ok
πρώ το</w>
είπ ες</w>
ρ α
ω θεί</w>
ου ρα</w>
δύν αμ
σ φ
αστ έρ
παί ζ
γ κρ
σημαντ ικό</w>
πατ έρας</w>
σ ερ
δι άρκεια</w>
αφ ρ
αι ο</w>
πρ ωτ
λ εφτά</w>
ξ ης</w>
κα τηγ
συν έβ
ποι ο</w>
πόλ εμ
εύ γ
ατη ρ
αρ τ
οδ ο</w>
κ άρ
σ ειρ
δ είτε</w>
γεν ν
ρω τ
εκείν η</w>
αρι θμ
κ ι
ξαν ά</w>
ρι ση</w>
συν ήθ
μερ ικές</w>
ω λ
παγ κόσμ
γεγ ον
περι οχή</w>
δω μά
δω μάτια</w>
καταλ άβ
σίγ ουρ
ί δι
ετ ών</w>
απλ ώς</w>
ήσ εων</w>
ή ρα</w>
βρ ήκ
p o
ξέρ ει</w>
ευθ ύν
π ει</w>
δ ήποτε</w>
οδρ όμ
σίγ ουρα</w>
ογ ρ
εμ φάν
εκ ρι
δι αμ
ευ τυχ
1 2</w>
ικ ο</w>
δεδο μένων</w>
m ar
δε ξ
ί θ
δεί ξ
έ δω
ώσ ουν</w>
εργ ασίας</w>
αυτο κίν
π έντε</w>
ρι ν
προ ηγ
μ άρ
ό να</w>
ώρ ες</w>
λ έξ
έτο ιμ
βο ήθεια</w>
άλλ ηλ
τ αιν
ίζ ουμε</w>
ευρω π
σ π
στη ρι
αδ ερφ
τηλ εφ
επίσ ημη</w>
δ ες</w>
δ ωρ
ερ ωτ
ευρ ώπ
κατηγ ορ
έρχ εται</w>
ίδ ες</w>
s i
μ προστ
π έρα</w>
ε μπορ
ο τι</w>
οφ ή</w>
α ια</w>
α δελφ
cook ies</w>
βγ άλ
οκ τ
αλ ηθ
μ άλλον</w>
έκαν ες</w>
εξ αιρ
έρ ευ
ν ερό</w>
χ ιλι
ε κ</w>
κυ ρι
θ έσεις</w>
τερ α</w>
τ ό
άσ ουν</w>
εφαρμ ογ
σ κά
κλ ει
ρ ομ
μέσ ως</w>
ν οι
μετ ρ
είδ α</w>
το ποι
λ ε
αν άλ
σκ ευ
μη ν
υπολογ ιστ
γ αλλ
άσ αι</w>
δείχ ν
α μέσως</w>
σ που
καλύτερ ο</w>
άζ εται</w>
λ έγ
ώσ ουμε</w>
ίσ ουν</w>
βράδ υ</w>
σπου δ
πόδ ια</w>
χ η</w>
στρατ ι
συνέχ εια</w>
χ ο</w>
λ άβ
τηλ ε
a g
ητ ής</w>
υπέρ οχ
κερ δ
α ρ</w>
θ άν
πρώ τα</w>
πατ έρα</w>
άχ ιστ
γλ ώσ
s e
ρ ώ
αύ ριο</w>
ολ όγ
κάποι ο</w>
κατ ασκευ
μέλ λ
ομ η
ή ρω
ντ αν
ελ ευ
π ότε</w>
0 0
πλ ήρ
λ αμβάν
ξέρ ετε</w>
κά θ
δημ οσι
συγκ εκρι
αερ οδρόμ
ρι σ
π ίν
εμπ ιστ
όν ι</w>
πτ ωση</w>
μάλ ιστα</w>
χ αίρ
ελευ θερ
καν ένα</w>
σκο π
μπροστ ά</w>
m o
όν τα</w>
τ έσ
πήγ αινε</w>
l in
άν ω</w>
ανάπτυ ξη</w>
άλλ ους</w>
ελ εύ
κυρ ία</w>
ν η</w>
ισχ ύ
1 2
πηγ αίν
α μέν
μόν ος</w>
δρόμ ο</w>
χαρ ά</w>
αν αζ
στή ρι
β άρ
κρ εβ
ημ ατο
γύρ ω</w>
ά τ
όλ ου</w>
εκ παί
χλ μ</w>
παν τρ
που λ
μ ίλ
δηλ αδ
ήρ ια</w>
τη μα</w>
ευκαιρ ία</w>
θερ απ
τη σ
λ αν
πάρ ω</w>
απ '
μή νες</w>
φ οι
χέρ ια</w>
εμφάν ιση</w>
α μ</w>
μωρ ό</w>
στοιχ εία</w>
δι δ
ή μα</w>
πρό εδρ
β εβ
μ ορφ
κόσμ ος</w>
όμ ουν</w>
ιν ή</w>
βλέπ εις</w>
ρυ θμ
σ ι</w>
ευρωπ αϊκ
ι ος</w>
γλ υκ
ελεύ θερ
του λ
ομη χαν
αν θρω
ομάδ ες</w>
αλλ ι
αφ ού</w>
άσ ετε</w>
ιδι ωτ
φ λ
τρ ία</w>
αεροδρόμ ιο</w>
μ ει
δ ούμε</w>
ά των</w>
χ α</w>
δε ύ
δηλαδ ή</w>
τι μή</w>
ο σύν
κ ίνα</w>
προσφέρ ει</w>
λόγ ο</w>
αγ γλ
ισχ υρ
η ρω
μή πως</w>
επιλογ ή</w>
θε ός</w>
περισσότερ ες</w>
όμεν ο</w>
τού ν</w>
an d
κ ατο
πλ ευρ
έ ας</w>
ζω νταν
μ εσ
τηλ έφ
σ '
νομ ίζεις</w>
ά τε</w>
προ γράμ
ιν ό</w>
μπορού σα</w>
δ ώ
συ σκευ
υπήρ χ
λ η
άν οι
κ όρ
έ ι</w>
αν ατο
ιστ εί</w>
συγ χωρ
πολ ι
κο ιμ
εί ων</w>
σύν δε
βι ομηχαν
δωμά τιο</w>
πολλ οί</w>
β έβ
χρ ήματα</w>
έ θ
επ αγγελ
πρόσ βαση</w>
έψ εις</w>
χάρ τη</w>
ε ψε</w>
επι τυχ
τέτο ιο</w>
κ όλ
σειρ ά</w>
β άση</w>
πλ ά
οπ ή</w>
σκ ότ
πραγματ ικότητα</w>
χ αλ
μέλλ ον</w>
ήρ θε</w>
συχν ά</w>
καρ διά</w>
a d
αρχ ή</w>
μικρ ό</w>
υπ όλ
συ μπ
εταιρ εία</w>
αργ ότερα</w>
m e
άμ εσα</w>
1 1
δύναμ η</w>
έ τες</w>
άζ εις</w>
η μένη</w>
g o
επαγγελ ματ
πολιτ είες</w>
ντ ρ
ά τι</w>
πέ θαν
w e
καν ον
θ ούν</w>
σταμ άτα</w>
πλ ο
χέρ ι</w>
ανατο λ
τη τα</w>
καμ ία</w>
l a</w>
άξ εις</w>
ι ού</w>
αστ αν</w>
τελ ικά</w>
αρ ν
χρει αζ
περιλ αμβάν
τελ εί
u s</w>
έψ ω</w>
ητ ή</w>
ερ ώ
ντ ε
λ ευ
αυτο ύ</w>
βρ ίου</w>
εμά ς</w>
νόμ ιζ
i r
έρευ να</w>
βασ ιλ
δρ ομ
οικογέν εια</w>
ησ ες</w>
θ ελ
δημ οκρατ
περί πτωση</w>
s h
απ αιτ
σ ε
ιδι αί
ψ άχν
εργ ασία</w>
υρ γ
δεδο μένα</w>
u t
ά τομα</w>
κυβέρν ηση</w>
τ o</w>
δι πλ
an d</w>
πρόσ φ
π ό
ί στηκε</w>
το ρ
υ τ
ατη γ
κορί τσι</w>
s u
ν οσ
λογ αρι
κ αφ
ι μά
τσ ια</w>
θυ μά
ών ουν</w>
συ στ
τρό πος</w>
γ ελ
α κ</w>
i a</w>
μυ στ
η ν</w>
1 00</w>
συνέβ η</w>
μ οντ
καλύτερ η</w>
ί ξ
τέτο ια</w>
συ γνώμη</w>
γρ άψ
μπ άν
ώ θηκε</w>
πρ ότ
δ εις</w>
τύ πος</w>
1 5
κ ω
α στηρι
αί σθ
δύσκ ολο</w>
άκ ια</w>
εύ ω</w>
ηνω μένες</w>
στρ ατηγ
το μέ
κ έρ
βασ ίλ
19 9
αρ ιστ
δοκ ιμ
ά τες</w>
έ που
επίπεδ ο</w>
έ τος</w>
… …
λ α
ακ τη
2 5</w>
αντιμετ ωπ
παρ ά</w>
ν ύχτα</w>
ού ν
υπο υργ
κατ αφέρ
το λ
αλλαγ ή</w>
ανθρώπ ιν
διαχ εί
θέλ ουν</w>
εν ημερ
πολι τι
ι κ</w>
παλ ι
μή ν
δωρ εάν</w>
γ αλ
δε v</w>
κ όμ
προστ ατ
δ ό
σ κληρ
από ψε</w>
όν ες</w>
έφ υγ
ζ ώ
πρω ί</w>
ίν ο</w>
ων ο</w>
έρθ ει</w>
απ αρ
ασχ ολ
σχολ είο</w>
μυ αλ
θ ύ
ολό κληρ
πί στ
ί μ
c e</w>
μικρ ή</w>
δολ άρια</w>
δ έχ
1 1</w>
φοι τη
4 0</w>
φ αγ
ή φ
κρ ί
αί σ
κ εντρ
ό β
αγορ ά</w>
περ ν
ασθ εν
τ ως</w>
κατάλ αβ
πάρ ε</w>
ν ικ
ήξ ερα</w>
έ γκ
σχ ετ
ι ες</w>
ελέγ χ
μέ γ
αστέρ ων</w>
έξ ι</w>
γ ύ
μον αδ
δρ αστηρι
γαμ ώ
άζ ω</w>
ευρώπ η</w>
τ ικό</w>
δημ όσ
πολ υ
παν επιστήμ
τυ ο</w>
κυβ ερν
re e
s p
at i
συμ μετ
ίσ ματα</w>
γ η</w>
υπηρεσ ίες</w>
γραφ είο</w>
υ ση</w>
λόγ ω</w>
δίκ ιο</w>
αν ά</w>
δολ οφ
χαμ ηλ
πανεπιστήμ ιο</w>
άν ε</w>
πρόσ ω
π ελά
ητ ικό</w>
ιακ ό</w>
χτ υπ
φ εύγ
μα ύρ
βιβλ ίο</w>
κ υν
αίν ουν</w>
ίζ ετε</w>
επισκ έπ
μέ τρα</w>
τη κε</w>
ό π
υπο στήρι
en t
ήσ αμε</w>
έ τα</w>
ματ ά</w>
ι ατρ
i l</w>
εν έργ
βο ήθ
απ αντ
αν ήκ
εν ο</w>
μ ός</w>
ρ ού
η μένο</w>
σημ ασία</w>
ι ερ
μόν η</w>
καταλαβαίν ω</w>
υπ ό</w>
th e</w>
χ ος</w>
πυρ οβ
γαμώ το</w>
π o
ασ αν</w>
ότερ η</w>
αισθ άν
ν α
μερ ικά</w>
ζ υγ
στ ερ
άλλ οι</w>
απο ρ
βοηθ ήσει</w>
στ είλ
ών ες</w>
q u
ου δ
ον τα</w>
καλ ός</w>
ω σα</w>
τέλ εσ
προϊ όντα</w>
κρ ύ
τ αυτ
σ ον</w>
ψ έ
ο ξ
δε κ
αρ ρ
ετ αν
κο νται</w>
εξ ωτερ
προ καλ
λεπ τό</w>
έ τη</w>
συμβ ουλ
μεγαλύτερ η</w>
επι πλέον</w>
τουλ άχιστ
πρόεδρ ος</w>
τρ απ
άσ κ
κακ ό</w>
εξ ηγ
είχ αμε</w>
χαρ ακτη
αποφ ασ
σ αμε</w>
άν δρ
ή ματος</w>
άρ θρ
σ ώμα</w>
ευ σης</w>
καθ όλου</w>
αν εξ
δήλ ωσε</w>
τύ π
d e</w>
απο καλ
αξ ε</w>
οχ ές</w>
ε στι
μοι ρ
έσ ουν</w>
τουλάχιστ ον</w>
ίσ ετε</w>
1 6
χ ι
π όν
εμπειρ ία</w>
ασφάλ εια</w>
τηλε όρ
νοσ οκ
αγαπ ώ</w>
εκ παι
πήρ ε</w>
ήθελ ε</w>
επ εν
ερ ά</w>
από φ
ο θ
σχέ διο</w>
θέλ ουμε</w>
o k</w>
πέθαν ε</w>
πόρ τα</w>
διά ολο</w>
γεγον ός</w>
ό ριο</w>
πάρ α</w>
προβλ ήματα</w>
α v</w>
συμβ εί</w>
επ εξ
αστυνομ ία</w>
ελπ ίζω</w>
φρ οντ
ή κα</w>
χ είρ
β ουλ
έφ τ
ών εται</w>
ο ί
φύ λ
νόμιζ α</w>
τ ερ</w>
κό κ
παρ αμ
αστ ικό</w>
ή των</w>
συνήθ ως</w>
χρειάζ ομαι</w>
β ρι
αν αμ
χ άν
ά ι
ύ πν
υ μ
ει ακ
στ αση</w>
ή τη</w>
ικ η</w>
άν τα</w>
βρ εταν
κυ κλ
δε κα
w in
αυτοκίν ητο</w>
1 8</w>
σ ου
ά στε</w>
επόμεν η</w>
μά τι</w>
δι αλ
ι ας</w>
σύν τομα</w>
α v
ιμ η</w>
θ μό</w>
πλ αν
γον είς</w>
1 3
1 7
τομέ α</w>
επ τ
ού σαν</w>
- -</w>
εξ ετ
αφ ήν
ολογ ία</w>
κ ώ
τομ ο</w>
λόγ ος</w>
παρ άγ
άξ ω</w>
εσ άς</w>
διά φορ
απο τέλεσ
ορ ίστε</w>
ν ο</w>
φωτογραφ ίες</w>
εύ ουν</w>
επιλ έξ
ο ίκ
ού δ
β αλ
κόσ μου</w>
το ι</w>
τ μή
όρ κ
αφ ή</w>
δυν άμ
. co
l u
γρ α
ώσ ετε</w>
τέλ εια</w>
ουσ ία</w>
τι ά</w>
δο ση</w>
κεφ άλι</w>
κ ουρ
ύ π
παρ ά
απο ύ
ρι ζ
παιχν ίδια</w>
χρ ήσ
τη κα</w>
κεφ άλ
όπλ ο</w>
ξέρ ουμε</w>
του ν</w>
γραφ ή</w>
σημ είο</w>
στ ες</w>
η τα</w>
αν ό
ξεκ ίν
στ ος</w>
όλ ων</w>
χρ ηματο
στ ά
παί ξ
άζ ονται</w>
φίλ ος</w>
θ άλ
βρ ω</w>
βέβ αια</w>
κάν ε</w>
τη σα</w>
αποτέλεσ μα</w>
τηλέφ ωνο</w>
άλλ ων</w>
w s</w>
μιλ ήσω</w>
επι τ
κόσ μια</w>
ασ ες</w>
1 4
a b
t o</w>
τη σης</w>
άλλ ος</w>
ερ χ
1 .
συμφων ία</w>
παγ κόσμια</w>
ντε ο</w>
ήθηκ αν</w>
δι ών</w>
αποτελ εσ
1 6</w>
απ ειλ
άλ α</w>
τ ή</w>
προ τ
ηθ ούν</w>
ων ία</w>
δικ αί
βρ ούμε</w>
ετο ιμ
εξ αφ
ω ριστ
n o
τσ ι
α τος</w>
a v
ι ο
έβ αλ
η δ
εσ ωτερ
ε βρ
f o
δι ευ
αμερ ικής</w>
χρ υσ
μυαλ ό</w>
e l</w>
εβδ ομάδα</w>
έφ ερε</w>
εύ σ
δικ αστ
λευ κ
κόρ η</w>
ιτ αλ
θε ού</w>
αδ ύν
συμ περιλ
προηγ ούμεν
όν ομ
αν ε</w>
οσύν η</w>
τηλεόρ αση</w>
θ έσ
σοβαρ ά</w>
τρ οφ
εμ βρίου</w>
πειρ άζει</w>
ρ ό
ω μένη</w>
σκ ύλ
ηλ ίθ
πάν ε</w>
ι δρ
μ ού</w>
i g
πραγ μα
ar t
βί ντεο</w>
o f</w>
υπο στηρ
συ ρ
αλλι ώς</w>
χώρ ο</w>
ελά τε</w>
β α</w>
δί πλ
πλ ηθ
παρ έχει</w>
είχ ες</w>
σκ έψ
γλώσ σα</w>
ισ ρα
e n</w>
γ ε
δι αμερ
κορ υφ
ήρ θ
αποτελ εί</w>
τρ άπ
απ όλ
ελ α</w>
ημ άτων</w>
σύ γ
εννο ώ</w>
ασ μα</w>
πλ ού
εξ οπλ
κλ ησ
ασφαλ είας</w>
ερ ες</w>
απαρ αί
τράπ εζ
άξ η</w>
εργ αλ
i p
ζ ει</w>
πόλεμ ο</w>
ιστ ές</w>
1 4</w>
απάν τηση</w>
1 3</w>
ηλεκτρ ον
έρ γεια</w>
πού με</w>
όμ ενα</w>
στη καν</w>
δευ τ
ε ε</w>
συν ολ
επ ηρ
a k
σημ ει
βελ τι
ν ησ
πιστεύ εις</w>
τη ρ
in ter
α δι
έ γρα
δύσκ ολ
ητ ική</w>
απ ίστ
ξ επ
γραμ ματ
ισ παν
εύθυν ση</w>
ε τ</w>
μέ τρ
κλ ειδ
φίλ ους</w>
άν ο</w>
πήγ ε</w>
κρεβ άτι</w>
επι χείρ
κο σμ
μέ ση</w>
ατο ύ
σύνδε ση</w>
μέν ους</w>
ολ ού
κ ού
σ κατά</w>
ολο κλ
φ άρ
ελλ ην
ήσ ου</w>
χρ ε
.co m</w>
τελευτ αί
κλ είσ
ιακ ή</w>
έλ αβ
αγωγ ή</w>
διαδικ ασία</w>
άν τ
φύγ ε</w>
φίλ οι</w>
συ ζητ
λ ή
δεκα ετ
δυν ο</w>
β ολή</w>
γ άμ
1 7</w>
π ισ
δε χ
έρχ ονται</w>
καν έναν</w>
οδ ος</w>
μεγαλύτερ ο</w>
πολ εμ
ω μ
θήκ η</w>
d a
6 0</w>
ωρ αίο</w>
δ άσ
έργ ο</w>
αν άμεσα</w>
πά ς</w>
φύγ ω</w>
. ...</w>
η μέρες</w>
βρ είτε</w>
2 4</w>
β όρ
αγόρ ι</w>
λ ά
ρωσ ία</w>
άντρ ες</w>
παρακ ολουθ
χ ει
αμβ ανο
πλευρ ά</w>
δ ει
ώρ ο</w>
καμ ιά</w>
πόλ ης</w>
μπ ά
αλλαγ ές</w>
λογ ισμ
μ περ
κρ ίν
ακ α</w>
νοσοκ ομ
θεσ ία</w>
αποτελεσ ματ
ά τομο</w>
πρ ακτ
ογρ αφ
ν ωρ
σύ ζυγ
αύ ξ
δι άβ
ι αν
ει ών</w>
εκ κλησ
' αυτό</w>
αριθμ ός</w>
ανάγκ η</w>
ταιν ία</w>
ηλικ ία</w>
ώ λ
φαγ ητό</w>
άντρ ας</w>
θ αλ
παρ ουσι
α λ</w>
έδω σε</w>
κεφ αλ
γι ος</w>
βλ έπου
υπήρχ ε</w>
τ αρ
εννο είς</w>
μιλ άς</w>
αναπ τύ
αί μα</w>
υπηρεσ ία</w>
κατ άλληλ
εχ θρ
διαθ έσ
δ ώσει</w>
ρισ μα</w>
δι ορ
λιγ ότερο</w>
δι ασκ
σίγουρ ος</w>
ψέ ματα</w>
αρχ ές</w>
ου ά
αποστ ολή</w>
χάρ η</w>
i s</w>
αυτ ών</w>
συν αντ
περί εργ
μέλ η</w>
ητ ά</w>
αμ άξ
μα χ
μ ενα</w>
επιχειρ ηματ
ανθρώπ ων</w>
γ έλ
ικ ώς</w>
βρίσ κονται</w>
υ όρκ
πρόσω πο</w>
ομ ιλ
υσ ης</w>
αν αρ
β ερ
θάλ ασ
όντ ων</w>
συμ περι
ισ α</w>
ποι ον</w>
επισκέπ τες</w>
ισμ ούς</w>
σ ηκ
ά σε</w>
μαθ ητές</w>
αν ι
ησ έ</w>
u l
ρι σε</w>
ασ ίες</w>
μακ ρ
τμή μα</w>
μ αν</w>
άδ ι</w>
m ic
w w
περιβ άλλον</w>
νιώθ ω</w>
επόμεν ο</w>
εύ μα</w>
δ όσ
201 8</w>
o s</w>
δι ατηρ
άν ι</w>
σκ ην
άσ αμε</w>
εκπαί δευ
εύ εις</w>
κατ ά
περισσότερ οι</w>
ά ται</w>
αζ ε</w>
ισ μένη</w>
π όσ
αυ γ
προ χωρ
έ κλ
δώ σε</w>
ηκ ε</w>
χαρακτη ριστ
μ εθ
προσ οχή</w>
ά στηκε</w>
ω σαν</w>
θυμ άσαι</w>
γερμαν ία</w>
χαίρ ομαι</w>
βεβ αι
στρατι ωτ
τηλεφ ων
g e</w>
φύγ ουμε</w>
φ ως</w>
βοηθ ήσω</w>
τσ α</w>
τ έχ
σ εβ
μή να</w>
ξ α</w>
ητ ικά</w>
αυτο κιν
201 9</w>
πετ ρ
επηρ ε
e t
όμορφ η</w>
βρ ήκα</w>
ν ης</w>
ι ησ
γ ο
ισ μα</w>
εξαφ αν
χρ έ
αυτ ής</w>
v e</w>
a r</w>
v er
ψ εις</w>
ολού θ
περι ορ
- δεν</w>
συμπεριλ αμβανο
αλλ άξει</w>
b er
καφ έ</w>
εύκολ ο</w>
ma il</w>
πλ ησ
κορί τσια</w>
β εν
καν ένας</w>
ν ίκ
αστ ική</w>
μ ετο
ι ω
ελλ άδα</w>
μήν υμα</w>
εθ εί</w>
πτ ώσεις</w>
φ ερ
φωτογραφ ία</w>
εν τ</w>
εκπαίδευ ση</w>
θε ό</w>
ι άς</w>
ευ χ
αν οιχ
έ ρ</w>
κάποι ες</w>
αθ λ
λέ με</w>
εργ αστ
η μένος</w>
ασμ ού</w>
κυν ηγ
λ ουλ
in g
οντ αν</w>
λέξ η</w>
θυμά μαι</w>
ισ μένο</w>
ι μα</w>
άρθρ ο</w>
πάρ εις</w>
βάρ ος</w>
κ ε
f i
όσ χ
εγ κλ
γυν α
ευ γ
ελ θ
αστ ικά</w>
κατ άφ
δ ώσω</w>
2 .
ρί ξ
win do
εν τελ
σ ωματ
εκείν ο</w>
μ ύ
η μέ
τ ών</w>
αμάξ ι</w>
διαφορ ετικά</w>
τ ικά</w>
ούλ ιο</w>
μ ορ
αποτελ έσ
ι ου</w>
αργ ά</w>
δέ κα</w>
επικ ίν
σ σ
ενέργ ειας</w>
ανακ αλ
ακού σ
τζ έ
συγκ εντρ
ξ έχ
θ είτε</w>
αυ στρ
τρ ώ
όνομ ά</w>
πραγμα τοποι
υγ εία</w>
χιλι άδες</w>
ών ονται</w>
μουσ ική</w>
λ ος</w>
χρειαζ όμαστε</w>
καιν ούρ
εντελ ώς</w>
ειδ ικά</w>
ψ ει</w>
ιδιαί τερα</w>
π ωλ
ψ ηλ
ο να</w>
ακού γ
βαθ μ
ταξ ίδι</w>
δυ στ
λί στα</w>
πολ ί
δίπλ α</w>
πυροβ ολ
v o
windo ws</w>
ι απ
δ ρ</w>
πλ ατ
τ α
χ θες</w>
υπό θεση</w>
π είτε</w>
ε μα</w>
m i
επο χή</w>
καθ ημερ
δ οσ
επ έ
δίν ει</w>
σ ελ
αίσ ιο</w>
επι θυμ
εκ πλ
αναγν ωρ
201 6</w>
μέν ης</w>
ιστ ική</w>
απο κτ
άλ ογ
19 8
δι σ
χρόν ος</w>
s c
επιχειρ ήσεις</w>
μπαμ πάς</w>
φύγ ει</w>
φυλ ακή</w>
ατ ό</w>
θέ ματα</w>
αυ ρ
αν αστ
εκ τελ
όρ ο</w>
αξ ίζει</w>
μ εί
γ εμά
αμερ ική</w>
άξ τε</w>
τεχνολογ ία</w>
εν θ
συν άν
201 7</w>
προ φαν
ιν γκ</w>
σ ελίδα</w>
εταιρ είες</w>
w i
αρι θμό</w>
it y</w>
ο κ</w>
δ ικά</w>
τ ω
όπλ α</w>
λό για</w>
έξ υπν
m e</w>
υπολογιστ ή</w>
σ αλ
μορφ ή</w>
o g
εν έργεια</w>
εκ λογ
ον γκ</w>
όμεν η</w>
παρ ατ
e x
τελευτ αίο</w>
πο ί
f ac
τουρ κ
μοι άζει</w>
ρ αση</w>
εικ όνα</w>
έψ ουμε</w>
μετ ακ
εργ αζ
- τι</w>
λ ι</w>
αν τ</w>
μείν ει</w>
αναζ ή
φ θ
αδ ημ
έλεγ χο</w>
αί ου</w>
θ αυ
απ ευθ
j o
τ υρ
ι γκ
ω τι
παν επιστημ
π ήρα</w>
παρ ατηρ
οντ ες</w>
υγ είας</w>
εύ εται</w>
δικαί ωμα</w>
μπο υ
2 1</w>
εσ ης</w>
κυρ ίως</w>
ω μένο</w>
p ar
σύγ χρον
άλ ια</w>
τέσ σερ
σκέφ τ
επ ί</w>
δευ τερ
re s
ον τος</w>
καθ ηγ
ά κρ
αποτελέσ ματα</w>
' εχ
εν οχ
είδ ος</w>
ερώ τηση</w>
αξι ο
εμ πρ
παρ αμέν
οργ άν
ίδι ος</w>
νέ ες</w>
κύρι ος</w>
μέν ως</w>
κου ν
r an
ο ση</w>
ιν ο</w>
αντ αγων
λ εγ
διά στημα</w>
τερ άστ
αποφ άσ
h a
φ αρ
τ υπ
π απ
ι ές</w>
ερ ή</w>
διαχεί ριση</w>
πρω το
ιν ά</w>
διαμερ ίσματα</w>
2 4
τ ετ
μετ ατρ
κά που</w>
έσ ω</w>
ά ι</w>
ειλ ικ
αν ώ
ξ έν
γυ μν
χαρ ακτ
ιν τ</w>
παρ ελθ
θηκ α</w>
ορ κ
φ ος</w>
χ ωρι
f f
τ όν
εφαρμογ ή</w>
μ αλλ
ή συχ
v αι</w>
ο ίν
δυστ υχ
ωσ ες</w>
δεύτερ η</w>
κόκ κιν
ρ ε</w>
κλει στ
σ αρ
π ακ
έλ ο</w>
νε αρ
βασ ικά</w>
ποι ός</w>
φοιτη τές</w>
έφυγ ε</w>
απαραί τη
δυν αμ
άζ ουμε</w>
ξαν α
πληθ υσ
βρ ει</w>
s k
απόφ αση</w>
χρή στες</w>
ειλικ ριν
οικονομ ική</w>
ενδιαφέρ ον</w>
άξ ουμε</w>
σωστ ό</w>
αστ είτε</w>
n e</w>
ανησυχ είς</w>
τ αλ
αλλ ηλ
19 7
ταχ ύ
περι εχ
f t</w>
ισ αν</w>
αξ ία</w>
δείχν ει</w>
επιστημ ον
δ ομ
ημέ ρω
ανάπτυ ξης</w>
μαλ ακ
ουσ ες</w>
συν ηθ
h e
σι γ
β άλλ
μέρ η</w>
1 9</w>
φέρ ει</w>
κατο ικ
2 2</w>
προστ ασία</w>
είδ ες</w>
λ ον
ίζ οντας</w>
πολ ύ
άν τρα</w>
σημαντ ική</w>
εγ κ
τρ έχει</w>
έπ ι
ίδ ας</w>
κατάλ υμα</w>
πεθ άν
αδ ήποτε</w>
οικονομ ία</w>
λίγ α</w>
ασμ ός</w>
θ η</w>
άνδρ ες</w>
κομ μάτι</w>
γραμ μή</w>
απολ ύ
δ αν
έκαν αν</w>
εγ καταστ
a d</w>
201 5</w>
ών η</w>
έκ δοση</w>
περ άσει</w>
από σταση</w>
ιστ ικό</w>
κ αρκ
m p
θρ ησ
ζ η
ό φ
οδ ήγ
3 .
ποσ οστ
ή λ</w>
ξ αφ
πολλ ούς</w>
bo ok</w>
απόλ υ
περ ιστ
οποι αδήποτε</w>
ημ ο</w>
διαθ έτ
αύξ ηση</w>
b i
δυνατ ότητα</w>
καπ ν
δεύτερ ο</w>
2 5
λ ου
σ ώ
πν ευ
ακ αδημ
γ ει
ασ μένο</w>
άνθρω πο</w>
κλ ί
πλά κα</w>
κοινων ία</w>
δημιουργ ία</w>
απίστ ευ
αυ λ
ap p
ά να</w>
e c
υ β
έδ ει
r u
w or
ικ ες</w>
οδ ικώς</w>
μ άρκ
βρ εις</w>
φρ αν
εύκολ α</w>
απάν ω</w>
τέσσερ ις</w>
κίν ηση</w>
σ ού
a u
ζ ουν</w>
g u
ορ τ
μ '
s t</w>
δικ ηγ
ψ ης</w>
εν αντί
κλ ι
αρχ ηγ
απ αι
θήκ ες</w>
ασ μένη</w>
ίν η</w>
μέγ εθ
πεθ άνει</w>
f or
επικοινων ία</w>
αι ρι
έ θηκε</w>
λειτουργ εί</w>
η ξη</w>
προγράμ ματα</w>
αντ ί</w>
απευθ είας</w>
β ήμα</w>
ισχύ ει</w>
υποστήρι ξη</w>
ακ ούς</w>
ν ού
ανεξ άρ
ρυθμ ίσεις</w>
θεραπ εία</w>
σ ερα</w>
ο τι
ησ ή</w>
προ ειδ
κ αλλ
τού με</w>
στόχ ος</w>
μελ έτη</w>
τί τ
παί κ
δ α</w>
δε ικ
υπο θέ
ρ όλο</w>
ic e</w>
σ επτ
κά ποτε</w>
όσ ον</w>
χρ η
κατ ανο
όμεν ες</w>
τηλεφ ών
θρησ κ
ψ ήφ
παλ αι
εμπρ ός</w>
τι ν
πρώ τος</w>
ήκ αμε</w>
λον δίν
εκ τιμ
co n
χ ρι
παρ απάνω</w>
εν ημέρω
όν η</w>
προσωπ ικά</w>
ου γ
υόρκ η</w>
είπ αν</w>
αναγ κ
έκ τ
οχ ής</w>
μ oυ</w>
lin e</w>
κυκλ οφορ
έψ ουν</w>
όν ειρ
ι π
δυνάμ εις</w>
' οχι</w>
μη σε</w>
e d
σχ έσεις</w>
συν δε
συν δυ
παρ άξ
εν ά</w>
ειρ ήν
κάν αμε</w>
ύ ματα</w>
γαλλ ία</w>
έφ αλ
μεγάλ ες</w>
αι ώνα</w>
π τυχ
λ αμ
εξ ελ
τρ αβ
πλησ ι
χ τύπ
κάποι οι</w>
νοσοκομ είο</w>
ιτ αλία</w>
δι άσ
e u
πάρ ουμε</w>
συλ λογ
ξ αν</w>
γέλ ια</w>
τοπο θεσία</w>
υ γι
εναντί ον</w>
περι οχές</w>
ανακ οίν
τύ χη</w>
ύ γ
παραγωγ ή</w>
8 0</w>
προ τιμ
διαθέτ ει</w>
υπ όσχ
ή του</w>
άδ εια</w>
επί θεση</w>
δι οικ
δε σμ
φ αιν
παγκόσμ ιο</w>
επιτυχ ία</w>
ν ύ
λεπ το
οικογέν ειά</w>
μέγεθ ος</w>
θυ ντ
μ άν
ούρ γ
3 0
δεξ ι
τέσ σερα</w>
κλ εί
εχ ε</w>
αί ος</w>
εύ σει</w>
θάν ατο</w>
περιλαμβάν ει</w>
είμ ενο</w>
έ λ</w>
δικαι ώματα</w>
s te
κοιν ό</w>
κει μένου</w>
έλεγ α</w>
ar d</w>
κοπ έλα</w>
ού δια</w>
χώρ ας</w>
κατ αναλ
συ στή
εν τολ
βλέπ ετε</w>
αρχ ική</w>
παλ ιά</w>
σκέφ τηκα</w>
τ ής</w>
σταθ μό</w>
πίστ ευ
ά τη</w>
αερ οπλ
τί θ
μπορού σαν</w>
μισ ό</w>
ότη τά</w>
ανο ίξ
2 3</w>
στη ς</w>
ήρ θες</w>
σχ όλ
καλ οκ
ανήκ ει</w>
προσ αρμ
φάρ μακ
ερωτ ήσεις</w>
κω δικ
όρ ος</w>
προγράμ ματος</w>
m an
ξέρ ουν</w>
πλ ηρω
ακού σει</w>
s a
αρχ είο</w>
ογρ άφ
φ όβ
πο ιν
πελά τες</w>
fac e
δ ίδ
θάλασ σα</w>
επεν δύ
ευρ ώ</w>
φ υ
αυ το</w>
λ ατρ
συν δέ
έλεγ ε</w>
υπ εύθυν
μετ αφορ
ισ μένος</w>
όντ ως</w>
ε ξ</w>
άν τια</w>
ρι σης</w>
επιτρ οπή</w>
σ τ</w>
νεκρ ός</w>
λ ού
ικ ότητας</w>
κατ εβ
υπόλ οιπ
καταλαβαίν εις</w>
αν ό</w>
συγ γραφ
ητ αν</w>
φ η</w>
παν τού</w>
εκείν ος</w>
σκ υλ
περι γράφ
κ τί
άρ εσε</w>
παρ αλ
στρατι ώ
ζ α</w>
ζή τηση</w>
u b
ματ ι</w>
άρχ ισε</w>
συγ κρ
τρ έχ
εγ γ
χ ημ
χ α
κατάλαβ α</w>
ασ ι
ί ν</w>
παρελθ όν</w>
ω μένος</w>
χρησιμοποι εί</w>
τι μές</w>
σημ εί
πρ άσ
g e
συν ειδ
β δ
π .
- ναι</w>
έρθ εις</w>
όρ ια</w>
πλ αίσιο</w>
αφ εντ
o ς</w>
προ γραμματ
ήρ θα</w>
αφ ήστε</w>
αστ είο</w>
ισ μένα</w>
ν αρκ
ήθελ ες</w>
έτοιμ ος</w>
g i
δι ότι</w>
μιλ ήσουμε</w>
φοβ άμαι</w>
ί ντ
πλ οκ
εξ αρτ
αστ ρ
ομάδ ας</w>
αντικ ατ
δια μέ
άμ εση</w>
ευτ εί</w>
εξαιρ ετ
κρί ση</w>
ξαφ ν
ρ ύ
p er
ολου θεί</w>
έρ ευν
en t</w>
συν αισθ
πολ έ
κάν τε</w>
καθ ορ
φ ών
στόχ ο</w>
οπο ίες</w>
φύγ εις</w>
υπόλ οι
βρ αβ
λειτουργ ία</w>
αστ ές</w>
ά πο
παραγωγ ής</w>
σημ ερ
ον ή</w>
ατ ών</w>
face book</w>
παρακαλ ούμε</w>
πόλεμ ος</w>
μι ση</w>
ρι σα</w>
είν ει</w>
δ ούλ
ι ού
τομ αι</w>
πο ύς</w>
ανθρω π
τύ πο</w>
συστή ματος</w>
ο κρ
σ ιδ
ομ ορφ
δ έντ
χ αιρ
λε ω
χρι στι
9 0</w>
χρ ονα</w>
μετ αφέρ
o v</w>
οτι δήποτε</w>
β ά
go og
ατ ικό</w>
σ εν
δι αγρ
φέρ ν
ξεκίν ησε</w>
αι γ
διαφορ ά</w>
p i
λ είπ
προσωπ ικό</w>
an t
έστ ειλ
έμ ειν
5 00</w>
αφ ήσω</w>
λύ ση</w>
ισ σα</w>
αρχ εία</w>
ρού χα</w>
ήθηκ α</w>
χρειάζ ονται</w>
τρ αυ
ον ες</w>
ό ματα</w>
σκοπ ό</w>
φων ή</w>
είδ ους</w>
2 8</w>
άστ ασης</w>
φίλ ο</w>
γο ητ
ατ η</w>
ν αυτ
πρώ ην</w>
πρόσ ωπ
μπ ι</w>
επ ίδ
ούδ ι</w>
αναρ ωτι
t ι</w>
επιτρ έπει</w>
ομ ην
όν ια</w>
ώσ εων</w>
επ αφή</w>
οποί ος</w>
m m
n a</w>
διευ θυντ
μ άσ
βασίλ ειο</w>
όρ ους</w>
μείν ε</w>
ερ αν</w>
άκ ουσα</w>
ημερ ομην
c a
σκοτ ώσει</w>
β όλ
αρ ντ</w>
k e
σε ξ</w>
δολοφ ον
ζώ α</w>
εστι ατ
ισ ης</w>
επιλογ ές</w>
άσχ ημα</w>
λ ιμ
7 0</w>
φ αιρ
κου ζ
η ψη</w>
οπο ρ
αθ εί</w>
πλαν ήτη</w>
σ ω
υποθέ τω</w>
ξ υπν
διαδ ίκ
πυρ ην
συστ ήματα</w>
καρ ι
εβδ ομάδες</w>
c h</w>
σημαντ ικά</w>
αν θ
ρ ου
ότερ ες</w>
4 5</w>
ώ θηκαν</w>
φω τιά</w>
ελευθερ ία</w>
έκ θεση</w>
ακού ω</w>
β άθ
συνεργ ασία</w>
πρότ υπ
μη ση</w>
διεθν ή</w>
π όσα</w>
ν ερ
ει ές</w>
οικογ εν
άβ ο</w>
α μα</w>
αμ π
βασ ιλι
3 5</w>
γίν ονται</w>
μέλ ος</w>
δι εύθυνση</w>
υρ ο</w>
αμ π</w>
διαδίκ τυο</w>
ήμ ασταν</w>
ών ω</w>
χ αζ
τζ ον</w>
στ έλ
τ ικές</w>
goog le</w>
δι ώ
χριστι αν
ψ εύ
y o
καν όνες</w>
δι άλ
βλ επ
μιλ άμε</w>
θερ μ
β ριο</w>
κύ κλ
δυνατ όν</w>
ντ ε</w>
περιμέν ει</w>
κά πως</w>
αρ έσουν</w>
ανακ άλ
νοι άζει</w>
ι λ</w>
mic ro
ών εις</w>
' ρ
ιτ ς</w>
όν ο</w>
αν αμέν
συγχωρ είτε</w>
πολέ μου</w>
κίν δυνο</w>
δυ σκ
' χ
τραπ εζ
ενοχ λ
κρά τος</w>
εκπαί δε
δέχ εται</w>
ηθ ώ</w>
ρ αντ
κλι ματ
αντί ο</w>
ίν ι</w>
άζ ομαι</w>
γι αγ
ακούγ εται</w>
έρθ ω</w>
περιμέν ετε</w>
βιβλ ία</w>
καν αδ
p ro
έν ωση</w>
…… ……
χρ ώμα</w>
ά ριο</w>
τ άξη</w>
ού ντ
α -
εύ ονται</w>
2 7</w>
κό στος</w>
σ ήκ
οδρ ομ
δι ατρ
κλ ηση</w>
κρ αν
διεθν ές</w>
ατ ική</w>
ύ σ
τραυ ματ
πολιτι σμ
κατ αδ
δίκ τυο</w>
α πρ
ήκ ε</w>
σ ά
απ ασχολ
εκκλησ ία</w>
υπέροχ ο</w>
πολ η</w>
παρ αβ
αμ φι
προ ϋ
ενεργ οποι
e mail</w>
τρ έν
2 6</w>
ή της</w>
δείξ ω</w>
πλ ε
γ ιν
α έρα</w>
ν ε</w>
χρησιμοποι ούν</w>
περί οδο</w>
καλύτερ ος</w>
αναγν ώ
έν ν
t on</w>
επιστρ έφ
πλ ήρω
φ ί
ου αλ
201 3</w>
b r
ιακ ά</w>
t a
ό ρι
ιστ ής</w>
201 4</w>
4 .
ίσ αμε</w>
όμ π
ισρα ήλ</w>
p or
υπηρεσ ιών</w>
we b</w>
ορ ρ
προφαν ώς</w>
επιχείρ ηση</w>
έ το</w>
e ί
ταυτ ό
σ εξ
μπ αρ</w>
μά χη</w>
αιτ ίας</w>
γι 'αυτό</w>
απ έχει</w>
20 0</w>
όμορφ ο</w>
un i
μ ου
ήμ η</w>
σκέφ τομαι</w>
αρ π
ζ εστ
επ άνω</w>
τερ ο</w>
1 ,
βόρ εια</w>
ne t</w>
β αν
ati on
ma n</w>
αν α
χρει αστεί</w>
γνωρ ίζω</w>
μπ αλ
εφ ημερ
νό ημα</w>
αγ ε</w>
πο ικ
φ ωτ
επιχειρ ήσεων</w>
ναρκ ωτ
προσπαθ ώ</w>
συν θήκες</w>
πο μπ
μαθ ήματα</w>
πορ το
ά του</w>
μιλ άω</w>
ά ζ</w>
μπάν ιο</w>
μπρ άβο</w>
κύρι οι</w>
κλειδ ί</w>
ασφάλ ειας</w>
a y</w>
παρ όμ
καλλ ιτ
ω μάτων</w>
μ όσ
so ft</w>
πρόσ εχε</w>
σ ο
αίσθ ηση</w>
o ρ
ίσ ι</w>
πηγ ή</w>
έλ ι
περ πατ
εί vαι</w>
κρ ασ
καθ υ
αν τι</w>
μ ής</w>
πνευ ματ
παράδ οση</w>
δυσκ ολ
on line</w>
έγρα ψε</w>
αν δρ
εντ υπ
m on
φέρ ω</w>
φιλ ο
καλ ημέρα</w>
δ υσ
γλυκ ιά</w>
5 0
δείξ εις</w>
άκ ου</w>
καλ ώς</w>
σ αφ
υπ άρ
ταχ υ
c ar
πά τε</w>
κ ί
μα το
ν ότ
κοί ταξ
ε ως</w>
ντ έι
αι σ
γιατρ ός</w>
παι διών</w>
αγ ώνα</w>
άξ ουν</w>
p h
κύ ριο</w>
κ ου</w>
βασ ης</w>
ιλ ία</w>
διακ οπ
μετ αβ
επ τά</w>
ασθ έν
οτ ήτων</w>
λογισμ ικό</w>
n t</w>
υ ψη</w>
πέρ ασε</w>
ά κα</w>
τζ ακ</w>
πλ ηγ
al l
κατ άρ
ί αση</w>
v il
κατ αγρ
τρ ια</w>
ξαφν ικά</w>
a t</w>
μ ερα</w>
λογαρι ασμό</w>
διασκ εδ
p la
ελέγ ξ
τι σ
6 5</w>
ψυχ ή</w>
παγ κοσμ
αφεντ ικό</w>
κρ ίσ
χρόν ου</w>
εύ σεις</w>
λέ τε</w>
te l
b u
p e
υπο μον
ο ια</w>
πραγματ ική</w>
δημοκρατ ία</w>
τέλ ους</w>
άσ σ
χριστ έ</w>
μά χ
ιμ ες</w>
ότη μα</w>
ώσ αμε</w>
διαφορετ ικές</w>
ορισ μένες</w>
κιν έζ
αστ ούν</w>
άσ εων</w>
μιλ άει</w>
προ ετοιμ
o r</w>
ιστ οχ
εξ υπηρ
α τ</w>
πετρ ελ
η μένα</w>
ει ο
δι αρκ
am e</w>
micro soft</w>
τ έρ
περιμέν ω</w>
μέσ ο</w>
ω χ
σ αμ
μηχαν ή</w>
μείν ω</w>
τ όσα</w>
πόλ εις</w>
ό τα</w>
τρί τη</w>
γίν ω</w>
γ ά
χαρ ούμεν
πρ άκ
ών ας</w>
φύ ση</w>
όλ επ
πολιτ ικής</w>
αγγλ ικά</w>
περι οδ
μπορού σες</w>
κρύ β
εύ ρ
μέν ει</w>
δ έσ
χρειάζ εσαι</w>
ξ εφ
νέ ας</w>
μεγάλ ος</w>
μεγάλ α</w>
βλέπου με</w>
άνοι ξε</w>
βιομηχαν ία</w>
o ύ
δι οίκ
αν εβ
δευτερ όλεπ
γίν ουν</w>
λονδίν ο</w>
μαλλ ιά</w>
ειδ ικ
ταυτό χρονα</w>
φιλο ξεν
παιχν ιδι
τη v</w>
πράγ ματι</w>
βρι σκ
τρ έξ
μάθ ει</w>
ζ ευγ
2 9</w>
αρ ία</w>
ει π
ω να</w>
ψ α</w>
βι ετ
σ oυ</w>
ωθ ούν</w>
απ αγορ
πραγματ ικό</w>
μ εξ
s on</w>
βεβ αί
οφ είλ
εί δε</w>
δε σ
μ ολ
έρευν ας</w>
ap art
201 2</w>
β ία</w>
εκπαίδε υσης</w>
ευ μα</w>
παρ άθ
δυστυχ ώς</w>
δεξ ιά</w>
ό ζ
a s</w>
τελει ώσει</w>
ών ουμε</w>
σεξ ουαλ
έ μπ
ποσοστ ό</w>
συντ αγ
ζ ημ
ή φαν
ο -
φύγ ετε</w>
γ έρ
τη σαν</w>
εξ αίρ
πήγ α</w>
π ελ
ε ς
έπ ει
τοπο ί
ευ γεν
άφ ησε</w>
ετο ιμά
ή ση</w>
ητ ών</w>
πέ μπ
πρόσφ ατα</w>
καλ ωσ
άμ ι</w>
υπο χρε
νότ ια</w>
μάθ ω</w>
ανάγκ ες</w>
h i
άσ ης</w>
σταματ ήσει</w>
ανακαλ ύψ
ά γκ
ί τ
κοιτ άξτε</w>
προϊ όντων</w>
μικρ ά</w>
τύ χ
ομ οσ
ν ά</w>
προσπάθ εια</w>
κο στ
καιρ ός</w>
δυνατ ή</w>
ξ εχν
ακ ου
αερ οπορ
πληροφορ ιών</w>
γραφ ο</w>
απορ ρ
οφ ιλ
χαρακτηριστ ικά</w>
εν ήλ
αρ ίου</w>
χρήσ ης</w>
εντυπ ωσ
η τη</w>
βασιλι άς</w>
μ υρ
τραπ έζ
άν τε</w>
ή χ
τράπεζ α</w>
ατ ικά</w>
εξ αιτίας</w>
ομοσ πον
περι πτώσεις</w>
ετ ικ
κώ δικ
γίν εις</w>
συνειδ η
n i
σκότ ωσε</w>
ποτ ό</w>
ξεχ ωριστ
μπ άρ
m b
παρ ίσι</w>
δι εξ
έν αντι</w>
ικαν ότητα</w>
αγορ άς</w>
k o
παίρν ει</w>
as t</w>
ί γκ
t e</w>
s er
πατ ρ
σκοτ ώσω</w>
σύ μπ
ήξ ερε</w>
γ ειά</w>
ά ρι
παρ α
επέ στρ
εν τοπ
ηθ είς</w>
ευρωπαϊκ ή</w>
όδ ου</w>
άσ ματα</w>
παίζ ει</w>
τίθ εται</w>
τραγ ούδι</w>
σχ ολή</w>
ητ ικές</w>
εγ καταλ
ρ ια</w>
τ αμ
κατ ε</w>
μά γ
ά μ</w>
τρ οπο
ί κι</w>
201 0</w>
έλαβ ε</w>
t s</w>
c i
ποι οι</w>
διαχ ει
ξ ερ
δουλ εύει</w>
φυσ ι
θ ώ</w>
δημ οσ
έ πο
πλήρ ως</w>
ότ ες</w>
ίσ κο</w>
αρ αβ
περι ήγ
ονομ άζεται</w>
επίπεδ α</w>
ολόκληρ η</w>
ν ευρ
ίζ ομαι</w>
εξ ής</w>
βλ έπει</w>
λεω φορ
συνέχ ισε</w>
p l
έ σκ
app le</w>
πιστ ωτ
γν ω
γ ης</w>
επεξ εργασία</w>
δε χτ
πάρ τε</w>
κέρ δι
υ μπ
o ι</w>
ολοκλ ηρω
εξ ε</w>
δυνατ ό</w>
βρήκ ες</w>
ραντ εβ
σ οφ
βάλ ω</w>
έτοιμ οι</w>
f i</w>
g r
προσ εκτ
λέξ εις</w>
μακ ρο
εφ αλ
διαμέ ρισμα</w>
φ ελ
δ ώρο</w>
νέ ος</w>
κάλ εσε</w>
a i
σκ ου
κεφάλ αιο</w>
απλ ό</w>
συνεχ ώς</w>
ερευν ητές</w>
έ μησε</w>
οποί ησης</w>
μπορού σαμε</w>
εκ ατό</w>
καλ ην
: 00</w>
αγ κ
2 3
πλήρ η</w>
λίγ ες</w>
κιν δύν
καθ ένας</w>
απο θηκ
επισ κεφ
αφρ ική</w>
es t</w>
γνωρ ίζουμε</w>
αγ απού
η μέρ
έ της</w>
ασ μένος</w>
χειρ οκρ
μυστ ικό</w>
έλ λ
καλ ι
έ ες</w>
όσ ουν</w>
τελεί ωσε</w>
διαφορετ ικό</w>
ει ρα</w>
s e</w>
d s</w>
ούλ α</w>
μ ουν
βαθ ιά</w>
φορ τ
πτ ει</w>
προ κλ
εξ έλι
εκ πομπ
θετ α</w>
έλ θ
ηθ είτε</w>
λέγ εται</w>
στη κα</w>
πάρ τι</w>
άρ ρω
st ree
μ αντ
πάρ ετε</w>
όν τος</w>
μισ θ
ιστ ικά</w>
εύ χ
ητ ήρια</w>
έ δρ
σταμ ά
χ άσει</w>
ευ ξη</w>
οτ αν</w>
μά ς</w>
ανο ίγ
δάσ καλ
λίγ η</w>
παραδ οσ
επι τέλους</w>
b re
κρ ατού
υπερ βολ
διαθ έ
αφ ήσεις</w>
ή κατε</w>
g ree
αν αβ
μελ λ
κορ ι
εξ ασφαλ
ελπ ίδα</w>
βαθ μό</w>
π ηδ
συμβ ούλιο</w>
20 20</w>
ραντεβ ού</w>
λαν δία</w>
ι β
έργ α</w>
201 1</w>
θ α
η τος</w>
ου κραν
συσκευ ή</w>
εξαιρ ετικά</w>
έ τρ
αίρ ι</w>
αριστ ερά</w>
δ είπ
αρχ ικά</w>
νομ ο
- θα</w>
φ έτος</w>
ολο κληρ
ι οι</w>
δι αστ
σ α
ικ άν
t h</w>
ηρ έμησε</w>
ρ ε
άλλ ου</w>
μάθ ημα</w>
στ όμα</w>
αν έβ
ό γκ
μπ ατ
δ έρ
επιστήμ ονες</w>
επαν αλ
δικ τύ
αλλ α</w>
stree t</w>
άζ οντας</w>
er s</w>
άπο ψη</w>
αν ατ
us e</w>
αιτ έρ
οφ όρ
επικοινων ήστε</w>
μεί ωση</w>
ταχύ τητα</w>
στέλ ν
κοιν ότητα</w>
εικ ον
καρ δι
πλο ίο</w>
εγκ έφαλ
μάθ ετε</w>
λεπτο μέρ
ά κ</w>
λάβ ει</w>
κ ας</w>
βάλ ει</w>
αξ η</w>
θε σε</w>
έκ πλ
ελέγχ ου</w>
τυχ ερ
πιστεύ ει</w>
τεχνολογ ίας</w>
ί τερα</w>
νιώθ εις</w>
δεικ νύ
χά ρι
σ άρ
προστ ασίας</w>
β υ
ειρ ην
συμ μετο
ήσ ατε</w>
καλην ύχτα</w>
a m</w>
το ί
λείπ ει</w>
έρχ ομαι</w>
αίν ω</w>
it e</w>
t w
αρχ ίσει</w>
τύ που</w>
ολόκληρ ο</w>
υν ση</w>
βελ τί
πετ ύχ
μικρ ός</w>
ίμ ων</w>
διαχεί ρισης</w>
βρήκ ε</w>
παράθ υρο</w>
ιδρ ύ
φυσι ολογ
συν έπ
τραγ ουδ
σταθ ερ
3 1</w>
φορ τηγ
αί θ
πλε ον
τσ άρ
φτ άσει</w>
υπήρχ αν</w>
το τε</w>
ολ α</w>
επαν άσταση</w>
φτ αί
σχέ δια</w>
εθν ική</w>
τρομ οκρατ
πορ εία</w>
στ ου</w>
n ation
χρον ών</w>
παρ άν
εταιρ είας</w>
ικαν οποι
πιστεύ ουν</w>
γνώ ση</w>
συ στη
ήρ ες</w>
ιστ ό
τυ λ
μιλ ήσει</w>
μπ α</w>
τραπέζ ι</w>
2 7
νησ ί</w>
δι αν
αναλ άβ
όνειρ ο</w>
g h
π αντ
σύν ολο</w>
ς -
κ ον
πάν τως</w>
μετ αλλ
άδ ια</w>
τ αιρι
σίγουρ η</w>
ημερομην ία</w>
ετ ία</w>
εθν ικό</w>
αξι ολογ
τ εσ
προϊ όν</w>
σ αβ
κιν εζ
ιδ έες</w>
νωρ ίτερα</w>
παραμέν ει</w>
μάθ εις</w>
θέ α</w>
ευθύν η</w>
χρον ιά</w>
ιστ ούν</w>
oυ με</w>
πολί τες</w>
γε ω
διαχει ριστ
ισμ οί</w>
επο μένως</w>
ματ ιά</w>
τ έτ
σωστ ή</w>
θ έρ
χρησιμοποι είται</w>
προ ορ
προ κειμένου</w>
εκ φρ
ακ ολουθεί</w>
ψηλ ά</w>
έλ λει
ί ρ
έψ τε</w>
άσ ιο</w>
ηρ εμ
ταχυ δρομ
άζ ετε</w>
ετ σι</w>
ογ α</w>
κά τ
αστ ώ</w>
νέ ων</w>
φτι άχν
μπ όρ
φ αι
κτί ριο</w>
ε v
δ ορ
αγ ία</w>
' ναι</w>
τρι αντ
μαθ ηματ
ήρ ηση</w>
φοβ άσαι</w>
γάμ ο</w>
ή να</w>
ηνω μένο</w>
παρ ασκευ
ό πι
κ έ
ν ύχ
επικ εφαλ
κ ή
είδ η</w>
δεί ξει</w>
παρακ ολούθ
αναζή τηση</w>
όν ας</w>
τη θεί</w>
περιμέν ουμε</w>
δείχν ουν</w>
κ εν
ύπν ο</w>
τ όσ
καλοκ αίρι</w>
ζ ώνη</w>
αξ α</w>
συμπεριλαμβανο μένων</w>
δολοφ όν
ati on</w>
ειρήν η</w>
εύ ουμε</w>
ιν δία</w>
δύσκολ η</w>
ma s
κάρ τα</w>
επιτρ έπ
ον όμ
εύ τηκε</w>
υ γρ
ϊ κ
τρί το</w>
κοινων ική</w>
εκπαι δευτ
λουλ ούδια</w>
ηκ α</w>
ύν ει</w>
εψ α</w>
oυ ς</w>
ον ειρ
φίλ η</w>
ιστορ ίες</w>
συνάν τηση</w>
αγορ ές</w>
ρί β
θ ούμε</w>
ανάλ υση</w>
at e</w>
θαν άτου</w>
αγ μα</w>
αί ες</w>
διορ θ
μα θα</w>
αίν εις</w>
es s</w>
μ ά</w>
b lo
άγ γελ
κατ απλ
αδ υν
m ent
o ff
στ εν
δημ οφιλ
τ αν</w>
τομ είς</w>
π είρ
τη σες</w>
τεράστ ια</w>
κουζ ίνα</w>
μπο ύ
κά v
π απού
πήρ ες</w>
ώ πι
μελλ οντ
nation al</w>
σκέψ η</w>
19 6
φ ισ
4 0
μείν εις</w>
εν οικ
αυξ άν
απολ αύ
μοντ έλο</w>
άσ α</w>
β έλ
ισπαν ία</w>
γιαγ ιά</w>
e -
ανεξάρ τη
προσπάθ ησε</w>
εξ ήγ
φτ ωχ
ορ θ
μπά τσ
αδερφ ή</w>
te s</w>
ρι σμ
καταναλ ωτ
2 8
αστ ής</w>
τίπο τε</w>
ηνω μένων</w>
απο μακρ
ιν γκ
έμ βριο</w>
ρο ή</w>
δημοσι ογράφ
ho ne</w>
συγ χαρ
παρ αλία</w>
ού σες</w>
κρά τη</w>
ζή τησε</w>
εικ όνες</w>
σκέφτ εσαι</w>
ίδ ρυ
o p
τ ικής</w>
' e
π ειν
ασ ή</w>
αντι δρ
περιβ άλλ
δ ίας</w>
εφαρμογ ές</w>
έ βλεπ
που θ
πί εση</w>
τ ά
ιρ άν</w>
δι ού</w>
ιστ άν</w>
κ τον
ιαπ ωνία</w>
δορ υ
200 8</w>
πρω ινό</w>
τί ου</w>
έγιν αν</w>
i d</w>
ευ ε</w>
ατο μ
πλατ φόρ
δραστηρι ότητες</w>
γ εί
πουθ ενά</w>
ευ σε</w>
ευτ ική</w>
c k
επιστήμ η</w>
έδ αφ
διεθν είς</w>
πρό θεσ
αστ ούμε</w>
ιστοσ ελ
οικονομ ικά</w>
αντ απο
3 2</w>
αναπ τυ
άφ υλ
l d</w>
επεν δυ
αρχ ία</w>
έπ εσε</w>
κατ ανάλ
σκοτ ειν
περίεργ ο</w>
ζή τημα</w>
ζ ω</w>
d a</w>
κ ος</w>
δήλ ωση</w>
αν έφερε</w>
φυλ ακ
έφ τι
στοιχ είο</w>
ακαδημ αϊκ
πο ντ
αγ νο
c o</w>
προ βολή</w>
ευχαριστ ούμε</w>
γνωστ ό</w>
θηκ ες</w>
ίν ου</w>
υ ψε</w>
ποι ότητα</w>
co r
εργ οστ
επι βεβαι
έμ αθ
κύ προς</w>
μέ θ
σκην ή</w>
νωρ ίς</w>
δικαστ ήριο</w>
αμ αρτ
ότερ ος</w>
ταιν ίες</w>
ρ όμ
κόμ μα</w>
καταπλ ηκ
δι απ
διεθν ούς</w>
μ ες</w>
απο τυχ
κόκκιν ο</w>
η χ
άρ θ
τριαντ άφυλ
δείπ νο</w>
ατο ρ
αποστ ολ
ά της</w>
βασιλ ιά</w>
ρ ά
γραφ α</w>
καιν ο
εργαλ εία</w>
w .
αφ ερ
γ κά
ή λι
φισ β
απ έ
ρ ώσ
γνωρ ίζει</w>
υψηλ ής</w>
π ε
σ ί
ρα δι
ώ μ
κίν ας</w>
τιμ ωρ
προσπαθ εί</w>
t r
αναφέρ ει</w>
ο δεύ
έπει τα</w>
� �
δεκαετ ία</w>
ποι ότητας</w>
λή ψη</w>
σιγ ά</w>
αστ είς</w>
πί στη</w>
γνωστ οποίηση</w>
χρησιμοποι ούμε</w>
πν εύμα</w>
σ οκ
εστιατ όριο</w>
άθ αρ
οδ ήποτε</w>
έν τα</w>
2 6
ισ μένοι</w>
τέτ αρ
ου αρίου</w>
τ ει</w>
άκρ η</w>
οι β
κατ έλ
άσ μα</w>
γ αν
διαθέ τουν</w>
γ κλ
εμπιστ οσύνη</w>
παρακ ά
διαφ ημ
e v
γυνα ικών</w>
ύ παρ
περιεχ όμενο</w>
μπ έ
αζ ί</w>
τρελ ός</w>
γυρ ίσω</w>
αεροπλ άνο</w>
φ ασ
εν άντια</w>
ανακ οιν
οργάν ωση</w>
κατ έ
άλλ αξε</w>
δίκ αιο</w>
ήρθ ατε</w>
υ ντ
ac k</w>
συνολ ικά</w>
γν ωση</w>
ού μ
ρ έ
π άλ
ό λ</w>
προσ φορά</w>
εξωτερ ικό</w>
δόσ εις</w>
an g
οποι οδήποτε</w>
ω κε
οσι αλ
μακ άρι</w>
απ όγ
έ μαθα</w>
υπο ψ
ε μπο
εδ ω</w>
εντ ός</w>
απολύ τως</w>
εξαρτ άται</w>
υπουργ ός</w>
έδαφ ος</w>
ου άσ
ζω ές</w>
ελ ο</w>
ορ α</w>
αλλ ακτ
h ar
μά ικ
al l</w>
ευκαιρ ίες</w>
υ ρα</w>
ν τους</w>
ν το
έβαλ ε</w>
όμ ετ
ύχ ημα</w>
χρησιμοποι ώντας</w>
ξαν απ
a y
διάφορ α</w>
αποτελ ούν</w>
απο θήκ
e m
τρ ο</w>
υπέροχ α</w>
τ όμ
όρ θ
έσ π
επο χ
γεγον ότα</w>
αί γ
συμπερι φορά</w>
ουλ ίου</w>
αφ αιρ
περι έχει</w>
επικ εντρ
εθ είτε</w>
άλογ ο</w>
υλ ικό</w>
γνωρ ίζετε</w>
σχόλ ια</w>
ww w.
μερ ικοί</w>
β ουν
δημόσ ια</w>
εκλογ ές</w>
απαιτ εί</w>
τέλ ειο</w>
λ εί
μ ού
σ ήμα</w>
περί μενα</w>
χρησιμ οποί
σ πάν
π α
δ ρα</w>
u m</w>
χαλ αρ
κατ ανό
πιθαν ό</w>
σκά σε</w>
οπ ής</w>
άξ ετε</w>
εσ αν</w>
μά τ
πολιτι στ
έμειν ε</w>
θ αύ
επικεφαλ ής</w>
χρησιμοποι ήσετε</w>
χειροκρ ότημα</w>
ho use</w>
αγ ι
θερ μο
ήξ ερες</w>
πολιτ ικές</w>
αί οι</w>
ί τα</w>
η ξε</w>
εν ισχύ
τουρκ ία</w>
ω φελ
αναγ κά
περιβ αλλ
άκ ου
b ar
τελεί ως</w>
όλ ος</w>
ατ ζ
συ ζήτηση</w>
αρχ ίζει</w>
λ ερ</w>
ακ ό</w>
αρκετ ό</w>
λ άν
s ho
π ερ</w>
τσ άι</w>
ξεπ ερ
έτοιμ η</w>
ύ φ
κατ έβ
ελ β
υ δρ
ακ ας</w>
το ύρ
π ύρ
υπάρ ξει</w>
συσκευ ές</w>
ιησ ούς</w>
σ οσιαλ
οσύν ης</w>
εκπλ ηκ
in e</w>
πόδ ι</w>
σι ωπ
οκτ ώ</w>
παγκοσμ ίως</w>
θ είς</w>
δικ ός</w>
έπ αι
το ις</w>
γ εύ
όμπ ι</w>
δ ήμ
πά γ
βρι ος</w>
σταθ μός</w>
200 9</w>
θάν ατος</w>
χρή στη</w>
μοναδ ικό</w>
παρακά τω</w>
φορ άς</w>
τ ταρ
ποί ηση</w>
επι φάν
συν αν
απλ ή</w>
αν αθ
ισ ορρ
δι ασ
έσ ουμε</w>
ακ ρ
σταματ ήστε</w>
μετακ ιν
φραν κ</w>
θεωρ ία</w>
inter net</w>
σ εων</w>
χαιρ ετ
γεν ικά</w>
ώ ματος</w>
αι να</w>
μαύρ ο</w>
σ ατε</w>
σ β
ζ ε</w>
τσι γ
θ υρ
επαν αστ
19 4
αι ότητα</w>
αί ων</w>
κολ λ
ω στε</w>
ωθ είτε</w>
παίκ τες</w>
αλλ άζει</w>
ιδι οκτ
ac h</w>
απαντ ήσεις</w>
ά v
3 3</w>
πετρελ αίου</w>
δρ άση</w>
αιτέρ ω</w>
τέχ νη</w>
ιακ ές</w>
αμ οιβ
περ ήφαν
0 .000</w>
παρ άλληλ
κεντρ ική</w>
περ αιτέρω</w>
μηχαν ισμό</w>
θ εί
ν του
επικίν δυν
απ' το</w>
όμορφ α</w>
κορι τσ
συγκεκρι μένα</w>
κρ υ
ολόγ ηση</w>
ασφαλ ής</w>
αγαπ άς</w>
ει ακή</w>
κυρ ίες</w>
, 5</w>
π ει
ιδι οκ
ελ ι
αν αφορ
βοηθ ήσεις</w>
ό ρ</w>
β όμ
είμ ενα</w>
αρχ ιτ
αντι προσωπ
π ιλ
ά μα</w>
ac e</w>
πανεπιστημ ίου</w>
ηθ οποι
σημ εία</w>
ακ ολούθ
οδηγ ήσει</w>
ιστ ή</w>
n ame</w>
ιζ ε</w>
το ξ
σκο πούς</w>
κρασ ί</w>
ό ρα</w>
παλι ό</w>
e d</w>
1 -
φυσ ικό</w>
3 00</w>
τρό πους</w>
ρω ση</w>
h u
επ εκτ
ήθ ος</w>
βρ αζ
βγ ει</w>
βελτί ωση</w>
κ αζ
t nt</w>
οφ ής</w>
ac k
β ίλ
στ άση</w>
όμ ο</w>
ό μου</w>
μόν οι</w>
σύ λ
εκπαι δευ
αγόρ ια</w>
προτ είν
ύ ρα</w>
που ν</w>
οδηγ εί</w>
δ ώσεις</w>
αδελφ ή</w>
ί χν
τέλ ει
διαφορετ ική</w>
οπ τική</w>
όλ ου
πεδ ίο</w>
δισ εκατομμύρια</w>
θ μιση</w>
εταιρ ία</w>
ελ άχιστ
ζ εις</w>
εκατο ντ
έμ αι</w>
2 9
επ εισ
εξέλι ξη</w>
ευρώπ ης</w>
βρ ουν</w>
l y
μ ασ
αν αφορά</w>
μπ ει</w>
ί στηκαν</w>
ντ ι
αυτο κτον
έ θηκαν</w>
τού ς</w>
πεδ ο</w>
μπλ ε</w>
μοναδ ική</w>
ακού στε</w>
στ οχ
η μένοι</w>
re n
m us
φτ άνει</w>
d u
δικαι ωμάτων</w>
υ ιο
βρήκ αμε</w>
πηγαίν ετε</w>
ών οντας</w>
ρ αμ
σπί τια</w>
κά το
επιλέξ τε</w>
δεξι ότητες</w>
κρ υφ
υπήρ ξε</w>
συγχαρ ητήρια</w>
χ άλια</w>
εύ ομαι</w>
ηλικ ίας</w>
εκατομμ υρ
ω μένα</w>
πάρ κο</w>
οφ ο</w>
ισ ως</w>
δια πραγματ
δ οχ
έψ ετε</w>
συν ομιλ
περ ί</w>
όρ ων</w>
ί α
πλού σι
γυ αλ
έν ι
οθ όνη</w>
ne w
ξεκ άθαρ
ιστ ικές</w>
απαιτ ήσεις</w>
κ ει</w>
ιησ ού</w>
r y</w>
ετ α</w>
gree ce</w>
διαμ ονή</w>
ιμ ς</w>
αναζ ητ
' λ
τερ η</w>
σ αμ</w>
ιατρ ική</w>
δευτερόλεπ τα</w>
απάν τησε</w>
περισσότερ ους</w>
καλλιτ έχ
εξ έτ
p s</w>
ποι ες</w>
κάτ σε</w>
δεσ ποιν
t a</w>
χ οι</w>
όν ων</w>
ιδ αν
χωρι ό</w>
άρ ει</w>
5 .
εί να</w>
στρατ ό</w>
εγ ω</w>
αγ ν
αί τηση</w>
κατάλαβ ες</w>
ε ψη</w>
διάφορ ες</w>
ί ξει</w>
γνωρ ίζουν</w>
νόμ ο</w>
αί ους</w>
ζωνταν ός</w>
ιακ ών</w>
ανθρώπιν η</w>
αναμέν εται</w>
τ ακτ
ασ καλ
στ οί
διακοπ ές</w>
ενημερ ώσεις</w>
αν αν
όσ ους</w>
λ ηφ
ε ϊ</w>
εμφαν ίσεις</w>
δ ουν</w>
β ιτ
έ δι
μικρ έ</w>
επι β
ήρ ας</w>
' s</w>
κατηγορ ία</w>
στρατιώ τες</w>
γράμ μα</w>
μετρ ό</w>
αχ ωρ
κ ιλ
καθ ήκ
σ ικ
κ έι
βοηθ ήσουν</w>
πιστ οποι
ξεκιν ήσει</w>
επι βι
έστειλ ε</w>
βρ έθηκε</w>
δέ ν</w>
3 -
δ οχή</w>
ειλικριν ά</w>
μετ αν
βάλ ε</w>
ανθρώ που</w>
γε ωρ
le t
σκά φος</w>
εν δέχεται</w>
παρ όν</w>
άρ ρ
πρότ αση</w>
κοιν ή</w>
ψ ευ
δυνατ ά</w>
αυτοκίν ητα</w>
m a</w>
ακ ρίβ
ρωτ ήσω</w>
έ κρ
σ έρ
νερ ού</w>
ελ ήφ
κο σ
αισθάν ομαι</w>
θυ μη
αντικατ αστ
ί ωση</w>
- όχι</w>
επιστρ οφή</w>
ή ματά</w>
υπόσχ ομαι</w>
θε το</w>
νέ ους</w>
ισορρ οπ
πιθαν ότητα</w>
5 -
ό v
μά να</w>
συν επ
κιν ητ
καταλάβ ει</w>
m in
19 5
κά μερα</w>
οδηγ ός</w>
ο ς
δημι ούργ
άν θρ
δημιουργ ήσει</w>
υπόλοιπ α</w>
δι ευθύν
γενν ήθηκε</w>
κο ύ</w>
πρ άξη</w>
αστ ή</w>
αλλ ού</w>
καθυ στερ
στρατηγ ική</w>
σ πι
διεθν ής</w>
πρ ίγκ
πηγ ές</w>
χ ερ
εύ εσαι</w>
αδ έλ
σιδ ηρ
ν '
g ar
200 7</w>
ρι ος</w>
βδ ομάδα</w>
π oυ</w>
προσωπ ική</w>
μείν ετε</w>
τού το</w>
συν αρπ
εψ αν</w>
m s</w>
άμ εσ
v er</w>
νόμ ος</w>
ασφαλ ές</w>
k e</w>
αυ στηρ
κακ ή</w>
ιδιοκ τησ
σ ουν</w>
θερμο κρ
έκπλ ηξη</w>
εχ ει</w>
προσ θέ
ο ρ</w>
απο κλειστ
0 .
εδ ρο</w>
μαλακ ίες</w>
i t</w>
7 5</w>
τρ ύ
ασθεν είς</w>
τ αϊ
δει ξη</w>
τριαντάφυλ λα</w>
le s</w>
τρ οχ
τέτο ιες</w>
κατηγορ ίες</w>
φρ ικ
κ είμενο</w>
i e</w>
οικονομ ικών</w>
αγ ή</w>
μάικ λ</w>
βλέπου ν</w>
προειδ οποι
χρ ωστ
λευκ ό</w>
κυβέρν ησης</w>
di a</w>
φιλ οσ
περιμέν εις</w>
περιβαλλ οντ
μουσ είο</w>
οικ οδ
άνοι γμα</w>
όσ οι</w>
ζ ηλ
αυστρ αλία</w>
ψ αν</w>
λεπτομέρ ειες</w>
ίν ες</w>
ιστοχ ώρο</w>
βιβλ ιο
in n</w>
φυσ ική</w>
φάρμακ α</w>
τελευταί ες</w>
γιατρ ό</w>
συγκεκρι μένο</w>
ι ους</w>
off ice</w>
σ ό
έγκ υ
θ υσ
λάθ η</w>
παρ ουσ
a z
δουλ εύω</w>
παπού τσια</w>
χρη στ
ι δεύ
ενθ ουσι
τυ φλ
σημαντ ικές</w>
ιν στι
μεταν άστ
γράψ ει</w>
νο ια</w>
εμπο δ
2 -
πιστεύ ουμε</w>
δι στ
ώ δη</w>
οτ εχν
γκ αρ
ρ ολό
φ άκ
κώδικ α</w>
εγκλ ηματ
αρκετ ές</w>
όλ ι</w>
ξ ε
ι χ
ον όματα</w>
c as
ψ ω</w>
π ώλ
έ vα</w>
ακ ίν
φέρ ε</w>
στρ ατο
τοπο θε
διαδ ρομ
συν έντ
κλ ασ
μ παρ
μετ αφορά</w>
μαγ ειρ
γ έφ
παράξ ενο</w>
σπουδ ών</w>
πρ ιγκ
κατ απ
απόγ ευμα</w>
πρό εδρο</w>
ξ ουν</w>
απαραίτη το</w>
τ υ</w>
εχ ω</w>
άκ ας</w>
κ αλλι
τι ν</w>
ζω γραφ
ει μ
αθ ώ
πρόσ βασης</w>
διδ ασκαλ
απο γοητ
απ αν
γράφ ει</w>
έφτ ασε</w>
ότη ση</w>
παρ ούσα</w>
επιλ έγ
ω μένοι</w>
ατρ ο</w>
ω τα</w>
χωρ ών</w>
υπέροχ η</w>
πόν ο</w>
έφ ερα</w>
προσ έγ
παγκόσμ ιας</w>
λη στ
δουλ ειές</w>
ό ποιος</w>
ρώ μη</w>
τζ ο</w>
ίσ ου</w>
ar e</w>
ρι σκ
d es
σ άν
κου β
καπ ιταλ
ατ ύχημα</w>
ψ υγ
τη καν</w>
ζ ι</w>
έ στε</w>
προσφέρ ουν</w>
ησ ία</w>
ήρ ι</w>
χ άλ
πάν των</w>
λόγ ους</w>
χρειάζ εστε</w>
πεθ άνω</w>
χώρ ος</w>
κομ μουν
co l
ύλ η</w>
αφ ήσει</w>
απειλ ή</w>
χ ους</w>
υπο τίθεται</w>
ι ων</w>
ίλ ι</w>
ιαπ ων
σεπτ εμβρίου</w>
κατασκευ ή</w>
το νται</w>
περιλαμβάν ουν</w>
κλ άδ
3 6</w>
νίκ η</w>
οποί οι</w>
ι δε
εμπ όριο</w>
τορ ας</w>
ι ό</w>
θυ μία</w>
ων ε</w>
ment s</w>
άθ λ
χαμ ογ
ν εφ
κ .
ho tel
μ όρ
απ έναντι</w>
ήξ ει</w>
γραμ μές</w>
- είναι</w>
παίρν εις</w>
κληρ ονομ
εγ γυ
κατ αρ
στά διο</w>
όμεν οι</w>
εγκαταλ εί
χ οντ
δ ος</w>
β ου
αλ κο
γκ ου
αμερικαν ική</w>
κατ άστασης</w>
ευτυχ ώς</w>
ί ρα</w>
έβ γαλ
κρά τα</w>
ελεύθερ η</w>
εργ ασ
σκεφτ όμουν</w>
ιδιωτ ικό</w>
διαπ ιστ
ά στι
ιστό το
συγγραφ έας</w>
έν ωσης</w>
προ πον
καρι έρα</w>
θεωρ είται</w>
δο τ
κάν ατε</w>
αληθ ιν
άνδρ ας</w>
c e
έπ αθ
οκτ ω
παράν ομ
ξεφ ύγ
έχ ασα</w>
εί γ
πο π
νού μερ
ασχ όλ
υπό ψη</w>
μην ύματα</w>
μ ήκ
φιλοσ οφ
πελ ατών</w>
ύ γιο</w>
ασμ ούς</w>
αλ υσ
εγ χ
στ ατ
μετ απ
δρόμ ος</w>
d en
ψ ες</w>
αδέλ φ
s a</w>
απαι τού
άζ εσαι</w>
γεν έθ
απόλυ τα</w>
αξι ό
αντ ίδ
β ήματα</w>
ηγ ορ
υποστηρ ίζει</w>
σήκ ω</w>
h t
συν ιστ
κλ ιν
ενήλ ικες</w>
s ch
σκοτ ώσεις</w>
αμερ ικάν
παράλληλ α</w>
εργαλ είο</w>
ψ υ
ν ά
εκατοντ άδες</w>
εκατομμ ύ
φ ώ
ακ ες</w>
προηγούμεν η</w>
σχ ηματ
ά λ</w>
3 8</w>
οποί ων</w>
λογ ική</w>
ίν ος</w>
τ oυ</w>
κίν δυν
ιστορ ίας</w>
μελ ετ
απορρ ήτου</w>
επιστρ έψει</w>
αληθ ινό</w>
ικ ος</w>
a ir
3 7</w>
δάσ ος</w>
ήτ ες</w>
ήλ ιο</w>
καθ ιστ
λ υ
γενέθ λ
σ ιν
w o
ι ντ
του αλ
κοιτ άς</w>
τέχ νης</w>
inter national</w>
σ ια</w>
ακρίβ εια</w>
συγχωρ είς</w>
σαβ β
αναπ αρ
εκατομμυρ ίων</w>
αδερφ ός</w>
συμ φέρ
βόλ τα</w>
αγωγ ής</w>
καλ ύ
αρ ίων</w>
λ αβ
κομ μάτια</w>
απ ώλ
χειρ ότερο</w>
παντρ ε
3 9</w>
γ εμ
πιστεύ ετε</w>
ού σαμε</w>
αγ ώνες</w>
γεωρ γ
όμ ων</w>
- fi</w>
ξ ες</w>
απαιτ είται</w>
κρατ ήσει</w>
μν ήμη</w>
καθημερ ινά</w>
παρ έα</w>
ευτ ώ</w>
σκληρ ά</w>
υπο σχέ
έχ οντας</w>
αίσθ ημα</w>
φ αλ
βραβ είο</w>
ίσ χ
ζ ούμε</w>
εντολ ή</w>
4 8</w>
3 5
τετ ρ
μον άδα</w>
κρ υπ
επιτρέπ εται</w>
κρ εμ
θαυ μάσ
ηγ έτες</w>
ντ άν
έδει ξε</w>
σκ ι</w>
ερ ο</w>
π έσει</w>
r o</w>
αληθ ινή</w>
κιν ητό</w>
α έρ
έν νοια</w>
κι β
ό δο
σ μό</w>
φαιρ ο</w>
στ έκ
προσ ευχ
μετ αφρ
κοιν οβ
θεσ ης</w>
λ οχ
επικοινων ίας</w>
αν ατρ
άκ ουσες</w>
πάρ ουν</w>
δια στη
καιν ού
par k</w>
γι ορτ
ίζ α</w>
ήρθ αν</w>
σύ ντρ
τζ ι
εν αλλακτ
εκατομμύ ριο</w>
έλ η</w>
πιθαν όν</w>
περισσότερ η</w>
ότ υπ
οσ κά
ανακ ατ
σ υ</w>
καλ ές</w>
on e</w>
κρά τηση</w>
τ άξ
εθ ελ
πηγ αίνει</w>
ανακοίν ωσε</w>
κο ιμά
κατανό ηση</w>
δ ης</w>
λι β
εγ γραφ
δι ασφαλ
σφ άλ
χαρακτ ήρα</w>
3 4</w>
σύν ορα</w>
έ ται</w>
o l</w>
ν η
άρ ω</w>
ρ ι</w>
ολογ ίας</w>
μικρ ές</w>
μπο υκ
κορυφ ή</w>
όμεν ος</w>
μο σύν
βασ ίζεται</w>
ίδ ων</w>
επιλ εγ
όρ οι</w>
στρ ο</w>
ι ουλίου</w>
τ ov</w>
πό τ</w>
ν υχ
κερδ ίσει</w>
t ο</w>
β ιντ</w>
έν αρ
σο βιετ
ανάλ ογα</w>
o v
ορισ μένα</w>
εν ότητα</w>
βγάλ ω</w>
απίστευ το</w>
n αι</w>
τρ άβ
πρόσωπ ό</w>
διασκ έδ
ου μ</w>
χρησιμοποι ούνται</w>
το ρα</w>
μπ ες</w>
ολ υμπ
ευτυχ ία</w>
ί ασε</w>
κιν ηματο
u r</w>
ομοσπον διακ
p al
στ o</w>
άσκ ηση</w>
ti on</w>
στόχ ους</w>
εξαίρ εσης</w>
oυ v</w>
κό π
πρακτ ική</w>
ξ ύπν
συλλογ ή</w>
ω μα
το μ</w>
μ ο</w>
βασίλ ισσα</w>
ς …</w>
in a</w>
πεθάν εις</w>
δεκ εμβρίου</w>
ισχυρ ή</w>
διαστη μ
κατ εύθυνση</w>
ερώ τημα</w>
αερ οσκά
καλ ύψ
ουά ρ</w>
μ ω
λύ σεις</w>
καταστρ οφή</w>
χρον ικό</w>
παιχνιδι ού</w>
μπάν ια</w>
μελ έτες</w>
φ άση</w>
τσ ακ
περιμέν ουν</w>
τζ έρ
συγκεκρι μένη</w>
κατάλληλ η</w>
κατ α
καλύτερ ες</w>
- το</w>
αν άκ
αισ θαν
στοί χ
εκ τί
δι άδ
παίρν ω</w>
κατάλ ογ
δέντ ρο</w>
βερ ολ
τζ ό
αφ ήσουμε</w>
b l
ιν δ
ύ στ
αρκ εί</w>
έκτ αση</w>
γεν να</w>
αν αδ
γνώ ριζ
τρελ ό</w>
κου τί</w>
συν εδ
κα τ</w>
συμμετο χή</w>
εξ ακολουθ
βάλ εις</w>
be ach</w>
άκ ο</w>
νέ οι</w>
δέρ μα</w>
συρ ία</w>
ν ορ
υ δ
κά μερ
δημ ο
πο δοσ
ι ε</w>
ενημέρω σης</w>
πήρ αν</w>
εξαιρ εθείτε</w>
st u
ξ ύλ
d el
ασ π
αρχ είου</w>
πίστευ α</w>
0 ,
αντί στοιχ
ρομ πότ</w>
προηγούμεν ο</w>
κόλ αση</w>
wi -fi</w>
e t</w>
μέτρ ων</w>
απ ασχόλ
άν τζ
διοίκ ηση</w>
λ αι
έ ν</w>
χει μ
κατ αφ
ψυγ είο</w>
τησ ή</w>
αλλαγ ής</w>
δουλ εύεις</w>
κλει διά</w>
ενδιαφέρ ει</w>
γν ώσεις</w>
ξαν ακ
u e</w>
u p</w>
όντ ια</w>
φ υγ
τροφ ίμων</w>
μπ έρ
η μένες</w>
ελ ευθ
βρ εθ
διευθυντ ής</w>
τ αν
συν είδ
μιλ ήσεις</w>
αναφέρ ονται</w>
παρασκευ ή</w>
απ ατ
χρηματο δ
σκοτ άδι</w>
πρ όλ
r ic
ηθ ούμε</w>
εξοπλ ισμένα</w>
ειακ ό</w>
νέ ου</w>
θέσ εων</w>
πατρ ίδα</w>
αντιμετ ώπι
φ εγγ
μ ίσ
εκείν οι</w>
ανθρώπιν ο</w>
οικονομ ικό</w>
λογισμ ικού</w>
ακ όλου
φεύγ ω</w>
κ ερ</w>
μπ άλα</w>
κάποι ου</w>
3 8
εν δεχ
μαρ τίου</w>
εισ ιτ
σμ ός</w>
εμ πλ
έ ων</w>
λ ου</w>
τρομ ακτ
μον άδες</w>
μέγ ιστ
νούμερ ο</w>
γν ωρι
χριστ ού
εκ τον
αν οικ
πολλ ή</w>
μ π</w>
γκ ο</w>
γιατ ι</w>
απώλ εια</w>
τ απ
οικογέν ειες</w>
z a</w>
οκτω βρίου</w>
απο κάλ
έλλει ψη</w>
νι κ</w>
χρησιμοποι ηθεί</w>
πρ ο</w>
πο δόσ
κύ ρια</w>
b ur
ελεύθερ ο</w>
γύρ να</w>
ά σου</w>
νεκρ οί</w>
δ άχ
4 -
συνειδη τοποι
αζ α</w>
αποφ άσεις</w>
ισμ ών</w>
όδ ους</w>
στ έρ
π εν
συνδε δε
γεν νι
δυνατ ότητες</w>
μάρ τυρ
εισ αι</w>
περι φερ
αί ματος</w>
μετ αμ
ζ ήσει</w>
τεράστ ιο</w>
βρεταν ία</w>
μ αστ
ημέρ ας</w>
χ έ
αξιό πιστ
αδυν αμ
r e</w>
σχ έσ
jo h
αμ φισβ
μάθ ουν</w>
χ ίλ
ε φ</w>
ίν ης</w>
ορκ ίζομαι</w>
στ εί</w>
ί λ</w>
μέρ ους</w>
έ κλει
σκέψ ου</w>
θ εία</w>
γλώσ σες</w>
3 6
αυτο κρ
αξ αν</w>
έξ ει</w>
co mm
οδηγ ίες</w>
ν ευ
ι θ
σύ ρ
ημ ά</w>
π εζ
εκείν ους</w>
δοκ ιμά
δ ικές</w>
n or
μ ούς</w>
απ ελευθερ
αξ ίας</w>
ανατολ ή</w>
apart ments</w>
εμφαν ίζεται</w>
στ ρι
νο εμβρίου</w>
τζέ ιμς</w>
ά το</w>
τ ωμα</w>
αυ θ
ποδόσ φαιρο</w>
χρησιμοποι είτε</w>
φαίν εσαι</w>
ματ άρχ
ευτ ικό</w>
δεί κ
9 9</w>
δρόμ ους</w>
αίσ ια</w>
τ ζ</w>
τού του</w>
ασ ύρ
ελευθ έρ
f ran
χιλι όμετ
ευτ ές</w>
ετ ή</w>
πόσ ες</w>
π ιν
στι λ</w>
σεβ ασμό</w>
ν ος</w>
ν ια</w>
εν σωματ
χριστού γεννα</w>
σ άρα</w>
ώρ ηση</w>
γκ ολ
αγγλ ία</w>
τσάρ λι</w>
θ ηλ
ζευγ άρι</w>
b el
μισ ώ</w>
λ ατ
στ ερ</w>
κρύ ο</w>
in t</w>
εγκαταστ άσεις</w>
τίτ λο</w>
ζ αν</w>
σύμ βουλ
δραστηρι ότητα</w>
αναφέρ εται</w>
χάρ ηκα</w>
τρέν ο</w>
νομ ίζετε</w>
καταδ ικ
βρ α
r a</w>
σκ έψεις</w>
ho s
ύ ποπ
μ ών</w>
ό διο</w>
έχ ασε</w>
ιακ ής</w>
b ro
πρώ τες</w>
προκαλ εί</w>
ει μαι</w>
ωσ ή</w>
εθελ οντ
ά ρ</w>
ποτ αμ
πληθυσ μού</w>
εγ γύ
c k</w>
σκοπ ός</w>
ν ό</w>
λαμβάν ω</w>
χρυσ ό</w>
κρυπ το
κ αυ
αζ αν</w>
ί στη
e st
οικονομ ικής</w>
ντ αν</w>
καθαρ ό</w>
επ αφ
υπόλοι πο</w>
ευ χάρι
κύ τταρ
ακούσ ω</w>
ότ ατα</w>
σύ γκ
μαύρ η</w>
δευτ έρα</w>
l o</w>
συγκ έντ
γνωρ ίζεις</w>
κο ιλ
βοήθ ησε</w>
όδ ια</w>
εκ δηλ
5 5</w>
φέρ ουν</w>
ασ μένα</w>
b us
ολογ ική</w>
μυστ ικά</w>
χοντ ρ
ποι ό</w>
αίν ουμε</w>
κρί μα</w>
κ ασ
παρ οχές</w>
λί μν
εκ ατ</w>
δι αγων
ά στηκαν</w>
ip hone</w>
επ αρκ
στ αυρ
οικονομ ίας</w>
έρθ ουν</w>
υ πολ
ξ ύπ
καθ εστ
εργ ασίες</w>
προσ διορ
οικογέν ειας</w>
γι ση</w>
ρώ τησε</w>
φαρ μακ
4 2</w>
μά ικ</w>
κάθ αρ
μά ζ
ιδρύ θηκε</w>
παρ όλο</w>
οδ α</w>
κοινων ικής</w>
βι ώσ
μάρκ ετ
ησ ής</w>
χ τες</w>
ε το</w>
ro o
ωμα τού
μν ημ
μεταπ τυχ
γεμά το</w>
le r</w>
φέρν ει</w>
μπ α
λογαρι ασμού</w>
ετ ήσ
p re
υπουργ είο</w>
κου μπ
άκου σε</w>
επαγγελματ ίες</w>
μετ άφ
μ ί
σ ώσει</w>
παρ οχή</w>
δέσ μ
από δοση</w>
έδω σα</w>
ιαν ουαρίου</w>
t or
ουν ίου</w>
αμφι βολ
μπο υρ
τ ακ
ποι ά</w>
ευτ είς</w>
αυτοκρ ατορ
κοινων ίας</w>
ιρ άκ</w>
επίδ ραση</w>
δεσποιν ίς</w>
όν ης</w>
τυχ ε</w>
λ αχ
κατ αθ
δημοσ ί
it ter</w>
2 ,
χ έν
αν τρ
δίν ω</w>
δ ώ</w>
ν οικ
έπου ν</w>
τρό φι
προσ έχεις</w>
επι θυμία</w>
καταλάβ ω</w>
ισχ υ
συνέντ ευξη</w>
ναρκωτ ικά</w>
εψ ες</w>
γυνα ικ
ικ οι</w>
εγ κατάσταση</w>
βρ εθεί</w>
όλ ας</w>
ιμ ος</w>
καλωσ ορ
ιλ ίου</w>
θ εμ
an a</w>
παίζ εις</w>
μάρκετ ινγκ</w>
γου ίλ
αξ ίες</w>
αγαπ ημένο</w>
χει ριστ
αντικ είμενα</w>
έμ μα</w>
προ ώθ
l as
πρότυπ ο</w>
p e</w>
αυτοκιν ήτου</w>
συν δ
ομ οι
ών ια</w>
σαββ ατο
χειρ ουργ
βρ αχ
' ελα</w>
τρόφι μα</w>
ολ οι</w>
ακ τορ
φόβ ο</w>
εύ ματα</w>
αξι ωματού
γνώ ρισα</w>
σχετ ίζονται</w>
βρ ες</w>
απο κλεί
αναθ ε
προσ ωρι
απολ αμβάν
σοκ ολ
άνθρ ακα</w>
ρύ θμιση</w>
προκλ ήσεις</w>
κορ έα</w>
σ ακ
μεγαλύτερ ος</w>
επ όμενα</w>
new s
μάθ ουμε</w>
θέλ αμε</w>
ησυχ ία</w>
εισ αγωγή</w>
φ ά
δημ οτ
t ra
l and</w>
σμ ού</w>
έφ εραν</w>
έσ ετε</w>
αυ του</w>
ταξ ιδεύ
φιλ αρ
τσ άντα</w>
οκτ ώ
μ ε
συμπ αθ
κυρι ακή</w>
αρχιτ εκτον
c ity</w>
πριγκ ί
λα ό</w>
μεγαλύτερ ες</w>
αιτ ία</w>
αι χ
αίθ ουσα</w>
χειρ ότερα</w>
κλί μακ
απορ ρί
de n</w>
πέ δ
ογραφ ία</w>
καθαρ ά</w>
παρ αγγελ
ουρ ανό</w>
γκ αν</w>
πέμπ τη</w>
παί ξει</w>
επ ικρ
β ομ
δίν ουν</w>
υ λ</w>
μεγ έθ
ι ουνίου</w>
μπ ό
επιτρ οπής</w>
προ τερ
επιφάν εια</w>
γει τον
παι διού</w>
επιλέξ ετε</w>
γυρ ίσει</w>
ac h
γνωστ ή</w>
λεωφορ είο</w>
δ ώσουμε</w>
έλεγ ες</w>
σαββατο κύρι
εσωτερ ικό</w>
έπ αιρ
ο μένων</w>
πρω θ
μεξ ικό</w>
γι ορ
αδελφ ός</w>
έκ τι
σ έλ
π εντ
γρήγορ η</w>
ερωτ ευ
πληρ ώσει</w>
απρ ιλίου</w>
μπ εν</w>
αρχ ος</w>
φρ ού
ρωσ ίας</w>
d v
δ ώστε</w>
κρατ ήσεις</w>
ζωνταν ή</w>
ήξ εις</w>
ητ ικών</w>
πρίγκ ι
δ αχ
d i</w>
κ ελ
πλά τη</w>
τρ αμπ</w>
αγαπ άω</w>
ψεύ τ
- λεπτά</w>
ξεν ώνες</w>
αντικ είμενο</w>
πο ύλ
εργ άζονται</w>
πηγαίν ω</w>
σ εζ
ό φων
πράσ ινο</w>
π είσ
ευ χή</w>
στιγ μές</w>
κατ άθ
δομ ή</w>
γ ή
σ κλ
ού μενα</w>
περι οχής</w>
εφημερ ίδα</w>
ηγ εσ
γιν όταν</w>
τσ ο</w>
πρό κληση</w>
παρ ουσία</w>
θύ μα</w>
έλεγ χος</w>
ω μά
20 00</w>
φαίν ονται</w>
ομορφ ιά</w>
λειτουργ ούν</w>
έμ ορφ
τερ ματ
εξ ουσία</w>
δικαι οσύνη</w>
επι θέσεις</w>
σ ή</w>
μισ ή</w>
εύχ ομαι</w>
j u
κατανάλ ωση</w>
κατάφ ερε</w>
επικίν δυνο</w>
μα ϊ
τη κες</w>
ουσ έ</w>
τη ρι
πρότυπ α</w>
σ ω</w>
λιγ άκι</w>
ου διών</w>
κρι τική</w>
ουρ αν
κρι τ
έμ βριος</w>
καταλάβ εις</w>
αι ς</w>
πτ ώμα</w>
σύ ντ
παν έμορφ
ευρωπαϊκ ής</w>
η ε</w>
f ast</w>
π αρ</w>
μπ ήκε</w>
ότ ατε</w>
τολ μ
καλ οί</w>
i p</w>
κω δικό</w>
le y</w>
σκεφτ είτε</w>
δι ς</w>
4 5
ψευ δ
όπλ ων</w>
γ έν
αί ας</w>
ί β
tw itter</w>
ούν ι</w>
ελήφ θη</w>
ειδ ική</w>
ηλεκτρον ικού</w>
αντικ ει
ελ ες</w>
8 .
σοβαρ ό</w>
συνεχ ίσουμε</w>
β ίας</w>
ύστ ερα</w>
πτ ώ
9 5</w>
φ υτ
τ '
πρόσ θεσε</w>
y a</w>
ταξ ί</w>
πρ εσ
βάλ ουμε</w>
π αύ
ευ κ
ήθελ αν</w>
mas ter</w>
ψηφ ία</w>
περιγράφ ει</w>
τύ ποι</w>
ογ ν
βγ ήκε</w>
w n</w>
4 00</w>
ξαν αδ
αρ αχ
hos tel</w>
διαδρομ ή</w>
πτ ήση</w>
λατρ εύω</w>
πήγ ες</w>
κ αβ
αξ ες</w>
καρκ ίνο</w>
συνεχ ίσει</w>
προσωπ ικών</w>
θ ορ
ελ κυ
β ατο</w>
αρχ είων</w>
είν ουν</w>
προ έρχεται</w>
δό ξα</w>
πακ έτο</w>
in st
ποσ ό</w>
ινγκ τον</w>
ελεύθερ ος</w>
6 .
στρατ ός</w>
αποτελ είται</w>
il l</w>
τι ού</w>
κώ λο</w>
είχ ατε</w>
ί τη</w>
εισ άγ
φ όν
ευρωπαϊκ ό</w>
εθν ών</w>
ψυ χρ
εμ β
θύ ματα</w>
ανακ αιν
l y</w>
μητ έρας</w>
ρ έφ
ατ μόσ
συγ γεν
ολό γιο</w>
ολοκλ ήρω
κατά στημα</w>
ισ ες</w>
βρήκ αν</w>
αι ος</w>
καλι φόρ
ζητ ήματα</w>
συνεχ ίζει</w>
ντ έ
μα χαίρ
εν ν
ανατολ ική</w>
άρχ ισαν</w>
ελ αφρ
γ ένν
καλ ησ
ή τρια</w>
προ μη
εργαστ ήριο</w>
τ έρας</w>
διπλ ό</w>
συνέπ ειες</w>
κοίταξ ε</w>
κ ουλ
βεβαί ως</w>
αστ ει
i c</w>
ερ μην
γύ ρισε</w>
ί τες</w>
ωτ ικό</w>
τό κ
παράδ εισ
αυ ξαν
let ter</w>
χιλιόμετ ρα</w>
τέλ η</w>
ε π</w>
έκτι β</w>
στ εγ
διακ ρ
έ τους</w>
αστέρ ια</w>
ίσ ματος</w>
επι πτώσεις</w>
or t</w>
βρ υ
έλεγ αν</w>
σ άβ
b i</w>
ειπ ε</w>
αστ ικές</w>
bre ak
άδ ας</w>
ωθ ούμε</w>
πυροβ όλ
θυμά στε</w>
ic a</w>
φόρ ο</w>
ωθ ώ</w>
4 4</w>
πιθαν ότατα</w>
εσ ή</w>
αυτ ό
ψάχν ω</w>
προσέγ γιση</w>
ήθηκ ες</w>
us d</w>
p res
τ ς</w>
ρολό ι</w>
ξ ή</w>
ιστορ ικό</w>
δημιουργ εί</w>
7 .
τράπεζ ες</w>
be d</w>
ιδιωτ ικά</w>
απο δείξεις</w>
αναπτύ σσ
d o</w>
τροπο ποι
ουκραν ία</w>
σύγκ ριση</w>
κατ αβ
άσ ατε</w>
uni ver
ών ης</w>
δε ί</w>
πλατφόρ μα</w>
πωλ ήσεις</w>
σχολ εία</w>
παλαι στ
π έφτ
εσ ουάρ</w>
δημοκρατ ίας</w>
g ro
προσπάθ ησα</w>
s y
πρωτ αθλ
news letter</w>
η το
διαβ άστε</w>
' το</w>
μπ αν
αγγ έλ
πλ ειο
ετ αίρ
b an
χ ολ
παρ έχουν</w>
μον αχ
μέν ουν</w>
καταστρ οφ
γαμ ήσου</w>
b a
υψηλ ή</w>
επι ρ
σ άλ
m er
τί ο</w>
συμπ τ
ρι ες</w>
ζητ ήσω</w>
ασφαλ ή</w>
μαγ αζί</w>
σύντρ οφ
αναλ υτ
ίδρυ μα</w>
ντ ετ
αναν ε
αγρ οτ
ωσ έ</w>
μετ αδ
b y</w>
δ όντια</w>
c a</w>
πήγ αν</w>
ενημέρω ση</w>
αφ εί</w>
o λ
χτύπ ησε</w>
πολλ απλ
κάθαρ μα</w>
ιμ ότητα</w>
είδ αμε</w>
αγ αθ
επιστρ έψω</w>
εγ κεφάλ
όμ ασταν</w>
αντί θετα</w>
ur e</w>
αμερικαν οί</w>
μα ΐ
θέ ατρο</w>
γέφ υρα</w>
γιατρ έ</w>
φτ άν
κού κλ
σκύλ α</w>
κατ ευθ
εν ας</w>
δολ αρίων</w>
βοηθ ά</w>
σημαντ ικ
πρ άξεις</w>
έγκυ ος</w>
w h
μετ άλλ
χ όλ
τεσ τ</w>
προσπαθ ούν</w>
οδ οξ
γλ ωσ
χρηστ ών</w>
and ro
δεκαετ ίες</w>
έλ ευση</w>
προ φ
μεγαλ ει
λουλ ουδιών</w>
γεν ική</w>
κλ ικ</w>
εύκολ η</w>
ρί χν
καλησ πέρα</w>
προσπάθ ειες</w>
βγ αίνει</w>
απ όρ
γράψ ω</w>
γ άλα</w>
ά γνω
d er</w>
προσεκτ ικά</w>
μορφ ές</w>
αφ γαν
ασ μένοι</w>
έγ κλ
ντέι βιντ</w>
παράγ οντες</w>
ατ όμων</w>
' σε</w>
μαρ ία</w>
θέρ μαν
ε θ</w>
αρχηγ ός</w>
χ ονγκ</w>
d y</w>
ύψ ος</w>
σκου π
τ μ
μπ άστ
αδύν ατο</w>
πύρ γ
lo u
στ υλ</w>
ειδ ήσεις</w>
άν δρα</w>
σ έβ
ρο ζ</w>
θυρ ίδα</w>
πo λ
εξετ άσεις</w>
απο τρ
άρ η</w>
te d</w>
m m</w>
τεχνολογ ιών</w>
παίζ ουν</w>
ελλην ικά</w>
ξ εις</w>
γάμ ος</w>
βιομηχαν ίας</w>
έν τι</w>
χρ ηματ
απ ερ
ίξ εις</w>
απο δεικνύ
………… …………
χαρ το
συμβ αίνουν</w>
σκεφτ ώ</w>
μήκ ος</w>
υ μάτων</w>
η β
πλο ία</w>
έσ αι</w>
βι ν</w>
φρ άν
οργαν ισμός</w>
τεχνολογ ίες</w>
εμπορ ίου</w>
ωθ είς</w>
ηκ αν</w>
υπ όγ
όν ειρα</w>
ενέργ ειες</w>
λ αϊκ
ευτ είτε</w>
ευ λογ
έρ ωτα</w>
άφ ι</w>
σώ ματος</w>
γ εύμα</w>
αδύν αμ
μαλ άκα</w>
επι δρ
κυβερν ήσεις</w>
χαρ τί</w>
προμη θ
φαι ρα</w>
γ ουρ
διδ άσκ
200 6</w>
τρελ ή</w>
τεχν ική</w>
ρυ θμό</w>
ολογ ικό</w>
κρ έας</w>
φ εβρ
νό μου</w>
μείν ουμε</w>
γ ωνία</w>
αξι ολόγηση</w>
πιστ έψω</w>
κή πο</w>
βοηθ ήσουμε</w>
c am
ρί ξει</w>
στοιχ είων</w>
φέρ εις</w>
φ άει</w>
υπολογιστ ές</w>
επι βί
εκείν ον</w>
b ri
ασθέν εια</w>
μαΐ ου</w>
επενδύ σεις</w>
υσ ι</w>
τω ρα</w>
τυχερ ός</w>
m or
1 50</w>
γυναί κας</w>
πισ σα</w>
ά ματα</w>
μίλ ια</w>
έ τ</w>
άν ια</w>
ξαν αγ
πισ ίνα</w>
παίρν ουν</w>
κ όν
προκαλ έσει</w>
νι γ
γλυκ ό</w>
ακ ο</w>
συγ χρον
ηλίθ ιος</w>
πελά τη</w>
ρ αγ
μετο χ
καναδ ά</w>
θελ ω</w>
σ αι</w>
προ έδρ
μέσ ων</w>
αναζή τησης</w>
επι διώ
σταματ ήσεις</w>
c ent
συμ πληρ
γράμ ματα</w>
π η</w>
ο δι
βάθ ος</w>
θετ ική</w>
επέστρ εψε</w>
ούδ α</w>
πέ τρ
d is
μ ιν
άλ ες</w>
ων ι
πι να</w>
έρ ι
κ ονγκ</w>
σ παθ
αυστρ αλ
επαγγελματ ική</w>
κόλ πο</w>
φ ούρ
ευ κολ
εσ ες</w>
αξι ωματ
μεγαλύτερ α</w>
ισρα ηλ
πόρ ων</w>
μικρ ο
ή μια</w>
ότη τές</w>
στοίχ ημα</w>
ο ιο</w>
εδ άφ
έδ ρα</w>
ταιρι άζει</w>
g en
4 3</w>
γ όν
έξ τε</w>
1 η</w>
σύζυγ ός</w>
σχεδι ασμό</w>
ο πά
κ έν
εκ δικ
- και</w>
προ εδρ
σ ο</w>
οικονομ ικές</w>
άψ ει</w>
d er
ι γ
αυτοκιν ήτων</w>
συνεργ ασίας</w>
κί τρι
προ κύ
κίν η
άν ετα</w>
v is
s an</w>
ταξ ιδ
πέρ υσι</w>
f o</w>
τυ α</w>
κλείσ ει</w>
εμφαν ίστηκε</w>
εμπορ ικό</w>
προ ωθ
ού στου</w>
t v</w>
ζ ά
κά στρο</w>
επι τύχ
τού σε</w>
έστ ω</w>
έν τον
ντετ έκτιβ</w>
εγ γραφή</w>
ανακάλ υψ
μόσ χα</w>
μίλ ησε</w>
βγ ες</w>
έγ γραφα</w>
ξέχ ασα</w>
γ αρ
αποφάσ ισε</w>
4 7</w>
3 9
ενθ αρρ
βόμ βα</w>
υπηρεσ ίας</w>
δωμά τι
βγάλ ε</w>
αν αφερ
σφ αί
οδ ό</w>
λα ός</w>
β ορ
'ρ θ
πέ ταξ
εξαιρετ ική</w>
δύσκολ α</w>
χάρ ι</w>
εξηγ ήσω</w>
βοηθ άει</w>
βασ ικές</w>
g o</w>
φτ άσουν</w>
μερ ικούς</w>
η λ</w>
γαμ ημένο</w>
έν ιω
στρ ια</w>
σταμά τησε</w>
νεκρ ή</w>
φαντ άζομαι</w>
σκοτ ώσουν</w>
α .
t ri
κίνδυν ος</w>
έναρ ξη</w>
κακ ός</w>
χρ ώματα</w>
καν άλι</w>
ουσι αστικά</w>
σεζ όν</w>
τοποθε τη
σημ άδι</w>
οσ κοπ
μεθ υσ
όρ οφο</w>
προσπαθ είς</w>
οφ έλη</w>
χαλ άρ
τό πο</w>
ισ μάτων</w>
δικηγ όρος</w>
ελ ικ
διατρ οφή</w>
αλλαγ ών</w>
καινούρ γιο</w>
ισ λαμ
έλ ι</w>
ti on
μπάστ αρ
έγκλ ημα</w>
τυ γ
οντ άς</w>
ά δελφ
φ ιν
a ma
d na</w>
ετ ρ
εκ μεταλλ
4 1</w>
ου να</w>
έβαλ α</w>
ακού σεις</w>
οφ υλ
τηλε οπ
λάβ ετε</w>
κρ ύψ
κολ έ
συναν τη
επι δ
φ ας</w>
λίμν η</w>
p d
k i
χορ ηγ
μην ο</w>
δίν εις</w>
παν επιστ
γεν ιά</w>
αν υπομον
μ ίνι</w>
5 1</w>
έ v
p ri
τι ση</w>
εχ εις</w>
εντ αι</w>
ωρ ο</w>
υ παρ
συναισθ ηματ
ά γιο</w>
μο ίρα</w>
καθηγ ητής</w>
εί κο
έρχ εσαι</w>
πολιτ ικό</w>
break fast</w>
ό ποτε</w>
προσ θήκη</w>
λειτουργ ίας</w>
είπ αμε</w>
αναρωτι έμαι</w>
εκ δίκ
έκ φρ
τ εί</w>
βασ αν
ον δήποτε</w>
δικτύ ου</w>
αίγ υπ
τ o
σύμπ αν</w>
τοπο θετ
κι όλας</w>
ανεξάρ τητα</w>
f e
πάν τοτε</w>
εκπαι δεύ
αντ λ
p n</w>
όμεν ους</w>
σφαί ρα</w>
δημιουργ ήθηκε</w>
αποφ οί
αδερφ ό</w>
πήγ αιν
μακρο πρόθεσ
ινστι τούτο</w>
δω ματ
προσ ώ
στ ομ
στ α
τουαλ έτα</w>
καρ έκλ
ομ ολογ
μείν ουν</w>
ιστ ών</w>
ιστ ικής</w>
αδερφ έ</w>
6 0
κι να</w>
σταματ ήσουμε</w>
περιβάλλ οντος</w>
διαδικ τυ
ωκε αν
υλ ικά</w>
ματ ική</w>
ισχ ύ</w>
α χ</w>
φοβ ερό</w>
τσ ες</w>
ο ηε</w>
βιβλιο θήκη</w>
ανθρώ πινα</w>
κ ούρ
φ ωση</w>
πρεσ β
μον ες</w>
αφ ιερ
συστη μάτων</w>
οδ οτ
ιτ ζ
δε κά
σύζυγ ος</w>
κάθ ισε</w>
δ αλ
φρ ουρ
δημόσ ιο</w>
πανεπιστ ήμια</w>
συμβουλ ές</w>
πτυχ ίο</w>
τάξ ης</w>
αλ εξ
wor ld</w>
ψ ουν</w>
το v</w>
καθ ολ
σταματ ήσω</w>
βαθμ ολογία</w>
ατ σ
πίν ακα</w>
α η
ί τσα</w>
stu di
ε .
τεχν ικές</w>
ευτ ής</w>
μα ξ</w>
εύ ετε</w>
αυξ ηθεί</w>
βλ ακ
ού μαι</w>
ν ηση</w>
μπ ελ
ευ α</w>
γκ ρι
ήλι ος</w>
eί ναι</w>
τ ώ</w>
ειδικ ευ
πρ o
διαδικ ασίες</w>
φ τερ
εν ίσχ
είκο σι</w>
πέ τ
λέγ οντας</w>
σελ ίδες</w>
επιστημον ική</w>
χι ού
θέλ ατε</w>
περ άσω</w>
δι έ
βασ ικό</w>
γ άτα</w>
πράσ ιν
παρ αθ
οποι ονδήποτε</w>
τρύ πα</w>
ποικ ιλία</w>
διά θεση</w>
δαχ τυλ
υπεύθυν ος</w>
τ άφ
ανο ίξει</w>
- '
φάρμακ ο</w>
ταξ ιδι
κάποι ους</w>
ακ ατ
andro id</w>
ποσ ότητα</w>
εσωτερ ική</w>
εκτ ήματα</w>
αναπτυ σσ
b it
ξε φορτ
3 7
200 5</w>
ητ ήριο</w>
γεύ ση</w>
πιθαν ότητες</w>
λαι μό</w>
χρησιμοποι ήσει</w>
γραμ μ
κατ αρρ
βοήθ ειά</w>
παντ ελ
φί λ</w>
μπ ύρα</w>
ει άς</w>
αρ τησ
άγ ο</w>
να ί</w>
ρώ τησα</w>
β ούλ
εισ αγγελ
σ ουμε</w>
οποί ους</w>
εξ α</w>
έρευ νες</w>
υπο στη
τρ οπ
λ οι
β αρκ
αναζ η
έλ αιο</w>
αυγ ούστου</w>
πρόεδρ ε</w>
τη ν
έφ ερες</w>
άλλ ωστε</w>
φ ου
univer s
ρομ αντ
παρ άσταση</w>
μύ τη</w>
ζητ ώ</w>
π υ
μοντ έλα</w>
ερ ς</w>
δεί ξε</w>
θ ησ
επι πέδ
έξυπν ος</w>
π. χ</w>
δεδο μένου</w>
γά μου</w>
φτ ώ
ά τια</w>
έν το</w>
ω μένες</w>
κωδικ ός</w>
είπ ατε</w>
εμ ον
συμβ όλ
έκτ ακ
ητ ικού</w>
'εχ ω</w>
συμβουλ ίου</w>
σκύλ ος</w>
el s</w>
άδ ων</w>
ά στηκα</w>
ρί ων</w>
λιμ άνι</w>
ψ αρ
ν ι</w>
4 6</w>
συμ μορ
ι ός</w>
πο ν</w>
απρ ίλ
αναλ ογ
φώ τα</w>
ταχυδρομ είου</w>
συγ χώρ
v al
ιδιωτ ική</w>
θρησκ εία</w>
περ ικ
χ άπ
διαφ ων
υποστήρι ξης</w>
ανθ οκ
st or
συμμετ έχ
μετάφ ραση</w>
κ ων</w>
σ ετε</w>
πολ υ</w>
έλθ ει</w>
εφ όσον</w>
βίλ ες</w>
αχ θεί</w>
αλκο όλ</w>
αγάπ ης</w>
ne w</w>
το μία</w>
ο ϊ
κάν οντας</w>
ψ ωμ
τύ πους</w>
σ ατ
παρ έχ
π ύλη</w>
κρατ ήσω</w>
ho n
νό τι
4 9</w>
δορυ φορ
βερολ ίνο</w>
ίσ εων</w>
φροντ ίδα</w>
πολλ ών</w>
ν ου</w>
κατ ευθύν
αλ ι
ωτ ική</w>
παρόμ οια</w>
ε ΐ
προϋ πολογ
κατο ίκ
δε ν
bus in
o d</w>
θαύ μα</w>
ειλικριν ής</w>
ro n
εί αν</w>
δολοφόν ος</w>
ταυτ ότητα</w>
παρ απο
θ όρ
εν νέα</w>
περι ορισ
ζωνταν ό</w>
καθήκ ον</w>
γκολ φ</w>
αθ μ
κέρδι σε</w>
εψ έ</w>
χαρ ιτ
τοί χο</w>
πτώ ση</w>
αγαπ άει</w>
k αι</w>
σκυλ ιά</w>
καταστρ έφ
μπ ω</w>
μπ ι
m l</w>
ho me</w>
τι μά
ανθοκ όμο</w>
σκληρ ή</w>
σάβ βατο</w>
φεύγ ει</w>
κατάλληλ ο</w>
καλιφόρ νια</w>
ανακοίν ωση</w>
ακού ει</w>
h er
προ τού</w>
v e
ζή τησα</w>
β ες</w>
αποθήκ ευση</w>
περιοδ ικό</w>
δυνάμ εων</w>
αυτ όματα</w>
κά τσ
επί τ
εγκεφάλ ου</w>
στρατιωτ ική</w>
στά σου</w>
κύτταρ α</w>
γι '
φτώ χ
σκύλ ο</w>
πριγκί πισσα</w>
δο θεί</w>
ατ υχ
λαμβάν ουν</w>
ισ ον</w>
μίλ α</w>
ευτ ικές</w>
δι αζ
βρισκ όμαστε</w>
ολ ος</w>
χρηματο πιστωτ
τερ άστι
αφήν εις</w>
τρ οφή</w>
πόρ ους</w>
π αχ
χαρ τιά</w>
εξήγ ηση</w>
εξ ά
γυρ ίσεις</w>
καταφέρ ει</w>
κατ ατ
ισχυρ ό</w>
στ άθ
προ φίλ</w>
ο πως</w>
αυ τον</w>
ωτ ό</w>
μεταφορ άς</w>
λ όρ
ίκ ια</w>
κε ψη</w>
η δες</w>
l an
ών ετε</w>
αξιολογ ήσεις</w>
εξ αγωγ
σπάν ια</w>
επίσ ημα</w>
ξεκιν ήσουμε</w>
α …</w>
ικαν ότητες</w>
ατμόσ φαιρα</w>
w il
π επο
ίσ ατε</w>
ί ασης</w>
έξ οδο</w>
ετ ό</w>
σημερ ινή</w>
μεν ο</w>
καθ ένα</w>
διαφορ ές</w>
υπ έρ</w>
πρεπ ει</w>
ξέχ να</w>
δ άν
αποτυχ ία</w>
έτο ιμο</w>
μέ τ
κόμ ματος</w>
τ άση</w>
ν τον</w>
επίσ κεψη</w>
εμφαν ίζονται</w>
s s</w>
συμμετ άσχ
πι άσει</w>
δωμάτι ό</w>
ήσ ασταν</w>
c an
' πρεπε</w>
ψ άρια</w>
α τον</w>
άθλ ημα</w>
συμ μαχ
ετικ έτες</w>
ύ θ
τό ση</w>
πλειο ψηφία</w>
διεθν ών</w>
βαρκ ελ
o ut
συναισθ ήματα</w>
πο δήλ
λειτουργ ίες</w>
ίδι οι</w>
παραβ ι
ντ ς</w>
ρι σες</w>
άρ εις</w>
τελ ική</w>
τοπο θεσ
γλώσ σας</w>
από δειξη</w>
αλ ήθ
συγκρ ού
busin ess</w>
3 ,
κλ έφ
ευ αίσθ
2 1
πολιτ ών</w>
συν τον
μαχαίρ ι</w>
επ ίλ
νορ β
αισθάν εσαι</w>
χρή μα</w>
πέρ ασα</w>
ελ ος</w>
ήν τα</w>
οδήγ ησε</w>
ιακ ού</w>
απ ώ
φορτηγ ό</w>
στιγ μής</w>
ητ ες</w>
da y</w>
αντιμετώπι ση</w>
έλ ει
πεθ αίνει</w>
ar t</w>
a υ
φεγγ άρι</w>
αμ ατ
φ άμε</w>
κιν δυν
qu e</w>
επιστημ ών</w>
χι ον
περιγράφ εται</w>
σοβαρ ή</w>
βυ θ
ι άλ
ψ ουμε</w>
περ τ</w>
περν άει</w>
γ ού
έψ αχ
ξεκ ουρ
έν οχ
υπ άλληλ
μίλ ησα</w>
εκ είνα</w>
λαμβάν ει</w>
εξ ακολουθεί</w>
ενδιαφέρ οντος</w>
m o</w>
σκυλ ί</w>
ικ ο
συζητ ήσουμε</w>
πεπο ίθ
ν τουλ
μ μ</w>
ξ εσ
ιν ές</w>
δέντ ρα</w>
ub e</w>
τετ άρ
ευχ θεί</w>
γλωσ σ
αγ ές</w>
al i
φ ακ
πώλ ηση</w>
άρ ο</w>
άι αν</w>
πρόσφ υγ
ν αυ
εθν ικής</w>
καιν οτ
δ ίσ
συν τηρ
επιστήμ ης</w>
σκληρ ό</w>
κλ ινο</w>
ημ ος</w>
αγ ίου</w>
8 5</w>
ντ όν
νορβ ηγ
μ ιά</w>
ίν ια</w>
ταξ η</w>
μεν η</w>
κ ων
επηρε άζει</w>
σκεφτ εί</w>
επι βεβαί
g er</w>
- ο</w>
σ αν
εργοστ άσιο</w>
on g</w>
τρι ών</w>
ελλην ική</w>
άρχ ισα</w>
vil la</w>
c ia</w>
ο μένου</w>
ανθρωπ ότητα</w>
ήρω ας</w>
τ άξει</w>
κό β
διαμ αρτ
πον άει</w>
ομιλ ία</w>
συνεργ άτες</w>
ειδ οποι
πηγαίν εις</w>
i o</w>
τελει ώνει</w>
καινούρ για</w>
an t</w>
επιστρέφ ει</w>
αποφ εύγ
πολύ τιμ
θ ος</w>
αντί θεση</w>
φαρ μά
φ ους</w>
κιλ ά</w>
ε ϊ
ίσ α</w>
φω τι
τ oυς</w>
γι ε</w>
γου όλ
προέδρ ου</w>
του με</w>
ικ ό
θ έσει</w>
η .
λ ίν
vi de
υπ εν
προ έρχονται</w>
φτ άσουμε</w>
νόμ ισμα</w>
ιστ ώ</w>
ανεξ αρτησ
lo g
π ή
άν να</w>
φρ αγ
πόσ οι</w>
δίκ τυα</w>
bo ok
δικ ούς</w>
βγάλ εις</w>
σ εισ
πρόσωπ α</w>
ου ζ
κανον ικά</w>
ω τη
επισ ημ
φύγ ουν</w>
μα σε</w>
θελ ει</w>
ελκυ στ
άχ α</w>
χ όρ
εξέτ αση</w>
βιτ αμ
φ αση</w>
ενοικ ι
β άσει</w>
άβ αση</w>
ών ων</w>
φτι άξω</w>
χρειαζ όταν</w>
συμπεριλαμβανο μένης</w>
ω χ</w>
f re
βγ ούμε</w>
ευτυχ ισμένη</w>
χρον ο</w>
σκότ ωσες</w>
υπο σχ
πέφτ ει</w>
ούντ αν</w>
γυρ ν
fo x</w>
φάν ηκε</w>
προώθ ηση</w>
ξεκ αθ
εμπειρ ίες</w>
φ ήμη</w>
αλλ άξουν</w>
ω δία</w>
δ ο</w>
αντίδ ραση</w>
v pn</w>
la s</w>
παραμ είνει</w>
αθ ήνα</w>
f er
χαμ όγ
υπολογιστ ών</w>
κο ι
ή φι
κλ αμπ</w>
δι απίστ
μ όδ
s mar
ζ ήσω</w>
έ στη</w>
9 .
φαιν όταν</w>
βολ ής</w>
ίκ η</w>
πρό οδο</w>
κρ έ
ειδ ών</w>
έκρ ηξη</w>
4 ,
πάρ τυ</w>
el l</w>
γεμά τη</w>
άρθ ρα</w>
μ .
γκ α</w>
γιατρ οί</w>
άν τι</w>
υπν οδ
ισ ι</w>
είδ ατε</w>
απ ελευθέρ
ανήκ ουν</w>
όμεν ων</w>
eu ro
' δω</w>
σχεδι αστεί</w>
πετ σ
c u
ζητ ήσει</w>
επ έν
αι η</w>
πολιτ ειών</w>
βρίσκ ω</w>
8 0
χορ ό</w>
κα ύ
κα ί</w>
κοινων ικά</w>
κοιν ού</w>
έδω σαν</w>
νομ ίζει</w>
αγ ώνας</w>
όφων ο</w>
σημ άδια</w>
σαββατοκύρι ακο</w>
διαβ άσει</w>
ασφαλ είς</w>
an g</w>
- γιατί</w>
υγι ειν
w ay</w>
d on</w>
συμπτ ώματα</w>
περι γραφή</w>
εξοπλ ισμό</w>
g am
παραμέν ουν</w>
εισ αγωγ
fi re
χαμογ ελ
αζ όμαστε</w>
πιθαν ώς</w>
n er</w>
τοπ ική</w>
κατ άστ
καν απ
ηλικ ιω
κόκ κινα</w>
διαφ ερ
προσπαθ ούμε</w>
θησ αυρ
ί της</w>
ό του</w>
ποί ησης</w>
επεξ εργαστ
αφορ ούν</w>
ατ ες</w>
h am
χ ου
μπρ ά
μηχαν ές</w>
θερμοκρ ασία</w>
από ψεις</w>
τζ όν
εργ ία</w>
ne t
6 4</w>
ρ εκ
αυξάν εται</w>
μετρ ητά</w>
μέν ω</w>
γκρ έ
αποτελεσματ ική</w>
απαραί τητα</w>
αερ ίου</w>
αδ έρ
ύπαρ ξη</w>
ομ αδ
άρ γ
τρέν ου</w>
μεγάλ ης</w>
έλαβ αν</w>
κρατ άει</w>
δι σ</w>
δ ασκ
h en
ποτ άμι</w>
αρ ρώ
ίλ α</w>
ώ δης</w>
ίδι ες</w>
προσ δοκ
διαμ ορφ
περι φέρ
επ έλ
ανησυχ ώ</w>
αλλ άξω</w>
κρ υμ
ic s</w>
συμ φών
εκτελ εστ
διακ ή</w>
δ ώσουν</w>
εκ στρατ
a i</w>
m il
σ εσουάρ</w>
ήσυχ ο</w>
pla y
ευ ημερ
ch ar
ιαν ουά
δυ τική</w>
t ζ
χ ίτ
νυχ τερ
ανι χν
υπο θέσεις</w>
εν η</w>
εκ πρόσω
βασ ική</w>
g re
μόν ον</w>
εν διαφερ
δημιούργ ησε</w>
κέντ ρα</w>
άφ ησα</w>
c r
ζώ ων</w>
εξ ερευν
διαφ ήμ
ζώ ο</w>
διαθέσ ιμα</w>
πά τωμα</w>
εύσ ω</w>
διατ ήρηση</w>
βραζ ιλία</w>
αναλάβ ει</w>
ακτ ή</w>
έργ ου</w>
ι πτ
ευρω παί
εκ τέλ
συμβ ολ
σκην ο
ητ ικός</w>
ώ ρι
όρ γ
τίτ λος</w>
c en
ώ δες</w>
ακ υρ
σ ίδ
θόρ υβ
κου βαλ
βρ ώμ
α συνήθ
' ν
φορ ολογ
ο λ</w>
κινδύν ου</w>
καινού ριο</w>
καλ α</w>
άδ ικο</w>
χίτ λερ</w>
ώσ ατε</w>
βδ ομάδες</w>
υπερβολ ικά</w>
λα ού</w>
διασκέδ αση</w>
ούλ η</w>
ζεστ ό</w>
εύ τηκα</w>
κ ωλ
αξιο θέ
καταφέρ ν
αφγαν ιστάν</w>
αγορ άσει</w>
ρί τσ
διακ ομ
p r
λατ ιν
έκ τημα</w>
προ γραμ
ξενοδοχ είου</w>
ιδιαί τερη</w>
ειρήν ης</w>
στρ αβ
σημ είων</w>
por t</w>
βά λ</w>
υποψ ήφι
συν δρομ
κ όνι</w>
εκ δόσεις</w>
τ άρ
τσ έπ
πολιτ ικών</w>
ό ξ
μην ών</w>
σχεδι ασμού</w>
ρι κ</w>
μαθηματ ικά</w>
θυ ρα</w>
t u
p en
πελά της</w>
ξανα δεί</w>
ιγκ τον</w>
οργαν ισμούς</w>
χρόν ων</w>
τσ ί
ma c</w>
υπομον ή</w>
προϊ όντος</w>
λ ς</w>
κατ αργ
κ o
m u
ag e</w>
χ ω
ντ υ
κρεβ άτια</w>
ό της</w>
ψωμ ί</w>
στρατ ό
μυ θ
καταγρ άφ
δημιουργ ήσετε</w>
γερμαν ίας</w>
χριστ ός</w>
σύλ λη
μέ τω
γενέθλ ια</w>
γεν ετ
βγάλ ει</w>
νόμ ους</w>
ετικ έτα</w>
εντολ ές</w>
ίζ αμε</w>
μη τρ
αυγ ά</w>
ανώ τ
6 6</w>
όδο ξ
ω β
σκ ού
εισ οδ
γου στ
βρίσκ ομαι</w>
φαιν όμενο</w>
κατ ε
ήρθ αμε</w>
χ άσω</w>
κρά τους</w>
κατ α</w>
αλλ άζουν</w>
φωτ ειν
το ρ</w>
παράγ ει</w>
μπ ανι
οργαν ισμό</w>
θεωρ ώ</w>
ναρκωτ ικών</w>
κιν είται</w>
εικ όνας</w>
εσ υ</w>
β άζεις</w>
s un
η μέν
c ap
πρακτ ικές</w>
περί πλοκ
εν ι
ελβ ετία</w>
αντ ίκ
αρ κ</w>
παρακολούθ ηση</w>
ανοιχ τό</w>
μ ις</w>
λεπ τών</w>
ηθοποι ός</w>
ορτ ζ</w>
μπ ιλ</w>
εποχ ής</w>
me dia</w>
ών υμ
χαρακτηριστ ικό</w>
κοριτσ άκι</w>
αίρ εση</w>
στ αδι
o l
ότερ οι</w>
φθ ην
υψηλ ό</w>
ου v</w>
βγ άζει</w>
λ ο
κων στ
ακου στ
ψέ μα</w>
ξ ηρ
κοινων ικές</w>
έσπ ασε</w>
φόρ εμα</w>
σημ ασίας</w>
μοσύν η</w>
αλλ άξουμε</w>
b a</w>
γ κο
έρ να</w>
φ ήμ
τζ ορτζ</w>
ομ ως</w>
λάβ ουν</w>
εξ άλλου</w>
ig h
συλ λέγ
λογ ικό</w>
a h</w>
εγ κυ
χ ι</w>
σφάλ μα</w>
πληροφορ ία</w>
ουσ ίας</w>
επέ τρ
αδυναμ ία</w>
ρεκ όρ</w>
μάθ ηση</w>
ουάσ ινγκτον</w>
τρό ποι</w>
σταδι οδρομ
πρώ τον</w>
δηλ η
s s
as h
εμ ά</w>
πι ες</w>
βρ έθηκαν</w>
άν η</w>
bo u
παν δοχ
οσ ία</w>
βγ ω</w>
pi x
f in
παραδ έχ
μετ αναστ
200 4</w>
συμμετέχ οντες</w>
ολόγ ος</w>
κλ εισ
ετοιμά ζ
γελ ο
αρκετ ή</w>
δοσ ης</w>
βοήθ ησέ</w>
ακ ές</w>
προσωπ ικού</w>
εφαρμογ ής</w>
δάσκαλ ος</w>
απ ί
σχ ήμα</w>
μάθ ησης</w>
στείλ ω</w>
5 2</w>
' ηταν</w>
επι θεωρ
δίκ η</w>
ψάχν ει</w>
φόβ ος</w>
διαν ομ
συμφων ώ</w>
δ ώρα</w>
κεντρ ικό</w>
θήκ αμε</w>
ηγεσ ία</w>
ευχαρ ίστη
αμερικαν ός</w>
ήρ εμα</w>
πι άν
μέ v
αίρ η</w>
εύσ ουν</w>
τρώ ει</w>
περι πέτ
ημερ ών</w>
έμ οι
άλ η</w>
κλί μα</w>
έξυπν ο</w>
βεν ζ
δώ σ</w>
αι σι
t ho
ε αν</w>
γεω γραφ
ύν ουν</w>
επ ωφελ
εφ ιάλ
ίν ας</w>
n y</w>
θεμ ελι
ατ αι</w>
ύπ ωση</w>
καταστ άσεις</w>
θέρμαν ση</w>
αφήν ει</w>
ro ad</w>
τ είχ
ανησυχ είτε</w>
κ ηδ
βγάλ ουμε</w>
έμαθ ε</w>
στ ελ
κιβ ώ
yo ut
ωρ η</w>
χρησιμοποί ησε</w>
τη τας</w>
επιτρ έπουν</w>
ωτ ικά</w>
φταί ει</w>
πλευρ ές</w>
οργαν ώσεις</w>
αριθμ ούς</w>
th e
f bi</w>
ξ εγ
άρ τηση</w>
p at
συμβουλ ή</w>
μ ων</w>
ζά χαρ
γράφ ω</w>
αναλ αμβάν
ακολουθ ήστε</w>
ά τι
σύγχρον η</w>
πρωτ εύ
pres s</w>
όδ ων</w>
κατ ακ
διαθέσ ιμο</w>
su i
χρέ ωση</w>
ντουλ άπ
νεκρ ό</w>
ιακ ός</w>
αρ α</w>
ματ ός</w>
ρίξ ω</w>
ρ ου</w>
ξ απλ
λ ους</w>
κλ έβ
m y</w>
τμ ήματα</w>
εργ άζεται</w>
γρ ια</w>
ανοίγ ει</w>
ανάγκ ης</w>
m ent</w>
συν τομ
σημ αία</w>
eu m</w>
σεξουαλ ική</w>
ταλ έντο</w>
πρόσφυγ ες</w>
καπ έλο</w>
καινο τομ
ετ α
δάχ τυ
άντζ ελες</w>
λ ων</w>
έστ ερ
χειμ ώνα</w>
φτ άσαμε</w>
το να</w>
μετ α
w ar
' κου</w>
π εκ
καζ ίνο</w>
ιν ς</w>
άσχ ημο</w>
χαρούμεν ος</w>
7 2</w>
παίξ ετε</w>
αμερικαν ικό</w>
έμ βαση</w>
φορ ντ</w>
ομάδ ων</w>
εκ λ
φ α
προϋ πο
ύτερ α</w>
σερ βί
παίζ ω</w>
ούν ιο</w>
ολ λαν
κατ απολ
εργ άτες</w>
s on
φ άω</w>
απ αγόρ
συνδέ εται</w>
συμπ έρ
εξ η</w>
l l
χ άσεις</w>
φάν τ
προσφέρ ουμε</w>
γίν ετε</w>
ν αν</w>
δε κτ
ταπ ειν
ξεκιν ά</w>
κοιμά ται</w>
κατέ στρ
καθαρ ή</w>
εγκέφαλ ο</w>
κολέ γιο</w>
βρ οχή</w>
ώ νται</w>
ά χρη
αι μορ
καινο τομία</w>
αλλ ήλ
χρέ ος</w>
νομ ική</w>
καθημερ ινή</w>
εφαρμ όζ
ήρ υ
m i</w>
υπερ ασ
τ ωση</w>
σαφ ές</w>
m c
f e</w>
χρηματοδ ότηση</w>
σύμβουλ ος</w>
μ ης</w>
ελ κύ
ειδ ικές</w>
γερμαν οί</w>
: 30</w>
παγ κοσ
t ro
πλεον εκτήματα</w>
πίν ων</w>
έ γι
p p
παγκόσμ ιου</w>
διαδικ τύ
προσ θέσ
πετρ έλαιο</w>
μπερ τ</w>
θεί ος</w>
β ερ</w>
έπι ασε</w>
u x</w>
νο τι
άγ χος</w>
d ge</w>
γυαλ ιά</w>
σταθ ερή</w>
κλ αί
i on</w>
φρ όντ
τ αγ
συνεπ ώς</w>
πολιτ ικά</w>
απώ λει
σκότ ωσα</w>
διακ υβ
in fo</w>
κλεί σε</w>
μ ίας</w>
αστυνομ ικός</w>
αληθ ινά</w>
πράκ τορας</w>
εύ ματος</w>
εμφαν ιστεί</w>
συνδ έσεις</w>
ι να</w>
διαδικτύ ου</w>
γή πεδο</w>
βυ ζ
χ ει</w>
σικ άγο</w>
σι γκ
άν εμ
k ing</w>
σπι τιού</w>
4 8
' ντε</w>
εχθρ ός</w>
δύ ση</w>
επ έκταση</w>
διοίκ ησης</w>
ί μασε</w>
έρ ες</w>
έ ιν</w>
des ig
φεύγ εις</w>
ηρ ία</w>
διαδ ηλ
καθ ρέφ
διπλ ωματ
al e</w>
στ ολή</w>
ντρ οπή</w>
ότ ζ
σ πρώ
κλ ήση</w>
ίν ηση</w>
ίζ εσαι</w>
ψ ή</w>
χ άσαμε</w>
η τοι</w>
ισορροπ ία</w>
δοκ ι
αστ ικής</w>
' ντ
μπανι έρα</w>
κυν ήγ
εκτ ικά</w>
γυρ ίσουμε</w>
αγαπ ημένη</w>
έβ γ
res ort</w>
χ άνει</w>
σφ αίρ
περ άσεις</w>
κοινων ικό</w>
εργ ατ
επιτρ έψει</w>
ε μ</w>
διδ ακτορ
γι ά</w>
υπο βρ
το πί
τ ικών</w>
ούρ ι</w>
αι τη
ξύπ να</w>
ει να</w>
αξιοθέ ατα</w>
19 0
φ ετ
μ αίρη</w>
in o</w>
οθ όνης</w>
καπ ετ
δ αί
αστ εία</w>
po int</w>
σχέσ εων</w>
συν εισ
μέν εις</w>
εγ κεφαλ
αναλ ύ
οφείλ εται</w>
θ άρρ
συνδέ ονται</w>
εκτέλ εση</w>
l is
βι ς</w>
ό κ
ουάσ ιγκτον</w>
μον ο</w>
λ η</w>
επόμεν ες</w>
απ' την</w>
αν έ
ακ ιν
συνδυ ασμό</w>
περ ασμένο</w>
ελικ όπ
συν οδεύ
ου ζ</w>
0 -
παίξ ουμε</w>
αποκλεί εται</w>
φαντ αστείτε</w>
k a</w>
υποστηρ ίζουν</w>
κάμερ ες</w>
φιλοξεν ία</w>
φεύγ ουμε</w>
φάκ ελο</w>
υόρκ ης</w>
ταξ ίδια</w>
μπο μπ</w>
απί θαν
άνοι ξη</w>
συνταγ ματάρχ
διεξ άγ
αρχ ίσουμε</w>
φοβ άται</w>
συν άδελφ
σοφ ία</w>
τζι μ</w>
πάθ ος</w>
τετάρ τη</w>
ατ ές</w>
5 3</w>
2 2
γίν ουμε</w>
αυ τους</w>
φτ άσετε</w>
οχ ήματα</w>
νο ημ
μελ ών</w>
μετ α</w>
ενίσχ υση</w>
univers ity</w>
τι σης</w>
μελ έτης</w>
κινηματο γράφ
καταρ α
είσ οδο</w>
π ε</w>
έ ιμ
πεθ αίνουν</w>
νομ ισ
b il
φωτο γράφ
μν ήμ
κατάθ λι
εξυπηρ έ
αμφιβολ ία</w>
s -
out lo
οποί ησε</w>
κυρι αρχ
κρι ς</w>
θετ ικό</w>
άμ υν
παίξ ω</w>
αστυνομ ίας</w>
μαλ άκας</w>
κύκλ ο</w>
δε κα</w>
6 00</w>
άρ ης</w>
σύμ βαση</w>
οργαν ισμού</w>
μον οπά
απο ικ
d on
av en
συγκεντρ ώνονται</w>
στ ήθος</w>
θ ετικά</w>
αποφάσ ισα</w>
δεύτερ ος</w>
t α</w>
πόρ τες</w>
διακ ό
προσ ποι
καθεστ ώς</w>
ή ρι
άκ ες</w>
200 3</w>
παραδ είγ
ώσ ης</w>
σύζυγ ό</w>
καταλ ήγ
χρον ος</w>
πλ ηκ
πιλ ό
διάβ ασα</w>
απο κ
v en
te n
ντ ες</w>
αυτο κρά
το ντας</w>
πουλ ί</w>
παπ πού</w>
λ έσ
δι οτι</w>
βρ άχ
σκουπ ίδια</w>
ότερ ους</w>
σερ ί
ρωσ ική</w>
ιζ α</w>
έ θηκα</w>
άκ ουσέ</w>
p a
ό φιλ
θεωρ ούν</w>
i en
φρ έσκ
ι αν</w>
έπο ντας</w>
χρησιμοποι ήσουμε</w>
προτ άσεις</w>
ιστ ικών</w>
εξ ίσου</w>
άρρω στος</w>
ρ έι</w>
πολιτ εία</w>
5 9</w>
επαναλ αμβάν
δρ άσης</w>
κοινων ικών</w>
κιν γκ</w>
καταστρ έψει</w>
κουμπ ί</w>
κεν ό</w>
απόλυ τη</w>
w al
συν έδ
ελ εγ
i i</w>
5 8</w>
στείλ ει</w>
πλατ εία</w>
κατ αιγ
σπ άσει</w>
περιεχ ομένου</w>
νε τ</w>
κρίσ ης</w>
ητ ικής</w>
απο ύρ
- η</w>
φυσ ικού</w>
νι ος</w>
4 7
τραγ ούδια</w>
στ ο
αυτ η</w>
ω το</w>
πηγαίν ουν</w>
θε μα</w>
γι άν
βρυ ξ
έξ εις</w>
μπ oρ
απαραίτη τη</w>
β ολο</w>
προτιμ ώ</w>
ληφ θεί</w>
αγ εν
φ άλ
καν άλια</w>
αρ γεν
ήσυχ η</w>
πετύχ ει</w>
θετ η</w>
πραγματ ικός</w>
αντ ίλ
έθ νος</w>
ών ε</w>
πά μα</w>
τραγ ου
τζ ού
πέρ ασαν</w>
καλλι εργ
διαθέσ ιμη</w>
έλ ες</w>
s ite</w>
σ ερ</w>
θεωρ εί</w>
έ κο
sui tes</w>
συνειδη τοποί
προσπαθ ήσω</w>
πo ι
τέταρ το</w>
εξωτερ ική</w>
vi e
κ αι
ελευθερ ίας</w>
διαδικ ασίας</w>
c lu
φ άσμα</w>
πεποίθ ηση</w>
πολ ων
κοιν ότητας</w>
κατοικ ίες</w>
ίγ ο</w>
φύ σης</w>
δουλ εύουν</w>
ήλ θε</w>
έγ γραφο</w>
επιστ ολή</w>
εμπειρ ογν
ψάχν εις</w>
εμ ιν
αν ομ
ποτ ά</w>
ασφαλ ώς</w>
ασ σ
πήρ αμε</w>
κίν ησης</w>
αφρ ικαν
αρρ αβ
αδελφ ό</w>
καινούρ ια</w>
t y</w>
j e
5 6</w>
τσ αρ
περ άσουμε</w>
joh n</w>
εν ς</w>
ερ εύ
εξωτερ ικών</w>
γου ντ</w>
απ ΄
αγ καλ
πλήρ ης</w>
μον άχα</w>
ετ ερ
αν απόφ
ο σκ
μπ εις</w>
κέρ δη</w>
θαυμάσ ια</w>
ασ έ</w>
αντί παλ
200 2</w>
συνεχ ίσω</w>
ανταπο κρι
αντί γραφο</w>
έγρα ψα</w>
6 8</w>
μον ή</w>
θ λί
βρα διά</w>
έφ αγ
κο κ
ευ τούμε</w>
εκδίκ ηση</w>
δρ όμου</w>
αποκτ ήσουν</w>
πρωτο βουλ
δηλ ώνει</w>
ανθρω πιστ
φαντ ασία</w>
μεγάλ ων</w>
καρκ ίνου</w>
επιπέδ ου</w>
γκ έι</w>
mus eum</w>
υ α</w>
μπαλ κόνι</w>
κο τό
v ε</w>
συνεχ ίσετε</w>
συμφων ίας</w>
αναγνώ ριση</w>
γκρ ου
βί βλ
σύμ φων
μάχ ης</w>
επενδυ τές</w>
v ic
φ λό
γειτον ιά</w>
αυ τα</w>
αποφασ ίσει</w>
έξυπν η</w>
φοβ ούνται</w>
παρ θ
καρέκλ α</w>
εκείν ες</w>
καπετ άν
ι α
στη v</w>
σιγκ απούρ
συζητ ήσεις</w>
κιν ήσεις</w>
θ '
πρωτ ό
πέ θ
ματ ικό</w>
δοκιμ ή</w>
καλ εί</w>
αποτελεσματ ικά</w>
οφ όρο</w>
γρ ηγορ
αντί θετο</w>
αδέρ φ
υπόλοι ποι</w>
τοποθετη μένο</w>
συνέδ ριο</w>
πο ρν
δεκαετ ίας</w>
αργεν τιν
ra m</w>
πρ έπ
ν ή</w>
κά πν
δικ έ</w>
αποκτ ήσει</w>
πό ση</w>
προηγ ου
μουσ ουλ
μεν ού</w>
αϊ κού</w>
συ v
παίκ της</w>
οξ υγ
άσ ια</w>
ξεχ άσει</w>
μετακ ομ
κρατ ών</w>
διατ αραχ
ανοιχ τή</w>
b as
παιχνιδι ών</w>
πήγ αμε</w>
ma il
1 /
υπερ β
συμμετ έχουν</w>
πολυ τελ
παρά θυρα</w>
- να</w>
πηγαίν ουμε</w>
ολ ές</w>
εύ οντας</w>
επιβ άτες</w>
γνωρ ίσει</w>
τακ τοποι
προσαρμ ογ
δικαι ολογ
ότυπ ο</w>
χριστ ού</w>
κλ είν
sh ar
λ οβ
αναπόφ ευκ
ο κρά
μπ αίνει</w>
λ αθ
καταναλωτ ές</w>
ευ τούν</w>
σιδηρ οδρομ
σεν άριο</w>
πολ έμ
εμπορ ική</w>
τρ ώνε</w>
τού σα</w>
προβλ ημάτων</w>
επι βλ
l ar
μαγ εία</w>
so ci
ώ τες</w>
υπ αλλήλ
αναπ τυχ
ασθέν ειες</w>
αποκλειστ ικά</w>
6 7</w>
όργ ανα</w>
φοιτη τών</w>
ποτ ήρι</w>
περ ασμένη</w>
καθυ στέρ
σχόλ ιο</w>
διαλ ύ
έθ νη</w>
c d</w>
ασφάλ ιση</w>
το νες</w>
τελ ικό</w>
δοκι μές</w>
πρόσφ ατη</w>
μπορού σατε</w>
ασθεν ής</w>
k g</w>
προγραμ μάτων</w>
ξύλ ο</w>
λόγ οι</w>
ηγ έτης</w>
άζ εστε</w>
h el
αλλ άξεις</w>
τί να</w>
προσ ανατολ
εξαφαν ίστηκε</w>
χρον η</w>
σερβί ρ
st r
s en
τ εκ
δό θηκε</w>
ί χ
' σαι</w>
π άσα</w>
μαρ κ</w>
εβ αι
περήφαν ος</w>
ί τι
χαρακτη ρ
αυθ εντ
πέθαν αν</w>
συμ περ
ητ έ</w>
ατ λ
μιλ άτε</w>
ηθ ική</w>
εθ ούν</w>
αστέρ ι</w>
νε ϊ</w>
διδασκαλ ία</w>
χαμηλ ά</w>
ημερ ολόγιο</w>
τρί των</w>
βλ άβ
υ να</w>
σπαθ ί</w>
μετ αρ
κατ ασ
μει ον
ακού τε</w>
st a
τρομ ερό</w>
σύνδε σμ
σκέφτ εται</w>
πoλ ύ</w>
οπο υ
ιδ ίως</w>
m al
j i
εγ ω
αυτ ων</w>
ακ τιν
γερμαν ική</w>
κοιμ ηθώ</w>
δι ανο
έφυγ αν</w>
φάντ ασμα</w>
π ασ
μιλ ούν</w>
αρχ αι
bo x</w>
ρωτ άς</w>
οικοδ ομ
ιω άν
δρομ ο</w>
blo g</w>
λεπτο μερ
δικαι οσύνης</w>
αδ ικ
ελέγχ ει</w>
ίσ ια</w>
στρατο ύ</w>
ι τ</w>
μωρ ά</w>
χ αθεί</w>
σημεί ωση</w>
σ ωλ
πάθ ει</w>
θ ές</w>
χαλάρ ωσε</w>
αντιμετωπ ίζει</w>
m y
μεθ όδους</w>
ανοιχ τά</w>
αν επ
αλλ άξετε</w>
περιήγ ησής</w>
δαχτυλ ίδι</w>
τόσ ες</w>
σφαίρ ες</w>
οπ αδ
θυμ ίζει</w>
συνεχ ίστε</w>
δολοφον ία</w>
ένι ωσα</w>
συν αίσθημα</w>
παιδ ική</w>
ιδιοκτησ ία</w>
γκ ερ</w>
ήρ εμ
o t
φτι αγ
περί θαλ
μυ ρω
λογ οτεχν
εν ος</w>
ύτερ η</w>
συνεδ ρι
ηλίθ ια</w>
γέρ ος</w>
ανεξάρτη τη</w>
πόν ος</w>
σκλ άβ
φιλοσοφ ία</w>
δεύτερ ον</w>
αυτ ιά</w>
αρ θρ
τελει ώσαμε</w>
πέ τρα</w>
αφρ ικής</w>
έδω σες</w>
στηρ ίου</w>
πλ ήθος</w>
δ ού
απο τύχ
όχ ημα</w>
τόκ ιο</w>
τελευταί ος</w>
ιστοσελ ίδες</w>
ch i
ψ άρι</w>
στη σε</w>
ήτ αv</w>
δ ακ
β άσ
pd f</w>
d ri
1 :
ώρ ος</w>
στ ικ
κίν ημα</w>
ιρ λαν
θεραπ είας</w>
θ ον
εγ γράφ
ψάχν ουμε</w>
παραλ ίγο</w>
outlo ok</w>
ορισ μένοι</w>
αντιμετωπ ίζουν</w>
to p</w>
fire fox</w>
παγκοσ μι
άλογ α</w>
πολ ωνία</w>
παγ ίδα</w>
καλ εσ
φυσ ικής</w>
σύνδε σης</w>
αυ ση</w>
συν αγ
εκτί μηση</w>
αστ ερ
το μη</w>
ηλεκτρον ικό</w>
εντ ύπωση</w>
γ αρία</w>
g al
col le
χέν ρι</w>
οβ ολ
επιρ ροή</w>
ενεργ οποίηση</w>
αναφορ ές</w>
j ec
κατευθ είαν</w>
εφημερ ίδες</w>
ούμ ι</w>
θάλασ σας</w>
εξ οχ
α -</w>
υπηρ ετ
κινδύν ους</w>
συμβ άλλ
αναμ ν
b lu
συμπέρ ασμα</w>
οδήγ ηση</w>
νο ή</w>
επ ίκ
δυνατ ός</w>
έ μεν
περι έχουν</w>
περί οδος</w>
αποκαλ ύψ
οπου δήποτε</w>
εύθ ερα</w>
δ απάν
απ ενεργοποι
αντιμετωπ ίσει</w>
n α</w>
βοηθ ούν</w>
σιωπ ή</w>
μπορ έσει</w>
μερ ών</w>
καταπληκ τικό</w>
ι όν</w>
ευθύν ης</w>
δ ειλ
τηλέφ ωνα</w>
ισ μένες</w>
ηλίθ ιε</w>
σω τηρ
ρόμ περτ</w>
θάρρ ος</w>
γραφ εία</w>
αρχ ίζουν</w>
αλ μα</w>
αγ άγ
ν ατο</w>
g a
καταστ ήματα</w>
καλλιτ εχν
εταιρ ειών</w>
βγ είτε</w>
τορ ες</w>
sk y
lin ux</w>
σύν νεφ
ποι όν</w>
β ίκ
- δε</w>
ελ εύθερα</w>
ολογ ικά</w>
μει ώσει</w>
β άζει</w>
5 7</w>
κό πο</w>
κλείσ ω</w>
ανακαιν ίστηκε</w>
w a
σ ωρ
γαμ ώ</w>
we b
t -
sp a</w>
συστ ατικά</w>
ξεπ ερν
ξεκαθ αρ
έπι ασα</w>
όρ αμα</w>
φ ού
έπαθ ε</w>
μπ ήκ
γίν εσαι</w>
χτυπ ήσει</w>
απο τυπ
ter s</w>
τελ εί</w>
ζ ού
απαιτού νται</w>
ίχν η</w>
ί αρχ
όμ ηση</w>
που λο</w>
ούμεν η</w>
ν το</w>
εύρ εση</w>
κατάφ ερες</w>
καλύ πτει</w>
i b
ει ξη</w>
αέρ ιο</w>
yout ube</w>
- πώς</w>
προσ ώπ
προ κάλεσε</w>
γκ άρ
aυ τό</w>
πλεον έκτημα</w>
κυρι ολ
χ είλ
τραβ ήξ
πρωτ άθλημα</w>
c al
ρ υ</w>
προ μ
πείρ αμα</w>
ερ νετ</w>
γιορ τή</w>
βγ εις</w>
t p
ri st
δουλ έψει</w>
6 2</w>
κρατ άς</w>
σύγχρον ο</w>
στ ιμο</w>
ζ ήσεις</w>
αφ ής</w>
αγόρ ασε</w>
έργ ων</w>
οσ β
θαυ μ
οφ υ
είδ αν</w>
δυν ατο
έμ φαση</w>
vide o</w>
5 4</w>
συναντ ήσεις</w>
συμφων είτε</w>
ρ άφ
ον ής</w>
καρ λ</w>
χειρ ότερη</w>
οδ οντ
κυρι ος</w>
πρό θυμ
ξεχ άσω</w>
δυ ση</w>
τζ ίμ
παρ όντος</w>
γ ων
ακ ά</w>
τηλέφ ων
ασυνήθ ιστ
v o</w>
6 9</w>
σπουδ αία</w>
νησ ιά</w>
μπο λ
κά ν</w>
ειδ ικό</w>
gh t</w>
ερχ όταν</w>
έι κ</w>
9 8</w>
χτύπ ημα</w>
πίστευ ε</w>
κ αγ
sc ho
s am
προ οπ
σκέψ ης</w>
εκτιμ ώ</w>
'εχ εις</w>
φθ ιν
μοι άζουν</w>
π έφ
ιδιαί τερο</w>
βάλ τε</w>
αντι στοιχ
δεκά δες</w>
απ ελπ
00 .000</w>
οικ ο
καταλαβαίν ετε</w>
η τε</w>
φέρ ουμε</w>
οικογεν ειακ
ηλ ι
clu b</w>
c re
σπουδ αίο</w>
νομο θεσία</w>
εζ ου
ε αυτούς</w>
εξηγ εί</w>
ήρ ησης</w>
ap os</w>
κυκλοφορ ία</w>
ι ελ</w>
ho st</w>
ιακ ούς</w>
εξαιρετ ικό</w>
αλ ντ</w>
αγγ είλ
δ ώσετε</w>
x t</w>
πρόλ ηψη</w>
ηλίθ ιο</w>
δικ ιά</w>
γρ απ
βάλ ουν</w>
co mp
τυχ αία</w>
ευ γνώ
εξ ειδικευ
συ ζ
αφ ών</w>
κηδ εία</w>
δικ οί</w>
ανθρω πίνων</w>
στ έγ
προβλ ηματ
πλού σια</w>
οδ ο
ζω γράφ
έλ υ
am er
ωσ ία</w>
καλ έσω</w>
εύ θηκε</w>
α α</w>
ότη σης</w>
μα δρ
γι ου</w>
γ α</w>
g n
de l</w>
πολιτι σμό</w>
ξ υλ
συμβόλ αιο</w>
πληρ ώσω</w>
ξεχ ωρ
κατ ασκ
ολ ε</w>
ακ ο
άν τ</w>
sk y</w>
σχολ ι
παράδεισ ο</w>
δείχν εις</w>
άφ ι
199 0</w>
σκοτ ώνει</w>
μο ρ</w>
ενεργ ειακ
δολ άριο</w>
f u
d an
τηλεφών ησε</w>
μπ είτε</w>
ειδ ικοί</w>
προσωπ ικές</w>
μέθ οδος</w>
βρισκ όταν</w>
βρίσκ εις</w>
αν ή</w>
αδύν ατον</w>
στ ούντ
λογαρι ασμούς</w>
θαλ άσσ
διαμερ ισμάτων</w>
κοστ ίζει</w>
ατ τ
αμ ο</w>
σπουδ ές</w>
επι ταχ
ανοίξ τε</w>
. ....</w>
ωτ ές</w>
χρήσ ιμο</w>
προ οπτική</w>
γο ήτ
στομ άχ
πορτο φ
πί τερ</w>
σκεφτ είς</w>
ευτυχ ισμένος</w>
συντ αξι
κοινοβ ούλιο</w>
επόμεν ος</w>
ε τη
βασ ίζονται</w>
παγκόσμ ιος</w>
μοντ έρνα</w>
αντ αλλαγή</w>
σ ΄
προσ εγγ
έ μπορ
h an
νοι ώθ
ιδρ ύματα</w>
ι ούνιο</w>
s al
σπουδ αστές</w>
σ άς</w>
ρίτσ αρντ</w>
νομ ίζουν</w>
γύ ρισα</w>
απαι τούν</w>
ήγ ηση</w>
c ur
παρακ ολουθεί</w>
βολ α</w>
ακ ύ
άν ος</w>
πληκ τρ
εξυπηρ ετ
αξ ει</w>
τιμ ών</w>
πυρ αύ
πατ ρι
μετ άβαση</w>
πλησι άζει</w>
παπ πούς</w>
μ άντ
ειν ε</w>
γαλλ ική</w>
αξι οποι
σημαντ ικός</w>
μπορ έσουμε</w>
καθ ά
αντι σταθ
αισθάν εται</w>
ρ εύμα</w>
ολόγ οι</w>
απασχόλ ησης</w>
αγ ελ
ai r</w>
8 00</w>
τόν ισε</w>
σού περ</w>
πλήρω μα</w>
μπου μ</w>
6 1</w>
στή ριο</w>
πλ αστ
ολοκληρω θεί</w>
επίτ ευξη</w>
αν γκ</w>
κορυφ αία</w>
επαν άστασης</w>
εκπομπ ή</w>
6 3</w>
τελει ώσω</w>
ουλ α</w>
εξ οικ
pix els</w>
χρή στης</w>
ντ εν</w>
καταφέρ εις</w>
ικ ης</w>
αρ ρω
αίγυπ το</w>
έξ υπ
σύμ βολο</w>
περι θ
ap p</w>
τ υπο
προσ ελκύ
ιστ ήριο</w>
γ -
ψάχν ουν</w>
συναγ ερ
αγ έ</w>
έκφρ αση</w>
έι λ</w>
j am
εργαζ ομένων</w>
ρισ μό</w>
έρθ ετε</w>
b ra
υψηλ ότερο</w>
μαρ τυρ
κλίμακ α</w>
αρχ ής</w>
v a</w>
6 -
εύσ ουμε</w>
ε αυτός</w>
θαλ άσ
γ καλ
έκλει σε</w>
t ran
στάθ μ
πο ινή</w>
παρόμ οιο</w>
σιγ ουρ
οίκ ο</w>
έβλεπ α</w>
συγ κρίν
δύναμ ης</w>
αν ισ
' θελ
σκ όπ
προσ γει
ην ες</w>
επιλογ ής</w>
συμβ ατ
συγκεκρι μένες</w>
σκοτ ώθηκε</w>
ν ου
εχ ουμε</w>
απ εί</w>
βαρκελ ώνη</w>
μιλ άνε</w>
μαγ ν
ιπ π
δώ δεκα</w>
έσ ωσε</w>
οργ ή</w>
δικηγ όρο</w>
ακολούθ ησε</w>
7 7
' ισως</w>
φέρ τε</w>
στ αλ
επηρε άσει</w>
γαλλ ικά</w>
απόρ ρ
re d</w>
9 6</w>
συνεχ ίσουν</w>
ιατρ ικής</w>
αθ λη
πάγ ο</w>
καταφέρ ουμε</w>
ευρ ύ</w>
ανθρώπιν ης</w>
κυκλ οφόρ
βεν ετία</w>
βοηθ ός</w>
π άσχ
διαμαρτ υρ
απ αίσια</w>
ολοκλήρω ση</w>
ολ λανδία</w>
λ άμ
ι ά
άφ ησες</w>
0 1</w>
ωτ ή</w>
φταί ω</w>
ιστοχ ώρος</w>
m es</w>
8 9</w>
3 d</w>
υ κλ
τρ αύ
μ β
λι ος</w>
α ψε</w>
κάτο ικοι</w>
bit co
πράκ τορα</w>
απο δει
έβαλ αν</w>
άμυν ας</w>
τ ικός</w>
συμπεριλαμβανο μένου</w>
καταφ ύγιο</w>
ινδ ον
cen ter</w>
ω ξη</w>
συναρπ αστικό</w>
σαλ όνι</w>
δεχτ εί</w>
γνωστ ός</w>
ρι ς</w>
νεκρ ούς</w>
κατ ώ
βεν εζου
έχ ασες</w>
re s</w>
παρ όλα</w>
μάρτυρ ες</w>
ιτ ζ</w>
διαφορετ ικούς</w>
αφήν ω</w>
ποδήλ ατο</w>
εξ ωγ
εξ ες</w>
εκτ υπ
απίστευ τα</w>
ή χο</w>
ό δι
υπολογιστ ής</w>
κατασκευ ής</w>
φυ τά</w>
εύσ ετε</w>
ασ ήμ
πο λ</w>
νιώθ ει</w>
λευκ ά</w>
δ απαν
ό ποιον</w>
συμπερι φέρ
πίστ εψέ</w>
αδέρφ ια</w>
σκ αρ
κυρ ίου</w>
ζ ώνης</w>
βουν ό</w>
αγαπού ν</w>
δι άσκ
άρ αγε</w>
τ .
μεγάλ ε</w>
αναμν ήσεις</w>
αμφισβ ητ
υπο γραφή</w>
χρον ιάς</w>
κρ ατη
αγ χ
ευτ ή</w>
αν τα</w>
b or
b en
συνέπ εια</w>
συν αλλαγές</w>
ούμ αστε</w>
κρεβ ατ
κούκλ α</w>
ωρι σ
σύζυγ ο</w>
σκ ιά</w>
καρδι άς</w>
ει χ
ανώ τερ
έν οπλ
ψηφ ιακή</w>
υιο θετ
ν ους</w>
επαγγελματ ικό</w>
ίσ σ
φ ον
σταματ ήσουν</w>
στέλν ει</w>
οδ υν
μετανάστ ες</w>
χάρ της</w>
διατ ίθ
ανησυχ ία</w>
αναπτύ ξει</w>
αί τημα</w>
ρω μ
πήγ αινα</w>
ρίξ ουμε</w>
ρί ξε</w>
π έν
ξεκίν ησαν</w>
μεγέθ ους</w>
κ ς</w>
ρ όλος</w>
αυλ ή</w>
n as
δι αρ
απ έκ
αμοιβ ή</w>
υποβρ ύχ
β ι</w>
' φ
οδηγ ό</w>
εστιατ όρια</w>
αύ γου
ακολουθ ούν</w>
άσ κο
s w
c at
μπουκ άλι</w>
ειδ ικός</w>
δημοσιογράφ ος</w>
βαθμ ούς</w>
όπι ν</w>
ί ους</w>
χά θηκε</w>
κακ ά</w>
θέ τηση</w>
πεθάν ουν</w>
κάρ τες</w>
ευχαριστ ήσω</w>
ετο ί</w>
φτι άξει</w>
ν τι</w>
κατ όπιν</w>
γλ ύ
τσ εχ
συνέβ αινε</w>
π ω
κόλ λ
ηλεκτρ ικό</w>
ά γρια</w>
p u
πρωθ υπουργός</w>
ν αβ
εξελ ίξεις</w>
άγ γι
w est</w>
συνολ ική</w>
ic k
ho l
d or
ρ ες</w>
παντρ ευτεί</w>
λιγ ότερα</w>
διάδ ρομ
πρώ της</w>
εκπρόσω πος</w>
χαρακτ ήρες</w>
ομ αλ
οδηγ ούν</w>
μ εμον
κατάλογ ο</w>
βοηθ ήστε</w>
παίξ εις</w>
κομ ψ
ικ ότητά</w>
πτ ώματα</w>
αυξ ήσει</w>
1 20</w>
- πού</w>
συμφέρ οντα</w>
κατ αχωρ
καλ ω
- εντάξει</w>
ων ες</w>
φλ ωρ
περ πά
καταφέρ αμε</w>
κ αστ
εξ αλ
s ant
n a
χριστ ου
δεξ ί</w>
10 .
στρ οφ
στείλ ετε</w>
ομ οφυλ
διαβ ατ
βρ αδι
αντι λαμβάν
ne y</w>
μεταφέρ ει</w>
εμπορ ευ
ήσυχ α</w>
m p</w>
φροντ ίσω</w>
μυ στηρι
κεντρ ικά</w>
θ ησαν</w>
εξωγ ή
γλυκ έ</w>
άφ ησέ</w>
στούντ ιο</w>
αφ ήσετε</w>
v el
πλ ημ
κρατ ήστε</w>
καθηγ ητές</w>
ετ η</w>
εκδηλ ώσεις</w>
βάλ ετε</w>
t ur
τρ ως</w>
ούμεν ο</w>
καναδ άς</w>
καθ ίστε</w>
διακ ά</w>
βάρ κα</w>
σ πο
πληθυσ μός</w>
f a
περ άσουν</w>
εμ βολ
β αν</w>
αρ μον
ά πλ
f l
αρι ών</w>
ανησυχ εί</w>
1 000</w>
χ υ
φιλ ί</w>
συν οδ
η. π.
δο μές</w>
νοι άζεται</w>
μη μα</w>
μετ άδ
ζη τούν</w>
επεξ εργασίας</w>
απο γοήτ
αληθιν ός</w>
έπο νται</w>
7 -
τόμ ας</w>
μεν ος</w>
βοήθ ειας</w>
σεπτ έμβριο</w>
κουν ήσου</w>
εννο ούσα</w>
τηλεφων ήσω</w>
σ πατ
έφυγ α</w>
έρ ων</w>
φ όνο</w>
υπο θέσ
β ικ
ir e</w>
κα θ</w>
κάλ υψη</w>
ζημ ιά</w>
ενδιαφέρ ουσα</w>
άξ αμε</w>
εξαφαν ιστεί</w>
διαφήμ ιση</w>
ακ ρο
'χ ει</w>
ύ λες</w>
τοπ ικό</w>
εξαίρ εση</w>
εκπληκ τικό</w>
απ ευθύν
2 50</w>
στήρι ξη</w>
εκ ει</w>
αστ ικός</w>
έλ λες</w>
m it
φων ές</w>
προειδ οποίηση</w>
παίρν ουμε</w>
ομ πάμα</w>
λ ά</w>
ισσ ες</w>
s an
m en
τζ ι</w>
ευχάρι στη</w>
διακ ρι
αναμ εν
go l
σ ώσω</w>
πρωτ εΐ
ιδιοκτ ήτης</w>
εξ ω
αρχ ικό</w>
αμ εν
κουβ έντα</w>
διαχ ειρ
διάβ ολο</w>
χ ων</w>
μα ξ
απειλ ές</w>
χρησιμοποι ήσω</w>
φυσιολογ ικό</w>
φορ άει</w>
εισιτ ήρια</w>
τό πος</w>
επεισ όδιο</w>
9 3</w>
περιστ ατικό</w>
ιδιοκτησ ίας</w>
διαγρ αφή</w>
έδ ες</w>
po w
όχ λ
εγ κατέλ
αισθάν ονται</w>
α .</w>
fo r</w>
τ άν
σ αγ
ιστορ ική</w>
η στ
200 1</w>
φρ άση</w>
βρίσκ ει</w>
αριστ ερό</w>
g lo
ώ δεις</w>
εξ ουσι
άκ ουγ
κορ οϊ
διατ αγές</w>
ut h</w>
χαρούμεν η</w>
μνήμ ης</w>
μ οί</w>
γαλλ ίας</w>
βέβ αιος</w>
έμειν αν</w>
f f</w>
σίγουρ οι</w>
ιμ ων</w>
δό ση</w>
g r</w>
μπού με</w>
κάθ εται</w>
ζάχαρ η</w>
διαβ άζω</w>
γρ ί
τσιγ άρο</w>
τ όνι</w>
πού τιν</w>
μετ ανι
λαχ αν
κιν η
θ ο</w>
δ αγκ
αν άμ
χρει αστείς</w>
χ ής</w>
φιλ οδοξ
δείξ ουμε</w>
ic k</w>
τρομ οκρά
μερ ίδιο</w>
κλ ον
κ η
διευ κολ
έρ ωτ
i os</w>
κρά τησε</w>
αλλ ο</w>
χρ ημάτων</w>
ερ ωτη
δι άθ
i z
τρ όμ
συγκέντ ρωση</w>
πακ ιστάν</w>
κρ ου
θέ τει</w>
ανδρ ών</w>
λειτουργ ικό</w>
αριστ ερ
ma p</w>
σειρ άς</w>
δ ίσκο</w>
γ- στ</w>
βρίσκ εσαι</w>
μετ ακόμ
καν όνας</w>
είσ αστε</w>
βιετ ν
άμ υνα</w>
c ro
πλ υντ
οσ ης</w>
χρησιμοποι ήστε</w>
μάρ τιν</w>
βι ρ
συμφων ίες</w>
λ εξ
επικίνδυν η</w>
ελεύθερ οι</w>
ί ζ</w>
συγγεν είς</w>
εγγύ ηση</w>
γρήγορ ο</w>
αποστολ ής</w>
αιν αν</w>
t ru
ac tion
σχετ ίζεται</w>
πυρ οσβ
διακ όσ
α στηρίου</w>
μπορ έσω</w>
μπατ αρ
ευ μένη</w>
8 7</w>
φαρμά κων</w>
κατάθλι ψη</w>
δυσκολ ίες</w>
δ ους</w>
έμαθ ες</w>
χαμόγ ελο</w>
χάπ ια</w>
υποστηρ ικ
χρησιμοποι ηθούν</w>
προσ φορές</w>
γν ωριστ
ακ ής</w>
ευρωπαϊκ ές</w>
εντυπωσ ιακό</w>
k ar
ιμ ον</w>
άσχ ημη</w>
9 -
σκέφ τονται</w>
κατ ι</w>
ε τούς</w>
δυναμ ικό</w>
πολιτισμ ού</w>
παραδείγ ματα</w>
πάν ια</w>
κ ηρ
ε τησ
h d</w>
9 1</w>
προτερ αιότητα</w>
προ β
γν ώσης</w>
m ε</w>
χώρ ου</w>
περιφερ ειακ
ντ άνι</w>
ιστ ικού</w>
φωτ ός</w>
νεαρ ός</w>
καταλ ήξ
ε ών</w>
ψυχ αγωγ
παλ άτι</w>
νοικ οκ
εντυπωσ ι
δρ άκ
ψήφ ισμα</w>
l en
8 6</w>
εφ οδι
έβαλ ες</w>
κτί ρια</w>
βλ έμμα</w>
αριθμ οί</w>
τρ υπ
σταθ ερά</w>
φλωρ εντ
τι στ
ιρ λανδία</w>
δυ να</w>
re si
υγ ει
πληθυσ μό</w>
καταπ ι
ητ εία</w>
β άζω</w>
έμ ματα</w>
8 8</w>
στ ενά</w>
σό ου</w>
σι μα</w>
ro y
1 .000</w>
στ ήλ
πι άτα</w>
μεσ ημέρ
μα κ</w>
καταλαβ αίνει</w>
καλύτερ οι</w>
διαφημ ίσεις</w>
ένιω θα</w>
9 2</w>
φτι άξουμε</w>
υπο ύ
π υκ
αντ άλλ
μη χάν
μ ος</w>
βάλλ ει</w>
φυλ άκ
σκ όνη</w>
πει θ
ντ αμ</w>
ησ ίες</w>
όμορφ ος</w>
σκ ορ
κατά θεση</w>
έλαβ α</w>
έ γραφ
b b
καθημερ ιν
x i
p er</w>
συζ ύγ
σκ αν
πρ ι
μιλ ώντας</w>
κατάφ ερα</w>
θ ά</w>
υ θρ
ειμ μα</w>
εί ν</w>
desig n</w>
χαμηλ ή</w>
ξεχ άσεις</w>
ε α</w>
αμ υντ
άγ ματος</w>
- είσαι</w>
τυχ όν</w>
πνευματ ική</w>
λ υ</w>
γενν αι
ήλ θ
πέ τα</w>
κρατ ήσου</w>
ανακάλ υψη</w>
αμαρτ ία</w>
του ριστ
πι άσε</w>
περιήγ ησης</w>
μυρω διά</w>
μο να</w>
ανατολ ικά</w>
τμή ματος</w>
τηλέφων ό</w>
προ χώρα</w>
μ οχ
ι ούλιο</w>
δαν ει
από φοι
αν άσα</w>
' κ
κάπν ισμα</w>
επιτρ έψτε</w>
εκ δήλωση</w>
δημόσ ιας</w>
αντιπροσωπ εύει</w>
li ve</w>
for d</w>
ταμ είο</w>
αγ καλι
φιλ ιπ
φήμ ες</w>
συμ βι
επ άγγελ
απ έρ
προϋπο θέσεις</w>
οπ ές</w>
α πολογ
τ έξ
κωνστ αντι
κυνήγ ι</w>
διασκεδ αστικό</w>
α επ</w>
έλ ικ
παραγγελ ία</w>
απο μον
μεσημέρ ι</w>
εργασ ιών</w>
στ άλ
οκ έφαλ
αν σ
ακαδημ ία</w>
αγαπ ητέ</w>
τομέ ας</w>
ρι ν</w>
προσ ω
li n</w>
φ άγ
μετοχ ές</w>
καθιστ ά</w>
δημιουργ ήσουν</w>
7 6</w>
φ εστι
πρώ τοι</w>
μέτρ ο</w>
δ ι</w>
vo l
τού σαν</w>
ταξ ιν
πολύ πλοκ
μοναδ ικός</w>
καλ άθ
δημιουργ ίας</w>
k αλ
χά ου
καταλάβ ουν</w>
p an
πυρ καγ
παρακολουθ ούν</w>
ούργ ο</w>
ολο ένα</w>
μονοπά τι</w>
ευ μένο</w>
διάφορ ους</w>
br and
όν ου</w>
ρώσ οι</w>
ολόγ ησης</w>
μ ικ
κλιν ική</w>
καλ ύπ
ίντ ερνετ</w>
f a</w>
μάρ τιο</w>
ευτ ικά</w>
9 0
τυπ ο</w>
μά ιο</w>
ιδι ότητες</w>
ελπ ίζουμε</w>
απο ζημ
κου τ
εργαζ όμενοι</w>
εξ υπν
τζ έσ
δ ας</w>
dv d</w>
τρι άντα</w>
ρω σης</w>
έκλ εψε</w>
μυ στήριο</w>
λαμ πρ
καλ αμ
επισκ ευ
ει ς
b on
κλ ίν
επισκεφ θείτε</w>
επισ ήμ
χάν εις</w>
σχεδι άζει</w>
ποικ ίλ
επιχείρ ησης</w>
μυρ ίζει</w>
κλ π</w>
st a</w>
παρουσι άζει</w>
ι έ</w>
χ ασ
τελεί ωσα</w>
δεξ αμεν
αναπ νέ
συνεχ ίζεται</w>
προσ ευχή</w>
κολ υμπ
ω ρα</w>
ού λ</w>
μικρ ότερο</w>
επιστρ έψουμε</w>
έψ αμε</w>
ύτερ ο</w>
σ φι
προσώ που</w>
μ οσ
καλύτερ ους</w>
ευ φυ
δεί γμα</w>
κλ ήσεις</w>
ελβ ετ
αξιο πρέπ
τέξ ας</w>
μ αστε</w>
εξακολουθ ούν</w>
βιετν άμ</w>
da vi
σοκολ άτα</w>
επαν α
αισθ ήσεις</w>
all action
τζ ιν</w>
περιλαμβάν ονται</w>
ξ οδεύ
επιτ ευχθεί</w>
δι ασχ
st ar</w>
μερ ιά</w>
εχθρ ό</w>
ύρ ες</w>
ζωνταν ά</w>
ίστ αται</w>
έφ ηβ
ά -
ώ σου</w>
υν θεί</w>
τέρ μα</w>
λονδίν ου</w>
t re
allaction host</w>
​ ​
ζή τησης</w>
εγκατέλ ει
ήσ ης</w>
aven ue</w>
γύρ ο</w>
σ ολ
μει ωθεί</w>
ενοικι αζ
8 -
εκ τύπ
γεν ικές</w>
γαμ ημένη</w>
παρόμ οι
βι έν
ατ όμου</w>
αν οι
τοπ ικές</w>
τζ έι</w>
άν ετο</w>
5 .000</w>
υπο ψηφ
προτείν ω</w>
μπο λ</w>
κουν ηθείτε</w>
κιν ητά</w>
κ ια</w>
απερ ι
gro up</w>
πεκ ίνο</w>
εβρ αϊκ
διαζ ύγιο</w>
γνωρ ίσω</w>
vi a</w>
μο ίρ
θυμά ται</w>
έ πλ
στρ αμ
καταλάβ ουμε</w>
ευ αν</w>
εκπομπ ές</w>
ήρ ων</w>
τράπεζ ας</w>
προετοιμ ασία</w>
πλήρ ες</w>
βοηθ ήσετε</w>
ευ έλικ
δ άκρ
απ αλ
έγ ερ
πράγ ματά</w>
ge or
χ ωριστ
το ί</w>
τ άσεις</w>
αυξ ήθηκε</w>
σιγκαπούρ η</w>
σημερ ιν
σ έξι</w>
πρίγκι πας</w>
πεθάν ουμε</w>
θε ν</w>
7 1</w>
στρ οφή</w>
ετησ ίως</w>
su per
στ ας</w>
κ τι
εχθρ ούς</w>
δι οργαν
γραμ ματο
άγνω στο</w>
εξ απλ
to r</w>
9 7</w>
φραν σ
τοποί ηση</w>
αμ ά</w>
gr and</w>
σχεδ ίου</w>
ρύ παν
προσπαθ ήσουμε</w>
ματ ικά</w>
αγαπ ητή</w>
ωρ αίος</w>
χτυπ άει</w>
πτ ήσεις</w>
καρ φ
έμοι αζε</w>
ο τε</w>
μπου ν</w>
μη δεν
δημιουργ ούν</w>
8 2</w>
μισ ά</w>
μεγάλ ου</w>
αρχηγ έ</w>
αρχ αία</w>
7 0
όλ ης</w>
χρέ ιν</w>
οποί ου</w>
νότι ας</w>
γ ηση</w>
απαγορ εύεται</w>
scho ol</w>
m s
συνεχ ίζουν</w>
στ έ
μη δέν</w>
ακούσ ετε</w>
ά γιος</w>
χι όνι</w>
εθν ικ
ne xt</w>
τρι το
παραμ ύθ
κ ους</w>
απο σύρ
έσ ο</w>
υγει ονομ
περ άστε</w>
ζ ούσε</w>
αναπτύ ξουν</w>
αίν εται</w>
ί ωσης</w>
τρομακτ ικό</w>
σ κατ
προσ έξτε</w>
πά τερ</w>
γλυκ ά</w>
αποθήκ ευσης</w>
pro jec
: 0
υσ ή</w>
μα το</w>
κρατ άω</w>
γλ υ
ντ ά
κατοίκ ους</w>
δευτερόλεπ το</w>
αι ώνες</w>
φεστι βάλ</w>
λ αγ
κιβώ τιο</w>
ενν ιά</w>
αν εμ
αγορ άσω</w>
αγορ άσετε</w>
ήν η</w>
βάλλ ω</w>
ανά γνωση</w>
άι τ</w>
εφαρμογ ών</w>
βρ η</w>
βεβαι ωθείτε</w>
φακ έλ
έζ ησε</w>
ικ ή
an o</w>
σ εν</w>
ρ επ
ο φ</w>
μπα χρέιν</w>
θαλάσ σι
γελο ίο</w>
at a</w>
περι ουσία</w>
ξεκιν άει</w>
δ o
έξ οδα</w>
σ φραγ
μηχάν ημα</w>
μ ι</w>
ιαν ό</w>
διάλ ειμμα</w>
δ έκ
βρυξ έλλες</w>
ήρω ες</w>
ama z
10 .000</w>
χ ό
υν ε</w>
ανταπο κρίν
έλ ια</w>
k a
προσφέρ οντας</w>
λειτουργ ήσει</w>
δί χ
αρχιτεκτον ικής</w>
αεροσκά φη</w>
y s</w>
e- mail</w>
συναντ ήσει</w>
γου ίλ</w>
ασμ οί</w>
ωκε ανό</w>
πανδοχ εία</w>
δήμ αρχος</w>
in s</w>
8 1</w>
προσδοκ ίες</w>
ουσ ίες</w>
μην ύ
λ εμ
δούλ ευε</w>
αυγ ή</w>
χώρ ους</w>
φορ τίο</w>
τησ έ</w>
π ικ
καναπ έ</w>
καλλιτέχ νης</w>
διαφ θορ
αγαπ άμε</w>
συλ λ
γι ό</w>
α όρ
έγι να</w>
έβ ρισκ
σκηνο θέ
ν όσ
κυριολ εκτικά</w>
ψ αλ
πρόσ θετα</w>
οποι οσ
ον ό
λι οντ
απατ ε
χ αθ
ν ερ</w>
ν αύ
θ ηρ
ευ αισθ
δί κλινο</w>
αναστ ατ
παν τα</w>
μπ όν
μίσ ος</w>
κωνσταντι νού
κυκλοφορ ίας</w>
κρυπτο γράφ
έκ ριν
ch e
φιλ ανθρωπ
ξεχωριστ ό</w>
διευθυντ ή</w>
αμβ αν
st o
c y</w>
χριστου γεννι
φτερ ά</w>
συγ χ
ίσ αι</w>
lou d</w>
περί φ
οικογεν ειακή</w>
ιδ α</w>
επ είγ
δέσμ ευση</w>
αστ ών</w>
απ άτη</w>
ac c
συνείδ ηση</w>
ξεχν άς</w>
αρ σεν
απομακρ ύν
φιλαρ άκο</w>
σ' αυτό</w>
π η
ου σας</w>
βιβλ ίου</w>
φ αίρ
προ βολ
μπερ δε
ματ η</w>
ι μπ
χ άμ
φ α</w>
παρακολούθ ησης</w>
μ εσα</w>
ψ τε</w>
ταιν ίας</w>
προοπ τικές</w>
πιστ έψεις</w>
εξηγ ήσεις</w>
στ ί
ου λ</w>
καθ ορισ
δρ απ
ήξ εραν</w>
υπνοδ ωμά
πά v
οπ ωλ
ει ος</w>
δι ερευν
συνεχ ή</w>
στόχ οι</w>
β ο</w>
αλληλ επιδρ
στρατιώ της</w>
στομάχ ι</w>
κερδ ίζει</w>
επίλ υση</w>
δικαί ου</w>
βαρ ιά</w>
ανακάλ υψε</w>
αν αχ
- γεια</w>
υπόλοιπ η</w>
ενοχλ εί</w>
διαθέσ ιμες</w>
τρ έλα</w>
στα διακά</w>
μάσ κα</w>
ιρ αν
επιστήμ ες</w>
εκρ ηκ
ει ψη</w>
έβγαλ ε</w>
7 7</w>
ον αύ
e ίσαι</w>
3- αστέρων</w>
μ εν</w>
εβρ αίοι</w>
στραβ ά</w>
σπ ηλ
θ είο</w>
εν δι
σου η
πι έζ
γ άτες</w>
έσ οδα</w>
e le
μακ ριν
ιμ ης</w>
βρ ε</w>
όγ ου</w>
μιλ ούσε</w>
λε ϊ</w>
υπήρ ξαν</w>
παραμ είν
επιθυμ ούν</w>
σήμ αινε</w>
ον ας</w>
θε ώρ
εν όχλ
γράψ εις</w>
u t</w>
τζ άκ
πληρω μή</w>
αφ ές</w>
πολ ύς</w>
λή ψεις</w>
φόρ ος</w>
υπόγ ειο</w>
προηγούμεν ες</w>
νεαρ ή</w>
vi r
τρ ελά
πιστ εί</w>
οχ τώ</w>
καταφέρ ω</w>
δαπάν ες</w>
όν ιο</w>
ναυτ ικό</w>
ν ερά</w>
εφ ικ
εκ κίνηση</w>
έσ β
έντ αση</w>
τόν ους</w>
νομ ίσματα</w>
θελ εις</w>
p c</w>
in c
πρό β
πρωτό κολ
έν ις</w>
resi den
σκοτ ώθηκαν</w>
ρ έι
προ φυλ
κανον ική</w>
καν εις</w>
επαφ ές</w>
ανεξαρτησ ία</w>
αμερικαν ούς</w>
τζ ούλ
προσπαθ ώντας</w>
προσαρμ οσ
π ι</w>
καλ υ
man ag
πρωτεύ ουσα</w>
κοιν ότητες</w>
ι εχ
η ξ
όρ φωση</w>
τηλεφών ημα</w>
σ αχ
πρωτ αγων
λιβ ύ
έφ ευγ
εμπειρ ίας</w>
δρ ο
από κρι
ανατ ιν
σπ ιτ
προστατ εύει</w>
μπάτσ οι</w>
επέν δυση</w>
αναφέρ ουν</w>
σκεφ τούμε</w>
οποιοσ δήποτε</w>
ν εύ
άκ ης</w>
ρ οφ
οκτώ βριο</w>
ανησυχ ίες</w>
συν θήκη</w>
οικονομ ίες</w>
εγκλ ήματα</w>
έκτακ της</w>
έγκ ριση</w>
πληρ ώνει</w>
η ρωτ
αρν ήθηκε</w>
ανθρωπ ότητας</w>
d -
κατάλογ ος</w>
ζ έστη</w>
επιθυμ είτε</w>
εκκλησ ίας</w>
διατ αγή</w>
δέχ ομαι</w>
αυστρ ία</w>
λ ετ
η.π. α</w>
αι ώνια</w>
κύ π
δαν ία</w>
δίπλ ωμα</w>
δ ντ</w>
άλλ ως</w>
πή δ
μέγιστ η</w>
ει τε</w>
διά γραμμα</w>
στρατηγ ός</w>
σκότ ωσαν</w>
παρ ισ
οργάν ωσης</w>
διαφ άν
αναδ υ
φαν εί</w>
συν αλλαγών</w>
τισ μό</w>
μ ό
κυκλοφόρ ησε</w>
εταιρ ίες</w>
άλ ει</w>
ποικ ιλ
k i</w>
στελ έχ
λοι πον</w>
επιχειρηματ ικό</w>
ber t</w>
χά ος</w>
συν αυλ
ποσοστ ά</w>
πορτο γ
πλήρω σε</w>
αυτοκίν ητό</w>
g a</w>
χρησιμοποι ήσουν</w>
πιθαν ή</w>
ζητ άω</w>
αντ ανακ
µ ε</w>
πλ άσμα</w>
γλ ιτ
βομ βαρ
' σένα</w>
σημει ωθεί</w>
κοιμ ηθείς</w>
ζητ άς</w>
7 8</w>
τού ρα</w>
μιλ άνο</w>
δεχτ ώ</w>
τ έ
περίεργ α</w>
απασχολ ημένος</w>
σοβαρ ές</w>
κρ ο
αντ ες</w>
έλ ευσης</w>
σύν τομη</w>
ν αν
είσ οδος</w>
7 00</w>
χριστουγεννι άτ
στ ρα</w>
ι -
εξαφ άν
bitco in</w>
σ' αγαπώ</w>
παρ απ
τρέχ ουσα</w>
κ οι</w>
bi t</w>
χριστ ό</w>
σχολ είου</w>
σ μι
πρόσ κληση</w>
η μένους</w>
δουλ εύουμε</w>
αφ αίρεση</w>
φρού τα</w>
κάθ εσαι</w>
ιδαν ικό</w>
εγ κ</w>
γερμαν ικά</w>
9 4</w>
χωρ ητ
σημεί ωσε</w>
περι όδου</w>
ικ ετ
ουν ε</w>
ενδεχ ο
δεκ έμβριο</w>
δ ώσ
απο δείχ
αγαπ ά</w>
ber g</w>
υπο δοχή</w>
πλυντ ήριο</w>
δίν ουμε</w>
δ ασ
αφ έντ
απολαύ σετε</w>
άκ η</w>
σχετ ική</w>
συμβ ούλ
μεταπτυχ ιακό</w>
ερωτ ήματα</w>
αρραβ ωνι
n o</w>
στρατηγ έ</w>
ου τ
μαζ ικής</w>
ισ ή</w>
εισ όδ
δεί γ
studi os</w>
smar tp
χρει άστηκε</w>
προκαλ ούν</w>
η φάν
επηρε άζουν</w>
αναβ άθ
ου ίσ
ξεχωριστ ή</w>
καν όνα</w>
ευ άλ
διακυβ έρν
απο θήκη</w>
ρ ατσ
δηλ ώσεις</w>
αγαπού σε</w>
έφτι αξα</w>
έρωτ ας</w>
σκά φη</w>
βάρ ους</w>
β άσης</w>
n at
οδήγ ησης</w>
μπ έν
κέρ δος</w>
επενδύ σεων</w>
επ έτ
γεν ιάς</w>
έξ οδος</w>
i an</w>
υπνοδωμά τιο</w>
τσέπ η</w>
ξέχ ασες</w>
ετήσ ια</w>
εισάγ ετε</w>
δοκ ίμασε</w>
το '
ταξ ί
σάρ ων</w>
ρε αλ
προχωρ ήσουμε</w>
ημ ουν</w>
αγκαλ ιά</w>
έρ ημο</w>
υψηλ ά</w>
σ αλ</w>
μ αρι
αλυσ ίδα</w>
ενδεχο μένως</w>
πωλ ήσεων</w>
παρ εμπ
εφαρμ όσ
ευ θεί</w>
άσ ο</w>
γκρου ση</w>
αφ ι
roo m</w>
σύ γκρουση</w>
συγκ ιν
προ πόν
επ ι</w>
γεν ικό</w>
απο χωρ
ακολουθ ήσει</w>
έδει ξαν</w>
in i</w>
d r
5 ,
νο έμβριο</w>
κίνη τρο</w>
παρουσ ίαση</w>
παγ ι
μπόρ εσα</w>
ικ ου</w>
o t</w>
colle ge</w>
υχ τα</w>
καλ ώ
θε μάτων</w>
ανο ησίες</w>
mb a</w>
8 4</w>
3 65</w>
ιεχ ωβ
επ ιν
ενδιαφέρ ονται</w>
εθν ικές</w>
ακ ούμε</w>
φόρ μα</w>
τζέ ιν</w>
επο πτ
γι απ
βόρ ειας</w>
βουν ά</w>
φύλ ακας</w>
τιμωρ ία</w>
σχεδι ασμός</w>
συνομιλ ίες</w>
στρατό πεδο</w>
σκληρ ός</w>
κ ιμ
ατού ν</w>
αιγ υπ
ριζ ε</w>
σταθερ ότητα</w>
β έγκ
αλλ ά
πιστοποι ητικό</w>
καλλιτέχ νες</w>
ν αζ
αυτ όνομ
συν εδρ
εκ μετάλλ
β αρι
υπερ άσ
σ' ευχαριστώ</w>
κινέζ οι</w>
αθ ην
φαντ αστικό</w>
τζίμ ι</w>
σιωπ ηλ
f ar
τριτο βάθ
συγγραφ είς</w>
πραγματοποι ήθηκε</w>
καρ χαρ
δυ τικά</w>
αναγν ωρισ
όφ ελος</w>
τ αυτο
- με</w>
ω τη</w>
ζητ ά</w>
ενεργ ό</w>
δοκιμά στε</w>
έντον η</w>
πετ υχ
ον το
θε ος</w>
αη δι
ϊκ ή</w>
φύλ ακα</w>
τύπ ων</w>
τελ ετή</w>
μπ ίλι</w>
κύπ ελλ
κρατ ήσουμε</w>
εφ ευρ
βι ντε
s ar
mar k
χ ιλ
τσ εκ
χριστιαν οί</w>
οπ ωσ
είδ ηση</w>
βρεταν ική</w>
ρ ίσκο</w>
ηλεκτρ ική</w>
διδασκαλ ίας</w>
s o</w>
φρανσ ίσκο</w>
τζ όρ
καρδι ές</w>
ζηλ αν
ma t
7 9</w>
τρώ ω</w>
κτ ήριο</w>
κρ ού
απο υσ
le t</w>
υπο χωρ
προσπαθ ήσει</w>
πλούσι ος</w>
ν άν
δι άν
αν ί
έβλεπ ε</w>
μετρ άει</w>
κινεζ ική</w>
αυτ όμ
άμεσ ά</w>
τυχ ερή</w>
σ εντ
παράγ ουν</w>
λόγ ου</w>
199 9</w>
χαμηλ ό</w>
χ άσετε</w>
προηγου μένως</w>
οκ ίν
απαντ ήσει</w>
w at
φ ο</w>
καλωσορ ίζει</w>
ισχύ ος</w>
ανακ τ
έζ α</w>
χρέ ους</w>
φθιν όπ
υπεύθυν η</w>
τετρ άγ
σκεφτ όμαστε</w>
περν άς</w>
νη στ
λίγ οι</w>
θηλ υκ
l s</w>
ραδι όφωνο</w>
οπ αθ
μοι άζεις</w>
κλιματ ισμό</w>
ιεχωβ ά</w>
ελικόπ τερο</w>
εγκέφαλ ος</w>
αδελφ έ</w>
φ άτε</w>
από κ
απ' τη</w>
ωμ ά</w>
σ καλ
σ έ
οικογεν ειακό</w>
μα τ</w>
μά τι
ερ υθρ
διαπραγματ εύσεις</w>
αντάλλ αγμα</w>
ΐ α</w>
καύ σιμα</w>
βο στ
αστυνομ ικό</w>
ή χος</w>
μηχαν ική</w>
μέτρ ηση</w>
κυρ ώσεις</w>
καφ ές</w>
κατο χή</w>
θυμη θείτε</w>
ελέγξ τε</w>
γράφ εις</w>
ων αν</w>
πι άσω</w>
μπάτσ ος</w>
κρύβ εται</w>
εταιρ ίας</w>
δω σε</w>
ατο ι</w>
αποστολ ές</w>
αγορ ών</w>
ούμεν ος</w>
ξέν ους</w>
ιζ όταν</w>
επ αρχ
εν δείξεις</w>
ε πρόκει
β άσεις</w>
αζ όταν</w>
ύπν ος</w>
σύλλη ψη</w>
μήν ας</w>
κατάρ ρ
κατ ακτ
ευ όμαστε</w>
απο σκευ
τηλεφών ου</w>
ξεφύγ ει</w>
ενεργ ά</w>
δημιουργ ηθεί</w>
βασιλ είου</w>
m es
ό ι</w>
τιμ ής</w>
τζ έν
ολόγ ητα</w>
ογ γ
αστυνομ ικοί</w>
αιν ες</w>
b s</w>
πολιτ ικοί</w>
πι ούμε</w>
μ αργ
δι όρθ
ανανε ώσ
o χι</w>
τρέξ ε</w>
απ αίσιο</w>
αναλ υ
α ς
προσπαθ ούσα</w>
νοικ ι
θ αρρ
διαβ άσω</w>
διαβ άζεις</w>
g ra
ογραφ ίας</w>
διαβ εβαι
αντ ζ
συν αδέλφ
ν τα</w>
μ όντ
κ τη
ει γ
ε ζ</w>
χάν ουν</w>
πανεπιστημ ιού
διαφ όρων</w>
γερ ουσι
άξ ε</w>
άλ ας</w>
πόρ νη</w>
καμ π
επρόκει το</w>
εισόδ ημα</w>
ε υ</w>
δυναμ ική</w>
ό ποια</w>
ριζ α</w>
παρ αγ
μόδ ας</w>
μικρ ότερη</w>
ιδρ υτ
απο καταστ
πρό θεση</w>
ευθ υν
αν άμεσά</w>
ουρ ά</w>
ηλ ίκ
εκστρατ εία</w>
διαρκ ώς</w>
δι άρ
σκέφ τηκε</w>
πι άσουμε</w>
ιστότο πο</w>
θέρ ετ
η ψης</w>
ser ver</w>
φορ είς</w>
παρατ ήρ
λάβ ουμε</w>
δι άκ
l i</w>
χ άσουμε</w>
φ ημ
ναυτ ιλ
μυστ ική</w>
λ ας</w>
κρυ φτ
'χ ω</w>
αφ οσ
λαν τ</w>
βι οτ
άλ μπουμ</w>
8 3</w>
πέρ σι</w>
ο -</w>
μπερ γκ</w>
ch an
τζ αμ
el d</w>
' ενα</w>
όρ ι</w>
οπωσ δήποτε</w>
ζ ήσουν</w>
γνώριζ ε</w>
αξιωματού χοι</w>
qu e
ω δ
σ ίν
πραγματοποι ηθεί</w>
πίν ακας</w>
ευρ έως</w>
αυτοκρατορ ία</w>
ασθεν ών</w>
φτάν ουν</w>
τ ός</w>
εκτ ετα
δραστηρι οτήτων</w>
αποφάσ εων</w>
ά θηκε</w>
t ag
' δώ</w>
χρει αστείτε</w>
ρ αβ
κομ ματ
καυ σ
επιλέξ ει</w>
επικίν δυνα</w>
εμπ όδια</w>
απίθαν ο</w>
po st</w>
on s</w>
όρ γαν
παρ έχουμε</w>
μεθυσ μένος</w>
κόπ ηση</w>
β ορρ
αντίκ τυπο</w>
αισθ ητ
αδέλφ ια</w>
ίζ ες</w>
g s</w>
κι μ</w>
κατάλληλ α</w>
ε αυτού</w>
δύσκολ ες</w>
w n
τί γρ
απελευθέρ ωση</w>
si te
υψηλ ού</w>
πορτοφ όλι</w>
να ό</w>
μπ ισ
ι ον</w>
άγγελ ος</w>
εμπορ ικές</w>
γιαπ ων
γ ώ</w>
ακούσ ατε</w>
αερ οδρομ
αδ ει
άρρω στη</w>
ψ ετε</w>
εργαλ είων</w>
m er</w>
περ άσετε</w>
κουρ ασμένος</w>
θαν ατη
απρίλ ιο</w>
o d
mail .com</w>
πραγ μάτων</w>
πουλ ιά</w>
ξεκιν άμε</w>
κινητ ήρα</w>
ι ουδ
αγγλ ική</w>
στ αρ</w>
σκ ουλ
σ ακού
πρόσ εξε</w>
μην υμάτων</w>
ασθεν ή</w>
ύψ ους</w>
φθινόπ ωρο</w>
σχ ε
πι ό</w>
θήκ ης</w>
ασχ ηματ
5 g</w>
δηλη τηρι
γου ά
' ετσι</w>
ψ ία</w>
πυ ρ</w>
πολύ τι
ποι οτ
περ άσαμε</w>
ξεκιν ήσετε</w>
ήρ ου</w>
άγ εται</w>
π ήτ
κορ έας</w>
κληρονομ ιά</w>
κάν το</w>
σ ώσεις</w>
σ έ</w>
κλειστ ό</w>
κατ αγγελ
έφυγ ες</w>
p au
10 -
'εχ ει</w>
ψηφ οφορ
ταϊ λάν
βρ οχ
αξ ιά</w>
' ρα</w>
φτώχ εια</w>
πληρ ώνουν</w>
μέτω πο</w>
p y
ό κ</w>
ψάχν ετε</w>
τραγ ωδία</w>
πηδ ήξ
δωρ ε
έν τονα</w>
glo b
τι ος</w>
ξεκάθαρ α</w>
μα ύρα</w>
διάσκ εψη</w>
7 4</w>
2 :
φύλ αξη</w>
πο τα</w>
μπατ αρία</w>
εξασφαλ ίσει</w>
αφ οσι
φεβρ ουά
έτρ ωγ
υπόσχ εση</w>
συναντ ήσω</w>
ανθρω πο
- αυτό</w>
τακτ ική</w>
στρατηγ ικής</w>
ο .
μη -
ι αμ</w>
αγ ρι
ό τη</w>
προχωρ ήσει</w>
μπ ο</w>
κοιν ά</w>
καταλάβ ετε</w>
κα τουρ
s il
'ρ χ
προσαρμ οστ
ου ρ</w>
εύ τηκαν</w>
ε εε</w>
γαμ ι
αρ θ
απώλει ες</w>
τοποθεσ ίες</w>
λη πτ
ζ α
- 'οχι</w>
ύρ ων</w>
συνεργ άτης</w>
παρ ηγορ
ακτιν οβολ
π εί
ούν ια</w>
θε μέλ
διάλ εξε</w>
αντίλ ηψη</w>
αεροσκά φος</w>
si on</w>
g b</w>
τάφ ο</w>
σύγχρον ες</w>
συνεχ ίσεις</w>
σκ ό
μυαλ ά</w>
εισιτ ήριο</w>
ομ οί
μέσ ος</w>
λή ψης</w>
ευτ ικής</w>
ερχ όμαστε</w>
αξ ης</w>
όμ ιλ
τεσ σάρων</w>
μαλλ ιών</w>
κό στους</w>
κοιμ ηθεί</w>
η ς
αρχ ίσω</w>
αγόρ ασα</w>
z o
199 8</w>
κόκκιν η</w>
κλιματ ική</w>
c m</w>
στελέχ η</w>
στάθμ ευσης</w>
σήκ ωσε</w>
ρ ος</w>
παρ αιτ
δικαστ ής</w>
απίστευ τη</w>
ανό ητο</w>
έλ ας</w>
νύχ τες</w>
μεταφορ ών</w>
ιστοσελ ίδας</w>
ελ εγχ
εβρ αίους</w>
διάδρομ ο</w>
αν τος</w>
ά γνωστ
st ar
φιλ ία</w>
ισπαν ικά</w>
θλί ψη</w>
φ όρα</w>
υπεν θυμ
τ άς</w>
περι ποίησης</w>
καθρέφ τη</w>
δωματ ίου</w>
γ έμ
αναμ ονή</w>
ώνυμ ο</w>
ώ ματά</w>
φοιτη τής</w>
μεγάλ οι</w>
λ ιν</w>
ενδιαφέρ οντα</w>
' οταν</w>
οποι ηθεί</w>
γραφ ής</w>
ώσ που</w>
χ ες</w>
ον τ</w>
θάν ατό</w>
βρ ω
στέκ εται</w>
πλαν ήτης</w>
ονομ ασία</w>
λευκ ός</w>
αυτοκιν ητο
d ing</w>
τζ έικ</w>
συν έλευση</w>
σκέφτ εστε</w>
ουν ς</w>
εμπ όδιο</w>
γεωργ ία</w>
σφ υρ
σκ άλες</w>
σ ού</w>
προφαν ές</w>
ολογ ικές</w>
μαρ τ
κολ ύ
ιστορ ικά</w>
ψ ώνια</w>
κέι τ</w>
ευ νο
διαδ ραμ
απασχόλ ηση</w>
sc ien
φλωρεντ ία</w>
πλ άσματα</w>
κινηματο γραφ
διαστ άσεις</w>
ακριβ ή</w>
2 .000</w>
θυσ ι
γεν ικ
αντ έχω</w>
αναφέρ ω</w>
ing ton</w>
συσκευ ών</w>
πιν ακ
ξεπ έρ
κεντρ ικής</w>
κ αί
θόρυβ ο</w>
av e</w>
όρ εξη</w>
παντρ ευτώ</w>
καταπολ έ
ιμ ότητας</w>
βλακ είες</w>
έχ ασαν</w>
ώ ριο</w>
πά ρ</w>
ξαναδ ώ</w>
ικαν ός</w>
απορρ οφ
o ι
le d</w>
'χ εις</w>
π νιγ
κύ μα</w>
εστ ερ</w>
αν επι
αδ ρ
έλ ε
3 :
τυχερ οί</w>
τυρ ί</w>
τα του
προσθέσ ετε</w>
μαύρ ος</w>
εφαρμ οστ
εγκλ ήματος</w>
ασ μένες</w>
to wn</w>
μαθ ητών</w>
μ οτ
λάβ ω</w>
καταπολέ μηση</w>
κ αίγ
εγ χειρ
διαμ άχ
βρ ήκατε</w>
α πρόσ
άχ ιστα</w>
en g
φοβ ερή</w>
μοιρ άζονται</w>
κό φ
ιδι οφυ
αλ έξ
h il
' κου
ψ ύ
σ εντ</w>
κοίταξ έ</w>
ιν ε</w>
γ ευ
αμερικαν ικές</w>
j a
πραγ μάτ
ν αζί</w>
λευκ ή</w>
δρ αμ
t p</w>
c y
b ir
σερί φη</w>
πλ ουσι
πι ζα</w>
ντουλάπ α</w>
έφ ρ
σχολ ής</w>
μέθ οδο</w>
εργ οδ
επιστρέφ ω</w>
έλλ ηνες</w>
άλλ αξαν</w>
τσαρ λς</w>
πι άσουν</w>
ξερ ω</w>
ετ ές</w>
όμεν ης</w>
συχν ότητα</w>
στερ νταμ</w>
σοβιετ ική</w>
κό ψω</w>
κρυφ ά</w>
εβδ ομάδας</w>
έφτι αξε</w>
y or
φυλ ή</w>
σημερ ινό</w>
σ ιο</w>
παντρε μένος</w>
ελλ άδας</w>
απασχολ εί</w>
ανυπομον ώ</w>
αγρ ότες</w>
χ θεί</w>
οχ ημάτων</w>
ξέρ αμε</w>
λ εσ
κλάδ ο</w>
καταιγ ίδα</w>
ιμ οι</w>
eί vαι</w>
co un
συν δικ
ποδοσ φαίρ
κ β
ελάχιστ ο</w>
δι εύθυν
αυξ άνει</w>
αντί σταση</w>
έμ εινα</w>
υπερ ήφαν
παραδοσ ιακό</w>
π ό</w>
ιλ ι</w>
ευημερ ία</w>
εξ αρ
έπι πλ
στ εκ
πατ ήστε</w>
εξ απ
δημοσι εύθηκε</w>
αγ κ</w>
10 0
υπάρ ξουν</w>
σωρ ό</w>
συγκρού σεις</w>
μπ όμπι</w>
μπ ήκα</w>
μετα βλ
αναζη τούν</w>
ότ αv</w>
εκπαιδευ τικό</w>
διαθ ήκ
βαθμ ολογ
συ ζη
πληρ ώσεις</w>
παντελ όνι</w>
επ εί
απο χώρ
απαγόρ ευση</w>
ποδοσφαίρ ου</w>
διαρκ εί</w>
βγ ήκ
σύντ αγμα</w>
κατάλαβ ε</w>
ισρα ηλ</w>
ίστ ες</w>
συνηθ ισμένο</w>
συν δέσ
σ εμιν
θετ ες</w>
εκατο μ
διπλ ασι
ρ ασης</w>
παγ ωτό</w>
κυρι ε</w>
ζωνταν οί</w>
αντιδρ άσεις</w>
wo od</w>
υγ ή</w>
βι άσου</w>
α ὐ
ίτι δα</w>
' μαι</w>
τρώ με</w>
πρ α</w>
έν δειξη</w>
παίζ ουμε</w>
ούμεν οι</w>
ουρ λι
μολ υσ
μαργ αρ
θεί ε</w>
ε ορτ
γραμ μής</w>
απομακρ υσ
απο κλεισ
έρ ικ</w>
το π</w>
ταχύ τητας</w>
τέταρ τη</w>
στά ιν</w>
μον αξιά</w>
μά θε</w>
αστ ικών</w>
άδ ειο</w>
7 3</w>
στρ ες</w>
πληθ ωρι
μετ αφερ
μάρτυρ ας</w>
διατρ οφής</w>
χρηματο δοτ
φούρ νο</w>
ουίσ κι</w>
αν οσ
έφτ ασαν</w>
ά ου
f lo
ev τάξει</w>
το νι
κωνσταντινού πολη</w>
θυμ ωμένος</w>
εγ χείρ
διατηρ εί</w>
δημοφιλ ής</w>
ί ατρ
t y
μάχ ες</w>
μ' αρέσει</w>
εσ ώρ
βαρ ύ
άφ ηκε</w>
ρι ών</w>
ξεπερ άσει</w>
μη νι
δορυφορ ική</w>
αστ ήριο</w>
αποτελεσματ ικό</w>
αντικει μεν
αν απλ
φών αξε</w>
παραβ ίαση</w>
κό τα</w>
κ είν
δραστηρι ότητας</w>
αξιο σημεί
αμερικαν ικής</w>
f -
σιν εμά</w>
οδ οι</w>
καθηγ ητή</w>
επίκ εντρ
διά ολε</w>
γένν ηση</w>
άξ ιζε</w>
l on
συ ν</w>
ρυθμ ός</w>
πέτρ ες</w>
ντ ερ</w>
διαθ εσ
β ού
ντ αρ
εμ βόλ
βραβ εία</w>
vie w</w>
χ ελ
πεν ήντα</w>
κου νι
κατ έχει</w>
εμπιστ εύομαι</w>
γκ όρ
βέγκ ας</w>
απέ τυχε</w>
projec t</w>
φύγ αμε</w>
ντ ων</w>
επ αρχία</w>
δό κ
βρίσκ εστε</w>
συντομ ότερο</w>
προ δοσ
πέταξ ε</w>
μετ αχ
εννο είτε</w>
απ' τον</w>
ί αν</w>
συμπερι φοράς</w>
παρ αστ
μεσ ημερ
χιού μορ</w>
πρωθ υπουργ
προβλ έψεις</w>
προ έκ
περίεργ η</w>
κο ί</w>
θαυ μά
ί τ</w>
υλ ικών</w>
ειλ ημ
n am
μυ ρι
λ εκ
κοιμ άσαι</w>
αναπ νοή</w>
έτο ιμα</w>
υψηλ ότερη</w>
σχετ ικές</w>
στρατηγ ικές</w>
στερ ε
σ ήματα</w>
οδ ός</w>
κεφαλ αίου</w>
καλ οσύνη</w>
ισχ ύς</w>
επάγγελ μα</w>
s .
m g</w>
μον ά</w>
κρίν ει</w>
κανον ικό</w>
απο δείξει</w>
αντίστοιχ α</w>
άμ β
3 4
ύ πτει</w>
ψηφ ιακό</w>
στ '
πρόσφ ατες</w>
κρ α
ηνω μένα</w>
γέλ ιο</w>
ντ άρ
μπά ι</w>
λι θ
ζητ άει</w>
ευ σαν</w>
γι γ
σκοτ ώσουμε</w>
ξεκάθαρ ο</w>
κατε στη
επίκεντρ ο</w>
ελ άχιστα</w>
ανθρώπιν ου</w>
αι οι</w>
αβ αθμ
ηλεκτρον ικά</w>
εμπιστ οσύνης</w>
ειδ ίκ
γέρ ο</w>
έπαιρ νε</w>
p a</w>
a u</w>
συγκρ ότημα</w>
πολιτισμ ός</w>
εφαρμ ό
ε πρεπε</w>
ακ ρό
ma in</w>
παγκόσμ ιες</w>
μαϊ άμι</w>
κατάφ εραν</w>
δημοφιλ ή</w>
p ic
αβαθμ ολόγητα</w>
ό με</w>
λαμβάν οντας</w>
κύπελλ ο</w>
κοινων ίες</w>
f li
- για</w>
πουλ ήσει</w>
κέντ ρου</w>
επι βρ
αν το
g -
σ ία</w>
πλήρ ους</w>
κά να</w>
επαναλ άβ
ένοχ ος</w>
άρ ουν</w>
ρίξ ουν</w>
αλ βαν
v ει</w>
ρί αση</w>
ού τως</w>
μ όνα</w>
λού ις</w>
θεσ μ
ευγνώ μων</w>
εξωγή ιν
198 0</w>
πυροβόλ ησε</w>
πράκ τορες</w>
που κά
περιορ ισμούς</w>
παγκοσμ ίου</w>
ειδικ ότερα</w>
γενν ήθηκα</w>
amaz on</w>
σ κάν
πλ ακ
κολ λη
εξοπλ ισμού</w>
αρ ε</w>
απο χαιρετ
όργαν ο</w>
σ πά
π είνα</w>
ολ ντ</w>
μαρ ξ</w>
επαγγελματ ίας</w>
δουλ έψω</w>
διακ ιν
δημοσι εύτηκε</w>
ήν ας</w>
συμμετ είχαν</w>
σταθ ερό</w>
ρ ίκ
πρό οδος</w>
πειρ αματ
παράγ οντας</w>
μεταφορ ές</w>
λαν θ
επισκ έφ
απαντ ήσω</w>
f ri
ξαν θ
κεφάλ αια</w>
ισχύ ουν</w>
ιδιοκτ ήτες</w>
εσώρ ου
επ έμβαση</w>
ενδιαφέρ εται</w>
διακρ ίν
αν ού</w>
play er</w>
5 :
κρά τησης</w>
καταλ ύματα</w>
κατ άρα</w>
ευ γνω
γραφ είου</w>
αιχ μαλ
έι τ</w>
d es</w>
συμ μάχ
ρώ τα</w>
παραπο νι
ματ ικές</w>
γι ού
αυ τος</w>
πανεπιστημιού πολη</w>
οξ ειδ
μπ ελ</w>
κοτό πουλο</w>
καλάθ ι</w>
ti mes</w>
d re
ψυχ ές</w>
εντ αξει</w>
δοκ ίμ
αρχ ι
t i</w>
σαφ ώς</w>
σ κ</w>
επαν αφέρ
διακ όπ
δι ευρ
hotel s</w>
b ay</w>
υπερβολ ική</w>
τουρκ ίας</w>
περι αλ
ολοκληρ ώθηκε</w>
κλ αις</w>
κα ρ</w>
εκπλ ήσ
ψυχ ής</w>
φορ άω</w>
διαφορετ ικός</w>
όχ ους</w>
στρατιωτ ικές</w>
μηχαν ικής</w>
μαζ ι</w>
βρίσκ ουν</w>
- κι</w>
σαλ ον
πτυχ ές</w>
νικ ήσει</w>
μεσ άν
λογ ικά</w>
β ατ
r y
pla y</w>
τράβ α</w>
ταξ ε</w>
κατάρ τιση</w>
δολ λ
δημόσ ιες</w>
ho st
σωματ ική</w>
μαθ ητής</w>
κολ ομ
θεραπ είες</w>
εξελ ιχ
βιβλ ι
απαραίτη τες</w>
ανοίξ ω</w>
αν ση</w>
b ar</w>
ου β
κόμ ματα</w>
διάθ εσή</w>
γεί τον
α έρας</w>
έδι νε</w>
άχ θηκε</w>
παλι ές</w>
μέρ ει</w>
καλ ο
δι αγν
γκ έ
μ με</w>
δ αβ
γνωστ ά</w>
s i</w>
τ εντ</w>
πι άνει</w>
μετ ασχηματ
ιστ είς</w>
ετ έρ
βλ άκας</w>
αξ ίζουν</w>
li e</w>
k ι</w>
h a</w>
όσ εις</w>
φεβρ ουαρίου</w>
πολί τ
ιμ περιαλ
αγαπ ημένα</w>
άν ου</w>
φόρ ους</w>
λ ίλ
κλείσ ιμο</w>
εν το
γουόλ τερ</w>
ανώτ ατο</w>
αζ ες</w>
όλ ον</w>
ού ρα</w>
καταπληκ τική</w>
αρχ ίσουν</w>
φ λόγ
τισ μένο</w>
μαλακ ία</w>
ε -
βιώσ ιμη</w>
χρ ωμ
τρι γύρω</w>
ρ ετ
πέρ ασες</w>
καυσ ίμων</w>
ημέν ε</w>
δυ τ
δεξι οτήτων</w>
βαρ ύ</w>
ti n</w>
χερ σ
τo ν</w>
προτερ αι
ούν τι</w>
κυρι αρχία</w>
εξυπηρέ τηση</w>
δουλ ειάς</w>
έκ πτωση</w>
ri s</w>
ke t</w>
φίλ ες</w>
στρ ί
στείλ ε</w>
σκο τ</w>
πυρ ήνα</w>
ευθύν ες</w>
επίσ ημο</w>
ασ ιών</w>
νοτι ο
κερδ ίσεις</w>
f il
ό κο</w>
χειρ ο
τσ ελ</w>
σ ουλ
προτ είνει</w>
μπόρ εσε</w>
γύ ρισες</w>
γενέθλ ιά</w>
άψ ω</w>
πι ν</w>
λοχ ία</w>
κει ας</w>
ιτ εχν
εκπομπ ών</w>
διατρ οφ
ακου μπ
τείχ ος</w>
στ έφ
προσ εχ
νό τιο</w>
ησ ει</w>
ευτυχ ισμένοι</w>
ερ ός</w>
εν σω
άσ ιμο</w>
άρ ωμα</w>
6 ,
τέτο ιου</w>
σωτηρ ία</w>
ν .</w>
μεν οι</w>
ληστ εία</w>
θ ν
ζ ήλ
αρ τ</w>
ακαδημαϊκ ή</w>
έψ ου</w>
όμ ος</w>
πράγ α</w>
παρ αγγείλ
επι θετ
αραβ ικά</w>
αλ γ
α ει
ex c
υπο βλ
καθυστέρ ηση</w>
ευχαρίστη ση</w>
αναρωτι όμουν</w>
b -
a st
ρω ν
ur l</w>
un d</w>
συ σσ
ξεκίν ησα</w>
μαθ ημάτων</w>
κατάρ τισης</w>
δ έν
ύσ ιμο</w>
χρυσ ή</w>
συγκ ρι
σημει ώσεις</w>
πολύτιμ ο</w>
λεί πουν</w>
εισοδ ήματος</w>
διαφέρ ει</w>
ασμ ών</w>
άβ ι</w>
c loud</w>
ξεκ ίνα</w>
μ αυρ
προσφέρ ονται</w>
περν ούν</w>
κάv εις</w>
ιζ αν</w>
γράψ τε</w>
ακριβ ό</w>
έν εια</w>
roy al</w>
γενν ηθεί</w>
ήλι ου</w>
έφ αγε</w>
bur g</w>
χίλ ια</w>
ρισμ ού</w>
μέγιστ ο</w>
κάθ ομαι</w>
αι γύ
αγ ός</w>
έγραφ ε</w>
χαρακτ ήρας</w>
προ νόμ
πέρ ασμα</w>
βραχ υ
ατ ά</w>
αμερικαν ών</w>
άλ εξ</w>
ουσ αλ
αναπτύ χ
ίζ ονταν</w>
έστειλ αν</w>
sky pe</w>
προσ ιτ
μεσάν υχτα</w>
ενσω μάτ
αχ θούν</w>
24 ωρη</w>
προηγ ούμενα</w>
πεδ ία</w>
δημιουργ ήσουμε</w>
αναπτυχ θεί</w>
ποσ ότητες</w>
εκ δοχή</w>
αργεντιν ή</w>
μεγαλ ώνει</w>
μαγ ικό</w>
κλ είνει</w>
εργαζ όμενους</w>
αρκ ούδα</w>
ντ όπι
λά τρ
κατέλ η
καρκ ίνος</w>
δελ τίο</w>
βέλ γιο</w>
s ur
p ho
al y
εν ώπι
γράψ ετε</w>
παντρ ευτείς</w>
κοιτ άζω</w>
διακ οπή</w>
έδει χν
τσιγ άρα</w>
σύν θεση</w>
πολί της</w>
πλ αίσια</w>
περι οχ
έστειλ α</w>
l it
σ λοβ
επιχειρηματ ική</w>
χείλ η</w>
πίν εις</w>
εκ τιμά
αυστραλ ίας</w>
απόλυ το</w>
αποκάλ υψη</w>
r i</w>
oύ με</w>
χ ώ
τρί μηνο</w>
πράσιν η</w>
ποι ους</w>
δίχ ως</w>
book ing
τρώ τε</w>
σι χ
π αζ
κρυπτο γραφ
δ οχής</w>
β άζ
ατλ αντ
ακίν ητος</w>
h y
στρατιώ τη</w>
σμι θ</w>
ρισμ ός</w>
πι ρ
πεδ α</w>
νε ο
κατασ κοπ
συνήθ ειες</w>
λ ιν
επείγ ον</w>
ί κ</w>
ώρ ας</w>
χρυσ ού</w>
δεκ άρα</w>
βόρ ειο</w>
βιομηχαν ίες</w>
αν έπ
ch rist
υ βα</w>
σχεδ ί
πλ ήγ
πήτ ερ</w>
μάθ αμε</w>
κοιτ άζει</w>
καν ε</w>
καλύψ ει</w>
π τουν</w>
ικ ων</w>
ι έρα</w>
επιστρ έψεις</w>
επικεντρ ώνεται</w>
εξά μηνο</w>
δάχτυ λα</w>
αυτο πεποίθηση</w>
s d</w>
μουσ ικής</w>
μαθ αίνουν</w>
κού βα</w>
έπαθ ες</w>
στ αγ
στ άν
σ αv</w>
πληκτρ ολογ
ολ ά
μεταδ ίδ
ισραηλ ιν
εμπειρογν ώ
γλύ κα</w>
βαρ έθηκα</w>
πετσ έτες</w>
περιπέτ εια</w>
κοιτ άξω</w>
ακ τι
ί ρ</w>
όλ ια</w>
φυσ ικές</w>
συμφέρ ον</w>
στεγ ν
πύργ ο</w>
οποι ήσει</w>
ζ ήσουμε</w>
ίζ αμπ
έ θεσε</w>
χάου αρντ</w>
ευ πρόσ
δάσκαλ ε</w>
αντιμετωπ ίσουμε</w>
τέλει ος</w>
λί ρες</w>
εχ ουν</w>
έρ ρ
v an
τη λεπ
σύλ λογ
ρίξ εις</w>
ομ ο
ξαν άρθ
ιερ ουσαλ
δύναμ ή</w>
ατ ικών</w>
αξιο πιστ
pla za</w>
- σε</w>
χαζ ό</w>
υπολ οχ
υ θεί</w>
προ λετ
νοημ οσύνη</w>
βι λ</w>
ασύρ ματο</w>
αριθμ ού</w>
άρ ες</w>
χρησιμοποι ώ</w>
σ' ένα</w>
σ οκ</w>
περι τ
ε τούν</w>
τροπο ποίηση</w>
πρίγκι πα</w>
παίρν ετε</w>
ομ αχ
κολ λέ
κιν ούνται</w>
ξ ουμε</w>
μιλ ά</w>
ειδ ικών</w>
διαδραμ ατ
αυτοκτον ία</w>
αρκ ετοί</w>
ακ ου</w>
αίν ετε</w>
άμ στερνταμ</w>
a -
τ άξεις</w>
πολιτ ικός</w>
κορ ε
δημοσι ονομ
αφήν ουν</w>
απο δεχ
ακριβ ά</w>
χρει αστώ</w>
σκέφ τηκες</w>
παρ οχής</w>
μ ς</w>
κατέλ ηξε</w>
ελπ ίδες</w>
αιγύ π
ήθ η</w>
su ite</w>
k er</w>
χρησιμοποι είς</w>
υποχρε ώσεις</w>
πέφ τουν</w>
κατάρ γηση</w>
θρ ύλ
ευρωπ αϊκού</w>
ασ ανσ
άν το</w>
στ ά</w>
πορτογ αλία</w>
ξεχωριστ ά</w>
d ar
ολοκληρω μένη</w>
μουσουλ μάν
ασανσ έρ</w>
σα ου
ριν τα</w>
πι άτο</w>
ξ έ</w>
επιστρ έψουν</w>
ενθαρρ ύν
ατ ικής</w>
3 /
υπαλλήλ ους</w>
συναντη θούμε</w>
μετακ ίνηση</w>
κατανάλ ωσης</w>
θύ μ
θ αρ
ετ ός</w>
βγ άζεις</w>
m is
c ho
τού νται</w>
συμβουλ ευτείτε</w>
πολ ης</w>
περι ουσ
παρέχ ονται</w>
μ .</w>
ιβ ερ</w>
γ ω</w>
site map</w>
s ter</w>
ic an</w>
ομ ολόγ
καταλαβαίν ουν</w>
sant a</w>
l t
υπο χρέωση</w>
υπηρ έ
πειρ άματα</w>
εκ τοξ
διάσ ωσης</w>
p as
φύ λο</w>
τ εν
συνδε θείτε</w>
ντέι β</w>
ηλίθ ιοι</w>
βιομηχαν ική</w>
έμπ ειρ
ετοιμά ζει</w>
διαγων ισμό</w>
αρρ ύ
o us</w>
μεγάλ ωσε</w>
η μένων</w>
φτ άσω</w>
τι σμού</w>
συνεχ ιστεί</w>
μ όv
ζευγ άρια</w>
εξηγ ήσει</w>
εγκληματ ίες</w>
ατο π
αραβ ία</w>
σκοτειν ή</w>
σημεί ωμα</w>
προπόν ηση</w>
μοντ έλ
δείγ ματα</w>
αγγλ ίας</w>
ήγ αγε</w>
έγερ ση</w>
συμμαχ ία</w>
στοιχ ει
ρί ο</w>
παρεμπ ιπτ
λογαρι ασμός</w>
δια πραγμάτ
γ κάν
αναγν ωριστ
6 :
όμορφ ες</w>
τρομοκρά τες</w>
συνταγ ή</w>
σίγουρ ο</w>
εξαλ εί
εκπληκ τική</w>
σχ οιν
πι ω</w>
εύρ ος</w>
n c</w>
il la</w>
10 0.000</w>
�� ��
…………………… ……………………
τρι σ
ξ ία</w>
αντιμετωπ ίσουν</w>
w are</w>
κάλ εσα</w>
ιν δίας</w>
ιδ ίων</w>
ευπρόσ δεκ
δ αι
wi fi</w>
b e</w>
όνειρ ά</w>
παιδ ικό</w>
ο ειδ
κερδ ίσουμε</w>
καλ έσει</w>
ενδεχ όμενο</w>
γεν ιές</w>
έμπ ν
υν σης</w>
υγι ή</w>
μάντ εψε</w>
επαν άλ
εμπορ ικά</w>
αμαρτ ίες</w>
αγαθ ά</w>
las h</w>
μον ό
δι ευθ
ανάλ ογ
s co
συνάν τησα</w>
ρ θ
δικαι ολογία</w>
πυρην ική</w>
πλ ει
ιαπων ίας</w>
εβδ ομ
άφ ησαν</w>
e υ
φισβ ή
φά ε</w>
διαβ άζει</w>
δι εκδικ
γνωρι μία</w>
αστυν όμε</w>
m ul
πι ση</w>
μεσ ογ
θεωρ ούνται</w>
ήχ ου</w>
al e
199 5</w>
πρωτόκολ λο</w>
κατ άσκο
καθήκ οντα</w>
βλ άκα</w>
ανατολ ικής</w>
'e χ
﻿ ﻿
σου ίτα</w>
παρέχ εται</w>
ομ ίλ
νορβηγ ία</w>
κυ τ
κίτρι νο</w>
επιτυχ ίας</w>
εισ όδου</w>
απερι όρι
s qu
ύλ α</w>
φρ όν
κώδικ ας</w>
αρρω στ
ti que</w>
- πρέπει</w>
φι λ</w>
νομ ικά</w>
κύκλ ος</w>
κρ ίστ
κερδ ίσω</w>
ηρ ό</w>
εγγραφ ής</w>
διαφορετ ικών</w>
βασιλ ική</w>
αμ ς</w>
πτ ώσεων</w>
εθ ει
le v
σερ βιτ
μ ιμ
κλ ερ</w>
ετ ική</w>
διακομ ιστή</w>
b est</w>
μισ εί</w>
καθ οδηγ
ακολουθ ήσουν</w>
αισθ ήματα</w>
αεροπλ άνα</w>
ma x</w>
ταχυδρομ είο</w>
ρωτ άω</w>
ν όρ
εκτ όξ
pau l</w>
jam es</w>
. 0
ξ ύ
εναλλακτ ική</w>
αυξαν όμενη</w>
ορ χ
μπρ άιαν</w>
απο δεικ
, 000</w>
συσκευ ής</w>
σελ ίδας</w>
πιθαν ές</w>
γεν ικός</w>
ευγεν ικό</w>
επί θεσης</w>
αφ ήσουν</w>
αστ η</w>
χημ ικών</w>
χ αβ
παράνομ ο</w>
πίν ω</w>
νοσ ηλ
μπ άσκ
θαύ ματα</w>
ζή τησαν</w>
γκρ έσο</w>
ακ το
έλ εν</w>
it al</w>
e σ
χρον ια</w>
τεχν ικούς</w>
β ότ
τι μάς</w>
σύμ βασης</w>
πετ άξει</w>
παρεμπιπτ όντως</w>
ορ ισμός</w>
διεθν ώς</w>
απο κατάσταση</w>
πάν τες</w>
μη τρώ
εγκαταστ ήσετε</w>
β ούρ
β άν</w>
mo z
φλό ριντα</w>
προσ όντα</w>
ημ ων</w>
εξ ουσίας</w>
διαβ άσετε</w>
απαρ ά
nas a</w>
ma s</w>
υλ ικού</w>
τέρ ατα</w>
προμ ήθ
προβλ έπει</w>
νοσοκομ εία</w>
γι όγκ
αξιοπρέπ εια</w>
φύλ λα</w>
ρο ής</w>
η v</w>
εξ άλ
βλάβ η</w>
αλλ οδ
m el
τελευταί ους</w>
στοιχ ηματ
νοσοκ όμα</w>
νικ ητής</w>
ημ ες</w>
εξελ ίσσ
αρχ ίδια</w>
χαριτ ωμένο</w>
ταυτ ότητας</w>
τακτ ικά</w>
παραμ είνουν</w>
ορ υχ
κρι τικές</w>
βορρ ά</w>
αγγ ίζεις</w>
στεν ή</w>
προσ φύγ
οδ οσία</w>
κέ βιν</w>
ζού γκλ
εύσ εων</w>
έπ εται</w>
ών εσαι</w>
φοβ άστε</w>
πo ύ</w>
ξεκιν ήσω</w>
ζ ακ</w>
επίδ ειξη</w>
αναβάθ μιση</w>
στείλ ουμε</w>
πόρ οι</w>
μεγαλει ότατε</w>
εθν ικού</w>
δυσ άρ
απο δοχή</w>
αεροδρομ ίου</w>
ex p
ban k</w>
τζ όνι</w>
πρώ του</w>
μεταμ ορφ
άμ εν
m b</w>
ρ αφ
προσφύγ ων</w>
προστατ ευ
μαξ ιλ
εκατομ μυρι
γν ωσης</w>
έπιπλ α</w>
is e</w>
b ul
παρ άτα</w>
ιού νιος</w>
εκ βι
γαλλ ικό</w>
ing s</w>
4 :
ρω σε</w>
ιατρ ικό</w>
εξήγ ησε</w>
έν νοι
ψυχ ολογία</w>
ς ·</w>
ού σατε</w>
αδύν ατη</w>
ί στρια</w>
ά τσα</w>
χ τύ
τελευταί ων</w>
εσ έ</w>
αναπτυ ξ
άσ ματος</w>
mic ha
b at
όμεν ου</w>
χάν ουμε</w>
φ oρ
σκοτειν ό</w>
μοτ έλ</w>
ιλ ερ</w>
αρ έσεις</w>
απ o
ύρ ου</w>
κυτ τάρ
κατοικ ία</w>
εθελοντ ές</w>
διπλ ή</w>
δικ αστηρίου</w>
δήλ ωσαν</w>
από στ
u p
υπο φέρει</w>
μετ αρρύ
μαν ία</w>
λ ορ
κοροϊ δεύ
καλ ο</w>
αντικατ άσταση</w>
2 /
συντ ελ
συνειδητοποί ησα</w>
ο ζ
λ άρ
δοκιμ άσει</w>
διά γνωση</w>
από δοσης</w>
αποτελεσματ ικότητα</w>
έκριν ε</w>
φρ εντ</w>
μπάσκ ετ</w>
κοκ κιν
γρ οθ
βιέν νη</w>
r am
glob al</w>
προσ έχετε</w>
οφ θαλ
ντάν ιελ</w>
μπορ ει</w>
μικρ οσκοπ
κακ ές</w>
ηλεκτρον ικών</w>
σ η
κεφάλ ια</w>
θαλ ασσ
εψ ης</w>
ερωτευ μένος</w>
δάκρ υα</w>
ώ θηκα</w>
φορ ούσε</w>
πραγματ ικές</w>
παραδοσ ιακά</w>
μόν ες</w>
κό ντ
θεσ σαλον
βγάλ τε</w>
βγ αίνουν</w>
αίν οντας</w>
w it
g er
σ ώματα</w>
προσπαθ ούσε</w>
μοσύν ης</w>
μεγαλ ώσει</w>
k s</w>
φρόντ ισε</w>
τρέχ α</w>
συν ελήφθη</w>
δολοφ όνο</w>
βελτι ώσει</w>
άσσ εται</w>
τοπ ικά</w>
σ όφ
περιστ ρ
μαδρ ίτη</w>
κυβερν ήτης</w>
επισκ έψεις</w>
δηλ ητήριο</w>
προορ ισμό</w>
πανέμορφ η</w>
μακ ρυ
ιανουά ριο</w>
επιθυμ εί</w>
δεκτ ή</w>
έν στικ
ip ad</w>
9 ,
πλούσι οι</w>
παρ απλ
κλ ά
τ όν</w>
θέσ ης</w>
γ άλ
φ τη
μιλ ήσαμε</w>
δικ τυ
un ic
i al</w>
c c
το κ
τεχν ικά</w>
σ ελ</w>
οσ ο</w>
οπο ίας</w>
οξυγ όνο</w>
νύ φη</w>
λά μ</w>
κελ ί</w>
θυσ ία</w>
φέρ εται</w>
νιώθ ουν</w>
ιστ ούμε</w>
διάβ ασε</w>
ήν ες</w>
199 6</w>
ισ υ</w>
δασκ άλ
davi d</w>
ὴ ν</w>
θηκ ών</w>
εξετ άσει</w>
δανει στ
αρκ τική</w>
oυ ν</w>
lo s</w>
ών ιο</w>
πετ ρού
μπρ ού
ι άπ
γ v
αφέντ η</w>
αλλ εργ
ά ο</w>
φόρ ου</w>
τρ έχουν</w>
στρ έφ
στη κες</w>
ν υ
ιακ οί</w>
εμπιστ εύεσαι</w>
γ ειλ
β άζουν</w>
ήτ ω</w>
ή μ</w>
ti ve</w>
- ευχαριστώ</w>
πρακτ ικά</w>
πρ άμα</w>
καθ ίκι</w>
κ έλ
ελέγξ ω</w>
γρηγορ ότερα</w>
β αδ
συ ρι
ρό φ
ρι μ
ορ φω
ντ έρ
κυρ ίαρχ
καινοτομ ίας</w>
θυ γ
ελ έφ
δ ερ
απο φύγετε</w>
άγ η</w>
b y
τατου άζ</w>
στόχ ων</w>
μ ονομ
κουλ τούρα</w>
κοστ ούμι</w>
κατ αχ
διαμ άντια</w>
ακ ερ
έλε ος</w>
' μένα</w>
υπερασ πιστ
γ ίγ
αίν ε</w>
κλ είστε</w>
γερμαν ικό</w>
γεί τονες</w>
αυτό ματη</w>
απ αλλαγ
προσφέρ εται</w>
νε λ</w>
κατασκευ αστές</w>
ηλεκτρον ική</w>
δείκ της</w>
αίν ομαι</w>
πλευρ ό</w>
ο …</w>
αρχ ών</w>
αν ασ
ψ ι
μεγάλ ους</w>
λαχαν ικά</w>
κατεβ άσετε</w>
κέι κ</w>
c ard</w>
'θελ α</w>
τεράστι ες</w>
πυκ ν
πτ εται</w>
λ οκ</w>
δε καπ
αστ εί
τηγ αν
πρόβλ ημά</w>
μετατρ οπή</w>
ε ἶ
διοικ ητής</w>
άν εις</w>
πο να</w>
θ αι</w>
εργαστ ήρια</w>
ανό ητος</w>
ότη τάς</w>
διαβ ήτη</w>
δημοσί ευση</w>
αναφορ άς</w>
χημ ικά</w>
ειδ ικούς</w>
διαχειριστ ής</w>
δάχ τυλ
υψηλ ότερα</w>
υπουργ είου</w>
προσφέρ ω</w>
καν όν
εξ αντλ
εκ προσωπ
δείξ ουν</w>
έσ αμε</w>
άνεμ ος</w>
τζέρ ι</w>
πρεσβ εία</w>
πίν ακες</w>
μπερ δεύ
επιχειρ ησ
γνωρ ίσεις</w>
eί μαι</w>
ω ρ</w>
υγρ ό</w>
σύντ αξη</w>
σκ επ
περι πολ
οντ ά</w>
κρι ν
ητ ικοί</w>
αρν είται</w>
έσ ωσες</w>
yo u</w>
προϋ πό
πληροφορ ικής</w>
περισσότερ ων</w>
περίμεν ες</w>
πειν άω</w>
ξ ω</w>
ι φ
εκ τ</w>
βενεζου έλα</w>
ασθεν οφόρο</w>
αντικ αθ
έφτ ασα</w>
άρ ικα</w>
p et
χρον ο
τα ΐ
προσαρμογ ή</w>
πί να</w>
νι ώσεις</w>
νεαρ ό</w>
ιστ είτε</w>
αρι ού</w>
παλ τό</w>
πίν ες</w>
μπου ς</w>
μετ ε
εξαγωγ ές</w>
ha m</w>
υποθέσ ουμε</w>
πν ίγ
οδ ότηση</w>
μάρ κα</w>
κει ο</w>
ιστό τοπ
εν ισχυ
διακόσ μηση</w>
δέρ ματος</w>
γιατρ ούς</w>
199 4</w>
. 00</w>
τρι πλ
σατ αν
σ ωτ
περ α</w>
μπ άτ
μοιρ αστείτε</w>
κοντ αν</w>
ήρω α</w>
πλαν ήτες</w>
παντρ εύτηκε</w>
οκτώ βριος</w>
νόμ οι</w>
νε ολ
μεγάλ ωσα</w>
δημο πρ
δει γ
βαθ μός</w>
απο δίδ
άρθρ ου</w>
igh t</w>
τέλει ωσε</w>
τ εθεί</w>
πνευματ ικά</w>
πλο ίων</w>
ο ειδή</w>
κο γκρέσο</w>
mo bil
τίθ ενται</w>
ρ ρ
ρ άιαν</w>
μπρά ουν</w>
ευρ εία</w>
δί ωξη</w>
ακούσ ουμε</w>
ί μ</w>
te ch
on a</w>
υπόλοι πους</w>
τοί χους</w>
ποντ ίκι</w>
ομ ετ
μ ώ
ενοικιαζ όμενες</w>
ελάχιστ η</w>
αντι θέ
αι μ
s el
a f
τροφ ές</w>
πρωτοβουλ ία</w>
πολιτιστ ική</w>
οποι εί</w>
οδ ύν
κου κ
ικ ς</w>
θε ώ</w>
ή τα</w>
έν οι
un g</w>
χωρητ ικότητα</w>
χ ού
κολλέ γιο</w>
αρρώ στ
άν ιο</w>
φυσ ικών</w>
στ άδια</w>
ο ου</w>
κόλ πα</w>
ελέγχ ουν</w>
διδακτορ ικό</w>
ασχολ είται</w>
απο συρ
ανακάλυψ α</w>
αν ίχν
αθώ ος</w>
ου κ</w>
ισ μένους</w>
εφαρμ οσ
ευτ ικών</w>
198 9</w>
όμ ηρ
σ ώσουμε</w>
παν το
π ς</w>
οφ ος</w>
μο τί
κου τσ
κακ όβ
εγ κατάστασης</w>
απόφοι τοι</w>
αιτ ίες</w>
έψαχ να</w>
έμ βρη</w>
τζ άκι</w>
τελει ώσουμε</w>
στατ ιστικά</w>
επισκ επτ
δοκιμ άσω</w>
άρ ουμε</w>
ώρ ια</w>
φόρ ουμ</w>
ριβ ή</w>
προ δό
κόρ ες</w>
δ αρ
βόμ βες</w>
. gr</w>
τι μη
προσώπ ων</w>
μπουρ γκ</w>
μπλ οκ
ηθ ελα</w>
απλ ός</w>
ανησυχ ούν</w>
φτι άξεις</w>
ταϊλάν δη</w>
στ ό
σαου δική</w>
πν εύ
παρισ ιού</w>
μπελ άδες</w>
ισ έ</w>
βραζ ιλ
ανακαλύψ ει</w>
αγ ίας</w>
il y</w>
18 0</w>
τρομοκρατ ία</w>
σαρ άντα</w>
ισ λάμ</w>
βαλ ίτσα</w>
έιμ ι</w>
έγρα ψαν</w>
έ σα</w>
s k</w>
σκ άλα</w>
περ π
κυβερν ήτη</w>
καπν ιστές</w>
κ ριστ
διατ άξεις</w>
άκ ερ</w>
hi v</w>
acc ess</w>
ύ β
χ ώμα</w>
σύν τομο</w>
π αν</w>
αγαπού σα</w>
n u
ητ ικούς</w>
αυξάν ονται</w>
a do
σταδιοδρομ ία</w>
παρ ότι</w>
ί στηκα</w>
197 0</w>
σύμφων οι</w>
συν ο
πε πρω
παλαιστ ιν
λί στας</w>
κοί τ
εικ όνων</w>
αν αδι
άσ προ</w>
σχετ ικό</w>
ρ ων</w>
μπόν ους</w>
ιανουά ριος</w>
εχθρ οί</w>
άσκ ησης</w>
ar i
ai ds</w>
σύ σκ
ξεκιν ώντας</w>
μετάδ οση</w>
μαμ άς</w>
ησ ύχ
α βρα
b ab
ar y</w>
χρ ωματ
σχε διά
πι τ</w>
πατ άτες</w>
λύ κειο</w>
δια πρ
δι αι
micha el</w>
ό δε
στ ίβ
πλατφόρ μες</w>
λι αν
κατάρρ ευση</w>
κάθ ριν</w>
δυ ό</w>
διανομ ή</w>
ό το</w>
συγγραφ έα</w>
ορισ μένων</w>
ντου μπάι</w>
μικρ οκ
ιζ ερ</w>
διαφορετ ικοί</w>
δημιουργ ώντας</w>
αναπτυσσ όμενες</w>
άφ ην
h al
ag ram</w>
αρχιτεκτον ική</w>
ω ω</w>
να ός</w>
μού τρα</w>
μ ουρ
00 0
ταιρι άζουν</w>
ουγ γαρία</w>
κα v
επικ αλ
πνευματ ικής</w>
μηχαν ικών</w>
κλιματ ισμού</w>
διατηρ ήσει</w>
am a</w>
υπο τροφ
υπεύθυν οι</w>
μόρ φωση</w>
κατεβ άστε</w>
ερ ασ
αναγνωρ ίζει</w>
άν γκ</w>
τρί τος</w>
συνδυ ασμός</w>
παρ εμβ
μόν ιμη</w>
μι σε</w>
μάγ ισσα</w>
λ άπ
ιστοσελ ίδων</w>
θέλ ηση</w>
εμποδ ίζει</w>
δρ οσ
προσ έχω</w>
κύ ματα</w>
ευ σή</w>
γραφ ές</w>
γουρ ούνι</w>
γεύ ματα</w>
m w</w>
k o</w>
φτ άσεις</w>
φρ ον
τηρ ίου</w>
οίκ ος</w>
κριτ ήρια</w>
διαβ άσεις</w>
διά ταξη</w>
δ άγκ
g mail.com</w>
υπο δομ
σάν του
προσωρι νά</w>
παράξ ενα</w>
λιβύ η</w>
κρίσ ιμη</w>
διακ ήρυ
ατ ικές</w>
ασκ ήσεις</w>
eu r</w>
του σαν</w>
σκ ωτ
σε τ</w>
προϋπό θεση</w>
νομ ιζ
ιλ ς</w>
θυμ ήσου</w>
αναβ αθμ
ανάλ υσης</w>
χα μένος</w>
κορ ό
γι οι</w>
β ουδ
b al
τι τ
τ όλ
ρυθμ ίσεων</w>
ρο κ</w>
ρισμ ά</w>
λέσ χη</w>
ενοικ ίαση</w>
εγκαταλεί ψει</w>
ανοίξ εις</w>
όσ ων</w>
ωρ ών</w>
τεχν ών</w>
νε α</w>
θε οί</w>
επιστημον ικό</w>
απ εικον
χορ ός</w>
σ ίντ
κοιτ άξεις</w>
αντιμετ ώπ
αναθε ωρ
f ro
υφ ιστ
τί μημα</w>
ς /
ρ ότζ
μπάσταρ δε</w>
μεσημερ ιανό</w>
δε κατ
βρ ικ
φαντ αστώ</w>
ξεκιν ούν</w>
ηλεκτρ ικής</w>
βάλλ ουν</w>
soci al</w>
5 5
' νοι
όσ καρ</w>
στείλ τε</w>
σ άμ
ρωτ ήστε</w>
πτ ήσης</w>
κάρ τερ</w>
ικαν ή</w>
ετ ίας</w>
γεμά τος</w>
te s
or e</w>
ne ws</w>
ψ έμματα</w>
χρωστ άω</w>
πάρ οχ
ξαναγ υρ
μεταρ ρυθμίσεις</w>
κα να</w>
ενώπι ον</w>
αφ ότου</w>
αεροπορ ική</w>
αβ γ
ic al</w>
ότ ων</w>
πληρ ώσουν</w>
πέ τυχε</w>
so f
pal ace</w>
i d
σαμ πάνια</w>
ρω μα
πετ άει</w>
κλαί ει</w>
καρ τέλ
αισθάν εστε</w>
έμεν ε</w>
περιφέρ εια</w>
νύχ τας</w>
μιλ ήσετε</w>
ι v
διευθύν ων</w>
απέρ ρι
αιμορ ραγ
αγγ ίξ
τσ εστερ</w>
σχέ δι
ημερ ήσ
δοκιμ ασία</w>
βγ άζω</w>
o s
a c</w>
'εχ ουμε</w>
πρόσ θετο</w>
ητ ός</w>
γιαπων έζ
inst agram</w>
an s</w>
φ λέ
συναδέλφ ους</w>
ρ ίζες</w>
πραγμα τοποί
πίστευ αν</w>
ολό για</w>
μέ vα</w>
κακ οί</w>
γι ών</w>
αρχ ίσεις</w>
199 7</w>
προλετ αρι
περ σ
πί τσα</w>
π ελ</w>
μοναδ ικά</w>
ισ θ
θεωρ ίες</w>
δίκ αιη</w>
πυρην ικά</w>
μπορ ω</w>
εκτ ική</w>
vil la
s po
7 ,
ω τσ
χρήσ ιμη</w>
σάρ κα</w>
περήφαν η</w>
παράνομ η</w>
ι ου
δρόμ οι</w>
δρ άσεις</w>
διακ οσ
αρ ά</w>
αναπτύσσ εται</w>
em ent</w>
φων άζει</w>
υπο στεί</w>
σά ιμον</w>
πορτο γαλ
μ ερ</w>
δι αιρ
δ αμ
op en
m in</w>
μηχαν ικός</w>
ετ ικό</w>
εξ αγωγή</w>
ho li
eυ χαρ
- τα</w>
φύλ ακες</w>
τού τοις</w>
ισ ότητα</w>
ζα χαρ
χρυσ ός</w>
πτ ω</w>
προγραμματ ιστές</w>
παραδ ίδ
π είν
ξύπν ησα</w>
νύχ ια</w>
μεταφέρ ουν</w>
ερεύ νηση</w>
γραμματ έας</w>
βρεταν ίας</w>
άν οδο</w>
wor d
χρει αστούμε</w>
ρωτ ήσεις</w>
μελλοντ ικές</w>
λεπτομέρ εια</w>
λ ές</w>
εύ εστε</w>
ερευν ών</w>
δυσκολ ία</w>
διδ άσ
αμ ψη</w>
k en
συγ κλον
μελλοντ ική</w>
κρύβ ει</w>
θε ατρ
αποδει χθεί</w>
yor k</w>
v ice</w>
a qu
χ ε</w>
μπ αγ
ικαν οποίηση</w>
ω μένων</w>
σταθ εί</w>
ρι ου</w>
προσπαθ ήστε</w>
μωρ ού</w>
μο το
εταίρ ους</w>
δολλ άρια</w>
απαρά δεκ
α της</w>
έ μιλ
p ro</w>
j a</w>
fi eld</w>
5 +</w>
φεύγ ουν</w>
τζάκ σον</w>
παραδ όσεις</w>
ξεχν άμε</w>
ξεπ λ
μισθ ό</w>
μέλλ οντος</w>
κλίμακ ας</w>
δι ψ
αντι πολίτ
άν τερ
bou tique</w>
υπόλοιπ ες</w>
κά μαρ
ευτυχ ισμένο</w>
αχ ο</w>
ήχ θη</w>
χρωστ άς</w>
πίν ει</w>
πέ σε</w>
οποι είται</w>
καταστρ αφεί</w>
καταναλωτ ών</w>
δ ειν
ακούσ ουν</w>
αιρι ών</w>
άν τες</w>
y e
ir a</w>
χρον ική</w>
ν ία</w>
καθεστ ώ
κ. λ
ινδον ησία</w>
θαυμάσ ιο</w>
δασκ άλα</w>
τί ων</w>
σύμπ τωση</w>
σπ άσω</w>
ξ οδ
μ έ</w>
λέν ιν</w>
bri dge</w>
11 .
ύποπ τος</w>
φασ αρία</w>
υγ ειά</w>
τη τες</w>
προσωπ ικότητα</w>
ολ η</w>
ντ ό
μ. μ</w>
κλ οπή</w>
καθηγ ητά</w>
ευχάρι στο</w>
ενοικ ίασης</w>
ελ αττ
διδάσκ ει</w>
απ αί
αντικαταστ ήσει</w>
d ra
199 2</w>
τζόν σον</w>
σύν θ
ου ντ</w>
μετ ρι
κρί θηκε</w>
θέ ματος</w>
ανεπι θύ
φιλ ικό</w>
τρ έ
ξενοδοχ είων</w>
κοίταξ α</w>
ι ι</w>
επεκτ είν
ειδ ήσεων</w>
δίν εται</w>
γκ όμενα</w>
ίζ εστε</w>
is h</w>
χρειαζ όμουν</w>
φοβ όμουν</w>
συνολ ικό</w>
στοχ εύει</w>
σημ αίνουν</w>
περίεργ ος</w>
μεταναστ ών</w>
εξ έφρ
γι ΄
αυστηρ ά</w>
ατομ ική</w>
αντιθέ τως</w>
έν ια</w>
r al</w>
c la
συμβ αλλ
στι β</w>
κεφαλ αι
ιδαν ική</w>
ζή τησες</w>
γεν εύ
αρχ ίζω</w>
αποκτ ήσετε</w>
ur t</w>
l and
a k</w>
σαφ ής</w>
βιρ τζ
βγ αίνω</w>
ίζ ατε</w>
ήμ αστε</w>
e γώ</w>
χτ υπού
φωτογραφ ίας</w>
φιλ εν
σεπτ έμβριος</w>
ρίξ τε</w>
οργαν ισμοί</w>
μικρ ού</w>
λέγ αμε</w>
κατηγορ ίας</w>
καλ ούς</w>
βρεθ ούν</w>
απο ποίηση</w>
αλ άτι</w>
φτιάχν ει</w>
οστ ά</w>
επιθυμ ίες</w>
εξ οικονομ
ελλην ικό</w>
απο υ
αντιπροσωπ εύουν</w>
αν εχ
άμεσ ο</w>
χτύ πα</w>
χ τί
περ ιμ
λίγ ους</w>
εθν ικών</w>
be l</w>
φάν ε</w>
π ώ</w>
ομοφυλ όφιλ
διαφέρ ουν</w>
αμφι βάλλω</w>
πι άστε</w>
ησ εις</w>
ατού σε</w>
υγι ής</w>
συλ ο</w>
στήλ η</w>
πω λ</w>
περ ασ
νού μερα</w>
λί πος</w>
εκλογ ών</w>
βενζ ίνη</w>
αντιμετ ω
ανθρώπιν ες</w>
ίδι ου</w>
un d
συνηθ ισμένη</w>
στ υλ
σκ ι
περιοδ ικά</w>
πανέμορφ ο</w>
ξεκιν ήσαμε</w>
μπ αστ
επιτύχ ει</w>
επιστημον ικά</w>
αποδεικνύ ει</w>
αντι πρόεδρος</w>
όμ πα</w>
φτ αις</w>
πληρ οφόρ
κλ ιν</w>
ατ ελ
ύφ θηκε</w>
πορτο καλ
ξ εμ
ηλίκ ων</w>
επι δημ
ή π
περιορισ μένη</w>
επιτυχ ημένη</w>
διάσ ημος</w>
βραχυ πρόθεσ
αξι ολόγησης</w>
an ti
χα μένη</w>
πώλ ησης</w>
μαλ άκες</w>
επιστήμ ονας</w>
βρ ωμ
βουδ απέ
ma g
προσπάθ ησαν</w>
μπορ έσεις</w>
ηλεκτρ ικά</w>
ευρω ζώνη</w>
εργ αστεί</w>
z o</w>
συντ άκ
πι άσεις</w>
λί ων</w>
κακ οποι
επιστρ οφής</w>
εκείν ων</w>
εκατομμυρι ού
ε. ε</w>
gu est</w>
at or</w>
50 .000</w>
χ αν</w>
τρ έμ
σχέσ ης</w>
περιμέν αμε</w>
οτ αφ
κρατ ική</w>
κατανο ητό</w>
κάv ω</w>
θαλάσσ ια</w>
δέχ τηκε</w>
γ ηρ
αρν ητικά</w>
απο μόν
όνειρ ό</w>
πί στης</w>
οδυν αμ
λι πο
ε βλ
γυμν αστήριο</w>
βασ ισμένο</w>
ότερ ων</w>
συνεχ ίζουμε</w>
ποντ ίκια</w>
ικαν ότητά</w>
αποκαλ ούν</w>
αν έφεραν</w>
υποστη ρίξει</w>
τ ήν</w>
συρ ίας</w>
συμμετ έχει</w>
ξέν ων</w>
κτ όν
καλ έστε</w>
ενισχύ σεις</w>
εκ θέσεις</w>
δ ικής</w>
ανταγων ιστ
άφι ξη</w>
προσ φυγ
μπ ερ</w>
μον τ</w>
κβ αντ
θυμ όμαστε</w>
ηθ ήκαμε</w>
ζω η</w>
εγ γον
δι άλογο</w>
αναπ ηρ
en a</w>
ch a
συμ πληρω
προδοσ ία</w>
κ ότ
απ εργία</w>
d y
χ υση</w>
φρ εν
συναυλ ία</w>
πολιτ ικούς</w>
πι έσεις</w>
πι άνο</w>
δούλ ευα</w>
αλληλ εγγύ
έρθ ουμε</w>
is o</w>
fo re
του το</w>
ντ ελ</w>
μπάτσ ους</w>
λ αρ
κατάστ ασή</w>
εξ αν</w>
ενισχύ σει</w>
αυ την</w>
ίχν ος</w>
έ στη
4 4
3 .000</w>
χώρ ησε</w>
ταξιδι ού</w>
ρι σαν</w>
πλού σιο</w>
πέ τυχ
κερδ οσκοπ
ικαν ότητας</w>
ι ερό</w>
g or
cook ie</w>
φων άζεις</w>
σ .
νόμιζ ες</w>
νο έμβριος</w>
μοσ φαιρ
ρωσ ικό</w>
ολοκληρ ώσει</w>
ιζ όμαστε</w>
επιχειρηματ ίες</w>
δοκιμ άσετε</w>
διαλ έγ
άργ ησα</w>
st and
. .
προσ βολή</w>
πακ έτα</w>
διακοπ ών</w>
γυμν άσιο</w>
e co
1, 5</w>
φαντ άσματα</w>
συν εντ
λ ίζα</w>
κοιλ ιά</w>
δισ εκατομμυρίων</w>
δικτύ ων</w>
δ άση</w>
αϊ ν
ήρι ό</w>
χαμηλ ότερο</w>
φίλ ου</w>
συν αντι
σάντου ιτς</w>
θεωρ είς</w>
δρ ά
απολαμβάν ουν</w>
αντιμετωπ ίζουμε</w>
ίδ α
ψ άρ
πιστ έψει</w>
λ άδι</w>
κρ ίσεις</w>
κα ὶ</w>
εισ βολή</w>
εγ κατεστη
αρ ο</w>
ακ ούν</w>
φύλ λο</w>
στ ορ
κοσμ ήματα</w>
εξοπλ ισμός</w>
διαμέ ρισμά</w>
δήμ αρχ
βλ έποντας</w>
ίν τ</w>
έβγαλ α</w>
a υτ
συνεργ άτη</w>
προβλ ήματος</w>
προ διαγρ
βελτι στ
ανά πο
αεροπορ ίας</w>
3 50</w>
ϊκ ό</w>
συντ ροφ
σ ίλ
λ άσ
κάλ εσαν</w>
ευ όταν</w>
εργ ατών</w>
199 1</w>
νύχ τα
λάπ τοπ</w>
κυκλοφορ ήσει</w>
α προσ
έν ος</w>
άγ μα</w>
pl ace</w>
- μην</w>
τρομοκρατ ίας</w>
ταγ ματάρχ
παιχν ιδ
ουσ ι</w>
αργ ήσει</w>
φ έλ
τζ ωρ
μάρ τιος</w>
δικ ού</w>
απο θέματα</w>
αίν ονται</w>
χαζ ός</w>
τέτο ιος</w>
προ άλλες</w>
ογ εν
μει ώνεται</w>
λαϊκ ή</w>
αρν ητικό</w>
απόρρ ητο</w>
ανταγων ισμό</w>
αναγκ αία</w>
αγορ άσεις</w>
αγ ώνων</w>
k as
- ποιος</w>
τράβ ηξε</w>
παραμ ικρ
κρο ατ
εργοστ άσια</w>
εθν ικά</w>
διαβατ ήριο</w>
ακαδημαϊκ ό</w>
ακ ών</w>
y a
g ps</w>
g h</w>
τρώ γ
συμμορ ία</w>
πι εις</w>
παρόμοι ες</w>
παγι δευ
ου φ
ο τ</w>
ξεγ ελ
μακ εδ
αποτελ έσει</w>
υπερ ασπ
συν ωμ
πι άτων</w>
παρ αι
επέλ εξε</w>
άβ ει</w>
u x
d r</w>
φυσιολογ ική</w>
ομοσπον δία</w>
κόρ ης</w>
ζ ούσαν</w>
διάβ ολος</w>
ακ λ
έπ εσαν</w>
πλ ήκ
οικοδ όμηση</w>
ξέν οι</w>
μπο υφ
η …</w>
βι ολογ
όν τουσαν</w>
χάν εται</w>
τηλεοπ τικό</w>
ο ο
κατανο ήσουμε</w>
καθορ ίζει</w>
γου όρ
γκρ αντ</w>
αλήθ ειας</w>
πληρω μής</w>
πε ποι
μακρυ ά</w>
ιστ όρ
εύ τηκες</w>
γι ου
αν έλαβε</w>
άζ α</w>
mobil e</w>
er y</w>
ad e</w>
' λεγ
χρησιμοποι ήσεις</w>
τρ ά
πρώ των</w>
περν ά</w>
ζ ώνες</w>
α ξ</w>
έκ δοσης</w>
t it
t an
f ree
ca st
- εγώ</w>
τσ ερ</w>
τηλεόρ ασης</w>
πρ ακτορ
πον ο</w>
πλού το</w>
μαζ ική</w>
ικαν ό</w>
η -
εσ όδων</w>
έξυπ να</w>
p t</w>
ma c
19 45</w>
- ΄
όβ ια</w>
φαίν ομαι</w>
σ ις</w>
οφ όρα</w>
γυρ ίζει</w>
αι ολ
έγιν ες</w>
ώ μη</w>
τρι κ</w>
στρατ εύματα</w>
ντ αντ
διαγρ άψ
αν τού
αερ ίων</w>
s and
lo r</w>
περιήγ ησή</w>
περι έργεια</w>
ντόν αλντ</w>
μοντ έρν
ιδ ού</w>
ε τος</w>
αποκάλ υψε</w>
ά συλο</w>
- είμαι</w>
χρει αστούν</w>
φιλ μ</w>
τ ε
ληφ θούν</w>
αρ ιά</w>
ήλ πιζα</w>
do wn
amer ican</w>
συνέβ ησαν</w>
π ωρ
μπ αίνουν</w>
κλ αρκ</w>
καρ διακ
κ είμενα</w>
ζητ ήσεις</w>
αγ αν</w>
k on
ht ml</w>
ge t</w>
χάρ τες</w>
σοβαρ ολογ
περίθαλ ψη</w>
πήγαιν έ</w>
αυτο κτόν
αρ ι</w>
o μαι</w>
φαντ άσου</w>
ξέχ ασε</w>
λε ξ</w>
κρατ ά</w>
ικ οποίηση</w>
θεσ ή</w>
επαν ειλημ
ανεβ αίνει</w>
συν ετ
σπατ αλ
προστατ εύσει</w>
προ τί
ποί ημα</w>
περίπλοκ ο</w>
παρ άκ
δολοφον ήθηκε</w>
έρι ξε</w>
όγκ ο</w>
υ θ
σ ιλ
προσθέ τει</w>
ο v</w>
γκρ εμ
γ ες</w>
ί τσες</w>
geor ge</w>
υποσχ εθ
συμμετάσχ ουν</w>
ούν ε</w>
ηρ ή</w>
ερμην εία</w>
εξαρτ ώνται</w>
ανι ψ
αν ής</w>
αγορ άσουν</w>
ῆ ς</w>
χαζ ή</w>
φ ρι
πτ έρ
κατ ανομ
επι δόσεις</w>
αφ ούν</w>
su per</w>
υποσχέ θηκα</w>
ρ ευ
μητ έρες</w>
μά στερ</w>
κοιλ άδα</w>
εν αν</w>
αθλ ητές</w>
έ θεσ
air port</w>
ad a</w>
ύφ εση</w>
χ άνω</w>
φρ άγκ
π ικρ
ορ υκ
κυττάρ ων</w>
ιστ ρ
αύγου στος</w>
ωτ ής</w>
ω τος</w>
προϋπολογ ισμό</w>
πλά ι</w>
ξέν ες</w>
κυ μ
ανακάλυψ αν</w>
έλθ ουν</w>
έκ θεσης</w>
st an
pl us</w>
ψ ιλ
τολ μάς</w>
ματ ς</w>
δούλ εψε</w>
δημοσιογράφ οι</w>
βγ ουν</w>
ακτ ικό</w>
φτώχ ειας</w>
τετρ αγων
πού ν</w>
πί εσης</w>
ντ ρο
ζηλαν δία</w>
επιδιώ κ
δημοσιογράφ ους</w>
δεικνύ ει</w>
αρκ ετούς</w>
199 3</w>
πουκά μισ
διαλ έξ
δηλ ώσει</w>
απ' τα</w>
τρ ου</w>
συν ήθεια</w>
ομοσπονδιακ ή</w>
ξερ εις</w>
μαθ αίνει</w>
κοιμά μαι</w>
στ ενοχ
προπον ητή</w>
πετ άξω</w>
παρ κ</w>
μ περν
εσωτερ ικών</w>
εξ ασκ
εκτύπ ωση</w>
αναφέρ θηκε</w>
ή πια</w>
έπαι ξε</w>
που τ
κουρ ασμένη</w>
ισχυρ ές</w>
επιχειρηματ ικές</w>
διάκ ριση</w>
βιβλ ίων</w>
residen ce</w>
par is</w>
8 :
' h
όν τι</w>
φίλ ων</w>
υλ οποίηση</w>
πούλ ησε</w>
πολί τη</w>
πήρ ατε</w>
νεκρ οταφ
καταλ ήξει</w>
ι ορ
βελτι ωθεί</w>
έγκ υρ
σουη δία</w>
σ ιμ
ρωσ ικής</w>
κλ α
εξετ άσουμε</w>
εκτιμ ήσεις</w>
ίζαμπ εθ</w>
υποψ ι
σύννεφ α</w>
ρι ας</w>
παρά τησε</w>
ουλ ι
μ πλέ
κοντ ινή</w>
ιού λιος</w>
δο ξ
ma r</w>
f lash</w>
σύγχρον ης</w>
πρ αξ
παίκ τη</w>
πίστ εψε</w>
ν υ</w>
μιλ ούσα</w>
κουρ άγιο</w>
κή πος</w>
so uth</w>
4 6
τρέξ ιμο</w>
ιταλ ίας</w>
επισκεφ τ
9 :
00 0.000</w>
υδρ ογ
πρόσ λη
οργάν ων</w>
μει ώνει</w>
μ ίν
κλ έψει</w>
γράφ ουν</w>
βρεθ ούμε</w>
απόκ τηση</w>
ή πειρ
άξ εων</w>
χαίρ ω</w>
τρύ πες</w>
τροχ ιά</w>
πρωτ ότυπο</w>
προσπαθ ήσεις</w>
κρ έμ
βιταμ ίνη</w>
βελτι ώσεις</w>
τζ ων</w>
βομ β
αξιωματ ικός</w>
αναλογ ία</w>
αι ριν
έμ πλ
φαι ριστ
σωστ ός</w>
συζύγ ου</w>
μπήκ ες</w>
κοιν ής</w>
εγγραφ είτε</w>
διαφάν εια</w>
αναγκ αίο</w>
αμ φ
άπ ειρ
ποταμ ού</w>
πι ει</w>
παρακολουθ ώ</w>
π εσ
καταστρ οφής</w>
ιδιωτ ικές</w>
θεωρ ούμε</w>
επιβι ώσει</w>
wil li
χι λ</w>
υποστηρ ίζεται</w>
μάρ σαλ</w>
κύ προ</w>
ελέγ ξει</w>
δ ή
αναθε ώρηση</w>
έστερ η</w>
mark et
e y</w>
cas a</w>
φυσιολογ ικά</w>
φιλ όσ
υψηλ ές</w>
τι ποτα</w>
σταματ ήσετε</w>
πρώ τους</w>
πλά τος</w>
πεποι θ
οφ ων
μάν τσεστερ</w>
λύ σει</w>
ηγ έτη</w>
ζ ερ</w>
εννο είται</w>
εγκυ μοσύνη</w>
βαθ ύ</w>
όγ ειο</w>
τζωρ τζ</w>
πιστ ός</w>
ορ ίζ
καλοκ αιριν
ισχυρ ίζεται</w>
ιπ πό
ι γι
επικρ ατ
επαγγελματ ικά</w>
εδ αφ
αρχηγ ό</w>
sh i
h i</w>
a v</w>
όμ ες</w>
όλ ιβερ</w>
πυρην ικό</w>
ποδοσ φαιρ
παράξ ενη</w>
διαν υκ
διακρ ίσεις</w>
γκαρ άζ</w>
βρίσκ ουμε</w>
βοηθ ούσε</w>
έφ θ
o ύ</w>
ρ όδ
ποδοσ φαιριστ
μίλ ησες</w>
ευθ εία</w>
εκτιμά ται</w>
εv τάξει</w>
δικαστ ή</w>
γενναι όδ
αυξ ήθηκαν</w>
c t</w>
bi g</w>
τραπεζ ών</w>
τ ήτων</w>
μπ ίλ
μετε ωρ
κλέφ της</w>
καλω διακή</w>
εφ ηβ
επισ κόπηση</w>
επι τελ
δικτύ ωσης</w>
γουίλ ιαμ</w>
βικ τ
άστ ρα</w>
άρ π
vil le</w>
an aly
1 30</w>
τι σμός</w>
ταϊ βάν</w>
συστ ήσω</w>
σημ ατο
πουλ ος</w>
παντρε μένη</w>
κοπ έλες</w>
καν ει</w>
εκ α</w>
γκο λ</w>
αύξ ησης</w>
e p
ρωτ άει</w>
πόν τους</w>
ο θεί</w>
εν ε</w>
άθ εια</w>
us b</w>
p ra
φέρ εσαι</w>
ικαν οί</w>
εναλλακτ ικές</w>
γ άλλοι</w>
ασθεν ειών</w>
φορ ία</w>
υγι είς</w>
σπο ρ</w>
προ ο
περιορ ισμό</w>
οργαν ισμών</w>
ξύπν ησε</w>
να 'ναι</w>
λείπ εις</w>
ελ ε
αστ ήρα</w>
αναλυ τές</w>
ίστ ως</w>
έπαι ζε</w>
g m</w>
ύπν ου</w>
στ ολ
σ ν
οκ τον
μαγ αζ
καθ ιερ
ζ αλ
εσωτερ ικά</w>
επι μελ
αι θ
ti me</w>
όσ π
φ ίδι</w>
προτιμ ούσα</w>
επιτ αγή</w>
επιβί ωση</w>
ε μένη</w>
βγ αίνεις</w>
ανεπ τυγ
αμαρτ ωλ
έλ ειπε</w>
άκ ος</w>
l ic
τ. μ</w>
τ εται</w>
προκύ πτει</w>
παράδεισ ος</w>
κατά ταξη</w>
επιλέξ ουν</w>
εμβολ ι
αν τε</w>
υπο στηρι
τσι μπ
τρελ αθεί</w>
ταξ ης</w>
εικ όν
δ ου
βαρ σοβ
αρρώστ ια</w>
pow er
σπουδ αίος</w>
παρ εξήγηση</w>
ηνω μένου</w>
ευ μένος</w>
γαλ άζ
ανό ητη</w>
φ ης</w>
τσ ον</w>
τρ είς</w>
στρατιωτ ικό</w>
κρατού σε</w>
δαν εί
w ard</w>
o te</w>
al d</w>
9 00</w>
χρή ματά</w>
συναισθηματ ική</w>
ζ ες</w>
βρικ όλ
αρ ουρ
απο δο
αναλυτ ικούς</w>
αμερικαν ικού</w>
scien ce</w>
/ άτομο</w>
φέρ ετε</w>
τρ έφ
σύμπ αντος</w>
ρύπαν ση</w>
καν αλ
ικ οινων
η να</w>
ζ όμαστε</w>
ζ ήτω</w>
ει ρων
δοκιμ άσουμε</w>
συνηθ ίσει</w>
σκοτ ώνουν</w>
περιστ ατικά</w>
αλλά χ</w>
19 60</w>
υπο γράψει</w>
σχεδ ίων</w>
σκου πι
ποταμ ό</w>
πιλό τος</w>
λ οι</w>
η τού</w>
εμπορ ικών</w>
δικαι ού
διατίθ ενται</w>
γίν ε</w>
βερ άντα</w>
αιν ει</w>
άσ εως</w>
ph il
j an
τριτοβάθ μιας</w>
τρέξ τε</w>
συντ ήρηση</w>
πρότ εινε</w>
παραμύθ ι</w>
βιρτζ ίνια</w>
αζ ει</w>
΄ ΄
joh n
πλ έν
μαγ είρ
κό ψει</w>
δ ων</w>
αξιόπιστ η</w>
0 5</w>
υπαρ χει</w>
υγ α</w>
περιλαμβάν εται</w>
ου χ
οδηγ ήσουν</w>
λέγ ε</w>
κι θ
θρ αυ
επιδ ειν
αυξ ημένη</w>
αρχ ίσαμε</w>
απόλ αυ
in e
ό ς
φ ερ</w>
γ ήρ
ψεύτ ικο</w>
πλησ ί
ελεγ κτ
χρησιμοποι ήθηκε</w>
χρ ώματος</w>
υπ ο</w>
πόλ εων</w>
ημ ι
ευρωπαί οι</w>
εργ ατικό</w>
επέτρ εψε</w>
δόσ εων</w>
t ab
χ τισμένο</w>
νύχτα /άτομο</w>
κορυφ ής</w>
εποχ ές</w>
εξ ατομ
tru mp</w>
s ing
χαμηλ ού</w>
φορ α</w>
πυρην ικών</w>
πι είτε</w>
περι ηγ
μεξ ικού</w>
κακόβ ουλ
αχ τ
' ηρ
ω τες</w>
πρό στιμο</w>
προ θεσ
παραμ ονή</w>
καρ διακή</w>
η μένου</w>
η μένης</w>
ενόχλ ηση</w>
διαρκ έσει</w>
δo υλ
c c</w>
ύν εται</w>
τηλεπ ικοινων
παίξ ουν</w>
ανοίξ ετε</w>
αναπτύχ θηκε</w>
υπερβ αίνει</w>
η ρα</w>
εξ ω</w>
ελ ίζαμπεθ</w>
δί αι
ανακαλύψ εις</w>
φροντ ίζει</w>
συνεδ ρίαση</w>
πρωταθλ ητής</w>
πάλ η</w>
ησ ω</w>
επι φαν
διαθήκ η</w>
βυζ ιά</w>
ασυνήθιστ ο</w>
ro n</w>
co n</w>
ψηφοφορ ία</w>
τσ ιρ
νιώθ ετε</w>
έννοι ες</w>
ac t
χάλ υβα</w>
χά θηκαν</w>
τσ ά
προ αγωγή</w>
παιδ ια</w>
ξεκιν ήσουν</w>
κέρδι σα</w>
ι ωσ
επαφ ής</w>
γι ώρ
αντ έρ</w>
st on</w>
ψ άξω</w>
φιλ ντ</w>
προσ έχει</w>
ποι ανού</w>
νόμ πελ</w>
ντ ύ
θ ά
ηρεμ ήστε</w>
ηθ ικό</w>
γον ίδια</w>
γερμαν ός</w>
αι τι
ex press</w>
4- αστέρων</w>
τρ ελλ
ιδιοκτ ήτη</w>
ελέγξ ετε</w>
ε με</w>
διαλ έξεις</w>
β ας</w>
απειλ εί</w>
τελ ων
παραδοσ ιακή</w>
απολαύ στε</w>
φα ξ</w>
τούρ τα</w>
προσ εύχ
προέκ υψε</w>
κά ψ
επικίνδυν ος</w>
δυ τικής</w>
δίν ετε</w>
β αγ
υπο γραμμ
υπεύθυν ο</w>
σιδ ερ
ρο ές</w>
πηγαίν αμε</w>
νοικοκ υ
μά κρ
λ αί
κυ λ
γά μα</w>
αν ς</w>
gar den</w>
ύ τ
σχεδι ασμένο</w>
πιστ έψτε</w>
παρατηρ ήσεις</w>
πέμπ το</w>
μυθ ιστόρ
ζημ ιές</w>
γεγ ραμ
α στο</w>
o γ
eσ ύ</w>
exc el</w>
2 ο</w>
ών ομαι</w>
τοπί ο</w>
οποι ούνται</w>
κολλ ήσει</w>
ικετ εύω</w>
ει φ
αντ έξει</w>
ακ ός</w>
w es
1 10</w>
πλ ωση</w>
εξάλ ειψη</w>
δεχτ είς</w>
αστρ ονομ
12 .
τζ αν
μον ας</w>
κίνη τρα</w>
θ αμ
ευχαρ ίστως</w>
δείκ τη</w>
z e</w>
y u
del ux
c le
χ αμ</w>
τρελ ά</w>
σχολ ές</w>
ενθαρρ ύνει</w>
ελεύθερ ου</w>
αγ α</w>
έστ ερο</w>
άγ γλ
k u
λιγ ότερες</w>
λ ιτ
καρ ύ
επ αληθ
δηλ ώνουν</w>
γυναικ εία</w>
ατ μοσφαιρ
re r</w>
dri ve</w>
comm ent</w>
a o
φ ι</w>
τζό ουνς</w>
τέχ νες</w>
συμμετο χής</w>
ξυπν ήσει</w>
θετ ικές</w>
επεισ όδια</w>
εξελιχ θεί</w>
βλ άψει</w>
άρ ματα</w>
smartp hone</w>
pre mi
log y</w>
ic o</w>
προσεκτ ικοί</w>
περί π
μαλ αισ
εφιάλ της</w>
εξαφάν ιση</w>
δό κτ
γι ους</w>
αν ο</w>
άγ ματα</w>
roo ms</w>
ro me</w>
20 .000</w>
ψυχ ική</w>
φέρν ουν</w>
τζ ά
συνδυ άζει</w>
σταματ ά</w>
πέρ αν</w>
π ότ
μπλ ού
καν ω</w>
εφαρμόζ εται</w>
εκ δό
αστει εύεσαι</w>
συν όρων</w>
στείλ ουν</w>
κλείσ ουμε</w>
δυσ αρ
γρήγορ ος</w>
αν ωτ
έφαγ α</w>
τι σε</w>
σού πα</w>
μακρ ά</w>
η ρι
αποφασ ίσαμε</w>
ά σ</w>
υπάλληλ ος</w>
ρ ίσ
πετ αλ
πί ου</w>
ν εκ
κοιμ ούνται</w>
κλειστ ά</w>
εξυπηρ ετη
ασχολ ούνται</w>
άρθρ ο
7 :
- εσύ</w>
φί βολα</w>
συναρπ αστική</w>
ρ ικ
μπαταρ ίες</w>
λαμβάν ονται</w>
αν ία</w>
v an</w>
ur a</w>
is land</w>
φιν λανδία</w>
τού νελ</w>
συμπερ άσματα</w>
σιδ ερώ
πλοκ ή</w>
πει στ
κουζ ίνας</w>
τι μ</w>
ρ άμ
μόλ υνση</w>
κανον ισμούς</w>
επιλέγ ουν</w>
δι αρρ
γνώ ρισε</w>
αρχιτ έκ
z e
c ri
υρ ό</w>
υ π</w>
συνομιλ ία</w>
σειρ ές</w>
μάρ τυ
λέγ ατε</w>
θερμ ίδες</w>
ερν ε</w>
επιτ εύγ
δεκαπ έντε</w>
αχ ιστ
ώ v
χρ όv
συν άρτηση</w>
ον είρ
ιν διάν
ευ όμουν</w>
εκ ειν
ειρην ικού</w>
δι άστ
δάν εια</w>
ατο κάμαρ
sy ste
at h
10 :
χα μένο</w>
παιδ ικά</w>
εξετ άζει</w>
δοκιμ ών</w>
tran s
shar e
σταθ μούς</w>
σκοτ ώνεις</w>
πεπρω μένο</w>
νομο σχέδιο</w>
θε ώρηση</w>
γυρ ίστε</w>
αποφάσ ισαν</w>
αντικει μένων</w>
cent re</w>
10 -λεπτά</w>
φ την
τόμ ι</w>
τρομ ερή</w>
προσ βάσ
μύ θος</w>
επαρκ ή</w>
ακ ομα</w>
holi day</w>
g an</w>
eυχαρ ιστώ</w>
υπο φέρουν</w>
πον οκέφαλ
οπ αλ
ομο ίως</w>
ά τους</w>
z i
' ολα</w>
ού δες</w>
μπρ ους</w>
ζ ου
ευγεν ικός</w>
αυτο μα
ακριβ ής</w>
έγρα ψες</w>
ψ εων</w>
ταλ αι
συσκευ ασία</w>
πτ ική</w>
πείν ας</w>
μετατρ απεί</w>
κινδυν εύει</w>
βλέπ εται</w>
αρχ ίζεις</w>
έν ιο</w>
άντ υ</w>
es co</w>
τσ ακ</w>
τραύ μα</w>
π ειρα</w>
μαρ ξ
ιωάν νης</w>
ιερουσαλ ήμ</w>
αυτοκιν ητ
αξιο πρεπ
αντ αι</w>
αισι όδοξ
α ηδ
ut e</w>
όχ ειρ
χρησιμοποί ησαν</w>
φλ εγ
υπό κει
πν εύματος</w>
πλ αισ
μπρ αντ</w>
εξ ώ
γρ αβ
αν εργία</w>
χρηματο δο
παρά πονα</w>
μαθ ητή</w>
λ ισ
αγαθ ών</w>
έμπν ευση</w>
vis a</w>
o li
ταλ αντού
μιλ ήσουν</w>
κό ψε</w>
ευρ ήματα</w>
ευ ες</w>
διάσ ημο</w>
έχ ε</w>
υπάλληλ οι</w>
σημαντικ ότερο</w>
ογραφ ικό</w>
κατέστρ εψε</w>
ιστότο πος</w>
επαγγελματ ικές</w>
αζ όμουν</w>
άμβ ανε</w>
er a</w>
όλ ογ
χημ εία</w>
υπαρ χ
πόσ ους</w>
πήγαιν αν</w>
κασ έτα</w>
ζεστ ή</w>
εισαγγελ έα</w>
δρομ ή</w>
διοικ ητικό</w>
αυτοκτον ίας</w>
ήγ ησης</w>
word press</w>
συν ορ
συν αλλαγ
προπον ητής</w>
πορ τρ
πληρ ώνω</w>
ν ήσ
μασ άζ</w>
μέλ εια</w>
θυ μάτων</w>
εγκυ μοσύνης</w>
διαθεσ ιμότητα</w>
διέ ταξε</w>
αποφασ ίζει</w>
αμερικαν ικών</w>
ήμ ισυ</w>
0 3</w>
τ αβ
σταυρ ό</w>
προκαλ έσουν</w>
μετανάστ ευσης</w>
κρι θεί</w>
ιν ών</w>
ζω τικής</w>
βι ωσ
βίβλ ο</w>
ho r
blu e</w>
τυφλ ός</w>
σ πρ
ούλ ης</w>
νι ώσει</w>
μά γκ
μ αρκ
επιστημον ικής</w>
δημο ψήφισμα</w>
α ΐ
ό παιδ
φυλακ ές</w>
υπέροχ ος</w>
ρομαντ ική</w>
επιστρέφ ουν</w>
επανάλ ηψη</w>
αποτύχ ει</w>
αντικ ατοπ
αι ων
ίδι ας</w>
έν του
ά τας</w>
j on
co m
a x
χ ου</w>
στέγ η</w>
ομίλ ου</w>
μετανάστ ευση</w>
θελ ετε</w>
εχ ετε</w>
γεν εθ
αντί γραφα</w>
αδελφ ές</w>
wor d</w>
an ce</w>
στιγ μι
πρω τοπο
προσ γεί
ξέν η</w>
μισ ούν</w>
λαμβάν ετε</w>
εξ ειδίκ
an i
3 3
υπό βαθ
παρ άλογο</w>
ουκραν ίας</w>
μάγ ος</w>
ιδιαί τερ
ετοιμάζ εται</w>
δίν οντας</w>
βρεταν οί</w>
απόρ ρι
άρχ οντα</w>
άν ευ</w>
w er</w>
fli x</w>
τρ εμ
σύν οδο</w>
ρ χ
ρ ίου</w>
μπορ έσουν</w>
κεφαλ αίων</w>
εμφαν ίζει</w>
δάχτυ λο</w>
δ οι</w>
βρ αδ
απόκρι ση</w>
αποτυπ ώματα</w>
αναμ φίβολα</w>
α του</w>
ή β
9 9
χά να</w>
χ .</w>
τεχν ητή</w>
σιδηρ ό
κερδ ίσουν</w>
ητο ί</w>
αποκαλ ύπτει</w>
αναπαρ αγωγή</w>
e ast</w>
στι ν</w>
ς -</w>
παρ αιτη
π ων</w>
νησ ιού</w>
μ ΄
εκ κίνησης</w>
απο βλ
αξιοπιστ ία</w>
έντ ες</w>
έντ αλμα</w>
cent ral</w>
8 ,
πολέμ ους</w>
πετρού πολη</w>
πατ ερ
μον οπ
μέν ουμε</w>
ισ σας</w>
ασ ίου</w>
αντ αλλ
α ζ</w>
φων άζουν</w>
τ ίνος</w>
συ σχετ
ο v
ιατρ ικές</w>
ι ον
δυσάρ ε
βαθμ οί</w>
ακ ού</w>
w ash
g on</w>
συν αρμ
σ απο
μόδ α</w>
κατανο ήσουν</w>
επικοινων ιών</w>
ε …</w>
δημοφιλ ές</w>
αντικατοπ τρ
αιγυπ τι
t t</w>
σηκ ωθείτε</w>
ριζ οσ
ποι οί</w>
οφ ρ
ου ίλ
κοιτ άξουμε</w>
καθ οδήγηση</w>
ευρω ζώνης</w>
γιώρ γ
γελ άς</w>
γέφ υρ
ανταγων ισμός</w>
όρ ου</w>
τ εχ
προστ άτ
η πείρ
ζητ άμε</w>
εφοδι ασμού</w>
εταιρ ική</w>
αιγ ε</w>
x box</w>
for t</w>
χρηματοδ ότησης</w>
φαιν όμενα</w>
υμ ά</w>
πυροσβ εστ
περν άμε</w>
πείρ αζε</w>
ξεκιν ήστε</w>
μέ ι</w>
ασφάλ ισης</w>
αναγκ ών</w>
σφι χ
ού σας</w>
ξέρ ατε</w>
λατιν ική</w>
επιδιώ κει</w>
δυ τικό</w>
γκρέ ις</w>
βοηθ άς</w>
to s</w>
bo ur
b o</w>
χτ εί</w>
συμφών ησε</w>
μουσ εία</w>
μον αστ
μοιρ αστώ</w>
κληρονομ ιάς</w>
επιβεβαί ωση</w>
εντοπ ίσει</w>
γ άλλος</w>
βαρ ντ</w>
απο δείξω</w>
προσωρι νή</w>
ν τού
καφ ετέρ
διατ υπ
αναν έ
α α
έπαιρ να</w>
o ί</w>
κλασ ικό</w>
εκπαιδευτ ικών</w>
δεκ έμβριος</w>
δέχ ονται</w>
βασ ικός</w>
ήν ιο</w>
an n
19 50</w>
ορ όφ
ξεχν άτε</w>
κύ πρ
am o
ναυ πηγ
θερμ οκ
δόκτ ωρ</w>
β ακτ
αντι βιοτ
ανί καν
αι μία</w>
έ τας</w>
χ αϊ
ρωσ ικά</w>
παρ άσχ
π .</w>
νομ ικό</w>
νι ου</w>
λού σι</w>
θ ους</w>
ελ αφ
t al</w>
t al
μά γκα</w>
αδ άμ</w>
α ψα</w>
φιλιπ πίνες</w>
περν άω</w>
πίν ουν</w>
εξ όδου</w>
δοκιμ άσεις</w>
ακύ ρωση</w>
αεροπορ ία</w>
φροντ ίσει</w>
σ πέρ
πολλαπλ ασι
π αμε</w>
μακεδ ον
λάβ εις</w>
ηρεμ ία</w>
ειλ ικρ
διάρ κειας</w>
δημοσί ευσε</w>
απο σπ
αμ άντα</w>
άπο ψή</w>
h ack</w>
τόσ οι</w>
συνιστ άται</w>
στ ό</w>
πλο ίου</w>
παρ έχοντας</w>
π. μ</w>
ολ οκ
μαλακ ό</w>
κατασκευ άστηκε</w>
ι π</w>
ει ου</w>
έψ ατε</w>
συμβ άλει</w>
προ έλευση</w>
μόν ων</w>
μηχαν ήματα</w>
κωδικ οποι
κου π
εμπ νέ
ελ πι
απέ τυχ
ακ τος</w>
squ are</w>
se a</w>
a .
πουλ άει</w>
παρά γραφ
κιβ ω
ικ ομ
ζούγκλ α</w>
r us
υπολογ ίζεται</w>
συνεχ ιζ
που μπλ
μου στ
μοίρ ες</w>
κρεβ ατοκάμαρ
επιτ έθηκε</w>
δι ηγ
αυτοκτόν ησε</w>
αρν ητική</w>
manag ement</w>
φ ου</w>
υπο κρι
στάλ ιν</w>
ρί χ
πρ έσβ
νεκρ ών</w>
μεταρρύ θμιση</w>
μ ί</w>
εργ ίας</w>
διαστημ ικό</w>
αστ α</w>
ανατολ ής</w>
υποσχέ θηκε</w>
ποι ητής</w>
ολ ό</w>
ευρ εσ
εκτιμ ά</w>
χέν ρυ</w>
χ οι
παίξ τε</w>
μεγέθ η</w>
βασιλ εία</w>
β ίν
αρθ ρα</w>
t on
c it
φάρ μα</w>
σαμ αρ
πρ ίν</w>
περίθαλ ψης</w>
μισ είς</w>
επιβεβαί ωσε</w>
αχ τεί</w>
απόλ αυση</w>
απρίλ ιος</w>
ανοσ οποι
έρ ι</w>
share point</w>
/ -
τη μάτων</w>
τζ εφ</w>
σύσκ εψη</w>
σταδιοδρομ ίας</w>
λεπ τ
κύκλ ου</w>
ιταλ ική</w>
ευ ελι
10 1</w>
χ μ</w>
τζούλ ια</w>
σωστ ές</w>
ον ομα</w>
καλ έ</w>
εξέλι ξης</w>
εκκλησ ίες</w>
εβ ο</w>
από πειρα</w>
απομακρ υν
έ βλ
άζ αμε</w>
ψ υκ
χορ ού</w>
περι εκτ
ξεκ ούρ
μέθ οδοι</w>
κανον ίσω</w>
καθαρ ός</w>
ετ έ</w>
εισαγωγ ές</w>
αντιστοιχ εί</w>
α ει</w>
ήτ τα</w>
άλλ ης</w>
uni x</w>
se n</w>
5 /
ώμ ο</w>
συγκέντ ρωσης</w>
ρε πουμπλ
παλι ός</w>
π επεισ
οσ ίας</w>
μπρ άν
μαθηματ ικών</w>
ερευν ητικό</w>
επιχείρ ησή</w>
επίσ κ
εγκ αίρ
απο δοτ
αν ι</w>
ti c</w>
οικονομ ικού</w>
ετοιμ αστείτε</w>
εισαγγελ έας</w>
εγκαίρ ως</w>
είν αι
βαρ ετό</w>
αυ της</w>
αλ λ</w>
ταλαι πωρ
συζητ άμε</w>
σκάν δαλ
λι βερ
κλ εμ
απέκ τησε</w>
έδι ω
το σο</w>
συνεργ άζεται</w>
συμβ ούν</w>
οικογέν ειάς</w>
εννο εί</w>
απλ ές</w>
ίν ει</w>
t in
υγρ ασία</w>
πυρ αμ
προ κατ
κάλ υψ
ιν η</w>
εμφάν ισης</w>
δυναμ ικού</w>
γραμ μένο</w>
βορ ει
αναγκά ζ
s n
τρ ο
ταξιδι ώτες</w>
μ ουλ
επιχειρηματ ίας</w>
δημοτ ικό</w>
αν ακού
ser vice</w>
d '
c el
χτυπ ήσεις</w>
συνεδρι ακό</w>
γραφ ει
βουδαπέ στη</w>
β .</w>
αγορ άζουν</w>
ίδρυ ση</w>
te n</w>
d al
ὅ ταν</w>
φαντ άζεσαι</w>
τζ άν
σκ επτ
μεγαλύτερ ους</w>
λογοτεχν ία</w>
κατασκ ήν
καταλάβ ατε</w>
καθιστ ώντας</w>
καθ εδρ
εμπ νευ
έν η</w>
άδ ειες</w>
s lo
gam es</w>
χτύπ ησες</w>
υφ θεί</w>
υποψήφι ος</w>
συνδε θεί</w>
ρωτ ήσει</w>
πo ρ
οίκ ου</w>
μηνύ ματος</w>
εξ όρ
διαχ ωρι
β ος</w>
αρμ οδι
αθ ω
χάρ ολντ</w>
ρότζ ερ</w>
προτιμ ούν</w>
περιοχ ών</w>
μνημ είο</w>
κλείσ εις</w>
εφ τ
ειλικρ ίν
αξ ιών</w>
αγαπ άτε</w>
si de</w>
be n</w>
όρι ς</w>
χιλι άρικα</w>
χ ί
τουρ ίστες</w>
συστ ατικό</w>
συμφών ησαν</w>
πρακτ ικής</w>
πραγματοποι είται</w>
πολιτ είας</w>
παρ άσ
παλαι ότερα</w>
μέ σης</w>
μ όσχ
ει ται</w>
αμ ήν</w>
αερ ο
αβρα άμ</w>
έλυ σε</w>
p ub
a ν</w>
υπο δομές</w>
στή ρα</w>
πο δηλ
ορ ίζεται</w>
ολ άβ
μ προς</w>
μ 'αυτό</w>
λεωφορ είου</w>
λεί ψει</w>
λέ ον
κρεβατ ιού</w>
καιρ ούς</w>
αναγνωρ ίσει</w>
ανα ζω
έσ ατε</w>
ch ec
σπάν ιο</w>
σκ ί
ρ εσ
παρ ών</w>
ου δέ
εσ δήποτε</w>
επιβρ αδύν
διαπίστ ωσε</w>
απ αίτηση</w>
b ack
0 4</w>
χριστ ουγ
συμβ άν</w>
σ αρκ
ουγ γαρ
ντ ιν</w>
λουλ ούδι</w>
λεγ ει</w>
ιερ έας</w>
ησ ίας</w>
ζ υρ
διανομ ής</w>
γεγον ότων</w>
αποδεικνύ εται</w>
άψ ουν</w>
ύν ω</w>
πρό γραμ
περιθ ώριο</w>
ομ εν
ξεχ άσουμε</w>
ημερ ολογ
απο μείνει</w>
αγορ άζει</w>
ίδ ης</w>
ίατρ ος</w>
ή πι
φεβρουά ριος</w>
υπο βολή</w>
μετ ρο</w>
κα ΐ
εν τούτοις</w>
εμπειρογνώ μονες</w>
διδ άξει</w>
αφ ηγ
αν ός</w>
p in
συνεργ αστεί</w>
συμβι βασ
σοβαρ ός</w>
μπορ εις</w>
μπήκ αν</w>
μά για</w>
κωδικ ούς</w>
ενημερ ώσω</w>
δάν ειο</w>
αυτο νομ
αντι πάλ
αν άρ
έβ δομ
ar ch</w>
6 7
ώ της</w>
προσ κ
μπ ια</w>
μπ αίνεις</w>
ιστ ικός</w>
αυτ ί</w>
s .com</w>
χειρο τερ
ο π</w>
μπαμ πά
εχ α</w>
επαναλαμβάν ω</w>
ενεργ ειακή</w>
εισ ερχ
διπλ ά</w>
ter n</w>
stor e</w>
li fe</w>
l l</w>
όσ ασταν</w>
φ ιν</w>
σχέδι ό</w>
ρ ον</w>
οτ άτη</w>
β έρ
β o
αντ αλλαγής</w>
ανέβ ει</w>
αλ ο</w>
th er
20 30</w>
σταματ άει</w>
πιστωτ ική</w>
ομορφ ιάς</w>
ντρ έπ
καί ει</w>
κα ου
κ αντ
θυμη θώ</w>
δείκ τες</w>
ίδι ους</w>
ύσ ουμε</w>
ύλ ης</w>
χριστουγ ένν
παγκοσμι οποίηση</w>
θρ επτ
θαν άτους</w>
ευ θυ
άν ετη</w>
άγνω στη</w>
ύπαρ ξης</w>
χω ριά</w>
τραγου διστ
σύ στη
πράσ ινα</w>
ξέν ο</w>
λ ωρ
ερευν ητικά</w>
εγγράφ ων</w>
γν ήσ
βρίσ κονταν</w>
απ εχ
ανακού φ
αγορ άκι</w>
έλ λα</w>
χρυσ άφι</w>
φυ τό</w>
τι θέ
τζό ι</w>
παρ έμβαση</w>
λ ιά</w>
καταλαβαίν ουμε</w>
καρ α
κ αυτό</w>
ισ οδύν
επηρ έ
δωματ ίων</w>
βραζιλ ίας</w>
βάλλ ονται</w>
συμμάχ ους</w>
ξ υρ
μπ ιν</w>
κρατ ήσουν</w>
κληρ ονόμ
διαφθορ ά</w>
δι αιτη
αφοσ ίωση</w>
απ όσπ
villa ge</w>
p art
όβ ερ</w>
φω σης</w>
τρέξ ει</w>
μπ έντ
μεταβ ολ
μά ζα</w>
μ προ
κοιν οτ
εστ ίαση</w>
γι ός</w>
ανταποκρίν εται</w>
ακού στηκε</w>
t ώρα</w>
τη δες</w>
τελει ώσεις</w>
τελεί ωσαν</w>
πλού του</w>
παίζ ετε</w>
ξ έφυγε</w>
νόμιζ ε</w>
λύ κος</w>
ι άνα</w>
θεωρ ηθεί</w>
ατυχ ήματα</w>
al ex
τρ έχεις</w>
μπ έρν
μακροπρόθεσ μα</w>
λέον αρντ</w>
κοστ ίσει</w>
καρκ ιν
ησ ουν</w>
ευ μένα</w>
εξ έγερση</w>
γνώριζ α</w>
αληθ εια</w>
ακρό αση</w>
αιτ ήματα</w>
ίστη κες</w>
ί δ</w>
έθ νους</w>
st .</w>
4 9
μει ώθηκε</w>
μεγαλ ώνουν</w>
ματ ικής</w>
μάρκ ο</w>
καρ αμ
ικ ά
ιάπ ωνες</w>
ζητ ήσετε</w>
ευχαριστ ω</w>
ενθ άρρ
βιντε ο
αρχ άς</w>
απαντ ά</w>
ακού σαμε</w>
m /
11 :
ύποπ το</w>
ουσ ιών</w>
ξ ί
μ ηρ
κυνηγ άει</w>
επισήμ ως</w>
ανθρώπιν ων</w>
αθ ούν</w>
gu est
' ταν</w>
ωτ ά</w>
χάλ ασε</w>
συν θηκών</w>
πρόβλ εψη</w>
πλ αστικό</w>
ντ ελ
γρ ά
γκαρ νταρ
ar a</w>
ουά ου</w>
οκ ομ
μπ όλ
ευγνω μοσύνη</w>
εξοικ ει
αυτοκρατορ ίας</w>
άρ εσαν</w>
t ure</w>
j ack</w>
b ach
2 ,5</w>
χριστουγένν ων</w>
φρέσκ ο</w>
ρόμ πιν</w>
π είς</w>
οποι εσδήποτε</w>
νό το</w>
κοινοβ ουλίου</w>
κ ελ</w>
ισ ό
ζεστ ά</w>
εμ πλέ
βρ ομ
ανοικ τή</w>
ανεξαρτησ ίας</w>
άψ εις</w>
mar ia</w>
8 8
ωρι μ
χρέ η</w>
τ εμπ
σκότ ωσέ</w>
προσ καλ
ορ οφή</w>
οδ ομ
μακρ ύ</w>
θυ μό</w>
ηλ ιακό</w>
αυτοκινητ ό
ασ β
o ld</w>
mar tin</w>
i e
2 η</w>
' λεξ</w>
όλ ογα</w>
νόμ ιμο</w>
ν όσο</w>
μεθ οδ
μ εντ
ικ οποι
διόρθ ωση</w>
γκρι νι
γερμαν ούς</w>
αβ ες</w>
συλλογ ής</w>
στρ ώμα</w>
σε φ</w>
μυθιστόρ ημα</w>
μέλ ι</w>
επι ζ
διαχειριστ ές</w>
διαμ όρφωση</w>
δ ότες</w>
αφήν οντας</w>
ακτι β
ήσυχ ος</w>
συμφων ούν</w>
σού ζαν</w>
σ πού
πρόβ ατα</w>
κο κτ
κάv ει</w>
κ αίσ
η π
ερ ί</w>
εκ τέλεσ
ar i</w>
5- λεπτά</w>
φόρ μας</w>
φιλεν άδα</w>
τρελ οί</w>
παρ ανο
κάτσ ω</w>
βλακ εία</w>
άπ η</w>
g g
0 7</w>
συμπαθ ώ</w>
σ ΄</w>
πύρ αυ
πλ άνο</w>
μπόρ εσες</w>
ιστότοπ ό</w>
ιδ ου</w>
ερωτευ μένη</w>
εργαστ ούν</w>
ελ ς</w>
έκπλ ηκ
άλ μα</w>
to m</w>
χριστιαν ός</w>
σού περ
σημει ωματ
ουραν ός</w>
νοιώθ ω</w>
νεφ ρ
μήν υμά</w>
κρατ άμε</w>
κοιν ο
θέ αμα</w>
θ ια</w>
εισ αγάγ
γεωργ ίας</w>
αρν ηθεί</w>
αναπ ν
αλγ όρι
o h</w>
i m
en s</w>
τρελά θηκες</w>
σκ έπ
παρ έμεινε</w>
ντο κιμ
καταγρ αφή</w>
wash ington</w>
ke y</w>
it a</w>
a λ
υποστηρικ τές</w>
συνεργ άζονται</w>
ρ εύματος</w>
μαθ αίνεις</w>
κλ ουβ
κινηματογράφ ου</w>
ικ έ
ειμ αστε</w>
β ΄</w>
wor k</w>
sk i</w>
c li
0 2</w>
τό ξ
ς .
προμηθ ευτές</w>
πειν άς</w>
παρ άτ
κατέβ α</w>
εμ φύ
δουλ έψεις</w>
αναλάβ ω</w>
d u</w>
χ άσουν</w>
τζού λι
συντελ εστ
πιστ όλι</w>
ομ ί
λ ήγ
κατασκευ αστής</w>
καιρ ού</w>
εμ π</w>
διαλ ογ
γνωρ ίζοντας</w>
ακ τίνα</w>
αιχ μάλ
αι φ
αι ρα</w>
αγαπ ημένος</w>
υπ έγραψε</w>
τ όπου</w>
ισ μένων</w>
εδάφ η</w>
γκαρνταρ όμπα</w>
analy t
ρώ μης</w>
πεθ αίνω</w>
παρουσ ίασε</w>
νομ ικές</w>
μόρ γκαν</w>
κοιτ άω</w>
καλ ής</w>
ερεύ ν
ερ εθ
βγ ήκα</w>
αρχ ήν</w>
αναγνώ στες</w>
αιτ ήσεις</w>
t le</w>
c l
and a</w>
χτύπ ησα</w>
ξ αv
κου τιά</w>
επιβλ αβ
εβρ αίος</w>
δημοκρατ ική</w>
δ ον
γόν ατα</w>
γενεθ λίων</w>
έπι ασαν</w>
έ ει</w>
net flix</w>
ταξιδεύ ουν</w>
σπηλ ιά</w>
πύργ ος</w>
ξεκίν ημα</w>
κυκλοφορ εί</w>
κρατού ν</w>
θέρετ ρα</w>
ηκ ες</w>
ενδιαφέρ ουν</w>
απο δεκ
mar k</w>
χ ύ
φορτηγ άκι</w>
στέκ εσαι</w>
κρατ ικό</w>
κιν ς</w>
γλωσσ ών</w>
βέλ τι
αρ άχν
απ ελ
αν ες</w>
i r</w>
φλ ιτζ
υδ ατ
πί τα</w>
νεαρ έ</w>
μαύρ ες</w>
κατοίκ ων</w>
επέστρ εψα</w>
αν αχωρ
αν έκ
αίγυπ τος</w>
ίλ ια</w>
έκ κληση</w>
p o</w>
brand -
- μα</w>
σοβιετ ικής</w>
σημ ερα</w>
παιδ είας</w>
λίν τα</w>
ιστ ό</w>
γραφει οκρατ
ασ ί
απο μάκρ
αντι μέτω
αντί θετη</w>
έπο μαι</w>
άχ τη</w>
άζ ονταν</w>
πολυ πλοκ
ναυτ ικού</w>
ν ει</w>
μικρ ών</w>
κρυπτογράφ ηση</w>
κάθ ισμα</w>
ιδι ότητα</w>
δραπ ετ
αντι λ
άχ τηκε</w>
άμ μο</w>
sho w</w>
me d
όγ ων</w>
τελει ώνουμε</w>
ταχ εία</w>
σύμ μαχ
συ ζυγ
σ άντα</w>
οικ ία</w>
μαν χά
κύκλ ους</w>
καν όνων</w>
εύ α</w>
βι ο
έγκ ο</w>
c er
στέλν ουν</w>
σίδ ερο</w>
περιβαλλοντ ική</w>
ισχυρ ά</w>
θάλ αμο</w>
δικ ών</w>
δι χ
δίδ υμ
b er</w>
φ αβ
σκοτ ωθεί</w>
πληγ ές</w>
παγκόσμ ιων</w>
οναύ τες</w>
νικ ητές</w>
ζ αμ
δημιουργ ική</w>
β ια</w>
αντί στροφ
αεροπορ ικές</w>
αδελφ οί</w>
αγγ ίξει</w>
0 6</w>
φαντ αστική</w>
τ -
σκ όρ
που λα</w>
εσ ας</w>
βράδ ια</w>
α ψαν</w>
έ ο</w>
z z
stand ard</w>
moz illa</w>
5 7
16 0</w>
ύν ουμε</w>
ύ φος</w>
όγκ ος</w>
φράν σις</w>
συγχρον ισμός</w>
σκοτ ώστε</w>
μικροκ υμάτων</w>
μελ ετών</w>
καρι όλη</w>
καθολ ική</w>
επι τυγ
γυ άλ
γ ορ
αναμ φισβή
ανάκ τηση</w>
έν της</w>
on -
τζ ετ</w>
πυρ ομαχ
παρελθ όντος</w>
ξέν ος</w>
ισπαν ίας</w>
διαταραχ ή</w>
γαμ ημένα</w>
βγάλ ουν</w>
έξυπν οι</w>
c tion</w>
20 -
όρι σες</w>
φορτηγ ά</w>
πολεμ ική</w>
περπά τημα</w>
περιοδ εία</w>
ντρο πι
μπλ οκ</w>
μισ έλ</w>
μαθ αίνουμε</w>
κοιν ές</w>
ερχ εται</w>
γι α
ακόλου θες</w>
st ri
c las
ak e</w>
φτιάχν ω</w>
υπεράσ πιση</w>
τ άζ</w>
πηγ ών</w>
λαμ περ
κολ ν</w>
ευρωπαϊκ ών</w>
ελαφρ ώς</w>
διάσ ωση</w>
αυτοκρά τορας</w>
αποφ ευχθεί</w>
απουσ ία</w>
έ υ
st ra
mer c
in fo
σί τι</w>
πά τρικ</w>
ου δήποτε</w>
μπ εθ</w>
μέρ ας</w>
κυ πρ
ισχυρ ός</w>
εκ δίδ
δεδο μένη</w>
ήγ γειλ
wh at
ke y
c ra
συμβ ολή</w>
σ ωθεί</w>
ν απολ
εξ ορ
γιορτ άσουμε</w>
γαλ αξία</w>
ανεπιθύ μη
α ΄</w>
ta g</w>
b mw</w>
χάρ βαρντ</w>
ταιν ιών</w>
π ης</w>
ονό ματι</w>
ομί χλ
μπ υ</w>
κου φ
κλείσ ουν</w>
εκ ατ
διαμάχ η</w>
γεν ικής</w>
βουλ ή</w>
n y
lu x
υποβρύχ ιο</w>
σταμά τησα</w>
προ ξεν
πουτ άνα</w>
που λ</w>
πιάν εις</w>
πάρ κινγκ</w>
οδοξ ία</w>
καταβ άλλ
εφαρμοστ εί</w>
γεμά τα</w>
βασιλ ικό</w>
έλει ψες</w>
άν εργ
άγ αλμα</w>
5 00
πρόσ θετες</w>
περικ υκλ
ονόμ ατος</w>
κοριτσ ιών</w>
κ.λ π</w>
ιδι αιτέρ
θόρυβ ος</w>
ητ ρι
εξ απατ
βγήκ αν</w>
αριστ ερή</w>
αποφ υγή</w>
ένιω θε</w>
w el
s h</w>
- αλήθεια</w>
φτωχ οί</w>
τρ ων</w>
τελει ώσουν</w>
μή λο</w>
θερμοκρ ασίας</w>
ειδ η</w>
ακόλου θα</w>
έρχ ονταν</w>
χαμηλ ότερη</w>
συστ άσεις</w>
συντ ετ
ρό ουζ</w>
ρυθμ ούς</w>
οδήγ ησαν</w>
ξαν αμ
ν ών</w>
λειτουργ ικά</w>
αυστηρ ή</w>
αντανακ λ
άρ νηση</w>
µ α</w>
bl ack</w>
συναισθ ήματά</w>
π επ
μαθ αίνω</w>
μάρκ ες</w>
δημιουργ είται</w>
έντον ο</w>
φάκ ελος</w>
σημει ώνει</w>
πρόθυμ οι</w>
προειδ οποίησε</w>
προβολ ές</w>
μεν ες</w>
θυγ ατρ
θεωρ ητικά</w>
δάσκαλ ο</w>
βι ολ
βασ ικών</w>
ανοίξ ουμε</w>
αν έχ
αλγόρι θμ
αί ρι
6 6
τρ αχ
ταρ άτσα</w>
παραγωγ ός</w>
μικρ οί</w>
θυμ ωμένη</w>
επι θέσεων</w>
εξοικ ονόμ
δεδο μένο</w>
αρν ητικές</w>
p h</w>
ό ου
υπο νο
σύγ χυση</w>
προ έλευσης</w>
περιβάλλ οντα</w>
περι πλαν
λ υκ
β αμ
le e</w>
'κου σα</w>
τζέ ισον</w>
ταυτ ότητά</w>
συμβάλλ ει</w>
προϋπολογ ισμού</w>
ομ πρ
μοι άζω</w>
μάρκ ετ</w>
κιν ήματος</w>
εμπ έ
γ ριά</w>
ανατρ έξτε</w>
ul t</w>
la ke</w>
0 8</w>
/ a</w>
φιν λαν
προορ ισμός</w>
πετ άς</w>
ολ αβ
νεκ ρο
λου τρ
λαμβάν εις</w>
καταλ αμβάν
ευρεσ ιτεχν
εγ ινε</w>
απο τύπ
αμερικαν ικά</w>
έδειχν ε</w>
ri ght</w>
di o</w>
15 -λεπτά</w>
όμιλ ος</w>
ψάρ εμα</w>
χώρ ια</w>
υποψηφ ι
τόν υ</w>
τζ ος</w>
ρ οδ
π υλ
λατρ εύει</w>
κομψ ό</w>
επιστημον ικές</w>
διάσ ημη</w>
δακ τυλ
γκ ό</w>
αποκτ ήστε</w>
ανθ εκτ
αμφιβολ ίες</w>
αιμορ ρ
όν ε</w>
χρ ωμάτων</w>
χειρ οπ
σημει ώνεται</w>
νόμ ιμη</w>
νέ γρ
λ άι
καβ γ
ενσωμάτ ωση</w>
εισ βολ
άτ λ</w>
fran k
χρον ολογ
υποψήφι οι</w>
σύν δρομο</w>
σ πλ
παν ηγ
μη v</w>
ιν ού</w>
εκ λεγ
αφήν ετε</w>
ανώ μαλ
- brand-
τρομ ερά</w>
τραυματ ίες</w>
τρί τα</w>
τοπο θέτηση</w>
ταχ ύτερα</w>
σύμ βολα</w>
λιοντ άρι</w>
θεσ ίας</w>
ερ ημ
επο ρ
εν ηλίκων</w>
βελτι ώσουν</w>
από κρ
απ εικόν
αν αρτ
άσσ ονται</w>
τελεί ωσες</w>
καταλήγ ει</w>
καθαρ ίσει</w>
θε ου</w>
δισ εκατομμύριο</w>
w all</w>
w a</w>
studi o</w>
son y</w>
σ αντ
προτιμ ήσεις</w>
παρ αχωρ
κρέ μα</w>
ιδιαιτέρ ως</w>
εγχείρ ηση</w>
διοικ ητή</w>
άλογ ος</w>
pre vi
f en
ότυπ α</w>
κ ιν</w>
ελπ ίσουμε</w>
ά τ</w>
re d
φαντ αστεί</w>
φίλ τρο</w>
τσ ου
τ ένις</w>
σπρώ χν
οποι ουδήποτε</w>
νικ ήσουμε</w>
ικ ους</w>
απόφ ασή</w>
ακολούθ ησαν</w>
αί v
άρ τημα</w>
άλ αν</w>
ch at</w>
τρ υφ
σφ αλ
σκοπ εύω</w>
σηκ ώστε</w>
ρύ ζι</w>
προμήθ ειες</w>
πραγματοποι ήσει</w>
π υγ
λίν κολν</w>
κοιν ό
κλίν τον</w>
καταστρέφ ει</w>
ισ ιόν</w>
επ αγγέλ
αποτελεσ μάτων</w>
αν το</w>
5 8
χει μερ
σχετ ικα</w>
παλαιστ ίν
κροατ ία</w>
κάρ ολ</w>
επι φυλ
επαν αφορά</w>
δεσμ ούς</w>
βούλ ηση</w>
βουλ γαρία</w>
αρθρ ο</w>
o u
χρήσ ιμες</w>
πεδ ίου</w>
ουδ άκι</w>
ντρ έπομαι</w>
κοιμ ήσου</w>
κλί ματος</w>
επιλεγ μένα</w>
επίπεδ η</w>
γ ατ
βγ άζουν</w>
i m</w>
όπλ οιο</w>
τη θούν</w>
παντρε μένοι</w>
πίστ εψα</w>
πέ στε</w>
οδηγ ήσω</w>
ντοκιμ αντέρ</w>
μετρ ήσεις</w>
ματ θ
κυρι ου</w>
καρι έρας</w>
εί ριση</w>
δ .
απλ α</w>
o ν</w>
g all
' όλα</w>
ύ κλ
όρ κο</w>
χαμηλ ής</w>
φωτογράφ ος</w>
συναγερ μός</w>
σημ α
οξ ύ</w>
νι ώσω</w>
κύρι ες</w>
κινέζ ικα</w>
η των</w>
ει λες</w>
διορθ ώσεις</w>
ήμ ερ
ένοπλ ες</w>
k in
art s</w>
χολ μς</w>
χιού στον</w>
σταματ άς</w>
πό κερ</w>
προ βλέπεται</w>
ντρ οπαλ
λοχ αγέ</w>
κοιτ άει</w>
κατάλληλ ες</w>
διαχειριστ ή</w>
γου ίν
ανάπο δα</w>
αμφισβ η
mm y</w>
and y</w>
' μαστε</w>
όρ αση</w>
ψεύ της</w>
χ θεσ
υπο θέσεων</w>
τεχν ικών</w>
τ άρι</w>
σι γου
νόσ ου</w>
μπέ ιζ
ιστ ήρια</w>
επικοινων ίες</w>
ε ὐ
αυ ρι
άδ ερφ
un esco</w>
g et
0 9</w>
σταθ είτε</w>
σκην ές</w>
πιστ οποίηση</w>
παράγραφ ος</w>
νεκροταφ είο</w>
μπ ότες</w>
μανχά ταν</w>
κό παν
ευ μένες</w>
di d
2- αστέρων</w>
ψ άξουμε</w>
υπο δοχής</w>
πουκάμισ ο</w>
πιστ ευ
πείσ ει</w>
μέτ ωπ
μ πρό
καταγρ αφής</w>
καλύπ τουν</w>
κίνδυν οι</w>
η κο
εν τιμ
εμπλέ κονται</w>
δρ ο</w>
διαπραγμάτ ευση</w>
αρ μεν
απολαύ σουν</w>
αντ αλλακτ
ανατ ρι
ίστ ανται</w>
έρχ εστε</w>
ur y</w>
h ig
ρω μα</w>
πρo σ
παρουσι άζουν</w>
πάγ ου</w>
καλλιτέχ νη</w>
καίγ εται</w>
ιδρυτ ής</w>
ευελι ξία</w>
εσ τ</w>
βρώμ ικο</w>
αν αν</w>
' πι
όμετ ρο</w>
στ οκ
σ αφή</w>
ρολό για</w>
ολοκλ ηρωτ
λαί δη</w>
εἶ ναι</w>
εν τοπί
διευ κριν
γ ησε</w>
βρεταν ικό</w>
αρχ ίσετε</w>
αποστ έλλ
α /
χαρούμεν οι</w>
σύνδεσμ ο</w>
πυρ ά</w>
προ τιμά
νερ ά
λάβ αμε</w>
κινδύν ων</w>
κ εν</w>
γου έ
γν ώσεων</w>
o c
lin k</w>
as se</w>
5 η</w>
χάπ ι</w>
συνιστ ά</w>
προγραμματ ισμού</w>
πολ εμά
περιορ ίζεται</w>
παρ ούσας</w>
οπ τ
κλέφ τες</w>
θέ τουν</w>
ερ σον</w>
ελέγξ ουμε</w>
διαδικ ασιών</w>
ανατολ ικό</w>
αναπτύ σ
αδύναμ ος</w>
άρ ετε</w>
nor th</w>
me n</w>
4 .000</w>
ω χή</w>
φωτογραφ ιών</w>
φαντ ασίας</w>
στ εφ
ρίχν ει</w>
πεθ α
π ατη
νοημ οσύνης</w>
μπ εν
μελετ ήσει</w>
μεγ ιστ
κατέβ ασε</w>
επιτ άχ
εκρ αγ
εβδ ομάδων</w>
βορ ειο
αλληλ επίδραση</w>
αγγλ ικής</w>
αέρ ια</w>
έκ τοτε</w>
vo ς</w>
co de</w>
12 :
χτυπ ήσω</w>
συν αίν
νίκ ησε</w>
κοπ εγχ
καβ αλ
η πει
επικοινων ήσετε</w>
επαγγελματ ικής</w>
επ ε</w>
διευθύν σεις</w>
β άζουμε</w>
απευθύν εται</w>
απάν τησή</w>
άν τρι
d ro
ό περα</w>
φυσ ικός</w>
τραβ ήξει</w>
τζ όσ
στ' αλήθεια</w>
πολλαπλ ές</w>
ου μένων</w>
ξανακ άνει</w>
μπέ ικ
μει ώσουν</w>
λει τουρ
κτι ρίου</w>
κατ έρρ
ημερομην ίες</w>
ετο ι
ετήσ ιο</w>
επιτύχ ουν</w>
γνωστ ές</w>
se t</w>
h ard</w>
ag ue</w>
2 65</w>
'νοι ξε</w>
λά στι
καθαρ ίσω</w>
κάλ εσες</w>
γουστ άρω</w>
γον ιών</w>
γι΄ αυτό</w>
βάλλ εται</w>
αυξ ήσουν</w>
α διά
di g
198 8</w>
προσπαθ είτε</w>
παρακαλ ω</w>
οφείλ ω</w>
ορ ίζει</w>
οξειδ ίου</w>
νομ ίζουμε</w>
μπάν τα</w>
μή ν</w>
λου κ</w>
λευ κού</w>
ιταλ ικά</w>
επικοινων ια</w>
ελήφ θησαν</w>
εκπαιδευτ ικά</w>
αντι φ
ήλθ ατε</w>
άφην ε</w>
d ata</w>
al s</w>
1 40</w>
φρικ τό</w>
ομ όν
κρ ε
ικ ας</w>
ευχαριστ ημένος</w>
αναφορ ικά</w>
ακατ άλληλ
ίστ ας</w>
v a
bach el
ψάχν οντας</w>
φοβ όμαστε</w>
στ ov</w>
προ βολής</w>
κρέ ατος</w>
κλάδ ου</w>
κέρδι σες</w>
θεμέλ ια</w>
δεχ θεί</w>
αυγ ό</w>
ανέπ τυ
αιμορρ αγία</w>
ω μένους</w>
σπι τι</w>
προ παγ
οδηγ οί</w>
ντ έν
μετοχ ών</w>
καλώ διο</w>
επ ειγ
βι ολογία</w>
αστυνομ ικούς</w>
αστ υ
ακτ ικά</w>
έκ αv
us t</w>
re sta
' ολοι</w>
υπο σχέσεις</w>
τόν ο</w>
τον ίζει</w>
τελευταί ας</w>
παιδ εία</w>
ετ ά</w>
εσωτερ ικές</w>
δι άσταση</w>
ί ατρο</w>
έδι να</w>
ht tp</w>
- αν</w>
ό ποιο</w>
ό ντας</w>
φτωχ ούς</w>
στ αρκ</w>
σ ον
προχωρ ήστε</w>
πoι oς</w>
ου ερ</w>
μπ αϊ
μητρώ ο</w>
μάζ εψε</w>
μά ν</w>
κρύψ ει</w>
κρ υβ
δικηγ όροι</w>
διαρ ροή</w>
e p</w>
τυρ ο</w>
σόφ ι</w>
σκ o
πληρω μές</w>
ούδ ας</w>
κρύ α</w>
επαναστ ατική</w>
απογοήτ ευση</w>
αγελ άδα</w>
έρευν ά</w>
έπ εσα</w>
resta ur
o b
ώ v</w>
ων ας</w>
χειμ ώνας</w>
χ ον
τυχ αίο</w>
συντ ρι
προ φορά</w>
προ θέσεις</w>
οδ υτ
κατε στραμ
καταρα μένο</w>
εγ ν
βρ έχει</w>
άν ης</w>
σκ ελ
πολύτι μη</w>
μπάν ιου</w>
μπ εκ
μά ιος</w>
κλ ωτσ
καπν ό</w>
θυμ ούνται</w>
αθώ α</w>
ή φ</w>
to u
o ύς</w>
c is
'ρθ ει</w>
προδιαγρ αφές</w>
προ -
ντ εν
μαχ αιρ
λιγ ότερη</w>
λί βαν
κατ σαρ
καζ ακ
κ ενά</w>
εγκατέλει ψε</w>
αν γκ
o per
fre e</w>
υποστήρι ξε</w>
παράγ εται</w>
ομοσπον δίας</w>
ξεχ άσετε</w>
μπο ύρ
μ ειν
καταθ έσεις</w>
ζ ι
εν αντι
εισ αγωγής</w>
ει ό</w>
διαι τησ
γλυκ ός</w>
ανακ ρ
αί τια</w>
y p
χιλι άδων</w>
τσ ίρ
σ ωσ
ρ επορ
παρουσι άσει</w>
νεύ ρα</w>
κινέζ ικο</w>
κακ ιά</w>
εξατομ ικ
διάβ ασμα</w>
ατο ικ
αντ ας</w>
έσ τ</w>
άκ ρα</w>
previ ous</w>
m on</w>
όν το</w>
όμπ υ</w>
φιλ ική</w>
τσ ού
τσ έχ
συνδρομ ή</w>
σ εμπ
π ύλες</w>
οπωλ είο</w>
ξαφ νι
ειρην ικό</w>
διαδηλ ώσεις</w>
δημοκρατ ικό</w>
τ έ</w>
συνεντ εύ
στ άν</w>
ς .</w>
ρομαντ ικό</w>
ριζοσ π
μοιρ αστούμε</w>
μικρ ής</w>
μέλ ισσες</w>
ελπ ίζει</w>
ελ ίτ</w>
γίν ομαι</w>
f el
di n</w>
'e λα</w>
πετ άξεις</w>
μπ ιτς</w>
y o</w>
it i
τρί τον</w>
σχοιν ί</w>
πυραύ λους</w>
πληγ ή</w>
πειθ αρχία</w>
παρά πονο</w>
ντ αϊ
μέν το</w>
κατ αυλ
κ άρι</w>
ερ ές</w>
γενν αίος</w>
αναπτύσσ ονται</w>
έσ χ
άγ ει</w>
or g</w>
198 5</w>
ωτ ικές</w>
κατάσκο πος</w>
ειδ οποίηση</w>
δικηγ ορ
διακυβέρν ηση</w>
αστυν όμος</w>
ανατ αραχ
ανέβ ηκε</w>
ακιν ήτων</w>
αv τ
άν ες</w>
is t</w>
exp lo
4 50</w>
χτί στηκε</w>
συνάν τησε</w>
προ ληπτ
πορτοκαλ ί</w>
πειρ ατ
νευρ ο
λατρ εύουν</w>
καπιταλ ισμού</w>
ιταλ ικό</w>
θν ησιμ
θε ε</w>
επιβί ωσης</w>
εκπλ ήρω
αριθμ ών</w>
ί v
ψυχ οπαθ
χτυπ άς</w>
χρήσ ιμα</w>
το μή</w>
τη μά</w>
σύνθ ημα</w>
συν όλου</w>
πειρ αμ
λιγ ο</w>
ινστι τούτου</w>
θα 'ναι</w>
χειρουργ ική</w>
προτ έρων</w>
νό στιμο</w>
ντ αγκ</w>
εφ ήβ
εδάφ ους</w>
δημοφιλ είς</w>
βαρύ τητα</w>
απ εστ
d c</w>
φόρ ων</w>
υ ρω
τοπ ικών</w>
μόσχ ας</w>
μετάλλ ιο</w>
κατοικ ίδια</w>
καταστρ άφηκε</w>
ει …</w>
δύ σης</w>
γ άντια</w>
αυτοκρά τορα</w>
αναθε ματ
b ill</w>
3 60</w>
σύννεφ ο</w>
πληροφορ ίας</w>
περ ηφάν
π ές</w>
οικογέν ειές</w>
ισ ο
θυμ ήθηκα</w>
διεξ αγωγή</w>
δηλη τη
δαι μον
γράφ τηκε</w>
αστ αθ
ί ωμα</w>
έντ υ</w>
έντ εκα</w>
έ στησε</w>
p on
g ame</w>
/ /
ψήφ ους</w>
χαν κ</w>
συ ζήτησης</w>
στι μα</w>
σκηνοθέ της</w>
προ καθορισ
παραδ ώσει</w>
παρ τ
παθ ι
οχ η</w>
ευ σα</w>
επόμεν ης</w>
γκόρ ντον</w>
γι ες</w>
βακτ ήρια</w>
αφ ρο
αστει εύομαι</w>
αερ οσκ
αδερφ ές</w>
ho t
τυπ ική</w>
συνταγματάρχ η</w>
συν αλλ
συμ μορφ
προ αιρ
κού περ</w>
κατ έχουν</w>
εξελίσσ εται</w>
ενι αία</w>
αναγνωρ ίζουν</w>
αλ ίσια</w>
te mp
s ag
3 η</w>
ό ρισε</w>
παύ λος</w>
λογ ία</w>
κοντ ιν
θάν ατοι</w>
επ εσ
δαί μονες</w>
δ όλ
βοήθ ησαν</w>
β ακτη
αφήν ουμε</w>
απ είλ
αναπαρ αγωγής</w>
αν άδ
α ϊ</w>
u c
- τον</w>
τρ αίν
παρ εξηγ
κρίσ ιμο</w>
εύ θραυ
επι τόκ
εντυπωσ ιακή</w>
γοητ εία</w>
βίβλ ος</w>
έπ εφ
τροφ οδοτ
συμ φερ
σ παν
μηχαν ισμός</w>
ελεύθερ ες</w>
ε -</w>
δ ώσαμε</w>
γεμ ίσει</w>
re u
le ague</w>
delux e</w>
a h
ώθ ηση</w>
φέρν εις</w>
τω v</w>
σ απ
παλι ο
νι λ</w>
κ ήρ
η ψ
εν τι</w>
αλ -
ακ αθ
re nt</w>
υπο τιμ
συμ φιλ
σακού λα</w>
πυραύ λων</w>
ολοκλ ήρου</w>
μιλ ώ</w>
ευρ ύτερη</w>
επιφάν ειας</w>
βασίλ ης</w>
αντι -
αναστ ρ
ακτ ές</w>
s q
2. 0</w>
σεβ ασμός</w>
προθεσ μία</w>
νομ ικής</w>
νιώθ ουμε</w>
μω υσ
κορυφ αίες</w>
καν ενός</w>
καλ έσουμε</w>
ευτ ών</w>
εξ άσκηση</w>
βρ έφ
ανταγων ισμού</w>
g ri
e λ
τραπεζ ικό</w>
λό φο</w>
κάλ τσες</w>
εφικ τό</w>
εσώρου χα</w>
εμπιστ ευτείς</w>
γι σε</w>
ανώ τερη</w>
αν έσεις</w>
ήλθ αν</w>
άν θ
άν εση</w>
sp ace</w>
r as
fore x</w>
bi e</w>
φροντ ίδας</w>
σπού δ
θμ ισης</w>
επεί γου
εβρ αίων</w>
διατίθ εται</w>
γραμματ έα</w>
ακο ή</w>
ήγ αγαν</w>
έξ ου</w>
g ir
σου ηδ
ρώσ ος</w>
προσαρμ όζ
προετοιμ άσει</w>
πείσ ω</w>
ν .
μεταβ αλλ
κου ίν</w>
κοινοβ ουλ
κάθ ονται</w>
ιδιωτ ικής</w>
εργαζ όμαστε</w>
εμπιστ ευτώ</w>
εγ είρ
διαστ ήματος</w>
έπι ασες</w>
m ur
ό ψη</w>
χρηματ ιστήριο</w>
στ ασης</w>
σκαν δ
πρακτορ είο</w>
μοναστ ήρι</w>
κατανομ ή</w>
καθ ε</w>
ιωάν νη</w>
επί γνωση</w>
ανέβ α</w>
co py
ώ τα</w>
ύ ρι
ταξιδεύ ει</w>
πιθαν ά</w>
λαμβάν ουμε</w>
ισχυρ ίζονται</w>
βέβ αιο</w>
ανεξάρτη το</w>
αηδι αστικό</w>
έκ τη</w>
sp ec
d ub
όσ ες</w>
συνδέ ει</w>
συγκρ οτ
σκοτειν ά</w>
προσ βλ
παί ξε</w>
πί θηκ
κοκτ έιλ</w>
κερδ ίζουν</w>
δουλ έψουμε</w>
διεύθυν σης</w>
β οσ
αφ ελ
f ul
dis ney</w>
a ut
συσσ ωρ
συνεχ ής</w>
μηχαν ής</w>
εσ εις</w>
επιχείρ ημα</w>
εμπειρογν ω
διαμ άντι</w>
βίκ τορ</w>
ανακ υκλ
άλλ αξα</w>
j av
ay a</w>
χαίρ ετε</w>
πo τα</w>
νταντ ά</w>
λ ίλι</w>
γυαλ ί</w>
γνωριστ ήκαμε</w>
γι ονγκ</w>
αρμον ία</w>
αντ άρ
ίκ ης</w>
έσκ ασε</w>
άν τερ</w>
pri v
la b</w>
c s</w>
12 5</w>
χιλι ο
τέτο ιους</w>
σεξουαλ ικής</w>
πι άσαμε</w>
πά το</w>
μπισ κότα</w>
λύ σεων</w>
κιθ άρα</w>
ικ ότητες</w>
θε ατές</w>
αποδείχ θηκε</w>
ανακ ουφ
tes la</w>
φτιάχν ουν</w>
σ πάρ
πόρ ος</w>
παρ ασύρ
ορ ατ
μορφ ής</w>
μετακόμ ισε</w>
κολομ βία</w>
ιλ ορ</w>
δαπαν ών</w>
ακτ ική</w>
έστ ελ
se arch</w>
it s</w>
σκ ασμό</w>
σεξουαλ ικά</w>
πρόθυμ ος</w>
μαστ ού</w>
ζ ο</w>
επιτρ έπονται</w>
εκτιμ ούν</w>
δικαστ ήρια</w>
διαβ άζουν</w>
ακτινοβολ ία</w>
ί αρχος</w>
sch e</w>
ω v</w>
φων άξω</w>
τζ έφ
συντ ρί
στρ ογγ
παρουσ ί
κατασκήν ωση</w>
ευτυχ ίας</w>
ακ ία</w>
ωτ ών</w>
υποσχέ θηκες</w>
τ εστ
πά πας</w>
ολ ής</w>
μάρτυ ρα</w>
κότ σια</w>
κό στι
θον ία</w>
θ ει</w>
επ ειδη</w>
απομόν ωση</w>
αμ ετ
υπόβαθ ρο</w>
σχεδι άσει</w>
συμβάλλ ουν</w>
πρ όν
παρ έμ
μ αφ
ηγεσ ίας</w>
επιτόκ ια</w>
δεχ όμαστε</w>
αποθηκ εύσετε</w>
αν έμ
6 9
χορ το
τέρ ευση</w>
λευ κοί</w>
λέξ εων</w>
λ ει</w>
θ λιβ
β ει</w>
έντ αξη</w>
tri p
t s
o μ
m πoρ
'ρθ εις</w>
χειρουργ είο</w>
τζέσ ι</w>
σύνδεσμ ος</w>
συσκευ ασίας</w>
προσαρμ όσ
περισσ ο
π απου
ου α</w>
εμπορευ μάτων</w>
ε .</w>
διανυκ τέρευση</w>
διαβ άζετε</w>
ανοικ τό</w>
ανάκ αμψη</w>
αν εργίας</w>
v es</w>
ra y</w>
a de
συμμετ είχε</w>
προσ έξ
ν ατ
μόν ιμα</w>
μακρο χρόνια</w>
ιωσ ήφ</w>
ημ ερα</w>
ζ είτε</w>
διαδ ρ
βαλ εντ
ανακούφ ιση</w>
αβ εβ
άξ ατε</w>
5 9
ύσ ω</w>
χόρ το</w>
τρέχ ουσες</w>
σφ αγή</w>
στ όλο</w>
περ ισ
πεποιθ ήσεις</w>
νιγ ηρία</w>
μπ ακ
μον άδων</w>
μίλ ερ</w>
μ μα</w>
λ ερ
κατά χρ
αϊν στάιν</w>
ακολουθ ήσουμε</w>
αδύναμ η</w>
stor y</w>
l ing</w>
χάρι ς</w>
σακ άκι</w>
παρ ιστ
ν ας</w>
βερολ ίνου</w>
αναπτύσ σει</w>
bachel or</w>
υιο θε
υ στερ
τράβ η
στείλ εις</w>
στίβ εν</w>
πο υρ
πετσ έτα</w>
λευ κορ
γεννι έται</w>
ακ όσ
ων όμαστε</w>
υπο δομή</w>
στοκ χόλ
ραντ άρ</w>
ρέι τσελ</w>
πυρκαγ ιά</w>
πιστεύ εται</w>
πειρ ατές</w>
κω μω
κοιτ άτε</w>
κο καΐ
ιστ ού</w>
εμ μονή</w>
εμ ιρ
δε ψε</w>
γκρ ι</w>
γιόγκ α</w>
βλ άπ
αι ες</w>
ά στο</w>
mo tel</w>
k ra
ac t</w>
4 /
φρ ά
ταξιδ έψει</w>
οδο τη
ξ όδε
κυβερν ητικές</w>
δημιουργ ούνται</w>
άργ ησες</w>
4 η</w>
σταμά τησαν</w>
σάλ τσα</w>
προσευχ ές</w>
προ ωθεί</w>
παραγγελ ίες</w>
μήν υση</w>
καρ αϊ
ιδ ο</w>
ηλ εκτ
ευρεσιτεχν ίας</w>
ελ αχιστ
αλλ η</w>
n g</w>
1 ο</w>
χρόν ως</w>
τσι π</w>
σα ουδ
ρ άσ
παρακολουθ ούμε</w>
ξύπ νιος</w>
ιδρύ ματος</w>
θερμοκρ ασίες</w>
επανειλημ μένα</w>
΄ e
hon g</w>
ρ άν
ορισ μένους</w>
κορ μί</w>
ζ όμπι</w>
εχθρ ού</w>
ευτ ικός</w>
ευ εξ
επί τηδες</w>
ενθουσι ασμένος</w>
διακήρυ ξη</w>
αρχ ίζουμε</w>
απ ΄</w>
αν σης</w>
α μέτρ
χρή ματος</w>
φαι νομ
σκοπ εύει</w>
πολιτιστ ικής</w>
οι ας</w>
κλ ιμά
γυνα ικα</w>
αη δία</w>
έ ιν
v ar
lo ve</w>
198 7</w>
198 4</w>
' εκ
όν ησ
όμ ουνα</w>
χάρ υ</w>
σύντροφ οι</w>
προστατ εύουν</w>
περιμέν οντας</w>
ούμεν ων</w>
ν άρκ
μοιρ αζόμαστε</w>
κό ψεις</w>
κατ άδ
ηθ ικής</w>
δημιουργ ικότητα</w>
αναγνώ ρισε</w>
έμπορ ος</w>
άρ θρω
r it
χωρι ού</w>
ραδι ο
ποσ ά</w>
ντι έγκο</w>
λ εβ
κλασ ική</w>
κερ αυ
ιατρ ικά</w>
διατ αρ
ent s</w>
1 20
σχεδιά στηκε</w>
σιγ ά-
ντ ίλ
ι χν
εσωτερ ικής</w>
εί δω
διάδ οχ
δαβ ίδ</w>
δ άπ
αποσκευ ές</w>
έκλ εψες</w>
v τ</w>
n ing</w>
3 2
τ ῆς</w>
πλησ ίασε</w>
πιστ οί</w>
κλασ σ
κερδ ίσετε</w>
καπν ού</w>
εμπλ έκ
εκπαιδευ τική</w>
δ ών</w>
ασφάλ ειά</w>
al -
όδο ξη</w>
σ ορ
πρόγραμ μά</w>
πάρ οδο</w>
νόμ ιμα</w>
κολύ μπι</w>
ισλαμ ικό</w>
θέ ντων</w>
εξελ ίχ
ελεύθερ ης</w>
δωρε ά</w>
ατ ικού</w>
αποζημ ίωση</w>
αντ αμ
αζ ον
αεροσκ αφών</w>
έβλεπ ες</w>
sa t</w>
la u
5 6
χειροπ έδες</w>
υγι ές</w>
τεχνολογ ική</w>
προειδ οποί
δεύτερ α</w>
δίσ κος</w>
δάπ εδ
γρά ψε</w>
αφι έρ
αντ ικρ
αμφισβ ή
ή ψεις</w>
j i</w>
φαγ ητού</w>
σιγά- σιγά</w>
προσπάθ ειές</w>
μπέιζ μπολ</w>
εκπαιδεύ σει</w>
γένν ησης</w>
αποκαλύψ ει</w>
αμερικάν οι</w>
άρχ ης</w>
΄ οχι</w>
ch ur
bu il
χρηματο κιβώτιο</w>
συμμετάσχ ει</w>
ξ εθ
μπ ύρες</w>
μ αρμ
ετοι μαζ
επι βολή</w>
εξαπ ά
δημιούργ ησαν</w>
γυρ ίζω</w>
γενετ ική</w>
έστ ειλες</w>
x it</w>
host ing</w>
f am
d an</w>
am s</w>
ωρ αίες</w>
χημ ική</w>
στρατηγ ό</w>
πραγματ ικότητας</w>
πολιτι σ
πλ ήτ
περήφαν οι</w>
παρά γραφο</w>
οφόρ ων</w>
μικρ ότερα</w>
μεν ους</w>
λυπ άσαι</w>
καλ ώ</w>
θρησκ είας</w>
ασ ύν
έ τυχε</w>
h an</w>
g y</w>
ψ άξε</w>
ρ ή
πληρ ώσουμε</w>
πά ψε</w>
λέ ιζερ</w>
επιβ ατών</w>
επεκτ είνει</w>
δεσμ εύσεις</w>
γι' αυτόν</w>
ανά γνωσης</w>
αλυσ ίδες</w>
ά γν
k ατ
χριστιαν ική</w>
συντ ήρησης</w>
συνολ ικής</w>
σίδ νεϊ</w>
πού τσο</w>
πετρελ αι
μπρ άι
μελ βούρ
ιδε ών</w>
ελκυστ ική</w>
ελ ιά</w>
αφ αν
gree n</w>
τετράγ ωνο</w>
πισ ω</w>
παράν ομα</w>
ολόγ ο</w>
καπετάν ιε</w>
καλλι έργ
ικ έ</w>
εκτί μ
δείχν ω</w>
απο φύγει</w>
αβ ε</w>
ήτ ανε</w>
ήν ων</w>
w e</w>
in t
d n
φιλοξεν εί</w>
παρατ ήρηση</w>
οπαδ ούς</w>
ομίχλ η</w>
νικ ίτα</w>
κυνηγ ός</w>
θερμοκ η
η -</w>
ευρωπαϊκ ά</w>
ειλικρίν εια</w>
δικαι ώματά</w>
γυμν ή</w>
c -
ωσ ιν</w>
υψ αν</w>
ρεπορ τάζ</w>
μόν αχο</w>
κλ ό
επικίνδυν ες</w>
εξαφαν ίζεται</w>
εγ ράφ
γερ ν
αρμ όδι
έσ εων</w>
te ch</w>
197 3</w>
χωρι ς</w>
υπο ψήφ
υγειονομ ικής</w>
συνολ ικού</w>
σέβ ομαι</w>
ρομ ποτ
προτ ειν
προσέγ γ
προ φύλαξη</w>
περι όδους</w>
ο ἱ</w>
ξ ιμο</w>
μισ οί</w>
κλιν ικές</w>
κάρ εν</w>
θε ούς</w>
δυνατο τήτων</w>
από βλ
o m
h all</w>
ac i
συγχώρ εση</w>
προσθέ στε</w>
ούλ ι</w>
μοτο σικ
κοιμ ήθηκα</w>
καπετάν ιος</w>
ιδιωτ ικός</w>
ι .
ηφ θεί</w>
ευτυχ ής</w>
επισκεπτ ών</w>
επιν ο
γκ όλ
γκ ό
έν εση</w>
x -
tag s</w>
i mp
φαντ άστηκα</w>
τρί του</w>
σι άτλ</w>
πωλ ούνται</w>
παραστ άσεις</w>
μ ούρ
λ άκ
επισκέπ της</w>
επενδύ σει</w>
εξωτερ ικές</w>
διευθ ύ
γράψ ουμε</w>
αστ ήκαμε</w>
αποδεικ τικά</w>
sun g</w>
ro bert</w>
market ing</w>
m ηv</w>
c n
σκοπ εύεις</w>
περιήγ ηση</w>
κοιτ άζεις</w>
δημοσι ότητα</w>
αναλαμβάν ει</w>
e f</w>
3. 5+</w>
σκο ρ</w>
πρόβλ επ
παπού τσι</w>
ο τσ
καθημερ ινές</w>
εξαγωγ ών</w>
εμφαν ιστούν</w>
είμ ματα</w>
γραφ ικά</w>
αγ ώ
wat ch</w>
t we
φόρ οι</w>
υπο χώρ
συμβ άσεις</w>
σεισ μός</w>
πάv τα</w>
μπολ σεβ
καταστρ έψω</w>
ζητ ώντας</w>
ευκολ ία</w>
ερν το
επι ζώ
εξωτερ ικά</w>
ενδιαφέρ ομαι</w>
δε σπ
ή /
st ate</w>
m πορ
ψηφ ιακά</w>
συλ λέξ
σβ ήν
παράδ οσης</w>
ξ ερα</w>
ν άτ
μετατρ έψει</w>
λ υγ
ιστ ερ</w>
ισ λανδία</w>
ι γουντ</w>
ητ είας</w>
ενεργ ειών</w>
διαχειρ ίζεται</w>
γου ελ</w>
αν οί</w>
αθ άν
αδυναμ ίες</w>
άφ ια</w>
άφ ηκαν</w>
φρ αγκ
υπερ ηφάν
τόσ ους</w>
στρογγ υλ
ουσ ιν</w>
κατευθ υν
κατά ρ</w>
καθ άρματα</w>
επηρε άσουν</w>
διατ εθει
ανατρι χι
sp e
la r</w>
υπουργ ό</w>
υγ ής</w>
ικαν ότητές</w>
εργ ατική</w>
επιλογ ών</w>
εκμετάλλ ευσης</w>
βλ αβ
αποκαλ ύπ
αλ ε
άν ουμε</w>
se cur
le n</w>
ό θηκε</w>
ω φέλ
χ άσμα</w>
τω ρ</w>
συναν τηθεί</w>
σκά κι</w>
πεθ αίνεις</w>
με χρι</w>
μαρ όκο</w>
κορυφ αίους</w>
καθεστώ τος</w>
εξελ ιγ
εκφρ άζει</w>
γενν ήθηκαν</w>
βασ ικούς</w>
αβεβ αιότητα</w>
ύ σει</w>
φοβ όταν</w>
μι ών</w>
επιτ εθ
επίσ κο
ενεργοποι ήσετε</w>
ειπ εν</w>
γνώ ρισες</w>
βραδι νό</w>
βαρ έλια</w>
αρχ αίο</w>
αποτρ έψει</w>
αζ ερ
άδ ειας</w>
άγγελ οι</w>
sa m</w>
inst it
ψ ιμο</w>
φόν ος</w>
τυπ ικό</w>
τηλεφών ησα</w>
προ νομ
πολεμ ήσουμε</w>
πλει ον
ου τε</w>
μο σχ
κύπρ ου</w>
καταστροφ ές</w>
επ έκτ
γει τονι
αντι στρ
ανταποκρι θεί</w>
αν επαρκ
αλέξ ανδρ
αγαπ ητοί</w>
α πρόβλεπ
άσ σει</w>
άπ ηκε</w>
u k</w>
τηλ εσ
συν ασπ
συμπ ί
στρατό πεδα</w>
οφείλ ει</w>
ονομ άζονται</w>
ο κοπ
μάγ κι</w>
θαν ατική</w>
θ ητεία</w>
εξόρ υ
εμποδ ίσει</w>
αμοιβ αία</w>
αμ αρ
α στη
u n</w>
k m</w>
ber ry</w>
φαρ α
τεχν ικής</w>
σαγ κά
ρε άλ</w>
μά ρι
κω μ
κου στ
ιμπ άν</w>
εγγράφ ου</w>
γνώριζ αν</w>
β ίδα</w>
ασ ημέν
αντ έξ
έζ ησαν</w>
άνεμ ο</w>
tho mas</w>
l am
τρομοκρατ ική</w>
σύν τομ
σέλ ντον</w>
πο ί</w>
ονείρ ων</w>
οθ όνες</w>
μακ ιγι
λα ών</w>
καν ες</w>
ελάχιστ ες</w>
διαγν ωστ
αφ αίρ
έψ αξα</w>
z h
char les</w>
τ υν
προωθ ήσει</w>
μπ αίνω</w>
καταστρ έψουν</w>
καθ όταν</w>
κ τες</w>
εργ άστηκε</w>
εντ όπ
ενεργ ή</w>
δίαι τα</w>
γραβ άτα</w>
t ar
hon es</w>
υποσχέ σου</w>
σ ιν</w>
πουλ ήσω</w>
πλευρ άς</w>
π έσουν</w>
μετ ατ
κυκλοφορ ούν</w>
κου δ
κλιματ ικής</w>
κ επ
ετοιμά σου</w>
δικηγ όρους</w>
αθλ ητικά</w>
di e</w>
φθ άσει</w>
πραξ ικ
πληρω μών</w>
οδ ικ
ξεφ εύγ
ξεπλ ηρ
ξ ημερ
κλουβ ί</w>
καζακ στάν</w>
ελ ένα</w>
δι εφ
γυρ ίσουν</w>
γκ εν</w>
β ιτς</w>
ίν τα</w>
ή σε</w>
ic h
15 -
φιλ όδοξ
πληρ ούν</w>
παρ ενέργειες</w>
π αv
ού αρτ</w>
ματ ιών</w>
κινη τοποι
ιδιωτ ικού</w>
ηθ ελ
αυτο -
αντι γράφ
αναστ ολή</w>
αθ αν</w>
αγ άλ
έφαγ ες</w>
tech no
co 2</w>
υπο πτ
στ ικό</w>
ρε αλ</w>
προ τύπων</w>
εύ λογ
επιτρ έποντας</w>
επικοινων ούν</w>
δεχτ είτε</w>
βι αστείτε</w>
αργ ήσω</w>
ανισ ότητα</w>
αλ ι</w>
ακρο ατ
p s
198 6</w>
- έλα</w>
συν έτ
συμφων ήσει</w>
π ηρ
μακροπρόθεσ μη</w>
καταστ εί</w>
ιστ ά</w>
ευλογ ία</w>
διαμ ονής</w>
διαλ όγου</w>
απο γει
αγρ άφ
αγγ ίζει</w>
έκο ψε</w>
k gm</w>
gen er
προσθέ τοντας</w>
προ ετοιμάζει</w>
ποντ ικ
λεωφορ εία</w>
εύ αμε</w>
επιτυχ ίες</w>
δεχ τούμε</w>
ανακαιν ισμένο</w>
αν έφερα</w>
ίν ων</w>
ήρ αγγ
w ay
restaur ant</w>
f er</w>
an y</w>
3 00
όζ εφ</w>
φ θηκε</w>
τοποθεσ ίας</w>
περν άνε</w>
ξαν ασκ
καλ υμ
ι έρ
ερντο γ
εξ ομολογ
διευκολ ύνει</w>
αρι θ</w>
αντ όνιο</w>
v η</w>
c es</w>
- ών</w>
'φ ησέ</w>
τραβ άει</w>
στά θηκε</w>
πυρ ετό</w>
παρά μετρ
ηλ ιακή</w>
επιστρ έψετε</w>
εξυπηρέ τησης</w>
δημιουργ ός</w>
γκαλ ερί</w>
β αλλ
αστ ό</w>
ασ δήποτε</w>
έψαχ νε</w>
t t
su b
ύ ση</w>
ό -
χερσ όνησ
φιλοδοξ ίες</w>
προ πτυχ
παγ ιδεύ
ν ίκι</w>
μπαταρ ίας</w>
λάμ ψη</w>
κόντ ρα</w>
κατάλ ηψη</w>
καλοκ αιρι
ισ οδυναμ
ζ ορ
εκ φοβ
δι οξειδίου</w>
βραζ ιλι
αντίστοιχ ο</w>
αδ α</w>
αίθ ριο</w>
φόρ τωση</w>
φ ό
υπό θεσης</w>
παρ άλ
π εισ
μηχαν ών</w>
κατ ατρ
κά θε
ισμ ος</w>
δ ου</w>
αποφοί τους</w>
ανώ τερο</w>
αν ώνυμ
χειρ ότερος</w>
υ ς</w>
τρό που</w>
συμπληρ ώματα</w>
σε ϊ</w>
προκύ ψει</w>
ντ αβ
μπλ ουζ
εμπνευ σ
ελ ό</w>
διατηρ ούν</w>
αύγου στο</w>
αποφασ ιστ
αλυσ ίδας</w>
έκλ εψαν</w>
έv αv</w>
p lu
k -
bb c</w>
όντ ες</w>
χαλ ί</w>
τι ζ
σκ α</w>
πρόσλη ψη</w>
ορ ειν
μι ζ
λαθ ρ
κ ήρυ
η της</w>
εχ όντων</w>
διευθύν σεων</w>
έσ ωσα</w>
on en
i v
χειριστ ώ</w>
φορ έσω</w>
φιλαρ άκι</w>
σ λό
ραδι οφων
οδηγ ούς</w>
οδ ότησης</w>
ο τροπ
κοιτ άξει</w>
ικό ς
εσ φαλ
εξασφαλ ίζει</w>
απ αλλ
άτ ωση</w>
ύρ ο</w>
ωρ ακ
φω λιά</w>
φέρν ω</w>
σωματ ίδια</w>
στ αφ
παραγωγ ική</w>
οφόρ οι</w>
ομ όλογα</w>
ξ άπλ
νομ αι</w>
ν τορ
μέν ετε</w>
θεωρ ίας</w>
η χαν
εξαιρετ ικές</w>
εισ θαι</w>
δάσκαλ οι</w>
αναγνώ ρισης</w>
c lo
περίμεν αν</w>
πα ικ
πάρ κερ</w>
νίκ ες</w>
ν ί
ματ ικών</w>
κρυμ μένο</w>
εργ άζομαι</w>
δίδ αξε</w>
βασίλ η</w>
έλ αση</w>
έκλ εψα</w>
έ δε
b un
ation s</w>
φέρ ετ
υπεν θύ
συγχ ών
σολ ομ
σκάνδαλ ο</w>
πο διών</w>
πλαισ ίου</w>
παραπλ αν
παν αγία</w>
οδηγ ούσε</w>
νόμ ισα</w>
μείν αμε</w>
κατ αγωγής</w>
θερμοκη πίου</w>
εξ ουδ
γκ ουρ
αστεί ος</w>
ανάμ νηση</w>
έφτι αχ
te am</w>
l '
υφιστ άμεν
προτείν ουμε</w>
πλο κα</w>
μέ σου</w>
κου βεν
ιλ α</w>
θρ ο</w>
επικ αιρ
εν έκρινε</w>
δώσ '
διαταραχ ές</w>
διαδηλ ωτές</w>
βαρσοβ ία</w>
ανοίγ ουν</w>
έμαθ αν</w>
άν οδος</w>
άβ ολα</w>
re al</w>
197 4</w>
χρε ωστ
τελ ε
πυροβολ ήσω</w>
πρό γον
ποσ οτ
περιβαλλοντ ικής</w>
ολο θρ
μολ ύν
μαγ ικά</w>
κουν ηθείς</w>
κατέ βασ
εργατ ικού</w>
επι μένει</w>
επέτ ειο</w>
εξ τρεμ
εκρηκ τικά</w>
εγ κρίν
βαθ μού</w>
β αμβ
απώλει ας</w>
απο τυγ
αι ρ</w>
ήσ εως</w>
st re
kas per
co lor</w>
φιλοσοφ ίας</w>
στέκ ομαι</w>
πο ση</w>
παρ ασκ
ομοσπονδιακ ό</w>
μαντ έψω</w>
κ την
θρησκ ευτική</w>
ευγεν ική</w>
εσ σ
επιχειρηματ ικών</w>
επ εμβ
γκ άλ
ακριβ είς</w>
έστ ερα</w>
c s
υπάρχ οντα</w>
τη ρίων</w>
ταλ ιμπάν</w>
σχεδι αστές</w>
παλ ικ
ξ άδερφ
ντ ερ
εξ ολοθρ
εμφαν ίστηκαν</w>
εμφάν ισή</w>
εδι μβ
εγκαταλ είπ
διάβ ασες</w>
δεύτερ ης</w>
γρί πη</w>
ανοίξ ουν</w>
ακουστ ά</w>
so u
he al
b le</w>
χαρακτ ή
υψηλ ότερες</w>
συνεντεύ ξεις</w>
πληρ ώνεις</w>
νε ότερη</w>
μπ έλ
μαρτυρ ία</w>
κυρ ά</w>
κιν ητής</w>
βραχ ι
αναπ ηρία</w>
αναδυ όμενες</w>
ακαδημαϊκ ά</w>
α αα</w>
έβ ερ
pe ter</w>
ag o</w>
ότερ ης</w>
χαλ άσει</w>
φλ ερ
συνταγματάρχ ης</w>
στέλν ω</w>
πορ είας</w>
παράγ οντα</w>
οβ ία</w>
μόντ ρεαλ</w>
λ υπηρ
ιτ άρι</w>
ικ ιλ
εβδομ αδι
δι ασφάλιση</w>
γων ιά</w>
γιορ τές</w>
βρ ώ</w>
αγγ ίξεις</w>
197 5</w>
ώ τ
υπο νομ
σφάλ ματα</w>
πετύχ ουμε</w>
π έσεις</w>
ορίζ οντα</w>
ολόκληρ ος</w>
ολ ες</w>
λαμβάν εται</w>
κρου αζ
κοντ ινό</w>
επισκεφ θεί</w>
εκατο στά</w>
ατελ εί
αντ έξω</w>
ανθρ ακ
6 8
' οπως</w>
ών ου</w>
τερ ος</w>
συνεργ αστούμε</w>
πληρ ώσετε</w>
πλ αστικά</w>
περιστ ασ
παλ αβ
ουν γκ</w>
ορ ιζ
οδηγ ία</w>
ντ ί
μιλ ούσαμε</w>
μελ ετη
κυ τταρ
ευκολ ότερο</w>
ερευν ητής</w>
δικ τ
απόκρ υψη</w>
ste ve</w>
explo rer</w>
197 9</w>
υγ μα</w>
τραγ ικό</w>
τεχν ικό</w>
πτέρ υγα</w>
παραλ ίες</w>
πέ ος</w>
ού μια</w>
οβ ασ
κάρ λος</w>
ευκ αιριών</w>
ερντογ άν</w>
επιτεύγ ματα</w>
δουλ εια</w>
γραμμ άρια</w>
γενεύ η</w>
απόρρι ψη</w>
ανά θεμα</w>
αζερ μπαϊ
α διαφορ
pl at
guest house</w>
συν αλλαγή</w>
συμφων είς</w>
σ ήραγγ
παγ ετ
ξεπέρ ασε</w>
νά πολη</w>
μέρ κελ</w>
λ ίζ
καθ ιστούν</w>
ησ ι
ζητ ήστε</w>
εμπ όδι
αλ ου
s mit
s m
mul ti
me di
f 1</w>
ό πουλος</w>
τρ έχω</w>
τζέ ικομ
στρατιωτ ικής</w>
παιδ ικής</w>
παζ λ</w>
οφείλ ουμε</w>
οποι ασδήποτε</w>
ομιλ ίας</w>
μυστ ικές</w>
κοσμ ο</w>
κοιμ ήθηκες</w>
κιν ητών</w>
κατ ευ
επέστρ εψαν</w>
διπλ ωμά
αναρ ωτη
αναρ ωτ
αγ ες</w>
ήν ος</w>
ότ ατη</w>
χειροκρ οτ
υπερβολ ικό</w>
σκ ιές</w>
περι πτώσεων</w>
ερευν ητική</w>
εννο ούσε</w>
αντικει μένου</w>
onen ote</w>
h un
d d
bl ack
ύρ ας</w>
συγκρού σεων</w>
ξ ι
νοσοκομ είου</w>
μηχαν ικοί</w>
μερ ική</w>
ματ αι
καλλι έργεια</w>
θεμελι ώδη</w>
ηλικιω μένους</w>
δυνατο ί</w>
δουλ εία</w>
διαμ εσ
διαβ ολ
γράψ ουν</w>
αναμ ετ
αν ήλ
ί χη</w>
έν τομα</w>
άλ ις</w>
p -
όρθ ιος</w>
φροντ ίζω</w>
υρ ά</w>
μάν ατζ
εύ στε</w>
ευτ ήκαμε</w>
δικαστ ές</w>
δημιουργ ούμε</w>
αρχ ίας</w>
άμ ες</w>
v τ
que en</w>
ho me
ωρ ες</w>
πολλαπλ ών</w>
παγ ωμένο</w>
μισθ ός</w>
θυσ ίες</w>
επίτ ευ
δι άλογος</w>
ασπ ίδα</w>
xi ao
sh e
χορ ήγηση</w>
χαμηλ ότερα</w>
χ χ
τσεχ ία</w>
σχεδι άζουν</w>
ούρ ια</w>
ισχυ ρισμ
ερ ω
εκπλ ήξεις</w>
δ υσης</w>
γκ άρι</w>
απόφ ασης</w>
από δρ
αν ών
αν υπ
p ap
mi ke</w>
υποδομ ών</w>
ταρ αχ
σηματο δοτ
πυροβόλ ησαν</w>
λ .
κρατ ήσετε</w>
κούκλ ες</w>
ινγκ ς</w>
θεμ ελ
ηρ ακλ
ζυρ ίχη</w>
επο ικ
εκμετάλλ ευση</w>
γον ατ
αφορ μή</w>
αμ πού</w>
αλλ ό
έντου αρντ</w>
έλλει μμα</w>
po d</w>
or i
ec u
ch er</w>
b ack</w>
χιλιο μέτρων</w>
τροπο ς</w>
τοπ ικής</w>
σχέ διά</w>
συ μπο
σί μου</w>
παραδοσ ιακές</w>
παραδ οθεί</w>
παντρ εύτηκα</w>
πί πα</w>
ντρέπ εσαι</w>
ντ ίσ
καταλήγ ουν</w>
θαν άτων</w>
ζ ήσετε</w>
εμ βέλ
γενικ ότερα</w>
ακ ρω
ni e</w>
φορ ούν</w>
φαντ αστείς</w>
τζ ες</w>
τ είνουν</w>
συνάν τησης</w>
συμπερι φορές</w>
ορ λε
οξυγ όνου</w>
μοντέρν ο</w>
κατα στη
ι έται</w>
ατζ έντα</w>
αλληλ ογραφία</w>
ακαδημ ίας</w>
ήπειρ ο</w>
t un
s av
ro ck</w>
k it
ψηλ ός</w>
χρ ω
φυλακ ής</w>
συνέτ αιρ
συμπ αθεί</w>
στηρ ίζεται</w>
νι ού
κ αυτή</w>
ισ α
ερχ όμουν</w>
αλκο ολ
ro s
l il
bre xit</w>
- καλά</w>
ωσ εις</w>
ωκεαν ού</w>
χόλ ιγουντ</w>
φίλ ιπ</w>
συλλέγ ονται</w>
πορν ό</w>
μέ γκαν</w>
λ υσ
καπν ός</w>
γερ ά</w>
βάλ αμε</w>
απαντ άει</w>
απαι τη
αξ ίζεις</w>
ακερ αιότητα</w>
άντ αμ</w>
ά στηκες</w>
do s</w>
ψ ων
χαιρ έ
φωτι άς</w>
σηκ ώθηκε</w>
ρεσ εψ
ρ άβ
προκύ πτουν</w>
πρ εμ
περιβαλλοντ ικές</w>
παρακολουθ είς</w>
πήγαιν ες</w>
ορχ ή
λεω φόρο</w>
κανον ίσει</w>
επιτ εθεί</w>
εξυπηρετ εί</w>
έν ο</w>
ur o</w>
r t
l an</w>
χαρούμεν ο</w>
υφ ίσταται</w>
ρ εν
πρωτεΐ νη</w>
πανεπιστημ ίων</w>
παίζ οντας</w>
ο ῦ
κλ ας</w>
κατάθ εσή</w>
ιμ ι</w>
θεσ π
εχ θές</w>
ελέγξ εις</w>
εκτελ εί</w>
ειλικριν είς</w>
δι αστρ
δεξαμεν ή</w>
αλ ογ
α ·</w>
έζ ησα</w>
άστ εγ
h at
ele c
at hen
χριστουγεννιάτ ικο</w>
φ ίδια</w>
τ ωρι
σε ούλ</w>
σ ών</w>
νομ ικών</w>
μπο ντ</w>
κρυφ ό</w>
καυ σίμου</w>
καταρρ άκ
ευαισθ η
επιτυχ ής</w>
ελαφρ ά</w>
δημιουργ ήθηκαν</w>
γου ό
αποκαλ είς</w>
αι ών
έλ ηξε</w>
άκουγ α</w>
x x
kasper sky</w>
h igh
book ing</w>
χρον ικά</w>
τσ αγ
τρομ οκρ
συνεπ άγεται</w>
σκότ ωνε</w>
ρο ια</w>
ξεχ άστε</w>
κλείσ ετε</w>
κινητ ήρες</w>
καραϊ β
επιδημ ία</w>
επιβεβαι ώνει</w>
δείξ ετε</w>
γαμ πρ
αστ ος</w>
αργ ή</w>
έβλεπ αν</w>
ά ρισμα</w>
hil ton</w>
did act
ψηφ ιακές</w>
συμφερ όντων</w>
σημει ώστε</w>
περίπλοκ η</w>
νευ ρι
λε ει</w>
εμβόλ ιο</w>
ακ ουσ
έλ ασε</w>
άλλ αξες</w>
min i</w>
inter didact
υπηρ έτες</w>
συμφων εί</w>
σκεφτ όταν</w>
πν εύματα</w>
μπλού ζα</w>
καινοτομ ίες</w>
ηχ ογραφ
ελ αι
διεφ θαρ
γυμν ό</w>
αυτόμ ατο</w>
α ψ
άκρ ως</w>
sam sung</w>
an e</w>
χυ μό</w>
χ εις</w>
φαντ ασ
φαινομ εν
στυλ ό</w>
προσ φοράς</w>
παρουσι άστηκε</w>
νίκ ολ
ερχ όμενη</w>
εξαφαν ίστηκαν</w>
ενι αίο</w>
ή ριες</w>
te le
dv b-
a ς</w>
ωρ αι
υγιειν ή</w>
τρομακτ ική</w>
συμ πλήρω
συλ ληφθεί</w>
στρατιωτ ικών</w>
σέβ ονται</w>
ραγ δ
ολοκληρω μένο</w>
ξανθ ιά</w>
μαρ ί</w>
καθορ ίσει</w>
κά ιλ</w>
εφιάλ τες</w>
διατηρ ήσουν</w>
βράχ ο</w>
αποβλ ήτων</w>
αξιωματού χους</w>
αν έρχεται</w>
ακούγ ονται</w>
ακ ι</w>
in -
h ack
gol den</w>
analyt ics</w>
30 .000</w>
ό v</w>
ψηφ ιακών</w>
ψ άξει</w>
φυλ ές</w>
τρομ άζει</w>
τηλε ορ
τ ὸ</w>
συζητ ήσω</w>
στρι π
πρό βα</w>
πι o</w>
παιδ άκι</w>
οποι ον</w>
μνημ ον
κλάδ ους</w>
κακ ού</w>
δείξ τε</w>
δ είς</w>
γι ας</w>
αξιωματού χος</w>
k de</w>
1 18
σώ σε</w>
προνόμ ιο</w>
μοντέλ ου</w>
κοιτ άζοντας</w>
κλ ιμ
καταστρ έψεις</w>
επικρ άτ
επαγγελματ ιών</w>
εξέφρ ασε</w>
αρ ος</w>
ανακοιν ώσει</w>
αλληλ ογραφίας</w>
ίκ ο</w>
έ μ</w>
p ay
e o</w>
9 /
ώρ ησης</w>
ύ δ
φωτογραφ ική</w>
πρωτοπο ρι
προσεκτ ική</w>
λύ πη</w>
κερ ί</w>
καου μπό
κάρ τας</w>
εσ ει</w>
επιστημ όνων</w>
βελ γ
ατ ων</w>
αστρ ονόμ
αρσεν ικό</w>
αντ έχει</w>
αναγ ένν
αγων ία</w>
έπαι ζα</w>
έλλει ψης</w>
j ack
ic h</w>
h ill</w>
f ir
- στο</w>
χωρι σ
φακέλ ους</w>
ρ όλους</w>
πότ ερ</w>
πρόσφ ατο</w>
ντ άγ
μοιρ αστεί</w>
θαυμά ζω</w>
εγκληματ ίας</w>
δέχ εσαι</w>
απλ ηστ
απαί σι
αντ απόκριση</w>
αγάπ ησα</w>
όφ ελ
τορ όντο</w>
τ εις</w>
σαπο ύν
ούμεν ες</w>
ουραν ού</w>
οδηγ είς</w>
μέ ρι
ισπαν ική</w>
εκπλήσ σ
γλ υτ
γv ώμη</w>
βαρκελ ώνης</w>
βάζ ο</w>
αστ ικ
αναπ νευ
έναρ ξης</w>
vol vo</w>
sq l</w>
ψηφ ιακής</w>
υπο γράμ
τρί χες</w>
τ άρα</w>
σο βι
σ ματα</w>
προπαγ άν
πολεμ ιστής</w>
ξεφύγ εις</w>
μοιρ αστούν</w>
μαδρ ίτης</w>
κό στα</w>
κρύβ ονται</w>
κ τη</w>
εν ισχύει</w>
εγ καιν
διάσ ημ
απροσ δόκ
απ αγωγή</w>
ανα ψυκ
αγεν ής</w>
άσ κα</w>
ών εστε</w>
χτυπ ήθηκε</w>
χ θές</w>
φοβ ερός</w>
φι ντς</w>
φαν ερ
τουρκ ική</w>
συμφων ήσαμε</w>
προσ θέσει</w>
π ός</w>
ντ όρ
μπορ έσετε</w>
μοιρ άζεται</w>
μαξιλ άρι</w>
δοκιμά ζ
διαφθορ άς</w>
απελπ ισ
αλ ε</w>
s d
he y</w>
συν θ
σέρ λοκ</w>
ρου μανία</w>
προ τιμάς</w>
καταρρ εύσει</w>
κατ άκ
θ ήκατε</w>
επέστρ εφ
εν οχή</w>
βίλ α</w>
απαγορ εύει</w>
αν ω
έ ος</w>
ά η</w>
mo un
b ru
χρονο διάγραμμα</w>
υιο θέ
τροφ ής</w>
τρι χ
τζέσ ικα</w>
σ πάει</w>
προ όδου</w>
πληρ ώματος</w>
πιλ οτ
πεθάν ετε</w>
ονομ άστηκε</w>
λή ξη</w>
κοιτ άξετε</w>
κηρ ύ
κατευθύν σεις</w>
καταστ ήσει</w>
ηλ ίου</w>
διατηρ ηθεί</w>
δάπεδ ο</w>
γκ ας</w>
γιατρ ού</w>
βου κουρ
απο φύγουμε</w>
αμ φιλ
αγι όν</w>
vic tor
φιλ αδέλφ
τρέχ ον</w>
τ ικού</w>
σύγ χρονα</w>
συμ μόρφωση</w>
λ λ
κλιμά κ
κατευ θυντ
κάλ ι
β ηρ
απο δεκτή</w>
s er</w>
19 40</w>
ωσ ι</w>
φτιάχν ουμε</w>
τηλεφων ήσει</w>
τζ άν</w>
σ ενα</w>
ρωτ ήσετε</w>
ορ ισμό</w>
μ o
κομ πι
κλέβ ει</w>
κατηγ όρ
επείγου σα</w>
εκ κεν
ειακ ά</w>
απασχολ ημένη</w>
ανθρω πος</w>
αηδ ίες</w>
αδι έξοδο</w>
reu ters</w>
- θέλω</w>
ύ μν
το ντ</w>
συχν ές</w>
προσώ πους</w>
ουά να</w>
ογ ι
ξεκάθαρ η</w>
ξαν αφ
ξ ής</w>
μαν ούλα</w>
λισ αβ
κρασ ιού</w>
κον σ
θ λιμ
διευθυντ ές</w>
διαπίστ ωσαν</w>
γελ οι
βοηθ ό</w>
απεριόρι στη</w>
αντο χή</w>
αντι γραφή</w>
αναφερ θεί</w>
άγκ υρα</w>
ste in</w>
o x
χ ί</w>
φυλ λ
υδρ αυλ
πολιτ ικού</w>
ξεκιν ήσεις</w>
ντ ένις</w>
μι αν</w>
μαϊ μού</w>
θαρρ αλ
ευγεν ικά</w>
επωφελ ηθούν</w>
εμπλ ακ
διαμαρτ ύρ
β ίζα</w>
αστ ικού</w>
αμ μ
vir us</w>
m .
j en
φαγ ητά</w>
σφιχ τά</w>
σταθ μού</w>
στ ολές</w>
πέτρ ος</w>
ν ός</w>
μεθ όδων</w>
μάρκ ους</w>
μά ρ</w>
ει ων</w>
διαγράψ ετε</w>
αποτελεσματ ικές</w>
αεροδρόμ ια</w>
o ce
ch am
φτιάχν εις</w>
υλ οποι
τρέχ οντος</w>
σκλ αβ
ρο μές</w>
περιλ αμβανο
πίν ετε</w>
μεί ωσης</w>
ιαπων ική</w>
θηλυκ ό</w>
επικεντρ ωθεί</w>
δελ χί</w>
γκ αρ</w>
αρχ ικός</w>
αντ αμοιβή</w>
ανακ ύκλ
mor e</w>
eco no
ang el
όσ ημο</w>
χορ έψουμε</w>
χαρ άς</w>
ταξιν ομ
σε ως</w>
προσπάθ ησες</w>
προ καταβ
που λι
πολυ άρι
περικ οπές</w>
οστ ών</w>
μ όρια</w>
εφαρμόζ ονται</w>
εργ άσ
εντοπ ισμό</w>
ανήκ ε</w>
αίθ ουσες</w>
άγ ονται</w>
or s</w>
φράν κι</w>
συμμετ εχόντων</w>
πετρελ αϊκ
παρ α</w>
ξυπν ήσεις</w>
μπ ίρ
μουσουλ μαν
μετακ ίν
μαλαισ ία</w>
λύ σουμε</w>
κολ ακ
κεφαλ αιο</w>
εκτόξ ευση</w>
γρ αν
ασχολ ηθεί</w>
αποθηκ εύονται</w>
αξι ολ
αναλάβ ουν</w>
ήχ ους</w>
ήτ ως</w>
ήξ ης</w>
άρχ οντας</w>
άμ ιση</w>
φρού ριο</w>
υπολοχ αγέ</w>
τραίν ο</w>
σ' αυτή</w>
προβλ έψει</w>
παράσ ι
νομιζ ω</w>
νομ ιμ
κί εβο</w>
ιδαν ικά</w>
θρησκ ευτικές</w>
διασ ημ
διακιν δυν
δεικνύ ουν</w>
άσ ος</w>
es ter</w>
e .
2 10</w>
'κ ουσέ</w>
χωρ ίσει</w>
χτυπ ήματα</w>
χαρακτηρ ίζεται</w>
υ σε</w>
συνολ ικός</w>
προμ ήθεια</w>
πιστ έψουν</w>
ολυμπ ιακούς</w>
καμ μιά</w>
ιδ ίου</w>
θύ ελλ
ζ ούσα</w>
εξειδίκ ευση</w>
εξ ερεύνηση</w>
εν ωμένοι</w>
δρομ ος</w>
αποφ οι
ανήκ ω</w>
ανήκ εις</w>
άγ ριο</w>
lt d</w>
in tel</w>
χρησιμοποι ούσαν</w>
φραν κ
μόν ι</w>
μεσ όγειο</w>
κη δε
κατασκευ ασμένο</w>
καταπ ί
κατ αγωγή</w>
καθ ίσω</w>
ιστ ι
άδ ειά</w>
air b
τ έθηκε</w>
συντετ αγ
πολυτελ ή</w>
πα ω</w>
μπ άρι</w>
μακ αρ
κάθ ησε</w>
η ματα</w>
εν οίκ
διακυβέρν ησης</w>
αν ν
αμφιλ εγ
ακού νε</w>
ακολουθ ώ</w>
ακολουθ είς</w>
αι ωνι
αγορ αστές</w>
έρ ου</w>
έι ρο</w>
άσ ι</w>
le x</w>
i or</w>
e g
χημ ικές</w>
χ ακ
νομισ ματική</w>
μπ ί
μουν ί</w>
κινηματογράφ ο</w>
κατ αδι
καλοκαιρι ού</w>
κακ ούς</w>
ιο τ</w>
ηρ ύ
επιτυχ ώς</w>
επισκεφτ είτε</w>
ειχ ε</w>
βέβ αιοι</w>
αλήθ ειες</w>
αγελ άδες</w>
άν ων</w>
o ut</w>
man n</w>
b c</w>
apart ment</w>
1. 6</w>
φαν ερό</w>
πυρομαχ ικά</w>
πo τέ</w>
ούμεν ους</w>
οσ ειρ
νομο θεσίας</w>
καθυστερ ήσει</w>
καθορ ίζεται</w>
ικανοποι ημένος</w>
εμ ι</w>
ήρεμ ος</w>
wes tern</w>
bir d</w>
ωσ ει</w>
ψεύ τη</w>
φαρμά κου</w>
τυ φ
σατ ανά</w>
πολεμ ικό</w>
πεί ρα</w>
οικογεν ειών</w>
ο τητα</w>
ντρ ια</w>
ντέρ εκ</w>
λογ ίας</w>
κοινό χρη
θαν ατ
επεξεργαστ ή</w>
εξ έδωσε</w>
εκπλ αγ
δολοφον ίες</w>
δε οντο
βοστ ώνη</w>
βιταμ ίνης</w>
ανάγκ ασε</w>
we i</w>
ed ri
20 -λεπτά</w>
- πολύ</w>
'λ λ
πρακτ ικό</w>
περιορ ισμοί</w>
οξ εί
οδ ού</w>
οδ ική</w>
νυχτερ ινή</w>
ντ υ</w>
εξ άρτηση</w>
ελλην ικής</w>
διδάσ κονται</w>
γαλ ήνη</w>
βεβαι ότητα</w>
sp r
mas ter
hu a
φύλ ων</w>
σημει ώθηκε</w>
σ ως</w>
ρώ τησες</w>
πρό θυ
μπαρ α</w>
μεν ε</w>
μα ρ</w>
λεγ όταν</w>
λ εφ
ιπτ άμ
επιτρ έψω</w>
είμ εν
δυστυχ ία</w>
δικτ ατορ
δημοσ ίων</w>
γερμαν ικής</w>
βαθμολογ ήθηκε</w>
αναζ ητά</w>
αιφ νι
αισθαν όμαστε</w>
αι τού
αερ ομετ
χαρ τ</w>
χάρ β
τζόρ νταν</w>
συνέντ ευ
σκανδ άλη</w>
σ κοιν
πή δα</w>
μπλ έξει</w>
καλώ δια</w>
καλύτερ ης</w>
ευαισθ ησία</w>
ελέγχ ω</w>
ελέγχ ους</w>
δημιουργ ήστε</w>
αναπόφευκ τα</w>
ed it
198 2</w>
ων υ
φ τύ
συνηθ ισμένα</w>
συ ριζα</w>
σκύλ ου</w>
οβ α</w>
μεγαλύτερ ης</w>
μέτρ ησης</w>
ζωγραφ ική</w>
επαν ορθ
εκλογ ή</w>
εκ μάθηση</w>
ειδοποι ήσεις</w>
ει στε</w>
δυ τικές</w>
διαδικτυ ακή</w>
βι ώσει</w>
αντί ρρ
ακολουθ ήσω</w>
άχ ου</w>
άρθ ουρ</w>
l or
3 ο</w>
τόξ ο</w>
τσέπ ες</w>
συνταγματάρχ α</w>
συγχώρ εσέ</w>
οπ αί
νεκρ ά</w>
λ ινγκ</w>
κουβ έρ
θ λιβερ
εθ νο
δυ αδ
γου έιν</w>
απλ ού
αναζω ογ
έκ ο</w>
pl an
1 10
τραυματ ίστηκε</w>
πτυχ ιού
παρ οι
πακ έ
ξεπερν ά</w>
μελ έ
κορυφ αίο</w>
κ απο
ειρην ικά</w>
δου βλ
διαδ ρομές</w>
άκ ων</w>
st ro
sho p</w>
res er
χαμηλ ές</w>
σωματ ικά</w>
περι έχ
οστ άσιο</w>
οδ ωρ
μ υ</w>
κυρ ώσεων</w>
κάμερ ον</w>
εργατ ικής</w>
επιταχ ύνει</w>
αποζημ ι
αμερικάν ικο</w>
έν σταση</w>
έγκυρ η</w>
άν κα</w>
ren ce</w>
re f
op en</w>
l at
comm er
19 30</w>
ψύ χρ
φυτ ών</w>
τραγου δί
τελε τουργ
στι αν</w>
πλούσι ους</w>
παρατηρ ήσει</w>
παραδ οθ
παρά θεση</w>
ντ ικ</w>
μπρ ιζ
μαύρ οι</w>
κοιν οτήτων</w>
εκ θεσ
αναλυτ ικά</w>
power point</w>
n is
συγχ ων
περ ι</w>
παύ ση</w>
παρθ ένα</w>
κριτ ικέ
κλ α</w>
κιν ηθεί</w>
ιτ άρια</w>
ε μετ
δειλ ός</w>
γον έων</w>
αφ ηρ
ανησυχ ούμε</w>
αδελφ ούς</w>
ήρεμ η</w>
άλ ε</w>
ver s</w>
j er
g ab
17 0</w>
ύλ ου</w>
χ ω</w>
φων ής</w>
σωλ ήνα</w>
συν ημ
μεξ ικάν
μαρ αθ
λί ν</w>
καταδ ίκ
ισ οπ
θεωρ είτε</w>
ζη τού
διαγων ισμός</w>
γού στο</w>
ακούγ εσαι</w>
αβ α</w>
έμπορ οι</w>
έκφρ ασης</w>
χειρ ονομ
χ ήρα</w>
φίλ ιπ
σκυλ άκι</w>
οστ ερ
λί στες</w>
ευ τελ
ελλ εί
αργ ό</w>
απόσπ ασμα</w>
απο ταμ
m ir
d at
196 9</w>
- μια</w>
υσ αρκ
τσάρ λυ</w>
τσ ούλα</w>
τ αίρι
σώ ζ
σιχ αίνομαι</w>
παχ υσαρκ
πανδοχ είο</w>
ου τω</w>
οξεί διο</w>
ξ υ
νε ογ
επ ώ
εκ προσω
ε στη
δοχ είο</w>
αναφέρ ουμε</w>
ήμ ουνα</w>
έρ ια</w>
άδ ικα</w>
v ι
l lo
g in</w>
er e</w>
19 ου</w>
φ εμιν
υποστηρι ζ
ταχύ τητες</w>
ταξιν όμηση</w>
τέρ ι</w>
νομ ίζαμε</w>
κατέλη ξαν</w>
θυμ ός</w>
θέρμαν σης</w>
ετ ικές</w>
γι έ</w>
βουλ ευτές</w>
αυτομα τοποι
αποτελ ούσε</w>
αν αρρ
ακολουθ ήσετε</w>
έστ ερ</w>
ro u
res t</w>
re ad
cam p
bu d
ω τοι</w>
φτι άξουν</w>
τεχν ογν
πρακτ ικών</w>
μιλ ήστε</w>
λειτουρ γιών</w>
καινοτ όμες</w>
εστι ατορ
επιβι ώσουν</w>
βάλ το</w>
αποτύπ ωμα</w>
αναγνωρ ίζεται</w>
αλληλεγγύ η</w>
ί ματα</w>
ήτ ριες</w>
pat h</w>
mar y</w>
ex ecu
do l
c lar
χτυπ ά</w>
τζ α</w>
πυροβολ ήσεις</w>
πρόσ εξα</w>
πά να</w>
ονομ άζουμε</w>
νευρ ικό</w>
ν ίνα</w>
κυνηγ ούν</w>
κάν σας</w>
θρύλ ος</w>
ηλεκτρ ικών</w>
ετ ής</w>
επιστ ολές</w>
επιν ό
διαγρ άφ
γκ -
γευ ματ
βρεταν ός</w>
βέλ ος</w>
ασ εις</w>
αξιολ ύπ
αναπτύ ξ
ακρ αία</w>
z u
v el</w>
ta in</w>
premi um</w>
ων όταν</w>
τρι γυρν
τείχ η</w>
σ έντ
ρεπ ό</w>
περιμ εν
ογ κ</w>
μπ ικ
λέγ ομαι</w>
καφετέρ ια</w>
καθ όμαστε</w>
θρ όνο</w>
δ εια</w>
αιγύπ του</w>
έβρισκ α</w>
m t
198 1</w>
υπ ευθυν
σχολ ική</w>
συνδεδε μένοι</w>
πρωτεΐ νες</w>
πλειον ότητα</w>
μπ άλες</w>
λογ ικής</w>
κομμουν ιστικό</w>
κλείν ω</w>
κατ αζ
ζητ ήσουμε</w>
επίσκ εψ
εγ γεγραμ
βοηθ άω</w>
ron g</w>
φόρ τ
τοπο θέ
περίφ ημο</w>
ορ ιστεί</w>
οδ όν</w>
μυαλ ού</w>
μι χα
μέ το
μ ιο</w>
καταφέρν ει</w>
καμ πίνα</w>
ισσ ά</w>
εστιατορ ίου</w>
επιτ έθηκαν</w>
ανταγων ιστές</w>
αισθητ ήρες</w>
ή -</w>
έ τι</w>
ά μια</w>
te d
min i
m π
e a</w>
di re
co m</w>
and re
a κ
χιλ ή</w>
φρ έντι</w>
υπο γράφ
τ αμπ
σύντρ οφο</w>
σ' αρέσει</w>
προκαλ ώντας</w>
προ ήλθε</w>
πιστ ολ
παράγ ονται</w>
παντρ ευτούμε</w>
παθ ήσεις</w>
νομ ισμάτων</w>
νομ ίσματος</w>
μπο ν</w>
μετο νομ
κρ αυγ
θρησκ είες</w>
ζ ων
επ αλήθ
ελέγχ εται</w>
δολοφόν οι</w>
δευ ε</w>
γεν ικού</w>
ανανεώσ ιμες</w>
αναμ ονής</w>
ανίχν ευση</w>
αμετ ά
έστη σαν</w>
άδ ος</w>
k at
ψυχαγωγ ία</w>
ψηλ ό</w>
τσ άντες</w>
τρί τους</w>
τίγρ η</w>
στ άσεις</w>
σεν άρια</w>
ο μένους</w>
μετατρ έπεται</w>
μ ους</w>
καινοτ όμο</w>
καθ εν</w>
επιζώ ντες</w>
δαν εισ
β άζετε</w>
αι μα
p i</w>
on al</w>
mar co</w>
copy right</w>
6 5
φιλ ί
υπο δηλώνει</w>
παρατ ήσεις</w>
μπατ αριών</w>
καλ η</w>
κάτσ εις</w>
ιν θ
ι μου</w>
επόμεν ους</w>
δράκ ος</w>
γλ υπ
γκ ού
βάρ δια</w>
ατού σα</w>
έξυπ νες</w>
έβγαλ ες</w>
ti s</w>
194 4</w>
- ωραία</w>
ό ριστ
υποτροφ ία</w>
τετράγ ωνα</w>
σύν η</w>
σαλ άτα</w>
πρόσ θετη</w>
μητρ ική</w>
κρατού μενοι</w>
κατευθύν εται</w>
ιρλαν δ
ημερ ησ
εκραγ εί</w>
διαχ ωρ
βι οπο
ίδρυ σε</w>
έφευγ ε</w>
έ ματα</w>
st y
k ong</w>
do main</w>
c in
196 7</w>
τζ ιλ</w>
τερ ς</w>
τί πoτα</w>
συντ άγματος</w>
στη β</w>
σημαντ ικοί</w>
σ αντι
σ άκ
προειδοποι εί</w>
πλο ίαρχ
ονομ άζομαι</w>
οδ η
μηνι αία</w>
ιν ός</w>
ζή τα</w>
εν ί
αναπνέ ει</w>
ανέ καθεν</w>
άρχ η</w>
th er</w>
sp i
b in
όσ πι
όμ ησης</w>
τελεί ωνε</w>
σκεφτ ήκαμε</w>
παρα μέτρ
ξεκούρ αση</w>
κρατ άτε</w>
κερδ ίζεις</w>
ιστότο πους</w>
ηγ ετών</w>
γελ άει</w>
απολαμβάν ει</w>
απο κατάστασης</w>
απο δ
ανακαλύψ ουμε</w>
ί ση</w>
r ap
ch il
- μη</w>
ώλ ιο</w>
ύν εις</w>
χρυσ ά</w>
χ μμ</w>
τίτ λους</w>
πόσ ον</w>
πί στα</w>
π μ</w>
ου θ
ορ ιστικά</w>
μει ώθηκαν</w>
κρα τηση</w>
κούρ σα</w>
κλ άσης</w>
επιτρ έψουν</w>
εγν ωσ
δημ ητρι
γκρ εγκ</w>
γ ε</w>
αζερμπαϊ τζάν</w>
st ation</w>
o -
k el
f on
όν γκ</w>
χ οί
τι μόνι</w>
σκοπ ιά</w>
σ ώσουν</w>
περιστ ρέφ
καπιταλ ισμός</w>
καλύψ ουν</w>
ιντ ερ
θέσ ω</w>
επέτ ειος</w>
εμ βρ
εγχειρ ίδιο</w>
γαμ ημένε</w>
αποφασ ίσεις</w>
αναμφισβή τητα</w>
αμάξ ια</w>
196 8</w>
τελει ώνουν</w>
στεν ό</w>
προσ δι
πραγματοποι ούνται</w>
περπατ άς</w>
πάγ ος</w>
μοτί βο</w>
καρ άβι</w>
επειγ όντως</w>
εξαφαν ίζονται</w>
δρ άμα</w>
ήμ ερο</w>
f al
ότη σε</w>
συνεισ φορά</w>
μπάρ μπαρα</w>
μακιγι άζ</w>
λού κας</w>
επεσ ήμ
αυτο ι</w>
αποχώρ ηση</w>
απο ψ
αλ ί</w>
ά μα
sa int</w>
booking .com</w>
όρ ες</w>
τρ ένα</w>
ταρ αγ
συνο ψ
συλ λάβει</w>
στρ αγγ
στ έμμα</w>
σερί φης</w>
ρίξ ετε</w>
προστατ έψω</w>
παραθ ύρου</w>
πακ ιστ
πά τα</w>
μετ άν
λογαρι ασμοί</w>
λάσ πη</w>
κό ψουμε</w>
κορ δ
κοιτ άμε</w>
κα λ</w>
εκπληκ τικά</w>
εγ κριθεί</w>
δημοπρ ασία</w>
βρ έθηκα</w>
απ αγωγ
ανακαλύψ ουν</w>
άρρω στο</w>
' ενας</w>
φυλ ής</w>
σω ματο
σπί ρ
σκωτ ία</w>
πήγ ατε</w>
πά ολο</w>
ολ λ
μάθ ιου</w>
κοιμ ήθηκε</w>
κλ ήσεων</w>
καμ πάν
καθαρ ισμού</w>
δολοφον ίας</w>
γεννι ούνται</w>
βαρ εθεί</w>
αρκετ ός</w>
mar ket</w>
es s
e e</w>
ύσ ουν</w>
ψεύτ ικη</w>
φ οί
τέ ιλορ</w>
προβλ ήματά</w>
πραγματοποί ησε</w>
οι ς</w>
κωλ ο
κλ αντ</w>
καρτέλ α</w>
θησαυρ ό</w>
εξαιρ έσεις</w>
εβ ί
δωρ οδ
δίδ υμα</w>
ακου στεί</w>
έφτι αξες</w>
t ak
φύλ ου</w>
φόν το</w>
πλησι άζουν</w>
μακρο χρόν
καθ ως</w>
ευ αγγελ
αμ αξ
αγαπ ήσει</w>
άγνωστ ος</w>
wa ter</w>
down lo
am en
ψήφ ο</w>
χ ων
φυ το
φαντ αζόμουν</w>
τρέχ οντας</w>
τ έκ
συζητ ήσει</w>
ολογ ικής</w>
μον άδας</w>
εχ ος</w>
εφαρμόσ ει</w>
ελαφρ ύ</w>
γκαρ ετ</w>
βγ αίνουμε</w>
βασίλ ισσας</w>
έv ας</w>
ά -</w>
h z</w>
ca m</w>
φτωχ ός</w>
φορ ώντας</w>
φλ υ
υπο τ
τελ ικός</w>
τ αv</w>
πτυχ ή</w>
πολιτιστ ικό</w>
νεολ αία</w>
κέι τι</w>
ιατρ είο</w>
ι ώ
εκ συγχρον
γλ εί
γ .</w>
βρ είς</w>
βολ ικό</w>
αρ τηρι
έφηβ οι</w>
έστ ι</w>
don ald</w>
7 5
φιλοδοξ ία</w>
υ ιοι</w>
συναισθηματ ικά</w>
ρύπαν σης</w>
πουλ ήσεις</w>
πληροφορ ι
περιστ άσεις</w>
νόμ ων</w>
μά τσο</w>
κο τ
κερ ν
κατασκευ αστή</w>
καταπληκ τικά</w>
κ η</w>
ηλι οβασ
ευρωπαί ους</w>
ερωτ ική</w>
ερ είπ
εκτετα μένη</w>
δαί μονας</w>
αντ ές</w>
αλβαν ία</w>
ly nc</w>
gn u</w>
ch e</w>
12 3
χοντρ ή</w>
τσίρ κο</w>
συζητ ήσαμε</w>
σκού πα</w>
παρακολουθ ήσουν</w>
οδηγ ού</w>
μιλ ούσαν</w>
μέν η
καρ ολ
επισημ αίνει</w>
ε τηρ
δημόσ ιων</w>
δίσ κου</w>
ήσ αν</w>
άφ ηνα</w>
v it
j un
chur ch</w>
14 .
χρ ήσεις</w>
φοβ ερά</w>
σύ σταση</w>
περν ούσε</w>
παράτ αση</w>
ο '
νοι άζεσαι</w>
ν ευσε</w>
ν έλ
μπαμπά κα</w>
μάσ κες</w>
ι ούνται</w>
επαναλ αμβαν
εξώ φυλ
εκτέλεσ ης</w>
δ ᾽</w>
βασ ισμένη</w>
έσ πρω
ser vic
secur ity</w>
se x</w>
p g</w>
10 5</w>
- οι</w>
χοι ριν
φούρ τη</w>
[...]
