. 6263939
, 3448865
να 2127658
το 1886026
και 1608025
; 1371204
είναι 1183395
δεν 964034
- 937873
θα 919189
η 915583
για 875384
την 862660
του 807875
με 794399
ο 707896
τα 702732
! 693601
από 690960
σε 688591
της 680275
που 665711
μου 570416
τον 538580
... 506295
στο 484003
ότι 452889
αυτό 442457
οι 425458
τη 400127
τι 375234
σου 374929
τους 360775
ένα 341517
στην 331105
των 318980
μια 318203
σας 290970
μας 279149
τις 267356
: 253065
) 250529
αν 246519
( 240888
αλλά 238145
ήταν 222989
πρέπει 203593
« 200426
όχι 196538
' 195877
έχει 188590
πολύ 186155
στη 183700
ή 183205
εδώ 181164
» 172872
`` 170604
ναι 162985
κι 156237
είσαι 153072
είμαι 151351
γιατί 150429
'' 147760
στον 142111
αυτή 136537
πως 136013
τώρα 132590
μπορεί 119699
εγώ 118732
όταν 117876
μόνο 116444
κάτι 114846
δε 109654
έτσι 109049
στα 106718
πιο 106488
έχω 99776
στις 99197
εντάξει 98116
μην 97934
όλα 97534
ξέρω 96382
πώς 93130
όπως 92474
έχουν 88396
αυτά 85264
σαν 83648
καλά 83383
θέλω 83051
-@@ 82796
μαζί 81841
εσύ 81471
ως 78676
υπάρχει 78134
μέσα 77849
ένας 77581
εκεί 77359
κάθε 73447
τόσο 73410
δύο 73173
κάνει 71852
μετά 71733
? 71452
μπορώ 70852
έχεις 70837
ποτέ 69384
κάνεις 68935
χρόνια 68564
ακόμα 65374
ξέρεις 65254
όμως 63881
% 63840
πριν 62895
ας 62894
έχουμε 62220
πάντα 61969
τίποτα 61377
κατά 59524
τότε 59413
είχε 58868
κάνω 58856
παιδιά 58414
σπίτι 57857
ζωή 57534
είμαστε 57474
λοιπόν 56563
έναν 56196
αυτός 56137
μία 54606
επίσης 54536
σ 54008
όλοι 53675
απλά 53027
.. 52873
πού 51965
είπε 51837
έλα 51352
σήμερα 51281
1 51233
μπορείς 50909
απ 50884
μέχρι 50567
πίσω 50064
μη 50031
πάμε 49399
ό 48954
ίσως 48762
ευχαριστώ 48238
πάνω 47749
2 47385
στους 47243
χωρίς 46448
– 46265
λίγο 45966
άλλο 45681
κόσμο 45549
παρακαλώ 45000
επειδή 44784
μπορείτε 44262
φορά 44064
προς 43776
νέα 42811
δουλειά 42422
ποιος 42261
πω 42033
γι 41911
αλήθεια 41627
νομίζω 41529
έχετε 41129
κύριε 40657
υπάρχουν 40271
κάνουμε 40126
ε 39442
είστε 39323
πράγματα 39046
πολλά 38886
κάτω 38182
3 37574
μέρος 37402
μέρα 37295
μπορούν 37089
άνθρωποι 37025
μπορούμε 36536
αυτές 36463
μόλις 36427
ούτε 36402
καλό 36357
ω 35830
μένα 35644
κανείς 35427
λες 35041
10 34911
γεια 34865
χρόνο 34746
έξω 34738
α 34545
’ 34526
ώρα 33854
ακόμη 33831
μ 33812
μα 33783
ος 33758
θέλεις 33660
όσο 33547
5 33534
στιγμή 33439
_ 33392
βρίσκεται 33357
γίνει 33345
πρώτη 32962
όλο 32402
λέει 32365
o 32008
μεταξύ 31454
γυναίκα 31291
φορές 31246
τρόπο 30931
εάν 30906
είπα 30792
'@@ 30514
δω 30503
καλή 30477
4 30344
ήμουν 30339
κάποιος 30287
έπρεπε 30261
* 30122
άλλη 30077
ξενοδοχείο 29919
είχα 29905
πόσο 29889
ακριβώς 29858
πάω 29744
καλύτερα 29712
λεπτά 29697
“ 29694
καθώς 29585
ίδιο 29541
οποία 29167
αυτόν 28929
ήθελα 28690
πραγματικά 28621
ες 28377
περισσότερο 28207
έγινε 28200
οποίο 28088
φαίνεται 28038
παιδί 28027
θέση 27944
έκανε 27885
χρειάζεται 27803
περίπου 27754
ενός 27570
θέλει 27565
όλες 27400
κάνουν 27300
ων 27275
ωραία 27260
” 27209
αρέσει 27129
μεγάλη 27059
κάποια 27019
φυσικά 26836
[ 26784
γίνεται 26762
ήδη 26663
πες 26589
σημαίνει 26450
συμβαίνει 26424
ώστε 26353
σωστά 26326
πάει 26072
μαμά 25990
δυο 25856
ήσουν 25774
ους 25566
σένα 25526
ενώ 25461
πρόβλημα 25400
ου 25398
πόλη 25189
κοίτα 25156
όλη 25073
όπου 25045
τέλος 24984
εις 24953
γρήγορα 24921
/ 24862
ηπα 24830
ανθρώπους 24811
κάποιον 24719
θες 24675
πράγμα 24506
hotel 24423
ιστορία 24420
σχετικά 24405
μακριά 24329
αν@@ 24252
πάλι 24222
ομάδα 24145
αρκετά 24133
τελευταία 24082
ίδια 24046
άλλα 23991
σ@@ 23989
& 23986
όλους 23795
θέλετε 23689
εμείς 23392
] 23384
εν 23343
εκτός 23300
περισσότερα 23087
όνομα 23038
λένε 23035
πρόκειται 23003
εαυτό 22960
vα 22812
ών 22741
λάθος 22733
χώρα 22684
μεγάλο 22650
δικό 22576
ει 22326
μπορούσε 22301
πας 22253
ξενοδοχεία 22252
20 22027
έκανα 21914
θεέ 21884
κοντά 21834
πρόγραμμα 21770
τ@@ 21731
κέντρο 21554
εμένα 21320
πολλές 21277
ιστοσελίδα 21272
κάνετε 21179
αυτούς 21141
o@@ 21105
συγγνώμη 20918
αυτοί 20906
σύμφωνα 20879
6 20814
είχαν 20770
ιδέα 20751
μητέρα 20718
πιστεύω 20695
εσείς 20674
οπότε 20656
ικό 20618
είτε 20541
τ 20437
απο 20386
ική 20374
s 20297
ζωής 20191
πληροφορίες 20141
σχεδόν 20134
k@@ 20096
ειναι 20095
αγάπη 19954
θέμα 19932
πάρει 19886
ια 19884
παράδειγμα 19874
ποια 19805
βλέπω 19687
σύστημα 19629
ι 19528
παιχνίδι 19511
ης 19464
πεις 19458
απο@@ 19450
χώρες 19438
πολιτική 19396
15 19376
ι@@ 19348
λυπάμαι 19330
v@@ 19315
7 19212
γυναίκες 19164
χ@@ 19139
τρεις 19072
μιας 18991
ν 18901
καιρό 18843
άνθρωπος 18833
8 18816
χρήση 18771
σχέση 18692
άλλες 18658
ά 18580
φίλε 18537
δει 18501
λέω 18478
νέο 18448
πια 18361
ικά 18348
εσένα 18280
κ. 18252
ωστόσο 18245
μέσω 18238
ν@@ 18145
ημέρα 18067
περίμενε 18066
πρώτο 18025
είπες 18025
μπαμπά 17968
σημαντικό 17902
πατέρας 17901
διάρκεια 17875
προ@@ 17812
λεφτά 17810
δική 17796
δείτε 17727
εκείνη 17698
ξανά 17661
μερικές 17632
περιοχή 17605
αυτήν 17571
λ@@ 17555
α@@ 17542
δωμάτια 17534
απλώς 17477
30 17458
m@@ 17452
ξέρει 17444
ο@@ 17337
μ@@ 17326
δεδομένων 17297
e@@ 17268
πει 17258
ές 17235
πέντε 17234
ώρες 17170
βοήθεια 17147
σίγουρα 17074
επίσημη 17071
ικές 16925
cookies 16836
t@@ 16798
έκανες 16776
νερό 16754
ία 16733
ουν 16718
a 16691
μάλλον 16601
κατάσταση 16592
ποιο 16522
αμέσως 16469
μάτια 16455
καλύτερο 16449
εκατομμύρια 16410
βράδυ 16384
πόδια 16378
συνέχεια 16360
είδα 16351
πρώτα 16285
πατέρα 16277
πλέον 16216
κάποιο 16215
έως 16137
ον 16080
μέρες 16072
ξέρετε 16027
12 15949
αύριο 15909
κανένα 15841
ής 15839
ετών 15831
μπροστά 15823
ικών 15772
ανάπτυξη 15742
β@@ 15693
κυρία 15683
μόνος 15643
δρόμο 15638
ρ@@ 15627
χαρά 15617
πήγαινε 15592
πότε 15534
χλμ 15521
ός 15519
ευκαιρία 15480
πάρω 15420
μήνες 15417
χέρια 15409
εμφάνιση 15406
άλλους 15404
μωρό 15390
ίας 15387
γ@@ 15366
εργασίας 15338
εν@@ 15330
εκ@@ 15316
μάλιστα 15306
κόσμος 15297
9 15282
βλέπεις 15281
αφού 15166
i 15150
αεροδρόμιο 15146
τρία 15146
στοιχεία 15142
δούμε 15140
παρ@@ 15127
δι@@ 15076
τιμή 15068
κίνα 15039
προσφέρει 15025
λόγο 15008
ντ@@ 14978
θεός 14950
δηλαδή 14919
περισσότερες 14896
ικής 14851
υπο@@ 14849
μήπως 14825
νομίζεις 14800
μπορούσα 14786
n@@ 14616
δωμάτιο 14611
πολλοί 14594
φ@@ 14566
χρήματα 14564
πρόσβαση 14553
χάρτη 14544
επιλογή 14536
τέτοιο 14529
ικού 14502
αρ@@ 14502
οτι 14493
βάση 14490
πραγματικότητα 14451
μέλλον 14444
ήρθε 14439
συχνά 14418
ου@@ 14407
ζ@@ 14398
καρδιά 14391
αρχή 14377
5@@ 14372
μικρό 14356
εταιρεία 14331
αργότερα 14327
κ@@ 14325
ώ 14265
πολιτείες 14197
εκ 14169
σειρά 14131
γύρω 14115
c@@ 14095
χέρι 14080
4@@ 14030
καμία 14029
πέρα 14027
τί 14022
δύναμη 14018
τελικά 14011
είς 13929
κ 13866
απ@@ 13860
έρευνα 13851
οικογένεια 13825
ούν 13795
σταμάτα 13771
i@@ 13766
περίπτωση 13746
$ 13727
δεδομένα 13719
άτομα 13716
κυβέρνηση 13707
d@@ 13661
ικός 13630
κορίτσι 13623
εμάς 13576
ς 13570
τρόπος 13565
συνέβη 13500
καλύτερη 13450
τέτοια 13445
τo 13441
τύπος 13419
δύσκολο 13382
ηνωμένες 13358
αλ@@ 13344
π@@ 13310
s@@ 13300
επίπεδο 13284
100 13267
h 13243
νύχτα 13218
συγνώμη 13159
θέλουν 13154
δωρεάν 13110
50 13070
p@@ 13055
απόψε 13044
… 13041
ετε 13028
πρωί 13025
έρθει 12963
σχολείο 12941
στ@@ 12915
δεv 12899
μικρή 12881
δολάρια 12872
ουμε 12834
b@@ 12827
a@@ 12790
ήξερα 12764
ευρώπη 12684
παρά 12682
έρχεται 12651
εξ@@ 12581
πάρε 12577
γη 12563
υπηρεσίες 12556
b 12539
γραφείο 12538
λόγω 12528
.@@ 12519
μπ@@ 12514
δίκιο 12514
πανεπιστήμιο 12459
συν@@ 12459
βιβλίο 12392
μέτρα 12376
αγορά 12374
ό@@ 12323
ά@@ 12300
σημασία 12296
καταλαβαίνω 12265
υπό 12264
the 12261
3@@ 12223
γαμώτο 12222
/@@ 12216
αυτού 12203
f@@ 12180
μερικά 12174
βοηθήσει 12146
προϊόντα 12071
ε@@ 12013
λεπτό 12011
μόνη 12005
g@@ 12003
επιπλέον 11986
μεγαλύτερη 11986
γκ@@ 11981
11 11955
κακό 11953
είχαμε 11942
τσ@@ 11931
25 11873
σώμα 11868
καθόλου 11865
δήλωσε 11862
e 11845
καλός 11824
τουλάχιστον 11817
εμπειρία 11782
6@@ 11772
καν 11768
εί 11766
πήρε 11719
δεις 11718
ήθελε 11717
ερ 11706
υ 11694
θέλουμε 11629
πέθανε 11621
πόρτα 11619
διάολο 11616
γεγονός 11613
πάρα 11595
προβλήματα 11582
όσα 11581
αστυνομία 11567
ελπίζω 11566
t 11524
ασφάλεια 11518
ήσει 11516
ού 11485
συνήθως 11464
χρειάζομαι 11458
έ 11417
ανά 11359
αυτοκίνητο 11327
• 11322
αμ@@ 11316
h@@ 11310
νόμιζα 11309
θ@@ 11307
επόμενη 11298
άκι 11278
σύντομα 11270
> 11268
re@@ 11257
γονείς 11246
τομέα 11225
-- 11215
προσ@@ 11214
λόγος 11201
εσάς 11187
άλλοι 11162
ούς 11157
φωτογραφίες 11151
κόσμου 11126
κεφάλι 11058
όπλο 11015
ξέρουμε 11014
συμβεί 10992
σημείο 10991
7@@ 10920
φίλος 10916
πρόεδρος 10911
βρω 10906
βέβαια 10905
αποτέλεσμα 10886
τηλέφωνο 10883
μιλήσω 10874
τζ@@ 10857
8@@ 10841
έξι 10837
συμφωνία 10787
παγκόσμια 10785
κάνε 10752
παιχνίδια 10737
όλων 10723
βρούμε 10712
18 10710
σχέδιο 10695
u@@ 10626
αμερικής 10615
μυαλό 10608
εβδομάδα 10596
κόρη 10576
θεού 10573
επι@@ 10559
τηλεόραση 10537
πειράζει 10508
ορίστε 10476
ήσεις 10473
αντι@@ 10464
εται 10459
18@@ 10450
ελ@@ 10446
βίντεο 10432
9@@ 10417
of 10415
αλλιώς 10408
χώρο 10398
άρα 10384
είχες 10376
παρέχει 10376
γλώσσα 10371
σοβαρά 10363
y@@ 10347
αποτελεί 10335
τέλεια 10331
εννοώ 10275
ασφαλείας 10259
άλλων 10242
d 10236
πόλεμο 10184
πάνε 10179
απάντηση 10166
άς 10149
πούμε 10149
πιστεύεις 10124
40 10119
ελάτε 10112
16 10073
φίλους 10043
πήγε 10038
κρεβάτι 10034
μέση 10022
x@@ 10014
κα 9989
σκατά 9985
al@@ 9977
ασ@@ 9961
διαδικασία 9925
φίλοι 9908
άλλος 9901
ορ@@ 9898
ερ@@ 9887
κανέναν 9873
μεγαλύτερο 9867
βι@@ 9841
ωραίο 9837
έργο 9831
ανάμεσα 9827
σύνδεση 9817
ημέρες 9812
βρείτε 9808
γι@@ 9806
αγόρι 9804
ρωσία 9790
άντρες 9787
z@@ 9776
c 9759
ί@@ 9742
πλευρά 9737
καμιά 9735
πόλης 9730
φύγε 9699
αριθμός 9662
ανάγκη 9655
ταινία 9651
αλλαγή 9641
ηλικία 9641
αφορά 9640
φαγητό 9635
άντρας 9635
υπήρχε 9615
ικ@@ 9606
13 9593
l@@ 9590
εννοείς 9588
μιλάς 9584
m 9583
αγαπώ 9576
αίμα 9570
υπηρεσία 9569
14 9568
λιγότερο 9551
σίγουρος 9540
ψέματα 9525
αρχές 9522
αποστολή 9487
χάρη 9485
οχι 9475
ανθρώπων 9456
φύγω 9447
βρίσκονται 9442
οί 9438
w@@ 9436
επισκέπτες 9392
ικούς 9373
ατ@@ 9338
τμήμα 9337
περιβάλλον 9315
νιώθω 9315
επόμενο 9300
2018 9289
περισσότεροι 9271
ικοί 9244
αυτών 9234
προσοχή 9234
β 9221
θυμάσαι 9219
γερμανία 9215
έ@@ 9203
y 9197
επ@@ 9194
βοηθήσω 9172
δ@@ 9162
μέλη 9159
τρ@@ 9153
μήνα 9150
ευ@@ 9140
ω@@ 9138
24 9127
πρόσωπο 9124
κλ@@ 9122
2019 9119
αντ@@ 9097
όμορφη 9095
βρήκα 9088
αυτής 9072
αστέρων 9072
r@@ 9061
δώσε 9059
χαίρομαι 9036
-δεν 9035
φως 9020
αλλάξει 9004
κορίτσια 8983
μαθητές 8981
17 8978
κανένας 8973
ελλάδα 8960
μήνυμα 8959
in@@ 8956
ξ@@ 8955
φωτογραφία 8943
εκπαίδευση 8939
θεό 8937
κάποιες 8931
to 8927
λέμε 8916
ακ@@ 8897
αμε 8883
λέξη 8881
θυμάμαι 8881
άρθρο 8866
πάρεις 8863
βάρος 8859
x 8846
le@@ 8843
υπερ@@ 8834
ίες 8816
σα 8806
εκείνο 8803
εύκολο 8778
διαφορετικά 8777
co@@ 8771
in 8769
αργά 8759
το@@ 8754
εε 8753
δέκα 8751
κά@@ 8749
ενέργειας 8722
άτομο 8710
χιλιάδες 8693
η@@ 8689
2@@ 8687
μουσική 8681
χρειαζόμαστε 8666
v 8659
εντελώς 8649
ειδικά 8648
ιδιαίτερα 8641
καφέ 8640
δώσει 8627
ταξίδι 8614
λίστα 8602
δίπλα 8595
μένη 8590
windows 8581
ονται 8573
δρ 8569
υγεία 8563
χθες 8561
υπόθεση 8559
πείτε 8558
εποχή 8552
καρ@@ 8551
υ@@ 8546
δίνει 8537
ήσω 8530
φύγουμε 8526
αμάξι 8498
χρόνος 8486
δώσω 8479
επιχειρήσεις 8455
μπαμπάς 8451
ομ@@ 8428
αξίζει 8425
αμερική 8411
τεχνολογία 8403
2017 8398
σελίδα 8386
εταιρείες 8386
αριθμό 8379
αγ@@ 8375
όνομά 8362
όπλα 8343
λόγια 8338
ar@@ 8334
υπολογιστή 8327
μορφή 8320
τελευταίο 8294
μοιάζει 8285
πι@@ 8282
έδωσε 8281
εικόνα 8279
-τι 8274
and 8271
κατ@@ 8264
ώσει 8239
έλεγχο 8236
k 8234
πήρα 8217
υγείας 8210
δικαίωμα 8206
ί 8203
άκια 8193
de 8186
κυρίως 8172
μένο 8161
επί 8158
αποτελέσματα 8146
είδος 8141
ερώτηση 8134
ού@@ 8124
2016 8122
# 8120
γου@@ 8119
δικά 8113
ίδιος 8113
νέες 8099
κύριος 8096
ρι@@ 8082
διάστημα 8072
ει@@ 8067
ma@@ 8038
ro@@ 8034
διαχείριση 8032
ιν@@ 8031
εργασία 8024
άν@@ 8024
διαμερίσματα 8021
κάπου 8011
.... 7985
εφαρμογή 7954
θ 7924
ενέργεια 7921
δεύτερη 7917
λ 7915
ούμε 7910
ρε 7908
βασικά 7895
φοιτητές 7891
@ 7876
τι@@ 7875
έτος 7872
βρει 7871
φυλακή 7870
απόφαση 7868
χρήστες 7863
de@@ 7857
ενα 7853
ενδιαφέρον 7850
ον@@ 7845
σωστό 7840
ανησυχείς 7821
ησε 7818
δείχνει 7793
πλ@@ 7792
ανάπτυξης 7786
μέρη 7761
είδες 7743
προστασία 7743
άσε 7738
ιο 7738
n 7732
σημαντική 7728
τρέχει 7724
φύγει 7721
κατάλυμα 7713
οικονομία 7707
ποιός 7704
λίγα 7699
άνδρες 7692
κομμάτι 7691
γραμμή 7691
έκαναν 7688
2015 7683
έκδοση 7682
απόσταση 7680
περάσει 7680
αφ@@ 7679
an@@ 7666
πολλούς 7655
p 7640
οποιαδήποτε 7639
αύξηση 7624
δυνατότητα 7620
us 7617
δεύτερο 7617
εμ@@ 7607
l 7598
πλάκα 7593
δημιουργία 7587
0 7579
ίζει 7544
ήθηκε 7544
οδικώς 7532
άρ@@ 7531
βρεις 7530
εύκολα 7526
τέσσερις 7524
0@@ 7503
οικονομική 7499
· 7481
ήσουμε 7461
άνθρωπο 7458
πεθάνει 7455
επικοινωνία 7446
κοινωνία 7445
λειτουργεί 7431
προγράμματα 7430
απευθείας 7427
βήμα 7424
πρ@@ 7423
υποστήριξη 7417
g 7388
ικο 7386
στόχος 7384
θέσεις 7376
μελέτη 7376
ποιον 7372
μείνει 7372
60 7368
ρόλο 7336
κάποτε 7334
πρώτος 7314
αι@@ 7313
παραπάνω 7300
προσωπικά 7295
γιος 7293
υόρκη 7292
είπαν 7287
μoυ 7273
ατε 7267
αλλαγές 7267
j@@ 7256
δυνάμεις 7255
κάναμε 7237
γαλλία 7228
μεγάλες 7223
αιώνα 7223
19 7223
ιά 7218
κο@@ 7215
κάποιοι 7215
ιταλία 7212
νοσοκομείο 7212
θέματα 7207
πάρουμε 7202
γέλια 7194
τοποθεσία 7192
εναντίον 7187
καλ@@ 7185
περιοχές 7185
τύχη 7177
παραγωγή 7175
διαθέτει 7172
άδεια 7164
κρ@@ 7158
παγκόσμιο 7155
επιτυχία 7155
οικογένειά 7147
εμπρός 7140
άντρα 7139
άλ@@ 7121
an 7120
21 7112
er 7107
τέσσερα 7107
π 7095
θάνατο 7091
δικαιώματα 7079
άν 7076
κοινό 7075
έλεγα 7071
ch@@ 7069
κοπέλα 7066
χώρας 7057
ώντας 7056
βλέπετε 7050
παλιά 7046
σκέφτηκα 7043
υπ@@ 7040
σταθμό 7037
αυτο@@ 7034
μπορούσαν 7024
σκ@@ 7018
ανήκει 6988
10@@ 6986
επίθεση 6983
on 6980
ερωτήσεις 6978
προγράμματος 6964
μέγεθος 6963
ξέρουν 6962
΄@@ 6955
πελάτες 6943
θάλασσα 6936
εσ@@ 6934
αντί 6927
ευρώ 6925
έλεγε 6919
ούσε 6911
άλλον 6909
οντας 6901
επιτροπή 6895
νεκρός 6886
ίσει 6879
λι@@ 6879
ηθεί 6879
ολ@@ 6877
έρχονται 6877
καταλαβαίνεις 6875
παντού 6856
εκείνος 6856
ισ@@ 6844
άρεσε 6844
22 6842
ηση 6842
άρχισε 6825
ικη 6821
κατάλαβα 6817
παρελθόν 6809
χρησιμοποιεί 6806
τιμές 6806
-ναι 6795
αρχική 6793
περιλαμβάνει 6792
έρθεις 6792
πλαίσιο 6785
μένος 6777
μισό 6773
ήρθα 6772
αστείο 6768
αφήστε 6768
ing 6765
ισχύει 6762
ήθελες 6760
έτοιμος 6759
διότι 6754
μιλήσουμε 6749
φοβάμαι 6748
γιο 6746
άμεση 6726
κρίση 6722
κάντε 6705
στόχο 6701
οποίες 6701
περι@@ 6694
παραγωγής 6686
u 6684
facebook 6679
αξία 6677
παρακαλούμε 6675
πόλεμος 6674
θεραπεία 6673
ζει 6672
τού 6660
ακούς 6652
ώσεις 6641
τύπο 6635
is@@ 6635
ρ 6630
αχ@@ 6612
ήρθες 6610
οτιδήποτε 6606
la 6599
ξεκίνησε 6590
διαφορά 6587
–@@ 6581
προσωπικό 6578
λύση 6558
αρχείο 6557
αρχεία 6556
ρούχα 6554
χρειάζονται 6548
σκοπό 6535
τε 6534
φωνή 6533
είδους 6532
ομάδες 6527
φίλο 6527
πρώην 6522
πο@@ 6515
en@@ 6509
επιτρέπει 6505
έφυγε 6495
mo@@ 6491
οποίος 6486
ιών 6484
συστήματος 6467
σχέσεις 6462
βασίλειο 6460
μείνε 6453
μά@@ 6450
άκουσα 6449
λειτουργία 6439
σκοτώσει 6434
σεξ 6430
ζώα 6429
αυτο 6422
επιλογές 6413
άσχημα 6411
ακούσει 6411
πλανήτη 6393
δες 6392
φρ@@ 6387
υποθέτω 6387
st@@ 6384
εβδομάδες 6376
σημαντικά 6375
+ 6368
αφήσω 6365
ri@@ 6360
τες 6357
φωτιά 6357
ελευθερία 6356
έκθεση 6354
συνεργασία 6349
χαρ@@ 6349
διεθνή 6346
επαν@@ 6331
γίνονται 6327
μέλος 6326
διεύθυνση 6322
άσ@@ 6319
διαδίκτυο 6317
ήμασταν 6317
ρυθμίσεις 6308
τζον 6307
πά@@ 6300
google 6300
φύγεις 6296
ή@@ 6294
ησαν 6289
κανόνες 6287
μιλάμε 6283
ώνει 6281
έρ@@ 6280
δια 6279
ρα 6279
δυνατόν 6274
ικα 6270
περιμένει 6269
κάπως 6268
ώ@@ 6267
te@@ 6267
νοιάζει 6266
συγχωρείτε 6252
πολέμου 6251
κίνδυνο 6244
κράτος 6236
ακούγεται 6221
‘ 6220
έρθω 6217
περιμένετε 6215
βιβλία 6214
ακούω 6212
χρώμα 6208
τάξη 6205
µ@@ 6198
πόσα 6195
κόστος 6194
επαφή 6185
διεθνές 6182
23 6178
δίκτυο 6178
σι@@ 6167
εκκλησία 6160
υπέροχο 6159
al 6153
li@@ 6153
email 6152
αέρα 6138
χρησιμοποιούν 6136
περίοδο 6133
καλύτερος 6132
2013 6123
συστήματα 6114
2014 6114
28 6109
κου@@ 6102
ισραήλ 6101
15@@ 6100
υπηρεσιών 6098
web 6096
tι 6096
ζουν 6093
προφανώς 6090
επιχείρηση 6090
μπαρ 6077
μάχη 6076
έι 6073
γι'αυτό 6071
απέχει 6071
όμορφο 6064
ήσετε 6060
σκέφτομαι 6053
le 6051
επάνω 6046
βόρεια 6039
αντίο 6034
χρειαστεί 6025
r 6022
ισμό 6019
γνωρίζω 6018
to@@ 6017
τος 6015
17@@ 6010
νόημα 6008
ετ@@ 6008
αρέσουν 6007
επιχειρήσεων 5997
προσπαθώ 5995
συνθήκες 5993
κίνηση 5993
μαθήματα 5992
f 5986
μιλάω 5985
es@@ 5985
μπάνιο 5982
κύριοι 5980
ασφάλειας 5979
κλειδί 5979
es 5973
ωση 5960
πηγή 5952
στρ@@ 5950
είvαι 5948
γνώμη 5945
παράδοση 5933
online 5932
θε@@ 5929
er@@ 5923
γλυκιά 5913
la@@ 5912
se@@ 5906
εια 5905
ελ 5898
καλώς 5897
ις 5880
πάτε 5878
ιν 5876
ίου 5873
'οχι 5864
16@@ 5859
γιατρός 5853
ψ@@ 5853
παιδιών 5849
αγώνα 5844
κύριο 5842
μπράβο 5841
λογισμικό 5826
ζ 5822
πέρασε 5820
ισμός 5820
τζακ 5815
βρ@@ 5808
ξαφνικά 5805
πρόσεχε 5804
λογαριασμό 5801
έλ@@ 5797
80 5795
αφεντικό 5791
χρόνου 5786
90 5784
ούνται 5782
λέτε 5781
ra@@ 5776
πραγματική 5767
bo@@ 5766
χριστέ 5763
di@@ 5758
διαφορετικές 5753
μιλάει 5748
26 5745
27 5736
microsoft 5736
περιμένω 5731
μέσο 5729
ωσε 5727
μηχανή 5726
μείνω 5724
τόσα 5723
τρίτη 5721
γίνω 5721
φιλ@@ 5720
φύση 5713
εγ@@ 5712
αγγλικά 5707
πολιτικής 5707
μπορούσες 5699
χρειάζεσαι 5696
νέας 5694
μεγάλος 5693
βλέπουμε 5692
μεγάλα 5692
άνοιξε 5686
γίνουν 5674
λονδίνο 5673
μαλλιά 5672
ταυτόχρονα 5670
φέρω 5664
lo@@ 5663
τηv 5661
πράγματι 5661
μάθει 5660
καλημέρα 5652
σoυ 5645
ένωση 5640
πραγματικό 5637
επτά 5634
έν@@ 5632
είδε 5632
έρευνας 5630
2012 5623
εκπαίδευσης 5618
δημοκρατία 5609
δυστυχώς 5606
δεξιά 5605
τελειώσει 5600
ποσοστό 5590
w 5589
θεί 5586
πήγα 5572
άφησε 5562
12@@ 5560
πρόσφατα 5551
άκου 5551
νότια 5548
ανάγκες 5546
μάθω 5546
σταματήσει 5536
κοιτάξτε 5531
μικρά 5529
προϊόντων 5529
προσπάθεια 5523
δυνατή 5523
καιρός 5523
όν 5520
πληροφοριών 5517
as@@ 5515
χαρακτηριστικά 5511
χρήσης 5504
είται 5502
βασιλιάς 5492
τράπεζα 5484
εξαιτίας 5479
περιπτώσεις 5475
γίνεις 5470
σκότωσε 5467
ποτό 5467
καθ@@ 5463
ψυχή 5462
παρίσι 5457
el@@ 5452
παίρνει 5446
μακ@@ 5445
πόλεις 5439
σκοτώσω 5433
me@@ 5431
14@@ 5431
ήξερε 5430
ευρωπαϊκή 5419
αv 5419
παίζει 5417
αv@@ 5411
τραγούδι 5410
σχολή 5408
﻿ 5394
35 5393
2010 5386
13@@ 5383
δουλεύει 5378
ομάδας 5374
πλήρως 5372
οσ@@ 5371
ονομάζεται 5367
επίπεδα 5366
ho@@ 5365
ολόκληρη 5361
ισμού 5358
εφ@@ 5355
200 5351
μένες 5351
συνέχισε 5346
ήθηκαν 5345
apple 5339
γης 5338
επεξεργασία 5337
πάρτε 5334
ορισμένες 5331
άντε 5324
be@@ 5323
δυνατό 5321
βρήκες 5321
έτοιμοι 5313
λέξεις 5307
διαμέρισμα 5301
δώρο 5300
νέος 5298
70 5295
κεφάλαιο 5291
απλό 5288
φορ@@ 5288
συνεχώς 5286
do@@ 5281
μπορούσαμε 5279
εκατό 5278
πλήρη 5268
λίγες 5267
καθένας 5266
αφρική 5265
γνωρίζουμε 5264
φ 5254
μυστικό 5253
φέρει 5252
am@@ 5245
τελείωσε 5243
ia 5240
διαφορετικό 5240
δείξω 5234
του@@ 5225
βαθιά 5220
ίσεις 5218
ποιοι 5218
περ@@ 5211
κε 5209
λέγεται 5207
ύ@@ 5206
πάρτι 5202
βιομηχανία 5201
en 5198
πάρετε 5196
.com 5194
20@@ 5193
ικανότητα 5192
ίζουν 5185
45 5183
χάσει 5182
λίγη 5177
επιτέλους 5174
ων@@ 5174
no@@ 5162
ότητα 5154
ελπίδα 5147
βαθμό 5147
ησης 5147
συμβούλιο 5142
2020 5141
29 5140
ραντεβού 5140
νι@@ 5137
βλέπει 5137
έργα 5133
2011 5131
αλ 5131
αγοράς 5125
συσκευή 5124
εξαιρετικά 5124
αριστερά 5118
αρχικά 5116
-θα 5113
ερευνητές 5112
φέτος 5111
γειά 5110
ηρέμησε 5105
μάθημα 5101
στόμα 5098
επιστήμονες 5087
street 5080
ti@@ 5078
1@@ 5078
άποψη 5076
επικοινωνήστε 5069
ad@@ 5068
μείωση 5068
ταχύτητα 5067
κοινότητα 5065
πλοίο 5062
ιστ@@ 5061
μάθετε 5056
ελέγχου 5042
ούσαν 5041
πιστεύει 5040
τεχνολογίας 5039
νιώθεις 5037
προστασίας 5035
εισ@@ 5031
αστ@@ 5028
χ 5022
λείπει 5019
γ 5016
500 5015
παν@@ 5013
αρχίσει 5011
αφήσεις 5004
ολόκληρο 5004
μικρός 4996
διαχείρισης 4989
βρήκε 4989
αδ@@ 4988
παράθυρο 4987
φτάσει 4971
ώσουν 4970
υπήρχαν 4970
βάλω 4969
επανάσταση 4965
μένοι 4965
σχέδια 4964
po@@ 4964
πορεία 4962
σον 4959
εία 4959
χρονών 4958
εταιρείας 4956
πιστεύουν 4948
γνώση 4946
όμ@@ 4945
μιλήσει 4940
τραπέζι 4938
νησί 4936
όνειρο 4933
σύνολο 4931
ησα 4928
so@@ 4925
πάντως 4924
oς 4923
σίγουρη 4920
εθνικό 4919
ac@@ 4919
ημερομηνία 4919
οκ@@ 4917
προϊόν 4916
νωρίτερα 4910
εσαι 4909
μάθεις 4908
όντως 4908
παραμένει 4908
θέα 4906
ευθύνη 4905
πολίτες 4901
επομένως 4896
ματιά 4894
σωστή 4890
χρησιμοποιείται 4887
προκειμένου 4886
ψηλά 4885
δε@@ 4874
αζ@@ 4867
νέων 4863
ώσω 4862
κτίριο 4857
έρχομαι 4855
φοβάσαι 4852
γάμο 4852
ηνωμένο 4851
μπρ@@ 4849
είδη 4838
όρους 4836
σου@@ 4834
αναζήτηση 4834
περιμένουμε 4833
δείχνουν 4833
ωθεί 4828
ύπνο 4827
καλοκαίρι 4825
συμπεριλαμβανομένων 4823
ειρήνη 4822
ίζεται 4818
σ'@@ 4817
ινδία 4816
οπ@@ 4815
δύσκολη 4815
< 4805
oι 4804
κάρτα 4803
εθνική 4801
μον@@ 4799
κοινωνική 4791
τρίτο 4791
λουλούδια 4790
στ 4786
φίλη 4780
ιστορίες 4779
συνάντηση 4778
ούσα 4776
αγορές 4776
ανάλυση 4771
θανάτου 4769
καληνύχτα 4757
βαρ@@ 4754
τομείς 4748
τεράστια 4745
κουζίνα 4745
μαν 4744
εντ@@ 4743
άζει 4742
πήρες 4739
at@@ 4738
εί@@ 4732
σκέψη 4730
μείνεις 4728
31 4726
ιδέες 4724
ογ@@ 4722
μοντέλο 4721
γιαγιά 4719
ισπανία 4719
τω 4717
προσπάθησε 4716
αδερφή 4714
τίποτε 4708
εξ 4707
αίσθηση 4707
ηνωμένων 4705
θούν 4703
εξής 4695
ζήτησε 4693
παραλία 4693
εικόνες 4690
z 4688
σκέφτεσαι 4687
ίων 4676
νο@@ 4674
εφαρμογές 4673
πίεση 4669
ιράν 4667
vi@@ 4667
ιαπωνία 4665
2008 4663
πρωινό 4661
δραστηριότητες 4655
πουθενά 4652
επιστήμη 4646
αρχ@@ 4646
διεθνείς 4644
ag@@ 4637
on@@ 4637
όρο 4635
τρι@@ 4623
όσον 4622
άσει 4621
έπεσε 4620
περίεργο 4615
ζήτημα 4615
ήστε 4615
ανέφερε 4614
ητ@@ 4614
th@@ 4609
στοιχείο 4607
man 4606
τύπου 4606
ότητας 4604
προβολή 4602
γνωστό 4602
ευχαριστούμε 4602
mar@@ 4599
1.@@ 4599
ποιότητα 4595
πολυ@@ 4594
κύπρος 4589
σκηνή 4585
δικαστήριο 4584
νωρίς 4584
ταινίες 4579
κόμμα 4578
αλλα 4575
διεθνούς 4568
ασε 4564
κόκκινο 4563
μένων 4561
δείπνο 4559
βασιλιά 4554
εργαλεία 4546
ηθούν 4544
μαρ@@ 4544
γνωρίζει 4536
υψηλής 4534
μαν@@ 4531
κίνας 4524
προσπαθεί 4522
αναφέρει 4521
όν@@ 4517
δεκαετία 4516
έγιναν 4515
έκ@@ 4515
όλ@@ 4514
λήψη 4514
ποιότητας 4514
όρ@@ 4513
μένει 4508
γνωστοποίηση 4508
πίστη 4508
χρησιμοποιούμε 4507
πνεύμα 4507
εστιατόριο 4506
άκρη 4495
διαθέτουν 4490
as 4489
εμπιστοσύνη 4487
un@@ 4485
γυναικών 4476
περιεχόμενο 4474
αεροπλάνο 4469
γυρίσω 4469
τρελός 4469
ενάντια 4467
άλλαξε 4466
δίκαιο 4465
συνολικά 4461
is 4456
ώνουν 4454
προσφορά 4454
χρονιά 4453
αι 4452
εξωτερικό 4450
οποιοδήποτε 4446
μακάρι 4442
οικονομικά 4438
έμαθα 4437
άκ@@ 4435
εδω 4435
εντός 4434
απολύτως 4433
κράτη 4433
εξαρτάται 4432
έδαφος 4427
ζωές 4425
φύγετε 4422
ευκαιρίες 4415
ντους 4412
χρησιμοποιώντας 4409
ματ@@ 4408
αποτελούν 4405
διάφορα 4405
υπέροχα 4402
ίσ@@ 4398
γεγονότα 4397
ίσω 4395
συμπεριφορά 4395
{ 4394
υλικό 4387
γνωρίζετε 4387
σχόλια 4386
μερικοί 4385
δημόσια 4384
εκλογές 4383
απαιτεί 4382
τέλειο 4381
σήμα 4375
ξανα@@ 4375
περίμενα 4374
μα@@ 4371
πιθανό 4366
ασία 4366
} 4364
επικεφαλής 4358
χειροκρότημα 4355
χρησιμοποιήσετε 4355
ήξερες 4351
ηταν 4351
πολιτικές 4350
τουρκία 4345
el 4341
τελείως 4338
ίσουν 4337
ώσουμε 4337
ην 4335
άμεσα 4334
συζήτηση 4333
αρχίζει 4332
αρκετό 4327
τσάι 4319
έτοιμη 4316
ne@@ 4314
si@@ 4305
υπάρξει 4305
2.@@ 4305
ιησούς 4305
συσκευές 4305
πόδι 4300
ημα 4300
παγκοσμίως 4297
δικός 4297
αρ 4294
κουρ@@ 4292
2009 4286
σταθμός 4286
ab@@ 4283
θάνατος 4282
μοναδικό 4281
χρήστη 4281
or@@ 4280
παρακάτω 4280
απλή 4277
σταματήστε 4262
μέ@@ 4260
φρανκ 4260
θεωρία 4259
internet 4259
μετ@@ 4257
γενικά 4256
us@@ 4253
μαύρο 4253
αβ@@ 4250
παίκτες 4242
αλλάζει 4242
ίδα 4238
απαντήσεις 4237
πετρελαίου 4234
δράση 4234
τέχνη 4232
οφ@@ 4231
κεντρική 4230
περαιτέρω 4229
μηχανισμό 4228
ήσαμε 4224
απ'το 4224
όμορφα 4223
συγκεκριμένα 4222
κορ@@ 4219
κυρίες 4211
βοηθήσεις 4208
περιέχει 4205
λα 4199
πανεπιστημίου 4198
11@@ 4196
σημεία 4195
κρασί 4190
σκοπούς 4190
ξαν@@ 4185
32 4184
παλιό 4184
τερ@@ 4179
τρόπους 4178
έπειτα 4178
ελα 4177
α-@@ 4175
ϊ@@ 4175
βγει 4172
βελτίωση 4171
έγραψε 4170
tnt 4170
στάση 4166
μόνοι 4164
αγόρια 4158
ώνεται 4157
con@@ 4155
λι 4155
όσ@@ 4149
ιλ@@ 4148
αδελφή 4147
διαφορετική 4143
ουρ@@ 4138
άει 4136
πεδίο 4135
δισεκατομμύρια 4131
εύ@@ 4131
ντ 4131
γκρ@@ 4130
εταιρία 4130
ανε 4128
εξέλιξη 4127
βρουν 4126
ευρώπης 4126
μπο@@ 4124
γκ 4124
αναφορά 4124
οκτώ 4122
μπλε 4118
ίσουμε 4117
μοναδική 4116
ακούστε 4114
σκάσε 4112
θηκε 4111
φτάνει 4111
έφερε 4110
ώθηκε 4108
δικαιωμάτων 4106
βρήκαμε 4105
πηγαίνετε 4103
σπίτια 4100
δεξιότητες 4097
επιλέξτε 4097
βλ@@ 4095
υπήρξε 4095
συγχαρητήρια 4094
χάλια 4093
ηλικίας 4091
πάρκο 4090
καν@@ 4086
περί 4085
go@@ 4085
οθόνη 4081
ίν@@ 4079
άσεις 4074
ιτ@@ 4073
απαιτήσεις 4072
ασφαλής 4071
ιησού 4069
greece 4066
διαμονή 4065
σαμ 4063
απάντησε 4061
δευτερόλεπτα 4061
περισσότερους 4057
λέ@@ 4052
κάτσε 4052
μ'@@ 4050
οκ 4046
ωσης 4045
ίζεις 4045
χωριό 4042
εγω 4040
στρατό 4040
ζω@@ 4039
κατάλαβες 4038
ko@@ 4038
διάφορες 4037
γνωρίζουν 4035
νόμο 4033
ζωντανός 4032
ανθρώπινη 4031
αναμένεται 4031
φυσικό 4029
ic@@ 4029
διακοπές 4024
ενημερώσεις 4023
300 4022
όσους 4022
κομ@@ 4021
κο 4021
εμφανίσεις 4018
δουν 4017
μικρέ 4013
's 4011
κατηγορία 4010
στρατιώτες 4009
γράμμα 4009
δώσεις 4008
μετρό 4008
αγαπάς 4007
οδ@@ 4005
βοηθήσουν 4004
ξεκινήσει 4002
βρέθηκε 4000
ειλικρινά 3996
βάλε 3995
ανθρώπου 3994
σκάφος 3991
it@@ 3991
ενδέχεται 3990
παρόν 3989
ματα 3988
αί@@ 3988
πρόταση 3988
κοινή 3988
δυνατά 3983
αυτοκίνητα 3983
άμ@@ 3981
παλ@@ 3981
ρωτήσω 3980
νερού 3979
αισθάνομαι 3974
-όχι 3969
επιστροφή 3968
υπόσχομαι 3965
νέους 3962
ντε 3960
πιθανότητα 3960
μάνα 3955
σαρ@@ 3955
καταλάβει 3954
κάμερα 3953
οδηγός 3951
δημιουργήσει 3947
υπόλοιπα 3946
γεννήθηκε 3943
πράξη 3938
αλλού 3938
ησ@@ 3938
sh@@ 3937
διεθνής 3936
στρατηγική 3936
πηγές 3935
2007 3931
βδομάδα 3930
πoυ 3929
τής 3928
προσωπική 3927
μείνετε 3926
νόμος 3921
ασφαλές 3921
κακή 3918
τη@@ 3918
έκπληξη 3917
he@@ 3914
οδηγήσει 3913
μαλακίες 3912
ασθενείς 3911
τριαντάφυλλα 3906
τέτοιες 3905
κατηγορίες 3903
μι@@ 3897
βλέπουν 3896
μάικλ 3896
οργάνωση 3893
κυβέρνησης 3893
λευκό 3893
ήρθατε 3890
θηκαν 3887
περιμένεις 3887
μουσείο 3884
μού 3883
άνοιγμα 3880
όσοι 3879
αυστραλία 3876
λεπτομέρειες 3874
ιστοχώρο 3871
ιστεί 3871
inn 3868
τελευταίες 3865
φυσική 3865
γιατρό 3864
συγκεκριμένο 3862
car@@ 3862
λος 3861
office 3860
sp@@ 3860
ασα 3856
λάθη 3855
δουλεύω 3853
ο-@@ 3853
παπούτσια 3852
έστειλε 3849
σημαντικές 3847
ιμ@@ 3844
πιστεύουμε 3842
μερ@@ 3829
αρκετές 3828
κώδικα 3828
ονόματα 3825
κολ@@ 3825
φέρε 3818
τό 3817
μεταφορά 3808
παράξενο 3807
απόγευμα 3806
σπουδών 3806
καμ@@ 3805
απαραίτητο 3797
ποιες 3796
ιού 3791
ίζονται 3790
πρόσβασης 3789
έφτασε 3786
παρούσα 3785
σιγά 3780
χωρών 3780
υπέροχη 3778
πόνο 3777
δουλειές 3774
παγκόσμιας 3774
όποιος 3772
ρώμη 3771
εχει 3769
τζο 3769
ν'@@ 3766
ζώνη 3765
ατύχημα 3760
ίζω 3757
προσφέρουν 3752
σπ@@ 3751
λόγους 3750
χρειάζεστε 3749
πεθάνω 3749
χώρος 3748
αφήσει 3741
απειλή 3737
υποτίθεται 3734
οδηγεί 3731
κατασκευή 3729
σεπτεμβρίου 3729
νίκη 3725
οποίοι 3724
φάρμακα 3722
βάλει 3716
έβαλε 3716
κα@@ 3714
λάβει 3713
75 3711
il@@ 3709
ma 3709
απέναντι 3707
όρια 3707
-είναι 3706
γραμμές 3706
παίρνεις 3705
λί@@ 3701
στάδιο 3700
αμερικανική 3693
τας 3692
ευτυχώς 3691
ίν 3689
κράτα 3688
οικ@@ 3687
σκεφτόμουν 3685
ομαι 3684
συγγραφέας 3678
καριέρα 3677
θεωρείται 3677
άνδρας 3676
κάνατε 3676
ικότητα 3675
ιας 3675
house 3672
νομ@@ 3670
οχ@@ 3669
έχασα 3665
πί@@ 3664
υπόψη 3656
βία 3656
μηνύματα 3654
πελατών 3651
33 3648
ar 3648
απόλυτα 3642
50@@ 3642
βήματα 3640
υποστηρίζει 3637
σήκω 3637
σκοτώσεις 3634
εργαλείο 3633
παράλληλα 3633
εκατοντάδες 3631
υλ@@ 3629
οταν 3628
προηγούμενη 3627
www.@@ 3626
q@@ 3626
κό@@ 3625
άτ@@ 3620
οποίων 3620
λογική 3619
τoυ 3618
μπα 3618
ιστορίας 3615
απορρήτου 3613
επιστρέψει 3612
αληθινό 3612
δάσος 3608
ησες 3606
μάτι 3601
χαλ@@ 3600
κοιτάς 3595
international 3594
τέχνης 3594
ακρίβεια 3593
συγχωρείς 3592
αδερφός 3591
— 3591
βόλτα 3590
κομμάτια 3587
χειρότερο 3586
πιστεύετε 3582
αγώνες 3580
ap@@ 3579
os 3577
απαιτείται 3576
μπει 3576
γράφει 3575
κρατήσει 3575
ηθ@@ 3574
μνήμη 3574
καθημερινά 3573
παρέα 3572
ψυχ@@ 3572
at 3572
δρ@@ 3571
σκληρά 3571
βραβείο 3564
ζούμε 3563
εντολή 3562
μονάδα 3559
επιτρέπεται 3559
lu@@ 3557
ηγέτες 3557
ιατρική 3556
οικονομικών 3556
πέσει 3553
αληθινή 3552
εμπόριο 3552
έννοια 3551
κινητό 3551
δ 3549
περιλαμβάνουν 3545
άκουσες 3542
επικοινωνίας 3542
πάρουν 3541
park 3539
ήρθαν 3536
νε@@ 3533
περισσότερη 3532
πιθανόν 3532
καλές 3529
name 3526
ζεις 3525
πηγαίνει 3524
ανακοίνωσε 3524
κατανόηση 3523
ποι@@ 3519
vo@@ 3519
χαρακτήρα 3517
σύνορα 3516
ένωσης 3513
οι@@ 3510
μικρές 3508
κορυφή 3507
βασίζεται 3506
πρόεδρο 3505
κι@@ 3504
ιουλίου 3503
θρ@@ 3502
εχω 3502
su@@ 3502
τov 3502
€ 3502
tο 3501
κερδίσει 3501
ανάλογα 3499
ιδιωτικό 3499
βγάλω 3497
απίστευτο 3497
ενότητα 3497
στε 3493
πρόσωπό 3492
χρησιμοποιούνται 3488
ευτυχία 3487
στo 3483
στόχους 3482
νά 3481
εξαίρεσης 3480
άρι 3477
πρακτική 3475
συλλογή 3474
βαλ@@ 3472
τομ 3471
ονταν 3471
βασίλισσα 3470
αλλ@@ 3468
av@@ 3468
εύει 3468
πεθάνεις 3467
δεκεμβρίου 3467
άσω 3466
ισχυρή 3466
ώνονται 3466
κείμενο 3465
ερώτημα 3465
κατεύθυνση 3465
λύσεις 3460
καταστροφή 3457
χρονικό 3456
μελέτες 3455
μπάνια 3455
παιχνιδιού 3455
χά@@ 3454
φάση 3453
περιμένουν 3452
κατάλληλη 3451
-το 3451
καλύτερες 3451
συγκεκριμένη 3451
30@@ 3446
παίρνω 3446
δρόμος 3445
δέντρο 3444
αφήσουμε 3441
αρκεί 3438
κουτί 3432
τρελό 3432
κατ 3431
συμμετοχή 3430
beach 3429
νέοι 3427
δέρμα 3427
συρία 3426
σεις 3423
μιλ@@ 3422
ενημέρωσης 3419
εξαιρεθείτε 3417
πήραν 3417
ελεύθερη 3414
αρχείου 3414
πίστευα 3412
ωσ@@ 3411
ρομπότ 3410
ίνα 3410
εστ@@ 3408
αθ@@ 3407
προηγούμενο 3407
ασαν 3407
κόλαση 3406
wi-fi 3406
ψυγείο 3400
ίδες 3398
δουλεύεις 3398
ενδιαφέρει 3394
γνώσεις 3394
άζουν 3392
μαλ@@ 3387
τροφίμων 3387
διευθυντής 3386
έντ@@ 3385
αναφέρονται 3384
μιλήσεις 3384
παρασκευή 3383
ιστές 3381
σκοτάδι 3381
εξοπλισμένα 3377
48 3377
αμ 3376
σαλ@@ 3376
νέου 3375
πατρίδα 3374
αγία 3374
ανθρώπινο 3373
εκείνοι 3373
όμαστε 3372
λογισμικού 3372
φεύγω 3371
αϊ@@ 3367
μπάλα 3365
κάποιου 3365
μαρτίου 3363
παγ@@ 3362
μονάδες 3359
ηλ@@ 3359
νούμερο 3358
άνε 3356
πολλή 3356
απώλεια 3352
γιατι 3352
πάντων 3351
οικογένειες 3349
` 3348
οκτωβρίου 3347
da 3345
έλλειψη 3343
ήματα 3342
mi@@ 3342
χρησιμοποιηθεί 3341
χωρ@@ 3341
κύρια 3339
κράτηση 3338
γύρνα 3337
νεκροί 3335
μπλ@@ 3333
αποφάσεις 3332
δυνατότητες 3323
εισαι 3322
βασ@@ 3321
αίματος 3320
τού@@ 3319
μπες 3318
τεράστιο 3318
βρετανία 3317
ημέρας 3316
ωμένο 3315
πάρ@@ 3314
ωρ@@ 3314
δείξει 3312
μάθουν 3310
μισ@@ 3309
ορκίζομαι 3307
γλώσσες 3303
σκέψου 3303
γαμ@@ 3303
λογ@@ 3303
θεία 3303
ip@@ 3302
gu@@ 3301
οδηγίες 3300
έσ@@ 3298
εκείνους 3296
δικές 3296
ανατολή 3295
κάν@@ 3295
apartments 3295
ητο 3295
εμφανίζεται 3294
νοεμβρίου 3293
τζέιμς 3292
ενήλικες 3292
3.@@ 3291
ποδόσφαιρο 3289
φαίνεσαι 3288
χρησιμοποιείτε 3288
βάλεις 3288
δρόμους 3285
34 3281
ρί@@ 3280
πόσες 3276
σεβασμό 3275
στιλ 3275
χριστούγεννα 3274
σάρα 3273
αγγλία 3272
τσάρλι 3271
ζευγάρι 3270
μισώ 3269
ιος 3269
κρύο 3268
ορισμένα 3267
εγκαταστάσεις 3267
τίτλο 3266
38 3265
δραστηριότητα 3264
αναφέρεται 3262
τρένο 3261
νομίζετε 3261
χάρηκα 3261
κιν@@ 3258
έχασε 3257
άνω 3256
προκαλεί 3255
πρώτες 3255
ειμαι 3255
οτ@@ 3254
αυ@@ 3254
εβ@@ 3253
πληθυσμού 3250
λαμβάνω 3249
σκοπός 3249
χρυσό 3248
καθαρό 3244
υπόλοιπο 3243
διοίκηση 3242
δευτέρα 3241
μαύρη 3241
γνωρίζεις 3240
28@@ 3239
βοήθησε 3239
36 3237
55 3237
mon@@ 3236
ul@@ 3235
μυστικά 3233
ποιό 3229
κρίμα 3228
παροχές 3227
εκατ 3227
iphone 3221
οικονομίας 3219
οργαν@@ 3219
έρθουν 3219
όμενη 3218
συ@@ 3216
οικογένειας 3216
πατ@@ 3215
έχ@@ 3215
ρώτησε 3214
τί@@ 3213
qu@@ 3213
42 3213
μάικ 3211
ήλιο 3209
man@@ 3209
τά 3207
ιδρύθηκε 3207
κοινωνικής 3206
παρόλο 3206
τοις 3205
γεμάτο 3202
λογαριασμού 3201
φέρνει 3201
υπουργείο 3200
άκουσε 3200
επαγγελματίες 3199
φυλ@@ 3199
σώσει 3196
έδωσα 3196
38@@ 3196
παροχή 3196
ιες 3196
ζω 3196
ιανουαρίου 3195
© 3192
ποιά 3190
δεσποινίς 3189
ter@@ 3189
κοινωνίας 3189
ιράκ 3189
ελεύθερο 3186
ση 3184
δίνω 3181
αστική 3176
επιθυμία 3176
προσέχεις 3176
ντρ@@ 3176
καταλάβω 3175
συνέντευξη 3173
ναρκωτικά 3173
βρεθεί 3172
οικονομικό 3172
κλειδιά 3170
δια@@ 3170
παίζεις 3167
μάρκετινγκ 3167
gi@@ 3167
μελ@@ 3167
αγαπημένο 3165
αντικείμενα 3164
πρότυπο 3162
αυτοκινήτου 3161
τρόφιμα 3157
φόβο 3156
γνώρισα 3153
σχετίζονται 3152
άνθρακα 3149
κορέα 3148
προκλήσεις 3148
ak@@ 3148
ρύθμιση 3148
επόμενα 3147
μεγαλύτερος 3147
ησυχία 3146
θέλαμε 3146
μάθουμε 3146
έδειξε 3144
εισαγωγή 3143
ta@@ 3141
αυτου 3136
τσάντα 3132
κυριακή 3131
city 3129
λαό 3128
μεγαλύτερες 3127
αιτία 3126
αίθουσα 3126
χειρότερα 3125
ιδ@@ 3124
καθαρά 3123
ίζουμε 3121
ουρανό 3120
πέμπτη 3119
παίξει 3116
φοβ@@ 3114
δίνουν 3114
ιουνίου 3112
επιτροπής 3111
επιφάνεια 3109
επιλέξετε 3107
ώνεις 3107
γυρίσει 3107
παιδιού 3107
nαι 3105
γνωστή 3105
λεωφορείο 3104
τον@@ 3103
έλεγες 3102
δώσουμε 3102
εσωτερικό 3101
ετσι 3100
ίζοντας 3099
et@@ 3099
μεξικό 3097
αδελφός 3095
4.@@ 3095
όριο 3094
'ναι 3094
γρήγορη 3094
απριλίου 3092
μπεν 3091
ρωσίας 3089
άσουμε 3088
συγ@@ 3088
25@@ 3088
δώστε 3088
ζωντανή 3087
κρατήσεις 3087
39 3085
ουν@@ 3084
πλάτη 3082
τραμπ 3081
ισμένο 3081
όρος 3080
αντικείμενο 3078
ξενώνες 3078
πηγαίνω 3076
ακούσω 3076
έφερα 3075
πράσινο 3074
στιγμές 3072
ωσαν 3072
άω 3068
περιοχής 3067
εφημερίδα 3067
γινόταν 3065
πρόκληση 3064
παρουσία 3063
θύμα 3062
έλεγχος 3062
2000 3061
φαίνονται 3060
ομορφιά 3060
λειτουργούν 3060
οικονομικής 3059
εξουσία 3057
ωμα 3057
δικαιοσύνη 3057
επιθέσεις 3056
μισή 3055
ημ@@ 3055
επικίνδυνο 3054
κατανάλωση 3054
κατάφερε 3054
μένου 3052
ge@@ 3050
ματος 3048
σκέψεις 3047
πρότυπα 3047
λιγάκι 3046
ιζ@@ 3044
κριτική 3043
ητική 3043
άσουν 3042
απόδοση 3041
ρω@@ 3039
καταλάβεις 3037
= 3037
πτώμα 3036
ευρωπαϊκής 3035
μπήκε 3031
κερ@@ 3031
ζήσει 3031
καλοί 3030
κωδικό 3029
29@@ 3029
σκεφτείτε 3028
εγκατάσταση 3027
δις 3026
οβ@@ 3024
twitter 3023
ειδική 3021
ηλεκτρονικού 3020
ητικό 3018
σοβαρό 3018
πό@@ 3018
συνεχίσουμε 3017
95 3016
ύστερα 3016
πρόσθεσε 3014
ταξί 3013
βάλουμε 3013
ών@@ 3013
pro@@ 3011
βρες 3011
master 3010
ήθελαν 3010
περιγράφει 3009
βγήκε 3008
τύποι 3008
hostel 3007
διαδρομή 3006
λατρεύω 3005
πτήση 3005
πήγες 3004
αξίας 3004
ίσετε 3003
χα 3003
καρκίνο 3002
συνεχίσει 3001
προσωπικών 3000
αρχείων 2997
24@@ 2997
δόξα 2995
προέρχεται 2995
πακέτο 2993
ημένο 2992
ήσατε 2991
ειας 2991
ελεύθερος 2990
ποσό 2990
μένους 2990
αποτελείται 2988
στρατός 2988
εύουν 2987
είχατε 2987
κώλο 2987
ευρωπαϊκό 2984
se 2984
εθνών 2984
είο 2984
αυτ@@ 2983
νικ@@ 2982
γραφ@@ 2982
θύματα 2982
μητέρας 2981
ρο@@ 2979
κρατ@@ 2978
ήσ@@ 2978
βρήκαν 2977
όμενο 2977
μέρους 2975
ζητήματα 2975
ολα 2975
άρχισαν 2974
συνεχίζει 2974
ήσεων 2973
ατο@@ 2972
ter 2972
00@@ 2972
εργαστήριο 2971
τέρας 2969
διπλό 2969
βεβαίως 2966
συνέπειες 2966
κοίταξε 2966
δήλωση 2966
γύρισε 2964
we@@ 2962
μικρ@@ 2960
χιλιόμετρα 2959
χτες 2959
ουσία 2958
ρό@@ 2957
ds 2957
εθ@@ 2955
έτους 2954
αστέρια 2950
επιπτώσεις 2949
άζεις 2948
έλεγαν 2948
ς@@ 2948
ώς 2945
νο 2941
θυμάστε 2941
44 2939
ητη 2939
πιθανότατα 2938
ωθούν 2938
ψάχνω 2937
προσέγγιση 2937
'ελα 2936
usd 2936
ιστορικό 2935
δημιουργεί 2935
ρολόι 2935
τράπεζες 2934
bed 2934
αποδείξεις 2933
ουκρανία 2930
σες 2930
σύγκριση 2929
πλατφόρμα 2927
πωλήσεις 2926
σχολεία 2925
δημοκρατίας 2925
ur@@ 2925
προσπάθησα 2924
newsletter 2923
διαβάστε 2921
άδες 2919
sa@@ 2917
γαμήσου 2917
παρέχουν 2917
υψηλή 2916
ζητήσω 2913
ασφαλή 2911
μαγαζί 2910
ίδρυμα 2908
εχ@@ 2905
ηγ@@ 2904
ξ 2903
απλ@@ 2903
δόντια 2902
ενημέρωση 2901
πήγαν 2901
κάθαρμα 2900
χτύπησε 2900
μου@@ 2899
είδαμε 2899
επιστρέψω 2898
bi@@ 2897
αντίθετα 2896
ίζ@@ 2896
ine 2895
40@@ 2894
αμερικανοί 2894
γέφυρα 2892
γιατρέ 2891
σκύλα 2888
δολαρίων 2886
βοηθά 2886
ιστικό 2886
πράξεις 2885
έγκυος 2884
παρ 2882
προσπαθούν 2881
τεστ 2881
χρηστών 2880
δεκαετίες 2879
γενική 2878
λουλουδιών 2878
κλικ 2877
23@@ 2877
27@@ 2876
εύκολη 2876
αντ 2876
καλησπέρα 2874
προσπάθειες 2873
βγαίνει 2873
σης 2871
γάλα 2870
οποι@@ 2869
προσεκτικά 2868
μορφές 2868
ντέιβιντ 2866
ικες 2866
παράγοντες 2865
ατόμων 2864
'σε 2864
μαρία 2863
άλλου 2863
αρχηγός 2863
μάρ@@ 2863
χονγκ 2862
ύψος 2861
άζω 2860
μη@@ 2860
αδύνατο 2860
έμεινε 2859
ειδήσεις 2858
στυλ 2858
ιακή 2857
αξ@@ 2856
θυρίδα 2855
ροζ 2855
εξετάσεις 2854
παίζουν 2853
τεχνολογιών 2853
ελληνικά 2853
son 2853
γάμος 2852
εργάζονται 2852
τελ@@ 2850
99 2850
συμβαίνουν 2849
σκεφτώ 2849
μήκος 2849
σι 2848
5.@@ 2848
πλοία 2846
άγ@@ 2846
ωσα 2845
οργανισμός 2843
εμπορίου 2842
τεχνολογίες 2842
αγι@@ 2840
0.@@ 2839
όνειρα 2839
άνα 2837
έρωτα 2836
σώματος 2834
γεύμα 2833
άφ@@ 2833
αγαπ@@ 2833
μαλάκα 2831
κυβερνήσεις 2830
400 2830
χαρτί 2829
ver@@ 2828
2006 2826
τρελή 2825
τεχνική 2825
ρυθμό 2825
κρέας 2822
μείνουμε 2821
νόμου 2821
βοηθ@@ 2820
γωνία 2820
αξιολόγηση 2820
βοηθήσουμε 2819
πιστέψω 2819
κήπο 2819
κατάστημα 2816
στοιχείων 2816
φάει 2815
υπολογιστές 2814
άτε 2814
εκείνον 2813
ασθένεια 2812
επενδύσεις 2811
μαΐου 2811
ωμένη 2811
τυχερός 2810
τωρα 2810
150 2810
γυναίκας 2808
ιστής 2807
δικ@@ 2806
μίλια 2806
παίρνουν 2804
πισίνα 2804
προκαλέσει 2803
γλυκό 2803
τέλη 2803
καθαρ@@ 2800
ηλίθιος 2800
πελάτη 2799
θελω 2797
καναδά 2797
26@@ 2796
οντ@@ 2796
αναζήτησης 2795
αστεί 2794
σταματήσεις 2793
65 2792
γράμματα 2792
βάθος 2790
αργ@@ 2790
επέστρεψε 2788
ειδ@@ 2785
μάτων 2785
bu@@ 2783
κονγκ 2780
έvα 2778
επαγγελματική 2777
κόλπο 2775
αξίες 2774
ιερ@@ 2774
μεγαλύτερα 2773
χορ@@ 2773
χρ@@ 2772
μετρ@@ 2771
στοίχημα 2770
ώσετε 2770
ταιριάζει 2769
ευση 2768
ίστηκε 2767
1η 2767
σύζυγός 2766
-και 2765
σχεδιασμό 2765
κάλεσε 2762
ούλα 2762
37 2760
αυτοκινήτων 2760
συνεργασίας 2759
ιδιωτικά 2758
άνετα 2758
ίλ@@ 2757
pi@@ 2757
πέρυσι 2757
th 2756
εμφανίστηκε 2755
εμπορικό 2755
ημένη 2753
κάστρο 2751
έστω 2750
ντετέκτιβ 2749
one 2749
εγγραφή 2749
μόσχα 2748
έγγραφα 2748
μίλησε 2748
βγες 2748
αποφάσισε 2747
ξέχασα 2747
47 2746
βόμβα 2745
χάρ@@ 2744
υπηρεσίας 2744
πρωτο@@ 2743
συμ@@ 2743
βγάλε 2743
λαός 2742
εξαιρετική 2741
δύσκολα 2741
χάρι 2740
θέατρο 2740
εξηγήσω 2740
βασικές 2740
βοηθάει 2740
είας 2739
φτάσουν 2738
μερικούς 2738
γαμημένο 2738
νεκρή 2736
σταμάτησε 2736
φαντάζομαι 2735
σκοτώσουν 2735
έναρξη 2734
κίνδυνος 2734
κακός 2733
κανάλι 2732
χρώματα 2732
ουσιαστικά 2731
da@@ 2731
σεζόν 2730
σημάδι 2729
θείς 2728
_@@ 2727
προσπαθείς 2727
οφέλη 2727
ώνω 2727
τόπο 2725
δικηγόρος 2723
ιστική 2723
st 2722
διατροφή 2722
καινούργιο 2721
ha@@ 2721
τό@@ 2721
εκατομμύριο 2720
45@@ 2719
έγκλημα 2719
άσκηση 2719
me 2717
όροι 2716
dna 2716
41 2715
'αυτό 2713
έβαλα 2713
έμ@@ 2712
ακούσεις 2712
te 2712
εψε 2710
λίμνη 2708
φας 2708
6.@@ 2707
δίνεις 2707
γενιά 2706
μίνι 2705
ts 2702
εργασίες 2701
καθηγητής 2699
εστε 2699
μοίρα 2699
έρχεσαι 2698
φερ@@ 2697
breakfast 2697
πολιτικό 2697
λειτουργίας 2696
προσθήκη 2696
όποτε 2696
είπαμε 2696
εως 2696
αναρωτιέμαι 2696
36@@ 2694
δικτύου 2692
νικ 2691
σύμπαν 2691
ανεξάρτητα 2690
κιόλας 2690
πιστ@@ 2689
πάντοτε 2688
αδερφό 2687
σφαίρα 2687
δημιουργήθηκε 2687
ινστιτούτο 2686
du@@ 2685
από@@ 2684
τουαλέτα 2683
έα 2683
μείνουν 2682
αδερφέ 2682
άδα 2681
· 2681
περιβάλλοντος 2680
σταματήσουμε 2680
ισχύ 2679
υλικά 2679
αχ 2679
βιβλιοθήκη 2678
οηε 2678
ανθρώπινα 2678
έπ@@ 2678
ation 2678
φοβερό 2678
ότερη 2675
ισε 2673
ιου 2673
ασες 2673
έρ 2671
ητές 2671
σύζυγος 2670
κάθισε 2670
που@@ 2669
mm 2668
δημόσιο 2667
πανεπιστήμια 2666
πτυχίο 2665
συμβουλές 2665
τάξης 2664
έχοντας 2664
world 2663
έλαβε 2662
τοv 2662
βαθμολογία 2661
σταματήσω 2661
όμενες 2660
πίνακα 2659
τεχνικές 2657
αίτηση 2656
μαξ 2654
αυξηθεί 2654
ana 2652
ήλιος 2652
άνδρα 2652
eίναι 2652
βολ@@ 2652
fi@@ 2650
διαδικασίες 2650
ικ 2649
αγαπάω 2649
τελει@@ 2647
σφ@@ 2646
αστικό 2646
όμενα 2645
έτη 2645
είκοσι 2645
sc@@ 2644
λέγοντας 2643
θείτε 2643
τοι 2642
σελίδες 2641
θέλατε 2640
εϊ 2640
περάσω 2639
βασικό 2639
γάτα 2638
οποιονδήποτε 2637
λου@@ 2636
19@@ 2636
διάθεση 2636
ποικιλία 2636
τρύπα 2636
τσακ@@ 2635
τσι@@ 2634
υπεύθυνος 2634
ανοίξει 2634
ισμένη 2632
έψει 2631
κάποιους 2631
φάρμακο 2631
android 2631
7.@@ 2631
ποσότητα 2630
εσωτερική 2629
άμε 2629
37@@ 2626
2005 2625
γεύση 2624
πιθανότητες 2623
ci@@ 2623
λαιμό 2623
χρησιμοποιήσει 2622
οπλ@@ 2622
θώ 2621
βοήθειά 2621
μπά@@ 2619
φλ@@ 2617
43 2617
μπύρα 2617
ναί 2616
ρώτησα 2615
άστηκε 2614
+@@ 2614
όπλων 2612
οποίους 2612
έρευνες 2612
στερ@@ 2610
αυγούστου 2608
πετ@@ 2608
ώνουμε 2608
ινγκ 2608
πρόεδρε 2607
άλλωστε 2605
μύτη 2602
ζητώ 2602
παράσταση 2602
βί@@ 2602
par@@ 2601
δείξε 2601
πρό@@ 2601
μοντέλα 2601
έλ 2600
έξυπνος 2600
δεδομένου 2599
μυ@@ 2599
π.χ 2599
γάμου 2599
αση 2598
ωμένος 2597
sa 2597
είπατε 2596
cor@@ 2596
ότ@@ 2596
κωδικός 2596
πολ@@ 2593
tv 2591
συμβουλίου 2590
σκύλος 2590
γερ@@ 2590
ητής 2589
κει 2588
μάν@@ 2586
λιμάνι 2585
φι@@ 2584
ig@@ 2584
ίζετε 2584
εv@@ 2584
ετ 2584
46 2583
μαζ@@ 2582
φώτα 2580
39@@ 2580
ταχυδρομείου 2580
θρησκεία 2579
βα 2578
σκοτ@@ 2577
υποστήριξης 2575
μετάφραση 2571
πέ@@ 2570
ασμένο 2570
πολυ 2570
hi@@ 2570
αλκοόλ 2569
βίλες 2569
εφόσον 2569
αγάπης 2569
new 2569
κάνοντας 2568
κρατήσω 2567
τύπους 2567
49 2566
βερολίνο 2564
πολλών 2563
φροντίδα 2563
παρόμοια 2560
les 2559
άζ@@ 2558
πουν 2558
oυ 2558
οικονομικές 2558
άζεται 2557
βίας 2557
ειλικρινής 2555
θαύμα 2555
au@@ 2553
δολοφόνος 2553
ταυτότητα 2552
εννέα 2552
πόρων 2552
συ 2552
ζωντανό 2551
καθήκον 2550
γκολφ 2550
θυμ@@ 2550
κέρδισε 2549
τοίχο 2548
san 2548
πτώση 2548
kαι 2547
αγαπάει 2547
σει 2546
τά@@ 2546
εκατομμυρίων 2546
σκυλιά 2546
home 2545
μπω 2545
όροφο 2544
νέ@@ 2543
ανθοκόμο 2543
σκληρή 2542
σάββατο 2541
καλιφόρνια 2540
ανακοίνωση 2540
φεύγει 2540
τσι 2540
κατάλληλο 2540
ίκ@@ 2539
λά@@ 2539
προτού 2538
ni@@ 2537
ζήτησα 2536
αποθήκευση 2536
δυνάμεων 2535
περιοδικό 2535
αυτόματα 2534
συστημάτων 2533
εγκεφάλου 2533
στρατιωτική 2532
κύτταρα 2531
στάσου 2531
σκύλο 2529
άσετε 2529
πριγκίπισσα 2529
ριο 2529
ca 2526
βρισκόμαστε 2525
μίλα 2525
σά@@ 2523
αφήνεις 2522
τροφή 2521
χαρτιά 2520
γυρίσεις 2520
ισχυρό 2519
καταφέρει 2519
προφίλ 2518
αυτον 2517
αζε 2516
μεταφοράς 2516
αξιολογήσεις 2513
ώθηκαν 2511
σπάνια 2509
βιομηχανίας 2508
ξεκινήσουμε 2507
bar@@ 2507
υπουργός 2507
ατμόσφαιρα 2506
τούτου 2506
ικανότητες 2506
co 2505
σημερινή 2503
καθένα 2502
διαφορές 2502
ξέχνα 2501
πρεπει 2501
υπέρ 2501
αποτυχία 2501
έτοιμο 2500
ζήτηση 2500
κόμματος 2499
τάση 2498
ίς 2498
υν@@ 2497
τικό 2497
επίσκεψη 2495
εύχομαι 2495
εμφανίζονται 2495
πιάσει 2494
δωμάτιό 2494
ήσασταν 2494
pe@@ 2494
ψάρια 2493
ετικέτες 2492
πλειοψηφία 2491
1-@@ 2491
τόση 2491
γραφή 2490
διεθνών 2490
um 2489
ιό 2489
μάς 2489
λειτουργίες 2488
ίδιοι 2488
συναισθήματα 2488
ασίας 2486
τελική 2485
60@@ 2485
γλώσσας 2484
απόδειξη 2484
business 2483
-'@@ 2483
di 2483
51 2483
πολιτών 2481
μαχαίρι 2480
αισθάνεσαι 2479
χρήμα 2478
γράψει 2478
έτα 2478
πέρασα 2478
οδήγησε 2477
κλείσει 2476
ιακό 2476
στιγμής 2476
φορτηγό 2476
ch 2476
αντιμετώπιση 2475
πεθαίνει 2474
φεγγάρι 2473
φάμε 2471
είου 2470
επιστημών 2470
ca@@ 2469
περιγράφεται 2469
φέρεις 2468
σοβαρή 2467
περνάει 2464
εχεις 2464
ed@@ 2464
μίλησα 2462
εκείνα 2462
αμπ@@ 2462
ενδιαφέροντος 2461
00 2461
λαμβάνει 2461
ζα 2461
μέτρων 2461
εξακολουθεί 2461
σκυλί 2460
συζητήσουμε 2459
δέντρα 2458
ειο 2458
άβ@@ 2458
am 2458
πώληση 2455
εθνικής 2454
μασ@@ 2453
πυρ@@ 2451
επιστήμης 2451
αγίου 2450
σκληρό 2450
85 2450
λού@@ 2449
…@@ 2449
θούμε 2448
επηρεάζει 2448
-ο 2447
κακ@@ 2447
σκεφτεί 2447
ικότητας 2446
εργοστάσιο 2445
ελληνική 2444
τριών 2444
ed 2444
:@@ 2444
άρχισα 2443
τρί@@ 2443
villa 2443
κυ@@ 2441
ήρωας 2441
ανθρωπότητα 2441
ονομ@@ 2440
πονάει 2438
ομιλία 2438
per@@ 2438
εκτ@@ 2437
συνεργάτες 2436
πηγαίνεις 2435
δουλ@@ 2434
τελειώνει 2433
καινούργια 2433
ούσες 2432
επιστρέφει 2432
κανον@@ 2432
5-@@ 2432
αντίθεση 2430
ιδιωτική 2427
κιλά 2427
φέρ@@ 2427
ακολουθεί 2425
ler 2425
γιε 2424
τoυς 2424
πληρώσει 2416
προέρχονται 2415
φτάσουμε 2414
άλογο 2413
hu@@ 2412
ασφαλ@@ 2412
γενν@@ 2411
ton 2411
πόσοι 2410
δίκτυα 2410
κος 2409
δικούς 2409
βγάλεις 2409
κανονικά 2408
it 2408
πρόσωπα 2408
ru@@ 2406
θελει 2406
ην@@ 2404
βάσει 2404
ότερο 2403
φτιάξω 2403
συμπεριλαμβανομένης 2402
χρειαζόταν 2402
ωχ 2401
βγούμε 2400
όμενος 2400
ευτυχισμένη 2399
il 2399
8.@@ 2398
σκότωσες 2398
πέφτει 2397
1,@@ 2396
φάνηκε 2395
προώθηση 2395
μέν@@ 2395
εμπειρίες 2395
υρ@@ 2395
ήματος 2395
φήμη 2394
αλλάξουν 2394
αντίδραση 2393
επίδραση 2392
vpn 2392
κού@@ 2391
do 2391
αθήνα 2390
λάβετε 2390
παραμείνει 2390
υπολογιστών 2389
'εχω 2389
κλαμπ 2388
τιμ@@ 2387
ζήσω 2386
φαινόταν 2384
κ.@@ 2384
oυμε 2383
πρόοδο 2383
ταρ@@ 2383
ers 2383
έκρηξη 2382
ισα 2381
πάρτυ 2381
γεμάτη 2380
άρθρα 2380
γιατροί 2379
είδατε 2378
άχ@@ 2377
ητικά 2377
πρόσ@@ 2376
ανήκουν 2376
ηκ@@ 2376
'δω 2375
σχεδιαστεί 2374
ζητήσει 2373
λαμβάνουν 2373
βρίσκω 2372
πολιτειών 2372
χορό 2371
ut@@ 2371
καί 2371
κοινωνικά 2370
κοινού 2370
ασμένη 2370
έδωσαν 2370
αγώνας 2369
ασκ@@ 2369
νομίζει 2369
σημάδια 2368
ασφαλείς 2368
σαββατοκύριακο 2368
διαβάσει 2368
ουλ@@ 2367
-γιατί 2367
by 2367
εξοπλισμό 2365
συμπτώματα 2365
περιγραφή 2365
πα 2364
νου 2364
παραμένουν 2364
lin@@ 2363
εδ@@ 2362
έν 2362
ηρ@@ 2362
λό@@ 2360
πιθανώς 2360
τοπική 2359
ce 2358
κόκκινα 2355
προσπαθούμε 2354
ίνη 2353
αφορούν 2352
ικος 2352
απόψεις 2351
μηχανές 2351
θερμοκρασία 2351
64 2350
ιές 2349
αυξάνεται 2349
μετρητά 2348
απαραίτητα 2348
αερίου 2348
αποτελεσματική 2348
na 2347
ύπαρξη 2346
ίνο 2345
τρένου 2345
μεγάλης 2344
δισ 2343
δα 2343
κρατάει 2343
ποτάμι 2342
ίδιες 2341
ανησυχώ 2339
αλλάξω 2338
ημένος 2337
δώσουν 2334
ber@@ 2333
λε@@ 2332
επί@@ 2331
oυv 2331
δομή 2328
ήσυχο 2328
σεσουάρ 2328
δυτική 2326
βάλ@@ 2326
ρά@@ 2324
υποθέσεις 2324
ακούει 2323
μέσων 2321
βασική 2321
μόνον 2320
τα@@ 2320
δημιούργησε 2320
κέντρα 2319
άφησα 2319
οδό 2318
ζώων 2317
γαλ@@ 2316
ζώο 2316
συντ@@ 2316
διαθέσιμα 2316
βραζιλία 2315
αναλάβει 2315
διατήρηση 2315
πάτωμα 2315
έργου 2315
μεγαλ@@ 2313
or 2313
τίτλος 2312
καινούριο 2306
κινδύνου 2306
ησή 2304
χίτλερ 2303
βδομάδες 2302
θεραπ@@ 2302
ανακατ@@ 2301
ra 2300
υπερβολικά 2300
ελευθερ@@ 2300
διασκέδαση 2300
λαού 2300
ατος 2299
ζεστό 2299
αγοράσει 2296
αφγανιστάν 2296
κτ@@ 2293
bel@@ 2293
ειρήνης 2293
ιδιαίτερη 2293
ξενοδοχείου 2293
σημείων 2292
ητή 2292
κέ@@ 2290
εκδόσεις 2290
ke@@ 2290
κατηγορ@@ 2289
δί@@ 2289
μπι 2289
πολιτικών 2288
μηνών 2287
σχεδιασμού 2286
μαθηματικά 2286
φοράς 2286
ντι@@ 2285
ina 2285
άv@@ 2285
πελάτης 2285
ξαναδεί 2285
ημένα 2282
οργανισμούς 2282
mac 2281
χρόνων 2281
προϊόντος 2280
υπομονή 2280
ητα 2279
πύλη 2279
ley 2276
προέδρου 2276
ρο 2276
jo@@ 2275
εργ@@ 2274
κρεβάτια 2274
ψωμί 2273
δημιουργήσετε 2273
γερμανίας 2273
βασιλ@@ 2273
βγάλει 2272
γενέθλια 2272
χριστός 2272
ετικέτα 2271
εντολές 2271
δέν 2271
νόμους 2271
~ 2270
δημοσι@@ 2269
έι@@ 2267
βρίσκομαι 2267
μοιρ@@ 2266
ήρθαμε 2266
φαινόμενο 2266
αλλάζουν 2265
χάσω 2265
κράτους 2265
επίσημα 2265
παράγει 2264
οργανισμό 2263
θεωρώ 2263
ne 2262
ναρκωτικών 2262
εικόνας 2262
κινείται 2262
εσυ 2261
ανατολική 2261
βάζεις 2261
νόμισμα 2260
τρελ@@ 2259
πρακτικές 2258
ελβετία 2258
ώνοντας 2257
ta 2254
ανοιχτό 2254
παρακολούθηση 2254
διαβ@@ 2253
μις 2253
ηθοποιός 2252
αλλαγής 2251
μπιλ 2251
εποχής 2250
κοριτσάκι 2249
χαρακτηριστικό 2249
τούν 2249
άρη 2248
υψηλό 2245
ειά 2245
βγάζει 2245
δεσμ@@ 2243
κοινωνικές 2243
τούς 2243
ψέμα 2243
νταν 2242
λο 2242
go 2242
άνι 2242
har@@ 2241
φόρεμα 2241
σημασίας 2241
et 2240
εξάλλου 2239
τζορτζ 2239
ιμο 2236
πληροφορία 2236
αδυναμία 2236
σφάλμα 2236
ρεκόρ 2235
άρια 2235
τ'@@ 2234
ουάσινγκτον 2234
μαθ@@ 2233
τρόποι 2233
πρώτον 2232
έρα 2231
να@@ 2231
σκά@@ 2230
ba@@ 2229
ing@@ 2228
βρέθηκαν 2228
βγω 2227
εύεται 2227
2004 2226
αρκετή 2225
συμμετέχοντες 2225
ir@@ 2225
βοήθησέ 2224
ατα 2224
ισμένος 2224
δάσκαλος 2223
εφαρμογής 2223
προσωπικού 2223
αντί@@ 2222
ωμένα 2222
σχήμα 2221
λύ@@ 2221
'ηταν 2220
στείλω 2220
ie 2220
52 2220
άννα 2219
δίκη 2219
φόβος 2218
ψάχνει 2218
συμφωνώ 2217
δώρα 2217
αμερικανός 2216
ηγεσία 2216
κεντρικό 2216
ήρεμα 2216
κάρ@@ 2214
and@@ 2213
τρώει 2212
ημερών 2211
ξε 2210
κλίμα 2210
α.@@ 2208
9.@@ 2207
δώσ 2207
ολοι 2204
αφήνει 2202
καταστάσεις 2202
άζονται 2202
road 2202
ανησυχείτε 2201
έμαθε 2200
βγάλουμε 2200
επιτρέπουν 2197
χρησιμοποίησε 2197
φταίει 2196
πλευρές 2196
αριθμούς 2196
fbi 2196
min@@ 2195
land 2195
0,@@ 2195
βερ@@ 2194
ακολουθήστε 2194
συμβουλή 2194
ητικές 2194
α… 2193
φων@@ 2193
σύγχρονη 2193
der 2192
διαθέσιμο 2192
for@@ 2192
νεκρό 2191
ότητά 2191
έβ@@ 2191
τμήματα 2188
ανοίγει 2188
κειμένου 2188
όχ@@ 2188
αγορ@@ 2187
υσ@@ 2187
ανάγκης 2187
σημαία 2186
σεξουαλική 2185
ταλέντο 2184
καπέλο 2184
άντζελες 2184
πρόσφυγες 2184
200@@ 2184
ισμένα 2183
φτάσαμε 2182
ερς 2182
χειμώνα 2182
'κου 2181
ανα@@ 2181
καζίνο 2180
000 2180
άσχημο 2180
35@@ 2180
72 2179
χαρούμενος 2179
παίξετε 2178
αμερικανικό 2178
υγ@@ 2176
μαγ@@ 2176
ιδι@@ 2176
ύ 2174
παίζω 2174
αστούν 2174
ατο 2173
εργάτες 2173
έφ@@ 2171
sk@@ 2171
φάω 2171
συνδέεται 2170
χάσεις 2169
ώδη 2169
προσφέρουμε 2169
κάλ@@ 2168
γίνετε 2168
ξεκινά 2166
κοιμάται 2166
εγκέφαλο 2166
καθαρή 2166
βροχή 2165
κολέγιο 2165
καινοτομία 2162
έφερες 2162
καθημερινή 2161
χρέος 2161
νομική 2161
μικρο@@ 2161
σαφές 2160
γερμανοί 2159
χρηματοδότηση 2159
σύμβουλος 2159
ειδικές 2159
πλεονεκτήματα 2157
έγ@@ 2155
παγκόσμιου 2155
θείος 2154
πετρέλαιο 2154
έπιασε 2154
άγχος 2153
ste@@ 2153
σκι 2153
γυαλιά 2152
μαντ@@ 2151
σταθερή 2151
συνεπώς 2150
πολιτικά 2150
σκότωσα 2149
info 2148
άπ@@ 2148
κλείσε 2147
ms 2147
αστυνομικός 2146
αληθινά 2146
εμφανιστεί 2145
αγων@@ 2145
πράκτορας 2145
φαν@@ 2144
διαδικτύου 2144
γήπεδο 2144
σικάγο 2143
εξέταση 2143
48@@ 2142
'ντε 2142
σπιτιού 2142
εχθρός 2141
στοχ@@ 2141
δύση 2141
ακ 2141
επέκταση 2140
διοίκησης 2139
θετική 2139
mb@@ 2139
εύσει 2138
φεύγεις 2137
sch@@ 2136
στολή 2134
ντροπή 2134
ενέργειες 2133
κλήση 2133
εντ 2133
χάσαμε 2132
δυσ@@ 2131
μπανιέρα 2130
ίστε 2129
resort 2129
γυρίσουμε 2129
αγαπημένη 2129
ψηφ@@ 2129
περάσεις 2128
κοινωνικό 2128
σμ@@ 2127
επιτρέψει 2127
αξιοθέατα 2125
ξύπνα 2125
κρι@@ 2124
μαίρη 2124
σού@@ 2124
οθόνης 2123
πορ@@ 2122
σχέσεων 2122
οφείλεται 2121
μηχαν@@ 2120
συνδέονται 2120
εκτέλεση 2120
οντα 2119
ουάσιγκτον 2118
επόμενες 2118
απ'την 2118
πουλ@@ 2117
περασμένο 2117
συνδυασμό 2117
πτ@@ 2117
χο 2116
ενας 2115
παίξουμε 2115
ακτή 2115
άλλ@@ 2115
αποκλείεται 2115
λεπτών 2114
ηθείς 2114
άσεων 2113
θεωρ@@ 2112
ka 2112
φανταστείτε 2112
κάμερες 2110
υποστηρίζουν 2110
μπομπ 2109
φάκελο 2109
άνοιξη 2109
φεύγουμε 2109
υόρκης 2109
ταξίδια 2109
φιλοξενία 2109
αρχίσουμε 2108
oύ@@ 2108
σοφία 2107
φοβάται 2107
επιστημονική 2107
τζιμ 2105
άρει 2105
πάθος 2105
53 2104
στη@@ 2104
τετάρτη 2104
j 2103
αλλάξουμε 2101
στηκε 2101
γίνουμε 2101
οχήματα 2100
φτάσετε 2100
μελών 2100
ωσες 2100
ουσα 2099
μετα 2099
ενίσχυση 2099
university 2099
έψω 2099
ιάς 2099
μελέτης 2098
είσοδο 2098
λογικό 2098
γλ@@ 2098
πεθαίνουν 2096
cia 2096
έξ@@ 2095
αμφιβολία 2095
ωνα 2094
κρις 2094
παίξω 2093
αστυνομίας 2093
μαλάκας 2092
κύκλο 2092
66 2092
600 2092
ανα 2092
οποίησης 2091
σύμβαση 2090
οργανισμού 2090
συγκεντρώνονται 2089
στήθος 2089
αποφάσισα 2089
tα 2088
δεύτερος 2088
πόρτες 2087
παλι@@ 2087
καθεστώς 2086
2003 2086
πο 2085
παι@@ 2084
θερ@@ 2084
σύζυγό 2084
χρονος 2083
mer@@ 2083
διάβασα 2082
ισαν 2081
παππού 2080
πουλί 2080
διοτι 2080
σκουπίδια 2079
μαχ@@ 2079
80@@ 2079
άκουσέ 2078
ρωσική 2078
θεωρούν 2077
πόρους 2077
θηκα 2077
ωμένες 2077
εξίσου 2075
άρρωστος 2075
χρησιμοποιήσουμε 2075
προτάσεις 2075
ανεβ@@ 2074
πολιτεία 2074
ρέι 2074
59 2074
φτ@@ 2074
κοντ@@ 2073
δράσης 2073
κοινωνικών 2072
σχ@@ 2071
καταστρέψει 2071
απόλυτη 2070
κενό 2070
κουμπί 2070
58 2069
απελευθερ@@ 2069
πλατεία 2068
έξυπνο 2068
στείλει 2068
γράψω 2068
περιεχομένου 2067
κρίσης 2067
ουσ@@ 2067
-η 2066
47@@ 2064
φυσικού 2064
αυτη 2063
τραγούδια 2063
ισως 2063
πηγαίνουν 2062
απαραίτητη 2061
προτιμώ 2059
φορτ@@ 2058
κανάλια 2058
όλος 2057
έτ@@ 2057
πετύχει 2056
πραγματικός 2055
έθνος 2055
παπ@@ 2055
οδηγ@@ 2053
ίδας 2052
σα@@ 2052
υψ@@ 2052
ολογία 2051
όγ@@ 2051
κατα 2051
πέρασαν 2051
διαθέσιμη 2050
ερα 2050
θεωρεί 2049
suites 2049
χι@@ 2049
προσπαθήσω 2048
εξωτερική 2046
όσουν 2046
τέταρτο 2046
ελευθερίας 2045
διαδικασίας 2045
φάσμα 2044
κοινότητας 2043
ς-@@ 2043
κατοικίες 2043
δουλεύουν 2042
ία@@ 2042
φύσης 2042
έγγραφο 2042
ev@@ 2041
επιστολή 2041
ος@@ 2041
στου 2040
γράφω 2040
έδρα 2040
ψάχνεις 2038
ποτά 2036
άρ 2036
ασφαλώς 2036
πήραμε 2035
αδελφό 2035
56 2034
καινούρια 2034
ιστούν 2033
περάσουμε 2032
john 2032
media 2031
εξωτερικών 2030
2-@@ 2030
πλήρης 2029
μονάχα 2029
κέρδη 2028
σί@@ 2028
μπεις 2028
θαυμάσια 2028
2002 2027
πάν@@ 2026
συνεχίσω 2026
αντίγραφο 2026
βραδιά 2025
γεν@@ 2024
εκδίκηση 2024
ph@@ 2024
αποκτήσουν 2023
τών 2023
οργανώσεις 2023
μπάρ@@ 2023
δρόμου 2023
ούσαμε 2022
φαντασία 2021
επιπέδου 2021
museum 2021
μεγάλων 2021
καρκίνου 2021
μπαλκόνι 2020
αναγνώριση 2019
συνεχίσετε 2019
παρα@@ 2019
συμφωνίας 2019
μάχης 2017
επενδυτές 2017
μένης 2017
αστικά 2016
αποφασίσει 2016
έξυπνη 2016
γειτονιά 2016
απογοητ@@ 2016
ιακές 2015
φοβούνται 2015
καρέκλα 2014
εκείνες 2014
τερ 2012
στηv 2012
συζητήσεις 2011
θ'@@ 2010
φέρουν 2010
κινήσεις 2010
ge 2009
δοκιμή 2009
αποτελεσματικά 2008
αντίθετο 2007
δεκαετίας 2006
υπόλοιποι 2006
τοποθετημένο 2006
συνέδριο 2006
δικέ 2005
αποκτήσει 2005
μενού 2004
μίας 2004
πόση 2004
παίκτης 2003
κρατών 2002
ώσ@@ 2002
ανοιχτή 2002
ξεχάσει 2002
king 2001
παιχνιδιών 2001
ενεργ@@ 2001
πήγαμε 2001
θερμ@@ 2000
-να 2000
συμμετέχουν 2000
γυρ@@ 2000
ner 2000
παράθυρα 2000
επιβάτες 1999
πηγαίνουμε 1999
γνωρίσει 1999
ότερα 1998
συγκεντρ@@ 1997
χριστού 1997
ok@@ 1996
καταναλωτές 1995
μπαίνει 1995
εμπορική 1994
σενάριο 1994
προβλημάτων 1993
τρώνε 1993
ov@@ 1992
μαγεία 1992
αποκλειστικά 1990
ασθένειες 1990
γκά@@ 1990
67 1990
ποτήρι 1989
φοιτητών 1989
εύσεις 1989
όργανα 1989
περασμένη 1989
σε@@ 1988
έθνη 1988
σχόλιο 1988
ίσαμε 1987
ορθ@@ 1987
πληρ@@ 1987
δοκιμές 1986
τελικό 1986
πρόσφατη 1985
ασθενής 1985
μπορούσατε 1985
kg 1985
ιστικές 1984
ξύλο 1984
ηγέτης 1984
λόγοι 1984
προγραμμάτων 1984
γκου@@ 1982
αλλάξεις 1982
εξαφανίστηκε 1981
κλειδ@@ 1979
μένω 1979
πάσα 1978
μαρκ 1978
μένουν 1978
περήφανος 1977
ip 1976
στης 1976
πέθαναν 1975
ηθική 1973
μιλάτε 1973
ώματα 1973
αστέρι 1973
διδασκαλία 1972
ημερολόγιο 1971
χαμηλά 1971
τρίτων 1970
εων 1970
αστεία 1969
mp@@ 1969
σπαθί 1967
κουν@@ 1967
ίστηκαν 1966
ακούτε 1966
τρομερό 1965
πoλύ 1964
σκέφτεται 1964
ιδίως 1964
ολογίας 1964
τές 1963
αυτων 1963
τιμωρ@@ 1962
γερμανική 1961
κοιμηθώ 1960
παθ@@ 1960
μπέρ@@ 1960
ειπε 1959
μιλούν 1959
φάντασμα 1959
blog 1958
ἐ@@ 1958
ρωτάς 1958
ψε 1957
τραυματ@@ 1957
δικαιοσύνης 1957
ρου@@ 1957
ταμ@@ 1956
3-@@ 1956
άζοντας 1956
ελέγχει 1956
ήθηκα 1955
ισορροπία 1955
στρατού 1955
μωρά 1954
χαθεί 1953
σημείωση 1953
πάθει 1953
oυ@@ 1953
αυτους 1952
διατ@@ 1952
χαλάρωσε 1951
αντιμετωπίζει 1951
εμ 1951
αλλάξετε 1950
ευρ@@ 1950
tζ@@ 1950
μεθόδους 1950
ανοιχτά 1950
αίνει 1950
περιήγησής 1949
δαχτυλίδι 1949
σφαίρες 1948
τόσες 1948
ένιωσα 1947
δολοφονία 1947
αξε 1947
συνεχίστε 1947
παιδική 1946
ιδιοκτησία 1946
συναίσθημα 1946
γέρος 1944
ποτε 1944
ευε 1944
κατάστασης 1944
ανεξάρτητη 1944
ηλίθια 1944
ευχαριστ@@ 1943
πόνος 1943
ηλεκτρ@@ 1943
άδικο 1941
αυτιά 1941
φιλοσοφία 1941
δεύτερον 1941
τελειώσαμε 1940
πέτρα 1940
ιση 1940
χάν@@ 1940
αφρικής 1939
έδωσες 1939
πλήθος 1938
ασμό 1938
όχημα 1937
ιστοσελίδες 1937
τελευταίος 1937
ιστή 1937
όμενων 1936
ήταv 1936
ψάρι 1936
pdf 1935
εύεις 1935
θεραπείας 1934
κίνημα 1934
ωτ@@ 1933
παραλίγο 1933
ψάχνουμε 1933
outlook 1933
αντιμετωπίζουν 1932
'πρεπε 1932
ορισμένοι 1932
πολωνία 1930
ren@@ 1930
παγίδα 1930
σύνδεσης 1929
φυσικής 1929
αύ@@ 1927
ηλεκτρονικό 1926
οντες 1926
εντύπωση 1926
αναφορές 1925
χένρι 1925
επιρροή 1925
ρικ 1925
κατευθείαν 1924
εφημερίδες 1924
ητος 1923
α- 1923
θάλασσας 1923
κινδύνους 1922
ρυθμ@@ 1922
χρον@@ 1922
ανά@@ 1922
συμπέρασμα 1920
ξεν@@ 1920
ιμη 1920
πού@@ 1919
ρού@@ 1919
καταλ@@ 1917
ex@@ 1917
δυνατός 1916
♪ 1916
κασ@@ 1916
ιαν 1915
περιέχουν 1915
περίοδος 1915
δοθεί 1914
οπουδήποτε 1914
αντιμετωπίσει 1913
nα 1913
τρα 1912
βοηθούν 1912
oυς 1911
καταπληκτικό 1911
χαζ@@ 1911
μπορέσει 1911
σιωπή 1911
ευθύνης 1911
τηλέφωνα 1910
ηλίθιε 1910
θάρρος 1909
ρόμπερτ 1909
γραφεία 1909
αρχίζουν 1909
αγνο@@ 1908
νατο 1908
εταιρειών 1907
βγείτε 1907
καταστήματα 1907
συλ@@ 1905
μορ@@ 1904
τική 1904
-δε 1903
όμουν 1903
ποιόν 1903
ιτς 1902
θα@@ 1902
gar@@ 1901
ελεύθερα 1901
βάζει 1900
μειώσει 1900
57 1900
κόπο 1899
θη 1899
κλείσω 1899
ωνε 1899
ξεχ@@ 1899
ανακαινίστηκε 1899
spa 1898
γαμώ 1898
κατοικ@@ 1897
έπιασα 1897
συστατικά 1897
όραμα 1896
παρατηρ@@ 1896
έπαθε 1896
γίνεσαι 1894
χτυπήσει 1893
τελεί 1892
απαιτούνται 1892
ίχνη 1892
ant@@ 1890
e-@@ 1890
καλύπτει 1889
κατάφερες 1889
youtube 1888
-πώς 1888
πέρ@@ 1888
αστικές 1888
aυτό 1887
ολογ@@ 1887
προκάλεσε 1887
πλεονέκτημα 1886
νη 1885
πρωτάθλημα 1885
γιορτή 1884
πείραμα 1884
κατεβ@@ 1884
ff@@ 1883
όπ@@ 1883
βγεις 1883
γεω@@ 1883
62 1881
δουλέψει 1881
κρατάς 1880
σύγχρονο 1879
ζήσεις 1879
εργάζεται 1879
έργων 1879
54 1877
έμφαση 1877
video 1877
είδαν 1877
καρλ 1876
συναντήσεις 1876
συμφωνείτε 1876
κυριος 1875
σο 1875
χειρότερη 1875
εύτηκε 1874
ξεχάσω 1874
παρόντος 1873
201@@ 1872
69 1871
χειρ@@ 1871
μεσ@@ 1871
νησιά 1870
κάν 1870
φύγουν 1870
σπουδαία 1870
ειδικό 1870
id 1870
ve@@ 1869
ευτ@@ 1869
πρω@@ 1869
χτύπημα 1868
πίστευε 1868
άστε 1867
αγγ@@ 1867
εκτιμώ 1866
σκέψης 1866
em@@ 1865
μοιάζουν 1865
πολεμ@@ 1865
βάλτε 1864
ιδιαίτερο 1864
δεκάδες 1863
φορντ 1863
ημένες 1863
ευσης 1863
σπάσει 1863
καταλαβαίνετε 1862
ειδών 1862
club 1861
χρονο 1860
μέρ@@ 1860
σπουδαίο 1860
νομοθεσία 1860
εαυτούς 1859
αυγά 1859
εξηγεί 1858
apos 1858
κυκλοφορία 1857
γκλ@@ 1857
εξαιρετικό 1856
ιστών 1856
γιά 1856
κυρι@@ 1855
δώσετε 1855
δικιά 1854
ηλίθιο 1854
πρόληψη 1854
σαμ@@ 1853
fe@@ 1851
τυχαία 1851
εμπ@@ 1850
δικοί 1849
ανθρωπίνων 1849
ελήφθη 1849
κηδεία 1849
fo@@ 1848
ήσυχη 1848
πλούσια 1848
καλέσω 1847
όνι 1846
γιου 1846
οποίηση 1846
εζ@@ 1846
ted 1845
μονο 1845
μμ 1845
σηκ@@ 1845
όντ@@ 1845
πολιτισμό 1845
συμβόλαιο 1844
τησε 1844
πληρώσω 1844
άξ@@ 1842
παράδεισο 1841
1990 1839
μένεις 1839
δείχνεις 1839
σκοτώνει 1838
δολάριο 1838
τς 1838
τηλεφώνησε 1837
μπείτε 1837
ειδικοί 1837
προσωπικές 1836
μέθοδος 1836
βρισκόταν 1836
ες@@ 1836
αδύνατον 1836
βρίσκεις 1836
λογαριασμούς 1835
αδι@@ 1834
διαμερισμάτων 1834
μο@@ 1834
→ 1833
οπως 1833
ησέ 1833
κοστίζει 1833
σπουδές 1832
ανοίξτε 1832
ec@@ 1831
χρήσιμο 1831
προοπτική 1831
μες 1830
πίτερ 1830
ιστικά 1830
ευτυχισμένος 1829
πo@@ 1829
σκεφτείς 1829
κοινοβούλιο 1828
επόμενος 1828
βασίζονται 1828
παγκόσμιος 1827
ανταλλαγή 1827
άντ@@ 1827
μοντέρνα 1827
αιν@@ 1827
tu@@ 1827
ki@@ 1826
θέρμανση 1825
ιούνιο 1825
ιδρύματα 1825
δο@@ 1825
γύρισα 1824
νομίζουν 1824
απαιτούν 1824
σάς 1824
σπουδαστές 1824
ρίτσαρντ 1824
παρακολουθεί 1822
ιρ@@ 1822
βο@@ 1822
ισες 1821
τιμών 1820
μετάβαση 1820
γαλλική 1819
πλησιάζει 1819
παππούς 1819
μπορέσουμε 1818
αισθάνεται 1818
σημαντικός 1818
απασχόλησης 1817
ρεύμα 1817
800 1817
τόνισε 1816
ρίξω 1816
σούπερ 1816
ly 1816
61 1815
τηκε 1815
αρν@@ 1815
ate 1814
επίτευξη 1813
έγραψα 1813
ολοκληρωθεί 1813
εκπομπή 1812
κορυφαία 1812
πειρ@@ 1812
επανάστασης 1812
63 1812
pixels 1811
τελειώσω 1811
ίνι 1811
ψαρ@@ 1810
ικης 1810
δηλ@@ 1810
χρήστης 1810
αίγυπτο 1810
καταφέρεις 1810
σύμβολο 1809
βγ@@ 1809
ηθώ 1808
έφυγαν 1808
μπάν@@ 1807
ψάχνουν 1806
ενημερ@@ 1806
έκφραση 1806
εργαζομένων 1805
μπορ@@ 1804
έρθετε 1804
υψηλότερο 1803
κλίμακα 1803
έας 1802
εαυτός 1802
έκλεισε 1801
αστικής 1800
υφ@@ 1800
συνεργ@@ 1800
παρόμοιο 1800
ποινή 1800
άτη 1799
έβλεπα 1799
οίκο 1799
δύναμης 1798
επιλογής 1797
βασαν@@ 1797
68 1797
σκοτώθηκε 1796
συγκεκριμένες 1796
βαρκελώνη 1795
μιλάνε 1794
δώδεκα 1794
έσωσε 1794
δικηγόρο 1793
'ισως 1793
ακολούθησε 1793
φέρτε 1792
επηρεάσει 1792
γαλλικά 1792
red 1792
96 1792
άλογα 1791
συνεχίσουν 1791
ωμένοι 1791
ιατρικής 1791
ηχ@@ 1790
ανθρώπινης 1790
καταφέρουμε 1790
πάγο 1790
ευρύ 1790
βενετία 1789
κόρ@@ 1788
βοηθός 1788
ευτεί 1788
εφτά 1788
τιν@@ 1788
ba 1787
απαίσια 1787
don 1786
ολλανδία 1786
ολοκλήρωση 1786
01 1786
άφησες 1786
φταίω 1785
ιστοχώρος 1785
ιντ 1785
89 1785
3d 1785
ώσαμε 1785
ju@@ 1784
κάτοικοι 1783
ser@@ 1782
πράκτορα 1782
άμυνας 1782
χρε@@ 1782
καταφύγιο 1781
συμπεριλαμβανομένου 1781
κυνηγ@@ 1781
center 1781
γνωστός 1780
σαλόνι 1780
συναρπαστικό 1780
νεκρούς 1779
αποκαλ@@ 1779
έχασες 1778
όμασταν 1777
ασι@@ 1777
λεγ@@ 1777
διαφορετικούς 1777
παρόλα 1777
μάρτυρες 1777
αφήνω 1777
απίστευτα 1776
ck 1776
ποδήλατο 1776
ήχο 1776
ριν@@ 1776
αζαν 1775
κατασκευής 1775
χρησιμοποι@@ 1775
υπολογιστής 1775
φυτά 1774
νιώθει 1773
ιακά 1773
πολ 1773
λευκά 1773
πίστεψέ 1772
όποιον 1772
σερ@@ 1772
can@@ 1771
βουνό 1771
κυρίου 1771
ασμένος 1771
αγαπούν 1771
αία 1770
άραγε 1770
δικαι@@ 1769
αναμνήσεις 1769
μεγάλε 1769
υπογραφή 1768
δη 1767
mal@@ 1767
ϊ 1766
ητών 1766
παρακ@@ 1766
μού@@ 1765
συναλλαγές 1765
συνέπεια 1765
κούκλα 1765
σκιά 1764
σύζυγο 1764
ica 1764
καρδιάς 1764
ψηφιακή 1763
επαγγελματικό 1763
στέλνει 1762
σταματήσουν 1762
μετανάστες 1762
χάρτης 1761
σερ 1761
ανησυχία 1761
linux 1761
είων 1761
αίτημα 1760
αναπτύξει 1760
del@@ 1759
μερών 1759
πήγαινα 1759
κολλ@@ 1759
ov 1758
ξεκίνησαν 1758
ρίξε 1758
μεγέθους 1758
συνδέσεις 1757
κον@@ 1757
αυλή 1757
ρόλος 1757
art 1756
καλεί 1754
διακ@@ 1754
q 1753
ακολουθούν 1753
εστιατόρια 1753
οδηγό 1753
αίων 1753
ειδικός 1752
βαθμούς 1752
δημοσιογράφος 1752
μπουκάλι 1752
έναντι 1750
μάθησης 1750
χάθηκε 1750
κακά 1750
πεθάνουν 1749
δω@@ 1749
κάρτες 1749
ευχαριστήσω 1749
κατόπιν 1748
φτιάξει 1748
ντι 1748
νά@@ 1747
συνέβαινε 1747
άγρια 1747
ηλεκτρικό 1747
άλα 1747
εξελίξεις 1746
πρωθυπουργός 1746
wi@@ 1746
συνολική 1745
ale 1745
παντρευτεί 1744
λιγότερα 1744
γνωστ@@ 1743
μεν@@ 1743
πρώτης 1743
ς… 1743
εκπρόσωπος 1743
χαρακτήρες 1742
εύονται 1741
αγε 1741
κατάλογο 1741
βοηθήστε 1741
ανακ@@ 1740
οπτική 1740
σακ@@ 1739
αναλ@@ 1739
παίξεις 1739
-πού 1738
120 1738
αυξήσει 1738
πτώματα 1738
-εντάξει 1737
αστρ@@ 1737
άι@@ 1737
συμφέροντα 1737
άθ@@ 1737
άλ 1736
na@@ 1736
καταφέραμε 1736
oρ@@ 1736
ομως 1735
10.@@ 1735
δεξί 1735
στείλετε 1734
ya 1734
win@@ 1733
ήσυχα 1733
μεταφέρει 1733
ad 1732
άφησέ 1732
γλυκέ 1732
κεντρικά 1732
φροντίσω 1732
έσκ@@ 1732
στούντιο 1731
αφήσετε 1731
εκδηλώσεις 1730
κρατήστε 1730
pa@@ 1730
καθηγητές 1730
τρως 1729
βάρκα 1729
καναδάς 1729
καθίστε 1729
μπαλ@@ 1729
νες 1728
συμβουλ@@ 1728
δυναμ@@ 1728
πληθυσμός 1728
ζαν 1727
βαν 1727
περάσουν 1727
ανησυχεί 1726
1000 1726
φιλί 1725
ιακής 1724
επεξεργασίας 1724
αληθινός 1724
νοιάζεται 1724
βοήθειας 1723
.000 1723
τόμας 1723
σεπτέμβριο 1722
εννοούσα 1722
κουνήσου 1722
έφυγα 1721
τηλεφωνήσω 1721
πρωτ@@ 1721
όμενοι 1720
μπαρ@@ 1720
φόνο 1720
καθ 1719
ότερος 1719
ζημιά 1719
ενδιαφέρουσα 1719
κάλυψη 1719
98 1719
φόρ@@ 1718
φαντ@@ 1718
εξαφανιστεί 1718
διαφήμιση 1718
αερ@@ 1718
άρης 1718
250 1717
εκπληκτικό 1717
σχολ@@ 1717
τοπικό 1717
εξαίρεση 1717
εκει 1716
στήριξη 1716
κόμ@@ 1716
φωνές 1715
προειδοποίηση 1715
ομπάμα 1715
ρέ@@ 1715
,@@ 1715
παίρνουμε 1715
ευχάριστη 1714
χτυπ@@ 1714
ιδιοκτήτης 1713
σώσω 1713
ερχόταν 1712
διάβολο 1712
κουβέντα 1712
απειλές 1711
μόν@@ 1710
χρησιμοποιήσω 1710
φοράει 1710
εισιτήρια 1710
φυσιολογικό 1710
μο 1709
επεισόδιο 1709
93 1709
τόπος 1709
εαν 1708
ιδιοκτησίας 1708
περιστατικό 1708
πον@@ 1708
διαγραφή 1708
for 1707
ούρ@@ 1707
αισθάνονται 1707
ιστορική 1706
2001 1706
βρίσκει 1705
αριστερό 1705
φράση 1705
ευσε 1705
gr@@ 1703
διαταγές 1703
ορκ@@ 1702
βέβαιος 1702
γαλλίας 1702
αποστ@@ 1702
μνήμης 1702
χαρούμενη 1702
σίγουροι 1701
δόση 1701
ζάχαρη 1700
εξαφαν@@ 1700
διαβάζω 1700
μπούμε 1700
κάθεται 1700
έσπασε 1699
μεταφρ@@ 1699
φωτογραφ@@ 1699
χρυσ@@ 1699
τσιγάρο 1699
τόνι 1698
πούτιν 1698
φθ@@ 1697
τσα 1697
χρειαστείς 1697
'e@@ 1696
ios 1696
ten@@ 1696
μερίδιο 1696
μισθ@@ 1696
br@@ 1695
κράτησε 1695
άζουμε 1695
χρημάτων 1694
πακιστάν 1693
ανδρών 1693
συγκέντρωση 1693
όντα 1693
λειτουργικό 1692
mc@@ 1692
γκέι 1692
ασμένα 1691
αξι@@ 1690
βρίσκεσαι 1690
'το 1690
γ-στ 1690
s-@@ 1690
δίσκο 1690
πόλ@@ 1689
μπού@@ 1688
κανόνας 1688
είσαστε 1688
καλα 1687
μάρτιν 1686
χρησιμοποιήστε 1686
'ρ@@ 1686
επικίνδυνη 1685
συμφωνίες 1685
άδ@@ 1685
άμα 1685
εγγύηση 1684
γρήγορο 1684
αποστολής 1684
συγγενείς 1684
σχετίζεται 1683
αέριο 1682
μπορέσω 1682
87 1682
έμαθες 1681
κατάθλιψη 1681
άτα 1681
δυσκολίες 1681
op@@ 1680
χάπια 1680
sal@@ 1680
χαμόγελο 1680
χρησιμοποιηθούν 1679
αγόρασε 1679
προσφορές 1679
εντυπωσιακό 1678
ευρωπαϊκές 1678
άσχημη 1677
γκο 1677
μί@@ 1676
σκέφτονται 1676
δυναμικό 1676
κατι 1676
εκτίμηση 1676
πολιτισμού 1675
hd 1675
άνο 1675
τούμε 1675
παραδείγματα 1675
91 1675
κατασκευ@@ 1675
γνώσης 1674
mε 1674
προτεραιότητα 1674
ai 1674
ωτικό 1673
χώρου 1673
ασμός 1673
ντάνι 1673
νεαρός 1672
φωτός 1672
cas@@ 1672
ασης 1671
παλάτι 1671
86 1670
ce@@ 1669
αφρ@@ 1669
ίνες 1669
έβαλες 1669
βλέμμα 1668
κτίρια 1668
αριθμοί 1668
φέρουμε 1667
σταθερά 1667
ειες 1666
ιρλανδία 1666
88 1665
πληθυσμό 1665
απειλ@@ 1665
firefox 1665
ίγ@@ 1665
βάζω 1665
στενά 1664
σέρ@@ 1664
1.000 1663
σόου 1663
νευρ@@ 1663
μακ 1662
διαφημίσεις 1662
ένιωθα 1662
καλύτεροι 1662
πιάτα 1662
καταλαβαίνει 1662
92 1662
φτιάξουμε 1661
ισμα 1661
εμφαν@@ 1660
σκόνη 1659
άτες 1659
βαν@@ 1659
πληγ@@ 1659
ούνταν 1659
όμορφος 1658
ειρ@@ 1657
ελλ@@ 1657
ατικό 1657
ήκαμε 1656
κατάφερα 1656
μιλώντας 1656
design 1655
είν 1655
εύσουν 1654
ξεχάσεις 1654
-είσαι 1654
χαμηλή 1654
ino 1653
απαγορ@@ 1653
τυχόν 1653
πνευματική 1653
θετικά 1652
κρατήσου 1652
αλι@@ 1652
6-@@ 1652
αμαρτία 1652
πέτα 1652
ανακάλυψη 1652
συγχωρ@@ 1651
ιστικών 1651
δυσκολ@@ 1650
μυρωδιά 1650
1:@@ 1650
22@@ 1650
ρομ@@ 1650
περιήγησης 1650
πιάσε 1650
ve 1650
εχουμε 1650
προχώρα 1649
τμήματος 1649
ιούλιο 1649
τηλέφωνό 1649
ανάσα 1649
live 1648
παρατ@@ 1648
αντιπροσωπεύει 1648
εκδήλωση 1648
δημόσιας 1648
κάπνισμα 1648
επιτρέψτε 1648
ταμείο 1647
ουv 1646
όνα 1646
φήμες 1646
προϋποθέσεις 1645
ἀ@@ 1645
αεπ 1644
κυνήγι 1644
διασκεδαστικό 1644
παραγγελία 1643
θυμίζει 1643
επιλ@@ 1642
αρι@@ 1642
κρεμ@@ 1642
μεσημέρι 1642
ακαδημία 1641
αγαπητέ 1641
αυτα 1641
yo@@ 1640
τομέας 1640
76 1639
μετοχές 1639
δημιουργήσουν 1639
καθιστά 1639
συμφων@@ 1638
μέτρο 1638
πρώτοι 1638
δημιουργίας 1637
ρις 1637
μοναδικός 1637
pal@@ 1636
καταλάβουν 1636
παρακολουθούν 1635
διάφορους 1635
ολοένα 1635
tr@@ 1635
μιά 1635
μονοπάτι 1635
ρώσοι 1634
κλινική 1634
ίντερνετ 1634
διπλ@@ 1633
90@@ 1633
κυβερν@@ 1633
μάρτιο 1633
ελπίζουμε 1632
μάιο 1632
ιδιότητες 1632
tra@@ 1631
εργαζόμενοι 1631
dvd 1630
κοιμ@@ 1630
mu@@ 1629
έκλεψε 1629
τριάντα 1629
μυστήριο 1628
επισκεφθείτε 1627
χάνεις 1626
επιχείρησης 1626
ξη 1626
σχεδιάζει 1626
΄ 1625
λα@@ 1625
κλπ 1625
μυρίζει 1625
'εχεις 1625
παρουσιάζει 1624
τελείωσα 1623
κρά@@ 1623
επικ@@ 1623
νοι@@ 1623
συνεχίζεται 1622
προσευχή 1622
αρα 1622
μικρότερο 1621
μή@@ 1621
επιστρέψουμε 1621
καλύτερους 1620
προσώπου 1620
ώσεων 1620
υτ@@ 1620
δείγμα 1620
άσαμε 1619
τέξας 1618
βιετνάμ 1618
εξακολουθούν 1618
σοκολάτα 1617
ίδ@@ 1617
επιτευχθεί 1616
τζιν 1616
star 1616
ic 1615
εχθρό 1615
μεριά 1615
δέχεται 1614
ατ 1614
ζωντανά 1614
ίσα 1614
τέρμα 1613
λονδίνου 1613
allactionhost 1613
avenue 1611
χαιρετ@@ 1610
γύρο 1610
αγκ@@ 1609
μειωθεί 1609
έψεις 1609
γαμημένη 1608
ry 1608
ροή 1608
γενικές 1608
τεχν@@ 1607
ατόμου 1607
my@@ 1607
άνετο 1606
τοπικές 1606
τζέι 1606
5.000 1606
west 1606
προτείνω 1605
κινητά 1605
άζετε 1605
κουνηθείτε 1605
group 1605
πληρω@@ 1605
διαζύγιο 1604
γνωρίσω 1604
via 1604
πεκίνο 1604
her@@ 1603
θυμάται 1603
καταλάβουμε 1602
εκπομπές 1602
βοηθήσετε 1601
τράπεζας 1601
πλήρες 1601
όνια 1601
προετοιμασία 1601
κί@@ 1600
μάθηση 1600
πράγματά 1599
τάσεις 1598
αυξήθηκε 1598
my 1598
ang@@ 1598
ητικός 1597
ay@@ 1597
πεθάνουμε 1597
πρίγκιπας 1597
καπ@@ 1597
σιγκαπούρη 1597
σέξι 1597
χάνει 1596
site 1596
ετησίως 1596
εχθρούς 1595
άγνωστο 1595
λυπ@@ 1595
97 1594
ισμένοι 1594
grand 1593
αγαπητή 1592
προσπαθήσουμε 1592
ck@@ 1592
λειτουργ@@ 1592
σχεδίου 1592
αρκ@@ 1591
πτήσεις 1591
χτυπάει 1591
ωραίος 1591
έμοιαζε 1590
μπέ@@ 1590
ur 1590
δημιουργούν 1589
82 1589
70@@ 1588
μεγάλου 1588
αρχαία 1588
αρχηγέ 1588
μισά 1588
απαγορεύεται 1587
νότιας 1587
school 1587
οποίου 1587
θέ@@ 1587
μάλ@@ 1587
συνεχίζουν 1586
ώνετε 1586
άγιος 1586
θέσει 1586
ντο@@ 1586
μηδέν 1586
ίζεσαι 1586
ηθούμε 1586
ακούσετε 1586
ανδρ@@ 1585
χιόνι 1585
στι@@ 1585
next 1585
αγωγή 1584
αναπτύξουν 1583
οδηγούν 1583
ζούσε 1583
περάστε 1583
πάτερ 1582
κo@@ 1582
αποθήκευσης 1582
τρομακτικό 1582
προσέξτε 1582
γλυκά 1582
πισ@@ 1581
ατη 1581
ent@@ 1581
οξ@@ 1581
κρατάω 1581
βά@@ 1581
τζ 1580
δευτερόλεπτο 1580
ran@@ 1580
κατοίκους 1580
αιώνες 1580
εννιά 1579
ke 1579
φεστιβάλ 1579
αγοράσετε 1579
αγοράσω 1579
ανάγνωση 1578
λου 1578
βεβαιωθείτε 1577
εφαρμογών 1577
κύ@@ 1577
άι 1576
νό@@ 1576
μπαχρέιν 1574
γελοίο 1574
έξοδα 1573
περιουσία 1573
ξεκινάει 1573
βρυξέλλες 1572
διάλειμμα 1572
ήρωες 1572
10.000 1572
μηχάνημα 1572
ka@@ 1571
γελ@@ 1571
αεροσκάφη 1570
e-mail 1570
προσφέροντας 1570
λειτουργήσει 1570
αρχιτεκτονικής 1570
γουίλ 1569
συναντήσει 1569
ώδης 1569
δήμαρχος 1568
πανδοχεία 1568
ωκεανό 1568
81 1568
με@@ 1568
δούλευε 1567
προσδοκίες 1567
2,@@ 1567
μενα 1567
αδέρφια 1566
φορτίο 1566
αγαπάμε 1566
καναπέ 1566
χώρους 1566
καλλιτέχνης 1566
έγινα 1565
γυμν@@ 1565
ιακών 1564
μό 1564
κυριολεκτικά 1564
κοιτ@@ 1564
άλι 1563
έβαλαν 1562
δίκλινο 1562
καλλιεργ@@ 1562
mo 1561
4-@@ 1561
κυκλοφορίας 1561
παντα 1561
μίσος 1561
τή 1560
ξεχωριστό 1560
διευθυντή 1560
φτερά 1559
τομ@@ 1559
οικογενειακή 1558
ali@@ 1558
δέσμευση 1558
μά 1557
ξεχνάς 1557
συνείδηση 1557
βιβλίου 1556
φιλαράκο 1556
σ'αυτό 1556
σεβ@@ 1555
άρεις 1555
προχωρ@@ 1554
λάβουν 1554
παρακολούθησης 1553
ταινίας 1552
προοπτικές 1552
πιστέψεις 1552
τυπ@@ 1550
γρ@@ 1550
ήξεραν 1550
ang 1550
δημιουργ@@ 1549
tri@@ 1547
στόχοι 1547
κοιν@@ 1547
συνεχή 1547
συνδυ@@ 1547
—@@ 1547
προγραμματ@@ 1547
εφ 1546
ανατρ@@ 1546
επίλυση 1546
κερδίζει 1546
-γεια 1546
στομάχι 1546
βαριά 1546
ανακάλυψε 1546
δικαίου 1546
στρατιώτης 1546
υπόλοιπη 1545
ενοχλεί 1545
έψουν 1545
διαθέσιμες 1545
ποντ@@ 1545
έβγαλε 1544
μάσκα 1544
επιστήμες 1544
77 1544
σταδιακά 1544
τρέλα 1544
eίσαι 1543
3-αστέρων 1543
εβραίοι 1542
θείο 1541
ft 1541
στραβά 1541
έσοδα 1540
γάτες 1540
βρε 1539
εξήγηση 1538
διαλ@@ 1538
μιλούσε 1538
υπήρξαν 1537
ούμενη 1537
επιθυμούν 1537
αίο 1536
σήμαινε 1536
ισμούς 1536
cd 1535
πληρωμή 1535
πολύς 1534
πιες 1534
εκφρ@@ 1534
άξει 1533
φαρμάκων 1533
προηγούμενες 1533
νεαρή 1533
υπόγειο 1533
θέσεων 1533
ity 1533
καταφέρω 1532
cu@@ 1532
δαπάνες 1532
νερά 1531
ναυτικό 1531
ένταση 1531
δυν@@ 1531
pc 1530
θελεις 1530
τόνους 1530
mor@@ 1529
° 1529
αμερικανούς 1528
κανονική 1528
επαφές 1528
σκοτώθηκαν 1528
κανεις 1528
ανεξαρτησία 1528
πι 1527
προσπαθώντας 1527
κοινότητες 1526
πρωτεύουσα 1526
ii 1526
χλ@@ 1526
τηλεφώνημα 1525
han@@ 1525
ban@@ 1525
εμπειρίας 1524
προστατεύει 1523
μπάτσοι 1523
επένδυση 1523
αναφέρουν 1523
σκεφτούμε 1522
χρονη 1522
οποιοσδήποτε 1522
ωθ@@ 1521
ανησυχίες 1521
οκτώβριο 1521
del 1521
εγκλήματα 1520
έγκριση 1520
συνθήκη 1520
έκτακτης 1520
οικονομίες 1520
οργή 1520
ok 1519
ps 1519
ανθρωπότητας 1519
αρνήθηκε 1519
διαταγή 1518
επιθυμείτε 1518
κατάλογος 1518
ελεύθεροι 1518
αυστρία 1518
εκκλησίας 1518
ζέστη 1518
μουσ@@ 1518
η.π.α 1517
ty 1517
way 1517
αιώνια 1517
ψει 1516
δίπλωμα 1516
συντηρ@@ 1516
δντ 1516
μέγιστη 1515
air 1515
προστατ@@ 1514
στρατηγός 1514
σκότωσαν 1514
φανεί 1513
συναλλαγών 1513
ικανοποι@@ 1513
εταιρίες 1512
κυκλοφόρησε 1512
κω@@ 1511
λοιπον 1510
επιχειρηματικό 1510
war@@ 1510
έζ@@ 1510
ai@@ 1509
αυτοκίνητό 1509
ποσοστά 1509
χάος 1509
io 1509
é@@ 1508
ζητάω 1508
πιθανή 1508
χρησιμοποιήσουν 1508
α. 1508
'σένα 1507
τηλεφων@@ 1507
φου@@ 1507
αρχικό 1507
πρo@@ 1507
πλάσμα 1507
γλυκ@@ 1507
κοιμηθείς 1506
πλατ@@ 1506
78 1506
ζητάς 1506
σημειωθεί 1506
μιλάνο 1505
μπό@@ 1505
δημ@@ 1504
απασχολημένος 1504
ούν@@ 1504
περίεργα 1504
μπι@@ 1503
σοβαρές 1503
kar@@ 1503
είσοδος 1502
σύντομη 1502
700 1502
bitcoin 1501
προβλ@@ 1501
σ'αγαπώ 1500
ώδες 1500
συνεχ@@ 1500
τρέχουσα 1499
αφαίρεση 1498
σχολείου 1498
cal@@ 1498
χριστό 1498
δουλεύουμε 1498
κόλ@@ 1498
πρόσκληση 1498
ιδανικό 1497
κάθεσαι 1497
φρούτα 1497
94 1497
γερμανικά 1497
περιόδου 1496
εύω 1496
σημείωσε 1496
δεκέμβριο 1495
αγαπά 1495
ερωτ@@ 1495
απολαύσετε 1494
πλυντήριο 1494
δίνουμε 1494
υποδοχή 1494
re 1494
ies 1493
σχετική 1493
μεταπτυχιακό 1493
no 1493
ερωτήματα 1493
studios 1492
μαζικής 1492
θά 1492
στρατηγέ 1492
μός 1492
δόθηκε 1491
ακολουθ@@ 1491
ιός 1491
επηρεάζουν 1491
χαμ@@ 1491
προκαλούν 1491
χρειάστηκε 1491
βελτι@@ 1491
κανόνα 1490
αναμ@@ 1490
αποθήκη 1490
ξεχωριστή 1490
χτ@@ 1490
μπερ@@ 1489
ιδε@@ 1489
έρωτας 1489
'χει 1489
δηλώσεις 1489
έφτιαξα 1489
αγαπούσε 1489
σκάφη 1488
βάρους 1488
βάσης 1488
ακα 1488
ολο 1487
επενδύσεων 1487
κέρδος 1487
γενιάς 1487
όλου 1487
πιν@@ 1486
ισης 1486
υπνοδωμάτιο 1486
ξέχασες 1486
τσέπη 1486
ετήσια 1486
δοκίμασε 1486
εισάγετε 1486
προχωρήσουμε 1485
διασ@@ 1485
αγκαλιά 1485
έρημο 1485
χρονιάς 1484
αλυσίδα 1484
υψηλά 1484
τοτε 1483
ενδεχομένως 1483
αφιερ@@ 1483
πωλήσεων 1482
ανησυχ@@ 1482
γν@@ 1481
ηθείτε 1480
ακολουθήσει 1480
φυτ@@ 1480
ωτική 1480
σύγκρουση 1480
γενικό 1480
επι 1480
νοέμβριο 1479
αναστ@@ 1479
κίνητρο 1479
ότητες 1479
παρουσίαση 1478
μπόρεσα 1478
college 1478
ικου 1478
ανοησίες 1477
mba 1477
εύετε 1477
ώρ@@ 1477
84 1477
365 1477
ακούμε 1476
ενδιαφέρονται 1476
τζέιν 1475
ent 1475
βουνά 1475
κοπ@@ 1475
φόρμα 1475
βόρειας 1475
σχεδι@@ 1474
τιμωρία 1474
συνομιλίες 1474
σχεδιασμός 1474
στρατόπεδο 1474
σκληρός 1474
παρουσι@@ 1474
σταθερότητα 1472
las 1472
ακή 1471
ίζομαι 1471
καλλιτέχνες 1471
πιστοποιητικό 1471
ήρ@@ 1469
κινέζοι 1468
σ'ευχαριστώ 1468
φανταστικό 1467
τζίμι 1467
πυροβολ@@ 1467
συγγραφείς 1466
δυτικά 1466
πραγματοποιήθηκε 1466
όφελος 1465
-με 1465
έντονη 1464
δοκιμάστε 1464
ζητά 1464
ζι 1463
θεος 1463
ιμες 1463
μπίλι 1462
τελετή 1462
ιζε 1462
κρατήσουμε 1461
είδηση 1459
ινο 1459
είες 1459
χριστιανοί 1459
βρετανική 1459
ηλεκτρική 1458
ρίσκο 1458
διδασκαλίας 1458
καρδιές 1457
79 1457
φρανσίσκο 1457
τρώω 1456
κτήριο 1456
dy 1456
πλούσιος 1455
προσπαθήσει 1455
ol@@ 1455
κινεζική 1454
θετικό 1454
:00 1454
:30 1454
μετράει 1454
σω@@ 1454
γυναικ@@ 1453
ημένοι 1453
παράγουν 1453
ήλ@@ 1453
ορ 1453
τυχερή 1453
1999 1453
προηγουμένως 1452
χάσετε 1452
χαμηλό 1452
απαντήσει 1452
ευχή 1452
έτ 1452
οπο@@ 1451
ισχύος 1451
καλωσορίζει 1451
gh@@ 1450
χρέους 1450
λίγοι 1450
περνάς 1450
υπεύθυνη 1450
age 1450
σκεφτόμαστε 1450
tes 1449
ιεχωβά 1449
ελικόπτερο 1449
ραδιόφωνο 1449
αδελφέ 1449
εγκέφαλος 1449
ὁ 1449
μοιάζεις 1449
κλιματισμό 1449
ford 1448
71 1447
ητες 1447
απ'τη 1447
ro 1447
φάτε 1447
οικογενειακό 1446
ε.@@ 1446
ματ 1446
αντάλλαγμα 1446
διαπραγματεύσεις 1446
πους 1446
ντου@@ 1446
αστυνομικό 1445
έξοδο 1445
ήχος 1445
καύσιμα 1445
καφές 1444
άστηκαν 1444
ελέγξτε 1444
κυρώσεις 1444
μηχανική 1444
θυμηθείτε 1444
ga@@ 1444
γράφεις 1444
κατοχή 1444
πιάσω 1443
αποστολές 1443
κρύβεται 1443
μπάτσος 1443
εταιρίας 1443
αγορών 1443
βάσεις 1442
ξένους 1442
ενδείξεις 1442
ύπνος 1441
ίνης 1441
σύλληψη 1441
πηδ@@ 1441
βασιλείου 1440
τηλεφώνου 1440
ενεργά 1440
πολιτ@@ 1440
ότερες 1440
δημιουργηθεί 1440
σάν@@ 1440
ξεφύγει 1440
αστυνομικοί 1439
τιμής 1439
εκτελ@@ 1439
άρι@@ 1439
πιούμε 1438
πολιτικοί 1438
ινς 1438
απαίσιο 1437
τρέξε 1437
προσπαθούσα 1436
διαβάσω 1436
διαβάζεις 1436
πελ@@ 1435
πολύ@@ 1435
ζε 1435
ντα 1434
εζ 1434
λερ 1434
άγιο 1433
νι 1433
διαφόρων 1433
ποίηση 1433
men@@ 1432
fu@@ 1432
εισόδημα 1432
πόρνη 1432
pen@@ 1432
δυναμική 1432
επρόκειτο 1432
ήρες 1431
μόδας 1431
όποια 1431
μικρότερη 1431
cam@@ 1430
ανάμεσά 1430
πρόθεση 1430
διαρκώς 1429
κωλ@@ 1429
ουρά 1429
εκστρατεία 1429
σκέφτηκε 1428
πιάσουμε 1428
συγκ@@ 1428
σημ@@ 1428
ιστότοπο 1428
server 1428
οφ 1427
φορείς 1427
az@@ 1427
ήριο 1427
χάσουμε 1426
συμβ@@ 1426
λας 1426
τρια 1426
μυστική 1426
sho@@ 1425
8-@@ 1424
άλμπουμ 1424
83 1424
ο- 1423
πέρσι 1423
'ενα 1422
γνώριζε 1421
οπωσδήποτε 1421
ζήσουν 1421
αξιωματούχοι 1421
πωλ@@ 1420
πραγματοποιηθεί 1420
σεν 1420
πίνακας 1419
ευρέως 1419
ασθενών 1419
αυτοκρατορία 1419
συv@@ 1419
χαν@@ 1418
εσε 1418
δραστηριοτήτων 1418
αποφάσεων 1418
φτάνουν 1418
ιοι 1418
ματο@@ 1418
ισμ@@ 1418
επικίνδυνα 1417
επιλέξει 1417
εμπόδια 1417
απίθανο 1417
post 1417
χρειαστείτε 1417
αντίκτυπο 1416
παρέχουμε 1416
μεθυσμένος 1416
δύσκολες 1415
εαυτού 1415
κατάλληλα 1415
0-@@ 1415
κιμ 1415
απελευθέρωση 1414
υψηλού 1413
άγγελος 1413
ούλη 1413
ναό 1413
πορτοφόλι 1413
κυκλ@@ 1412
εμπορικές 1412
άρρωστη 1412
μπου@@ 1412
ακούσατε 1412
χέ@@ 1411
εργαλείων 1411
διαπραγματ@@ 1411
θαν@@ 1411
μίλ@@ 1411
βου@@ 1411
θεσ@@ 1411
va 1410
αναγκ@@ 1410
κουρασμένος 1410
απρίλιο 1410
στηκαν 1410
tor@@ 1410
περάσετε 1410
λαμ@@ 1409
πουλιά 1409
κινητήρα 1409
ξεκινάμε 1409
σελ@@ 1409
αγγλική 1409
πραγμάτων 1409
πρόσεξε 1408
ασθενή 1408
υδρ@@ 1408
μηνυμάτων 1408
ψεις 1408
ίμ@@ 1408
σταρ 1408
τόκιο 1408
ίστ@@ 1407
5g 1407
φθινόπωρο 1407
ύψους 1407
πιό 1407
ιων 1406
τo@@ 1406
'ετσι 1406
mi 1406
τραβ@@ 1406
ξεκινήσετε 1405
πυρ 1405
κου 1405
περάσαμε 1405
δηλώνει 1404
κληρονομιά 1404
κάντο 1404
κορέας 1404
θηκες 1404
'εχει 1403
κλειστό 1403
μει@@ 1403
γουίλ@@ 1403
σέ 1403
σώσεις 1403
έφυγες 1403
δολοφον@@ 1402
'ρα 1402
μέτωπο 1401
φτώχεια 1401
ονειρ@@ 1401
πληρώνουν 1401
διά 1400
έντονα 1400
ψάχνετε 1400
τραγωδία 1400
74 1399
άμυνα 1399
μαύρα 1399
ξεκάθαρα 1399
σβ@@ 1398
μπαταρία 1397
εξασφαλίσει 1397
val@@ 1397
βυθ@@ 1397
ανι@@ 1397
σαν@@ 1397
άσματα 1397
ατρ@@ 1397
ευτικό 1396
den@@ 1395
υπόσχεση 1395
-αυτό 1395
μεθ@@ 1395
συναντήσω 1395
μη-@@ 1394
έφεραν 1394
απάτη 1394
τακτική 1394
στρατηγικής 1394
καταλάβετε 1393
κοινά 1393
προχωρήσει 1393
ενεργοποίηση 1392
απώλειες 1392
εεε 1392
αίνουν 1392
-'οχι 1391
τοποθεσίες 1391
συνεργάτης 1390
der@@ 1389
έλι 1389
διάλεξε 1389
αεροσκάφος 1389
αντίληψη 1389
εργασιών 1388
σύγχρονες 1388
εισιτήριο 1388
μυαλά 1388
συνεχίσεις 1388
τάφο 1388
μέσος 1387
λήψης 1387
ερχόμαστε 1387
πίν@@ 1387
σιν@@ 1387
αγόρασα 1386
τεσσάρων 1386
1998 1386
κοιμηθεί 1386
κόστους 1386
μαλλιών 1386
αρχίσω 1386
sen@@ 1385
ταν 1385
κλιματική 1385
ver 1385
κόκκινη 1385
cm 1385
ητό 1384
απίστευτη 1384
στελέχη 1384
κόν@@ 1384
στάθμευσης 1384
iz@@ 1384
σήκωσε 1384
δικαστής 1384
διάδρομο 1383
εβραίους 1383
μεταφορών 1383
ιστοσελίδας 1383
νύχτες 1383
εύουμε 1383
φιλία 1382
ισπανικά 1382
θλίψη 1382
βουλ@@ 1382
έψ@@ 1382
τησαν 1382
καθρέφτη 1381
καταδικ@@ 1381
αναμονή 1381
περιποίησης 1381
δωματίου 1381
ενθουσι@@ 1381
χαμηλ@@ 1380
φοιτητής 1380
ομάδων 1380
ουργ@@ 1380
'οταν 1380
ενδιαφέροντα 1380
σειράς 1380
πληρώνει 1380
μεγάλοι 1380
εικ@@ 1379
fa@@ 1379
άστ@@ 1378
ίλ 1378
top 1378
ώσπου 1378
θάνατό 1378
ίτσα 1378
ουσίες 1378
ζητούν 1378
λευκός 1377
διοικ@@ 1377
πλανήτης 1377
ονομασία 1377
τζέικ 1376
γεωργία 1376
εμπόδιο 1376
σκέφτεστε 1376
ξαναπ@@ 1376
υποχρε@@ 1375
σκάλες 1375
ιστορικά 1375
προφανές 1375
σού 1375
δύ@@ 1375
ιστικής 1374
απασχόληση 1374
κέιτ 1374
ψώνια 1374
ακριβή 1373
cr@@ 1373
διαστάσεις 1373
φλωρεντία 1373
έψετε 1373
πλάσματα 1373
στροφή 1373
2.000 1373
ασμα 1372
αναφέρω 1372
αντέχω 1372
κεντρικής 1371
συσκευών 1371
all 1371
ανή 1371
θόρυβο 1371
λάν@@ 1370
ενσωματ@@ 1370
βλακείες 1370
έχασαν 1370
παντρευτώ 1370
όρεξη 1370
ικανός 1369
ξαναδώ 1369
πάρ 1369
κύμα 1368
za 1368
τυχεροί 1367
τυρί 1367
προσθέσετε 1367
μαύρος 1367
εγκλήματος 1367
βρήκατε 1366
καταπολέμηση 1366
διά@@ 1366
μαθητών 1366
οχτώ 1365
μοιράζονται 1365
τουρ@@ 1365
φοβερή 1365
ψηλ@@ 1364
αμερικανικές 1364
κοίταξέ 1364
ύν@@ 1363
ναζί 1363
λευκή 1363
συνηθ@@ 1363
ντουλάπα 1362
σερίφη 1362
ξυλ@@ 1362
επιστρέφω 1361
μέθοδο 1361
σχολής 1361
έλληνες 1361
θέτει 1361
άλλαξαν 1361
πιάσουν 1360
3,@@ 1360
τσαρλς 1360
ξερω 1360
συχνότητα 1359
εξετ@@ 1359
εβδομάδας 1359
ήθ@@ 1359
κόψω 1359
έφτιαξε 1359
έντι 1359
έμπ@@ 1359
κρυφά 1359
σοβιετική 1359
ιντ@@ 1358
απασχολεί 1358
φυλή 1358
παντρεμένος 1358
ανυπομονώ 1358
σημερινό 1358
ελλάδας 1358
αγρότες 1358
ξέραμε 1357
οχημάτων 1357
καταιγίδα 1357
κλάδο 1357
eίvαι 1357
αυξάνει 1356
έμεινα 1356
άγκ@@ 1356
αντίσταση 1356
ελάχιστο 1356
ευημερία 1355
έσεις 1355
αρχής 1355
παραδοσιακό 1355
ητε 1354
ίντ@@ 1354
100@@ 1354
δημοσιεύθηκε 1354
πατήστε 1354
υμ@@ 1354
οργ@@ 1353
μπήκα 1353
σωρό 1353
μπόμπι 1353
υπάρξουν 1353
αναζητούν 1353
συγκρούσεις 1353
εκπαιδευτικό 1352
όταv 1352
παντελόνι 1351
πληρώσεις 1351
απαγόρευση 1351
εψ@@ 1351
ούμενο 1351
διαρκεί 1350
ποδοσφαίρου 1350
αδελφ@@ 1350
στά@@ 1350
δοκιμ@@ 1350
ισραηλ 1349
εκμεταλλ@@ 1349
οργάνωσης 1349
μετακιν@@ 1349
σύνταγμα 1349
κατάλαβε 1349
αντιδρ@@ 1349
συνηθισμένο 1348
αντιδράσεις 1347
ζωντανοί 1347
κυριε 1347
παγωτό 1347
βιάσου 1346
πραγματ@@ 1346
ίλα 1346
τρώμε 1345
ένδειξη 1345
παίζουμε 1344
γραμμής 1344
έρικ 1344
εύσουμε 1344
φασ@@ 1344
θείε 1344
εξηγήσεις 1344
μάθε 1343
73 1343
άκη 1343
μοναξιά 1343
ταχύτητας 1343
τέταρτη 1343
τητα 1343
άδειο 1343
στρες 1342
διατροφής 1342
mil@@ 1342
μάρτυρας 1342
φούρνο 1341
ουίσκι 1341
evτάξει 1341
έφτασαν 1341
δημοφιλής 1340
κωνσταντινούπολη 1340
διατηρεί 1340
θυμωμένος 1340
all@@ 1340
ano 1340
5,@@ 1340
αναλογ@@ 1340
τυ@@ 1339
ολόγος 1339
μάχες 1339
μ'αρέσει 1339
ξεπεράσει 1338
αποτελεσματικό 1338
δορυφορική 1338
gen@@ 1337
ιο@@ 1337
δραστηριότητας 1336
φώναξε 1336
παραβίαση 1336
'λ@@ 1336
νόμ@@ 1336
αμερικανικής 1336
άξιζε 1335
san@@ 1335
σινεμά 1335
ομορφ@@ 1335
καθηγητή 1335
διάολε 1335
γέννηση 1335
ντερ 1334
χα@@ 1334
ρυθμός 1334
μαγειρ@@ 1334
πασ@@ 1334
συν 1334
πέτρες 1334
περιορ@@ 1334
δευ@@ 1333
βραβεία 1333
σουν 1332
πενήντα 1332
όρι@@ 1332
βέγκας 1332
project 1332
κατέχει 1332
ώματος 1332
απέτυχε 1332
εμπιστεύομαι 1332
εϊ@@ 1331
επαρχία 1331
ξεις 1331
φύγαμε 1331
βρίσκεστε 1331
αίος 1330
app@@ 1330
αίου 1330
συντομότερο 1330
παραδ@@ 1330
απ'τον 1330
εννοείτε 1330
πέταξε 1330
τηση 1329
συμπεριφοράς 1329
μεταλλ@@ 1329
άκης 1329
θυ@@ 1329
χιούμορ 1328
προστ@@ 1328
ξυπν@@ 1328
προβλέψεις 1328
περίεργη 1328
υλικών 1327
ικότητά 1327
αναπνοή 1326
ριά 1326
έτοιμα 1326
κοιμάσαι 1326
σχετικές 1325
mg 1325
ενεργό 1325
mm@@ 1325
κεφαλαίου 1325
τερματ@@ 1325
τροχ@@ 1325
ισχύς 1325
καλοσύνη 1325
οδός 1325
στρατηγικές 1325
υψηλότερη 1325
επάγγελμα 1325
σήματα 1325
34@@ 1324
αντίστοιχα 1324
σω 1324
μονά 1324
αποδείξει 1324
πειν@@ 1324
κανονικό 1324
ηνωμένα 1323
γέλιο 1323
έδειξαν 1323
wal@@ 1323
πρόσφατες 1323
ντεν 1323
ψηφιακό 1323
ξεφ@@ 1322
den 1322
οστ@@ 1322
ιπ@@ 1322
up 1322
ζητάει 1322
ξεκάθαρο 1321
επίκεντρο 1321
ελάχιστα 1321
ανθρώπινου 1321
πος 1321
πάλ@@ 1321
σκοτώσουμε 1321
ηλεκτρονικά 1320
εμπιστοσύνης 1320
γέρο 1320
ατική 1320
γον@@ 1320
αμα 1320
έπαιρνε 1320
πολιτισμός 1319
nor@@ 1319
κλήσεις 1319
συγκρότημα 1319
μαϊάμι 1318
παγκόσμιες 1318
δημοφιλή 1318
κατάφεραν 1318
ίτης 1317
αβαθμολόγητα 1317
bor@@ 1317
μό@@ 1317
κύπελλο 1316
λαμβάνοντας 1316
-για 1316
πηγ@@ 1315
ισπαν@@ 1315
ηρω@@ 1315
κέντρου 1315
τζι 1315
διορθ@@ 1315
πουλήσει 1315
έμειναν 1315
κάνα 1314
επ 1314
pu@@ 1314
ρε@@ 1314
πλήρους 1314
ένοχος 1314
έβλεπε 1313
καπν@@ 1313
εψα 1313
οντάς 1312
μόνα 1312
ιμα 1312
λούις 1312
1980 1312
ευγνώμων 1312
οκτ@@ 1312
ούτως 1312
πυροβόλησε 1311
ήμ@@ 1311
περιορισμούς 1311
γεννήθηκα 1311
πράκτορες 1311
ρα@@ 1311
παγκοσμίου 1311
amazon 1311
ειδικότερα 1311
τηρ@@ 1310
φυλακ@@ 1310
τραγουδ@@ 1310
εξοπλισμού 1310
αγγλ@@ 1310
πείνα 1309
δημοσιεύτηκε 1309
κίν@@ 1309
δουλέψω 1309
όργανο 1309
μαρξ 1309
επαγγελματίας 1309
hotel@@ 1309
μεταφορές 1308
πρόοδος 1308
άρω 1308
σταθερό 1308
ανατολικά 1308
απαντήσω 1308
συμμετείχαν 1308
παράγοντας 1308
ημά 1308
πεντ@@ 1307
τροποποι@@ 1307
επέμβαση 1307
ισχύουν 1307
κεφάλαια 1307
ιδιοκτήτες 1307
ενδιαφέρεται 1307
καταλύματα 1306
des 1306
κατάρα 1306
γραφείου 1306
κράτησης 1306
αυτος 1305
ρώτα 1305
σ΄@@ 1305
πανεπιστημιούπολη 1304
καλάθι 1304
μην@@ 1304
κοτόπουλο 1304
ριζ@@ 1304
times 1304
διδ@@ 1303
ψυχές 1303
ενταξει 1303
ti 1303
ακού@@ 1303
φυσ@@ 1302
σαφώς 1302
το'@@ 1302
hotels 1302
τουρκίας 1301
­@@ 1301
κλαις 1301
ολοκληρώθηκε 1301
υπερβολική 1301
φοράω 1300
διαφορετικός 1299
ics 1299
ητικής 1299
παρά@@ 1298
στρατιωτικές 1298
βρίσκουν 1298
μήνας 1298
-κι 1298
ιμος 1298
μαζι 1298
μηχανικής 1298
έκταση 1297
νικήσει 1297
απ'@@ 1297
πτυχές 1297
στεγ@@ 1297
λογικά 1297
έτες 1296
ly@@ 1296
θετ@@ 1296
οδήγησης 1296
τράβα 1296
κατάρτιση 1296
δημόσιες 1296
φυγ@@ 1295
ίο 1295
ημάτων 1295
bar 1295
αρχαι@@ 1295
θεραπείες 1295
μαθητής 1295
ανοίξω 1295
απαραίτητες 1295
σωματική 1295
αέρας 1294
έδινε 1294
κόμματα 1294
διάθεσή 1294
ευτική 1294
παλιές 1293
μέρει 1293
si 1292
γνωστά 1292
ας@@ 1292
θελ@@ 1292
μμε 1292
µε 1291
τεντ 1291
αξίζουν 1291
έψουμε 1291
βλάκας 1291
πιάνει 1291
ha 1291
kι 1291
ιβ@@ 1290
the@@ 1290
φτι@@ 1290
αγαπημένα 1290
έρν@@ 1290
φεβρουαρίου 1290
hel@@ 1289
πλήρωμα 1289
κλείσιμο 1289
γουόλτερ 1289
fer@@ 1289
ύρ@@ 1289
ανώτατο 1289
αρχίσουν 1288
καταπληκτική 1288
σύ@@ 1288
ανανε@@ 1288
βαθ@@ 1288
ice 1288
όλον 1288
μαλακία 1287
βάλουν 1287
βιώσιμη 1287
βαρύ 1286
τριγύρω 1286
ουνε 1286
καυσίμων 1286
δεξιοτήτων 1286
πέρασες 1286
κυριαρχία 1285
δουλειάς 1285
εγγυ@@ 1285
ανθ@@ 1285
τoν 1285
έκπτωση 1285
στείλε 1284
ευθύνες 1284
σκοτ 1284
ah 1284
επίσημο 1284
πυρήνα 1284
ατικά 1284
φίλες 1284
κερδίσεις 1283
προτείνει 1282
τορ@@ 1282
μπόρεσε 1282
παιδ@@ 1282
γενέθλιά 1282
γύρισες 1282
εκπομπών 1281
λοχία 1281
κέρ@@ 1281
περί@@ 1281
ρισμα 1281
τείχος 1280
ησει 1280
ευτυχισμένοι 1280
άρωμα 1280
6,@@ 1280
μι 1280
νότιο 1280
ν. 1279
ακαδημαϊκή 1279
σωτηρία 1279
ληστεία 1279
τέτοιου 1279
πράγα 1278
αραβικά 1278
καθυστέρηση 1277
αναρωτιόμουν 1277
ευχαρίστηση 1277
'σαι 1276
ερευν@@ 1276
μοναχ@@ 1276
url 1276
ινα 1275
μαθημάτων 1275
κατάρτισης 1275
ωπ@@ 1275
δώ 1275
ξεκίνησα 1275
εισοδήματος 1274
ταξ@@ 1274
σημειώσεις 1274
διαφέρει 1274
cloud 1274
πολύτιμο 1274
λείπουν 1274
χρυσή 1274
ουμ 1273
διαδ@@ 1273
ξεκίνα 1273
ειτε 1273
περνούν 1272
ακριβό 1272
royal 1272
κάvεις 1272
προσφέρονται 1272
αρντ 1272
γυ@@ 1271
ήλιου 1271
νερ 1271
γεννηθεί 1271
έφαγε 1271
ΐ@@ 1271
αδέλφια 1271
άντ 1270
χίλια 1270
κάθομαι 1270
έγραφε 1270
μέγιστο 1270
άλεξ 1269
συρ@@ 1269
άξεις 1269
χαρακτήρας 1269
πέρασμα 1269
αμερικανών 1269
ίζονταν 1268
μν@@ 1268
έστειλαν 1268
skype 1268
pre@@ 1268
δείξουμε 1268
συντον@@ 1267
24ωρη 1267
μεσάνυχτα 1267
αναπτυχθεί 1266
προηγούμενα 1266
πεδία 1266
δημιουργήσουμε 1266
ρίξει 1266
εκδοχή 1265
ποσότητες 1265
αργεντινή 1265
δος 1265
ευχ@@ 1265
εργαζόμενους 1264
μαγικό 1264
δεχτεί 1264
αρκούδα 1264
ρίξουμε 1264
κλείνει 1264
παραλ@@ 1264
μεγαλώνει 1264
δελτίο 1263
room 1263
βέλγιο 1263
καρκίνος 1263
ard 1263
αισθ@@ 1261
κοιτάζω 1261
tur@@ 1261
παντρευτείς 1261
διακοπή 1261
gra@@ 1261
νομίσματα 1260
αξα 1260
έστειλα 1260
ήρας 1260
πολίτης 1260
τσιγάρα 1260
πλαίσια 1260
αριθμ@@ 1259
επιχειρηματική 1259
2:@@ 1259
ιακού 1258
πίνεις 1258
απόλυτο 1258
ξει 1258
αποκάλυψη 1258
αυστραλίας 1258
αντρ@@ 1258
χείλη 1258
δίχως 1257
πράσινη 1257
τρίμηνο 1257
ποιους 1257
λει@@ 1257
τροφ@@ 1257
d-@@ 1257
ακίνητος 1256
πεζ@@ 1256
τρώτε 1256
μπουν 1256
απασχολ@@ 1255
σμιθ 1255
στρατιώτη 1255
επείγον 1254
συνήθειες 1254
μπο 1254
κατάθεση 1253
δεκάρα 1253
ώρας 1253
χρυσού 1253
άντα 1253
βόρειο 1253
μάθαμε 1252
ασμού 1252
κοιτάζει 1252
πήτερ 1252
καλύψει 1252
αυτοπεποίθηση 1251
άτης 1251
επικεντρώνεται 1251
εύοντας 1251
εξάμηνο 1251
επιστρέψεις 1251
άλια 1251
ικων 1251
δάχτυλα 1251
ini 1251
μουσικής 1250
εκπαιδεύ@@ 1250
ven@@ 1250
κούβα 1250
μαθαίνουν 1250
έπαθες 1250
βαρέθηκα 1249
γλύκα 1249
σεν@@ 1249
σαv 1249
βελ@@ 1249
ούλ@@ 1249
τικά 1249
περιπέτεια 1248
κοιτάξω 1248
πετσέτες 1248
φίλ@@ 1247
πύργο 1247
φω@@ 1247
φυσικές 1247
ζήσουμε 1247
συμφέρον 1247
γκα 1246
τραπεζ@@ 1246
δάσκαλε 1246
περιλαμβάνονται 1246
χάουαρντ 1246
αντιμετωπίσουμε 1246
τέλειος 1245
ιλ 1245
λίρες 1245
εχουν 1245
-σε 1244
δύναμή 1244
μορφ@@ 1244
σαμε 1244
ήρα 1244
ρίξεις 1244
εμπιστ@@ 1244
plaza 1244
αριθμού 1243
ασύρματο 1243
είν@@ 1243
μενο 1243
χαζό 1243
ακτ@@ 1243
νοημοσύνη 1243
πληροφορ@@ 1242
χρησιμοποιώ 1242
λαβ@@ 1242
σοκ 1242
σ'ένα 1242
πρίγκιπα 1241
κινούνται 1241
παίρνετε 1241
9-@@ 1241
τροποποίηση 1241
ιαν@@ 1241
ξεπ@@ 1240
ειδικών 1240
αρκετοί 1240
μιλά 1240
αυτοκτονία 1240
άμστερνταμ 1240
ακριβά 1239
πολιτικός 1239
τούτο 1239
τάξεις 1239
ματά 1239
εθν@@ 1239
αφήνουν 1239
ελπίδες 1238
σκέφτηκες 1238
χρειαστώ 1238
παροχής 1238
έται 1238
ωτή 1238
lan@@ 1238
'χω 1238
κατέληξε 1238
pri@@ 1237
πέφτουν 1237
κατάργηση 1237
ευρωπαϊκού 1237
χρησιμοποιείς 1237
υποχρεώσεις 1237
ξεχωριστά 1236
,5 1236
ίσατε 1236
πορτογαλία 1236
θέλ@@ 1236
ασανσέρ 1235
εξω@@ 1235
ολοκληρωμένη 1235
επιστρέψουν 1234
πιάτο 1234
ı@@ 1234
pl@@ 1234
ξέρ@@ 1233
μετακίνηση 1233
li 1233
cho@@ 1233
έv@@ 1233
κατανάλωσης 1233
βγάζεις 1233
ga 1233
υπαλλήλους 1233
συναντηθούμε 1233
τικές 1232
παρέχονται 1232
μ. 1232
συμβουλευτείτε 1232
δείξεις 1232
sitemap 1232
ίσματα 1231
ben@@ 1231
καθυστερ@@ 1231
santa 1231
καταλαβαίνουν 1231
εκτοξ@@ 1230
οικοδομ@@ 1230
υποχρέωση 1230
app 1230
πειράματα 1230
κατατ@@ 1230
διάσωσης 1230
77@@ 1230
διστ@@ 1229
ντέιβ 1229
φύλο 1229
συνδεθείτε 1229
βιομηχανική 1229
ηλίθιοι 1229
ταχ@@ 1228
διαγωνισμό 1228
εψαν 1228
πολη 1227
ἡ 1227
μεγάλωσε 1227
φτάσω 1226
εγκληματίες 1226
εξηγήσει 1226
ακό 1226
ζευγάρια 1226
εξηγ@@ 1226
αραβία 1226
μιν@@ 1226
εστι@@ 1226
συνεχιστεί 1226
δείγματα 1225
σημείωμα 1225
cre@@ 1225
ωθούμε 1225
βεβαι@@ 1225
προπόνηση 1225
σκοτεινή 1225
αγγλίας 1225
σοσιαλ@@ 1225
ισχυρ@@ 1225
ki 1224
ερό 1224
συμμαχία 1224
ρίο 1224
λογαριασμός 1224
θυσι@@ 1223
τοξ@@ 1223
όμορφες 1223
oλ@@ 1223
σίγουρο 1223
εκπληκτική 1223
συνταγή 1223
απολύ@@ 1223
τρομοκράτες 1223
πιω 1222
αξαν 1222
προ 1222
100.000 1222
εύρος 1222
επιβεβαι@@ 1221
αντιμετωπίσουν 1221
κε@@ 1221
ian 1221
wifi 1220
ούμαι 1220
ινδίας 1220
όνειρά 1219
καλέσει 1219
ενδεχόμενο 1219
γενιές 1219
παιδικό 1219
κερδίσουμε 1219
αγαθά 1218
αμαρτίες 1218
μάντεψε 1218
εμπορικά 1218
ήθηκες 1218
υγιή 1218
πετρ@@ 1217
τουν 1217
σκυλ@@ 1217
συνάντησα 1216
όμενους 1216
δικαιολογία 1216
πυρηνική 1215
αφαιρ@@ 1215
άφησαν 1215
ερμην@@ 1215
ξερ@@ 1215
ιαπωνίας 1215
θε 1214
φάε 1214
'χεις 1214
γνωριμία 1214
μύ@@ 1214
διαβάζει 1214
αστερ@@ 1214
επανα@@ 1214
1995 1213
vo 1213
σάλ@@ 1213
ήχου 1213
άλλως 1213
θεωρούνται 1213
πρωτόκολλο 1212
καθήκοντα 1212
βλάκα 1212
chi@@ 1211
συνέλευση 1211
παρέχεται 1211
εισόδου 1211
νορβηγία 1211
σουίτα 1211
7-@@ 1211
κίτρινο 1211
επιτυχίας 1211
bro@@ 1210
eu@@ 1210
-πρέπει 1210
κώδικας 1210
περ 1210
βασιλική 1209
νομικά 1209
διαφορετικών 1209
κύκλος 1209
εγγραφής 1209
κερδίσω 1209
φιλ 1209
ακρ@@ 1209
ντά@@ 1209
ευτούν 1208
πατρι@@ 1208
ξα 1207
διακομιστή 1207
κλερ 1207
best 1207
αισθήματα 1206
κεφαλ@@ 1206
αεροπλάνα 1206
max 1206
ακολουθήσουν 1206
μισεί 1206
ταχυδρομείο 1205
άνια 1205
paul 1205
tre@@ 1205
est@@ 1205
ρωτάω 1205
ιους 1205
james 1205
αυξανόμενη 1204
εναλλακτική 1204
sam@@ 1203
μπράιαν 1203
όλης 1203
αρμ@@ 1202
σελίδας 1202
συσκευής 1202
εικον@@ 1202
πιθανές 1202
γενικός 1202
αφήσουν 1201
εση 1201
επίθεσης 1201
αποθηκ@@ 1201
ευγενικό 1201
λη@@ 1201
χημικών 1200
χου@@ 1200
ξε@@ 1200
θαύματα 1200
έλεν 1200
παράνομο 1200
πίνω 1200
στερ 1199
ρισ@@ 1199
τεχνικούς 1199
'δώ 1199
χρονια 1199
gre@@ 1199
διεθνώς 1198
αποκατάσταση 1198
σύμβασης 1198
ορισμός 1198
παρεμπιπτόντως 1198
πετάξει 1198
net 1197
πάντες 1197
εγκαταστήσετε 1197
ati@@ 1196
διαβάσετε 1196
nasa 1196
φλόριντα 1196
εξουσίας 1196
έλαβα 1196
προσόντα 1196
ημων 1196
τέρατα 1195
νοσοκομεία 1195
άμ 1195
προβλέπει 1195
αξιοπρέπεια 1195
υλικού 1195
βλάβη 1194
mel@@ 1194
φύλλα 1194
διατηρ@@ 1194
έσω 1194
νοσοκόμα 1193
αζα 1193
διάσκεψη 1193
αρχίδια 1193
τελευταίους 1193
νικητής 1193
ανατιν@@ 1193
παραμείνουν 1192
ταυτότητας 1192
αγγίζεις 1192
ύνει 1192
κριτικές 1192
αγρι@@ 1192
καταστρ@@ 1192
χαριτωμένο 1192
τακτικά 1192
βορρά 1192
εθνικές 1192
3:@@ 1191
λιν 1191
ματός 1191
εκτιμ@@ 1191
κέβιν 1191
στενή 1191
αναβάθμιση 1190
εα 1190
πoύ 1190
επίδειξη 1190
ζακ 1190
φοβάστε 1190
ξεκινήσω 1190
δρα 1189
μεγαλειότατε 1189
αεροδρομίου 1189
αποδοχή 1189
στείλουμε 1189
ομοι@@ 1189
εθνικού 1189
bank 1189
mb 1188
ἔ@@ 1188
τζόνι 1188
πρώτου 1188
χη 1187
έπιπλα 1187
τρομ@@ 1187
ι-@@ 1187
προστατευ@@ 1187
προσφύγων 1187
ξης 1186
t-@@ 1186
ίσια 1186
γαλλικό 1186
ιούνιος 1186
παράτα 1186
ιατρικό 1185
τζέ@@ 1185
εξήγησε 1185
συλλογ@@ 1185
ούσατε 1184
ψυχολογία 1184
ίαν 1184
αδύνατη 1184
ib@@ 1184
ερχ@@ 1184
πε@@ 1184
ς· 1184
τελευταίων 1183
χος 1183
μπεργκ 1183
pan@@ 1183
κατανο@@ 1183
ny 1183
day 1183
αρέσεις 1182
πάς 1182
απo@@ 1182
χάνουμε 1182
σκοτεινό 1182
όμενου 1182
μοτέλ 1182
κατοικία 1181
δήλωσαν 1181
διπλή 1181
δικαστηρίου 1181
εθελοντές 1181
πρώ@@ 1180
ωθείς 1180
αντικατάσταση 1180
ματικά 1180
υποφέρει 1180
συνειδητοποίησα 1179
δοκιμάσει 1179
όμενης 1179
ης@@ 1179
προωθ@@ 1179
απόδοσης 1179
αποτελεσματικότητα 1179
διάγνωση 1179
ιω@@ 1178
τορ 1178
ξαν 1178
στέκεται 1178
βιέννη 1178
κληρονομ@@ 1178
global 1178
μπάσκετ 1178
μπορει 1177
βάρ@@ 1177
όλ 1177
κακές 1177
ντάνιελ 1177
προσέχετε 1177
ηλεκτρονικών 1177
κεφάλια 1176
ric@@ 1176
ερωτευμένος 1176
δάκρυα 1176
sky 1175
ταπειν@@ 1175
θήκαμε 1175
βγάλτε 1175
πραγματικές 1175
βγαίνουν 1175
παραδοσιακά 1175
φορούσε 1175
σχολι@@ 1174
μεγαλώσει 1174
προσπαθούσε 1174
ύλη 1174
συνελήφθη 1173
φρόντισε 1173
gb 1173
δολοφόνο 1173
βελτιώσει 1173
ήσου 1173
τρέχα 1173
μαδρίτη 1172
ωρι@@ 1172
τυχ@@ 1172
επιτ@@ 1172
τοπικά 1172
επισκέψεις 1172
κυβερνήτης 1172
δηλητήριο 1172
μοντ@@ 1171
επιθυμεί 1171
ιανουάριο 1171
πανέμορφη 1171
προορισμό 1171
ipad 1171
21@@ 1171
ιγκ@@ 1171
ευα 1170
πλούσιοι 1170
λεϊ 1169
φορολογ@@ 1169
και@@ 1169
τόν 1169
αναβ@@ 1169
ευσαν 1169
θέσης 1169
μιλήσαμε 1168
χάνουν 1168
διαφ@@ 1168
ταλ@@ 1168
fin@@ 1168
τια 1168
θυσία 1167
προβληματ@@ 1167
κελί 1167
ίτες 1167
οποίας 1167
τεχνικά 1167
οξυγόνο 1167
σελ 1167
νύφη 1167
νιώθουν 1166
1996 1166
φέρεται 1166
έσει 1166
διάβασε 1166
ικό@@ 1165
χορηγ@@ 1165
david 1165
δικαιολογ@@ 1165
αστικών 1165
pp@@ 1164
oυν 1164
bra@@ 1164
tro@@ 1164
εξετάσει 1164
τιο 1164
1/@@ 1163
αφέντη 1163
ss 1163
τρέχουν 1162
-ευχαριστώ 1162
μαλακ@@ 1162
εκδικ@@ 1162
εμπιστεύεσαι 1162
βάζουν 1162
αγρ@@ 1162
στεν@@ 1162
ιταλ@@ 1162
καθίκι 1161
πρακτικά 1161
ήν 1161
γρηγορότερα 1161
πράμα 1161
ελέγξω 1161
αποφύγετε 1160
καινοτομίας 1160
αα 1160
μος 1160
φιλοξεν@@ 1159
έλεος 1159
διαμάντια 1159
στόχων 1159
κοστούμι 1159
'μένα 1159
κουλτούρα 1159
τατουάζ 1159
λιγ@@ 1158
τυφλ@@ 1158
ότεροι 1158
κλείστε 1157
αυτόματη 1157
γερμανικό 1157
εσα 1157
γείτονες 1157
πα@@ 1157
προσφέρεται 1156
ίδων 1156
κατασκευαστές 1156
ηλεκτρονική 1156
δείκτης 1156
πλευρό 1155
ετοιμ@@ 1155
ο… 1155
αρχών 1155
ντς 1155
σκληρ@@ 1154
μεγάλους 1154
σσ@@ 1154
λαχανικά 1154
παρακαλ@@ 1154
κέικ 1154
κατεβάσετε 1154
τεράστιες 1153
τισ@@ 1153
μετατροπή 1152
διοικητής 1152
πρόβλημά 1152
όφ@@ 1152
κατακ@@ 1152
εργαστήρια 1151
όv@@ 1151
ανόητος 1151
ολογική 1151
οθ@@ 1151
αναφοράς 1150
συνδε@@ 1150
pe 1150
δημοσίευση 1150
διαβήτη 1150
χημικά 1149
ειδικούς 1149
διαχειριστής 1149
σώ@@ 1149
υψηλότερα 1148
δέ@@ 1148
άνεμος 1148
υπουργείου 1148
προσφέρω 1148
gal@@ 1148
πρεσβεία 1147
τζέρι 1147
eίμαι 1147
γνωρίσεις 1147
ε-@@ 1147
πίνακες 1147
έσωσες 1146
αρνείται 1146
don@@ 1146
..... 1146
υγρό 1146
player 1146
σύνταξη 1146
you 1146
κοσμ@@ 1146
ασθενοφόρο 1145
συμβολ@@ 1145
τικής 1145
cy@@ 1145
πληροφορικής 1145
πεινάω 1145
περισσότερων 1145
έφτασα 1145
βενεζουέλα 1145
περίμενες 1145
νεαρό 1144
νιώσεις 1144
προσαρμογή 1144
ενδιαφερ@@ 1144
ιστείτε 1144
λη 1143
παλτό 1143
εξαγωγές 1143
μπους 1143
1994 1142
μάρκα 1142
υποθέσουμε 1142
.00 1142
δέρματος 1142
γιατρούς 1142
διακόσμηση 1142
δέχομαι 1141
μοιραστείτε 1141
ήρωα 1141
παντρεύτηκε 1140
οκτώβριος 1140
ενοχλ@@ 1140
άρθρου 1140
βαθμός 1140
μεγάλωσα 1140
πλανήτες 1140
νόμοι 1140
πλοίων 1139
s.@@ 1139
κογκρέσο 1139
τεθεί 1139
τέλειωσε 1139
πνευματικά 1139
μπράουν 1138
ράιαν 1138
national 1138
ακούσουμε 1138
ευρεία 1138
ελάχιστη 1137
ενοικιαζόμενες 1137
τοίχους 1137
ποντίκι 1137
bur@@ 1137
υπόλοιπους 1137
sel@@ 1137
αυξ@@ 1137
μεσα 1137
οποιεί 1136
πολιτιστική 1136
αστικός 1136
αντιπροσωπ@@ 1136
τροφές 1136
πρωτοβουλία 1136
θεώ 1136
ρωσ@@ 1136
λιμ@@ 1136
άζ 1135
χωρητικότητα 1135
κολλέγιο 1135
έστ@@ 1135
ωσή 1134
οου 1134
αθώος 1134
φυσικών 1134
διδακτορικό 1134
ασχολείται 1134
ικοι 1134
ελέγχουν 1134
ογραφία 1134
κόλπα 1134
στάδια 1134
χόρ@@ 1134
ανακάλυψα 1134
je@@ 1133
συστ@@ 1133
1989 1133
έψαχνα 1132
απόφοιτοι 1132
σώσουμε 1132
αιτίες 1132
ήν@@ 1132
εγκατάστασης 1132
στατιστικά 1131
δοκιμάσω 1131
τζάκι 1131
σοβαρ@@ 1131
διο 1131
ικαν@@ 1131
τελειώσουμε 1131
σουμε 1130
ίτη 1130
τηκαν 1130
κόρες 1130
βόμβες 1130
.gr 1130
φόρουμ 1130
dis@@ 1130
σπουδ@@ 1129
euro@@ 1129
μόρ@@ 1129
ται 1129
απλός 1129
ανησυχούν 1129
μπελάδες 1128
art@@ 1128
φτιάξεις 1128
ταϊλάνδη 1128
180 1128
des@@ 1128
παρισιού 1128
σαουδική 1128
ανακαλύψει 1128
μέλ@@ 1127
σαράντα 1127
αστή 1127
έιμι 1127
ομιλ@@ 1127
τρομοκρατία 1127
βαλίτσα 1127
καστ@@ 1127
ισλάμ 1127
hiv 1126
χάλ@@ 1126
κυβερνήτη 1126
διατάξεις 1126
access 1126
τει 1126
καπνιστές 1126
σκάλα 1126
έλαβαν 1125
αγγελ@@ 1125
ment 1125
κοινωνίες 1125
χώμα 1125
αγαπούσα 1125
παν 1125
καταρ@@ 1125
σύντομο 1125
ωρα 1125
αυξάνονται 1124
γιν@@ 1124
ακριβ@@ 1124
σοφ@@ 1124
επικεντρ@@ 1124
ποτ@@ 1124
σταδιοδρομία 1123
1970 1123
ó@@ 1123
ύλ@@ 1123
απολ@@ 1123
παρότι 1123
ειρην@@ 1122
play 1122
σύμφωνοι 1122
εικόνων 1122
φαρ@@ 1122
λίστας 1122
όκ@@ 1122
άσπρο 1122
εχθροί 1121
ιανουάριος 1121
μπόνους 1121
σχετικό 1121
aids 1121
len@@ 1120
υπέρ@@ 1120
μαμάς 1120
ζεστ@@ 1120
ξεκινώντας 1120
μετάδοση 1120
πατάτες 1119
πιτ 1119
michael 1119
αρε 1119
λύκειο 1119
δυό 1118
δωρ@@ 1118
ικο@@ 1118
πλατφόρμες 1118
κατάρρευση 1118
κάθριν 1118
ron@@ 1118
διανομή 1118
γιατρ@@ 1117
συγγραφέα 1117
αναπτυσσόμενες 1117
διαφορετικοί 1117
ντουμπάι 1117
γκαν 1117
hol@@ 1117
hal@@ 1117
σέλ@@ 1117
δημιουργώντας 1117
ορισμένων 1117
ότερους 1117
κίνησης 1116
ερή 1116
έσουμε 1116
έξοδος 1116
αρχιτεκτονική 1116
άστηκα 1116
ιζαν 1115
τυ 1115
ωσέ 1115
ναός 1115
μούτρα 1115
υπό@@ 1115
ακές 1114
ουγγαρία 1114
ταιριάζουν 1114
πνευματικής 1113
μηχανικών 1113
κλιματισμού 1113
διατηρήσει 1113
ανό 1113
ματική 1113
κατεβάστε 1112
άρχ@@ 1112
σκο@@ 1112
υπεύθυνοι 1112
ερά 1112
καταπ@@ 1112
αναγνωρίζει 1112
inter@@ 1112
τησα 1112
εθνικ@@ 1112
διορ@@ 1111
επο@@ 1111
ιστοσελίδων 1111
μόνιμη 1111
συνδυασμός 1111
τρίτος 1111
θέληση 1111
μάγισσα 1111
εμποδίζει 1111
πειραματ@@ 1110
τακτοποι@@ 1110
προσέχω 1110
κύματα 1110
γουρούνι 1110
ko 1110
αίν@@ 1109
κριτήρια 1109
ανιχν@@ 1109
απέ@@ 1109
gmail.com 1109
οίκος 1109
φτάσεις 1109
διάταξη 1109
διαβάσεις 1109
λιβύη 1108
κρίσιμη 1108
ασκήσεις 1108
τάρ@@ 1108
eur 1108
προσωρινά 1108
παράξενα 1108
διαπιστ@@ 1107
όρα 1107
σετ 1107
προϋπόθεση 1107
σημει@@ 1107
ub@@ 1107
ger 1107
αμοιβή 1107
θυμήσου 1107
ανάλυσης 1107
φάρ@@ 1107
χαμένος 1106
pr@@ 1106
bal@@ 1106
ενεργοποι@@ 1106
δυστυχ@@ 1106
ίρ 1106
ανοίξεις 1105
λέσχη 1105
ηκα 1105
ψουν 1105
εγκαταλείψει 1105
ροκ 1105
ενοικίαση 1105
ωρών 1104
τεχνών 1104
νεα 1104
berg 1104
θεοί 1104
δανία 1104
ισμοί 1104
όσων 1104
sy@@ 1104
καθορ@@ 1103
ευθεί 1103
κυκλοφορ@@ 1103
αναθεωρ@@ 1103
χορός 1103
κοιτάξεις 1103
ελλην@@ 1103
μενη 1103
μπ 1103
αδει@@ 1103
μπάσταρδε 1102
τίμημα 1102
κουβαλ@@ 1102
μεσημεριανό 1102
καταστ@@ 1102
view 1101
κρυ@@ 1101
φανταστώ 1101
ανόητο 1101
ξεκινούν 1101
ηλεκτρικής 1101
social 1101
ουσι@@ 1101
ξες 1100
όσκαρ 1100
news 1100
κάρτερ 1100
στείλτε 1100
σύνθεση 1100
γεμάτος 1100
ρωτήστε 1100
έθεσε 1100
πτήσης 1100
pat@@ 1100
αφότου 1099
αεροπορική 1099
χρωστάω 1099
ψέμματα 1099
δυ@@ 1099
ενώπιον 1099
μεταρρυθμίσεις 1099
palace 1098
οποιήσει 1098
τύ@@ 1098
πέτυχε 1098
id@@ 1098
πληρώσουν 1098
κλαίει 1097
ιζα 1097
πετάει 1097
σαμπάνια 1097
ίγκ@@ 1097
αισθάνεστε 1097
ύψ@@ 1097
μιλήσετε 1096
περιφέρεια 1096
γα 1096
web@@ 1096
νύχτας 1096
διευθύνων 1096
προειδοποι@@ 1095
δο 1095
'εχουμε 1095
~@@ 1095
os@@ 1095
βγάζω 1095
ζυγ@@ 1095
ρισε 1095
εύσω 1095
bas@@ 1095
στρατ@@ 1095
ac 1095
δοκιμασία 1095
instagram 1094
πρόσθετο 1094
10-@@ 1094
σέ@@ 1094
ρίζες 1093
πίστευαν 1093
αρχίσεις 1093
συναδέλφους 1093
βιλ 1093
1997 1093
κακοί 1093
dor@@ 1093
παντρ@@ 1092
θεωρίες 1092
πίτσα 1092
μοναδικά 1092
δίκαιη 1092
sw@@ 1092
μπορω 1091
απαν@@ 1091
πυρηνικά 1091
7,@@ 1091
εις@@ 1091
ατζ@@ 1091
παράνομη 1090
αζες 1090
δράσεις 1090
αναπτύσσεται 1090
δρόμοι 1090
αιρ@@ 1090
χρήσιμη 1090
σάρκα 1090
περήφανη 1090
φύλ@@ 1090
διαφορ@@ 1090
υποστεί 1089
εύρεση 1089
στες 1089
open@@ 1089
φωνάζει 1089
σάιμον 1089
βάλετε 1088
θηλ@@ 1088
-τα 1088
'ν@@ 1088
bay 1088
μηχανικός 1088
εξαγωγή 1088
ισότητα 1087
υπολογ@@ 1087
προγραμματιστές 1086
πρόσθετα 1086
βρετανίας 1086
χρυσός 1086
νύχια 1086
μεταφέρουν 1086
γραμματέας 1086
ραμ@@ 1086
ξύπνησα 1086
άνοδο 1086
λές 1085
ρωτήσεις 1085
πατρ@@ 1085
λεπτομέρεια 1085
ερευνών 1085
δυσκολία 1085
χρειαστούμε 1085
μελλοντικές 1085
york 1084
δομ@@ 1084
αποδειχθεί 1084
κρύβει 1084
μελλοντική 1084
όζ@@ 1083
a-@@ 1083
γκάρ@@ 1083
ικανοποίηση 1083
γλωσσ@@ 1083
μωρού 1082
pro 1082
δολλάρια 1082
field 1082
εταίρους 1082
ιστικού 1082
προσπαθήστε 1082
μέλλοντος 1081
boutique 1081
ξεχνάμε 1081
μισθό 1081
κλίμακας 1081
παραδόσεις 1081
ήρια 1081
φεύγουν 1081
τζάκσον 1081
ιλι@@ 1080
συμπαθ@@ 1080
ήτ@@ 1080
υπόλοιπες 1080
ευτυχισμένο 1080
πίνει 1079
χρωστάς 1079
διώ@@ 1079
άξουν 1079
καταστραφεί 1079
ακούσουν 1079
τέρ@@ 1079
por@@ 1079
καταναλωτών 1079
πέσε 1079
δασκάλα 1078
ινδονησία 1078
χρονική 1078
θαυμάσιο 1078
ατη@@ 1077
μέ 1077
παχ@@ 1077
11.@@ 1077
σύμπτωση 1077
σπάσω 1077
διαφημ@@ 1077
λένιν 1077
ενοικίασης 1076
υγειά 1076
καθηγητά 1076
διδάσκει 1076
προσωπικότητα 1076
κλοπή 1076
1992 1076
μ.μ 1076
ύποπτος 1076
ολη 1076
ευχάριστο 1076
φασαρία 1076
αντικαταστήσει 1076
προσποι@@ 1076
τζόνσον 1075
θέματος 1075
ξενοδοχείων 1074
γκόμενα 1074
δίνεται 1074
ls 1074
κοίταξα 1074
ισσ@@ 1074
φιλικό 1074
ειδήσεων 1074
γραμ@@ 1073
φοβόμουν 1073
χρειαζόμουν 1073
ατομική 1073
στοχεύει 1073
σημαίνουν 1073
θεμάτων 1073
αυστηρά 1073
περίεργος 1073
συνολικό 1073
αντιθέτως 1073
μεταναστών 1073
ant 1073
αρχίζω 1072
αποκτήσετε 1072
τρό@@ 1072
άξουμε 1072
ζήτησες 1072
£ 1072
ιδανική 1072
στιβ 1072
fre@@ 1072
ησυχ@@ 1071
eγώ 1071
προσγει@@ 1071
σαφής 1071
βγαίνω 1071
πόν@@ 1071
ήμαστε 1071
ρίξτε 1070
σεπτέμβριος 1070
βρεθούν 1070
κατηγορίας 1070
ηματ@@ 1070
κατα@@ 1070
λέγαμε 1070
αλάτι 1070
αποποίηση 1070
οργανισμοί 1070
φωτογραφίας 1070
μικρού 1070
επιχειρ@@ 1070
καλούς 1070
φά@@ 1069
dr@@ 1069
φτιάχνει 1069
αντιπροσωπεύουν 1069
επιθυμίες 1069
ελληνικό 1069
lo 1069
55@@ 1068
χτύπα 1068
εθνικών 1068
υση 1068
ύς 1068
πεθ@@ 1068
í@@ 1068
λίγους 1068
μετατρ@@ 1068
au 1068
ύχ@@ 1068
φάνε 1067
ογραφ@@ 1067
πώ 1067
διαφέρουν 1067
εμα 1067
αμφιβάλλω 1067
πιάστε 1066
ούμαστε 1066
mat@@ 1066
κας 1065
ίδιου 1065
βενζίνη 1065
ανθρώπινες 1065
βόλ@@ 1065
πλήρωσε 1065
εκλογών 1065
στήλη 1065
λίπος 1065
πωλ 1065
υγιής 1065
νούμερα 1065
ξεκινήσαμε 1064
αποδεικνύει 1064
συνηθισμένη 1064
πανέμορφο 1064
έζησε 1064
town 1064
περιοδικά 1064
επιτύχει 1064
επιστημονικά 1064
αντιπρόεδρος 1064
μεγ@@ 1063
φταις 1063
απενεργοποι@@ 1063
χωρι@@ 1062
χν@@ 1062
αξιολογ@@ 1062
φαγ@@ 1062
διάσημος 1061
γουντ 1061
πεν@@ 1061
αξιολόγησης 1061
επιτυχημένη 1061
συγκιν@@ 1061
ωμ@@ 1061
περιορισμένη 1061
μαλάκες 1060
che@@ 1060
πώλησης 1060
χαμένη 1060
επιστήμονας 1060
άξω 1059
og@@ 1059
ηλεκτρικά 1059
προσπάθησαν 1059
ούμενος 1059
παλαι@@ 1059
μπορέσεις 1059
ώνα 1059
ευρωζώνη 1059
πιάσεις 1058
επιστροφής 1058
ε.ε 1058
guest 1058
αίσθημα 1058
εκείνων 1058
50.000 1058
κοινων@@ 1057
χαν 1057
κάvω 1057
κατανοητό 1057
περιμέναμε 1057
θαλάσσια 1057
δέχτηκε 1057
αριστ@@ 1057
ητικού 1057
κρατική 1057
σχέσης 1057
αρνητικά 1057
ευαν 1056
γυμναστήριο 1056
πίστης 1056
μπουρ@@ 1056
όνειρό 1056
βασισμένο 1056
αποκαλούν 1055
ικανότητά 1055
ότερων 1055
ανέφεραν 1055
μές 1055
λατρ@@ 1055
ποντίκια 1055
συνεχίζουμε 1055
ενισχύσεις 1054
υποστηρίξει 1054
αλλαγών 1054
συμμετέχει 1054
άφιξη 1054
δία 1054
δικής 1054
εκθέσεις 1054
τήν 1054
καλέστε 1054
ξένων 1054
συρίας 1054
ούρα 1054
υψηλ@@ 1053
λαντ 1053
ζωη 1053
προβ@@ 1053
διάλογο 1053
θυμόμαστε 1053
ωθείτε 1052
απεργία 1052
προδοσία 1052
συναυλία 1051
πιέσεις 1051
ώνας 1051
έρθουμε 1051
πιάνο 1051
δούλευα 1051
iso 1051
πολιτικούς 1051
=@@ 1050
μπάτσους 1050
φώ@@ 1050
ίχνος 1050
κατάστασή 1050
τουτο 1050
ντελ 1050
3.000 1050
ενισχύσει 1050
σχετ@@ 1049
cookie 1049
πλούσιο 1049
bre@@ 1049
ιερό 1049
ταξιδιού 1049
ικανότητας 1049
ότου 1048
led 1048
φωνάζεις 1048
νοέμβριος 1048
νόμιζες 1048
ολοκληρώσει 1047
απομον@@ 1047
άργησα 1047
ρωσικό 1047
επιχειρηματίες 1047
δοκιμάσετε 1047
γυμνάσιο 1046
1,5 1046
παραβι@@ 1046
ss@@ 1046
διακοπών 1046
πακέτα 1046
προσβολή 1046
lin 1046
δικτύων 1045
όρων 1045
δηλητηρι@@ 1045
αυγή 1045
box 1045
μακρ@@ 1045
δάση 1045
δισεκατομμυρίων 1045
φαντάσματα 1045
κοιλιά 1045
λίζα 1045
κάλεσα 1045
4,@@ 1044
φωτ@@ 1044
χάμ@@ 1044
σάντουιτς 1044
φίλου 1044
χαμηλότερο 1044
αντιμετωπίζουμε 1044
θεωρείς 1044
απολαμβάνουν 1044
εισβολή 1043
so 1043
κρίσεις 1043
ειών 1043
καὶ 1043
γράψτε 1043
λάδι 1043
πιστέψει 1043
ευθ@@ 1042
βλέποντας 1042
διαμέρισμά 1042
5:@@ 1042
ηκε 1042
εξοπλισμός 1042
φύλλο 1042
κοσμήματα 1042
έβγαλα 1042
wil@@ 1042
προβλήματος 1041
συνεργάτη 1041
χιον@@ 1041
350 1041
αεροπορίας 1041
προπον@@ 1041
ίνος 1041
.0@@ 1041
φύλακας 1040
αὐ@@ 1040
1991 1040
εργατών 1040
ισμένες 1040
έιν 1039
ηδες 1039
place 1039
κυκλοφορήσει 1039
όντων 1039
λάπτοπ 1039
up@@ 1039
-μην 1039
καθοδηγ@@ 1038
αργήσει 1038
τρομοκρατίας 1038
μάρτιος 1037
μαι 1037
ωφελ@@ 1037
μιμ@@ 1037
αποθέματα 1037
ταιρι@@ 1037
σκατ@@ 1037
εξερευν@@ 1037
απόρρητο 1036
τέτοιος 1036
καλο@@ 1036
χαζός 1036
αρνητικό 1036
προάλλες 1036
αναγκαία 1036
ανταγωνισμό 1036
μειώνεται 1036
αγώνων 1036
λαϊκή 1036
αγοράσεις 1036
-ποιος 1036
ion 1036
ακά 1035
gps 1035
εργοστάσια 1035
ιγ@@ 1035
βιομηχανίες 1035
λυ@@ 1035
ακαδημαϊκό 1035
διαβατήριο 1035
εθνικά 1035
ενος 1035
τράβηξε 1035
πιεις 1034
συμμορία 1034
παρόμοιες 1034
mit@@ 1034
αποτελέσει 1034
νε 1034
έψαμε 1034
βεν@@ 1033
πιάτων 1033
επέλεξε 1033
ληστ@@ 1033
κερ 1033
δυνατ@@ 1032
διάβολος 1032
ja@@ 1032
ζούσαν 1032
κόρης 1032
έπεσαν 1032
ήκατε 1032
φυσιολογική 1032
ξένοι 1031
ριστ@@ 1031
η… 1031
ερν@@ 1031
πλαν@@ 1031
let@@ 1030
αλήθειας 1030
μεν 1030
καθορίζει 1030
μπατ@@ 1030
τηλεοπτικό 1030
κατανοήσουμε 1030
επιβ@@ 1029
γκαρ@@ 1029
ατες 1029
μακρυά 1029
mobile 1029
ανέλαβε 1029
πληρωμής 1029
περνά 1028
ζήτησαν 1028
πρώτων 1028
ζώνες 1028
έκδοσης 1028
χρησιμοποιήσεις 1028
-εγώ 1028
άτο 1027
πλούτο 1027
σκ 1027
1945 1027
let 1027
έξυπνα 1027
τηλεόρασης 1027
μαζική 1027
εσόδων 1027
η-@@ 1027
sun@@ 1027
ιχ@@ 1027
γυρίζει 1026
έγινες 1026
φαίνομαι 1026
λυ 1026
ιδρ@@ 1026
col@@ 1025
μελετ@@ 1025
ουσες 1025
αερίων 1025
sand@@ 1025
στρατεύματα 1025
-είμαι 1024
οποιηθεί 1024
far@@ 1024
έτρ@@ 1024
ντόναλντ 1024
άσυλο 1024
περιέργεια 1024
περιήγησή 1024
ϋ@@ 1024
αποκάλυψε 1024
ιδού 1024
χρόν@@ 1023
american 1023
χρειαστούν 1023
ήλπιζα 1023
φιλμ 1023
συνέβησαν 1022
κλαρκ 1022
μπαίνουν 1022
μπελ 1022
html 1022
ζητήσεις 1022
χάρτες 1021
oμαι 1021
πήγαινέ 1021
περίθαλψη 1021
ins 1021
κρατά 1020
ξέχασε 1020
φαντάσου 1020
καταχωρ@@ 1020
tel 1020
εξυπηρέτηση 1020
ντε@@ 1020
ji@@ 1020
tel@@ 1020
ανεβαίνει 1020
τοί 1019
zo@@ 1019
δολοφονήθηκε 1019
ποίημα 1019
περίπλοκο 1019
έριξε 1019
σύρ@@ 1019
ετο 1019
προστατεύσει 1019
προσθέτει 1018
γνωρι@@ 1018
όγκο 1018
george 1018
συμμετάσχουν 1017
ick 1017
εξαρτώνται 1017
ερμηνεία 1017
αγοράσουν 1017
ντον 1016
ψω 1016
ληφθεί 1016
επιδόσεις 1016
mer 1016
σο@@ 1016
super 1016
χαζή 1016
γραφής 1016
μητέρες 1015
εναν 1015
υποσχέθηκα 1015
ευμένη 1015
αθλητές 1015
ευτείς 1015
μάστερ 1015
κοιλάδα 1015
airport 1015
44@@ 1015
χάνω 1014
κυττάρων 1014
όδ@@ 1014
αύγουστος 1014
ύφεση 1014
bs 1013
έκθεσης 1013
πετυχ@@ 1013
ανακάλυψαν 1013
ξένες 1013
πλάι 1013
προϋπολογισμό 1013
plus 1013
τολμάς 1012
ωθώ 1012
δούλεψε 1012
σό@@ 1012
βγουν 1012
δημοσιογράφοι 1012
ματς 1012
αρκετούς 1011
φτώχειας 1011
πίεσης 1011
αίνεις 1011
υνε 1011
επιτρ@@ 1011
ζηλανδία 1011
δημοσιογράφους 1011
1993 1011
δηλώσει 1010
απ'τα 1010
μαθαίνει 1009
κοιμάμαι 1009
ομοσπονδιακή 1009
επαναστ@@ 1009
συνήθεια 1009
άται 1009
ξερεις 1009
ήπια 1008
εξασκ@@ 1008
παρκ 1008
ψευδ@@ 1008
είσ@@ 1008
εσωτερικών 1008
προπονητή 1008
πετάξω 1008
έπαιξε 1008
αναφέρθηκε 1008
εκτύπωση 1008
paris 1007
ισχυρές 1007
κοιλ@@ 1007
βιβλίων 1007
διάκριση 1007
ειακή 1007
residence 1007
επιχειρηματικές 1007
κουρασμένη 1007
φίλων 1006
καταλήξει 1006
βελτιωθεί 1006
αστές 1006
πολίτη 1006
υλοποίηση 1006
πούλησε 1006
πήρατε 1006
έθ@@ 1005
οτήτων 1005
σουηδία 1005
ρωσικής 1005
εξετάσουμε 1005
ημένους 1005
εκτιμήσεις 1005
ασμένες 1004
ms@@ 1004
παράτησε 1004
κοντινή 1004
ιούλιος 1004
lar@@ 1004
mar 1004
flash 1004
σύννεφα 1004
πίστεψε 1003
ong 1003
46@@ 1003
οδήγηση 1003
παίκτη 1003
πνιγ@@ 1003
south 1003
κήπος 1003
ωτι@@ 1003
μιλούσα 1003
κουράγιο 1003
σύγχρονης 1003
επικοινων@@ 1002
πλέ@@ 1002
ιταλίας 1002
μυρ@@ 1002
о@@ 1002
bl@@ 1002
τρέξιμο 1002
γράφουν 1001
οργάνων 1001
απόκτηση 1001
μειώνει 1001
κλέψει 1001
βρεθούμε 1001
ύπ@@ 1000
τροχιά 1000
ick@@ 1000
βιταμίνη 1000
τρύπες 1000
προσπαθήσεις 1000
σάρ@@ 1000
φα 1000
βελτιώσεις 1000
μπερτ 1000
πρωτότυπο 1000
χαίρω 1000
χέρ@@ 1000
bit 999
ασμένοι 999
εβρ@@ 999
τζων 999
αναλογία 999
ιον 999
αξιωματικός 999
σωστός 998
κοινής 998
ure 998
πλαστ@@ 998
ώδεις 998
συζύγου 998
εγγραφείτε 998
επτ@@ 998
μπήκες 998
σφραγ@@ 998
αναγκαίο 998
διαφάνεια 998
παρακολουθώ 997
καταστροφής 997
ποταμού 997
θεωρούμε 997
χασ@@ 997
πεσ@@ 997
επιβιώσει 997
πιει 997
ελέγξει 996
ηλ 996
αναθεώρηση 996
κύπρο 996
φαλ@@ 996
9,@@ 996
casa 996
χιλ 996
ay 996
υποστηρίζεται 996
έκλ@@ 996
διοργαν@@ 996
cat@@ 996
μάρσαλ 996
φυσιολογικά 995
αποχαιρετ@@ 995
βαθύ 995
εγκυμοσύνη 995
τιποτα 995
εννοείται 995
ανακοιν@@ 995
πρώτους 995
υψηλές 995
μάντσεστερ 995
str@@ 995
σταματήσετε 995
διασκεδ@@ 995
ηγέτη 995
πλάτος 995
συζητ@@ 995
bon@@ 995
λύσει 995
ντάν@@ 994
σια 994
ισχυρίζεται 994
τζωρτζ 994
πιστός 994
έλλ@@ 994
επαγγελματικά 994
αρχηγό 994
av 994
shi@@ 994
εκκίνηση 994
,000 994
πυρηνικό 993
γκαράζ 993
ωμά 993
βρίσκουμε 993
oύ 993
διακρίσεις 993
κατουρ@@ 993
παράξενη 993
όλιβερ 993
εργαζ@@ 993
βοηθούσε 993
εκτιμάται 992
εvτάξει 992
big 992
αυξήθηκαν 992
δικαστή 992
ml 992
απατ@@ 992
ευθεία 992
μίλησες 992
γουίλιαμ 991
αστής 991
μετεωρ@@ 991
δικτύωσης 991
​​@@ 991
γράψεις 991
130 991
ville 991
καλωδιακή 991
κλέφτης 991
αίας 991
μεγαλει@@ 991
τραπεζών 991
κοπέλες 990
αύξησης 990
fran@@ 990
συστήσω 990
ώρι@@ 990
παντρεμένη 990
γκολ 990
κανει 990
ep@@ 990
ταϊβάν 990
εκλ@@ 990
ώσατε 989
κολυμπ@@ 989
στοιχ@@ 989
ταΐ@@ 989
usb 989
ρωτάει 989
νται 989
ωναν 989
πόντους 989
ακου@@ 989
ασθενειών 988
μαστ@@ 988
ραβ@@ 988
ικανοί 988
δοσ@@ 988
γάλλοι 988
φέρεσαι 988
εναλλακτικές 988
ραδι@@ 987
σπορ 987
υγιείς 987
nu@@ 987
ξύπνησε 987
οργανισμών 987
έπαιζε 987
αναλυτές 987
περιορισμό 987
να'ναι 987
res 987
λείπεις 987
time 986
εσωτερικά 986
γω 986
ύπνου 986
ζαλ@@ 986
υπν@@ 986
στολ@@ 986
έλειπε 985
επιβίωση 985
επιταγή 985
ασή 985
πιστοποι@@ 985
προτιμούσα 985
βγαίνεις 985
φίδι 985
παράδεισος 984
επιλέξουν 984
μενος 984
προκύπτει 984
κατάταξη 984
τ.μ 984
τσιμπ@@ 983
ψετε 983
τρελαθεί 983
εκπαιδευ@@ 983
αρρώστια 983
ger@@ 983
ασχολ@@ 983
ηνωμένου 982
ανόητη 982
σπουδαίος 982
παρεξήγηση 982
κρατούσε 981
τρείς 981
900 981
στρατιωτικό 981
αληθ@@ 981
πε 981
κληρ@@ 980
ειν@@ 980
αναλυτικούς 980
science 980
συναισθηματική 980
χρήματά 980
αμερικανικού 980
ικώς 979
ham@@ 979
ωλ@@ 979
δοκιμάσουμε 979
ζήτω 979
σώματα 979
λόγου 979
σύμπαντος 979
φέρετε 979
ρύπανση 979
ρωση 979
αλλάχ 978
συνηθίσει 978
1960 978
περιστατικά 978
σκοτώνουν 978
βεράντα 977
διατίθενται 977
ευλογ@@ 977
εμπορικών 977
ιστούμε 977
γίνε 977
πιλότος 977
σχεδίων 977
μπαν@@ 977
ποταμό 977
υπογράψει 977
παραμύθι 976
μάγ@@ 976
sar@@ 976
αρπ@@ 976
συντήρηση 976
τριτοβάθμιας 976
βιρτζίνια 976
τρέξτε 976
αζει 976
πρότεινε 976
τόν@@ 975
αξιόπιστη 975
κόψει 975
05 975
ιατρ@@ 974
αρχίσαμε 974
αδερφ@@ 974
αυξημένη 974
λέγε 974
χρωματ@@ 974
υπαρχει 974
ary 974
βραβ@@ 974
οδηγήσουν 974
δίδ@@ 973
επιστ@@ 973
διαμ@@ 972
όι 972
απορρί@@ 972
cc@@ 972
ψεύτικο 972
ήματά 971
επέτρεψε 971
χρώματος 971
τησ@@ 971
ρος 971
εργατικό 971
ευρωπαίοι 971
ημι@@ 971
ονα 971
gro@@ 971
ίτιδα 971
πόλεων 971
χρησιμοποιήθηκε 971
ορφ@@ 971
υπάρχ@@ 970
νύχτα/άτομο 970
επισημ@@ 970
χτισμένο 970
δι 970
εποχές 970
κορυφής 970
χολ@@ 970
trump 970
ιά@@ 970
χαμηλού 969
μεξικού 969
ψαν 969
διανο@@ 969
πιείτε 969
πυρηνικών 969
φορα 969
καρδιακή 968
line 968
πρόστιμο 968
cc 968
ούρι 968
διαρκέσει 968
τερα 968
παραμονή 968
ο.@@ 968
εξοπλ@@ 968
τρο 967
ανοίξετε 967
αναπτύχθηκε 967
παίξουν 967
βολή 967
ενο 967
ανακαλύψεις 966
ψουμε 966
υπερβαίνει 966
ελίζαμπεθ 966
ασυνήθιστο 965
διαθήκη 965
αγχ@@ 965
βυζιά 965
συνεδρίαση 965
πάλη 965
ησω 965
ψη 965
φροντίζει 965
πρωταθλητής 965
άρουν 964
έννοιες 964
ψηφοφορία 964
αιμ@@ 964
νιώθετε 964
ot@@ 964
4:@@ 964
χάθηκαν 963
επαφής 963
παιδια 963
άσκησης 963
ξεκινήσουν 963
κέρδισα 963
ώνται 963
χάλυβα 963
προαγωγή 963
ανατολικής 963
γερμανός 962
ηρεμήστε 962
προσέχει 962
γονίδια 962
ηθικό 962
4-αστέρων 962
μεταμορφ@@ 962
νόμπελ 962
φιλντ 962
ψάξω 962
express 962
ποιανού 962
а@@ 962
εμε 961
ζη@@ 961
ιδιοκτήτη 961
χρέωση 961
διαλέξεις 961
ελέγξετε 961
απειλεί 961
παραδοσιακή 960
απολαύστε 960
επικίνδυνος 959
ave 959
προέκυψε 959
οικονομ@@ 959
ς/@@ 959
αλλο 959
δίνετε 959
ήγ@@ 959
δυτικής 959
φαξ 959
τούρτα 959
έων 958
ημουν 958
υπεύθυνο 958
dar@@ 958
garden 958
πηγαίναμε 958
γάμα 958
σχεδιασμένο 957
πιστέψτε 957
eσύ 957
ζημιές 957
2ο 957
τουμε 957
σμός 957
παρατηρήσεις 957
παραβ@@ 957
γεύματα 957
excel 957
pa 957
αστο 957
ίτ@@ 957
6:@@ 957
πέμπτο 957
αντέξει 956
τοπίο 956
110 956
ικετεύω 956
ώνες 956
κολλήσει 956
ίζαμε 956
όνο 956
έλθει 955
ψα 955
εξάλειψη 955
ama@@ 955
12.@@ 955
κίνητρα 954
δείκτη 954
άτων 954
εψες 954
ευχαρίστως 954
δασ@@ 954
αυτό@@ 954
γκρι@@ 954
ντάρ@@ 953
σχολές 953
τρελά 953
ελεύθερου 953
ενθαρρύνει 953
ku@@ 953
καταγρ@@ 953
ξεκιν@@ 953
λιγότερες 952
comment 952
γυναικεία 952
χρωστ@@ 952
μάτ@@ 952
drive 952
συμμετοχής 951
smartphone 951
αστη 951
ξυπνήσει 951
προσευχ@@ 951
τέχνες 951
επεισόδια 951
τζόουνς 951
θετικές 951
αποκτ@@ 951
βλάψει 951
εξελιχθεί 951
δει@@ 950
αποφασ@@ 950
rooms 950
20.000 950
προσεκτικοί 950
χαμογελ@@ 950
ανο 950
φτωχ@@ 950
εφιάλτης 950
εξαφάνιση 950
επικαλ@@ 950
συνδυάζει 949
ψυχική 949
αστειεύεσαι 949
πέραν 949
σταματά 949
κανω 949
εφαρμόζεται 949
φέρνουν 949
έφαγα 948
συνόρων 948
γρήγορος 948
sta@@ 948
ίρ@@ 948
στείλουν 948
κατά@@ 948
μακρά 947
αποφασίσαμε 947
σούπα 947
ητοι 946
σταθερ@@ 946
-εσύ 946
μεταβ@@ 946
ασχολούνται 946
φρεντ 946
ιμοι 946
υπάλληλος 946
κλειστά 946
άρθρο@@ 946
κοιμούνται 946
αισθήσεις 945
μπαταρίες 945
χειρουργ@@ 945
λαμβάνονται 945
← 945
συναρπαστική 945
van 945
island 945
μ.@@ 944
συμπεράσματα 944
δεχ@@ 944
ναζ@@ 944
φινλανδία 944
τούνελ 944
cy 944
κουζίνας 944
επιλέγουν 943
ξεκ@@ 943
μόλυνση 943
κεν@@ 943
πολλ@@ 943
γνώρισε 943
τιμ 943
κανονισμούς 943
ze@@ 943
υπ 942
f-@@ 942
αγκαλι@@ 942
λέγατε 942
ποι 942
bri@@ 942
δεκαπέντε 942
θερμίδες 942
ύσ@@ 942
συνομιλία 942
son@@ 941
συνάρτηση 941
χρηματ@@ 941
δάνεια 941
ασμ@@ 941
10:@@ 941
ώv@@ 941
παιδικά 940
χαμένο 940
δοκιμών 940
ανθρω@@ 940
εξετάζει 940
άμι 940
γυρίστε 939
ίδι 939
αντικειμένων 939
αποφάσισαν 939
σταθμούς 939
εσης 939
10-λεπτά 939
τρυπ@@ 939
σκοτώνεις 939
centre 939
νομοσχέδιο 939
πεπρωμένο 939
ινή 938
ακομα 938
μύθος 938
τρομερή 938
τόμι 938
hen@@ 938
έγκ@@ 938
holiday 938
eυχαριστώ 938
ώθηκα 937
αποδεχ@@ 937
ff 937
εορτ@@ 937
υποφέρουν 937
'ολα 937
zi@@ 937
ξαπλ@@ 937
διπλασι@@ 936
εύτηκαν 936
έγραψες 936
φόρο 936
ακριβής 936
μπρους 936
παραγωγ@@ 936
ευγενικός 936
κινηματογραφ@@ 936
συσκευασία 935
μετατραπεί 935
κινδυνεύει 935
ένιο 935
€@@ 935
αρχίζεις 935
πείνας 935
τέλ@@ 934
αντικ@@ 934
τσακ 934
τραύμα 934
αποικ@@ 934
ίκι 934
ιωάννης 934
ιερουσαλήμ 934
are 933
log@@ 933
que 933
μπραντ 933
πάθ@@ 933
χρησιμοποίησαν 933
πνεύματος 933
ανεργία 933
μμ@@ 933
new@@ 932
visa 932
μαθητή 932
παράπονα 932
αστώ 932
εθεί 932
αγαθών 932
χε 932
έμπνευση 932
διάσημο 931
άτι@@ 931
έχε 931
προτιμ@@ 931
κόψε 931
μιλήσουν 931
ευρήματα 931
ιστότοπος 930
γκερ 930
υπάλληλοι 930
επαγγελματικές 930
κατέστρεψε 930
σημαντικότερο 930
πήγαιναν 929
ίτα 929
κρυφ@@ 929
πόσους 929
χημεία 929
wordpress 929
διοικητικό 929
ζεστή 929
αυτοκτονίας 929
νεκρ@@ 929
εισαγγελέα 929
κασέτα 929
03 928
ταν@@ 928
προπονητής 928
διέταξε 928
εγκυμοσύνης 928
διαθεσιμότητα 928
ήμισυ 928
ημένων 928
αποφασίζει 928
πληρώνω 928
θυμάτων 928
μασάζ 928
αμερικανικών 928
mail 927
προκαλέσουν 927
γέρ@@ 927
βίβλο 927
blue 927
εντυπωσι@@ 927
ζωτικής 927
hor@@ 927
σταυρό 927
μετανάστευσης 927
επιστημονικής 926
ωστε 926
δημοψήφισμα 926
νιώσει 926
μαρκ@@ 926
τυφλός 926
αια 925
επιστρέφουν 925
επανάληψη 925
υπέροχος 925
φυλακές 925
μέτρηση 925
λέγ@@ 925
αποτύχει 925
ίδιας 925
ρομαντική 925
κια 924
αδελφές 924
ενς 924
ira 924
φαρμακ@@ 924
στέγη 924
θελετε 924
μετανάστευση 924
mus@@ 924
ομίλου 924
ευρω@@ 924
εχετε 924
τάν@@ 924
αντίγραφα 924
ταυτ@@ 923
af@@ 923
μισούν 923
fri@@ 923
ξένη 923
λαμβάνετε 923
παράλογο 922
άρχοντα 922
άνευ 922
πλησι@@ 922
βρετανοί 922
δίνοντας 922
δαν@@ 922
ουκρανίας 922
los 922
μάγος 922
char@@ 921
κεφαλαίων 921
σύνοδο 921
ters 921
εξασφαλ@@ 921
αναμφίβολα 921
μολ@@ 921
μπορέσουν 921
δάχτυλο 921
εμφανίζει 921
αίες 921
αποτυπώματα 921
van@@ 920
χάνα 920
κερδίσουν 920
εξυπν@@ 920
τεχνητή 920
east 920
φόρος 920
αναπαραγωγή 920
αποκαλύπτει 920
μεί@@ 920
ινά 919
ς- 919
αξιοπιστία 919
νησιού 919
ένταλμα 919
άκ 919
central 919
δέν@@ 919
8,@@ 919
εκκίνησης 919
ws 919
προσεγγ@@ 919
οντος 919
ετρ@@ 918
μένουμε 918
αθλ@@ 918
πολέμους 918
πετρούπολη 918
ιατρικές 917
τίνος 917
χοι 917
σολ@@ 917
βαθμοί 917
φωνάζουν 917
συσχετ@@ 917
κατανοήσουν 916
φύλακες 916
ελά@@ 916
δημοφιλές 916
μόδα 916
ε… 916
επικοινωνιών 916
ανταγωνισμός 915
ότητάς 915
κοιτάξουμε 915
ευρωζώνης 915
ιού@@ 915
γελάς 915
καθοδήγηση 915
ποιοί 915
σηκωθείτε 915
αυλ@@ 915
cap@@ 915
gs 915
xbox 914
κεντρ@@ 914
ζητάμε 914
χαιρ@@ 914
προσωπ@@ 914
εταιρική 914
πείραζε 913
αναγκών 913
μέι 913
δαγκ@@ 913
δευτερ@@ 913
ξεκινήστε 913
περνάμε 913
ινό 913
net@@ 913
χρηματοδότησης 913
φαινόμενα 913
σταυρ@@ 912
δυτικό 912
βοηθάς 912
στέρ@@ 912
λατινική 912
έτο 912
γκρέις 912
ξέρατε 912
000@@ 912
επιδιώκει 912
γάλλος 911
κληρονομιάς 911
μουσεία 911
ιακ@@ 911
συμφώνησε 911
αποδείξω 911
εντοπίσει 911
μοιραστώ 911
ασέ 911
επιβεβαίωση 911
σταμ@@ 910
έπαιρνα 910
διατυπ@@ 910
σή 910
oί 910
προσωρινή 910
ντού@@ 910
εκπαιδευτικών 909
κλασικό 909
gam@@ 909
1950 909
βασικός 909
δεκέμβριος 909
τετρ@@ 909
χιλι@@ 908
ξεχνάτε 908
ια@@ 908
άρκ@@ 908
ανο@@ 908
δόκτωρ 907
θήκη 907
αναπαρ@@ 907
φροντ@@ 907
προκαλ@@ 907
νομικό 906
ρωσικά 906
hy@@ 906
σκι@@ 906
καταργ@@ 906
νιου 906
λούσι 906
π. 906
αντζ@@ 905
μάγκα 905
αδάμ 905
ματικό 905
ίντ 904
ακύρωση 904
πίνουν 904
αεροπορία 904
εξόδου 904
φιλιππίνες 904
δοκιμάσεις 904
περνάω 904
super@@ 904
δημοσίευσε 903
παμε 903
hack 903
καταδ@@ 903
αμάντα 903
οδοντ@@ 903
φροντίσει 903
διάρκειας 903
άποψή 903
ούμενα 903
ηρεμία 903
πολλαπλασι@@ 903
π.μ 902
μαλακό 902
πλοίου 902
ψες 902
κατασκευάστηκε 902
παρέχοντας 902
τόσοι 902
συνιστάται 902
βιν 902
μηχανήματα 901
νοσηλ@@ 901
a.@@ 901
square 901
sea 901
συμβάλει 901
προέλευση 901
όβ@@ 900
ντο 900
ζούγκλα 900
g-@@ 900
πουλάει 900
αρνητική 899
μοίρες 899
χαρτο@@ 899
υπολογίζεται 899
επιτέθηκε 899
κούρ@@ 899
αποτρ@@ 899
management 899
αυτοκτόνησε 899
διηγ@@ 899
παραπ@@ 898
ευτώ 898
όλι 898
νεκρών 898
μεταρρύθμιση 898
ανατολής 898
στάλιν 898
αστα 898
διαστημικό 898
αλληλ@@ 898
τσες 897
ποιητής 897
ητικών 897
αινε 897
εταιρ@@ 897
υποσχέθηκε 897
πόρ@@ 897
ρισα 897
εκτιμά 897
υποσχ@@ 897
πούλ@@ 897
αναβαθμ@@ 897
δισ@@ 897
ja 897
οσο 896
βασιλεία 896
τέ@@ 896
αρθρα 896
μεγέθη 896
χένρυ 896
παίξτε 896
sharepoint 895
επιβεβαίωσε 895
απόλαυση 895
μισείς 895
περίθαλψης 895
φάρμα 895
απρίλιος 895
πρίν 895
ιταλική 894
κύκλου 894
101 894
σύσκεψη 894
σωματ@@ 894
ταχυδρομ@@ 894
σταδιοδρομίας 894
τζεφ 894
ical 893
εξέλιξης 893
αστείς 893
άζαμε 893
χμ 893
σωστές 893
εκκλησίες 893
καλέ 893
ak 893
τζούλια 893
ονομα 893
απόπειρα 893
αει 892
κανονίσω 892
καθαρός 892
άλλης 892
ήττα 892
εισαγωγές 892
ry@@ 892
αντιστοιχεί 892
sen 892
ons 892
χορού 892
unix 892
μέθοδοι 892
μαθηματικών 891
παλιός 891
συγκέντρωσης 891
ώμο 891
ασμούς 891
ερευνητικό 891
επιχείρησή 891
άσκ@@ 890
έσουν 890
όντουσαν 890
καταθ@@ 890
βαρετό 890
ετοιμαστείτε 890
tw@@ 890
εγκαίρως 890
εισαγγελέας 890
ach@@ 890
αυτης 890
αλλ 890
οικονομικού 890
συζητάμε 889
ator 889
απέκτησε 889
ανό@@ 889
στατ@@ 889
συμβούν 888
αφρικαν@@ 888
εννοεί 888
τοσο 888
απλές 888
οικογένειάς 888
αυτην 888
συνεργάζεται 888
εκλογ@@ 888
γραμμένο 887
ινη 887
εμφάνισης 887
δυναμικού 887
υγρασία 887
έμμα 886
ταξιδιώτες 886
service 886
διεκδικ@@ 886
tor 886
επιχειρηματίας 886
d'@@ 886
έψτε 886
διεθν@@ 886
δημοτικό 886
τζι@@ 885
33@@ 885
αγοράζουν 885
γιού@@ 885
χτυπήσεις 885
β. 885
ell 885
ίδρυση 885
κελ@@ 885
συνεδριακό 885
βουδαπέστη 885
φαντάζεσαι 884
λογοτεχνία 884
αναστατ@@ 884
καταλάβατε 884
ὅταν 884
μεγαλύτερους 884
games 884
άδειες 884
μολυσ@@ 884
καθιστώντας 884
έρας 884
απρόσ@@ 884
ram@@ 884
πραγματοποι@@ 883
θεση 883
μηνύματος 883
οίκου 883
ιακούς 883
υποψήφιος 883
ρωτήσει 883
συνδεθεί 883
χτύπησες 883
side 882
ισμών 882
ρότζερ 882
αγαπάτε 882
μνημείο 882
προτιμούν 882
μων 882
κλείσεις 882
περιοχών 882
ben 882
ισέ 882
ιτ 882
χάρολντ 882
ειδοποι@@ 882
απ΄@@ 881
πραγματοποιείται 881
aν 881
μέσης 881
αερο@@ 881
τουρίστες 881
συζη@@ 881
παλαιότερα 881
συστατικό 881
αβραάμ 881
συμφώνησαν 881
χιλιάρικα 881
πρακτικής 881
τσί@@ 881
αμήν 881
αναγνωρίσει 880
μπρος 880
κρεβατιού 880
ορίζεται 880
ητά 880
tan@@ 880
καιρούς 880
μ'αυτό 880
λείψει 880
λεωφορείου 880
υποδομές 880
συγχρον@@ 880
uni@@ 879
04 879
διαπίστωσε 879
μπερ 879
σπάνιο 879
ομοσπονδία 879
γεμ@@ 879
απαίτηση 879
γεγονότων 878
αποδεικνύεται 878
διανομής 878
ιερέας 878
ντιν 878
ung 878
μούς 878
συμβάν 878
πλακ@@ 878
μαγν@@ 878
ast@@ 878
λουλούδι 878
νερ@@ 878
λεγει 878
περιθώριο 877
ade 877
σύν@@ 877
απομείνει 877
υνση 877
αγοράζει 877
port 877
ησεις 877
σκου@@ 877
ίδης 877
wood 877
ξεχάσουμε 877
εντούτοις 876
εμπειρογνώμονες 876
διδάξει 876
ηθήκαμε 876
φεβρουάριος 876
ανός 876
υποβολή 876
σοβαρός 875
67@@ 875
δάνειο 875
κωδικούς 875
μπορεις 875
ενημερώσω 875
μπήκαν 875
όγκ@@ 875
μάγια 875
εσαν 875
σταθεί 875
συνεργαστεί 875
διαιρ@@ 874
ιστικός 874
αυτί 874
μπολ 874
μπαίνεις 874
μαυρ@@ 873
ite 873
συμπερ@@ 873
ενεργειακή 873
διπλά 873
store 873
χόλ@@ 873
life 873
επαναλαμβάνω 873
σχέδιό 872
φάν@@ 872
2030 872
ανέβει 872
αναφερ@@ 872
ανταλλαγής 872
ρον 872
όσασταν 872
βέρ@@ 872
θυμηθώ 871
πιστωτική 871
ομορφιάς 871
χει 871
καίει 871
συνοδ@@ 871
ίδιους 871
δείκτες 871
σταματάει 871
άγνωστη 870
σταθ@@ 870
καβ@@ 870
παγκοσμιοποίηση 870
θανάτους 870
άνετη 870
ίστρια 870
ζωγραφ@@ 870
βρίσκονταν 869
ξένο 869
ύπαρξης 869
ερευνητικά 869
ομολογ@@ 869
т@@ 869
dan@@ 869
εγγράφων 869
χωριά 869
αγοράκι 869
πράσινα 869
παρέμβαση 868
βραζιλίας 868
χρυσάφι 868
οί@@ 868
φυτό 868
δεχτώ 868
τζόι 868
ίζεστε 868
καυτό 868
καταλαβαίνουμε 868
δωματίων 868
μπιν 867
ινές 867
στηρ@@ 867
συμμάχους 867
village 867
διαφθορά 867
ελαφρ@@ 867
ίξ@@ 867
αφοσίωση 867
κρατήσουν 867
tion 867
τρέξει 866
μάζα 866
εστίαση 866
tώρα 866
ιστείς 866
εξαντλ@@ 866
ιραν@@ 866
ανταποκρίνεται 866
γιός 866
ακούστηκε 866
όβερ 866
νου@@ 866
συμπληρ@@ 866
νόμιζε 865
παίζετε 865
ατυχήματα 865
τελείωσαν 865
λευ@@ 865
υκ@@ 865
κινγκ 865
λύκος 865
ραγ@@ 865
νησ@@ 865
εγω@@ 865
πλούτου 865
θεωρηθεί 865
τελειώσεις 865
βι 865
ξέφυγε 865
γνώριζα 864
κοστίσει 864
αιτήματα 864
κακοποι@@ 864
μακροπρόθεσμα 864
st. 864
λέοναρντ 864
τρέχεις 864
49@@ 864
ακρόαση 864
εξέγερση 864
έθνους 864
αληθεια 864
ουκραν@@ 864
μάρκο 863
επισ@@ 863
ειλ@@ 863
απαντά 863
ικά@@ 863
ακούσαμε 863
μειώθηκε 863
ευχαριστω 863
ιάπωνες 863
μεγαλώνουν 863
όνων 863
ησής 863
φόρους 863
οσι@@ 863
11:@@ 863
ζητήσετε 863
dr 862
βέλ@@ 862
επισήμως 862
κυνηγάει 862
μετρι@@ 862
κείμενα 862
άσσ@@ 862
ουσιών 862
ύποπτο 862
ανθρώπινων 862
ένια 862
σκορ@@ 861
πλαστικό 861
ara 861
χάλασε 861
tran@@ 861
ντελ@@ 861
kon@@ 861
διψ@@ 861
πρόβλεψη 861
γερμαν@@ 861
fl@@ 861
συνθηκών 861
ίστηκα 861
διάγραμμα 861
ευγνωμοσύνη 860
jack 860
άρεσαν 860
ετή 860
αυτοκρατορίας 860
ωμένων 860
2,5 860
ουάου 860
ετη 860
πείς 859
ζεστά 859
βρομ@@ 859
χίλ@@ 859
maria 859
κοινοβουλίου 859
νότο 859
χριστουγέννων 859
ανεξαρτησίας 859
οποιεσδήποτε 859
ανοικτή 859
ρόμπιν 859
φρέσκο 859
σκότωσέ 858
martin 858
'λεξ 858
μακρύ 858
είμ@@ 858
οροφή 858
ηλιακό 858
θυμό 858
χρέη 858
2η 858
old 858
γερμανούς 857
δρομ@@ 857
νόμιμο 857
νόσο 857
εκδηλ@@ 857
μυθιστόρημα 856
επηρε@@ 856
ψυχής 856
διαμόρφωση 856
αφήνοντας 856
διαχειριστές 856
ζώνης 856
καναδ@@ 856
σεφ 856
μέλι 856
στρώμα 856
συλλογής 856
επιθυμ@@ 856
κρατη@@ 856
5-λεπτά 855
χαλαρ@@ 855
σούζαν 855
ιζόταν 855
κάvει 855
πρόβατα 855
συμφωνούν 855
πόροι 854
τρελοί 854
βλακεία 854
όρ 854
φιλενάδα 854
07 854
κάτσω 854
φόρμας 854
άριο 854
ιστότοπό 853
ιδου 853
ντέ@@ 853
tom 853
ερωτευμένη 853
νος 853
συμπαθώ 853
πλάνο 853
μπόρεσες 853
σ΄ 853
άλμα 853
έμενε 853
εργαστούν 853
επιτυχ@@ 853
γεωργίας 852
ξανακ@@ 852
μήνυμά 852
θέαμα 852
ουρανός 852
oh 852
χριστιανός 852
νοιώθω 852
κρατάμε 852
αρνηθεί 852
δεξι@@ 852
washington 851
καταγραφή 851
τρελάθηκες 851
σετε 851
συνδέ@@ 851
ita 851
key 851
παρέμεινε 851
καταβ@@ 850
κινηματογράφου 850
ty@@ 850
μαθαίνεις 850
ρεύματος 850
02 850
ειμαστε 850
β΄ 850
ετο@@ 850
υποστηρικτές 850
συνεργάζονται 850
ski 850
π.@@ 850
ληφθούν 850
δουλέψεις 849
προμηθευτές 849
ς.@@ 849
κατέβα 849
πεινάς 849
ήλ 849
πιλ@@ 849
blo@@ 849
αναλάβω 849
du 849
κατασκευαστής 848
χάσουν 848
καιρού 848
ριζε 848
πιστόλι 848
αγαπημένος 848
γνωρίζοντας 848
ακτίνα 848
ye@@ 848
υπέγραψε 847
flo@@ 847
καλλ@@ 847
γκαρνταρόμπα 847
dia 847
ισμένων 847
cro@@ 847
τόπου 847
εδάφη 847
νομικές 846
αιτήσεις 846
anda 846
ρώμης 846
hi 846
βγήκα 846
μακρο@@ 846
αναγνώστες 846
παρουσίασε 846
καλής 846
μόργκαν 846
πεθαίνω 846
κοιτάω 846
ουδ@@ 845
γοητ@@ 845
κουτιά 845
ans 845
netflix 845
γόνατα 845
εβραίος 845
res@@ 845
δημοκρατική 845
ειπ@@ 845
δομές 845
γενεθλίων 845
ασθεν@@ 845
χτύπησα 845
έπιασαν 845
εισαγωγ@@ 845
λο@@ 845
γύρ@@ 844
dri@@ 844
ada 844
ενδιαφέρουν 844
ταξιδεύουν 844
ηδ@@ 844
σπηλιά 844
δικαστ@@ 844
θέρετρα 844
πύργος 844
mas@@ 844
κρατούν 844
κυκλοφορεί 844
ξεκίνημα 844
mark 844
κρατικό 843
ανακαλ@@ 843
τικών 843
τσο 843
ir 843
κινς 843
γλωσσών 843
φορτηγάκι 843
γραμματ@@ 843
χό@@ 843
μαύρες 842
αστυνόμε 842
νεαρέ 842
po 842
-μα 842
επέστρεψα 842
αίγυπτος 842
ευτικά 842
πίτα 842
κατοίκων 842
έκκληση 842
λίντα 841
σοβιετικής 841
γιό 841
παιδείας 841
κρί@@ 841
αντίθετη 841
σημερα 841
ιστό 841
ναυτικού 840
ζήτησης 840
ιδιότητα 840
κάθισμα 840
show 840
νει 840
κς 840
άμμο 840
μικρών 840
κρυπτογράφηση 840
σάντα 839
ώνεσαι 839
εύα 839
κανόνων 839
cer@@ 839
κύκλους 839
ken@@ 839
βιο@@ 839
nat@@ 839
ταχεία 839
τελειώνουμε 839
διχ@@ 838
ισχυρά 838
ber 838
θάλαμο 838
σίδερο 838
περιβαλλοντική 838
διευρ@@ 838
σχηματ@@ 838
σκεφ@@ 838
στέλνουν 838
® 837
06 837
δημιουργική 837
νικητές 837
αεροπορικές 837
απορροφ@@ 837
σκοτωθεί 837
αδελφοί 837
εργασ@@ 837
ευόταν 837
ζωγράφ@@ 837
παραγ@@ 837
πληγές 837
αγγίξει 837
συνταγ@@ 837
παγκόσμιων 837
εσας 836
βράδια 836
comp@@ 836
160 836
έπλ@@ 836
57@@ 836
standard 836
φανταστική 836
mozilla 836
έο 836
ζωνταν@@ 835
καριόλη 835
κορε@@ 835
μελετών 835
καθολική 835
όγκος 835
φράνσις 835
άστρα 835
σκοτώστε 835
συγχρονισμός 835
ύφος 835
μικροκυμάτων 835
20-@@ 834
xi@@ 834
διαταραχή 834
έξυπνοι 834
ισπανίας 834
παρελθόντος 834
ητικούς 834
βραχ@@ 834
δώ@@ 834
βγάλουν 834
ξένος 834
ιακοί 834
é 834
ηκαν 834
γαμημένα 834
πολεμική 833
φορτηγά 833
τηθεί 833
περιοδεία 833
ότες 833
mis@@ 833
μαθαίνουμε 833
περπάτημα 833
ακόλουθες 833
μισέλ 833
κοινές 833
μπλοκ 833
γιοι 832
αποφευχθεί 832
εύομαι 832
διάσωση 832
αυτοκράτορας 832
ουντ 832
φτιάχνω 832
ευρωπαϊκών 832
απουσία 832
υχ@@ 832
στα@@ 832
καταφ@@ 832
ö@@ 832
ελαφρώς 832
πηγών 832
υπεράσπιση 832
οv 831
ισχυρός 831
ίκ 831
ris 831
und 831
πάτρικ 831
μέρας 831
μπεθ 831
σίτι 831
χοντρ@@ 830
σωθεί 830
ροής 830
bmw 830
tag 830
α΄ 830
αποτελ@@ 830
συμβολή 830
αποσύρ@@ 830
γαλαξία 830
γιορτάσουμε 830
ονόματι 829
χάρβαρντ 829
ny@@ 829
τησης 829
διαμάχη 829
ταινιών 829
βουλή 829
κλείσουν 829
μπυ 829
γενικής 829
υποβρύχιο 828
500@@ 828
αξιοποι@@ 828
βασιλικό 828
γεμάτα 828
πάρκινγκ 828
σταμάτησα 828
εφαρμοστεί 828
πιάνεις 828
ακής 828
πουτάνα 828
αχθεί 828
έλειψες 828
άγαλμα 828
ένιωθε 827
ονόματος 827
sh 827
κοριτσιών 827
е@@ 827
κ.λπ 827
αριστερή 827
-αλήθεια 827
αποφυγή 827
θόρυβος 827
βγήκαν 827
φτωχοί 826
ακρο@@ 826
-΄@@ 826
τελειώσουν 826
σάμ@@ 826
dy@@ 826
od@@ 826
πιθαν@@ 826
θερμοκρασίας 826
ακόλουθα 826
be 826
μήλο 826
λειτουργικά 825
µα 825
αξη 825
black 825
αυστηρή 825
άρνηση 825
ρόουζ 825
χαμηλότερη 825
συστάσεις 825
ρυθμούς 825
οδήγησαν 825
δεν@@ 825
φού@@ 824
ατού@@ 824
έντονο 824
μάρκες 824
ισον 824
όνη 824
ίθ@@ 824
άζεσαι 824
συναισθήματά 824
ωτικά 824
νοικι@@ 824
επιστημονικό 824
μαθαίνω 824
ίμ 824
δημιουργείται 824
δάσκαλο 823
προειδοποίησε 823
φάκελος 823
βασικών 823
99@@ 823
σημειώνει 823
θεωρητικά 823
έντα 823
προβολές 823
πρόθυμοι 823
ανοίξουμε 823
πολων@@ 823
ταράτσα 822
παραγωγός 822
επιθέσεων 822
ανατ@@ 822
δεδομένο 822
θυμωμένη 822
ευφυ@@ 822
προσπαθ@@ 822
αρνητικές 822
κόπ@@ 822
μικροί 822
άρουμε 821
σύγχυση 821
προέλευσης 821
μετακομ@@ 821
'κουσα 821
lee 821
περιβάλλοντα 821
ίσματος 821
περιπλαν@@ 821
ελι@@ 821
τζέισον 820
προϋπολογισμού 820
συμβάλλει 820
lake 820
μάρκετ 820
sil@@ 820
χει@@ 820
08 820
ταυτότητά 820
ντό@@ 820
φόρα 820
γριά 820
ανατρέξτε 820
άμεσο 820
κινήματος 820
/a 820
μοιάζω 820
έδειχνε 819
προορισμός 819
αστε 819
ιστώ 819
ταγ@@ 819
15-λεπτά 819
πετάς 819
'θελα 819
λαμβάνεις 819
αμερικανικά 819
μπελ@@ 819
τόνυ 818
ρι 818
λατρεύει 818
κομψό 818
επιστημονικές 818
ψάρεμα 818
αποκτήστε 818
διάσημη 818
τζος 818
αμφιβολίες 818
όμιλος 818
αιτι@@ 817
χρωμάτων 817
έθηκαν 817
σημειώνεται 817
ενσωμάτωση 817
σαι 817
νόμιμη 817
εκτρ@@ 817
λάβ@@ 817
αναθ@@ 816
υποψήφιοι 816
μηv 816
άντι 816
αφήνετε 816
σύνδρομο 816
βελτιώσουν 815
πλο@@ 815
τραυματίες 815
σύμβολα 815
λιοντάρι 815
άνει 815
ενηλίκων 815
ταχύτερα 815
τρομερά 815
άσσονται 815
τοποθέτηση 815
υνσης 815
τρίτα 815
δισεκατομμύριο 814
καταλήγει 814
καθαρίσει 814
χαμ 814
wall 814
θεου 814
ημερ@@ 814
studio 814
τελείωσες 814
sony 814
διοικητή 813
προτιμήσεις 813
ιδιαιτέρως 813
εξω 813
εγχείρηση 813
κρέμα 813
γράφ@@ 813
ωτής 812
κιν 812
τούνται 812
ελπίσουμε 812
ευτυχ@@ 812
αγωγ@@ 812
τολ@@ 812
κλί@@ 812
μοναδ@@ 812
ικους 811
ντόν@@ 811
τσου@@ 811
άλαν 811
νικήσουμε 811
τένις 811
οποιουδήποτε 811
ακολούθησαν 811
φανταστεί 811
απόφασή 811
καθιερ@@ 811
φίλτρο 811
λίνκολν 810
σκοπεύω 810
σηκώστε 810
αποτελεσμάτων 810
καταστρέφει 810
πραγματοποιήσει 810
προεδρ@@ 810
αγίας 810
προμήθειες 810
ρύζι 810
κλίντον 810
58@@ 810
τερο 809
βουλγαρία 809
δων 809
σχετικα 809
κροατία 809
δεσμούς 809
κάρολ 809
βούληση 809
επαναφορά 809
είπ@@ 809
αρθρο 809
ou@@ 809
βγάζουν 808
δεκ@@ 808
οζ@@ 808
ντρέπομαι 808
επίπεδη 808
πεδίου 808
κοιμήσου 808
επιλεγμένα 808
χρήσιμες 808
κλίματος 808
μετρήσεις 807
παντρεμένοι 807
οδηγήσω 807
ωτό 807
βορ@@ 807
τροπ@@ 807
ντοκιμαντέρ 807
πίστεψα 807
πέστε 807
τηθούν 807
κυριου 807
απλα 807
ετικά 807
πς 807
καριέρας 807
arts 806
νιώσω 806
συναγερμός 806
κινέζικα 806
ένοπλες 806
βαθμ@@ 806
κύριες 806
φωτογράφος 806
εύεσαι 806
κατασκοπ@@ 806
έλο 806
άδας 806
όρκο 806
kin@@ 806
χαμηλής 806
2/@@ 806
διορθώσεις 806
οικοδόμηση 806
οξύ 806
ητων 806
γράψετε 805
κατάλληλες 805
πολης 805
min 805
ανάποδα 805
ρώ@@ 805
χιούστον 805
κοιτάει 805
χολμς 805
προβλέπεται 805
διαχειριστή 805
απομακρύν@@ 805
πόκερ 805
λοχαγέ 805
σταματάς 805
επικοινωνίες 804
εργαστεί 804
unesco 804
επωφελ@@ 804
и@@ 804
09 804
νόσου 804
τεχνικών 804
όραση 804
υποθέσεων 804
ψεύτης 804
ομαδ@@ 804
μανχάταν 803
πιστοποίηση 803
νεκροταφείο 803
μπότες 803
σκηνές 803
2-αστέρων 803
παράγραφος 803
σταθείτε 803
κίνδυνοι 802
υποδοχής 802
θύ@@ 802
διαπραγμάτευση 802
πουκάμισο 802
απολαύσουν 802
πείσει 802
εμπλέκονται 802
καλύπτουν 802
ισλαμ@@ 802
καταγραφής 802
ουά@@ 802
ψάξουμε 802
έρχεστε 802
πρoσ@@ 801
ευελιξία 801
άξτε 801
καίγεται 801
παρουσιάζουν 801
πάγου 801
ot 801
καλλιτέχνη 801
διευθύν@@ 801
βρώμικο 801
λαίδη 800
σαφή 800
διευκριν@@ 800
α/@@ 800
αρχίσετε 800
συσκευ@@ 800
πλέν@@ 800
ρυ@@ 800
βρετανικό 800
ρολόγια 800
εἶναι 800
oc@@ 799
άνη 799
γνώσεων 799
link 799
κεν 799
λάβαμε 799
πυρά 799
ερες 799
χαρούμενοι 799
κινδύνων 799
σύνδεσμο 799
wa@@ 799
5η 799
κλείσουμε 799
καφ@@ 799
ανατολικό 798
μαρτυρ@@ 798
άρες 798
περιορίζεται 798
ελέγξουμε 798
αδύναμος 798
north 798
ol 798
4.000 798
παρούσας 798
άρετε 798
διαδικασιών 798
χάπι 798
αμερικαν@@ 798
προγραμματισμού 798
ωτο 798
συνιστά 798
κλέφτες 798
αντλ@@ 798
ico 797
μελετήσει 797
εβδομάδων 797
πλουσι@@ 797
φαντασίας 797
μών 797
φωτογραφιών 797
νοημοσύνης 797
εμπορ@@ 797
μπεν@@ 797
αλληλεπίδραση 797
κατέβασε 797
αγγλικής 797
ίλι 797
ρίχνει 797
ise 797
έκτοτε 797
12:@@ 797
συνήθ@@ 796
βάζουμε 796
χτυπήσω 796
έσετε 796
νίκησε 796
μικ@@ 796
καβαλ@@ 796
ολόγοι 796
θαμ@@ 796
αυρ@@ 796
απάντησή 796
επαγγελματικής 796
επικοινωνήσετε 796
απευθύνεται 796
διευθύνσεις 796
αποφ@@ 795
επιτύχουν 795
φυσικός 795
τραβήξει 795
ξανακάνει 795
265 795
ετήσιο 795
γνωστές 795
ona 795
όπερα 795
γιορτ@@ 795
πολλαπλές 795
κτιρίου 795
ανεχ@@ 795
στ'αλήθεια 795
μειώσουν 795
ημερομηνίες 795
'νοιξε 795
όπλ@@ 794
αυξήσουν 794
0.000 794
9:@@ 794
ακατ@@ 794
καθαρίσω 794
παρασκευ@@ 794
γουστάρω 794
ειές 794
γονιών 794
1988 794
γι΄αυτό 794
εγκεφαλ@@ 793
φωτο@@ 793
οφείλω 793
λευκού 793
εκπαιδευτικά 793
άφηνε 793
ιταλικά 793
νομίζουμε 793
λουκ 793
ιμων 793
140 793
παρακαλω 793
ορίζει 793
λαγ@@ 793
επικοινωνια 793
προσπαθείτε 793
als 793
πεποίθηση 793
μπάντα 793
data 793
αναφορικά 792
καταναλ@@ 792
συνειδητοποι@@ 792
'μαι 792
ευχαριστημένος 792
φρικτό 792
oύμε 792
va@@ 792
ίστας 792
μαρξ@@ 791
θεμέλια 791
άκο 791
προβολής 791
αιο 791
κρέατος 791
στov 791
φοβόμαστε 791
αυγό 791
κλάδου 791
κέρδισες 791
αιμορραγία 791
δεχθεί 791
ψάχνοντας 791
καλώδιο 790
σπιτι 790
μετοχών 790
βιολογία 790
ωτές 790
cle@@ 790
αστυνομικούς 790
ότο 790
'ολοι 790
οδηγοί 790
παιδεία 789
διάσταση 789
ντας 789
http 789
-αν 789
τελευταίας 789
τόνο 789
88@@ 789
υποσχέσεις 789
τονίζει 789
εσωτερικές 789
έδινα 789
μάζεψε 788
επιφαν@@ 788
δικηγόροι 788
φτωχούς 788
κρύψει 788
ωω 788
όποιο 788
μητρώο 788
διαρροή 788
προχωρήστε 788
υρο 788
όντας 788
τε@@ 788
σταρκ 788
διερευν@@ 788
τσεκ@@ 788
τηλ@@ 787
δοξ@@ 787
κρύα 787
πληρωμές 787
απογοήτευση 787
σόφι 787
έπεσα 787
παρακολουθ@@ 787
επαναστατική 787
αγελάδα 787
ιτζ@@ 787
έρευνά 787
βρέχει 786
χειμώνας 786
καταραμένο 786
τυχαίο 786
τίθεται 786
χριστιαν@@ 786
προφορά 786
προθέσεις 786
ώv 786
γκρεμ@@ 785
μπάνιου 785
πολύτιμη 785
καπνό 785
βρωμ@@ 785
έστε 785
ρέι@@ 785
τ.@@ 785
θυμούνται 785
αθώα 785
μάιος 785
μαχαιρ@@ 784
εκβι@@ 784
προδιαγραφές 784
κενά 784
λιγότερη 784
εγκατέλειψε 784
λαν@@ 784
free 784
προ-@@ 784
μερα 784
ξεχάσετε 783
καταθέσεις 783
γλυκός 783
ομοσπονδίας 783
υποστήριξε 783
παράγεται 783
ιτζ 783
ιε 783
αίτια 783
sto@@ 783
εισαγωγής 783
ημένης 783
previous 782
διάβασμα 782
σωσ@@ 782
κινέζικο 782
ale@@ 782
κακιά 782
άκρα 782
δό@@ 782
χιλιάδων 782
αντικειμεν@@ 782
στος 782
νεύρα 782
8:@@ 782
τιση 782
γκέ@@ 782
παρουσιάσει 782
ata 781
ξαφνι@@ 781
επρεπε 781
δημοκρατικό 781
διαδηλώσεις 781
φιλική 781
συγκρ@@ 781
συνδρομή 781
σπά@@ 781
ειρηνικό 781
καλαμ@@ 781
πύλες 781
μοιραστούμε 780
ς. 780
ικανή 780
μικρής 780
μέλισσες 780
ρομαντικό 780
επαληθ@@ 780
γίνομαι 780
ελπίζει 780
'eλα 780
ελίτ 780
fel@@ 780
μπιτς 779
εχθρ@@ 779
ατου 779
χώρ@@ 779
πετάξεις 779
πληγή 778
αναπτύσσονται 778
γενναίος 778
1985 778
ill 778
τρίτον 778
πειθαρχία 778
πυραύλους 778
παράπονο 778
σχοινί 778
κάρι 778
νταν@@ 778
κατάσκοπος 777
ist 777
διαγων@@ 777
450 777
ανέβηκε 777
ονόμ@@ 777
ωτικές 777
ειδοποίηση 777
διακυβέρνηση 777
ακινήτων 777
χτίστηκε 776
καπιταλισμού 776
νευρο@@ 776
bb@@ 776
θεε 776
απολογ@@ 776
αρραβωνι@@ 776
συνάντησε 776
ιταλικό 776
ουλ 776
επιβίωσης 776
λατρεύουν 776
αριθμών 776
πορτοκαλί 776
ινστιτούτου 775
δαρ@@ 775
σύνθημα 775
λιγο 775
πλά@@ 775
κάθ@@ 775
χρήσιμα 775
χτυπάς 775
συνόλου 775
θα'ναι 775
νόστιμο 774
εδάφους 774
νταγκ 774
χειρουργική 774
δημοφιλείς 774
προτέρων 774
ame 774
dc 774
βαρύτητα 774
360 773
bill 773
μαρι@@ 773
κατοικίδια 773
δύσης 773
ει… 773
τοπικών 773
προσδιορ@@ 773
μόσχας 773
άξετε 773
μετάλλιο 773
καταστράφηκε 773
αυτοκράτορα 773
γάντια 773
αναρ@@ 773
ιι 772
οικογένειές 772
διεξαγωγή 772
ριβ@@ 772
δαιμον@@ 772
sur@@ 772
game 772
σύννεφο 772
έντεκα 772
θυμήθηκα 772
πληροφορίας 772
ριου 772
γράφτηκε 772
ys 772
ari@@ 772
πές 772
ore 772
υπολογιστ@@ 771
παραδώσει 771
ίσου 771
ψήφους 771
επόμενης 771
χανκ 771
γκόρντον 771
συζήτησης 771
αστειεύομαι 771
σκηνοθέτης 771
βακτήρια 771
αδερφές 771
λατ@@ 771
3η 770
ενιαία 770
κατέχουν 770
εξελίσσεται 770
τοντας 770
τορα 770
αναγνωρίζουν 770
τυπική 770
ούμ@@ 770
συνταγματάρχη 770
κούπερ 770
τούσαν 770
αλίσια 770
ανταγων@@ 770
όρισε 769
αφήνουμε 769
παύλος 769
κρίνει 769
αναπ@@ 769
αϊ 769
ακού 769
δαίμονες 769
-τον 769
αναπαραγωγής 769
θάνατοι 769
ήξ@@ 769
βοήθησαν 769
ναρκ@@ 768
κρίσιμο 768
επιμελ@@ 768
γκαλ@@ 768
γοητεία 768
βίβλος 768
εντυπωσιακή 768
ωματ@@ 768
τρομοκρατ@@ 768
σαβ@@ 768
league 767
66@@ 767
μηχανισμός 767
σεντ 767
γεμίσει 767
deluxe 767
ε- 767
ah@@ 767
δώσαμε 767
σαπ@@ 766
φέρνεις 766
ξεφορτ@@ 766
παρηγορ@@ 766
νιλ 766
τελων@@ 766
ύνεται 766
αλ-@@ 766
παλιο@@ 766
τωv 766
ώθηση 766
σακούλα 765
βασίλης 765
αυτοκτον@@ 765
επιφάνειας 765
πυραύλων 765
2.0 765
αντι-@@ 765
μιλώ 765
λίν@@ 765
ιδιωτικές 765
υποτιμ@@ 765
era 765
ευρύτερη 765
ακτές 765
ολοκλήρου 765
gri@@ 764
γουά@@ 764
εξάσκηση 764
κορυφαίες 764
κανενός 764
ζου@@ 764
προθεσμία 764
καλέσουμε 764
ανταγωνισμού 764
νομικής 764
κλασ@@ 764
νιώθουμε 764
σεβασμός 764
εφικτό 763
εσώρουχα 763
ανέσεις 763
ανώτερη 763
εμπιστευτείς 763
άνεση 763
ura 763
κάλτσες 763
mp 763
λόφο 763
τραγ@@ 763
τραπεζικό 763
πρεπε 763
space 763
forex 763
γραμματέα 762
ηθελα 762
lie 762
μή 762
εβραίων 762
mic@@ 762
διατίθεται 762
εξοικονομ@@ 762
φροντίδας 762
κάθονται 761
εμπιστευτώ 761
ν.@@ 761
προετοιμάσει 761
πείσω 761
διαστήματος 761
έπιασες 761
ιδιωτικής 761
ξεπερ@@ 761
κουίν 761
ρώσος 761
mag@@ 761
δόσεις 760
ανέβα 760
ήκ@@ 760
ολ 760
επίγνωση 760
πρακτορείο 760
κατανομή 760
όψη 760
χρηματιστήριο 760
καθε 760
μοναστήρι 760
ιωάννη 760
βέβαιο 759
φιλοσοφ@@ 759
ανεξάρτητο 759
τονται 759
πιθανά 759
ητικοί 759
μ΄@@ 759
ισχυρίζονται 759
ταξιδεύει 759
έκτη 759
αηδιαστικό 759
λαμβάνουμε 759
ιον@@ 758
ευγεν@@ 758
διεύθυνσης 758
σκοτεινά 758
δουλέψουμε 758
κερδίζουν 758
συνδέει 758
παίξε 758
όσες 758
air@@ 758
199@@ 758
stu@@ 758
κοκτέιλ 758
τύπων 758
disney 758
αμερικάν@@ 757
διαμάντι 757
συσσωρ@@ 757
άλλαξα 757
bat@@ 757
βίκτορ 757
ουκ 757
ανακυκλ@@ 757
μηχανής 757
επιχείρημα 757
συνεχής 757
εσεις 757
όξ@@ 757
νταντά 756
στερε@@ 756
lab 756
χαίρετε 756
γιονγκ 756
έσκασε 756
125 756
γνωριστήκαμε 756
τσια 756
γυαλί 756
νυ 756
λίλι 756
αρμονία 756
παραμ@@ 756
σεξουαλικής 755
πιάσαμε 755
αποδείχθηκε 755
δεύ@@ 755
μπισκότα 755
θεατές 755
tesla 755
τέτοιους 755
αγα 755
λύσεων 755
κιθάρα 755
συστη@@ 755
πάτο 755
γαλλ@@ 754
μετακόμισε 754
κολομβία 754
δαπανών 754
μορφής 754
φτιάχνουν 754
πρόθυμος 753
εκτιμούν 753
ψαλ@@ 753
διαβάζουν 753
τακ@@ 753
ster 753
σεξουαλικά 753
σκασμό 753
μόνες 753
έψατε 753
ut 753
δικαστήρια 753
επιτρέπονται 753
μαστού 753
ακτινοβολία 753
έλες 752
μεταναστ@@ 752
ατομ@@ 752
εφευρ@@ 752
φωνάξω 752
επεκτ@@ 752
word 752
ποσ@@ 752
κατασκήνωση 752
κόκ@@ 752
ευτυχίας 752
́@@ 752
ωv 752
πανεπιστημ@@ 752
πάπας 751
συμπληρω@@ 751
εξαιρ@@ 751
υποσχέθηκες 751
ham 751
καταστροφ@@ 751
απομόνωση 751
μάρτυρα 751
τηκα 751
'ντ@@ 751
κότσια 751
δείξουν 751
επειδη 751
ιππ@@ 751
αιτ@@ 751
οφόρα 750
συμβάλλουν 750
tal@@ 750
ολογικά 750
στηρι@@ 750
υπόβαθρο 750
περσ@@ 750
δεχόμαστε 750
ηγεσίας 750
χαϊ@@ 750
ουρλι@@ 750
απαντ@@ 750
επιτόκια 750
69@@ 750
αποθηκεύσετε 750
stor@@ 750
σχεδιάσει 750
λέξεων 749
bi 749
ts@@ 749
ισσα 749
λευκοί 749
ένταξη 749
σύνδεσμος 748
διανυκτέρευση 748
εμπορευμάτων 748
ανάκαμψη 748
διαβάζετε 748
μυστ@@ 748
ανταλλ@@ 748
χειρουργείο 748
συσκευασίας 748
ανεργίας 748
πείρ@@ 748
ανοικτό 748
τζέσι 748
μόνιμα 747
μακροχρόνια 747
ιωσήφ 747
ζείτε 747
ανακούφιση 747
σιδερ@@ 747
τησες 747
ανς 747
59@@ 747
συμμετείχε 747
ιακός 747
αδύναμη 746
πεποιθήσεις 746
λερ@@ 746
στόλο 746
άδων 746
ριος 746
ακολουθήσουμε 746
χόρτο 746
ling 746
αστει@@ 746
σφαγή 746
ten 746
μονάδων 746
τρέχουσες 746
μπακ@@ 746
μίλερ 746
αϊνστάιν 746
р@@ 746
ασφάλιση 746
νιγηρία 746
αναπτύσσει 745
ιέ 745
νυχ@@ 745
φου 745
ron 745
βερολίνου 745
bachelor 745
χάρις 745
χρησιμ@@ 745
σακάκι 745
στείλεις 744
τοποι@@ 744
στίβεν 744
γεννιέται 744
γέν@@ 744
ψήφισμα 744
κερδ@@ 744
πετσέτα 744
4/@@ 743
ρέιτσελ 743
πιστεύεται 743
υποδομή 743
αδικ@@ 743
ραντάρ 743
εμμονή 743
ωνόμαστε 743
αίνω 743
motel 743
ann@@ 743
γιόγκα 743
ı 743
γκρι 743
κοιτάτε 743
kra@@ 743
πειρατές 743
ονες 743
ιστού 743
πυρκαγιά 743
αποχωρ@@ 743
άστο 743
ll@@ 742
λαμπρ@@ 742
γαμι@@ 742
διαμορφ@@ 742
δημιουργούνται 742
ταξιδέψει 742
4η 742
διαφων@@ 742
θηκ@@ 742
κυβερνητικές 742
άργησες 742
μήνυση 741
παραγγελίες 741
νης 741
σταμάτησαν 741
σάλτσα 741
bil@@ 741
ευρεσιτεχνίας 741
πορν@@ 741
1ο 741
δημοτ@@ 741
προωθεί 741
τετ@@ 741
προσευχές 741
ποιν@@ 741
ri 740
ιδρύματος 740
ινών 740
ξύπνιος 740
θερμοκρασίες 740
οποί@@ 740
sk 740
άσχ@@ 740
hong 740
παρακολουθούμε 740
μηδεν@@ 740
τσιπ 740
΄e@@ 740
επανειλημμένα 740
εχθρού 739
απ΄ 739
αρχίζουμε 739
κορμί 739
ενθουσιασμένος 739
ζόμπι 739
ολοκληρ@@ 739
ήχ@@ 739
επίτηδες 739
ωτα 739
ορισμένους 739
τούσε 739
διακήρυξη 739
gor@@ 739
ανταπο@@ 738
1987 738
πολιτιστικής 738
1984 738
σκοπεύει 738
χρήματος 738
var@@ 738
love 738
ήρι@@ 738
ευμα 738
υπουργ@@ 738
αηδία 738
γυναικα 738
καμπ@@ 738
μοιραζόμαστε 737
αναγνώρισε 737
ούμενων 737
ατά 737
θάν@@ 737
δημιουργικότητα 737
προστατεύουν 737
σύντροφοι 737
κόψεις 737
περιμένοντας 737
χάρυ 737
ανασ@@ 737
ηθικής 737
επισκευ@@ 737
έμπορος 737
ιατρικά 736
ολογικές 736
ραδιο@@ 736
120@@ 736
κλασική 736
est 736
λεβ@@ 736
vel@@ 736
ντιέγκο 736
ποσά 736
εών 736
χωριού 736
γύ@@ 736
αποσκευές 735
δίωξη 735
εσωτερικής 735
επαρκή 735
σχεδιάστηκε 735
ξηρ@@ 735
έκλεψες 735
32@@ 735
σκεφτ@@ 735
δαβίδ 735
vτ 735
έδ@@ 735
ασφάλειά 734
νύ@@ 734
πλησίασε 734
κερδίσετε 734
ολοκληρω@@ 734
προστάτ@@ 734
φον@@ 734
πιστοί 734
al-@@ 734
αμερ@@ 734
καπνού 734
εκπαιδευτική 734
τῆς 734
56@@ 733
αποζημίωση 733
δικού 733
σορ@@ 733
γιους 733
εφοδιασμού 733
πρόγραμμά 733
αεροσκαφών 733
ελεύθερης 733
νόμιμα 733
έβλεπες 733
κολύμπι 733
ισλαμικό 733
δωρεά 733
πάροδο 733
χερ@@ 733
τεχνολογική 732
δίσκος 732
δεύτερα 732
υγιές 732
χειροπέδες 732
γράψε 732
ji 732
σιγά-σιγά 731
αμερικάνοι 731
εκπαιδεύσει 731
μπέιζμπολ 731
προσπάθειές 731
κυλ@@ 731
άρχης 731
αποκαλύψει 731
συμπ@@ 731
φαγητού 731
κλεισ@@ 731
΄οχι 731
γέννησης 731
λεξ@@ 730
συμμετάσχει 730
δημιούργησαν 730
μπύρες 730
αρά 730
γενετική 730
γυρίζω 730
ογράφ@@ 730
έστειλες 730
wo@@ 730
διάβ@@ 730
αξες 730
επιβολή 730
χρηματοκιβώτιο 730
hosting 730
ωραίες 729
παράγραφο 729
καλώ 729
μόλ@@ 729
στρατηγό 729
λυπάσαι 729
στάν@@ 729
πολιτισ@@ 729
θρησκείας 729
μικρότερα 729
έτυχε 729
χημική 729
han 729
περήφανοι 729
αρθρ@@ 729
πραγματικότητας 729
λέιζερ 728
πάψε 728
χου 728
επεκτείνει 728
αλυσίδες 728
επιβατών 728
δεσμεύσεις 728
ψάξε 728
ανγκ 728
πληρώσουμε 728
ετος 728
γι'αυτόν 728
ανάγνωσης 728
συντήρησης 727
πετρελαι@@ 727
αφαν@@ 727
σίδνεϊ 727
ξεσ@@ 727
ιδεών 727
αμφι@@ 727
υπενθυμ@@ 727
συνολικής 727
πούτσο 727
χριστιανική 727
έρες 727
ελκυστική 727
green 727
καπετάνιε 726
λέν@@ 726
αποφύγει 726
ικέ 726
we 726
ιμπεριαλ@@ 726
ήτανε 726
δείχνω 726
τετράγωνο 726
διακρι@@ 726
πισω 726
παράνομα 726
ena 725
ue 725
κυνηγός 725
νικίτα 725
οποιείται 725
λεπ@@ 725
παρατήρηση 725
η- 725
ειλικρίνεια 725
στοιχει@@ 725
πολιτείας 725
σίν@@ 725
c-@@ 725
οπαδούς 725
ολογικό 725
γυμνή 725
ομίχλη 725
ευρωπαϊκά 725
οιν@@ 725
δικαιώματά 725
φιλοξενεί 725
ούμενοι 724
ολό@@ 724
εξαφανίζεται 724
γουόλ@@ 724
μόναχο 724
1973 724
επικίνδυνες 724
oι@@ 724
ίνου 724
tech 724
ρεπορτάζ 724
αυστραλ@@ 724
σέβομαι 723
επιστρ@@ 723
κλινικές 723
εξαρτ@@ 723
συνολικού 723
προφύλαξη 723
hall 723
κάρεν 723
θεούς 723
περιόδους 723
υγειονομικής 723
φύλακα 723
δυνατοτήτων 723
χωρις 723
σκοπ@@ 723
οἱ 723
μισοί 723
συγχώρεση 722
pas@@ 722
ευτυχής 722
επινο@@ 722
προσθέστε 722
καπετάνιος 722
x-@@ 722
ανεμ@@ 722
κοιμήθηκα 722
επισκεπτών 722
ισι 722
tags 722
πρωταγων@@ 722
ένεση 722
ama 722
ούλι 722
mηv 721
τρίτου 721
σιάτλ 721
αστήκαμε 721
στηκα 721
εξωτερικές 721
επενδύσει 721
παραστάσεις 721
marketing 721
φαντάστηκα 721
επισκέπτης 721
υποχωρ@@ 721
πωλούνται 721
robert 721
άνγκ 721
αποδεικτικά 721
ετοιμάζεται 720
περιήγηση 720
κοιτάζεις 720
3.5+ 720
ίζ 720
σκοπεύεις 720
ερυθρ@@ 720
δημοσιότητα 720
αναλαμβάνει 720
watch 719
εμφανιστούν 719
σκορ 719
καθημερινές 719
ύγ@@ 719
εξαγωγών 719
παπούτσι 719
γκραντ 719
γραφικά 719
μουρ@@ 719
ξυρ@@ 719
σεισμός 718
ζητώντας 718
κλιματ@@ 718
ιστορ@@ 718
ενδιαφέρομαι 718
state 718
εξωτερικά 718
παρών 718
συμβάσεις 718
καταστρέψω 718
ανοιχ@@ 718
ευκολία 718
πάvτα 718
τζέρ@@ 717
παράδοσης 717
ισλανδία 717
ανοί 717
βες 717
διαχειρίζεται 717
rus@@ 717
αδυναμίες 717
ά-@@ 717
wh@@ 717
μετατρέψει 717
ψηφιακά 717
γουελ 717
αθάν@@ 717
ενεργειών 717
λυγ@@ 717
διαστ@@ 717
ουζ@@ 716
lar 716
καθάρματα 716
γκρινι@@ 716
τόσους 716
καιρ@@ 716
σκαρ@@ 716
ασπ@@ 716
κατάρ 716
δέχονται 716
επηρεάσουν 716
κατευθυν@@ 716
χώ@@ 716
ele@@ 716
εκμετάλλευσης 715
υπουργό 715
επιλογών 715
εργατική 715
ικανότητές 715
αγν@@ 715
οποίησε 715
cit@@ 715
στομ@@ 714
αβεβαιότητα 714
ειρηνικού 714
βασικούς 714
εκφράζει 714
πεθαίνεις 714
γεννήθηκαν 714
κορυφαίους 714
pic@@ 714
χάσμα 714
σκάκι 714
μεχρι 714
μπουκ@@ 714
καθεστώτος 714
μαρόκο 714
αναδι@@ 714
συναντηθεί 714
τσάρ@@ 714
οφορ@@ 713
ειπεν 713
βραδινό 713
αρχαίο 713
γνώρισες 713
αποτρέψει 713
άγγελοι 713
άδειας 713
σίλ@@ 713
ενεργοποιήσετε 713
φοβόταν 713
sam 713
βαρέλια 713
αφή 712
καταστροφές 712
βάλ 712
φρικ@@ 712
ανταποκριθεί 712
αγαπητοί 712
εκρ@@ 712
κύπρου 712
ουτε 712
τηλεφώνησα 712
πολεμήσουμε 712
ie@@ 712
άσσει 712
φόνος 712
αντιστρ@@ 712
dra@@ 712
εμποδίσει 711
θητεία 711
εκτ 711
ονομάζονται 711
οφείλει 711
στρατόπεδα 711
αμοιβαία 711
μάγκι 711
θανατική 711
km 711
οv@@ 710
βρισκ@@ 710
μηση 710
τεχνικής 710
εγγράφου 710
ρεάλ 710
lam@@ 710
ding 710
άνος 710
άνεμο 710
γνώριζαν 710
τικός 710
άσματος 710
thomas 710
ζώ@@ 710
ελάχιστες 709
fa 709
γεωργ@@ 709
σέλντον 709
charles 709
τρομοκρατική 709
εκτελεστ@@ 709
ονείρων 709
αρο 709
οθόνες 709
βρεταν@@ 709
καλο 709
λαών 709
αντε 709
ξω 709
κει@@ 709
έψαξα 709
κοκκιν@@ 708
τησή 708
αμφισβητ@@ 708
κόβ@@ 708
υδ@@ 708
н@@ 708
μπαίνω 708
ü@@ 708
tar@@ 708
δίαιτα 708
εργάστηκε 708
μοχ@@ 708
καθόταν 708
καταστρέψουν 708
sion 708
γραβάτα 708
ενεργή 708
προωθήσει 708
συχν@@ 708
πλευράς 707
δικηγόρους 707
υποσχέσου 707
πουλήσω 707
κλιματικής 707
ze 707
ετοιμάσου 707
κυκλοφορούν 707
ύνουν 707
πέσουν 707
αθλητικά 707
πληρωμών 706
κλουβί 706
ich@@ 706
καζακστάν 706
ελένα 706
έλλα 706
γυρίσουν 706
φθάσει 706
aqu@@ 706
πληρούν 705
αυτο-@@ 705
ματιών 705
ιδιωτικού 705
παρενέργειες 705
βο 705
ηκες 705
αναστολή 705
ξαv@@ 705
co2 705
έφαγες 705
επικοινωνούν 704
suite 704
ανισότητα 704
υποπτ@@ 704
αργήσω 704
προτύπων 704
βιαστείτε 704
1986 704
στικό 704
ατών 704
-έλα 704
αποκλειστ@@ 704
επιτρέποντας 704
συμφωνήσει 703
κόσ@@ 703
χους 703
απογει@@ 703
ινγκ@@ 703
διαλόγου 703
μακροπρόθεσμη 703
ιv@@ 703
ική@@ 703
διαμονής 703
γκρέ@@ 703
ευλογία 703
ετα 703
έκοψε 703
kgm 703
αγγίζει 703
καταστεί 703
προετοιμάζει 702
λεωφορεία 702
ανέφερα 702
ωτη 702
restaurant 702
300@@ 702
ανακαινισμένο 702
άκος 702
προσθέτοντας 702
επιτυχίες 702
κού 702
τοποθεσίας 701
'φησέ 701
-ών 701
περνάνε 701
αριθ 701
διευκολύνει 701
ζού@@ 701
vη 701
αντόνιο 701
νού@@ 701
βαλλ@@ 700
επιστρέψετε 700
στάθηκε 700
σαχ@@ 700
τραβάει 700
mac@@ 700
χού@@ 700
εξυπηρέτησης 700
πυρετό 700
έψαχνε 700
δημιουργός 700
γκαλερί 700
tt@@ 700
ηλιακή 700
sub@@ 700
κόντρα 699
ό-@@ 699
λάμψη 699
παγιδεύ@@ 699
διοξειδίου 699
ξεγελ@@ 699
μπαταρίας 699
φιλοδοξίες 699
αντίστοιχο 699
άσατε 699
ιμης 699
νίκι 699
jan@@ 699
ευμένο 699
ανώτερο 698
ισμος 698
φραγ@@ 698
3/@@ 698
δου 698
φόρτωση 698
μερ 698
μηχανών 698
αποφοίτους 698
υπόθεσης 698
κρύ@@ 698
μέvα 698
vε 698
γενικ@@ 698
σειρές 698
τρόπου 697
έκλεψαν 697
χειρότερος 697
αύγουστο 697
διατηρούν 697
συμπληρώματα 697
bbc 697
προκύψει 697
αλυσίδας 697
αμφ@@ 697
ητης 696
ρυθμίσεων 696
χαλί 696
έσωσα 696
διευθύνσεων 696
πρόσληψη 696
εξασφαλίζει 695
περιλ@@ 695
μπαμ@@ 695
eng@@ 695
φιλαράκι 695
φορέσω 695
οδηγούς 695
κοιτάξει 695
σμού 695
περν@@ 695
ενη 695
άκα 695
συρι@@ 695
απαλλ@@ 695
ραδιοφων@@ 695
χειριστώ 695
θεωρίας 694
εισθαι 694
φωλιά 694
clo@@ 694
εξαιρετικές 694
επενδύ@@ 694
ομόλογα 694
αναγνώρισης 694
παραγωγική 694
φέρνω 694
μένετε 694
σωματίδια 694
δάσκαλοι 694
έκλεψα 693
ναυ@@ 693
κρυμμένο 693
ματικών 693
η.@@ 693
νίκες 693
εργάζομαι 693
δίδαξε 693
περίμεναν 693
νί@@ 693
πάρκερ 693
βασίλη 693
τσά@@ 693
νεϊ 692
σκάνδαλο 692
ανάμνηση 692
θερμοκηπίου 692
team 692
μείναμε 692
οδηγούσε 692
παραπλαν@@ 692
παναγία 692
πλαισίου 692
ποδιών 692
l'@@ 692
ker 692
αφηγ@@ 692
νόμισα 692
αστείος 692
καταγωγής 692
ey 692
τολμ@@ 691
ενέκρινε 691
μέσου 691
διαδηλωτές 691
1974 691
διαταραχές 691
real 691
ακουμπ@@ 691
προτείνουμε 691
αρία 691
ανάκτηση 691
βαρσοβία 691
προμηθ@@ 691
άνοδος 691
έμαθαν 691
άβολα 691
ανοίγουν 691
επέτειο 690
περιβαλλοντικής 690
εκρηκτικά 690
κουνηθείς 690
τοπ@@ 690
απώλειας 690
επιμένει 690
βαθμού 690
μαγικά 690
ήσεως 690
πυροβολήσω 690
εργατικού 690
color 690
εκτυπ@@ 690
ομοσπονδιακό 689
επιχειρηματικών 689
ευγενική 689
γκάλ@@ 689
θρησκευτική 689
ισό@@ 689
φιλοσοφίας 689
στέκομαι 689
cs@@ 689
ύνουμε 689
τόμ@@ 689
ακριβείς 689
στέκεσαι 689
μαντέψω 689
εμφάνισή 688
δαλ@@ 688
ble 688
υποκρι@@ 688
ίνας 688
ταλιμπάν 688
ακουστά 688
σχεδιαστές 688
εμφανίστηκαν 688
διάβασες 688
› 688
γρίπη 688
υπάρχοντα 688
δεύτερης 688
κεφαλαι@@ 688
φο 688
ισμένους 688
ανοίξουν 688
εξολοθρ@@ 688
δελ@@ 687
συνεντεύξεις 687
ικανό 687
αναπηρία 687
ani@@ 687
μαρτυρία 687
κιλ@@ 687
peter 687
κυρά 687
ααα 687
ακαδημαϊκά 687
cra@@ 687
αναδυόμενες 687
κινητής 687
πληρώνεις 687
δης 687
σφυρ@@ 687
υψηλότερες 687
νεότερη 687
κανα 686
παράγοντα 686
πορείας 686
1975 686
τυρ@@ 686
στέλνω 686
χαλάσει 686
γωνιά 686
μόντρεαλ 686
συνταγματάρχης 686
αγγίξεις 686
βρώ 686
ολόγ@@ 686
γιορτές 686
χων 686
διασφάλιση 686
σκού@@ 686
ενισχύ@@ 686
έλεγ@@ 685
ks 685
περικ@@ 685
κοντινό 685
πέσεις 685
ορίζοντα 685
αντέξω 685
εκατοστά 685
ολες 685
68@@ 685
ώτ@@ 685
'οπως 685
πετύχουμε 685
σφάλματα 685
επισκεφθεί 685
ολόκληρος 685
αισθαν@@ 684
απόκρυψη 684
explorer 684
οδηγία 684
τερος 684
ντί@@ 684
συνεργαστούμε 684
1979 684
steve 684
υγρ@@ 684
ευκολότερο 684
προσκαλ@@ 684
μιλούσαμε 684
πλαστικά 684
μέσ@@ 684
πληρώσετε 684
ερευνητής 684
guesthouse 683
επιτεύγματα 683
απόρριψη 683
τουριστ@@ 683
ζες 683
αντικαταστ@@ 683
πέος 683
γραμμάρια 683
τραγικό 683
παραλίες 683
δουλεια 683
ερντογάν 683
χύ@@ 683
κάρλος 683
ανάθεμα 683
γενεύη 683
τεχνικό 683
πτέρυγα 683
ζαχαρ@@ 683
ευκαιριών 683
φιν 682
μέρκελ 682
πω@@ 682
συμφωνείς 682
ζητήστε 682
ξεπέρασε 682
ξεκαθαρ@@ 682
νάπολη 682
πνίγ@@ 682
s.com 682
συναλλαγή 682
χρειαζ@@ 682
καθιστούν 682
f1 682
μυστικές 681
στρατιωτικής 681
επέστρεψαν 681
όπουλος 681
χάνεται 681
παιδικής 681
κοσμο 681
τρέχω 681
κινητών 681
φακ@@ 681
ομιλίας 681
κοιμήθηκες 681
ακου 681
οποιασδήποτε 681
παζλ 681
αγες 681
κρίσ@@ 681
οφείλουμε 681
σκιές 680
σιδηρ@@ 680
αινα 680
κρυπτογραφ@@ 680
αντικειμένου 680
περιπτώσεων 680
ερευνητική 680
εννοούσε 680
υπερβολικό 680
onenote 680
ανήλ@@ 679
νοσοκομείου 679
ηλικιωμένους 679
ναν@@ 679
p-@@ 679
συναντ@@ 679
αλληλεπιδρ@@ 679
άλις 679
ινδ@@ 679
ine@@ 679
δουλεία 679
μερική 679
συγκρούσεων 679
άντο 679
καλλιέργεια 679
έντομα 679
δυνατοί 679
μηχανικοί 679
θεμελιώδη 679
queen 678
δημιουργούμε 678
pet@@ 678
δικαστές 678
im@@ 678
όρθιος 678
κες 678
ουλα 678
φροντίζω 678
ασφάλισης 678
μουν@@ 678
διάλογος 677
θυσίες 677
πολλαπλών 677
μισθός 677
ασπίδα 677
παγωμένο 677
she@@ 677
γκάρι 676
χαμηλότερα 676
όρι 676
αθω@@ 676
ψευ@@ 676
tho@@ 676
απόφασης 676
ευτείτε 676
mike 676
περικυκλ@@ 676
τσεχία 676
εκπλήξεις 676
εισερχ@@ 676
σχεδιάζουν 676
γονατ@@ 675
όνες 675
τοποθετ@@ 675
υποδομών 675
αφορμή 675
έντουαρντ 675
back 675
ζυρίχη 675
κέν@@ 675
κρατήσετε 675
έλλειμμα 675
ք 675
παντ@@ 675
πυροβόλησαν 675
ακός 675
ther@@ 675
cher 675
τηλε@@ 675
στρια 675
βάσ@@ 675
κούκλες 675
αμπού 675
εκμετάλλευση 675
7:@@ 675
θανάτων 674
σχέδιά 674
παραδοσιακές 674
γενικότερα 674
ατοι 674
ευτικές 674
δηλώνουν 674
παραδοθεί 674
τοπικής 674
παντρεύτηκα 674
ζήσετε 674
χιλιομέτρων 674
ντρέπεσαι 674
kαλ@@ 674
σατε 674
καταλήγουν 674
ct 674
πίπα 674
δαπαν@@ 673
αλληλογραφία 673
ατζέντα 673
ακαδημίας 673
συνάντησης 673
φανταστείς 673
ιέται 673
συμπεριφορές 673
fe 673
χριστ@@ 673
μοντέρνο 673
τζες 673
φορούν 673
οξυγόνου 673
rock 673
τείνουν 673
πικρ@@ 673
ήπειρο 673
συμπαθεί 672
ερχόμουν 672
αξιών 672
κώ@@ 672
φυλακής 672
καυτή 672
στηρίζεται 672
άτ 672
brexit 672
vil@@ 672
τσαρ@@ 672
ψηλός 672
-καλά 672
ακεραιότητα 671
πορνό 671
συλλέγονται 671
μέγκαν 671
ωκεανού 671
μέλλ@@ 671
γυαλ@@ 671
χόλιγουντ 671
βάλαμε 671
φίλιπ 671
καπνός 671
αξίζεις 671
άνταμ 671
γερά 671
ωσεις 671
αυστηρ@@ 671
ρεαλ@@ 671
απαντάει 671
περιβαλλοντικές 670
διαλογ@@ 670
ράβ@@ 670
λεωφόρο 670
lan 670
παρακολουθείς 670
πήγαινες 670
ψων@@ 670
σκεπ@@ 670
μετα@@ 670
εξυπηρετεί 670
αντα 670
κανονίσει 670
ερεθ@@ 670
επιτεθεί 670
επιχειρησ@@ 670
προκύπτουν 670
φωτιάς 670
σηκώθηκε 670
χαρούμενο 669
υφίσταται 669
ld 669
λορ@@ 669
εχθές 669
πανεπιστημίων 669
διαχειριστ@@ 669
κηρ@@ 669
ειλικρινείς 669
πρωτεΐνη 669
sco@@ 669
δεξαμενή 669
εκτελεί 669
έζησα 669
παίζοντας 669
α· 669
αρτ@@ 669
ελέγξεις 669
5/@@ 668
τεκ@@ 668
ελαφρά 668
άκουγα 668
ῖ@@ 668
φίδια 668
kaspersky 668
αποκαλείς 668
καυσίμου 668
διάλ@@ 668
νομικών 668
μποντ 668
κατευθύν@@ 668
κρυφό 668
έληξε 668
δημιουργήθηκαν 668
αντες 668
άζεστε 668
επιτυχής 668
χριστουγεννιάτικο 668
σεούλ 668
ελευθέρ@@ 667
έβλεπαν 667
hilton 667
σκότωνε 667
κινητήρες 667
с@@ 667
κλείσετε 667
ξεχάστε 667
αργή 667
χρονικά 667
cli@@ 667
προετοιμ@@ 667
συνεπάγεται 667
επιβεβαιώνει 667
ούντ@@ 667
επιδημία 667
άρισμα 667
λεει 666
mini 666
νευρι@@ 666
συμφερόντων 666
περίπλοκη 666
εμβόλιο 666
άλλαξες 666
αναχωρ@@ 666
ψηφιακές 666
σημειώστε 666
ουσας 665
επιθετ@@ 665
πέν@@ 665
μπλούζα 665
υπηρέτες 665
άκρως 665
σκεφτόταν 665
samsung 665
γυμνό 665
ικοποίηση 665
αυτόματο 665
by@@ 665
διεφθαρ@@ 665
συμφωνεί 665
πνεύματα 665
ετούς 665
νό 665
λαϊκ@@ 665
φών@@ 665
καινοτομίες 665
ύλης 665
αψ@@ 665
ane 665
'όλα 664
tele@@ 664
μενες 664
στυλό 664
ίχ@@ 664
περιλαμβάνεται 664
μίσ@@ 664
προσφοράς 664
ετία 664
ενιαίο 664
παρουσιάστηκε 664
φί@@ 664
aς 664
διακιν@@ 664
χυμό 664
εξαφανίστηκαν 664
πεπ@@ 664
βράχο 663
καθορίσει 663
στρατιωτικών 663
γει@@ 663
golden 663
διατηρήσουν 663
τρομακτική 663
ακούγονται 663
αξιωματούχους 663
μαρί 663
στοιχηματ@@ 663
analytics 663
εφιάλτες 663
30.000 663
σέβονται 663
κάιλ 663
ακι 663
ολοκληρωμένο 663
συλληφθεί 663
ανέρχεται 663
οστά 663
αποβλήτων 663
υγιεινή 663
ξανθιά 663
αξιωματούχος 662
δείς 662
ψάξει 662
κλάδους 662
ht@@ 662
πιo 662
δείξτε 662
έλια 662
φυλές 662
συζητήσω 662
118@@ 662
τρομάζει 662
ἰ@@ 662
παιδάκι 662
τὸ 662
οποιον 662
μενοι 662
αφής 662
ψηφιακών 662
αποκλεί@@ 662
κοστ@@ 662
κακού 662
¨@@ 662
πρόβα 662
kde 662
ευγ@@ 662
ξεχωρ@@ 662
δολ@@ 661
σώσε 661
ανακοινώσει 661
ητήριο 661
9/@@ 661
κοιτάζοντας 661
λόγ@@ 661
ελεγχ@@ 661
μοντέλου 661
εξέφρασε 661
επαγγελματιών 661
βις 661
cl@@ 661
προνόμιο 661
επαναλ@@ 661
καταστρέψεις 661
αλληλογραφίας 661
απαρ@@ 661
'ρχ@@ 661
ree@@ 661
σκαλ@@ 661
αρος 661
ίκο 661
έπαιζα 660
έλλειψης 660
αντέχει 660
con 660
-στο 660
αναλύ@@ 660
επιστημόνων 660
hill 660
ετική 660
προσεκτική 660
νους 660
κερί 660
ση@@ 660
λύπη 660
ash@@ 660
κάρτας 660
αρσενικό 660
φωτογραφική 660
όρου 660
αγωνία 660
γουρ@@ 660
ανταπόκριση 659
βυζ@@ 659
νεο@@ 659
μοιραστεί 659
εγκληματίας 659
πότερ 659
θαυμάζω 659
ρόλους 659
ξεκουρ@@ 659
πρεσβ@@ 659
τηγ@@ 659
πρόσφατο 659
αστούμε 659
θμ@@ 659
φακέλους 659
αγάπησα 659
άσ 659
δέχεσαι 659
πν@@ 658
όνας 658
vis@@ 658
ισπανική 658
βαρκελώνης 658
τορόντο 658
οδηγείς 658
έναρξης 658
βάζο 658
ουρανού 658
volvo 658
ούμενες 658
μοιραστούν 657
κωδικοποι@@ 657
μεταβολ@@ 657
μαδρίτης 657
ενισχύει 657
ψηφιακής 657
εξουσι@@ 657
πολεμιστής 657
κόστα 657
ευνο@@ 657
αγενής 657
τρίχες 657
κρύβονται 657
γρα@@ 657
απαγωγή 657
ακουστ@@ 657
συγκλον@@ 657
key@@ 657
θαλ@@ 657
red@@ 657
ξεφύγεις 657
star@@ 657
αστών 656
μοι@@ 656
φιντς 656
φανερ@@ 656
φοβερός 656
μπορέσετε 656
τουρκική 656
συμφωνήσαμε 656
προσθέσει 656
διαφθοράς 656
μοιράζεται 656
hey 656
ιουδ@@ 656
μαξιλάρι 656
sd@@ 656
χτυπήθηκε 656
άντρ@@ 655
ενοχή 655
σέρλοκ 655
προτιμάς 655
βίλα 655
ρουμανία 655
θηρ@@ 655
απαγορεύει 655
καταρρεύσει 655
εύσ@@ 655
θήκατε 655
δίας 654
σπάει 654
διατηρηθεί 654
διευκολ@@ 654
καταστήσει 654
τροφής 654
χρονοδιάγραμμα 654
δάπεδο 654
τζέσικα 654
πληρώματος 654
θέσ@@ 654
γκας 654
γιατρού 654
χρηματοδοτ@@ 654
προόδου 654
ηλίου 654
πεθάνετε 654
κατευθύνσεις 654
κοιτάξετε 654
ονομάστηκε 654
λήξη 654
ενδι@@ 654
άδια 654
αποφύγουμε 654
1940 653
αποδεκτή 653
τικού 653
σύγχρονα 653
ασχ@@ 653
συμμόρφωση 653
ειμ@@ 653
ιλι 653
τρέχον 653
pra@@ 653
τηλεφωνήσει 652
reuters 652
διασφαλ@@ 652
ασμοί 652
ορισμό 652
-θέλω 652
φτιάχνουμε 652
κλέβει 652
ωσι 652
ρωτήσετε 652
βιομηχαν@@ 652
σ.@@ 652
μo@@ 652
wit@@ 652
σενα 652
αδιέξοδο 652
απασχολημένη 652
επείγουσα 652
ανθρωπος 652
αηδίες 652
στρατο@@ 652
συχνές 651
γελοι@@ 651
ογι@@ 651
αναφερθεί 651
άτου 651
διαπίστωσαν 651
μανούλα 651
διευθυντές 651
τουρκ@@ 651
βοηθό 651
άγκυρα 651
αντοχή 651
κρασιού 651
απεριόριστη 651
τοντ 651
αντιγραφή 651
ξεκάθαρη 651
κλι@@ 650
πνευματ@@ 650
βίζα 650
ντένις 650
μαϊμού 650
εξοχ@@ 650
ξεκινήσεις 650
χρει@@ 650
αστικού 650
ευγενικά 650
δας 650
πολιτικού 650
μιαν 650
κλει@@ 650
επωφεληθούν 650
σφιχτά 649
ρίχ@@ 649
ίνια 649
αεροδρόμια 649
φαγητά 649
στολές 649
μάρκους 649
αποτελεσματικές 649
ερημ@@ 649
υβ@@ 649
μεθόδων 649
πέτρος 649
σταθμού 649
διαγράψετε 649
επικεντρωθεί 648
πίνετε 648
φτιάχνεις 648
ανταμοιβή 648
αστυνομ@@ 648
more 648
μείωσης 648
δελχί 648
υλοποι@@ 648
ιαπωνική 648
θηλυκό 648
τρέχοντος 648
εφαρμόζονται 647
ανήκε 647
χαράς 647
ors 647
προσπάθησες 647
περικοπές 647
υσης 647
χορέψουμε 647
ram 647
μόρια 647
ταξινομ@@ 647
εντοπισμό 647
άγονται 647
ράμ@@ 647
αίθουσες 647
ωνες 647
book 647
λύσουμε 646
εκτόξευση 646
στεφ@@ 646
ματικές 646
άρχοντας 646
εύσετε 646
ήχους 646
παρα 646
έρι 646
μαλαισία 646
κολακ@@ 646
αναλάβουν 646
ασχοληθεί 646
μάν 646
ξυπνήσεις 646
αποθηκεύονται 646
συμμετεχόντων 646
είναι@@ 646
κεφαλαιο 646
διόρθωση 646
φράνκι 646
'κουσέ 645
210 645
zo 645
κίεβο 645
διαμαρτυρ@@ 645
διακινδυν@@ 645
e.@@ 645
φρούριο 645
ake 645
προβλέψει 645
νομιζω 645
ζηλ@@ 645
ιδανικά 645
θρησκευτικές 645
σ'αυτή 645
τραίνο 645
υπολοχαγέ 645
ζούσα 644
χωρίσει 644
άγριο 644
ανήκεις 644
ltd 644
ξανθ@@ 644
\@@ 644
ενωμένοι 644
συνολικός 644
ολυμπιακούς 644
χαρακτηρίζεται 644
εξερεύνηση 644
φύ@@ 644
fil@@ 644
καμμιά 644
γιου@@ 644
εξειδίκευση 644
χτυπήματα 644
πιστέψουν 644
ωμένους 644
ανήκω 644
έυ@@ 644
ακυρ@@ 644
προμήθεια 644
αζόταν 644
intel 644
μεσόγειο 643
καταγωγή 643
ριών 643
κυν@@ 643
άδειά 643
εκτική 643
ειδικευ@@ 643
καθίσω 643
δεί 643
κατασκευασμένο 643
εμβολι@@ 643
χρησιμοποιούσαν 643
ight 642
αγοραστές 642
ηματα 642
ακολουθώ 642
κάθησε 642
ερωτευ@@ 642
παω 642
eg@@ 642
άσι 642
διακυβέρνησης 642
νή 642
γκο@@ 642
τέθηκε 642
ακούνε 642
γού@@ 642
μοντ 642
μπάρι 642
ακολουθείς 642
πολυτελή 642
ντες 641
βέβαιοι 641
πη 641
μουνί 641
κακούς 641
αγελάδες 641
1.6 641
χακ@@ 641
fac@@ 641
per 641
αλήθειες 641
νομισματική 641
κινηματογράφο 641
mann 641
apartment 641
καλοκαιριού 641
επισκεφτείτε 641
ειχε 641
κλειστ@@ 641
χημικές 641
μπί@@ 641
ποί@@ 641
επιτυχώς 641
out 641
φανερό 640
ήρεμος 640
επισκ@@ 640
αποκ@@ 640
υπο 640
πoτέ 640
κοκ@@ 640
ικανοποιημένος 640
βγάλ@@ 640
πυρομαχικά 640
νομοθεσίας 640
καθυστερήσει 640
σεων 640
ούμενους 640
καθορίζεται 640
western 640
εξέδωσε 639
στο@@ 639
πολεμικό 639
ωσει 639
ησουν 639
επεξεργαστή 639
στρί@@ 639
οφόρο 639
βιταμίνης 639
ντέρεκ 639
ψεύτη 639
σατανά 639
δολοφονίες 639
οικογενειών 639
θεμα 639
20-λεπτά 639
sd 639
-πολύ 639
πείρα 639
φαρμάκου 639
ότερ@@ 639
ευτικών 639
αναδ@@ 639
οτητα 639
βοστώνη 639
θανατ@@ 639
ανάγκασε 639
ανατολ@@ 638
εξάρτηση 638
νυχτερινή 638
οδού 638
σταματ@@ 638
γαλήνη 638
ελληνικής 638
πρακτικό 638
gn@@ 638
βεβαιότητα 638
διδάσκονται 638
περιορισμοί 638
φωτογράφ@@ 638
δικών 637
εύσεων 637
λεγόταν 637
αισθανόμαστε 637
δυστυχία 637
φιν@@ 637
δεσ@@ 637
μεγιστ@@ 637
αναζητά 637
βαθμολογήθηκε 637
δημοσίων 637
σημειώθηκε 637
ρώτησες 637
γέμ@@ 637
sky@@ 637
ire 637
επιτρέψω 637
ευτές 637
μαρ 637
περιοδ@@ 637
πληθ@@ 637
φύλων 637
γερμανικής 637
βομβ@@ 636
ευαισθησία 636
ολυμπ@@ 636
καλύτερης 636
ελο 636
ελέγχους 636
1982 636
σκανδάλη 636
αναπόφευκτα 636
σπαταλ@@ 636
δημιουργήστε 636
τζόρνταν 636
μπλέξει 636
τισε 636
πήδα 636
ύρια 636
καλώδια 636
code 636
ελέγχω 636
κυρ@@ 636
μέτρησης 635
εκλογή 635
εκμάθηση 635
διαδικτυακή 635
wa 635
δυτικές 635
φτύ@@ 635
ποικιλ@@ 635
προτ@@ 635
συνηθισμένα 635
βιώσει 635
μεγαλύτερης 635
συριζα 635
ακολουθήσω 635
3ο 635
ειστε 635
άρθουρ 635
ειδοποιήσεις 635
vαι 635
τισμό 635
ζωγραφική 635
σκύλου 635
προσεχ@@ 635
τομή 635
lou@@ 635
νεκρά 634
110@@ 634
συνταγματάρχα 634
τσέπες 634
τόξο 634
á@@ 634
γουέιν 634
ξεχν@@ 634
συγχώρεσέ 634
διαδρομές 633
τραυματίστηκε 633
ξεπερνά 633
zz@@ 633
καταπι@@ 633
eί@@ 633
σιγουρ@@ 633
γειτον@@ 633
κορυφαίο 633
βίλ@@ 633
ειρηνικά 633
κανε 633
com@@ 633
stro@@ 633
καντ@@ 633
φοιτη@@ 633
christ@@ 633
σωματικά 632
μέv@@ 632
χαμηλές 632
έγκυρη 632
1930 632
δροσ@@ 632
κάμερον 632
open 632
επιταχύνει 632
ένσταση 632
αμερικάνικο 632
σιωπ@@ 632
φημ@@ 632
μοί 632
κυρώσεων 632
εργατικής 632
lat@@ 632
πλεον@@ 632
παρατηρήσει 631
φυτών 631
ώλ@@ 631
πλούσιους 631
βιβλ@@ 631
μαύροι 631
ντικ 631
κοινοτήτων 631
powerpoint 631
συλλ@@ 631
αναλυτικά 631
chat 630
βος 630
κινηθεί 630
οδος 630
ήρεμη 630
αδελφούς 630
170 630
ανησυχούμε 630
δειλός 630
κινδυν@@ 630
γονέων 630
νίκ@@ 630
περι 630
συγχων@@ 630
παύση 630
παρθένα 630
λίν 629
δεκα@@ 629
έμποροι 629
φωνής 629
τσερ 629
είρ@@ 629
έκφρασης 629
μάζ@@ 629
σωλήνα 629
οποιούνται 629
διαγωνισμός 629
ακούγεσαι 629
άσσεται 629
χω 629
γούστο 629
θεωρείτε 629
oύς 628
άλες 628
λίστες 628
σκυλάκι 628
-μια 628
κυριαρχ@@ 628
αργό 628
mir@@ 628
1969 628
πίστ@@ 628
απόσπασμα 628
χήρα 628
ish 628
000.000 627
τσούλα 627
ήμουνα 627
σιχαίνομαι 627
θές 627
19ου 627
διατροφ@@ 627
άδικα 627
ουγ@@ 627
ney 627
αναφέρουμε 627
τσάρλυ 627
δοχείο 627
πανδοχείο 627
ουτω 627
μπέν@@ 626
φεμιν@@ 626
ταχύτητες 626
θυμός 626
καθολ@@ 626
βουλευτές 626
αποτελούσε 626
ανθρωπο@@ 626
ακολουθήσετε 626
ασσ@@ 626
συνομιλ@@ 626
τέρι 626
γιέ 626
ach 626
νομίζαμε 626
κατέληξαν 626
ταξινόμηση 626
καινοτόμες 625
πρακτικών 625
αλληλεγγύη 625
αναγνωρίζεται 625
к@@ 625
εξυπηρετ@@ 625
δοκ@@ 625
καζ@@ 625
ήλθατε 625
ξαναδ@@ 625
λειτουργιών 625
mary 625
ατικές 625
αποτύπωμα 625
μιλήστε 625
επιβιώσουν 625
βάλτο 625
φτιάξουν 625
χτυπά 624
σον@@ 624
ηλεκτρικών 624
ton@@ 624
δικαιού@@ 624
ιμότητας 624
νευρικό 624
ονομάζουμε 624
ασεις 624
θρύλος 624
γκ-@@ 624
αφοσι@@ 624
ετής 624
κυνηγούν 624
πρόσεξα 624
τζα 624
βρετανός 624
bul@@ 624
κάνσας 624
ακραία 624
premium 624
wn 624
πυροβολήσεις 624
νίνα 624
βέλος 624
επιστολές 624
νεφ@@ 623
1981 623
αιγύπτου 623
κιμ@@ 623
θρόνο 623
ιαπων@@ 623
ρεπό 623
καφετέρια 623
λιαν@@ 623
ωνόταν 623
λέγομαι 623
άχθηκε 623
απορ@@ 623
ξουμε 623
καθόμαστε 623
διαλύ@@ 623
έβρισκα 623
άσια 623
ακούν 623
τείχη 623
μπάλες 622
σχολική 622
συνδεδεμένοι 622
κλείνω 622
ʼ@@ 622
αναλυτ@@ 622
εδρ@@ 622
fort 622
λογικής 622
διακό@@ 622
πρωτεΐνες 622
συμπεριλ@@ 622
βοηθάω 622
ωμάτων 622
κομμουνιστικό 622
ζητήσουμε 622
πλειονότητα 622
καμπίνα 621
οδόν 621
ευσή 621
αισθητήρες 621
εστιατορίου 621
ανταγωνιστές 621
ώνομαι 621
ευες 621
οριστεί 621
ή- 621
com 621
συνεπ@@ 621
επιτέθηκαν 621
κρε@@ 621
καταφέρνει 621
περίφημο 621
ήλι@@ 621
μυαλού 621
εμά@@ 621
παράγονται 620
σ'αρέσει 620
γενικού 620
παθήσεις 620
νομισμάτων 620
πιστολ@@ 620
vol@@ 620
παντρευτούμε 620
σύντροφο 620
αναμονής 620
ελεύθερες 620
φρέντι 620
θρησκείες 620
δολοφόνοι 620
προήλθε 620
αίνεται 620
χιλή 620
ανίχνευση 620
συγχώρ@@ 620
ακών 620
μετασχηματ@@ 620
kat@@ 620
νομίσματος 620
προκαλώντας 620
ελέγχεται 620
ανανεώσιμες 620
οϊ@@ 619
καινοτόμο 619
στάσεις 619
τσάντες 619
σενάρια 619
εψέ 619
τίγρη 619
set 619
αναζητ@@ 619
δευτ@@ 619
ψυχαγωγία 619
μετατρέπεται 619
ριζα 619
βάζετε 619
πoιoς 619
65@@ 619
marco 619
επιζώντες 619
τρίτους 619
ψηλό 619
απερ@@ 619
μπερδεύ@@ 619
βάρδια 618
κάτσεις 618
δράκος 618
1944 618
έβγαλες 618
πρόσθετες 618
καλη 618
έξυπνες 618
φετ@@ 618
-ωραία 618
επόμενους 618
μπαταριών 618
ιμου 618
γκού@@ 618
παρατήσεις 618
υποδηλώνει 618
εκραγεί 617
επικρ@@ 617
τετράγωνα 617
εργαζόμαστε 617
εγινε 617
συνεισ@@ 617
υποτροφία 617
μητρική 617
απαιτ@@ 617
κρατούμενοι 617
kong 617
domain 617
ίδρυσε 617
αρσεν@@ 617
1967 617
κατευθύνεται 617
άνθρω@@ 617
διαχωρ@@ 617
σαλάτα 617
έφευγε 617
πρόσθετη 617
άγματα 617
ατούν 617
φόρου 616
δικτυ@@ 616
σάκ@@ 616
αναγνώ@@ 616
τίπoτα 616
αχθούν 616
αμυντ@@ 616
αέρια 616
στηβ 616
ινός 616
αναπνέει 616
'μαστε 616
λων 616
μηνιαία 616
ανέκαθεν 616
ικοποι@@ 616
άρχη 616
ζήτα 616
συντάγματος 616
τζιλ 616
bin@@ 616
σημαντικοί 616
προειδοποιεί 616
ονομάζομαι 616
ελε@@ 615
αποκατάστασης 615
εύτηκα 615
γελάει 615
ηγετών 615
λεί@@ 615
-μη 615
ιστότοπους 615
ξεκούραση 615
τελείωνε 615
παί@@ 615
κρατάτε 615
σκεφτήκαμε 615
παραχωρ@@ 615
ανακαλύψουμε 615
κερδίζεις 615
ίση 615
τρελλ@@ 615
απολαμβάνει 615
σκελ@@ 615
χωριστ@@ 614
πόσον 614
επιτρέψουν 614
κλάσης 614
χρυσά 614
μειώθηκαν 614
οριστικά 614
κρατηση 614
χμμ 614
γκρεγκ 614
τίτλους 614
πίστα 614
αζερμπαϊτζάν 614
κούρσα 614
ονγκ 614
o-@@ 614
πμ 614
χειμερ@@ 614
επαρχ@@ 614
ετέ 613
όνγκ 613
καπιταλισμός 613
γαμημένε 613
διασχ@@ 613
κάλεσες 613
γρηγορ@@ 613
ιδρυτής 613
βρι@@ 613
1968 613
αμάξια 613
b-@@ 613
τιμόνι 613
σκοπιά 613
εγχειρίδιο 613
επέτειος 613
θέσω 613
σώσουν 613
αποφασίσεις 613
αναμφισβήτητα 613
εννο@@ 613
λάβουμε 613
γέλ@@ 613
καλύψουν 613
λογία 613
ασθ@@ 613
επειγόντως 612
δράμα 612
εξαφανίζονται 612
πραγματοποιούνται 612
άνθ@@ 612
τελειώνουν 612
ήμερο 612
μπόλ@@ 612
περπατάς 612
ουρα 612
αίους 612
στενό 612
μοτίβο 612
πρα 612
πάγος 612
fal@@ 612
προηγ@@ 612
καράβι 612
μαϊ@@ 611
μπάρμπαρα 611
αυτοι 611
αποχώρηση 611
αλί 611
λούκας 611
booking.com 611
μακιγιάζ 611
saint 611
συνεισφορά 611
εγκαταστ@@ 610
ευτικής 610
βρέθηκα 610
καλ 610
ανακαλύψουν 610
ρίξετε 610
υποψι@@ 610
σερίφης 610
τρένα 610
λογαριασμοί 610
προστατέψω 610
πακιστ@@ 610
πoλ@@ 610
ray 610
εγκριθεί 610
lon@@ 610
παραθύρου 610
εκπληκτικά 610
κοιτάμε 610
λάσπη 610
κόψουμε 610
στέμμα 610
πάτα 610
άρρωστο 610
δημοπρασία 610
αφρο@@ 610
συλλάβει 610
'ενας 610
ίασε 610
συνοψ@@ 610
κλήσεων 609
δολοφονίας 609
μάθιου 609
καθαρισμού 609
γεννιούνται 609
αρκετός 609
κοιμήθηκε 609
σκωτία 609
κονται 609
κτη@@ 609
market 609
πήγατε 609
πομπ@@ 609
φυλής 609
αίοι 609
πάολο 609
ath@@ 609
ναύ@@ 609
μπα@@ 609
βαρεθεί 609
επιβι@@ 609
tak@@ 608
ύνω 608
πραγματοποίησε 608
καρτέλα 608
έφτιαξες 608
εξαιρέσεις 608
τέιλορ 608
δίδυμα 608
παρεξηγ@@ 608
αρρωστ@@ 608
ωνία 608
παραστ@@ 608
θησαυρό 608
ψεύτικη 608
υγι@@ 608
έστερη 608
προβλήματά 608
ακουστεί 608
άθλημα 608
ανακουφ@@ 608
φόντο 607
water 607
\ 607
άγνωστος 607
πλησιάζουν 607
φύλου 607
νομο@@ 607
αστείτε 607
αγαπήσει 607
καθως 607
μαμ@@ 607
δικηγορ@@ 607
βγαίνουμε 606
sta 606
yu@@ 606
ολογικής 606
φάλ@@ 606
εφαρμόσει 606
βασίλισσας 606
ά- 606
μονάδας 606
χων@@ 606
αποτυπ@@ 606
έvας 606
παραιτ@@ 606
έφτ@@ 606
ελαφρύ 606
τρέχοντας 606
συζητήσει 606
φανταζόμουν 606
ψήφο 606
βασίλ@@ 606
φορώντας 605
75@@ 605
βολικό 605
έιμ@@ 605
πτυχή 605
πολιτιστικό 605
τελικός 605
ημερα 605
βρείς 605
δo@@ 605
νεολαία 605
προφ@@ 605
κέιτι 605
γ. 605
έφηβοι 605
αραβ@@ 605
φτωχός 605
υιοι 604
κοτ@@ 604
gnu 604
κη 604
φιλοδοξία 604
δαίμονας 604
τιστ@@ 604
che 604
δημοκρατ@@ 604
ρύπανσης 604
εκτεταμένη 604
νόμων 604
περιστάσεις 604
καταπληκτικά 604
αλβανία 604
πουλήσεις 604
έργ@@ 604
άξατε 604
ευρωπαίους 604
νορβηγ@@ 604
ερωτική 604
μάτσο 604
κατασκευαστή 604
φος 604
συναισθηματικά 604
lync 604
church 603
ηφ@@ 603
μιλούσαν 603
χοντρή 603
jun@@ 603
επισκόπηση 603
ήσαν 603
άφηνα 603
προσώπων 603
δημόσιων 603
δίσκου 603
'ταν 603
τσίρκο 603
τσού@@ 603
οδηγού 603
14.@@ 603
συζητήσαμε 603
ρισμό 603
παρακολουθήσουν 603
επισημαίνει 603
σκούπα 603
φοβερά 602
χρήσεις 602
βασισμένη 602
sex 602
παράταση 602
τρο@@ 602
δ᾽ 602
ιούνται 602
mur@@ 602
νοιάζεσαι 602
σύσταση 602
'ρθεις 602
ρισης 602
δέσ@@ 602
εκτέλεσης 602
105 602
στό@@ 602
περνούσε 602
μπαμπάκα 602
-οι 602
μάσκες 602
security 602
εθελοντ@@ 602
ηρεμ@@ 601
στρατηγ@@ 601
ινγκτον 601
εργάζεστε 601
άκρο 601
ανακαλύφθηκε 601
1978 601
γλυ@@ 601
ετές 601
οποιημένο 601
νικήσεις 601
λυπηρό 601
πολιτιστικές 601
ρόι 601
κομμουνιστές 601
ιτών 601
ιμους 601
πετάω 601
μαθήματος 601
λόρ@@ 601
εργοδότες 601
σκάφους 601
ζηλεύω 600
φορέσεις 600
αυστρι@@ 600
'αυτόν 600
δυστύχημα 600
οργανώσεων 600
μπoρ@@ 600
θεσσαλονίκη 600
λαχ@@ 600
αθλήματα 600
πριv 600
αγμα 600
φρέσκα 600
εποχ@@ 600
φαιν@@ 600
ένστικτο 600
ιμότητα 600
άτι 600
διευθύντρια 600
em 600
xiaomi 600
ισθεί 599
καναπές 599
τέτοιων 599
μαι@@ 599
μεταβείτε 599
τουρισμού 599
λέγονται 599
σαφ@@ 599
ιερείς 599
κουλ@@ 599
επιθεωρητής 599
οπεκ 599
συγκεντρώσει 599
smith 599
επαναλαμβάν@@ 599
ιμπ@@ 599
λυθεί 599
σκεφτόσουν 599
green@@ 599
σκαρφαλ@@ 599
ωμένου 598
ανν 598
τ-@@ 598
ανταποκρίνονται 598
φοβήθηκα 598
μεντ@@ 598
κόλλησε 598
ζύ@@ 598
καρκιν@@ 598
κρεβατοκάμαρα 598
ολοκληρωτικά 598
βάζ@@ 598
φετινή 598
αριστερ@@ 598
iti@@ 598
gran@@ 598
οδηγώ 598
ατλάντα 598
έζ 598
τισσα 598
kal@@ 598
ασχολείσαι 598
επιλέγει 598
δάχτυλά 598
βίνσεντ 597
κατηγορείς 597
μπρού@@ 597
γραμμών 597
θά@@ 597
προεδρία 597
μάχ@@ 597
ενδιαφέρουσες 597
αΐ@@ 597
υπόλ@@ 597
οικονομολόγοι 597
ενώσεις 597
συμπόνια 597
στραβ@@ 597
βροχ@@ 597
ηλικίες 597
point 597
αραβική 597
φόβους 597
άζομαι 597
αλλη 597
πραγ@@ 597
oύτε 597
πάσο 596
απόβλητα 596
tρ@@ 596
καπιταλ@@ 596
off 596
τόλ@@ 596
ξίφος 596
πυροβολήσει 596
γαλλικής 596
προχωράμε 596
πάσχα 596
εγχειρ@@ 596
προγραμματισμό 595
ενθουσιασμό 595
φλιτζάνι 595
βοήθησα 595
ομαδική 595
προηγμένες 595
σεισμό 595
ανάκριση 595
σύστημά 595
απέχουν 595
σέβεται 595
βια 595
μαμα 595
lau@@ 595
σύλλογος 595
κατάταξης 595
εξωτερικού 595
πινακίδες 595
τζανέιρο 595
mes@@ 595
εμποδ@@ 595
βιβλι@@ 595
σκεπτ@@ 595
τορες 595
αναφέρεις 595
ανθρωπιστική 595
άψεις 595
σκέτη 595
εξοργ@@ 595
εξοικονόμηση 595
ζωντανούς 595
πάθεις 595
hd@@ 595
στρατιωτών 594
hot 594
δικαιοδοσία 594
ομ 594
ασθένειας 594
στηρίζει 594
μεταβλ@@ 594
ίζα 594
επίσημες 594
ε. 594
αιτίας 594
κούπα 594
θρω@@ 594
κουνι@@ 594
κρανίο 594
αφήν@@ 594
σελίδων 594
άντυ 594
°c 594
παραγόντων 594
ρεντ 594
εμπο@@ 593
ας-@@ 593
ικς 593
εμιράτα 593
sport 593
ότη@@ 593
επικοινωνήσω 593
χίλιες 593
συνειδ@@ 593
ποτήρια 593
1972 593
νὰ 593
υποβρύχια 593
θελουσι 593
νοιάζομαι 593
πετύχεις 593
κάλεσαν 593
ακριβές 593
πλησιάσει 593
προσπαθήσουν 593
φτάνουμε 593
διαταρ@@ 593
έμαι 593
οδηγήσεις 592
ενημέρωσε 592
είμασταν 592
ρωτ@@ 592
γουρούνια 592
βελτιώνει 592
τηγαν@@ 592
ντέιβις 592
χαρτιού 592
μπoρώ 592
μουσικό 592
καταγγελία 592
πόλεμοι 591
δoυλειά 591
1971 591
έλεγξε 591
λαρ@@ 591
τέλους 591
γουίντ@@ 591
g/@@ 591
καρφί 591
μηχανικούς 591
andy 591
αναμένει 591
ύφ@@ 591
πέθαινε 591
δώσατε 591
συγγvώμη 591
νόρ@@ 591
ου-@@ 591
αξεσουάρ 591
ελικόπτερα 591
πείσεις 591
αποσπ@@ 591
αναπτυχθούν 591
προχώρησε 591
αθλητισμού 591
περιορισμένο 591
μισθούς 591
μήκους 591
προφήτης 591
εμου 590
εικονική 590
έντ 590
εγχώρια 590
κρέ@@ 590
μίν@@ 590
προώθησης 590
σκόπ@@ 590
θέτουν 590
αφιερωμένο 590
τραβήξω 590
αποκτά 590
παρουσιάζεται 590
ογράφος 590
φωτειν@@ 590
ευεργ@@ 589
παικτών 589
απευθυν@@ 589
μπουκάλια 589
ειχ@@ 589
'ρθει 589
επικρατεί 589
μάργκαρετ 589
σάλι 589
συνεργαζόμαστε 589
ταϊ@@ 589
220 589
επιτελ@@ 589
παραβιάσεις 589
ὴ 589
πίστωσης 589
mια 589
ιούς 589
παρακολουθείτε 589
πονάς 589
χρονου 588
τζέν@@ 588
ελεγ@@ 588
1977 588
φλόγα 588
κόνορ 588
συνεχίζεις 588
ἐς 588
light 588
παραδέχομαι 588
κορυφ@@ 588
mα 588
καρδι@@ 588
δήμος 588
συνθήκης 588
αφορ@@ 588
λογαριασμών 588
αρι 588
ess 588
μικρούς 588
123 588
τηλεφωνική 588
καυ@@ 588
προσέξει 588
αντίπαλο 588
κείνη 587
καθηγήτρια 587
ασει 587
στέλεχος 587
φαρμακευτική 587
πραγματικοί 587
εὐνὴν 587
ἠδικημένη 587
κυρῇ 587
έλι@@ 587
πονηρ@@ 587
θρην@@ 587
00-@@ 587
φανταστικά 587
πινακίδα 587
-ξέρεις 587
πόνου 587
κοριτσιού 587
ανανέωση 587
αποκαλούμε 587
συμφωνούμε 587
τηλεφωνήσεις 587
dre@@ 587
βελτιστ@@ 587
λιν@@ 586
vs 586
ηλι@@ 586
συναλλάγματος 586
σπάσεις 586
αποκαλεί 586
διαχειριστείτε 586
πίστευες 586
στό 586
ποινικό 586
αποκλειστική 586
πονοκέφαλο 586
1965 586
έξτρα 586
υμα 586
εγκεφαλικό 586
gan 586
αλεξ@@ 585
ούλης 585
ούτω 585
κατο@@ 585
την@@ 585
αντιμετωπίσεις 585
χρήσιμος 585
κουμπιά 585
κρίστιαν 585
παραμύθια 585
επιδράσεις 585
ευμένα 585
γλυκειά 585
ευθούν 585
κατασκευάσει 585
onedrive 585
τυχερ@@ 585
λέξης 585
σκάσει 585
bo 585
αρχι@@ 585
ερώ@@ 585
στεναχωρ@@ 585
78@@ 585
χρησιμοποιούσε 585
usa 585
wat@@ 585
μόνικα 584
βαση 584
ction 584
ες-@@ 584
πλούτος 584
κιβώτιο 584
χι 584
ντουλάπι 584
αναγ@@ 584
εφέ 584
πολεμιστές 584
αγωνίζονται 584
ίδη 584
chrome 584
εγκατασταθεί 584
αληθεύει 584
γλιτ@@ 584
υρα 584
2-3 584
διατηρούμε 584
σκόρ@@ 584
εφιάλτη 584
στιούαρτ 584
ass@@ 584
χτύπησαν 583
executive 583
ημερησίως 583
msc 583
πλάγια 583
ταλέντα 583
τραβάς 583
ανομ@@ 583
αποφοίτων 583
τεράστιος 583
ύσω 583
καθενός 583
εποπτ@@ 583
ονος 583
ιστορια 583
ντόνα 583
προσοχής 583
δασκάλους 583
​​από 583
θερμότητα 583
εγκέφαλό 583
ψ 583
κινέζ@@ 583
δραπετ@@ 583
σπρώ@@ 583
υνθεί 583
πρόληψης 583
διασφαλίσουμε 583
απέρριψε 583
ωνας 583
τζετ 583
γκόμενες 582
πέσω 582
ερε 582
χοντρό 582
συμμαχ@@ 582
θέρετρο 582
λαούς 582
τραύματα 582
πόσ@@ 582
γεμίζει 582
για@@ 582
μαγαζιά 582
βοηθώντας 582
κατασχ@@ 582
get 582
αναγνωρίζω 582
4,5 582
κυβερνητική 582
φοράνε 582
υπερ-@@ 582
μάσ@@ 582
-από 582
σταν 582
νίκης 582
προηγμένη 582
ψάξτε 581
γιάννης 581
έτοιμες 581
κακο@@ 581
ηλεκτρον@@ 581
κωδικού 581
παραιτήθηκε 581
ὑ@@ 581
μπαστούνι 581
galaxy 581
κότα 581
ρούχων 581
άρας 581
εμβόλια 581
ωv@@ 581
γέμισε 581
ώμους 581
γκει@@ 581
κρύβεις 581
άρηδες 581
anna 581
τουλ@@ 581
δίσκους 581
αναμενόμενο 581
τυπο@@ 581
νεντ 580
εφαρμόσουν 580
pon@@ 580
ύπαρξή 580
φλόγες 580
αγκ 580
νυχτερ@@ 580
ότη 580
μαρίας 580
σκηνικό 580
αίνοντας 580
στόχ@@ 580
1500 580
έδειξα 580
άγγιξε 580
δεσμό 580
αναζητώντας 580
διατηρήσουμε 580
λάρι 580
london 580
γύρος 580
καρτών 580
'oχι 580
άλμπερτ 580
.net 580
αλο 580
συνέλαβαν 579
φτιάξε 579
αντάρτες 579
ξανασυμβεί 579
μμμ 579
μάθ@@ 579
βαρι@@ 579
περού 579
παραμικρή 579
αγοράσουμε 579
whatsapp 579
εραστής 579
nam@@ 579
συμβιβ@@ 579
βαδ@@ 579
ρεσεψιόν 579
ντροπι@@ 579
υπαλλήλων 579
δεσμευτεί 579
αυξαν@@ 579
παραγωγικότητα 579
μερος 579
ψεύτικα 579
ακτίνες 579
ξεγ@@ 579
εποχών 579
kατ@@ 579
κλωτσ@@ 578
διπλωματ@@ 578
nar@@ 578
ανακοινώθηκε 578
μαγική 578
πολυτέλεια 578
αξιόπιστο 578
εφηβ@@ 578
εγκαθ@@ 578
σχεδίαση 578
7/@@ 578
περιορισμός 578
εύκολος 578
can 578
οπαδοί 578
ώμ@@ 578
αναγνωρισ@@ 578
αιώνας 578
διαφορών 578
παλιότερα 578
γούντ@@ 577
αστυνόμος 577
διορθώσω 577
συλλογική 577
ack 577
μίλι 577
κατηγορώ 577
στή@@ 577
power 577
θλιβερό 577
ψης 577
αντισταθμ@@ 577
κατορθ@@ 577
ταχυ@@ 577
αρχειο@@ 577
γράψουμε 577
λακ@@ 577
αγόρ@@ 577
ληστές 577
αγροτική 577
άλη 577
1920 576
μπάτμαν 576
ασκεί 576
σκοτειν@@ 576
μικρότερες 576
έκλεισαν 576
cab@@ 576
κλείνουν 576
υπηρετ@@ 576
ειπα 576
καταλαβ@@ 576
βαλίτσες 576
βοήθησες 576
ρατσ@@ 576
εσσδ 576
μελβούρνη 576
φτιαγμένο 576
ανάληψη 576
τερέζα 576
μπάρμπι 576
fun@@ 576
λήξει 576
σχηματισμό 575
ναυτιλ@@ 575
προστατέψει 575
γραφικό 575
william 575
6/@@ 575
δειτε 575
henry 575
τοῦ 575
εξοντ@@ 575
καλωσήρθατε 575
ho 575
αχτεί 575
έσαι 575
ακας 575
ξοδ@@ 575
τρομοκρατικές 575
δολ 574
πάρκα 574
-σου 574
συνελήφθησαν 574
υστερ@@ 574
προσφέρ@@ 574
λαοί 574
ανθρωπ@@ 574
pin@@ 574
δειπν@@ 574
σφραγίδα 574
els 574
σώματός 574
καρπούς 574
νας 574
φι 574
δημόσιου 574
μετ 574
διαφυγής 574
προσιτή 574
νάν@@ 574
τούρ@@ 574
ορόφους 574
αποκαλείται 574
ιππο@@ 574
καρέκλες 574
αρτ 574
1-2 574
κλαιρ 573
άνας 573
δ. 573
προσεγγίσεις 573
cs 573
ετικό 573
άπλ@@ 573
πάλης 573
ενοχλητικό 573
αφές 573
διοργάνωση 573
σκύλοι 573
φρεν@@ 573
γιανγκ 573
θύματος 573
καταθέσει 573
εστ 573
υποστηρικ@@ 573
άζονταν 573
προκαλείται 573
mη 573
δικαστική 573
βρώμικα 573
κερδίσαμε 573
πολύπλοκο 573
rt 573
αντανακλ@@ 573
ανοσοποιητικό 573
ψυχολογίας 573
γενναία 572
στρώματα 572
μοσ@@ 572
αφγαν@@ 572
γυναικείο 572
ισχυρότερη 572
έφθασε 572
σπέρμα 572
φόρων 572
stri@@ 572
έψου 572
shar@@ 572
έκλεισα 572
δερ@@ 572
συνεργαστούν 572
τζέρεμι 572
χρηματοδο@@ 572
ασθενούς 572
συγκεντρώσου 572
φέρ 572
δικαιώματος 572
back@@ 572
ράφ@@ 572
εξοχότατε 571
συνεργασίες 571
μονό 571
σκοτώσετε 571
δουλεύετε 571
ακολουθήσεις 571
εγκαταστάσεων 571
πόρνες 571
εκρήξεις 571
σκην@@ 571
υποχρεωτική 571
λογοτεχν@@ 571
ιδιωτικών 571
ανοησία 571
φέρονται 571
αγωγής 571
-την 571
κόβει 571
μεταφερθεί 570
σαπούνι 570
1976 570
εξαρτήματα 570
hp 570
rd 570
όμπ@@ 570
περιγράφ@@ 570
uk 570
γιάν@@ 570
τορας 570
ἄ@@ 570
ερωτη@@ 570
3.1 570
ωμεν 570
δεχτούν 570
απ'τους 570
μαγείρεμα 570
προσελκύει 569
μορφών 569
εκπροσωπ@@ 569
σύντροφό 569
ωσιν 569
γαρ@@ 569
δάγκωσε 569
χάκερ 569
τόνοι 569
περιφερειακό 569
cast@@ 569
πουέρτο 569
'κει 569
αυξηθούν 569
εμπιστεύεται 569
προσφερ@@ 569
περπατάει 569
οποιημένη 569
institute 569
αριστείας 569
μετανι@@ 569
νη@@ 568
πέρνα 568
ποικίλ@@ 568
θεμέλιο 568
εγγόνια 568
διαδρομής 568
βιώσιμο 568
καταφέρουν 568
κλόουν 568
ρώσους 568
επεκταθεί 568
αληθινές 568
15-@@ 568
ητήρια 568
άρικο 568
υποστηρίξουν 568
ίκα 568
πρεμιέρα 568
προσανατολισμό 568
δεκατ@@ 568
φράγκα 568
διαλέξει 567
ψιλ@@ 567
δύσκολος 567
κόκα 567
χρή@@ 567
στοv 567
2050 567
ανταγωνιστικό 567
ζόρι 567
om 567
μικρόφωνο 567
αντιμετωπίσω 567
αφεί 567
κίτρινα 567
13.@@ 567
αρχηγείο 567
δορυφόρο 567
χαραμ@@ 567
τηλεοπτική 567
πρόποση 567
ανακτ@@ 567
κήρυγμα 567
συνδεδεμένο 567
βδ@@ 567
12-@@ 567
εθούν 567
βούτυρο 567
vic@@ 567
ολο@@ 567
ψυχαγωγίας 567
γνωρίζατε 567
εθ 567
κουτσ@@ 566
παιδι 566
πυροβολισμοί 566
συγχρόνως 566
ενισχυ@@ 566
ενημερωτικό 566
μπρούκλιν 566
μάιλς 566
ρεμπέκα 566
ελπίζοντας 566
άξιος 566
κόκκιν@@ 566
κρατού@@ 566
ρωμαίους 566
ηστ@@ 566
τηκες 566
τρίτης 566
use 566
πάvω 566
περιορίσει 566
ζητ@@ 565
τραπεζαρία 565
ησία 565
αποφασίσετε 565
κρατώντας 565
ξυπνήσω 565
ούντα 565
τζέικομπ 565
συνορ@@ 565
υγρά 565
βότκα 565
οστις 565
τούτη 565
ητου 565
πετάξουμε 565
κινδυνεύουν 565
-μάλιστα 565
εύεστε 565
σπασμένο 564
τοπο@@ 564
ντυ@@ 564
απλοί 564
φρουρ@@ 564
μπρό@@ 564
ρωτάτε 564
γουεϊ 564
κουλ 564
ακίν@@ 564
ανώτερος 564
act 564
'τον 564
γέφυρες 564
καταγραφεί 564
υπηρεσ@@ 563
κατανοήσει 563
gen 563
aparthotel 563
3.0 563
μετάδοσης 563
επιπέδων 563
γιαγιάς 563
μπανγκόκ 563
αναπτυξ@@ 563
ηθοποιοί 563
συναίνεση 563
φέρετρο 563
tt 563
θεούλη 563
μαχητές 563
ημερολογίου 563
ιντσών 563
σκεφτούν 563
βρίσκετε 563
πλατφόρμας 562
σοβαρότητα 562
κογκρέσου 562
ποταμ@@ 562
βιντεο@@ 562
αδρ@@ 562
επιμέλεια 562
ζωγράφος 562
1900 562
συνδικαλ@@ 562
πουλάς 562
αναρωτιέσαι 562
θα'πρεπε 562
απαλά 562
ολόκληρα 562
αvτ@@ 562
μπίρα 562
μοναδικές 562
αθεί 562
τζούλι 562
stan@@ 562
dal@@ 562
συμπεριφερ@@ 562
ειρηνική 562
10,@@ 562
φέραμε 562
βελτιώσουμε 562
ves 561
χειριστεί 561
γερμανικές 561
προαίσθημα 561
εντολών 561
πηρ@@ 561
παραμέτρους 561
έρο 561
ευχές 561
ανής 561
κατάρ@@ 561
ψυχολογική 561
θανατηφόρα 561
las@@ 561
ασφάλ@@ 561
προσεκτικός 561
ενδο@@ 561
μεσαία 561
γκόρ@@ 561
ροδ@@ 561
σεμινάρια 561
θύελλα 561
δραματικά 561
έρχονταν 561
θεον 561
ότατο 560
αντρών 560
huawei 560
ποδηλ@@ 560
αρέσω 560
εσή 560
nas@@ 560
προγραμματιστεί 560
εγκ@@ 560
ίκια 560
εξασφαλίσουν 560
τεται 560
θει 560
χλωρ@@ 560
παρατήσω 560
καρχαρίες 560
ατικών 560
διεξάγει 560
κωδικ@@ 560
προσεύχομαι 560
εργαζομένους 560
δόλωμα 560
land@@ 560
επιδιώκουν 560
κρού@@ 559
καταδίκη 559
εκείνης 559
κατάλληλος 559
αποδεικνύουν 559
αψα 559
τίνα 559
έμενα 559
είδ@@ 559
τυποποι@@ 559
εκτελέσει 559
κυρίας 559
λίβερπουλ 559
ενεργεί 559
μιση 559
σιν 559
ερχεται 559
κινητοποι@@ 559
ζά@@ 558
συντροφιά 558
nan@@ 558
άγγελ@@ 558
ερευνητικές 558
ποταμός 558
αφέντης 558
ιστερ 558
ρωσικές 558
ίσκο 558
όνιο 558
φιλοξενήσει 558
dan 558
διάλεξα 558
γκαν@@ 558
μπλέ@@ 558
φρουροί 558
τικοί 558
υπηρέτης 558
ποτάμια 558
περιποι@@ 558
απ'αυτό 558
σημεί@@ 558
ικανοποιημένοι 557
πυλ@@ 557
σιμ@@ 557
φη 557
ψυχρ@@ 557
φελ@@ 557
ζητι@@ 557
γνώ@@ 557
ταξί@@ 557
οφειλ@@ 557
καρφ@@ 557
ειδικ@@ 557
αντίρρηση 557
περιβαλλοντικών 557
σύλληψης 557
'ννα 557
oμ@@ 557
ανακοινώσεις 557
un 557
γάζα 557
reg@@ 557
ανέ@@ 557
ίωση 557
μοι 557
λά 557
burg 557
φάτσα 557
βει 557
σύντροφε 556
κρυπτογράφησης 556
inn@@ 556
δρομολογ@@ 556
περιφρον@@ 556
ολόκληρης 556
εντοπ@@ 556
ύλες 556
ανεξ@@ 556
αληθινοί 556
πλήκτρο 556
αψες 556
βλεπ@@ 556
χορεύει 556
κυβερνήσεων 556
ειος 556
ήτρια 556
καθιστικού 556
ὰ 556
αρκούδες 556
μης 556
μακρινό 556
χί@@ 556
πειρασμό 556
υπογραμμ@@ 556
stone 556
εξυπηρετητή 556
end 556
ριζοσπ@@ 555
τσεν 555
βγάλετε 555
στρι@@ 555
ίσεων 555
εξασφάλιση 555
εγκρίνει 555
κύτταρο 555
σιδηροδρομικό 555
μεταφέρθηκε 555
σταθερότητας 555
έδες 555
ίωσης 555
roo@@ 555
κέι@@ 555
άμεσες 555
προσπαθήσαμε 555
νταβ@@ 555
σύνδε@@ 555
m2 555
μπόρεσαν 555
πρόσφερε 555
κάποιων 555
εμένο 554
ιθ@@ 554
ινες 554
λίγo 554
υπo@@ 554
ky@@ 554
ιδεολογία 554
ελέγχετε 554
συναντηθήκαμε 554
ηρεμήσεις 554
ουράνιο 554
σέβ@@ 554
επιτάχυνση 554
απειλούν 554
διαπραγματεύσεων 554
εινε 554
καλού 554
αλεπού 554
ρώτησαν 554
εγκαταλείψουν 554
γροθιά 554
gallery 554
μπουλ@@ 554
προκλ@@ 554
bit@@ 553
σίντνεϊ 553
υπέστη 553
άρο 553
κατω 553
γο@@ 553
πολυπλοκότητα 553
σαταν@@ 553
θησαυρός 553
εξοπλισμένο 553
δήμου 553
-πάμε 553
καμπάνια 553
επιτρέπετε 553
bir@@ 553
ότα 553
gon 553
κινεζικές 553
κατακτ@@ 553
επιθεωρ@@ 553
αηδι@@ 553
άβα 553
ηπτ@@ 553
απελ@@ 552
δούλ@@ 552
ησίας 552
ερωμένη 552
σταλ@@ 552
μελλοντικά 552
εξοικει@@ 552
κλαίω 552
iv@@ 552
όνε 552
αποκτούν 552
αλντ 552
τραγουδίστρια 552
φαρμακείο 552
ασχολούμαι 552
εισηγ@@ 552
διών 552
επιδειν@@ 552
sun 552
ποιοτ@@ 552
έμιλι 552
επαφών 551
χρεωστική 551
ψευδαίσθηση 551
μονή 551
πισινό 551
τόσo 551
μω@@ 551
κόκκινος 551
ζο 551
εντερ@@ 551
δημοτικού 551
ουλι@@ 551
φεύγετε 551
εταίρος 551
επισκεφ@@ 551
ή/και 551
κακία 551
εραστές 551
αίρ@@ 551
επηρεάζονται 551
σερβία 551
ολους 551
άραβες 551
750 551
πλησιάζεις 551
л@@ 551
ξεκαθαρίσουμε 551
ιερέα 550
απέρ@@ 550
ενοχ@@ 550
αστυνομική 550
χες 550
φoρ@@ 550
απότομα 550
1983 550
κλειστή 550
μείγμα 550
στρατιωτικά 550
:0@@ 550
ρισκ@@ 550
τελος 550
κουφ@@ 550
εγκλ@@ 550
nsa 550
bridge 550
αποτυχ@@ 550
πάγ@@ 550
πλήρωσα 550
ωφέλ@@ 550
στική 550
γενετ@@ 549
auto@@ 549
ment@@ 549
σύντροφος 549
εκκρεμ@@ 549
πάγκο 549
μεταβιβ@@ 549
τός 549
αθώο 549
απληστία 549
νέλσον 549
μαύρους 549
άχρηστο 549
μωρ@@ 549
vista 549
δεύτερου 549
ενημερώσει 549
καλέσεις 549
σοκολάτας 549
ese 549
vip 549
έλεγχοι 549
μυστήρια 549
ωμένης 549
ανάγκ@@ 549
δαμ@@ 548
σηκωθεί 548
συγχώνευση 548
διασφαλιστεί 548
περηφάνια 548
τούσα 548
δημοσίως 548
11-@@ 548
ψυχικής 548
ίτ 548
οστό 548
ria 548
διασκέδ@@ 548
μπακ 548
μπολ@@ 548
στατιστικές 548
αντιμετώπισης 548
βιομηχανικές 548
εγγυάται 548
απατεώνας 548
αντίστασης 548
digital 548
τραμ 548
ανί@@ 548
υπόσχεσαι 548
δεχτείτε 547
πανω 547
αξίζω 547
ντερ@@ 547
συνέχ@@ 547
ακολουθούμε 547
καρδιαγγ@@ 547
dun@@ 547
χαμένα 547
λιπαρά 547
ημας 547
cur@@ 547
διατριβή 547
εκτος 547
αιος 547
παραιτηθεί 547
ανεπάρκεια 547
ξανακούσει 547
ιρλανδίας 547
στατιστική 547
μπάσταρδος 547
σαρκ@@ 547
αναμένουμε 547
δασμούς 546
ομοίως 546
διατηρούνται 546
τουρνουά 546
ογραφίας 546
αμερικάνικη 546
καπνίζεις 546
πικ@@ 546
εταίροι 546
γνωριζόμαστε 546
καραμ@@ 546
lg 546
ψήφ@@ 546
έτρεξε 546
ισή 546
οραματ@@ 546
διάλυση 546
έγκυρο 546
αξ 546
γνωρίσουμε 546
συλλάβουν 546
στέφ@@ 546
εδι@@ 545
ενδιαφέρεσαι 545
τηλεφωνήματα 545
εκλεγ@@ 545
play@@ 545
μεταφέρουμε 545
λάμπει 545
μπίλ@@ 545
οχάιο 545
ατσ@@ 545
rit@@ 545
κεντρικές 545
χερσόνησο 545
επιθεώρηση 545
στρατηγικών 545
αυξάνουν 545
προσκυν@@ 545
vει 545
έγραψαν 545
wor@@ 545
εσες 545
εγκέφαλός 545
χριστιανούς 545
βιωσιμότητα 545
αναχώρηση 545
πιάνουν 544
αυξήσεις 544
μπέλ@@ 544
περίφημα 544
λήγει 544
ηθικά 544
fifa 544
λαμβάνεται 544
γου 544
mont 544
χοντρός 544
μικρότερος 544
ζήλ@@ 544
κόλλ@@ 544
music 544
φινλαν@@ 544
action 544
πυρηνικής 544
κολ 544
εντοπίσουμε 544
επιβλ@@ 544
καταρρ@@ 544
αινες 544
χρηματο@@ 544
προτίμηση 543
νιώσετε 543
παρόχους 543
βελτίωσης 543
ειακές 543
ξέσπασε 543
νοιάζονται 543
υγιεινής 543
υπολογισμούς 543
λείψεις 543
δάσους 543
μιχαήλ 543
γραφικών 543
διάλεξες 543
ὅ@@ 543
μέταλλο 543
iii 543
φιλόσοφος 543
αντιβιοτικά 543
ανελκυστήρα 543
έβγαινε 542
απατεώνες 542
διαλυ@@ 542
πολύτιμα 542
τζόναθαν 542
ωτες 542
αναζη@@ 542
αποκαλώ 542
φοράτε 542
δώστο 542
παράξενος 542
oν 542
έρων 542
κάv@@ 542
κατέρρευσε 542
ιδρύ@@ 542
ωραια 542
φιλαδέλφεια 542
βιαστούμε 542
εικονικό 542
ίβ@@ 542
τάιλερ 542
επεσήμανε 541
πιστέψουμε 541
λίβανο 541
ευτούμε 541
συναντήσετε 541
μούρη 541
stra@@ 541
παοκ 541
θύρα 541
ένι@@ 541
βραστήρα 541
μυθ@@ 541
αθλητισμό 541
ορισμένο 541
ακολούθησα 541
αποστάσεις 541
ορειν@@ 541
fer 541
τρώγ@@ 541
ιλς 541
τεχνητής 541
superior 541
στενοχωρ@@ 541
βουτ@@ 540
υπόγεια 540
πειράξει 540
τρόμου 540
ολή 540
αλληλο@@ 540
θεμελιώδεις 540
a.com 540
επιτρέψουμε 540
διάδοση 540
ράσελ 540
άου 540
ωστ@@ 540
εκφοβ@@ 540
καταρρέει 540
θεν 540
λώρα 540
πυρηνικές 540
απάντησα 540
οδο@@ 540
δασών 540
κοινωνικού 540
ενότητες 540
υδάτων 540
υγειονομική 540
κωμωδία 540
σύγχρονων 540
κλιν@@ 540
θέλημα 540
ικετ@@ 540
isis 540
ωτά 539
χάρισμα 539
άχρηστος 539
φωτεινό 539
κόλπου 539
μεταφέρω 539
ότερου 539
τζούνιορ 539
διαχειρ@@ 539
αλα 539
τριαντάφυλλο 539
σιγ@@ 539
σκλάβοι 539
άκουσαν 539
128 539
σήκωσέ 539
χτίσει 539
αντιπολίτευση 539
αποστολ@@ 539
γε@@ 539
νευρικός 539
φιλήσω 539
πάπα 539
αδικία 539
χαρακτήρων 539
άντριου 539
συναγερμό 539
vin@@ 539
δημοσιεύσεις 539
ομολόγων 539
κούν@@ 539
άμπι 538
βενεζουέλας 538
πιστωτικές 538
θος 538
ανακαλύψετε 538
αναπτύσσουν 538
γαρίφαλα 538
'επρεπε 538
its 538
τάγμα 538
έκτακτη 538
αιναν 538
παρασύρ@@ 538
ζωολογικό 538
πιγκου@@ 538
φακέλου 538
ζακ@@ 538
συνδεδεμένα 538
γεννήτρια 538
αυτονομία 538
προβλέψ@@ 538
aν@@ 538
κράτησα 538
βασιλιάδες 538
σεντς 538
απαλ@@ 538
υποστήριξή 537
ικρ@@ 537
μεταφορ@@ 537
εκφράσεις 537
τητο 537
pres@@ 537
μετέφερε 537
προορισμούς 537
βιολογική 537
ΐας 537
1.1 537
smart 537
μπαίνουμε 537
ντέιλ 537
γυμναστική 537
αποικία 537
παναμά 537
ούρια 537
γουίν@@ 537
σος 537
χάνονται 537
διεξάγεται 537
επανεκκίνηση 537
όροφος 536
3/4 536
συντομ@@ 536
white 536
πρόδωσε 536
οπου 536
ανακαλύψαμε 536
κακοποίηση 536
μαρακές 536
πεδ@@ 536
υμν@@ 536
ά… 536
προδότης 536
φιλίας 536
ston 536
1948 536
τύπ@@ 536
αποφύγουν 536
τοίχος 536
ότητα@@ 536
ρίζα 535
προνόμια 535
αρνούνται 535
εκνευρ@@ 535
απ΄το 535
αναπόφευκτη 535
περιπέτειες 535
έβαζε 535
καταραμένη 535
αντιπολίτευσης 535
ποτών 535
μνημεία 535
βιολογικά 535
καταναλωτή 535
ζητήσουν 535
14:@@ 535
γερουσιαστή 535
οβολ@@ 535
wel@@ 535
καθόμουν 535
trans@@ 535
ανταρκτική 535
σιδερώματος 535
εισέλθει 535
ηθήκατε 534
smartphones 534
εξάπλωση 534
όμουνα 534
σπάρ@@ 534
κινέζους 534
νεαρές 534
bet@@ 534
όμου 534
test 534
κέλι 534
συνείδησης 534
χαρακτη@@ 534
προσέλαβε 534
διαρρ@@ 534
γερν@@ 534
pap@@ 534
εκτελούν 534
αμέ 534
διεπιστημονική 534
ναβ@@ 534
αναρωτι@@ 534
int 534
χημ@@ 534
άριστη 534
παρατάς 534
μικτή 534
bookingsuite 534
περπατήσει 533
απενεργοποίηση 533
εφεύρεση 533
ella 533
βάθη 533
ελαχιστ@@ 533
μεθοδ@@ 533
καλούμε 533
όνος 533
μπλα 533
eri@@ 533
μέλιτος 533
εκτελείται 533
lit@@ 533
παλαιστιν@@ 533
ενημερώστε 533
ska 533
κρύβ@@ 533
din@@ 533
γιώργος 532
παει 532
ni 532
άτικο 532
συνοδεύ@@ 532
κώμα 532
γάλακτος 532
κοινός 532
strasse 532
υπάρχουσες 532
χρηστ@@ 532
επαναστατικό 532
λύκοι 532
σαίξπηρ 532
ναν 532
εξευτελ@@ 532
ουχ@@ 532
προειδοποιώ 532
προειδοποιήσει 532
ολόκληρες 532
φροντίζεις 532
mul@@ 532
ίστηκες 532
κυτταρ@@ 532
λάμ@@ 532
αντιπάλους 532
τακτικές 532
οφθαλ@@ 532
ανακρίν@@ 532
δραστηριότητές 532
βρεί 532
χαμένοι 531
λοχαγός 531
κινεζα@@ 531
αυξανόμενο 531
έχoυμε 531
παγκοσμιοποίησης 531
δημιουργήσαμε 531
διαχωριστ@@ 531
richard 531
φακό 531
δράστης 531
πνευματικό 531
χρεώσεις 531
xml 531
ιδιωτ@@ 531
‎ 531
άκουγε 531
cen@@ 531
σκέτο 531
ωρες 530
γίν@@ 530
διαθέτουμε 530
τεντ@@ 530
στοιχηματίζω 530
sm@@ 530
ροές 530
καλών 530
περιφερειακή 530
συντριπτική 530
σιγουριά 530
πακετ@@ 530
λέξ@@ 530
κρατικές 530
-που 530
γνωστοί 530
κοπεγχάγη 530
σαντ@@ 530
'εχετε 530
καινούργιος 530
αναλύσεις 530
αναγκά@@ 530
φτηνά 530
πωλείται 530
θαυμαστές 530
ακίνητα 530
παγκοσμι@@ 530
2.1 530
ιστικούς 530
χαρακτήρισε 530
εκειν@@ 529
κομπιούτερ 529
ελβετ@@ 529
απόθεμα 529
επιτόκιο 529
xp 529
αναν 529
σεξουαλικές 529
home@@ 529
charlie 529
μπόρ@@ 529
εξωτερικής 529
πιστέψετε 529
καμμία 529
βροχής 529
σαφείς 529
ku 529
30-@@ 529
αργεντινής 529
ήσoυμε 529
μωυσή 529
αναγκάστηκε 529
πεί@@ 529
πολιτισμ@@ 529
προστατεύσω 529
όφων@@ 529
καθαρίσουμε 529
λογικές 528
απ'τις 528
άρθρ@@ 528
.org 528
επισκέπτη 528
παιδάκια 528
γήρανση 528
πολυτελές 528
ευημερίας 528
βραδ@@ 528
ωτών 528
6.000 528
απολαύσεις 528
ντεν@@ 528
μπορν 528
επιχειρηματικότητα 528
ασ 528
συντρόφους 528
σηκωθείς 528
προσαρμοστ@@ 528
αξέ 528
στ'@@ 528
σάο 528
κρεβατιού/-ιών 528
παρουσιάζονται 528
γιαγιά@@ 528
άλλοτε 528
πολιτισμούς 528
βιομηχανικής 528
κουπόνια 528
θεσπ@@ 528
προσωπικής 528
μητρο@@ 528
αλβαν@@ 528
κλασικά 528
ημη 528
γέννησε 527
δικαιολογίες 527
κυβέρνησή 527
ερχόσουν 527
-τίποτα 527
διαβίωσης 527
μεγαλύτεροι 527
'ημουν 527
ανάλ@@ 527
κένυα 527
112 527
αποσκευών 527
micro@@ 527
πολλα 527
κόστισε 527
λίντ@@ 527
κάμ@@ 527
ωτικών 527
cambridge 527
καθάρισε 527
πιστοποίησης 527
σοφός 527
έδιναν 527
1963 527
περιστ@@ 527
κοιτα 527
ρου 526
γραφτεί 526
θει@@ 526
booking 526
φτωχή 526
φταίξιμο 526
προσαρμοστεί 526
ner@@ 526
βιάζεσαι 526
κριτικέσ 526
καταγγελίες 526
τζόζεφ 526
αντιμετωπίσετε 526
αποστάσεως 526
ετοιμάζει 526
συμπλήρωμα 526
προσπαθήσετε 526
ται@@ 526
κομμουν@@ 526
κοινοβουλ@@ 526
πολέμ@@ 526
system 526
fc 526
σημερινά 526
ζι@@ 526
καθησυχ@@ 525
bay@@ 525
ρίχνεις 525
κουράστηκα 525
frank 525
περιστροφή 525
αζ 525
λιβ@@ 525
τηλεπικοινωνιών 525
βλέπαμε 525
έστερ@@ 525
συστήν@@ 525
περιεκτικότητα 525
τηλεφωνίας 525
κονγκό 525
ante 525
ρωτήσουμε 525
κη@@ 525
σταγόνα 525
mc 525
υς 525
πιάνω 525
ζητήσατε 525
βιν@@ 524
παραγωγοί 524
θεί@@ 524
ations 524
λεπτομερή 524
βιταμίνες 524
hil@@ 524
ανεξάρτητες 524
φωνάζω 524
500.000 524
σερβίρεται 524
δήμαρχο 524
κρίστοφερ 524
γυρν@@ 524
τυφλή 524
αγαπημένες 524
σιδήρου 524
technology 524
σωλήνες 524
σιλ@@ 524
βαρετή 524
sms 524
εξαφανιστούν 524
διαθέσιμος 524
τηρι@@ 524
νοτιοανατολική 524
κατακτήσει 524
βουκουρέστι 524
σκέπ@@ 524
ταλαιπωρ@@ 524
επικαιρ@@ 524
μαξ@@ 524
άστηκες 523
ότερης 523
προσπάθειά 523
kw 523
κτήνος 523
ανάπαυση 523
ελευθερίες 523
with 523
ξεφύγουν 523
νιού@@ 523
στήριξης 523
σπάνιες 523
ίντα 523
εντυπωσιακά 523
διαβολ@@ 523
γενετικά 523
φαραώ 523
dd@@ 523
company 523
ya@@ 523
ξανακάνεις 523
συνειδητοποιήσει 523
ζε@@ 523
άρχισες 523
καθιστ@@ 523
αξιόπιστες 523
εδιμβούργο 523
σεβασμού 523
τραγουδάει 523
εξομολογ@@ 522
αμάν 522
κατάχρηση 522
γεγονότος 522
σημαντικούς 522
καταγράφει 522
1917 522
ερο 522
ριν 522
μάνατζερ 522
εισάγει 522
κόμη 522
πληρώνουμε 522
χρησιμοποίησα 522
αναπόφευκτο 522
στρογγυλ@@ 522
ραγδαία 522
μολυνθεί 522
βαθιές 522
φα@@ 522
ιόν 522
γρασίδι 522
παίζεται 522
κέρτις 522
επιχειρηματικής 522
ker@@ 522
3,5 522
κανά 522
στόλος 522
θείου 522
πυκνότητα 522
κραυγή 522
δυνατές 521
βιώσιμης 521
ψήφοι 521
lis@@ 521
τζάστιν 521
boulevard 521
ήλθε 521
die 521
κατάλ@@ 521
ακολουθώντας 521
ington 521
καταναλώνουν 521
δανειστώ 521
διοικητά 521
οειδών 521
...... 521
ιαπωνικά 521
διεξαχθεί 521
πετούν 521
πίνουμε 521
αντικατασταθεί 521
ρίκο 521
victoria 521
ουραν@@ 521
ος-@@ 521
8/@@ 521
ωραι@@ 521
ελέγχεις 521
αγγλικό 520
αστος 520
όλoι 520
φουσκ@@ 520
ct@@ 520
λεκ@@ 520
αγνοείται 520
σπιτικό 520
una 520
κάποιας 520
τάφος 520
ρχ@@ 520
χαίρεσαι 520
ταχέως 520
θρεπτικά 520
θυρ@@ 520
μοσχ@@ 520
παύ@@ 520
γλιστρ@@ 520
εξαπατ@@ 520
κανονίσουμε 520
χρόvια 520
τυχερό 520
εκτύπωσης 520
φιλοξενίας 520
ενοικι@@ 520
αγρόκτημα 520
έστερα 519
ευμένος 519
στοπ 519
κωμ@@ 519
εμπλοκή 519
τεν@@ 519
κύκλωμα 519
προτεραιότητες 519
καθημεριν@@ 519
νέιθαν 519
πλοίαρχος 519
νάταλι 519
συνέχιση 519
γαμάτο 519
συντεταγμένες 519
απολυ@@ 519
υιοθετ@@ 519
αξει 518
σικ@@ 518
βέρα 518
πραγματα 518
διαφημίσεων 518
indi@@ 518
δεκτή 518
συγκριτικά 518
υπαρ@@ 518
δεχτείς 518
φωτιές 518
τζαμ@@ 518
μολονότι 518
ισχύ@@ 518
σουλ@@ 518
εποπτεία 518
δωσε 518
προσανατολ@@ 518
γκουρού 518
μελλοντικών 518
ιδα 518
καπιταλισμό 518
πολεμήσει 518
εκπρόσωποι 518
γουέστ 518
ase 518
ψαριών 518
καλείται 518
free@@ 517
μηχανισμούς 517
ών-@@ 517
συζυγ@@ 517
διεργασίες 517
σωτηρίας 517
κινεζικό 517
αφοπλ@@ 517
δεδομένη 517
ceo 517
βιαστικά 517
ευτή 517
φρεσ@@ 517
φάγ@@ 517
αποστολών 517
μέρι 517
μέvη 517
επίλυσης 517
οοσα 517
ενεργειακό 517
εμπιστεύονται 517
πετάνε 517
vi 517
αντικαθ@@ 517
δίδακτρα 517
προσφυγ@@ 517
1941 517
ελέγχουμε 517
προξεν@@ 516
τριχ@@ 516
ρευστ@@ 516
ανταγωνιστική 516
όμορφ@@ 516
4ο 516
σώζει 516
ρομπ 516
ονειρεύομαι 516
άψω 516
μετατρέπει 516
ευόμαστε 516
πτει 516
εμπορικού 516
σκουπι@@ 516
έλιοτ 516
απαντάς 516
υποβληθεί 516
κτην@@ 516
περιέγραψε 516
έφερνε 516
γίναμε 516
αρχικές 516
sav@@ 516
hun@@ 516
λίτρα 516
κλέφτη 515
τεχνογνωσία 515
θαλάσσιο 515
ακίνητη 515
χωράφια 515
κάθεστε 515
•@@ 515
main 515
ραχ@@ 515
αριστεία 515
ενοχλώ 515
gie 515
έσεων 515
σχεδίασε 515
fi 515
συντάκτης 515
αίθριο 515
υαλ@@ 515
αυθ@@ 515
χειρότερες 515
εδάφιο 515
�@@ 515
cent@@ 515
αναζητήσεις 515
επιβεβαιώσει 515
τηλεφώνησέ 514
κέρδισαν 514
μαται@@ 514
μεμονωμένα 514
θαλασσ@@ 514
εμπλεκ@@ 514
=== 514
σοι 514
σεθ 514
αίτησης 514
αποκτήσουμε 514
ευθύνεται 514
κεράσω 514
πρωτοβουλίες 514
μοντέλων 514
άμπ@@ 514
γελοία 514
ημερήσια 514
κοράνι 514
ora 514
εμεις 514
ομήρους 513
λς 513
tion@@ 513
λει 513
υπερασπιστ@@ 513
ζητούσε 513
πέθανες 513
εθνικός 513
κατασκευαστεί 513
μαντάμ 513
χρειάζονταν 513
ado 513
κοπή 513
ύψη 513
άγια 513
ανεκτ@@ 513
ich 513
-μου 513
εκπαιδευτικούς 513
νομισματικό 513
νοσ@@ 513
καταλήξεις 513
εγκρίθηκε 513
θαυμ@@ 513
dro@@ 513
χάλι 513
bob 513
υπέροχες 513
οβιτς 512
συνεχιζ@@ 512
ριζαν 512
παντρεύεται 512
εκτοπ@@ 512
κάρμεν 512
επέζησε 512
ητους 512
επιθυμώ 512
πιστοποιητικά 512
ακολούθησέ 512
υεμένη 512
ιβάν 512
ορυχείο 512
σακούλες 512
εκφώνηση 512
ζόρ@@ 512
ξόρκι 512
len 512
΄΄ 512
αδελφότητα 512
πολυτελείας 512
ακρωτηρι@@ 512
προσγείωση 512
χ. 512
ξαναδείς 512
ητός 512
προτείνεις 511
κιρ@@ 511
δάχτυλό 511
παράσχει 511
μουν 511
άξαμε 511
συνηθισμένος 511
ευαίσθητο 511
uber 511
κοπαν@@ 511
ken 511
σοσιαλιστική 511
τολμήσεις 511
πιλοτ@@ 511
δρόμ@@ 511
κλιμακ@@ 511
γκέιτς 511
βάλλω 511
ρισκάρω 511
software 511
ιδιωτικός 511
αντανακλά 511
δημόσιος 510
επισκέπτονται 510
αντιφ@@ 510
κόλλα 510
ευ 510
μωυσής 510
κυριαρχίας 510
έθηκε 510
κέρι 510
λάρ@@ 510
τρόμο 510
αραβίας 510
τηλεφώνησες 510
προορίζεται 510
high 510
άγεται 510
γυρεύεις 510
βιομηχανικό 510
αναγνωρίζεις 510
φαίνεστε 510
γκι@@ 510
gg@@ 510
ζητηθεί 510
μορ 510
γι΄ 510
λοι@@ 510
συλλέγουμε 510
έvαv 510
κρατάνε 510
καχ@@ 510
διαλέξ@@ 509
παρατήρησα 509
ετοί 509
om@@ 509
ros@@ 509
ανθρωποι 509
χορεύεις 509
ακτική 509
ώνεστε 509
γεννήθηκες 509
κέντ@@ 509
ηλεκτρονικές 509
κοπάδι 509
πλην 509
εξαπλωθεί 509
σύμφωνο 509
ελεύθερων 509
κοστίζουν 508
υποχρεωμένος 508
voς 508
παραγωγούς 508
επικοινωνήσει 508
ετοίμασε 508
στοκχόλμη 508
τεκμηρι@@ 508
εξασθεν@@ 508
1962 508
ανόητε 508
΄΄@@ 508
κοινοτ@@ 508
γίνονταν 508
vision 508
σοβιέτ 508
ιου@@ 508
καπνίσματος 508
αλλάζεις 508
βού@@ 508
βίκ@@ 508
συμπι@@ 508
τυπικά 508
ογραφίες 508
επιστημονικών 508
αριού 508
διαστημόπλοιο 508
πούν 508
υπερηφάνεια 508
spe@@ 507
γονίδιο 507
αω 507
.it 507
ορλεάνη 507
περιουσιακά 507
έλθουν 507
αρνούμαι 507
ψεκ@@ 507
μνημ@@ 507
πραγματικού 507
102 507
ferrari 507
ευαγγέλιο 507
240 507
έρχ@@ 507
άνθη 507
λοιπά 507
ημένου 507
υψηλότατε 507
τισμός 507
αντιπαράθεση 507
διεξήχθη 507
αγροτών 507
ενισχύσουν 507
βγήκες 507
τζέιμι 507
αλογ@@ 507
κοσ@@ 507
εξήντα 507
λίμνης 506
ανεπτυγ@@ 506
επαγγελματικών 506
ώθ@@ 506
ντόρ@@ 506
οσκ@@ 506
ενοχές 506
ανόητοι 506
άνοι@@ 506
ποσο 506
πλημμύρες 506
εισέλθουν 506
ενεργειακής 506
άνοιξα 506
συζύγους 506
μέταλλα 506
εμπειρογνωμόνων 506
φιλαράκια 506
αναγκαστικά 506
βανκούβερ 506
διαβάζουμε 506
απεικόνιση 506
φίλτρα 505
εγγεν@@ 505
κατεβαίνει 505
sant@@ 505
nie 505
ψυχολόγος 505
οχήματος 505
bun@@ 505
παραίτηση 505
θολ@@ 505
κν@@ 505
αιμορραγ@@ 505
σφαγ@@ 505
ρετρό@@ 505
χάσιμο 505
ph 505
άξονα 505
ces 505
frankfurt 505
43@@ 505
άπιστ@@ 505
σουηδ@@ 505
επιτεθούν 505
ατό 505
τουαλέτες 505
φυγή 505
βρωμι@@ 505
elle 505
δοκιμής 505
λαμπρό 505
τίν@@ 504
κατέβει 504
αστικοί 504
ινγκς 504
ανακοίνωσαν 504
ww@@ 504
'ομως 504
σύλλογο 504
μαζέψω 504
σημαδεύ@@ 504
aya 504
διακόπτω 504
πρωθυπουργό 504
ετοιμότητα 504
δοκιμάζ@@ 504
βοήθα 504
κτιρίων 504
φρίκη 504
επιβαρ@@ 504
spec@@ 504
να'σαι 504
αγροτικές 504
εντάσεις 504
κατασκευές 504
απάντησαν 504
mπρ@@ 504
ακίνητοι 503
ενδιαφέρ@@ 503
παγίδες 503
joe 503
θν@@ 503
παρανο@@ 503
επανέλαβε 503
21ο 503
πήδηξε 503
σέvα 503
ώνονταν 503
κώλος 503
,00 503
115 503
πλοήγησης 503
πόλο 503
exchange 503
μπήκαμε 503
διεύθυνσή 503
εφτ@@ 503
avi@@ 503
λατινικά 503
ανοιχτές 503
ασίες 503
κοροϊδεύεις 502
προετοιμασμένοι 502
εμφύλιο 502
απρ@@ 502
ελέγχονται 502
ενθαρρύν@@ 502
ικανοτήτων 502
βομβαρδι@@ 502
εργαζόταν 502
ίλια 502
vεις 502
πιά 502
άσου 502
απέναντί 502
ning 502
γεωγραφ@@ 502
mit 502
καταδικάστηκε 502
manager 502
δεξ@@ 502
διαγνωστ@@ 502
κρυμμένα 502
τιά 502
εκκλησι@@ 502
τεχνολογικές 502
κρέμ@@ 502
λεξικό 502
πλησί@@ 502
στέφαν 501
1939 501
ηπ@@ 501
σταματη@@ 501
εναλλακτικά 501
ελκυστικό 501
coun@@ 501
κομμάτων 501
τυπικό 501
καταγράφ@@ 501
μουσουλμάνοι 501
κάιρο 501
εμπορεύματα 501
κοκαΐνη 501
τυχαίνει 501
κινητού 501
συνέβει 501
ακουσ@@ 501
φερ 501
ταυτότητες 501
οικονομικούς 501
συνήθιζε 501
sat@@ 501
sin@@ 501
περπατήσω 501
έτρωγε 501
συνεχίζω 501
ώματά 501
κατηγορεί 501
σημαντικών 501
χόμπι 501
φεβρουάριο 501
11/@@ 501
απομένει 500
βαλεντίνου 500
ηλεκτρικού 500
βούλ@@ 500
φυ@@ 500
ξεπεράσουμε 500
κλιμάκωση 500
δούλεψα 500
ψία 500
σεμπάστιαν 500
σκατο@@ 500
λαλ@@ 500
αποδεκτό 500
γωνίες 500
κράνος 500
χημείας 500
καί@@ 500
long 500
ιστήριο 500
μεθυσμένη 500
άλλαζε 500
κιβώτια 500
sn@@ 500
κατέβ@@ 500
εκκεν@@ 500
προτειν@@ 500
ωρο 500
κάν'το 500
εύρ@@ 499
καθεξής 499
υποψίες 499
έδε@@ 499
aυτή 499
αναπτυσσ@@ 499
σεξουαλ@@ 499
-οχι 499
ρες 499
επέλεξα 499
τακτοποιήσω 499
φαν 499
άνης 499
well 499
μαύρης 499
μα-@@ 499
αδερφού 499
anne 499
550 499
ηχογραφ@@ 499
αντιμέτωποι 499
σταθεροποι@@ 499
φαινομενικά 499
ένιωσε 499
ευτής 499
αίτημά 499
αφ 499
υπογράμμισε 499
δον@@ 499
προσέχουμε 498
γυάλ@@ 498
χτίσουμε 498
ήξει 498
πάτησε 498
σύνοδος 498
χρησιμοποιήθηκαν 498
ειπωθεί 498
yo 498
πετάξτε 498
δωρεαν 498
επικυρ@@ 498
'αγαπώ 498
γαμιόλη 498
παράρτημα 498
καλωσ@@ 498
πυροβολήθηκε 498
χορήγηση 498
μπρά@@ 498
λογιστική 498
ζή@@ 498
night 498
σοκαρ@@ 498
μυρίζεις 498
λοκ 498
σεπτέμβρη 498
bus@@ 498
μισές 498
κατάστρωμα 498
σβήσει 498
κλ 497
dv@@ 497
προδότη 497
dh@@ 497
γαμημένος 497
χαίρ@@ 497
τζουν 497
άρπαξε 497
ευχαριστημένοι 497
μουσουλμαν@@ 497
νεότερος 497
αντίστοιχ@@ 497
βιογραφικό 497
antalya 497
κεφαλή 497
κλέβεις 497
κοστούμια 497
νυχτερινό 497
εκδρομή 497
ηλεκτρομαγν@@ 497
μειν@@ 497
στηρίξει 497
μείζ@@ 497
σαββατοκύριακα 497
στρατηγικό 496
εργαστηρι@@ 496
ένν@@ 496
nap@@ 496
διασκέδασης 496
ατμοσφαιρική 496
δημοσιονομ@@ 496
'ρθω 496
σκoτ@@ 496
ευγένεια 496
μισθών 496
εντο@@ 496
ειχα 496
επίτευγμα 496
phone 496
χορεύουν 496
μεταμ@@ 496
ίσι 496
στόχου 496
πεί 496
τζούλιαν 496
μεταξυ 496
σερβιτόρα 496
διαλέξω 496
μεγαλειοτάτη 495
104 495
πηδήξεις 495
τσιρ@@ 495
στιγ@@ 495
οχυρό 495
αποφασίσουν 495
βρετανικής 495
δείξ@@ 495
πυροβολισμούς 495
κρασιά 495
εδραι@@ 495
λιανικής 495
ώπ@@ 495
χελ@@ 495
βιολογίας 495
τρόμαξες 495
ζορ@@ 495
αιωνιότητα 495
win 495
ash 495
συρτάρι 495
μολύβι 494
φτιάξαμε 494
21ου 494
ίντι 494
τημα 494
φρικιό 494
παλιάς 494
φορτίου 494
renault 494
ρινγκ 494
89@@ 494
αξιοσημείωτο 494
διάταγμα 494
inst@@ 494
καλύτερ@@ 494
ευρύτερο 494
μάτι@@ 494
καλαμπόκι 494
ipod 494
επαναλάβετε 493
ουζ 493
l-@@ 493
εύθηκε 493
ισότητας 493
μέρι@@ 493
κλάδος 493
ace 493
comm@@ 493
79@@ 493
μενων 493
κωδικοποίηση 493
φωτισμού 493
ανταποκρι@@ 493
άγνοια 493
διαστήματα 493
προειδοποιήσεις 493
φόρεσε 493
τω@@ 493
όκ 493
τρέχουσας 493
αγαπημένους 493
χεις 493
τραυματίστηκαν 493
έβρισκε 493
στιν 493
στοιχείου 493
μειώσουμε 493
μήν 493
86@@ 493
επιθεωρητά 493
ίτιδας 493
water@@ 493
108 492
έμεινες 492
ουγγρ@@ 492
κούρεμα 492
ευαίσθητα 492
καλλιτεχνική 492
απάντησέ 492
ευκολ@@ 492
αντίπαλος 492
μοριακό 492
αυτόματης 492
δους 492
ξεσηκ@@ 492
σολομ@@ 492
γουστάρει 492
εμπρ@@ 492
αμμ@@ 492
αποδείχτηκε 492
μονό@@ 492
έμιλυ 492
φτερ@@ 492
φύρερ 492
τρέξω 492
γαλιλ@@ 492
χάρισε 492
198@@ 492
καταλόγου 492
μεγαλείο 492
ήσυχος 491
γευ@@ 491
εστιάζει 491
επιταχ@@ 491
αγαπη 491
σκούρο 491
παραμελ@@ 491
200.000 491
research 491
αμοιβ@@ 491
διασφαλίσει 491
lng 491
παρασκευής 491
αποτέλεσε 491
2.2 491
ρισες 491
υπάρχω 491
σημερινές 491
ä@@ 491
dam@@ 491
ακοής 491
αντίστοιχη 491
σταμάτησες 491
ήθη 491
στηκες 491
αρχίας 491
ερώτησή 491
ωκεανός 491
ξεκλειδ@@ 491
ός@@ 491
δρομολόγια 491
πραγματοποιεί 491
ιδίου 491
πλασ@@ 490
ast 490
καλλιτεχν@@ 490
und@@ 490
ιερά 490
ψητό 490
λογοτεχνίας 490
σπιτ@@ 490
πραγματοποίηση 490
αθήνας 490
16:@@ 490
™ 490
γερουσιαστής 490
ενδιέφερε 490
καλωσόρισες 490
εξαγωγ@@ 490
ρίκα 490
φρι@@ 490
ιταλοί 490
χρονο@@ 490
φάσεις 490
νοιώθεις 490
εξοχή 490
ουνα 490
κεριά 490
τέτοιοι 490
κοιτάζουν 490
δίκαιος 490
ούνι 490
εβδ@@ 490
ειται 490
κανονικός 490
ηλιοβασίλεμα 490
κατανόησης 490
παρενόχληση 489
αμπελ@@ 489
ξεχωρίζει 489
δυνατότητές 489
able 489
υπερβ@@ 489
συνιστούμε 489
ιππότης 489
δικο 489
χαβάη 489
tic 489
αποκτήσεις 489
ασήμι 489
συνεδρία 489
βατ@@ 489
men 489
συγκεκριμένων 489
1966 489
δέσμευσή 489
τηλεοπτικά 489
υδραυλ@@ 489
γνωρίζαμε 489
σνακ 489
πορτ 489
βλέπε 488
συκώτι 488
ταχύτερη 488
νεαροί 488
παίζαμε 488
ψυχραιμία 488
σαλ 488
εκδόθηκε 488
παρατηρήσετε 488
καύσιμο 488
καθορίζουν 488
γλυτ@@ 488
τοπία 488
[...]
