. 6441938
, 4821978
a 1664040
se 1352903
? 1345829
to 1287173
je 1194950
na 984120
v 970413
- 943527
že 704537
! 601838
jsem 545337
s 456328
si 438455
co 431703
o 350905
... 339524
ale 331672
z 320800
tak 314340
pro 305893
do 303753
: 300331
) 278136
( 262426
k 251789
jak 244405
jako 225684
za 216680
ne 214797
mi 211776
jsou 208584
mě 202877
já 200135
ve 198171
jsi 192270
nebo 184206
`` 180433
by 179804
i 179588
ty 178157
když 170321
jsme 169512
už 166734
jen 165673
'' 159481
jste 154833
od 152728
tu 141218
byl 140602
ti 139637
není 138742
„ 135929
ho 135429
být 129936
“ 129384
ne@@ 124947
po 124681
bude 123570
aby 120681
má 114472
které 111427
než 109851
proč 109704
tady 108364
tě 107518
vám 107140
něco 103487
jeho 100362
tam 99784
dobře 98138
ano 97772
vás 97462
bylo 94361
toho 93560
pokud 93439
byla 93111
ten 91996
mám 88889
teď 88336
-@@ 86134
ji 84500
jo 83543
ještě 82368
no 81597
kdo 81086
kde 79768
nic 79702
tohle 79143
u 77984
také 77754
nás 77026
tom 75079
bych 74577
– 74338
až 74051
který 73233
protože 72633
tím 72013
mu 70245
své 68653
takže 68071
ani 67806
před 67687
hotel 65821
může 64926
ze 64450
pak 63339
můj 62663
ta 62582
více 62207
všechny 60766
nikdy 60414
měl 60131
jejich 58799
prosím 58026
vy 57626
všechno 57301
nám 57226
můžete 56780
let 56375
další 54227
řekl 54088
která 53549
pane 53435
moc 52929
velmi 52472
den 52398
tomu 51113
chci 50601
možná 50456
jí 50387
jestli 50212
máš 49896
1 49798
mít 49693
% 49673
roce 49243
na@@ 49030
myslím 48987
; 48370
tento 47848
při 47651
mezi 47216
první 46984
vy@@ 46456
vím 46315
za@@ 45638
ní 45624
všichni 45386
po@@ 45275
taky 45239
on 44995
máte 44898
vaše 44609
asi 44417
2 44385
mají 43728
máme 43602
podle 43412
bez 43172
víš 43034
moje 42810
naše 42550
sem 42365
dnes 42108
musí 42011
my 41948
opravdu 41634
ke 41313
proto 40294
budou 40162
každý 40147
u@@ 39832
kdy 39781
jeden 39769
nevím 39180
tebe 38542
mohou 38472
život 38420
lidí 38294
díky 38055
však 37945
někdo 37420
jim 37150
kteří 37122
lidé 36561
dva 36495
roku 36248
její 35961
z@@ 35324
ním 35212
jít 35196
budu 35011
nejlepší 34841
chceš 34530
říct 34495
3 34494
měli 34293
s@@ 34096
dobrý 33746
minut 33715
pořádku 33652
svou 33585
dělat 33278
10 33246
do@@ 33139
pře@@ 33087
měla 32976
byli 32741
musím 32549
právě 32544
vlastní 32510
rád 32413
čas 32387
víc 32225
tedy 32087
místo 32062
5 32018
pouze 31872
jde 31632
mohl 31427
stejně 31360
té 31301
toto 31276
světě 31261
děti 30931
nabízí 30851
práce 30760
trochu 30750
této 30665
tři 30664
proti 30498
musíme 29979
ahoj 29956
stále 29932
o@@ 29843
nikdo 29521
_ 29349
váš 29290
a@@ 29248
od@@ 29233
byly 29061
abych 28880
udělat 28802
4 28802
chtěl 28730
i@@ 28715
ať 28604
svůj 28517
věci 28256
budete 28109
pro@@ 28062
chcete 28027
již 27904
tyto 27724
prostě 27712
kvůli 27589
všech 27437
myslíš 27384
hodně 27030
nich 26794
pořád 26781
t 26754
la 26734
vůbec 26711
[ 26605
práci 26604
vážně 26578
svého 26544
jenom 26538
e@@ 26497
vše 26479
nové 26295
n 26254
země 26190
zde 26175
lidi 26170
ně 26139
mnou 26082
mně 26014
můžeme 25999
l 25991
stránky 25862
nou 25626
tato 25589
roz@@ 25527
jednou 25525
tvůj 25498
během 25493
sebe 25467
bys 25462
třeba 25449
společnosti 25433
sám 25422
dost 25357
/ 25289
budeme 25281
byste 25209
ma@@ 25145
poslední 25025
víte 24955
člověk 24915
le@@ 24690
něj 24675
d 24668
ka 24632
mnoho 24547
se@@ 24408
t@@ 24402
nyní 24302
kterou 24267
budeš 24256
ku 24251
pod 24181
chce 24138
dvě 24127
domů 24008
pár 24000
c 23990
] 23977
informace 23934
ni 23861
můžu 23793
oblasti 23674
mé 23666
pojď 23648
de@@ 23628
což 23601
znamená 23599
zemi 23558
peníze 23512
v@@ 23511
říká 23463
ona 23454
města 23406
tohoto 23364
či 23266
bůh 23237
bychom 23203
žádné 23170
cookies 23061
při@@ 23053
nemůžu 22957
d@@ 22942
někdy 22932
ky 22921
hned 22870
přes 22859
.. 22761
ro@@ 22740
vidět 22736
ra@@ 22680
ce 22546
rychle 22435
dobré 22200
kdyby 22108
náš 22034
vědět 21901
žádný 21873
20 21780
rok 21659
la@@ 21521
společnost 21495
můžeš 21488
re@@ 21478
ta@@ 21441
dlouho 21334
vždy 21331
svět 21304
naší 21293
stalo 21246
m@@ 21214
6 21167
pravdu 21144
lepší 21094
c@@ 21083
m 21069
b 21068
děkuji 21051
říkal 21027
přesně 20953
celý 20903
znovu 20889
například 20881
udělal 20881
kam 20833
dítě 20805
tebou 20743
takhle 20563
děláš 20560
nej@@ 20547
nebude 20459
problém 20370
nad 20340
věc 20337
dál 20332
děje 20286
vlastně 20228
li@@ 20164
dobrá 20159
ses 20102
jméno 20022
těchto 19975
hotelu 19907
zase 19905
ko@@ 19881
mezinárodní 19871
ci 19837
snad 19817
stát 19783
samozřejmě 19779
nový 19724
nejsem 19704
jasně 19703
vypadá 19609
zařízení 19576
ly 19555
těch 19551
vždycky 19474
l@@ 19424
g@@ 19419
ka@@ 19413
bože 19390
hotely 19333
k@@ 19286
zpátky 19277
najít 19272
7 19248
nejsou 19220
te 19145
řekla 19117
usa 19049
nemám 19043
pa@@ 18992
viděl 18931
spolu 18875
prohlášení 18871
musíš 18833
dostat 18809
určitě 18744
kolik 18726
pomoc 18696
de 18648
nechci 18645
jedna 18644
sa@@ 18595
sakra 18582
8 18423
dokonce 18373
to@@ 18368
žena 18353
ráno 18324
tvoje 18317
letiště 18311
noc 18293
sobě 18258
tobě 18244
světa 18201
ubytování 18170
včetně 18166
ná 18136
15 18128
nachází 18124
svých 18099
ti@@ 18064
mohli 18027
mluvit 18020
ostatní 17851
ví 17685
nu 17636
života 17626
dne 17611
oficiální 17565
oni 17557
nějaké 17551
& 17527
příliš 17511
” 17431
ny 17407
… 17344
pokoje 17331
pryč 17315
dispozici 17224
době 17202
možné 17191
r 17167
dal 17073
e 17026
úplně 16999
n@@ 16951
ných 16943
několik 16919
večer 16908
velké 16885
tomto 16876
b@@ 16858
mohla 16855
chvíli 16828
myslel 16821
ráda 16816
program 16807
no@@ 16769
nebyl 16742
ba@@ 16705
li 16699
né 16676
jdeme 16616
služby 16575
p@@ 16574
nemá 16564
přišel 16544
hlavní 16541
abyste 16532
di@@ 16510
ný 16491
jaké 16487
musíte 16486
ženy 16485
prostředí 16428
systém 16426
městě 16422
tuto 16421
pokoj 16349
podívej 16279
me@@ 16195
jiné 16192
otec 16080
přímo 16066
způsob 16064
ni@@ 16057
/@@ 15997
* 15944
některé 15941
našich 15929
ri@@ 15909
da 15896
mi@@ 15876
zdarma 15843
ha@@ 15803
mo@@ 15792
paní 15787
město 15777
jednu 15742
dům 15738
případě 15735
te@@ 15733
často 15705
jistě 15673
ného 15660
r@@ 15640
ven 15637
nějaký 15587
údajů 15581
30 15484
potom 15474
jedno 15462
pravda 15449
letech 15437
nech 15427
abychom 15424
muž 15402
le 15373
lo@@ 15331
hej 15326
svým 15248
čem 15240
kolem 15196
čím 15178
ra 15146
kurva 15093
dej 15055
velký 15017
pět 14986
použití 14970
jednoho 14906
někoho 14901
abys 14841
p 14841
nevy@@ 14815
přece 14806
dalších 14777
řekni 14744
doma 14736
da@@ 14726
dát 14712
jaký 14683
š@@ 14646
později 14633
chtěla 14579
tou 14563
al@@ 14510
va@@ 14479
číslo 14415
nemůže 14403
h@@ 14401
hodin 14369
celé 14366
mého 14342
myslíte 14337
dokud 14306
kromě 14288
fakt 14236
místě 14228
ho@@ 14217
km 14202
9 14198
dělá 14192
hry 14181
12 14149
řešení 14138
si@@ 14111
pi@@ 14069
ry 14052
f@@ 14052
dolarů 14052
ca@@ 14036
všem 14021
takové 14005
y 13995
většina 13982
dobu 13949
zobrazit 13935
čtyři 13898
cí 13864
sebou 13861
počkej 13839
x 13832
srdce 13814
přístup 13813
větší 13808
omlouvám 13764
prostřednictvím 13617
ru@@ 13598
bi@@ 13578
tolik 13538
téměř 13537
webové 13519
vi@@ 13518
celou 13503
pe@@ 13443
bo@@ 13438
soubory 13419
du@@ 13393
důležité 13374
50 13359
jinak 13356
4@@ 13334
j 13332
naši 13320
5@@ 13317
be@@ 13276
lze 13264
vámi 13261
promiň 13259
dostal 13232
největší 13220
ným 13172
štěstí 13142
zítra 13124
co@@ 13121
informací 13111
.@@ 13092
in@@ 13084
lo 13083
zemí 13073
ma 13004
muset 12979
the 12961
roky 12954
vaší 12940
času 12907
zpět 12899
něm 12852
ová 12803
auto 12799
of 12795
sama 12792
100 12791
pomoci 12783
hrát 12781
> 12771
ch@@ 12709
dále 12670
cože 12650
tv 12644
me 12622
č 12617
oh 12607
je@@ 12600
jdu 12588
su@@ 12572
ové 12562
mu@@ 12558
osobní 12552
mami 12542
obchodní 12538
zlato 12532
6@@ 12494
námi 12485
místa 12481
systému 12473
neu@@ 12460
noci 12424
ci@@ 12391
g 12379
dní 12367
nebylo 12362
000 12362
cích 12351
č@@ 12322
sis 12320
lety 12319
líbí 12315
vidím 12313
tu@@ 12304
tati 12293
promiňte 12283
7@@ 12268
j@@ 12266
so@@ 12263
problémy 12241
věcí 12207
-- 12200
mnohem 12192
em 12189
práva 12167
hosté 12157
oba 12121
takový 12103
poprvé 12082
neměl 12074
část 12069
nakonec 12062
používání 12048
velká 12044
pod@@ 12014
y@@ 11993
ná@@ 11988
věděl 11968
možnost 11940
' 11938
vaši 11933
ru 11930
doby 11901
ve@@ 11899
jiného 11893
navíc 11859
zatím 11846
druhé 11839
vašich 11832
počet 11812
existuje 11802
pozor 11760
neza@@ 11760
bu@@ 11749
podívejte 11743
fajn 11742
new 11722
tvé 11663
$ 11659
lu@@ 11629
an@@ 11619
patří 11618
mne 11610
brzy 11601
tenhle 11574
kem 11570
daleko 11550
stojí 11535
ob@@ 11524
vá 11496
celém 11471
3@@ 11447
souborů 11433
aplikace 11425
dá 11401
tělo 11382
žít 11381
chtějí 11378
f 11377
stane 11354
nepo@@ 11347
zdraví 11331
h 11328
mohu 11326
nová 11312
11 11300
buď 11295
svém 11290
ské 11268
zda 11252
konečně 11234
říkám 11215
ruce 11198
skutečně 11196
zatímco 11177
dám 11172
pomocí 11165
řízení 11155
18@@ 11116
online 11093
mimo 11041
každé 11039
hele 10983
ský 10967
zdá 10961
vždyť 10950
jedním 10941
týden 10933
ů 10924
doufám 10916
jiný 10909
8@@ 10890
zá@@ 10887
slovo 10886
nem 10880
muži 10876
právo 10875
životě 10871
ská 10870
části 10868
jich 10856
pan 10851
25 10849
du 10832
x@@ 10826
mou 10823
mar@@ 10820
stránce 10819
ch 10806
nebyla 10805
pohodě 10786
různých 10785
vzít 10776
zrovna 10768
totiž 10766
státy 10724
ce@@ 10720
muže 10706
dvou 10678
matka 10675
@ 10671
organizace 10665
žádná 10657
jej 10650
milionů 10614
jdi 10584
dobrou 10553
w@@ 10527
dy 10497
nimi 10481
získat 10468
smrti 10464
méně 10459
ú@@ 10445
sta@@ 10434
člověka 10426
víme 10386
skoro 10385
ků 10363
sami 10357
metrů 10326
cestu 10323
oči 10309
myslí 10306
ar@@ 10295
líto 10277
dny 10275
pří@@ 10263
osobních 10258
re 10246
oval 10239
ge@@ 10231
zůstat 10227
kdybych 10224
zkušenosti 10222
vašeho 10214
strany 10209
opět 10208
pu@@ 10206
tem 10195
lu 10180
peněz 10167
malé 10160
ja@@ 10101
9@@ 10087
pocit 10063
potřebuju 10059
způsobem 10044
pojďme 10036
kou 10019
dneska 10014
důvod 9999
před@@ 9965
konec 9956
nechat 9947
tým 9937
údaje 9922
jídlo 9920
přijde 9916
18 9874
používá 9868
našeho 9867
potřebuje 9864
ovat 9863
cílem 9858
základě 9855
šel 9854
• 9851
st 9842
zní 9836
mnoha 9834
spojených 9832
ke@@ 9820
dětí 9818
zabít 9813
běž 9803
40 9798
ga@@ 9789
správně 9787
boha 9760
hu@@ 9751
vrátit 9717
národní 9705
centrum 9699
dejte 9694
zprávy 9675
ku@@ 9654
poté 9631
pracovat 9606
slyšel 9577
příběh 9576
koho 9559
nebudu 9557
otázky 9556
nemáte 9544
malý 9527
destinaci 9526
slova 9519
třetí 9517
í 9516
musel 9509
potřebujeme 9509
pá@@ 9488
24 9476
nemůžeš 9473
školy 9471
nějakou 9458
zcela 9443
předtím 9424
nu@@ 9409
syn 9406
vo@@ 9403
rozhodnutí 9399
vody 9399
fi@@ 9379
ko 9367
ům 9365
mělo 9351
součástí 9326
našel 9315
vý@@ 9314
programu 9311
ceny 9300
pomoct 9283
nastavení 9255
eu 9251
lidem 9250
mapu 9249
posledních 9235
čka 9235
století 9231
centra 9229
použít 9211
straně 9210
našem 9188
16 9176
ování 9158
dveře 9141
táta 9130
včera 9126
mohlo 9122
pra@@ 9114
cena 9114
zvláštní 9108
změnit 9096
ok 9091
hra 9089
finanční 9087
deset 9067
ze@@ 9060
skutečnosti 9036
domu 9025
tisíc 9023
.com 9021
dolů 9017
stačí 9001
řeknu 8988
měsíc 8977
pracovní 8969
strach 8966
stal 8965
verze 8961
těžké 8957
ovi 8948
in 8945
go@@ 8942
teda 8942
technologie 8937
nost 8930
podmínky 8913
pla@@ 8905
alespoň 8887
# 8887
procent 8886
služeb 8884
nej 8883
velice 8877
uje 8877
myslela 8870
trhu 8868
jediný 8860
14 8857
pojďte 8844
docela 8843
en@@ 8837
děláte 8834
začal 8815
cestě 8806
máma 8802
nemůžeme 8788
funkce 8756
13 8750
někteří 8748
jiných 8745
nových 8740
nez@@ 8738
nými 8736
říkala 8733
venku 8733
tů 8729
2018 8682
nějak 8679
ném 8657
he@@ 8655
dříve 8645
globální 8644
nejen 8632
několika 8626
hodiny 8617
ki@@ 8616
žen 8583
název 8561
začít 8537
podívat 8535
čky 8531
rádi 8515
obvykle 8515
jedné 8502
odpověď 8500
viděla 8489
sto@@ 8484
zejména 8481
znám 8473
vidíš 8463
států 8463
tehdy 8457
ského 8454
skvělé 8454
novou 8452
windows 8448
vláda 8422
stanice 8421
šest 8408
š 8378
moci 8376
st@@ 8363
rodiče 8355
vedle 8350
dělám 8348
soukromí 8332
lépe 8324
boží 8320
čína 8309
plán 8301
stran 8291
uvidíme 8284
přesto 8281
cenu 8275
září 8265
nechte 8259
moderní 8258
val 8258
každého 8254
účely 8245
energie 8240
společně 8238
smrt 8225
pozdě 8218
nosti 8212
uvnitř 8196
skvělý 8196
měsíců 8194
spojené 8190
sociální 8190
období 8187
2@@ 8181
cookie 8166
nového 8155
policie 8148
vá@@ 8146
tyhle 8139
man@@ 8133
telefon 8128
nejsi 8128
množství 8126
zabil 8108
ž@@ 8106
nahoru 8106
nemáš 8104
taková 8100
čí 8096
někde 8092
nější 8089
17 8083
nes@@ 8042
su 8041
čku 8036
kámo 8024
základní 8015
dovnitř 7997
poskytuje 7989
ovšem 7984
všechna 7982
jte 7975
vat 7972
děkuju 7967
dělal 7959
+ 7951
nápad 7950
tá@@ 7928
druhý 7921
americké 7910
film 7903
vzal 7896
ochrany 7874
cítím 7869
cokoliv 7861
říkají 7860
změny 7857
přišla 7845
přestaň 7835
rodina 7832
používat 7830
jedná 7817
data 7814
snaží 7799
'@@ 7792
jasné 7790
stejné 7780
poslouchej 7775
různé 7775
svoje 7762
neboť 7754
studenti 7743
miluju 7736
současné 7735
cesta 7729
láska 7725
gi@@ 7719
zemích 7715
fe@@ 7704
války 7701
ček 7686
zásady 7667
špatně 7661
celkem 7655
man 7653
tý 7653
platí 7652
ochranu 7647
otce 7637
tuhle 7635
60 7631
apartmány 7629
velkou 7628
umění 7622
aspoň 7618
počkat 7614
2019 7611
vyšší 7611
vytvořit 7609
0 7609
restaurace 7600
udělala 7584
odsud 7579
rodiny 7561
rámci 7560
denně 7553
dě@@ 7550
ká@@ 7549
ři 7546
vede 7535
bohu 7527
spoustu 7526
zbraň 7518
cha@@ 7516
začíná 7515
výsledky 7508
takových 7502
chceme 7500
hlavně 7482
nejde 7482
park 7468
zhruba 7462
vají 7461
skou 7456
zemřel 7453
prdele 7453
rozdíl 7447
všude 7444
článek 7441
zároveň 7436
každou 7433
technické 7413
hlavu 7413
haló 7402
nemáme 7400
měly 7390
dřív 7387
moře 7375
málo 7361
chlap 7351
půl 7338
prý 7324
jistý 7320
dat 7312
věřit 7309
přítel 7305
jasný 7305
místní 7304
nemůžete 7303
naprosto 7301
2017 7300
lí@@ 7298
syna 7298
cesty 7294
ruku 7291
každá 7288
0@@ 7276
us 7272
moji 7260
chtít 7256
jaká 7251
10@@ 7248
zi@@ 7239
skupiny 7237
okamžitě 7236
ují 7234
auta 7229
nemohl 7220
ře 7188
lem 7187
mým 7183
pravděpodobně 7176
bar@@ 7174
dává 7173
ba 7172
vzdělávání 7165
otázka 7156
chtěli 7156
hodnocení 7148
če@@ 7145
přijít 7137
podporu 7136
2015 7135
fa@@ 7134
rozhodně 7133
věku 7128
gu@@ 7125
dělej 7125
žije 7121
malá 7112
zboží 7112
přátelé 7109
tahle 7103
tvá 7096
2016 7085
starý 7080
potřebujete 7070
lí 7059
evropě 7056
centru 7047
bez@@ 7045
těla 7042
či@@ 7041
ských 7031
mluví 7020
mí@@ 7014
nechal 7010
ře@@ 7000
jakmile 6995
má@@ 6990
dala 6983
umožňuje 6976
smysl 6963
vidíte 6963
zajištění 6957
á@@ 6953
nicméně 6948
holka 6948
růst 6940
velikost 6931
aktuální 6918
jo@@ 6915
ženu 6899
obchod 6890
kontaktovat 6888
vlády 6885
tí 6885
našli 6881
kra@@ 6880
měsíce 6865
sa 6860
potřebovat 6858
nemají 6857
vybavení 6857
říkat 6851
če 6848
tímto 6846
potřebuji 6844
video 6843
blízko 6815
evropské 6810
seznam 6807
opatření 6802
ovou 6792
zbraně 6788
cu@@ 6788
ky@@ 6766
pravidla 6758
potřeby 6758
jíst 6737
výběr 6718
jet 6701
radši 6700
raději 6696
prezident 6693
slunce 6684
19 6680
rovněž 6677
věřím 6677
tentokrát 6676
tajemství 6674
rukou 6662
společností 6654
neměla 6650
rá@@ 6648
nechtěl 6647
vě@@ 6640
rem 6629
dělají 6625
budoucnost 6623
práv 6623
možnosti 6622
využít 6620
vězení 6617
www.@@ 6616
chápu 6609
software 6597
světové 6587
situace 6578
udělám 6565
snadno 6558
hi@@ 6554
jdeš 6552
nejvíce 6551
mých 6540
ském 6533
nutné 6529
cký 6529
15@@ 6528
tra@@ 6527
firmy 6524
výzkum 6509
ty@@ 6507
nepro@@ 6504
viděli 6500
.... 6500
21 6500
otevřít 6498
svoji 6496
» 6490
sen 6488
ži@@ 6486
koupit 6483
ních 6478
ji@@ 6477
loď 6476
trh 6472
domě 6467
přišli 6466
san 6466
ník 6453
případ 6444
celá 6441
nad@@ 6439
žádnou 6438
válka 6436
jakou 6435
17@@ 6435
sedm 6428
dnešní 6420
konci 6418
12@@ 6406
prvním 6399
hlas 6399
došlo 6398
zákon 6394
kterým 6392
tys 6391
chyba 6390
chůze 6388
super 6387
obě 6386
přitom 6382
va 6377
svému 6377
kód 6371
lá@@ 6371
šanci 6364
životní 6363
ro 6358
internetu 6350
bra@@ 6347
začátku 6344
král 6343
konce 6343
kla@@ 6338
ců 6331
nout 6320
mluvil 6318
vrátil 6316
ových 6315
státní 6314
ste@@ 6313
především 6311
jež 6310
krok 6308
počkejte 6303
dvěma 6302
úrovni 6299
střední 6294
pokračovat 6293
zbytek 6290
sky 6286
cíl 6285
půjdu 6280
nechceš 6278
čeká 6277
vý 6263
my@@ 6262
druhou 6261
hledat 6260
rodinu 6257
řekli 6256
těm 6255
neměli 6252
zobrazení 6249
produkty 6245
rusko 6243
vání 6238
pán 6233
vzhledem 6231
stránek 6226
ím 6224
restauraci 6220
jediná 6217
účet 6215
krev 6213
souladu 6209
špatné 6208
ován 6208
promluvit 6207
kluk 6198
jestliže 6192
ohledně 6189
ju@@ 6184
následující 6183
mrtvý 6181
typ 6174
zájem 6173
najednou 6172
dali 6170
16@@ 6170
pokojů 6166
nejvyšší 6157
son 6152
mém 6149
ř 6145
kové 6144
normální 6144
strana 6142
pokoji 6140
ono 6139
w 6134
nejdřív 6117
an 6113
vybrat 6109
říkáš 6098
bezpečnost 6093
klid 6091
ca 6086
jmenuje 6081
spát 6080
ých 6079
škole 6078
potřeba 6074
pánové 6071
copak 6070
jižní 6068
200 6063
sti@@ 6061
chi@@ 6060
odkud 6059
ským 6058
ví@@ 6057
che@@ 6051
sk@@ 6050
2013 6046
domy 6044
fo@@ 6037
ry@@ 6030
2014 6029
mysli 6027
zpráva 6018
bezpečí 6016
ový 6013
čemu 6011
ši@@ 5994
obchodu 5992
naopak 5990
neviděl 5981
22 5981
výzkumu 5979
lidmi 5978
ach 5977
neo@@ 5962
city 5961
domácí 5958
ží 5954
13@@ 5953
němu 5952
sta 5951
kou@@ 5948
věděla 5942
al 5937
cké 5931
ing 5925
chvilku 5920
světlo 5914
nelze 5914
á 5912
knihy 5910
san@@ 5907
udělali 5906
severní 5900
mluvíš 5899
znalosti 5897
pěkně 5893
neřekl 5887
šlo 5886
lidské 5884
vedení 5882
kterého 5879
řekněte 5878
takového 5871
vou 5869
car@@ 5863
tvou 5862
nechce 5859
plně 5852
tní 5849
tá 5849
bratr 5844
typu 5842
síly 5838
funguje 5834
ního 5827
týkající 5822
cká 5822
akce 5820
záleží 5818
uživatelské 5815
bohužel 5810
avšak 5809
dáme 5809
ovali 5806
roli 5803
přejete 5796
-to 5794
chování 5793
programy 5792
bezpečnostní 5789
starší 5788
nikoho 5785
stala 5784
ční 5780
's 5778
webových 5777
ř@@ 5776
rozvoj 5776
jazyk 5770
některých 5763
čeho 5763
ježíš 5759
35 5757
příští 5755
naleznete 5751
příležitost 5737
obsahuje 5736
osn 5734
nému 5733
bezpečnosti 5733
doba 5724
tky 5724
pozornost 5722
vodu 5720
14@@ 5719
tro@@ 5715
ran@@ 5713
80 5710
stav 5710
pomůže 5708
existují 5707
vysoké 5706
staré 5706
23 5701
slečno 5695
spousta 5688
nohy 5686
ha 5679
studenty 5676
začala 5666
stránku 5665
neví 5662
zdrojů 5657
drž 5655
zprávu 5653
slyšet 5653
í@@ 5649
požadavky 5645
nena@@ 5645
zjistit 5644
většinou 5643
tvrdí 5641
říci 5638
google 5631
nějaká 5631
2012 5627
nebudou 5624
sou@@ 5623
nemyslím 5614
ovala 5613
and 5613
tri@@ 5610
ým 5603
skupina 5601
zpracování 5598
pr@@ 5595
jízdy 5585
celého 5575
studie 5573
vz@@ 5571
500 5571
zdroje 5568
takovou 5553
odejít 5551
sá@@ 5545
něho 5542
ně@@ 5541
di 5538
spíš 5537
německo 5533
chybí 5533
stejný 5532
stránkách 5530
předcházející 5527
voda 5523
zastavit 5522
škola 5520
gra@@ 5519
dí 5519
it 5519
lé 5518
we@@ 5514
dostali 5512
tomhle 5511
nemohu 5507
bojovat 5503
třetích 5499
ton 5489
ode@@ 5489
nepři@@ 5480
vývoj 5475
web 5474
památek 5473
myslet 5464
neustále 5457
apple 5454
stá@@ 5450
pěti 5449
university 5442
2010 5441
per@@ 5433
zřejmě 5432
proces 5431
ber@@ 5428
tan@@ 5428
pána 5423
takto 5415
ův 5409
dívka 5405
90 5404
vrátí 5396
soukromé 5387
ly@@ 5386
poblíž 5383
cítit 5383
dáš 5383
pohled 5380
ého 5380
ž 5375
men@@ 5375
vě 5375
státu 5374
svými 5373
70 5373
zeptat 5371
itálie 5370
nul 5367
kterém 5367
nění 5365
číně 5364
20@@ 5363
ané 5362
stavu 5360
jediné 5356
cho@@ 5353
studentů 5350
or@@ 5345
místnosti 5343
obsah 5341
jděte 5341
čekat 5339
ter@@ 5332
krásné 5325
projekt 5325
mužů 5324
kterých 5323
28 5322
zrušit 5320
představit 5319
nedo@@ 5311
soubor 5310
cem 5309
vynikající 5301
odtud 5301
dvakrát 5300
vůči 5286
nutí 5280
problémů 5276
všeho 5273
znáte 5271
pracuje 5270
dostala 5268
kon@@ 5260
rů 5260
království 5258
vzdělání 5255
tě@@ 5252
kách 5252
aniž 5248
občas 5244
sledovat 5242
číst 5240
jenže 5236
holky 5236
hodinu 5235
nástroje 5229
ckých 5228
jménem 5224
ými 5222
osm 5217
nice 5214
nadále 5213
ju 5207
nemusí 5205
hlavy 5204
oblast 5202
2011 5202
nejsme 5199
duše 5198
seš 5192
leží 5187
speciální 5187
rozumím 5186
systémy 5184
autem 5179
2008 5179
hru 5178
tvého 5177
ode 5176
právní 5175
večeři 5171
45 5163
lou 5161
cíle 5161
sice 5158
ovány 5157
každém 5155
souhlasíte 5154
napsal 5151
vztah 5150
sílu 5147
jest 5143
fotografie 5139
bar 5138
situaci 5137
aly 5137
ě 5135
cím 5134
přidat 5130
vala 5130
šla 5129
rové 5129
kým 5128
vlasy 5127
vypadáš 5121
skvěle 5118
sla@@ 5115
mě@@ 5115
zachránit 5109
tka 5105
nevadí 5103
dostane 5102
dokáže 5100
spojení 5098
podnikání 5097
microsoft 5088
sítě 5087
doktor 5083
kluci 5080
vysoce 5075
hlavním 5072
dole 5071
inu 5067
spolupráci 5064
stránka 5062
ali@@ 5061
stylu 5058
nejste 5057
blízkosti 5054
ní@@ 5047
neexistuje 5046
ala 5045
ém 5044
žil 5035
dcera 5034
manžel 5033
nepře@@ 5024
oblečení 5023
tvář 5017
ukázat 5016
vašem 5011
setkání 5010
nahoře 5010
mal@@ 5008
lin@@ 5008
potřebují 5007
mojí 5007
zdravotní 5005
go 5000
snažím 5000
ov@@ 4998
dovednosti 4995
náklady 4994
postelí 4989
proti@@ 4984
chodit 4980
míst 4975
27 4969
mění 4969
ť 4964
dnů 4962
smích 4959
správné 4955
pan@@ 4953
© 4946
pre@@ 4945
1. 4943
týmu 4934
druhá 4931
produktů 4930
průmyslu 4928
vítejte 4920
budoucnosti 4920
děláme 4919
americký 4914
jící 4913
nejspíš 4912
el 4909
sy@@ 4899
john 4897
zahraničí 4894
ckého 4891
telné 4887
hodnoty 4882
anebo 4878
ga 4869
ali 4858
otázku 4858
bal@@ 4856
26 4854
oddělení 4854
ována 4854
vé 4853
internet 4852
sto 4852
nesmí 4845
prostor 4845
nit 4842
byt 4840
pomalu 4837
znáš 4836
úroveň 4836
ští 4832
mon@@ 4830
pohyb 4829
schopnost 4829
wi-fi 4824
} 4821
názor 4821
kniha 4816
území 4815
chlape 4814
sy 4809
2020 4808
for@@ 4808
počasí 4806
hosty 4804
neboj 4799
hra@@ 4799
pí@@ 4796
učení 4795
že@@ 4791
historie 4791
dra@@ 4791
technologií 4790
prohlížeče 4786
zdravím 4781
há@@ 4781
najdete 4780
stává 4780
con@@ 4779
{ 4779
hor@@ 4771
11@@ 4770
zu 4768
musela 4766
řadě 4764
tr@@ 4761
umístění 4758
analytické 4751
ulici 4747
miluji 4746
zem 4742
jinou 4742
rová 4740
snadné 4739
přibližně 4737
vezmu 4736
zahrnuje 4733
en 4731
vliv 4722
rozhodl 4722
odpoledne 4722
spo@@ 4716
nevěděl 4715
by@@ 4714
lásku 4713
klidně 4711
nim 4707
historii 4704
komise 4698
spolupráce 4698
těmi 4693
stře@@ 4693
počítače 4693
tech 4692
kar@@ 4691
nemocnice 4688
house 4682
míru 4681
směrem 4680
kdybys 4677
dle 4677
er@@ 4677
ochraně 4677
marketingové 4676
horší 4672
jednání 4670
jednoduché 4669
ver@@ 4668
ému 4664
mr@@ 4659
týdny 4658
tvoří 4656
el@@ 4652
politiky 4651
2009 4645
plánu 4645
dáte 4644
jeme 4642
sex 4642
ur@@ 4639
baru 4638
čase 4636
šaty 4632
dou 4628
koupelny 4627
dosáhnout 4626
harry 4626
nebe 4626
banky 4620
sebe@@ 4620
ností 4617
stra@@ 4616
květiny 4615
jistá 4614
iny 4605
evropy 4603
plný 4599
podpora 4597
používáním 4596
wa@@ 4595
zajímavá 4593
rady 4580
uděláme 4579
stranu 4579
tří 4577
ls 4574
vali 4573
británie 4573
věří 4573
at@@ 4572
manželství 4572
cky 4572
ková 4572
mrzí 4569
přichází 4568
nevíš 4561
důvodu 4558
den@@ 4552
dávno 4552
yorku 4551
um 4551
kový 4550
mo 4549
unie 4549
výhled 4546
ováním 4545
můžou 4542
stará 4541
jete 4536
poslal 4531
uprostřed 4529
snídaně 4527
dají 4524
lý 4524
jednom 4523
služba 4518
ó 4517
os@@ 4517
držet 4516
zbraní 4514
letos 4510
nichž 4505
hu 4502
nebezpečí 4500
tisíce 4499
špatný 4498
článku 4497
tor 4494
ženou 4493
proboha 4491
par@@ 4491
< 4489
sestra 4487
projektu 4486
menší 4485
on-line 4482
dámy 4474
mohly 4474
teprve 4471
dohromady 4470
čísla 4469
listopadu 4469
státech 4468
har@@ 4468
pu 4467
okolí 4465
vezmi 4465
řídit 4464
radost 4464
dě 4464
kdysi 4460
našla 4458
druh 4457
schopnosti 4454
ad@@ 4452
ck@@ 4450
světla 4448
street 4448
filmu 4445
mluvím 4444
řadu 4438
ova 4433
zvířata 4431
é@@ 4431
řekne 4429
dem 4429
miliony 4428
penziony 4426
noční 4424
dr. 4423
službu 4422
mezinárodních 4419
dr@@ 4417
les 4414
jiná 4413
téma 4412
vyžaduje 4409
vidí 4406
naučit 4406
republika 4405
pomáhá 4402
prodej 4400
še@@ 4394
amerických 4393
účtu 4393
změna 4393
sil 4388
nebudeš 4388
důvodů 4386
páni 4386
cen@@ 4385
kov@@ 4384
zovat 4384
oblastech 4382
zu@@ 4381
pes 4380
krásná 4379
tre@@ 4377
ními 4375
ohledu 4373
pěšky 4371
29 4371
uživatelů 4369
vědomí 4369
pa 4369
pana 4369
pe 4358
zákony 4358
ší 4357
dalším 4356
lá 4355
půjdeme 4354
vu 4354
sti 4351
é 4348
společného 4347
pokračováním 4343
zůstaň 4343
mobilní 4338
běžte 4335
cestou 4334
počítač 4332
kami 4329
ben@@ 4324
videa 4324
lásky 4323
jména 4322
většinu 4321
půjde 4320
gar@@ 4319
průběhu 4319
dá@@ 4318
potřebuješ 4318
udělej 4313
řada 4313
lou@@ 4312
mm 4310
předchozí 4308
verzi 4303
metra 4301
ří@@ 4301
všemi 4300
boj 4299
jejím 4299
osoby 4299
ts 4299
jenž 4298
ostatních 4290
vrátím 4287
nedělej 4286
nejméně 4283
hraje 4281
ješ 4279
spíše 4275
au@@ 4275
madam 4273
nikomu 4273
kontakt 4271
představuje 4270
han@@ 4267
stůl 4264
úžasné 4262
mc@@ 4258
knihu 4256
sová 4255
vem 4254
lodi 4254
vr@@ 4253
krize 4252
00 4249
domov 4247
politické 4245
politika 4242
výborně 4238
300 4237
— 4236
seznamu 4235
náhodou 4233
hostel 4231
válce 4231
zůstává 4227
sha@@ 4227
nek 4226
slyšela 4225
lan@@ 4224
sen@@ 4219
ple@@ 4216
ck 4216
vztahy 4214
alo 4211
kousek 4209
znamení 4207
francie 4204
vytvoření 4204
říkáte 4204
úspěch 4203
ztratil 4203
veřejné 4202
snažil 4201
ckou 4199
odpověděl 4188
pěkný 4186
ča@@ 4186
řím 4182
mír 4177
cor@@ 4175
ň@@ 4172
bri@@ 4171
připojení 4169
wi@@ 4167
přísahám 4165
kům 4165
ii 4164
il 4162
nejprve 4161
klidu 4159
zajistit 4154
čních 4153
líp 4151
hrozně 4150
obou 4149
2007 4146
on@@ 4146
vesmíru 4143
osob 4142
neod@@ 4141
lé@@ 4135
adresu 4134
zajímavé 4134
žení 4131
síť 4130
čil 4129
bá@@ 4127
slo@@ 4126
un@@ 4126
fu@@ 4125
hy@@ 4125
jiným 4124
odešel 4124
činnosti 4123
umí 4122
číny 4121
kdož 4121
jednoduše 4118
např 4117
nedávno 4117
některá 4114
níků 4111
zo@@ 4107
procesu 4107
univerzity 4105
ms 4101
připraveni 4096
skutečné 4095
dí@@ 4095
kontrolu 4094
lů 4094
ge 4091
nádraží 4091
vědci 4091
hledání 4090
čtvrti 4090
tudy 4087
tel 4084
jících 4083
ý 4081
jedeme 4080
síla 4073
chodí 4072
připraven 4070
krásný 4068
1@@ 4065
nemusíš 4064
trvá 4062
pochopit 4059
usd 4059
jdou 4052
chvíle 4051
doktore 4050
nil 4050
samé 4049
kám 4047
zdroj 4044
kategorie 4043
někam 4043
programů 4042
růstu 4039
hranice 4038
rovi 4037
zavolat 4037
bu 4033
32 4033
nejdůležitější 4032
dopis 4031
min@@ 4029
museli 4028
ckým 4024
minulosti 4024
vzduchu 4019
ového 4019
val@@ 4018
nebudete 4016
ou 4016
význam 4015
:@@ 4015
soudu 4011
es 4010
neznamená 4010
prachy 4007
druhého 4006
osobně 4005
podstatě 4002
klíč 4002
er 4000
péče 3994
digitální 3994
sko@@ 3994
strašně 3994
začne 3993
,@@ 3993
obraťte 3993
york 3992
parkování 3992
31 3989
sh@@ 3989
kuchyně 3989
zahraniční 3988
str@@ 3986
váme 3985
chlapec 3984
dosud 3982
her@@ 3980
’ 3980
níky 3978
buďte 3974
chu@@ 3971
ká 3970
souboru 3967
charlie 3967
systémů 3966
centrální 3966
-co 3958
chránit 3956
model 3953
životního 3951
rekreační 3950
vrať 3945
získal 3943
řečeno 3943
krát 3942
bolest 3941
pořádně 3939
naživu 3939
ckém 3939
nemusíte 3938
nejhorší 3936
der 3935
plné 3934
šli 3933
bazén 3933
vedoucí 3933
cí@@ 3931
aplikací 3931
ště@@ 3929
jídla 3928
způsoby 3925
úkol 3925
cos 3922
smu 3922
aktivní 3921
podporuje 3919
naším 3918
rt@@ 3917
nebudeme 3915
nechápu 3913
sch@@ 3910
blázen 3910
komu 3906
dívky 3903
postel 3901
udělá 3900
ska 3900
boty 3899
kle@@ 3899
umožní 3898
lení 3898
věděli 3896
čí@@ 3896
tí@@ 3896
začali 3893
zná 3892
py 3884
okolo 3882
generace 3880
ekonomické 3880
prostředky 3879
nejnovější 3877
postele 3877
rychlost 3876
nejdříve 3876
sku 3871
pole 3870
zapomněl 3870
omezení 3869
th@@ 3868
aha 3867
telný 3864
téhle 3864
šance 3863
bí@@ 3862
žili 3858
třídy 3857
obyvatel 3857
dostanete 3857
učit 3854
používáme 3854
násilí 3854
říkali 3854
západní 3853
vítězství 3852
ukaž 3852
ší@@ 3851
naposledy 3850
styl 3850
ovací 3847
chlapi 3846
uvedl 3845
dvoulůžkový 3845
mapa 3844
lov@@ 3842
veškeré 3833
vyberte 3831
spolu@@ 3828
ři@@ 3826
května 3826
šťastný 3821
czech 3815
náboženství 3814
kurz 3807
vést 3806
vhodné 3805
ban@@ 3805
rychleji 3805
soud 3802
2.@@ 3802
malou 3802
pracoval 3801
kurzy 3801
vzdálenosti 3798
sí@@ 3798
trvat 3798
tradiční 3797
beach 3797
poslat 3796
riziko 3796
1.@@ 3796
policii 3795
podařilo 3794
aplikaci 3793
mladý 3791
lidských 3790
žádost 3790
nejlepších 3788
ukazuje 3784
zy 3781
univerzita 3781
výkon 3780
vily 3779
eur 3779
zeptal 3779
žila 3778
mozek 3778
hubu 3778
schopni 3776
at 3776
budoucí 3776
chcete-li 3776
čili 3775
tek 3774
zajímá 3773
wal@@ 3772
poslouchejte 3771
datum 3768
aktivity 3768
škoda 3767
čaj 3766
nů 3766
hlad 3762
cen 3761
ideální 3759
nástroj 3758
lid 3756
pal@@ 3754
zvýšení 3752
příležitosti 3752
okna 3747
někomu 3746
pomohl 3746
podobně 3744
dostanu 3743
kulturní 3743
příště 3741
tku 3740
současně 3738
miliard 3735
ročně 3733
ven@@ 3732
dvacet 3732
miluje 3732
ježíši 3730
navždy 3729
ani@@ 3729
americe 3726
hle@@ 3721
milovat 3721
starosti 3717
zákona 3716
ekonomika 3716
﻿ 3716
nemohla 3716
kvality 3715
něte 3715
velkých 3713
změnil 3711
republic 3709
účelem 3708
inn 3708
možností 3708
ja 3707
níci 3705
června 3704
chy@@ 3704
us@@ 3703
ované 3702
srdci 3702
zas 3701
perfektní 3697
ujeme 3695
zavolám 3695
2000 3693
někým 3690
podobné 3689
profesionální 3687
roze@@ 3686
narodil 3685
původní 3684
ner 3684
pamatuješ 3683
vědí 3680
komunikace 3677
očí 3677
nelíbí 3676
lové 3675
international 3666
design 3665
nějších 3664
uživatele 3664
výše 3660
mor@@ 3659
rozvoje 3658
doprava 3657
kvalitní 3657
támhle 3657
devět 3656
ss 3655
kan@@ 3655
skvělá 3655
hodnotu 3655
věru 3654
bolí 3652
am@@ 3649
přítele 3646
uvěřit 3644
polo@@ 3638
firma 3636
anti@@ 3636
mnozí 3634
pě@@ 3634
rov@@ 3633
úsilí 3629
ováno 3628
tlak 3627
= 3626
dit 3626
vnitřní 3625
čau 3625
operace 3622
lidu 3620
minulý 3619
dostávat 3619
kat 3615
přestat 3614
prostoru 3612
mezinárodního 3610
apartmán 3610
jacku 3608
fotky 3607
tnt 3605
ine 3602
smus 3602
čního 3602
platit 3600
žené 3598
rou 3594
rodině 3593
ny@@ 3592
tý@@ 3592
zachránil 3592
návrh 3591
bio@@ 3589
neš 3588
pen@@ 3587
dohody 3586
přání 3585
října 3585
75 3584
kdybyste 3582
jednat 3581
bur@@ 3580
myšlenky 3577
e-maily 3577
cokoli 3573
důkaz 3571
2006 3569
pl@@ 3568
vzala 3568
výrobky 3566
výhledem 3565
q@@ 3560
moment 3559
bezpečné 3559
připravit 3558
webu 3556
pochází 3554
vin@@ 3553
24@@ 3551
her 3551
ley 3547
mem 3545
tru@@ 3545
dívat 3543
níka 3542
ří 3541
strategie 3539
pití 3539
výsledek 3538
drží 3534
používají 3533
studia 3533
využití 3532
těší 3531
prvního 3529
německu 3528
nevíte 3527
telefonu 3527
přírodní 3527
události 3525
studentům 3525
vypadat 3515
nedá 3512
auto@@ 3511
vezměte 3508
ten@@ 3507
pěkné 3505
cítil 3505
mer@@ 3503
důležitá 3503
36 3501
23@@ 3501
podává 3500
obecně 3500
značky 3497
cvičení 3497
zjistil 3496
ruské 3494
životy 3494
uji 3493
americká 3493
píše 3489
typy 3488
pobřeží 3487
přijmout 3486
pozice 3485
neudělal 3485
prosince 3483
ňuje 3481
mí 3481
hodnota 3481
týdnů 3478
skými 3478
hlavních 3474
důležitý 3474
jakým 3473
mrtvá 3472
neříkej 3470
lil 3469
ren@@ 3469
vanou 3467
obsahu 3466
čeština 3463
volby 3463
ter 3462
pou@@ 3461
navzájem 3461
myšlení 3459
velikosti 3456
shi@@ 3455
navštívit 3455
března 3454
pochybnosti 3452
koupil 3452
přináší 3451
ana 3451
bejt 3451
hostům 3450
července 3450
tito 3448
začátek 3448
center 3448
rychlý 3446
nechcete 3446
příklad 3443
silný 3440
plány 3439
měsíci 3439
udržet 3438
válku 3436
ekonomiky 3435
tomuto 3434
karty 3433
podíl 3433
dělala 3433
bla@@ 3432
osud 3432
novým 3431
vzhůru 3430
produkt 3428
ledna 3427
2. 3427
poskytnout 3423
evropská 3422
sh 3421
apartments 3421
španělsko 3420
obrázek 3420
váte 3418
koně 3417
vysvětlit 3416
níkem 3415
plá@@ 3414
určité 3414
telná 3413
show 3413
skutečný 3413
ak@@ 3412
-a 3411
nemohou 3411
min 3405
investice 3405
stejnou 3404
info 3404
zač 3404
jedinou 3403
šéf 3403
zaměstnanců 3403
léky 3402
hře 3400
bratra 3400
otče 3399
len@@ 3397
čínské 3392
překvapení 3390
chu 3388
jím 3388
klimatu 3387
th 3387
sprchou 3386
nímu 3385
slyšíš 3385
čtení 3385
mil@@ 3384
pri@@ 3383
dostupné 3382
vaším 3381
prezidenta 3381
business 3381
stroj 3381
150 3381
panebože 3377
jinými 3377
orgán 3376
mil 3376
počtu 3370
ostatními 3370
nechám 3367
schopen 3366
tvým 3366
kr@@ 3365
jseš 3365
vej 3365
těžko 3364
deseti 3364
00:@@ 3364
mat@@ 3363
objevil 3361
nechtěla 3360
pohledu 3358
cemi 3358
vysoká 3358
ý@@ 3357
nejvíc 3357
potřebné 3355
léta 3354
duši 3353
pozici 3351
-li 3348
konkrétní 3348
mimochodem 3346
las 3346
cítí 3345
as@@ 3344
manželskou 3344
dostaneme 3344
hudba 3340
be 3339
50@@ 3339
del 3335
psát 3334
brát 3332
rada 3332
33 3331
nýbrž 3331
nské 3327
parku 3327
žijí 3326
super@@ 3326
dětem 3325
gu 3324
rezervace 3323
nebyli 3320
fin@@ 3319
aktualizace 3319
čním 3317
25@@ 3316
naděje 3315
vědy 3313
jehož 3313
výroby 3311
et@@ 3310
zůstane 3307
dna 3306
minuty 3306
osoba 3305
útok 3305
hnout 3305
členů 3304
zi 3303
stro@@ 3302
tovat 3301
jejího 3301
-ne 3294
hlavě 3292
ň 3291
dalšího 3291
ckými 3290
řil 3289
nili 3289
dovolit 3287
zlepšení 3287
tně 3286
ticho 3284
srandu 3283
průmysl 3283
nov@@ 3283
krá@@ 3282
oboru 3281
lím 3279
zra@@ 3279
fungovat 3277
nebyly 3275
letadlo 3275
hvězdy 3274
kl 3273
tel@@ 3271
snížení 3271
til 3270
autě 3269
kovi 3269
psa 3269
stí 3267
cení 3266
něné 3265
velkým 3265
najdeme 3265
věř 3263
poslouchat 3262
jdete 3261
východní 3259
případech 3259
klubu 3259
nabídky 3258
johne 3258
tům 3257
cia 3254
krve 3254
společenství 3252
kapitáne 3250
dělali 3248
krále 3248
cy@@ 3247
kdybychom 3244
aný 3244
slyším 3243
studium 3241
king 3240
mary 3239
dítěte 3239
armáda 3239
tří@@ 3238
29@@ 3235
stu 3235
popis 3234
indie 3233
as 3231
hezký 3231
svobodu 3231
dech 3230
hou@@ 3229
48 3228
organizací 3227
druhy 3226
zkusit 3224
povolení 3224
mari@@ 3223
svě@@ 3222
cího 3222
řešit 3219
tová 3218
ab@@ 3218
svá 3217
kro@@ 3216
pracovních 3216
změní 3215
ted 3213
hy 3209
jel 3208
snídani 3207
prů@@ 3207
pravé 3207
činí 3207
přátele 3206
lit 3205
los 3204
nějším 3204
nete 3200
bro@@ 3200
sle@@ 3199
vrací 3197
00@@ 3196
nikam 3195
místnost 3195
heslo 3193
bre@@ 3192
francii 3188
slyšeli 3187
energii 3187
silné 3185
revoluce 3184
dar 3181
věk 3180
pobyt 3179
nově 3179
uplatnit 3178
chybu 3177
android 3177
miláčku 3176
chlapče 3176
nebezpečné 3176
ukázal 3175
mozku 3174
pivo 3173
děkujeme 3172
barvy 3171
chyby 3171
důkazy 3170
denní 3169
tvoji 3169
plochou 3169
kompletní 3168
skončí 3168
letadla 3168
vypadni 3165
cítíš 3164
zůstal 3163
sny 3163
zemřít 3163
ředitel 3160
automaticky 3160
naučil 3159
sty 3158
gre@@ 3158
televizi 3158
níž 3156
‘ 3152
ria 3152
še 3147
vlastním 3146
zvýšit 3145
qu@@ 3145
34 3144
jeď 3144
ša@@ 3143
nevěřím 3143
ulice 3141
office 3140
dokázal 3139
pokaždé 3138
zemřela 3138
kovat 3138
stáhnout 3137
výhody 3137
–@@ 3137
matky 3136
zení 3134
obavy 3132
čení 3132
níku 3129
oběd 3128
test 3125
dětmi 3124
vila 3123
svojí 3122
výrobu 3120
kanceláře 3120
stu@@ 3119
rokem 3118
mysleli 3118
volal 3118
dohodu 3116
sedět 3116
35@@ 3115
blíží 3113
změnu 3112
hledá 3112
černé 3112
paměti 3107
dceru 3105
podmínek 3104
přestože 3101
zápas 3101
rychlé 3099
pít 3099
pdf 3098
zen 3097
odpovědi 3097
max 3096
name 3095
ane 3095
poz@@ 3093
museum 3093
nezáleží 3090
dil 3090
rozumíš 3089
400 3088
55 3087
víno 3086
úžasný 3086
klub 3086
zuby 3085
prvních 3084
kroky 3083
projít 3082
38 3082
média 3080
2005 3077
znát 3076
obraz 3075
nemocnici 3073
filmy 3070
vývoje 3067
sociálních 3067
dili 3066
trošku 3066
teorie 3065
obchodních 3063
týká 3062
sdílet 3062
opatrně 3062
nejlépe 3061
nevíme 3060
jícím 3060
pátek 3058
wil@@ 3058
ot@@ 3057
maximální 3053
slov 3052
s-@@ 3052
pozitivní 3051
zkuste 3049
dalo 3047
26@@ 3046
prdel 3045
muzeum 3044
průvodce 3044
najdu 3043
miliardy 3041
měst 3041
win@@ 3040
místech 3039
mému 3039
30@@ 3038
ex@@ 3037
kal 3037
zničit 3036
dávat 3036
začalo 3035
budovy 3034
27@@ 3031
sbohem 3031
školu 3030
dobrej 3030
ministerstvo 3029
jinde 3028
kli@@ 3028
činnost 3028
vzali 3025
oheň 3022
0.@@ 3020
stažení 3020
george 3019
matku 3018
jedině 3015
oznámení 3014
pondělí 3014
ó@@ 3013
tvých 3013
tře@@ 3012
žes 3011
napadlo 3010
hezké 3009
01:@@ 3008
nor@@ 3007
uni@@ 3006
dnech 3006
odstranit 3006
28@@ 3005
ška 3004
současnosti 3002
kapitola 3001
končí 2999
vra@@ 2999
3.@@ 2999
del@@ 2999
žený 2998
smlouvy 2998
mluvíte 2993
lie 2992
the@@ 2992
kus 2991
pomozte 2990
-ano 2989
volný 2989
nechala 2987
t-@@ 2983
šek 2981
99 2980
kdykoliv 2980
95 2977
gen@@ 2977
sledování 2977
facebook 2975
našim 2975
mac 2975
ds 2973
klíče 2970
zabezpečení 2969
ir@@ 2968
otázkami 2967
odvětví 2967
potřeboval 2965
bru@@ 2963
spá@@ 2963
instituce 2960
cku 2958
lová 2957
uděláš 2957
4.@@ 2955
kuchyni 2955
uvidíte 2953
rozvíjet 2953
bě@@ 2953
jícího 2952
os 2951
zuje 2951
dárek 2950
důsledku 2949
déle 2949
ď 2949
is 2948
oblastí 2948
chlapci 2946
tého 2944
zpravodaje 2944
druhů 2942
cal@@ 2942
rusku 2942
ger 2941
míry 2939
vysokou 2934
tit 2933
bojím 2929
jednotky 2929
so 2928
hvězdičkový 2928
42 2927
hospodin 2927
villa 2926
dubna 2926
lidská 2926
rizika 2925
ps 2925
nos 2924
ki 2924
známý 2923
ochrana 2921
hod@@ 2921
obětí 2921
jede 2920
vedl 2919
londýně 2918
nevidím 2918
podporovat 2917
tele@@ 2917
37 2916
zvuk 2915
opustit 2911
těmito 2911
ostrov 2911
vztahu 2909
skončil 2907
národů 2907
kri@@ 2907
65 2906
umístěn 2903
barva 2903
uklidni 2902
společné 2901
bát 2898
rande 2898
velkého 2898
postavení 2898
čekal 2897
chy 2896
trest 2896
objeví 2893
nedaleko 2892
hlediska 2892
kávu 2891
šesti 2890
pora@@ 2889
té@@ 2888
hr@@ 2888
38@@ 2883
dlouhé 2883
čila 2883
skému 2883
příslušný 2882
rovnou 2882
kariéru 2881
jiní 2881
skutečnost 2878
postupně 2878
otevřené 2876
potravin 2875
zatraceně 2875
vyřešit 2873
ující 2873
duch 2873
počítači 2872
potíže 2872
neme 2872
šéfe 2871
otázek 2871
_@@ 2871
vyhrát 2870
e-@@ 2869
hráči 2869
ben 2867
36@@ 2866
touto 2866
průměrná 2866
jack 2864
nižší 2863
reakce 2862
joe 2862
sal@@ 2862
dostatečně 2860
podpory 2860
id 2859
zvláště 2859
sexuální 2858
pouhých 2857
články 2857
ďte 2856
nějakého 2856
spi@@ 2856
bank 2854
metody 2852
trhy 2851
text 2851
člověče 2850
cestování 2849
40@@ 2848
posteli 2847
vyšetřování 2847
řekneš 2847
star@@ 2846
černá 2846
příteli 2845
srpna 2842
hrál 2841
přestaňte 2840
odpo@@ 2839
hal@@ 2837
maso 2837
server 2837
nan@@ 2837
boji 2837
apartmá 2836
novém 2835
sk 2833
vánoce 2833
ujete 2832
hledám 2830
bílé 2829
odpovědnost 2829
evropa 2828
rka 2828
pusť 2828
provést 2827
ším 2826
slouží 2826
slíbil 2826
poznat 2826
jisté 2825
banka 2824
henry 2822
softwaru 2822
dila 2821
fbi 2821
dím 2820
jedno@@ 2819
brzo 2819
por@@ 2818
vztahuje 2813
vina 2813
vlastnosti 2812
zabiju 2812
hlava 2812
bojí 2811
založena 2810
přičemž 2808
vodou 2806
uživatelé 2806
jakékoli 2805
prací 2805
ovaly 2805
snížit 2803
chlapa 2803
úrovně 2802
kávy 2802
vlastnictví 2802
zkus 2801
pal 2800
39 2800
slovy 2799
efektivní 2798
ši 2798
stovky 2797
dlouhou 2796
beru 2796
tlačítko 2794
kry@@ 2793
otevři 2793
tion 2793
kři@@ 2790
44 2789
nila 2789
ženě 2789
největších 2789
jakékoliv 2788
cům 2786
prohlásil 2785
titul 2784
role 2784
lež 2783
kru@@ 2783
polovina 2781
milionu 2781
mrtví 2780
paříži 2780
vyhledávání 2779
synu 2779
rána 2779
vybavené 2778
hnutí 2773
nese 2772
vyhrál 2772
sportovní 2771
lila 2771
předem 2771
regionu 2770
největším 2769
37@@ 2769
popisuje 2769
tvém 2769
bohatství 2767
hory 2767
vpn 2767
serveru 2765
držte 2764
ct 2762
ler 2761
dosažení 2761
boje 2761
lní 2760
sp@@ 2760
cha 2760
napsat 2759
vydání 2759
líbit 2758
mikro@@ 2758
univerzitě 2758
vod@@ 2758
výrazně 2757
eli@@ 2757
+@@ 2753
tal 2753
půjdeš 2752
volba 2752
sté 2751
hal 2751
rech 2751
vojenské 2750
rat 2750
kových 2749
ameriky 2746
nezbytné 2743
finančních 2741
dojde 2739
gal@@ 2738
ruska 2737
ačkoli 2737
ství 2736
rozhod@@ 2736
policejní 2735
novinky 2734
stanici 2734
bod 2733
ihned 2733
bílý 2731
can@@ 2731
zlepšit 2731
slu@@ 2731
hodno@@ 2730
stroje 2730
vzduch 2728
večeře 2727
-já 2725
školení 2725
luxusní 2725
tur@@ 2724
tak@@ 2724
obrovské 2723
onemocnění 2722
potlesk 2722
rozkaz 2722
ňují 2721
chá@@ 2720
kultury 2720
česká 2720
jídel 2717
komentáře 2717
chuť 2715
david 2715
funkci 2714
zaplatit 2714
dy@@ 2714
one 2714
neřekla 2713
technik 2713
upřímně 2712
bodů 2712
ží@@ 2711
smí@@ 2710
bor@@ 2708
es@@ 2708
přemýšlet 2707
vrátila 2706
čko 2705
výrobků 2705
rie 2703
nabídnout 2702
vzdělávací 2701
projektů 2700
naštěstí 2699
oběti 2699
izrael 2698
kéž 2695
zavolej 2694
sexy 2694
jelikož 2692
ste 2690
šení 2690
škol 2689
fénem 2688
evropských 2687
dan@@ 2687
uj 2686
ově 2686
cla@@ 2686
hodinky 2684
skrze 2684
zajisté 2683
sedí 2682
hudbu 2680
zákazníků 2679
pracují 2678
včas 2677
hol@@ 2677
nato 2677
péči 2676
she@@ 2676
narozeniny 2675
ing@@ 2674
zjistili 2674
kapitán 2673
členové 2672
nabídka 2672
mysl 2672
provozu 2670
dohoda 2670
doopravdy 2670
holku 2669
vole 2669
lili 2667
zbavit 2667
3d 2666
2004 2666
zájmu 2666
rozšíření 2665
čit 2665
spolupracovat 2664
pravidelně 2664
moři 2663
ac@@ 2663
opi@@ 2663
čce 2663
im@@ 2661
sluneční 2660
sho@@ 2658
neznám 2657
úřad 2657
obrázky 2656
pomáhat 2656
též 2654
br@@ 2654
já@@ 2654
následujících 2654
signál 2653
daří 2651
květinářství 2651
kancelář 2651
dávám 2650
stopy 2647
otci 2647
lých 2647
pojištění 2646
šťastná 2646
obávám 2646
těle 2645
členem 2644
čte 2644
dostaneš 2644
vol@@ 2644
nie 2644
sní@@ 2643
zí@@ 2643
3. 2642
volá 2642
zace 2642
koukni 2642
armády 2642
ostatním 2641
aná 2641
africe 2640
mod@@ 2640
zvíře 2640
rou@@ 2639
učí 2639
vytváření 2639
případů 2638
tuje 2637
vidíme 2636
sc@@ 2636
bolesti 2635
dý@@ 2635
populace 2635
obrazovkou 2635
vo 2634
žím 2632
přední 2632
hlavou 2632
santa 2631
projekty 2630
čisté 2630
přijdou 2629
poměrně 2628
přáteli 2628
smluvní 2628
world 2625
neviděla 2624
sí 2624
tony 2623
srovnání 2623
dů 2622
obje@@ 2621
vstup 2620
výsledků 2619
webovou 2619
února 2617
fotografií 2617
47 2617
vlak 2617
tímhle 2616
com@@ 2615
funkcí 2614
kovou 2614
vůdce 2613
rozhodla 2613
ích 2613
gri@@ 2613
plus 2612
rní 2612
der@@ 2612
pad@@ 2612
van 2611
okamžik 2611
ino 2610
osla@@ 2610
stížnostmi 2609
televize 2609
satelitní 2609
inter@@ 2608
zují 2608
ya 2608
dvou@@ 2608
černý 2608
ě@@ 2607
tamhle 2605
úspěšně 2604
vína 2604
požádat 2603
okno 2603
master 2603
‚@@ 2602
svobody 2601
manžela 2601
drahá 2600
dostatek 2599
sva@@ 2599
počátku 2597
žijeme 2596
individuální 2595
zbývá 2594
nec 2593
hovno 2593
ovoce 2592
smyslu 2590
lee 2590
ral 2587
nebojte 2586
bo 2586
rový 2586
war@@ 2584
nemožné 2583
sun@@ 2582
vytváří 2582
konference 2580
ou@@ 2579
ale@@ 2578
vodě 2577
kamarád 2576
studovat 2576
ed@@ 2574
obsa@@ 2573
adresa 2572
pomoz 2571
ujte 2571
závisí 2571
zranění 2567
součást 2567
jme 2566
ber 2565
nech@@ 2565
oficiálně 2565
přítelkyně 2564
studií 2563
nal 2561
slib 2561
zásadní 2561
ster 2559
zábava 2559
mba 2558
zvířat 2558
dov@@ 2556
20. 2556
austrálie 2556
pol@@ 2555
británii 2555
přijdu 2555
firem 2554
královna 2554
přinesl 2554
dokumenty 2554
řeky 2554
management 2554
tla@@ 2553
vším 2552
led 2551
okamžiku 2551
dopad 2550
materiál 2550
jed@@ 2549
řila 2549
všeobecné 2548
dolar 2548
resort 2546
veřejnosti 2546
hajzlu 2546
každému 2545
-je 2545
časem 2544
chápeš 2544
rozhodnout 2543
řecko 2543
kvalitu 2542
náměstí 2542
očima 2542
ukážu 2542
tor@@ 2541
číme 2541
třech 2540
para@@ 2536
uvádí 2534
nevě@@ 2534
úspěchu 2533
pat@@ 2533
smlouvu 2533
přijel 2533
žen@@ 2532
dlo 2532
němž 2532
zkušeností 2531
nikoli 2530
párty 2530
mluvili 2529
návrat 2527
vytvářet 2527
působí 2526
nástrojů 2526
tko 2525
materiály 2524
ina 2524
2003 2524
kur@@ 2524
tila 2522
bere 2522
postavit 2522
výrobce 2521
hla@@ 2520
vi 2520
vnější 2519
45@@ 2519
nerozumím 2519
web@@ 2519
ducha 2519
snažit 2518
poznal 2516
provozuje 2516
nestalo 2516
· 2515
vydrž 2514
roste 2513
otevřete 2513
četl 2512
snažíme 2512
zaměstnání 2511
anglicky 2511
sovi 2509
malých 2509
fitness 2508
zabili 2508
minimálně 2507
přátel 2506
blo@@ 2506
chi 2506
zí 2503
známe 2503
vůle 2502
nikoliv 2502
bratři 2501
vil 2501
hledají 2501
mra@@ 2500
hezky 2499
ť@@ 2499
dané 2498
drogy 2498
hodný 2498
ložnice 2497
příběhy 2496
nabízíme 2495
body 2495
čer@@ 2494
34@@ 2494
mp@@ 2493
atd 2493
kterému 2492
televizní 2490
mladé 2490
manželka 2490
řeč 2490
otcem 2489
dro@@ 2489
mezi@@ 2488
amerického 2487
japonsko 2487
hat 2486
jí@@ 2486
akci 2485
díte 2485
letní 2484
franku 2482
útoku 2481
žit 2481
přečtěte 2481
eu@@ 2480
64 2480
sli@@ 2480
kilometrů 2479
navzdory 2478
málem 2478
nky 2477
něčím 2477
tat 2477
bohem 2476
hledáte 2476
paříž 2476
tvojí 2475
koupelna 2474
takovým 2473
naději 2473
názvem 2471
jediným 2471
43 2470
druhým 2470
výtah 2470
léto 2469
cílů 2469
je-li 2468
stop 2467
nabídku 2467
budově 2466
čkou 2465
využívat 2463
zen@@ 2463
něji 2463
vejte 2463
řídí 2462
miloval 2462
jem 2462
pode@@ 2461
zaměstnanci 2460
výši 2459
mladší 2458
rezervovat 2457
bou@@ 2457
produktu 2457
vyhrazena 2455
okay 2455
recenze 2452
zima 2451
poli@@ 2451
lních 2450
smě@@ 2450
ll 2450
najde 2450
praha 2449
sotva 2448
mluvila 2448
ryby 2447
tové 2447
mladá 2447
podívejme 2447
zájmy 2446
pravý 2446
politiku 2445
uju 2444
inovace 2444
zákazníky 2443
1,@@ 2442
mluv 2441
py@@ 2441
nský 2441
michael 2440
tov@@ 2439
multi@@ 2439
uh 2438
nijak 2437
ovým 2437
slečna 2436
cel@@ 2436
lek 2436
píseň 2435
plánování 2435
dělejte 2434
světová 2434
zaci 2433
nebi 2432
skládá 2432
valy 2431
očekává 2431
mezinárodním 2430
děvče 2430
3-hvězdičkový 2430
ya@@ 2429
odešla 2428
85 2428
stolu 2426
tváří 2425
jejichž 2424
uješ 2424
novi 2424
ila 2424
sdílení 2423
zlé 2422
výrobní 2421
aných 2421
sestry 2420
silnější 2419
mnohé 2418
41 2417
znalostí 2417
cov@@ 2417
republiky 2417
trvalo 2415
amerika 2415
loni 2412
totéž 2412
spí 2411
poznámka 2410
hřiště 2410
em@@ 2410
char@@ 2408
ye@@ 2406
hle 2404
živé 2403
pusťte 2402
nemohli 2401
organi@@ 2401
narození 2399
fre@@ 2399
dovi 2398
dobrého 2398
jemu 2398
samo@@ 2398
nestačí 2397
nevěděla 2397
zdálo 2397
levné 2396
kolo 2396
plo@@ 2396
kůže 2396
dětství 2395
ňování 2395
sam 2395
jejích 2395
milý 2394
problému 2392
xi@@ 2391
hvězda 2391
zkušenost 2391
hou 2390
souhlasím 2390
sel@@ 2390
minimální 2390
zlatíčko 2389
19@@ 2389
bel@@ 2389
železniční 2389
původně 2389
nesnáším 2389
sty@@ 2388
kč 2386
dávají 2386
schůzku 2385
honem 2383
vel@@ 2383
znova 2383
přístupu 2382
46 2382
nestane 2381
zpráv 2381
nici 2379
dalšími 2378
ss@@ 2378
těžký 2377
alo@@ 2377
rozhodli 2377
oběť 2376
řů 2376
49 2375
čtyř@@ 2373
varování 2373
nejlepším 2372
osobu 2371
církev 2370
přátelství 2370
-jo 2370
lily 2369
skončila 2369
cizí 2369
nádherné 2368
čaje 2368
luje 2367
obličej 2367
místních 2367
přesné 2367
čné 2365
zabránit 2364
dědictví 2364
student 2364
maminka 2363
příkladem 2363
dochází 2363
mů 2362
třikrát 2362
závislosti 2361
most 2361
oblíbené 2360
ovalo 2359
dobou 2359
představení 2358
financí 2357
miluješ 2357
sky@@ 2357
přišlo 2357
rozhovor 2356
věřte 2355
zákazníkům 2354
t. 2354
tních 2354
známé 2354
pochopení 2354
vlast@@ 2353
správný 2353
populární 2353
mladí 2353
kla 2353
jedu 2353
lej 2352
východ 2351
sektoru 2351
obě@@ 2351
chat 2350
níže 2350
plnou 2347
změn 2347
hledal 2346
čertu 2346
sekund 2346
reali@@ 2346
dla 2345
klikněte 2344
našimi 2343
ptal 2343
lodí 2342
mou@@ 2342
utrpení 2342
řit 2340
žená 2338
dlouhá 2338
51 2337
zdi 2337
jednoduchý 2337
řem 2337
pláž 2336
nedostatek 2336
vzájemně 2334
vtip 2333
viz 2332
cítila 2332
tním 2331
nápoje 2330
nosit 2330
světu 2329
věda 2329
5. 2328
londýn 2326
lního 2325
stejná 2325
svět@@ 2325
dně 2325
daně 2324
člověku 2324
lovi 2322
jan 2322
viď 2322
james 2321
důležitější 2321
stali 2320
ap@@ 2318
věd 2317
8.@@ 2316
ova@@ 2316
důvěru 2315
požádal 2314
partnerství 2314
jazyka 2312
využívá 2310
záznamy 2310
pěkná 2309
nily 2309
kanceláři 2308
mistr 2308
médií 2308
sně@@ 2308
účinky 2307
stál 2306
pc 2306
rozhraní 2305
vypadají 2305
ži 2305
víkend 2305
související 2305
dar@@ 2305
zůstaňte 2303
telefonní 2303
hov@@ 2302
létě 2302
marie 2302
zadek 2302
gh@@ 2301
dojem 2300
psal 2300
chovat 2298
tt 2298
dovolenou 2298
van@@ 2297
zapotřebí 2296
zapomenout 2296
vztahů 2296
praxe 2295
spravedlnost 2295
rostoucí 2295
výlet 2295
začneme 2294
částí 2294
ježíše 2293
nemoci 2292
rám 2291
plná 2290
uvidíš 2290
divné 2288
dílo 2287
land 2286
svoboda 2286
režimu 2286
regionální 2285
don 2284
bod@@ 2284
druhém 2284
třemi 2283
světový 2282
cítíte 2281
členy 2281
vých 2280
vrah 2280
prakticky 2279
řady 2276
yho 2276
demokracie 2275
zabije 2274
důvody 2274
dospělí 2273
kluka 2272
středu 2272
psaní 2272
hlá@@ 2271
užitečné 2271
pohodlný 2271
udělejte 2271
vili 2271
obchodování 2270
stan@@ 2270
vysoký 2270
nemoc 2270
knize 2269
techniky 2269
ruky 2269
ministr 2268
dni 2268
uvidí 2267
tám 2267
ip 2267
ropy 2267
fran@@ 2266
elektro@@ 2266
dri@@ 2265
zástupce 2264
tej 2264
pevně 2263
ah 2260
oko 2260
lidstvo 2259
vojáci 2259
historické 2259
lid@@ 2259
cs 2258
znal 2258
prodat 2258
moct 2258
red 2256
m. 2255
tohohle 2255
nákupní 2255
milion 2254
tný 2254
úmluvy 2254
vodní 2253
nebuď 2253
mluvíme 2252
lně 2252
stické 2252
červené 2251
menu 2251
iphone 2250
bě 2250
fa 2249
pokojích 2248
rodinou 2248
vedou 2247
číš 2247
ničemu 2247
nezajímá 2247
hrdina 2246
kdykoli 2246
4. 2245
tha@@ 2245
praví 2245
hl 2245
stí@@ 2244
špatného 2243
obra@@ 2243
šu@@ 2242
sma@@ 2242
way 2242
2002 2242
dou@@ 2242
negativní 2241
něčeho 2241
5.@@ 2240
mrtvých 2240
díš 2239
těmto 2238
chlapce 2237
pomáhají 2237
aut 2237
hledáme 2237
indii 2236
school 2236
výbor 2235
vládní 2235
ovládání 2235
sko 2234
planety 2234
poslyš 2234
e-mail 2233
nská 2232
ovy 2232
tam@@ 2232
zlo 2231
podni@@ 2230
západ 2230
stvořil 2230
probíhá 2229
polovinu 2229
vlastního 2228
bysme 2227
brá@@ 2225
kuje 2225
přijetí 2225
vzkaz 2224
poskytovat 2224
studijní 2223
gene@@ 2223
nikde 2222
kej 2222
studio 2221
prodeje 2221
dlouhý 2221
60@@ 2220
níte 2220
drahý 2220
jmenuji 2219
organizaci 2219
záznam 2219
mise 2219
čistý 2218
znamenat 2218
vesnice 2217
tovi 2216
ken@@ 2216
shromáždění 2215
ska@@ 2214
krista 2214
delší 2213
čekají 2213
ger@@ 2211
ovaný 2210
správce 2209
soudce 2208
cm 2207
bydlí 2207
hrá@@ 2207
námitky 2207
rových 2205
rodičů 2205
tné 2205
tele 2204
měnit 2203
chla@@ 2203
39@@ 2202
obrovský 2201
izraele 2201
školní 2200
pokus 2200
9.@@ 2199
poskytují 2198
čest 2198
hudební 2198
tých 2198
operaci 2196
zůstala 2195
doručení 2195
hodit 2194
ová@@ 2193
změnila 2193
vyhnout 2193
nezapomeňte 2191
zapomeň 2191
neděli 2191
zna@@ 2190
steve 2190
cu 2190
opa@@ 2189
vytvořil 2189
lin 2189
spravedlnosti 2189
stů 2189
informační 2188
praxi 2188
prvky 2187
sítí 2187
sloužit 2187
ai@@ 2187
kterými 2187
vítr 2186
sedni 2186
ele@@ 2185
učitel 2185
každopádně 2183
silná 2183
ovlá@@ 2183
budova 2183
kafe 2183
tory 2183
liší 2181
paměť 2179
52 2179
babička 2179
minutu 2176
měj 2175
lka 2174
špatná 2174
kvalita 2172
umíš 2171
financování 2171
lékař 2171
set 2170
zvyšuje 2169
blíž 2168
potkal 2168
pláže 2167
dávej 2167
kurzu 2167
trpí 2166
pacientů 2165
výroba 2165
pohybu 2164
1:@@ 2162
pově@@ 2162
květin 2161
7.@@ 2161
úřadu 2161
set@@ 2161
ana@@ 2161
mějte 2160
ostrově 2160
len 2159
agent 2159
člověkem 2158
vysvětlení 2158
získání 2158
různými 2158
5-@@ 2157
čů 2157
získala 2157
ňovat 2156
případu 2156
neslyšel 2156
asii 2156
kanál 2155
gmail.com 2154
věřil 2154
názory 2154
potenciál 2153
postup 2153
ble@@ 2152
víru 2152
odhlášení 2152
€ 2152
kamery 2151
tické 2151
ničeho 2150
koule 2150
věříme 2149
něný 2147
bi 2147
úkoly 2147
slyšíte 2146
rovat 2146
lky 2145
vedla 2144
radu 2144
tváře 2144
několikrát 2143
zlý 2143
originální 2143
postarám 2142
přemýšlel 2142
okolností 2142
pozadí 2141
jeli 2141
pravou 2141
tili 2140
strom 2140
hd 2140
lodě 2140
vypadal 2140
komplexní 2139
kontaktujte 2139
šil 2139
sport 2137
utéct 2136
zahrnují 2136
ford 2135
tzv 2135
líbilo 2133
« 2132
setkat 2132
obrany 2132
čin@@ 2132
zemědělství 2131
noviny 2131
získali 2130
hrají 2130
úplné 2130
standardní 2129
vla@@ 2129
201@@ 2129
přeci 2127
tvrdě 2127
odborné 2126
odpovědnosti 2126
600 2126
dání 2126
přečíst 2124
rychlejší 2124
východě 2124
vybral 2123
dopravní 2123
tin@@ 2123
bezva 2123
47@@ 2120
vládu 2117
mužem 2116
bí 2116
dob@@ 2115
sna@@ 2115
něčem 2114
lék 2114
nou@@ 2113
oběma 2113
institucí 2113
250 2113
většině 2112
line 2112
ženská 2112
zavazadel 2110
umřít 2110
zavolejte 2110
fra@@ 2110
pracovníků 2109
rky 2109
činy 2108
režim 2108
potraviny 2107
ální 2107
nedokážu 2106
spa@@ 2106
dokážu 2106
chrá@@ 2105
normálně 2105
mobil 2105
jakož 2105
bývá 2104
dopředu 2104
prostředků 2104
jela 2104
skem 2103
lovat 2103
0,@@ 2103
sil@@ 2103
vozů 2102
nes 2102
správnou 2102
-tak 2101
ment 2101
uživatel 2101
trump 2101
níme 2100
týče 2100
řa@@ 2099
pokrmy 2099
vlastních 2099
ye 2098
zodpovědnost 2098
wa 2098
80@@ 2097
sní 2097
lékaři 2097
dvd 2097
facebooku 2095
kového 2095
-jak 2095
dokážeš 2095
am 2094
zlo@@ 2094
smrtí 2094
zemře 2093
dová 2093
q 2092
nastavit 2092
laskavost 2092
pravidlo 2091
lech 2091
zvládnu 2091
odpovídá 2091
bývalý 2090
kontroly 2090
očích 2090
doktora 2090
hráč 2088
leh@@ 2088
72 2087
nervózní 2087
vašim 2085
pardon 2084
lním 2083
ztratila 2083
bytu 2081
opustil 2081
druhu 2081
jane 2081
21. 2080
dobro 2080
ed 2080
přál 2080
slibuju 2080
následně 2079
vzadu 2079
nazývá 2079
pravá 2079
19. 2079
ruka 2078
ováni 2078
2001 2077
kontrolou 2077
složky 2077
2-@@ 2077
kartu 2076
nami 2076
podíval 2075
autor 2075
volala 2074
technologii 2073
připravte 2073
nejbližší 2071
dostanou 2071
šku 2071
odkaz 2071
dokončit 2071
sobotu 2071
zavolal 2069
pravdy 2069
vysílání 2069
vyzkoušet 2069
prvé 2068
díme 2068
tního 2066
kal@@ 2065
pravidel 2065
6.@@ 2065
66 2065
ačkoliv 2065
dcery 2064
fil@@ 2064
bytě 2064
1000 2063
rozvoji 2063
běžné 2063
řili 2062
stranou 2062
zajímalo 2061
poskytování 2061
vánoční 2061
vašemu 2061
bavit 2061
vývoji 2060
zaslouží 2060
sehnat 2059
orgány 2059
ztráty 2058
připadá 2058
cka 2058
zabila 2058
zavřít 2057
pixelů 2057
vrátili 2057
omluvte 2057
podniky 2057
čené 2056
výboru 2056
pustit 2055
napl@@ 2054
muzea 2053
spánku 2053
provádět 2053
vzdálenost 2052
stolem 2052
každým 2052
čený 2052
chytit 2052
přinést 2052
standard 2051
sl@@ 2051
pat 2050
testy 2049
mer 2049
ser@@ 2048
is@@ 2048
dětské 2048
vost 2048
vojáků 2047
hdp 2047
myslíme 2047
há 2046
48@@ 2046
knout 2045
200@@ 2045
širokou 2044
dojet 2044
najděte 2044
povinnost 2043
poplatky 2043
sarah 2042
příslušenství 2042
německé 2042
dal@@ 2041
sů 2041
s.@@ 2039
přípravu 2039
zmizel 2038
ztratili 2038
zákazníci 2038
díl 2037
matce 2036
ukazují 2036
připravena 2035
paul 2035
jimmy 2034
skupinu 2033
inteligentní 2033
otevřel 2033
doporučení 2033
třídě 2033
přihlášení 2032
důležitou 2032
angeles 2031
připravený 2030
formě 2030
staly 2028
dík 2027
nádobí 2027
těhotná 2026
britské 2026
federální 2026
ili 2025
fotbal 2025
pobytu 2025
něn 2025
celkové 2024
zdr@@ 2024
prospěch 2023
starat 2023
top 2023
hlí@@ 2023
čtyř 2022
nabízejí 2021
přehled 2021
meč 2020
tušení 2020
sek 2019
chlápek 2019
očekávání 2018
nku 2018
odpovědět 2018
způsobit 2018
produkce 2018
systémem 2018
myšlenka 2017
minulost 2017
kámen 2016
il@@ 2016
divný 2015
pohlaví 2014
kontaktu 2014
kontro@@ 2013
bodech 2013
shromážděné 2012
neuvěřitelné 2011
příležitostí 2011
au 2009
princ 2009
bránit 2008
via 2008
série 2008
69 2007
třicet 2006
anglie 2006
odvahu 2005
ření 2005
pronájem 2005
otevřený 2004
obtížné 2003
cestovní 2003
návštěvu 2003
ocenění 2003
akademické 2003
základ 2002
vstávej 2002
něna 2002
iráku 2001
ron 2001
far@@ 2000
valo 2000
číte 1999
vrátíme 1999
1-@@ 1999
ště 1998
vznést 1998
souvislosti 1996
letu 1996
11. 1996
dopravy 1995
šky 1995
hospodářské 1995
záležitost 1994
vně 1994
medi@@ 1994
ztratit 1994
nohou 1993
dnem 1993
modely 1992
svá@@ 1991
letý 1990
hostely 1990
příkaz 1989
sedmi 1989
euro 1988
ps@@ 1988
používáte 1988
akorát 1987
přírody 1987
barvu 1986
jednotlivých 1986
nechali 1985
vážné 1985
sme@@ 1985
základních 1985
nazdar 1985
lidského 1984
ža@@ 1984
brácho 1984
prsty 1984
učinil 1984
vější 1983
starého 1983
souhlas 1983
sví@@ 1983
nemyslíš 1983
stromy 1982
překlad 1982
chytrý 1982
snažila 1981
kdokoliv 1981
stůj 1981
veřejných 1980
vraťte 1979
řekněme 1979
krása 1978
činu 1977
67 1976
stre@@ 1976
planetě 1976
rodinné 1975
dové 1974
ukázalo 1974
žíme 1974
ohro@@ 1973
připojit 1972
japonsku 1972
stru@@ 1972
zdravé 1972
třída 1971
vůz 1971
šílený 1971
nilo 1970
vychází 1970
událostí 1970
ri 1969
stálo 1969
odstranění 1969
800 1968
klíčové 1968
bon@@ 1968
lový 1968
věcech 1967
hodná 1967
mezitím 1966
vl@@ 1966
bran@@ 1966
beze 1965
předpokládám 1965
úvahu 1965
záda 1965
cal 1964
pocity 1964
místem 1962
dokončení 1961
ču@@ 1961
soudní 1960
operační 1960
men 1958
obchodě 1958
gen 1957
ější 1957
potřebami 1956
týdne 1956
milují 1955
mana 1954
úsměv 1954
ony 1954
střílet 1954
otázkou 1953
příznaky 1953
poděkovat 1953
4,@@ 1951
trá@@ 1951
zrušení 1950
výkonu 1950
posta@@ 1950
62 1950
sejfem 1948
úterý 1948
vsadím 1948
řeči 1948
des 1948
správa 1947
virus 1947
pokrok 1947
roční 1946
komunity 1946
předpisy 1946
dokument 1946
frank 1945
bou 1945
krku 1945
volání 1944
zvlášť 1943
německa 1943
hlášení 1942
měsíční 1942
yo@@ 1942
vzrušující 1941
pomůžu 1941
uvedené 1941
postarat 1941
hlavního 1940
člen 1940
vesmír 1939
poslali 1939
fer@@ 1938
bratře 1938
krátké 1937
severo@@ 1937
nůž 1936
cre@@ 1936
rá 1935
tihle 1935
fáze 1934
bílá 1934
af@@ 1933
mb 1933
posu@@ 1933
lásce 1933
měsících 1932
stří@@ 1932
úřady 1932
pil 1932
sejf 1931
asie 1931
připomíná 1931
desetiletí 1930
přežít 1929
stačilo 1929
ině 1928
vrá@@ 1928
sv@@ 1927
podobě 1926
angličtině 1925
prsten 1925
pomohla 1925
zkou@@ 1925
změnilo 1925
bezplatné 1925
3,@@ 1925
ml@@ 1924
materiálů 1924
dveří 1924
měření 1924
vým 1924
uvidím 1924
dokázat 1923
proje@@ 1923
tanec 1923
ukradl 1923
nýho 1921
ští@@ 1921
úmrtí 1920
vteřin 1920
milé 1920
sed@@ 1920
rek 1920
životem 1920
angličtina 1919
pokračujte 1917
dívku 1917
podíváme 1917
ď@@ 1917
svatého 1916
nahra@@ 1916
líš 1915
nefunguje 1915
něno 1915
hem 1914
letišti 1914
vyz@@ 1913
vky 1913
starých 1913
kg 1913
hro@@ 1913
rání 1913
chystá 1912
jou 1912
příjemné 1912
podívám 1912
skutečná 1912
věnovat 1912
majetek 1911
virtuální 1911
možný 1911
jedem 1911
dovo@@ 1910
běží 1909
věříte 1909
wo@@ 1909
věříš 1908
sin@@ 1908
čínská 1908
lého 1907
grand 1906
pokračuje 1906
vyš@@ 1905
mat 1905
vypadám 1904
výsledkem 1904
praktické 1904
lku 1904
jmen@@ 1904
apk 1903
tou@@ 1902
příjem 1902
ýho 1902
dr 1901
oproti 1901
plu@@ 1901
rovou 1900
psi 1900
účty 1899
js@@ 1899
posti@@ 1899
zjistila 1899
níš 1898
poli 1898
same 1897
dovolte 1897
jiném 1897
umožňují 1897
hoši 1896
zážitek 1896
hrad 1895
časy 1895
síti 1895
unikátní 1893
evropský 1892
knih 1892
fri@@ 1892
6. 1891
odkazy 1891
g-@@ 1891
poko@@ 1891
jaderné 1891
baterie 1890
pravil 1890
vzpomínám 1890
lar@@ 1890
obchody 1890
tem@@ 1890
53 1889
ovacích 1889
hraní 1889
ios 1888
fotku 1886
životu 1886
čtvrtek 1886
lidstva 1886
publi@@ 1886
domova 1885
tajné 1885
martin 1884
ministerstva 1884
jazyky 1883
službě 1883
ovanou 1883
průmyslové 1883
ut 1882
hodí 1882
tátu 1882
červená 1880
ble 1880
politických 1879
dor@@ 1879
skončit 1878
přede 1878
motor 1878
49@@ 1878
ang@@ 1877
ovaných 1877
kate 1877
jízda 1877
příspěvek 1876
správu 1876
komunikaci 1876
group 1876
net@@ 1875
dodal 1875
neviděli 1875
rozumíte 1874
nasta@@ 1874
bli@@ 1874
zvo@@ 1874
tový 1874
městem 1873
strávil 1873
seděl 1873
vení 1872
ara@@ 1872
pomohou 1872
zajistí 1872
sazby 1871
říkáme 1871
umím 1871
náhle 1871
existovat 1871
městech 1871
formy 1871
letí 1870
zla 1870
architektury 1870
hospodářství 1869
alex 1869
výběru 1869
sklá@@ 1869
bezpečně 1868
lži 1868
nemělo 1868
krizi 1868
nemusím 1868
umřel 1868
využívání 1867
čínský 1867
kontrola 1867
cd 1867
čelí 1866
veřejného 1866
for 1866
námořní 1866
room 1866
záležitosti 1866
jménu 1865
vůli 1865
získejte 1865
důvodem 1864
kre@@ 1863
zené 1863
uši 1863
kůži 1862
nějakej 1862
matkou 1862
stvoření 1862
minu@@ 1861
dek 1861
managementu 1861
zkontrolovat 1861
drá@@ 1861
zázrak 1860
56 1860
mámu 1860
povím 1860
majitelů 1859
vítej 1859
světových 1858
obnovit 1858
paráda 1858
sona 1858
cy 1857
učinit 1855
vydal 1855
suites 1855
nákladů 1855
neroz@@ 1854
zlata 1854
road 1853
zastavte 1853
soukromý 1853
horní 1853
vající 1853
hale 1853
nula 1852
kin@@ 1851
ů@@ 1851
národního 1850
fla@@ 1850
američané 1849
správná 1848
cti@@ 1847
obyvatelé 1847
sone 1847
psycho@@ 1847
ustanovení 1847
zadní 1847
závod 1847
výjimkou 1847
užívání 1846
inženýrství 1846
itálii 1846
63 1845
strá@@ 1845
vní 1845
liber 1845
maria 1844
správy 1843
rozdíly 1843
mrtvé 1843
dění 1842
představují 1841
nka 1841
70@@ 1841
strachu 1841
sledujte 1840
vědecké 1840
hm 1840
ol@@ 1840
světového 1839
ublížit 1839
malého 1839
šené 1838
restaurací 1838
tal@@ 1838
15. 1838
kočka 1837
play 1836
příštích 1836
krevní 1836
uděláte 1836
vozidla 1835
vytvořili 1835
nat 1834
vzpomínky 1834
zapomněla 1834
volat 1833
ptám 1833
brýle 1833
stupeň 1833
názoru 1832
nehoda 1832
posledním 1832
vstoupit 1832
nějakým 1831
zahraničních 1831
net 1831
vzhled 1830
kurzů 1830
vypadalo 1829
náhrady 1829
soutěž 1829
ptát 1829
čtí 1828
divo@@ 1827
telefony 1827
tte 1827
obvinění 1827
54 1827
víra 1827
přítomnost 1827
čímž 1827
analýza 1826
tenkrát 1826
ruský 1825
nádherný 1825
podaří 1825
kapitálu 1825
ag@@ 1825
hráčů 1824
líme 1823
zam@@ 1822
hrozné 1820
klo@@ 1820
10.@@ 1820
ovém 1819
ide@@ 1819
ukončení 1819
žíte 1819
padesát 1818
telé 1817
d-@@ 1817
žá@@ 1817
tes 1816
ztráta 1815
stupně 1814
církve 1814
zelené 1814
hotovo 1814
důsledky 1813
ham@@ 1812
nenávidím 1812
or 1812
indi@@ 1812
mladých 1811
sleduje 1811
lékařské 1811
ini@@ 1810
evropského 1809
svatební 1809
silně 1809
začnou 1808
naproti 1808
90@@ 1808
120 1808
takovém 1807
přirozeně 1807
don@@ 1806
závěr 1806
host 1805
rova 1805
vraždy 1805
problémem 1805
time 1804
postupy 1804
86 1804
lekce 1803
cvi@@ 1803
palubě 1803
české 1802
restaurant 1802
telnou 1802
nechť 1802
napětí 1802
uložit 1800
elegantní 1800
princezna 1800
58 1799
ská@@ 1799
59 1799
úkolem 1798
hotels 1798
61 1797
víry 1797
nel@@ 1796
68 1796
bankovní 1795
hráče 1795
lhal 1794
výraz 1794
prodávat 1794
dojít 1793
čekám 1793
týdně 1793
necháme 1793
ších 1792
údajně 1792
ski 1791
zasedání 1791
popsány 1791
budoucnu 1790
řeknete 1790
skupin 1789
potřebu 1789
náladu 1789
oznámil 1789
spe@@ 1789
výročí 1789
zeď 1788
lese 1788
platnost 1788
ling 1788
hranici 1787
šť@@ 1786
zavři 1786
íme 1786
kne 1786
inovativní 1786
al-@@ 1785
něná 1785
prá@@ 1785
jakoby 1785
prezidentem 1784
francouzské 1784
kamarádi 1784
dle@@ 1783
prošel 1783
rozsah 1783
děl@@ 1783
zpoždění 1783
um@@ 1783
způsobů 1782
bil@@ 1782
dodnes 1782
anglii 1781
posaďte 1781
college 1781
nechceme 1780
nohu 1779
bible 1778
et 1778
lhát 1778
stávají 1778
poru@@ 1778
změně 1778
užít 1778
průměru 1778
podniků 1778
vého 1777
čně 1777
ok@@ 1777
účast 1777
sau@@ 1776
znamenalo 1776
osobním 1776
ad 1775
sku@@ 1775
začínají 1775
provoz 1774
pí 1774
díval 1774
hudby 1773
kom@@ 1773
významné 1772
mag@@ 1772
peter 1770
svatý 1770
nechtějí 1770
sestru 1770
pohodlné 1769
zdravotnictví 1769
hmm 1767
skrz 1767
kamaráde 1767
sové 1766
těhotenství 1766
…@@ 1766
popsanými 1766
kristus 1764
pečlivě 1764
tisk 1764
prostory 1764
délka 1764
tradice 1764
říše 1763
chod@@ 1763
100@@ 1763
rodinný 1763
nepřítel 1761
rozvojových 1761
cestovat 1760
uvedla 1760
stabilní 1760
designu 1760
užívat 1760
nictví 1759
tun 1759
ňte 1757
uvědomil 1757
jmenuješ 1757
látky 1757
jazyků 1756
řidič 1756
modelu 1756
sydney 1756
mode@@ 1754
slibuji 1753
našemu 1753
přednost 1753
kali 1752
rku 1752
° 1752
pošlete 1752
berg 1752
dné 1751
77 1751
rychlosti 1751
žky 1750
fakta 1749
zaměřuje 1749
přesvědčit 1748
detaily 1748
live 1748
8. 1747
vzdát 1747
55@@ 1746
venkovní 1746
nosí 1746
koncem 1745
88 1744
jen@@ 1744
objevila 1744
předseda 1744
anna 1743
smlouva 1743
mý 1742
silou 1742
žádném 1741
ovaná 1741
poznávám 1741
zůstanu 1739
příběhu 1739
vezmeme 1739
generální 1739
ie 1738
nau@@ 1737
pekla 1737
2,@@ 1737
zastavil 1737
pracovala 1736
odha@@ 1736
kor@@ 1736
ff@@ 1735
fan@@ 1735
podniku 1735
zastav 1734
krásně 1733
ville 1733
ckému 1733
ovládat 1733
dvoj@@ 1733
iso 1733
57 1732
nejmenší 1732
koukej 1732
asi@@ 1732
mléko 1731
starost 1730
dobrým 1730
ponětí 1730
hádat 1729
čný 1728
vybavených 1728
sra@@ 1727
nova 1726
sýrii 1726
kole 1726
databáze 1726
souvisí 1725
ško@@ 1725
léčby 1725
partner 1724
geo@@ 1724
slou@@ 1724
hrozí 1723
komuni@@ 1723
agentury 1723
ner@@ 1722
úvodní 1722
chem 1722
doslova 1721
teploty 1721
čá@@ 1721
soustředit 1720
procenta 1719
původu 1719
anděl 1719
značka 1719
76 1719
vzdálené 1718
nické 1718
událost 1718
obchod@@ 1717
fal@@ 1717
vegas 1717
spal 1717
ney 1717
tvo@@ 1715
tome 1715
váním 1715
ingu 1715
zasa@@ 1714
silnice 1713
porozumění 1713
začaly 1713
hel@@ 1712
mý@@ 1712
vejce 1711
tin 1711
vezme 1711
lidský 1710
reklamy 1710
svý 1710
kti@@ 1710
kola 1710
dovedností 1710
trvale 1709
tický 1709
příjmy 1708
svi@@ 1708
boj@@ 1708
přestal 1707
die 1706
robert 1706
zeno 1705
íš 1704
právník 1703
kim 1703
představte 1703
hla 1703
čná 1703
tových 1703
držel 1702
míra 1702
občanů 1701
investiční 1701
zni@@ 1701
kosti 1701
sednout 1701
nějšího 1700
momentálně 1699
vše@@ 1699
recepce 1699
mati@@ 1699
vskutku 1699
stupňů 1698
per 1698
směr 1698
tivní 1698
kole@@ 1697
hen@@ 1696
použil 1695
životů 1695
nevypadá 1695
nemyslel 1695
papír 1695
miliónů 1694
použijte 1694
hezká 1694
ctihodnosti 1693
lým 1693
sledoval 1693
přežití 1693
nákup 1692
4-hvězdičkový 1692
dostalo 1692
muselo 1692
dobrodružství 1691
firmu 1691
amy 1691
mini 1691
německý 1691
severu 1691
bobby 1691
londýna 1691
3-@@ 1691
složité 1690
ek 1690
tina 1690
mal 1690
nejstarší 1690
polovině 1689
podnik 1689
danny 1689
oprav@@ 1689
cestující 1689
společenské 1689
upravit 1689
instalace 1689
rozhodování 1688
washington 1688
rol@@ 1688
59@@ 1688
všemu 1687
doporučujeme 1687
96 1686
turecko 1686
star 1686
čen 1686
klí@@ 1686
reagovat 1686
barcelona 1685
tují 1685
obrazovky 1685
šen 1685
zůstali 1685
ština 1685
půdy 1684
žíš 1684
spustit 1683
nařízení 1683
zované 1683
zajít 1682
hlasování 1682
pověz 1682
otevřená 1682
nízké 1681
pin@@ 1681
půj@@ 1681
spamu 1680
ukáže 1680
jan@@ 1680
profesor 1679
testování 1678
znají 1678
vyhra@@ 1678
pot@@ 1678
spojit 1677
čištění 1677
fle@@ 1677
jindy 1677
konferenci 1677
nalézt 1677
bydlení 1677
povinnosti 1676
ut@@ 1676
lásko 1675
rohu 1675
afriky 1675
sub@@ 1674
zločin 1674
mapě 1674
národ 1674
zování 1673
toval 1673
lost 1672
cam@@ 1672
každej 1671
politice 1671
žených 1671
akademie 1671
89 1670
kódy 1670
snu 1669
hotelů 1669
výzkumné 1669
ván 1669
zpívat 1669
balíček 1669
bit 1669
lém 1668
dvanáct 1668
magisterský 1668
teli 1668
kli 1667
čin 1667
autobus 1667
ón 1667
bat 1667
sranda 1666
výsosti 1666
fázi 1666
tar@@ 1665
pracuji 1665
jské 1665
strávit 1665
zap@@ 1664
tos 1664
kočky 1664
čelit 1664
funkční 1664
cro@@ 1663
pánu 1662
rci 1661
tržní 1661
zelená 1661
ruská 1660
parlamentu 1660
chová 1660
dáma 1659
gor@@ 1659
rukama 1659
island 1659
provo@@ 1659
kul@@ 1659
mistře 1658
zobra@@ 1658
připravená 1658
provádění 1658
přemýšlím 1657
new@@ 1657
potěšení 1657
dějiny 1657
jším 1657
otevření 1657
2:@@ 1656
kroků 1656
absolutně 1656
samotné 1656
dodávky 1654
spočívá 1654
blog 1654
pokračuj 1653
mane 1653
taxi 1653
emi@@ 1652
fakulty 1652
přicházejí 1652
pochopil 1652
láskou 1652
zadejte 1651
otevřen 1651
mike 1651
odpuštění 1651
71 1650
cra@@ 1650
chodil 1650
aktivit 1650
najdou 1650
trzích 1650
objednávky 1650
upozornění 1649
bál 1648
opravit 1648
utekl 1648
vlakem 1647
známky 1646
komentář 1646
tíš 1645
balení 1645
získáte 1645
klidné 1645
reálném 1644
přihlásit 1644
přijdeš 1644
muž@@ 1644
poškození 1644
ope@@ 1644
kají 1643
najdi 1643
3hvězdičkové 1643
částečně 1643
baví 1642
preziden@@ 1641
nejs@@ 1641
stem 1641
paříže 1641
leté 1641
youtube 1640
claire 1640
živý 1640
skupině 1640
návratu 1639
postelemi 1639
pracujeme 1639
gan@@ 1639
čuje 1638
ekonomických 1637
austrálii 1637
zkoušky 1636
zbláznil 1636
vysokých 1636
nepřišel 1636
ceně 1635
oči@@ 1635
případy 1635
milá 1635
přinese 1635
cri@@ 1634
kání 1634
hmotnost 1633
-ale 1633
vedlejší 1633
přejít 1633
příroda 1632
jícími 1632
alice 1632
zdravý 1632
tilo 1632
stávající 1631
patře 1631
vyvá@@ 1631
kala 1631
nábytek 1630
pohodlí 1630
ukrajina 1630
kyně 1630
nerad 1629
ff 1629
ruje 1629
dobří 1628
ovo 1628
stejném 1627
chybět 1626
jin@@ 1626
příjemný 1625
předměty 1625
potřebovala 1625
zemětřesení 1625
modré 1624
kamarádka 1624
nevěří 1623
obe@@ 1623
tudíž 1623
fér 1623
íte 1622
šá@@ 1621
krátce 1621
field 1619
1999 1619
píšu 1618
zba@@ 1617
olej 1617
mini@@ 1616
toaletními 1616
ser 1616
každodenní 1616
všiml 1616
robo@@ 1616
vlasů 1616
plyn 1616
oh@@ 1615
přede@@ 1615
chrání 1615
alkohol 1615
zeptejte 1614
davide 1614
vené 1614
velkém 1614
22@@ 1614
zaměstnance 1613
registrace 1613
následovat 1613
mai@@ 1613
sever 1612
podobný 1612
nápady 1612
hlu@@ 1612
kultura 1611
vzpomínáš 1610
způsobuje 1609
přítelem 1609
robot 1609
údolí 1609
fuk 1609
šíte 1609
zvládnout 1609
home 1609
níkům 1609
sprcha 1609
nesmíš 1608
pláži 1608
veřejnost 1608
port 1608
útoky 1608
přiznat 1608
očividně 1608
stvím 1607
klá@@ 1607
krk 1607
dokázali 1607
buňky 1606
určit 1606
poslání 1606
asociace 1606
očekávat 1606
tovou 1605
poly@@ 1605
slov@@ 1604
úvazek 1604
jakýchkoli 1604
video@@ 1604
topení 1604
hlasy 1603
týdnu 1602
nenávidí 1602
zkrátka 1602
celkově 1602
distribu@@ 1601
soutěže 1600
neumím 1599
ženo 1599
zmizí 1599
selhání 1598
írán 1598
uzná@@ 1598
rozsahu 1597
němci 1597
mýho 1597
bral 1597
dozvědět 1597
7. 1596
škálu 1596
gy 1596
pas 1596
vány 1595
30. 1595
vit 1595
10. 1594
pon@@ 1594
lon 1594
aktivně 1594
analýzy 1594
nesmírně 1594
zkontrolujte 1594
nesta@@ 1593
ké 1593
4-@@ 1593
desítky 1593
nev@@ 1593
jednoduchá 1593
výzvy 1592
povede 1591
98 1591
5,@@ 1591
son@@ 1591
rose 1591
reakci 1590
připravuje 1590
říjen 1590
oce@@ 1590
platby 1590
zahrady 1589
králi 1589
mámě 1589
odborníků 1589
přeji 1588
ozna@@ 1588
lových 1588
lon@@ 1588
hodinách 1588
rně 1588
dobrých 1588
začněte 1588
andy 1587
pamatuju 1587
ig@@ 1587
politická 1587
růže 1586
budování 1586
třetím 1586
rad@@ 1585
poško@@ 1585
pusu 1585
vlo@@ 1584
skle@@ 1583
žádám 1582
tj 1582
partnery 1582
staro@@ 1582
výrobě 1582
faktory 1581
vyjde 1581
prosinec 1581
namísto 1580
masa 1580
drahé 1579
9. 1579
talent 1578
mp 1578
absolutní 1577
psy 1577
ks 1577
lady 1577
počítat 1577
mové 1576
tnou 1576
něny 1576
položky 1576
skvělou 1576
telně 1576
průzkum 1575
plat@@ 1575
nahradit 1574
dnu 1574
agentura 1573
74 1573
zdrojem 1573
káva 1573
civilizace 1573
národy 1572
bojíš 1572
ukončit 1572
zích 1572
aného 1571
žilo 1571
zjistí 1571
mar 1571
poradenství 1570
rozum 1570
lokalita 1570
zapo@@ 1569
lepšího 1569
fá@@ 1569
svědomí 1569
řád 1568
květnu 1568
nemocný 1567
fe 1567
poznání 1567
mili@@ 1567
lují 1567
stejným 1567
telů 1567
celkový 1567
jiho@@ 1566
zeměmi 1566
93 1566
ově@@ 1565
we 1565
jednotka 1565
prav@@ 1565
nách 1565
mys@@ 1565
84 1564
straš@@ 1564
vozidel 1564
učil 1564
čením 1564
nese@@ 1564
odstra@@ 1563
vinu 1563
volám 1562
stála 1562
torů 1561
společný 1561
kanály 1561
che 1561
cené 1561
vka 1561
dával 1560
investic 1560
sné 1560
padne 1560
hluboko 1560
úspěšné 1560
gran@@ 1559
uživatelům 1558
bazénu 1558
hotel@@ 1558
ohledem 1558
iii 1558
rty 1557
déšť 1557
vládě 1557
šený 1557
hlasů 1556
speciali@@ 1556
globálního 1556
termín 1555
úžasná 1555
tvr@@ 1555
letecké 1555
bay 1554
peklo 1554
nahrá@@ 1554
may@@ 1554
známo 1553
čekala 1553
půjčit 1553
patri@@ 1553
sov@@ 1553
air 1552
pracuju 1552
3:@@ 1552
založené 1552
it@@ 1552
karta 1552
vyžadují 1551
chyb 1550
jídlu 1550
stický 1550
ostrovy 1549
pili 1549
osmi 1549
charles 1548
bed 1548
qui@@ 1548
státě 1547
billy 1547
nejkrásnější 1546
82 1546
cími 1546
zasta@@ 1545
17. 1545
možno 1544
celej 1544
ekonomiku 1544
světem 1544
výdaje 1544
ukra@@ 1544
kalhoty 1543
bul@@ 1543
kop@@ 1543
79 1543
fond 1542
bill 1542
obličeje 1542
známá 1542
generál 1542
žádá 1541
skutečnou 1541
hvězd 1541
lékaře 1541
xi 1541
formátu 1541
herní 1540
snažili 1540
up@@ 1540
81 1540
sleva 1540
kouzlo 1539
hovoří 1539
modrá 1539
firemní 1539
četla 1539
plynu 1539
club 1539
minibarem 1538
mé@@ 1537
prodává 1537
většiny 1536
87 1536
odborníci 1536
drahoušku 1536
zeptala 1535
podporují 1535
léčba 1534
absolventi 1534
řek 1534
kolikrát 1533
né@@ 1533
považuje 1533
komunikovat 1533
středo@@ 1533
jezdit 1533
přivedl 1531
žádosti 1531
zapla@@ 1531
ovými 1530
zemřeli 1530
78 1530
trans@@ 1530
politik 1530
shi 1529
73 1529
nebezpečný 1529
ků@@ 1529
vhodný 1529
post 1529
studiu 1529
blu@@ 1529
d'@@ 1528
svatbu 1528
pul@@ 1527
krokem 1527
.cz 1527
è@@ 1526
vemte 1526
6-@@ 1526
daly 1525
12. 1525
res 1524
posí@@ 1524
stech 1524
látek 1523
divadlo 1523
lům 1523
daní 1523
splnit 1523
poslala 1523
rozkazy 1522
rají 1521
chov@@ 1521
žením 1521
dlouhodobé 1520
napříč 1520
any 1520
pohá@@ 1520
věž 1519
čích 1519
kore@@ 1519
podezření 1518
patnáct 1518
tická 1518
procesů 1518
zvolit 1518
těším 1518
hřích 1517
servis 1517
najdeš 1517
jedeš 1517
naz@@ 1517
83 1516
procesy 1516
benátky 1516
dopravu 1515
anne 1515
čtyřicet 1514
sezení 1514
líte 1514
hráli 1514
přinejmenším 1514
nalezeno 1514
staví 1513
značné 1513
umístěný 1513
kreditní 1512
návrhy 1512
oli@@ 1512
akcí 1512
kostel 1511
podrobnosti 1511
zisk 1511
spol@@ 1510
oceánu 1510
členských 1509
představu 1508
bil 1508
najíst 1508
rostliny 1508
volné 1507
bal 1507
1990 1507
golfové 1507
nezávislost 1507
dopoledne 1506
opo@@ 1506
plavat 1506
uvol@@ 1506
porazit 1506
informaci 1506
založení 1505
bomba 1505
zobrazí 1505
que 1504
postavil 1504
východu 1503
instalaci 1503
→ 1503
1998 1503
zveřej@@ 1503
nepotřebuju 1503
mrtvej 1503
povídat 1502
fén 1502
standardy 1502
mark 1502
rd@@ 1502
nezapomeň 1501
městské 1501
věřící 1501
zábavu 1500
idiot 1500
nemůžou 1500
vlá@@ 1499
silnici 1499
pracovním 1499
vedlo 1499
dilo 1498
jezera 1498
samy 1498
občané 1498
mapy 1498
ran 1498
dveřmi 1497
normy 1497
chan@@ 1496
adresy 1496
vních 1496
návštěvy 1495
jerry 1495
kanada 1495
® 1495
těž@@ 1495
filmů 1494
tém 1493
vydělat 1492
pamatovat 1492
zíš 1492
zůstávají 1492
zený 1492
var@@ 1492
18. 1491
nechá 1491
cá@@ 1490
přírodních 1490
jist 1490
poku@@ 1490
míč 1490
kompatibilní 1490
tovala 1489
vlevo 1489
dokonalý 1489
nádhera 1489
žádného 1489
tná 1489
požadavků 1489
vozu 1489
bene 1489
kariéry 1489
synem 1488
hroz@@ 1488
zimní 1488
kombinaci 1487
letošní 1487
rádio 1487
začínám 1487
forma 1486
vpřed 1486
každých 1486
úspěšný 1486
nejrychleji 1486
dokumentů 1486
určen 1486
s.com 1486
výzkumných 1486
pomohli 1485
kontakty 1485
zoval 1485
řá@@ 1485
samo 1485
řský 1484
potřebovali 1484
sklapni 1483
samý 1483
řeknou 1483
pořadí 1483
skrývá 1483
brazílie 1482
skutky 1482
přesvěd@@ 1482
washingtonu 1481
pacient 1481
mov@@ 1481
nedokáže 1481
logi@@ 1481
trpělivost 1480
provedl 1480
vypadala 1480
tají 1480
sexu 1480
ovač 1480
týmy 1480
fyzické 1480
lené 1480
obchodů 1479
provádí 1479
kama 1479
prakti@@ 1479
sv 1479
que@@ 1479
textu 1478
han 1478
šíření 1478
jednodušší 1478
sonová 1478
následky 1478
sse@@ 1477
vítá 1477
odmítl 1477
jednotlivé 1477
musejí 1477
poněkud 1476
dný 1476
písmo 1476
březnu 1475
peč@@ 1475
vuje 1475
a-@@ 1474
lehké 1474
přihlá@@ 1474
pracovali 1473
hajzle 1473
lený 1473
disk 1473
ver 1473
pos@@ 1472
důchodu 1472
zničil 1472
bl@@ 1472
doru@@ 1471
lla 1471
700 1471
příjezdu 1471
trhů 1471
divize 1471
strategii 1471
narodila 1471
finance 1470
92 1470
col@@ 1470
západu 1470
obsahují 1469
neuro@@ 1469
posledního 1469
partnera 1469
nedělám 1469
rio 1469
hledali 1468
kamarády 1468
nicí 1467
američanů 1467
klimatizace 1467
pau@@ 1467
ký 1466
pru@@ 1466
celo@@ 1466
boku 1466
nedává 1465
kdekoliv 1465
oto@@ 1465
alkoholu 1465
odměnu 1464
doporučuji 1463
průmyslových 1463
armádu 1463
odjet 1462
west 1462
základy 1462
odpovídající 1461
těsně 1461
seru 1461
blbost 1461
umírá 1460
url 1460
koval 1460
existence 1460
bud@@ 1459
napřed 1459
central 1459
tommy 1459
kódu 1458
témata 1458
hluboké 1458
365 1458
ukažte 1458
rních 1458
sig@@ 1458
svědectví 1458
bacha 1457
malým 1457
nedělá 1457
každoročně 1457
koupila 1457
doplňky 1456
emi 1456
šílené 1456
řené 1456
daný 1455
březen 1455
jazyce 1454
pokry@@ 1454
dávejte 1453
dívá 1453
náma 1452
vle@@ 1452
červen 1452
vrátíš 1452
způsobu 1452
ký@@ 1452
ukázala 1451
volně 1451
ng 1449
ovu 1449
euro@@ 1449
formou 1449
hodil 1449
dře@@ 1448
tami 1448
pravdě 1448
tip 1448
misi 1448
cený 1448
zahradu 1447
zmi@@ 1447
poměr 1447
velitel 1447
napsala 1447
dia@@ 1447
dítěti 1446
najevo 1446
něčemu 1446
zajímat 1446
nutně 1446
14. 1446
mnohokrát 1446
majetku 1445
stole 1445
disku@@ 1444
recepci 1444
vysvětluje 1444
6,@@ 1444
příčinou 1444
maxi 1444
art 1444
91 1444
chemické 1444
jistotu 1443
něných 1443
vidění 1443
počítačů 1443
nádherná 1442
lednu 1442
national 1442
klient 1442
moskva 1442
přímé 1441
maximálně 1441
duchovní 1440
side 1440
vypadáte 1439
odmít@@ 1439
sit 1439
yu@@ 1439
malej 1439
97 1439
vek 1438
promluvíme 1438
studen@@ 1438
telem 1438
thomas 1438
internetové 1437
lesa 1437
činností 1437
přijďte 1437
metoda 1437
americkou 1437
dýchat 1436
ari@@ 1436
červnu 1436
rů@@ 1436
převážně 1436
lehce 1435
otevře 1435
řské 1435
zajišťuje 1435
dokonalé 1434
poplatek 1434
udrž@@ 1433
brání 1433
směru 1433
synové 1433
červenec 1433
uznání 1432
jihu 1432
klimatizací 1432
dán 1432
livý 1432
kouření 1432
dia 1432
torem 1432
svatba 1431
vhodná 1431
residence 1430
něním 1430
bodu 1430
ar 1430
teorii 1430
takovej 1430
tkou 1429
vaření 1429
povolání 1429
taci 1429
porušení 1429
sluší 1429
špatnou 1428
thi@@ 1428
afri@@ 1428
školství 1428
obnov@@ 1428
jit 1427
​​@@ 1427
hloupý 1427
pono@@ 1427
dočkat 1427
dku 1427
kam@@ 1426
kůň 1426
sr@@ 1426
uvedených 1426
lucy 1426
bob 1425
p-@@ 1425
dokážete 1425
díla 1425
zachování 1425
porovnání 1425
zaplatil 1424
jas@@ 1424
zajímavý 1424
samotě 1424
zákaz 1423
dosáhl 1423
instal@@ 1423
dnou 1423
blí@@ 1423
stěžovat 1422
mojžíš 1422
přizpůsob@@ 1422
pom@@ 1422
postoj 1422
pracujete 1422
komerční 1422
fu 1421
pli@@ 1421
přijímat 1420
tim 1420
orien@@ 1420
zena 1420
tomuhle 1419
obrazu 1419
římě 1419
royal 1419
vezmeš 1419
sleduj 1418
rány 1418
odtamtud 1418
slyší 1418
kulturu 1418
evropskou 1418
nešlo 1417
ft 1417
identifi@@ 1417
licence 1417
dohod@@ 1416
čená 1416
šili 1416
akcie 1416
jdem 1416
lace 1415
povrchu 1415
zákonů 1415
prohlížeč 1415
dovolené 1415
afghánistánu 1415
lidech 1415
vybí@@ 1414
oddělenými 1414
box 1414
škody 1413
materiálu 1412
vnu@@ 1412
tora 1412
přirozené 1412
pravděpodobnost 1412
vyle@@ 1412
rozšířit 1412
pila 1411
elektrické 1411
vypadnout 1411
hod 1411
hesla 1411
inspi@@ 1411
vpravo 1410
odmítnutí 1410
poh@@ 1410
day 1409
šla@@ 1409
julie 1409
bý@@ 1409
poto@@ 1409
pánem 1409
partneři 1409
rního 1409
schopný 1409
národních 1408
hnu@@ 1407
tiše 1407
gro@@ 1407
nského 1407
list 1406
použi@@ 1406
dokon@@ 1406
vzniku 1406
běžně 1406
led@@ 1406
raz 1405
hong 1405
logické 1405
bytosti 1405
čování 1405
láhev 1405
dru@@ 1405
platformy 1404
prodal 1404
tt@@ 1404
mými 1404
nd 1404
soukromých 1404
dospělé 1404
berou 1404
lovou 1403
telným 1403
přijal 1403
chápete 1403
prádlo 1403
netuším 1403
necháš 1402
kontrolovat 1402
lep@@ 1402
změnách 1402
zo 1402
typů 1401
zahradě 1400
extra 1400
uži@@ 1400
chytré 1400
francouzský 1399
jezero 1399
jaderných 1398
ram@@ 1398
tce 1397
majitel 1397
býval 1397
wood@@ 1397
nejoblíbenější 1397
nesmíte 1397
premiér 1396
tran@@ 1396
úmyslu 1396
právních 1396
promě@@ 1396
nepřítele 1395
kt 1395
voják 1395
dan 1395
zřejmé 1395
die@@ 1395
ply@@ 1395
udržovat 1395
jíme 1394
infrastruktury 1394
nedělejte 1394
vele@@ 1394
zůstanou 1394
žiju 1394
označení 1394
snažíš 1394
památky 1393
míří 1393
poskytne 1393
ničí 1392
miami 1392
univerzit 1392
moto@@ 1392
tvrzení 1391
ohně 1391
zvládneš 1391
stačit 1391
pustil 1391
váží 1391
akcií 1390
stejného 1390
pyšní 1390
op@@ 1390
nekou@@ 1389
dosa@@ 1389
automobilů 1389
střel@@ 1388
lova 1388
informujte 1388
vním 1387
krvi 1387
palác 1387
neumí 1387
zující 1387
yi 1387
marketing 1386
vosti 1386
atraktivní 1385
vyrazit 1385
rakoviny 1385
doleva 1385
pozval 1385
potřeb 1385
plánuje 1384
spl@@ 1384
ul@@ 1384
těžší 1384
nedokázal 1384
zením 1384
japonské 1383
naučila 1383
linky 1383
teplota 1383
pokroku 1382
jazykem 1382
podzim 1381
rod@@ 1381
ostrova 1381
stavební 1381
hračky 1381
94 1381
bře@@ 1380
bezpečnostních 1380
nestojí 1380
kapitali@@ 1380
kostí 1380
hrozný 1379
fondu 1379
mořské 1378
nechoď 1378
16. 1378
bouře 1378
přinesla 1377
bohatý 1377
náhoda 1377
rozhodne 1376
vraždu 1376
zle 1376
konkrétně 1376
palace 1376
ptá@@ 1376
vůně 1375
králem 1375
módní 1375
foto 1375
dun@@ 1374
podmínkách 1374
tvar 1374
dob 1374
příjmů 1374
večírek 1374
léčbu 1374
půl@@ 1374
chro@@ 1373
polož 1373
:30 1373
square 1373
bitcoin 1373
8-@@ 1373
výrobci 1373
dostává 1372
kruci 1372
dár@@ 1372
navržen 1371
f-@@ 1371
žádnej 1371
pi 1371
čistě 1371
ránu 1371
cher 1370
potkala 1370
kontra@@ 1370
dívej 1370
zticha 1370
uhlí 1370
obrá@@ 1370
sco@@ 1369
zahrát 1368
armádě 1368
zábavné 1368
nepří@@ 1368
vlaku 1368
tisku 1367
šílenství 1367
detektiv 1367
určitou 1366
zase@@ 1366
řešením 1366
dluh 1366
zjevně 1366
výhradně 1366
-proč 1366
politický 1365
rychlostí 1365
obecné 1365
duševní 1365
sam@@ 1365
ovlivňuje 1365
legraci 1365
pole@@ 1364
bydlet 1364
nar@@ 1363
lné 1363
pravdou 1363
tání 1363
setkal 1362
korea 1362
zimě 1362
ker@@ 1362
čistá 1361
přístavu 1361
inteligence 1361
eti@@ 1361
vního 1361
holčička 1361
hraješ 1361
zjistěte 1360
případně 1360
dl 1360
pokyny 1360
váž@@ 1360
šit 1360
řka 1360
ker 1360
děcka 1359
ohrožení 1359
metod 1359
vzdá@@ 1359
nemocí 1359
rachel 1359
tkem 1359
letá 1359
dokážeme 1359
přines 1358
vylou@@ 1357
ilo 1357
velkej 1357
hostů 1356
wood 1356
golf 1356
stických 1356
rozumí 1355
start 1355
petr 1355
sou 1354
ice 1354
rakousko 1354
hám 1354
oznámila 1354
ovlivnit 1353
říjnu 1353
léků 1353
zachovat 1353
neb@@ 1353
-ahoj 1352
dnešek 1352
milost 1351
posaď 1351
hneme 1351
zaba@@ 1350
11.@@ 1350
zkusím 1350
lidskou 1350
hání 1350
dotazy 1350
poskyt@@ 1350
nemusíme 1349
komunikační 1349
dave 1349
šená 1349
technika 1349
čkem 1349
rii 1349
uví@@ 1349
struktura 1348
phi@@ 1348
kování 1348
lilo 1347
schopností 1347
dokonale 1347
album 1347
jeďte 1347
dre@@ 1347
smr@@ 1347
dopisy 1347
dáv@@ 1347
tatínek 1347
předmět 1347
svobodný 1346
ura@@ 1346
bezpečný 1346
ia 1346
lan 1346
tho@@ 1346
ekonomický 1346
sob@@ 1346
papíry 1346
příčiny 1345
hneš 1345
čily 1345
veřejně 1345
k-@@ 1344
vší 1344
nainstalovat 1344
přesvědčení 1344
novými 1344
utíkej 1344
hádám 1344
vstupu 1344
zeny 1343
naka@@ 1343
politickou 1342
dotaz 1342
charakter 1342
tlaku 1342
nevidí 1342
cit@@ 1342
šen@@ 1342
ir 1342
dospělých 1342
kombinace 1341
nci 1341
prince 1341
studené 1341
tací 1341
mikrovlnnou 1341
návštěva 1340
rizik 1340
výzva 1340
prote@@ 1340
~ 1340
onu 1340
formát 1340
mb@@ 1340
kapitál 1339
potěšením 1339
zadarmo 1339
poručíku 1339
nabí@@ 1339
jezdí 1339
pamatuj 1338
pracovníci 1338
emoce 1338
vládou 1338
vypadněte 1338
relativně 1338
původ 1338
vesnici 1338
vrcholu 1338
řením 1338
nesmíme 1338
nahlas 1337
milosrdenství 1337
times 1337
panu 1336
všecko 1336
záchod 1336
xu 1336
přizpůsobit 1336
kostela 1336
dvo@@ 1336
tan 1335
večera 1335
dáno 1334
podpořit 1334
o'@@ 1333
pohřeb 1333
radostí 1332
01 1332
kouřit 1332
občanské 1332
potvr@@ 1332
ren 1332
stanou 1331
vyjádřit 1331
nasa@@ 1331
zvýší 1331
návštěvě 1331
kámoš 1330
nato@@ 1330
13. 1330
nenapadlo 1330
průměrný 1329
pokročilé 1329
zdaleka 1329
oz@@ 1328
galerie 1328
efekt 1328
podávají 1328
cie 1328
použitím 1328
bílého 1328
požadavek 1328
spuštění 1327
generále 1327
automati@@ 1326
mech 1326
investovat 1326
odsou@@ 1326
zadku 1326
mobilních 1326
analýzu 1325
odbo@@ 1325
m-@@ 1325
zodpovědný 1325
špi@@ 1325
objem 1325
hrála 1325
kto@@ 1324
poč@@ 1324
/a 1324
globálním 1324
mechani@@ 1324
obrázků 1323
prsa 1323
míň 1323
ženatý 1323
flo@@ 1323
wow 1322
pamatujte 1322
kouzel@@ 1322
uvědomit 1322
sníh 1322
oblíbený 1322
silnou 1321
vařit 1321
edi@@ 1321
šťastní 1321
vyma@@ 1321
uta@@ 1320
učitele 1320
jmenuju 1320
oba@@ 1320
podob@@ 1320
výška 1320
eddie 1320
skončilo 1320
gi 1319
široké 1319
pamatujete 1319
okouzlující 1319
trestu 1319
vyzvednout 1319
emily 1319
mexi@@ 1319
počítačové 1317
party 1317
berte 1317
pamatuji 1316
aparthotely 1316
opravdový 1316
jednotek 1316
ct@@ 1316
tonu 1316
ptá 1316
penny 1315
častěji 1315
šením 1315
objevili 1314
představil 1314
vál@@ 1314
židé 1314
držím 1313
7-@@ 1313
stone 1313
zlatý 1313
sdružení 1313
tními 1313
gie 1312
zlaté 1312
gon@@ 1312
odpočinout 1312
příslušné 1312
jor@@ 1312
volno 1312
ak 1312
stou@@ 1311
tipy 1311
padá 1311
obzvláště 1311
zujeme 1311
hají 1311
žiješ 1310
hala 1310
zemřelo 1310
zasraný 1310
pošlu 1310
dorazí 1310
tex@@ 1310
sýrie 1310
pení 1309
jinému 1309
bohaté 1309
kni@@ 1309
existenci 1309
:0@@ 1309
plukovníku 1308
suite 1308
nadace 1308
účel 1308
udělají 1308
přítelkyni 1308
-ty 1307
vídeň 1307
federace 1307
rostou 1307
písma 1307
lia 1307
snů 1307
dž@@ 1307
účinnost 1306
odborníky 1306
toaletní 1306
čními 1306
řství 1306
plavecký 1306
kře@@ 1306
naštvaný 1305
zat 1305
energetické 1305
pel@@ 1305
hrdý 1305
jakého 1305
volali 1304
čen@@ 1304
krásnou 1304
tma 1304
překonat 1304
čných 1304
klu@@ 1304
dvaceti 1303
objevit 1303
nický 1303
plaza 1303
upřímný 1303
zahájení 1303
ote@@ 1302
bob@@ 1302
uprchlíků 1302
lle 1302
dána 1302
kují 1301
bělo@@ 1301
konfliktu 1301
emisí 1300
apli@@ 1300
brány 1300
cuje 1300
tování 1300
vyšetř@@ 1300
riskovat 1300
provedení 1299
doufal 1299
čekali 1299
jmenoval 1299
čilo 1299
nejnižší 1299
šíme 1299
posílení 1298
rámec 1298
kanadě 1298
nutím 1298
cer@@ 1298
stická 1298
teta 1297
sur@@ 1297
globálních 1297
povinností 1297
naci@@ 1297
kamera 1296
tíme 1296
opakovat 1296
zastávka 1296
skry@@ 1296
let@@ 1295
vysoko 1295
chá 1295
jedinečný 1295
nárůst 1295
chal 1294
vu@@ 1294
sejdeme 1294
zákonem 1294
te-li 1293
snadný 1293
centre 1293
navr@@ 1292
určení 1292
voleb 1292
přírodě 1292
jediného 1292
milovala 1292
povedlo 1292
půjdete 1292
firmě 1292
dárky 1292
stou 1292
nepůjde 1291
psala 1291
jedinečné 1291
c-@@ 1291
profil 1290
manželská 1290
cenné 1290
cyklu 1290
začnu 1290
o-@@ 1290
nia 1290
všechen 1290
hluboce 1290
zahra@@ 1289
tské 1289
přenos 1289
gay 1289
veličenstvo 1289
šila 1289
vách 1288
čov@@ 1288
ledu 1288
ženský 1288
neřeknu 1288
pověst 1288
slí@@ 1288
­@@ 1287
elizabeth 1287
poj@@ 1287
kabelovou 1287
stín 1287
žijete 1287
rozdělení 1286
aně 1286
madrid 1286
-dobře 1286
cé@@ 1285
prosinci 1285
starou 1285
nehodnocený 1285
pete 1284
koná 1284
jízdu 1284
generaci 1284
igno@@ 1284
dívám 1284
gb 1284
opatrný 1283
rna 1283
jšího 1283
cker 1283
odchodu 1283
jih 1283
německá 1283
minulého 1283
zásoby 1283
fí@@ 1282
návrhu 1282
les@@ 1282
magne@@ 1282
tai@@ 1281
štině 1281
cke@@ 1281
způsob@@ 1281
pokračování 1281
angličtiny 1281
ham 1281
sar@@ 1281
chytrá 1281
doporučuje 1280
pun@@ 1280
rování 1280
vystoupení 1280
dokumentu 1279
nii 1279
zka@@ 1279
konat 1279
morální 1279
ekonomie 1278
nemusel 1278
obnovení 1278
dospě@@ 1278
str 1277
měny 1277
deník 1277
chleba 1277
neděle 1277
rodičům 1276
ster@@ 1276
nákupu 1275
kni 1275
herec 1275
tátou 1275
učitelé 1274
rakovinu 1274
kategorii 1274
cloud 1274
sebevraždu 1274
sný 1274
hne 1274
hovor 1274
rný 1274
kost 1274
založený 1273
odmě@@ 1273
plnění 1273
nských 1273
násled@@ 1272
vku 1272
obrázku 1272
založen 1272
unavený 1272
zeptej 1272
tvrdil 1271
křídla 1271
odpovědí 1271
ženské 1271
králov@@ 1271
přesunout 1270
krátký 1270
seržante 1270
sie 1270
omluvit 1270
dná 1269
revoluci 1269
čeno 1269
host@@ 1269
paule 1269
neříkal 1269
potenciální 1269
tv@@ 1268
kampaň 1268
transakce 1268
současný 1268
dis@@ 1268
nic@@ 1268
ochránit 1267
užijte 1267
paliva 1267
obchodním 1267
kého 1266
potkali 1266
naposled 1266
pokles 1266
richard 1266
jinýho 1266
jení 1266
tvému 1265
rezervaci 1265
přidejte 1264
vyp@@ 1264
hodnot 1264
přijď 1264
jakýkoli 1264
red@@ 1263
vyhodit 1263
nesmysl 1263
nocí 1263
španělsku 1262
správným 1262
vlakové 1262
vána 1262
pospěš 1262
padl 1262
něni 1262
výchozí 1262
vznikla 1261
naru@@ 1261
černo@@ 1261
stavět 1261
mla@@ 1261
twitteru 1260
srdcem 1260
neexistují 1260
bách 1259
planeta 1259
ujistěte 1259
1992 1259
vychutnat 1259
vyšel 1258
una@@ 1258
zabíjet 1258
japonska 1258
telných 1258
coo@@ 1257
kovým 1257
moderním 1257
mládí 1257
huje 1257
pustí 1257
uli@@ 1257
touží 1257
roval 1257
afrika 1256
zloděj 1256
pozornosti 1256
legrační 1256
závěru 1255
říme 1255
hříchy 1255
me-li 1255
avenue 1254
republice 1254
naučí 1254
poznala 1254
zem@@ 1254
letět 1254
účetní 1253
tovali 1253
neudělala 1253
sovou 1253
klídek 1253
skončili 1253
zře@@ 1253
stanov@@ 1253
tických 1252
sko-@@ 1252
božího 1252
letadel 1252
těžká 1251
těšit 1251
jinam 1251
občany 1250
johnny 1250
členské 1250
poptávka 1250
zůstaneš 1250
ujistit 1250
potřebám 1250
umělec 1250
panem 1250
tátovi 1249
příspěvky 1249
vyrábí 1249
kol 1249
ovaní 1249
neprodleně 1249
1994 1249
tl 1248
objednat 1248
řádu 1248
tle@@ 1248
kolena 1248
vydat 1248
ssi@@ 1248
vilo 1248
zmizet 1247
1995 1247
spánek 1247
rost@@ 1247
10-@@ 1247
stov@@ 1247
spotřeba 1247
zeptám 1247
florencie 1247
zasranej 1247
obyčejný 1247
vysvět@@ 1246
moskvě 1246
nabídce 1246
chodím 1246
živá 1246
sat 1246
zím 1246
teplo 1246
únor 1245
protokol 1245
zástupci 1245
hře@@ 1245
poklad 1245
zdra@@ 1244
pasti 1243
irá@@ 1243
zavedení 1243
jednomu 1243
ničím 1242
díry 1242
united 1242
íránu 1242
georgi 1242
lob@@ 1242
kých 1241
vojáky 1241
odlišné 1241
porozumět 1241
vylep@@ 1241
klíčových 1241
celým 1240
1989 1240
magi@@ 1240
zří@@ 1240
25. 1240
kecy 1240
principy 1240
vybrali 1240
rodi@@ 1240
trik 1240
nepotřebuje 1240
nepatří 1239
prac@@ 1239
nedostal 1239
tetování 1239
tra 1239
klienta 1238
závod@@ 1238
ovce 1238
poněvadž 1238
jakém 1238
hý@@ 1237
180 1237
svědky 1237
aneb 1237
zády 1237
přivést 1237
app 1237
frankfurt 1236
trenér 1236
namí@@ 1236
klienty 1236
strategické 1236
chutná 1236
nenechte 1236
vytvoří 1236
výuky 1236
ovliv@@ 1236
úschovnu 1236
nacházejí 1235
osvětlení 1235
zmizela 1235
zru@@ 1235
vymě@@ 1234
pracuješ 1234
důraz 1234
legrace 1234
děvčata 1234
doporu@@ 1234
přijeli 1234
och 1233
spa 1233
brou@@ 1233
kamaráda 1233
podruhé 1233
kontextu 1233
ovládáním 1232
ženám 1232
moderních 1232
daň 1231
technických 1231
vypnout 1231
status 1231
evropu 1231
dostupná 1230
sse 1230
klientů 1230
personál 1230
nenechám 1229
červený 1229
jak@@ 1229
sračky 1229
pojedeme 1229
orgánů 1229
terasu 1229
unii 1229
kdokoli 1228
polda 1228
domácnosti 1228
zaru@@ 1228
ostatně 1228
kém 1228
casa 1228
využívají 1227
jamesi 1227
ah@@ 1227
váhu 1227
předpokládá 1226
opice 1226
rového 1226
létat 1225
vtipné 1225
obyvatele 1225
rý@@ 1225
1997 1224
rozhovoru 1224
křesťané 1223
nevrátí 1223
garden 1223
uvěřili 1223
účinek 1223
považován 1223
zve@@ 1223
rala 1223
podobného 1223
vena 1223
vypl@@ 1223
viny 1223
natolik 1222
zená 1222
efektivně 1222
nemocná 1222
toři 1222
títe 1221
řeka 1221
průměr 1221
obrazy 1221
národa 1221
britská 1221
zoo 1221
als 1221
duchu 1221
7,@@ 1221
ničem 1220
jime 1220
významný 1219
cli@@ 1219
hranic 1219
základnu 1219
použity 1219
kolo@@ 1219
zařídit 1219
planetu 1219
postgraduální 1219
tvá@@ 1218
linka 1218
srpen 1218
starej 1218
koneckonců 1218
zvuky 1218
leden 1218
zvedni 1218
obojí 1217
eno 1217
poznámky 1217
lázně 1217
odpověděla 1217
ekonomického 1217
přítomnosti 1216
zpočátku 1216
outlook 1216
berlín 1216
pů 1216
tta 1216
falešné 1216
jakýkoliv 1216
2hvězdičkové 1216
1996 1216
nicku 1216
pozorování 1216
dé@@ 1215
vyho@@ 1215
šablona 1215
změ@@ 1215
platební 1215
bydlím 1215
ubo@@ 1215
rt 1215
eho 1214
karet 1214
určitých 1214
drink 1214
čet@@ 1214
volbou 1214
pustili 1214
přelo@@ 1213
značku 1213
sportu 1213
firefox 1213
rus 1213
sladké 1213
prozatím 1213
lena 1212
oblíbená 1212
vyšetření 1212
padají 1212
přežil 1212
tváři 1211
dove@@ 1211
vstoupil 1211
protokolu 1211
lný 1211
bála 1210
view 1210
livá 1210
sada 1209
necítím 1209
klobouk 1209
hon@@ 1209
zachránila 1209
livé 1209
vážím 1208
kó@@ 1208
cítili 1208
představ 1208
town 1208
jasná 1208
rali 1207
gratuluji 1207
rovná 1207
mon 1207
francouzská 1207
nevz@@ 1207
nevědí 1206
lau@@ 1206
cca 1206
cvičit 1206
tom@@ 1205
objekt 1205
vyprávět 1205
wor@@ 1204
kované 1204
obsahovat 1204
sloužil 1204
znečištění 1204
beth 1204
rozpočet 1203
prozkoumat 1203
skla@@ 1203
pem 1203
fungují 1202
nepřijde 1202
papíru 1202
sklo 1202
kameru 1201
půjdou 1201
ll@@ 1201
dosáhli 1200
informačních 1200
partnerem 1200
identifikovat 1200
koupelnu 1199
důvěry 1199
státem 1199
kriti@@ 1199
unavená 1199
řen@@ 1199
nevěděli 1199
trápí 1199
článků 1199
l-@@ 1198
západě 1198
fun@@ 1198
potvrzení 1198
dily 1197
ruchu 1197
gan 1197
značně 1197
divně 1197
vědců 1196
ö@@ 1196
dodržovat 1196
scénář 1196
vražda 1195
izraeli 1195
oblek 1195
vysta@@ 1195
sím 1195
synku 1195
lními 1195
tvý 1195
dokázala 1195
vej@@ 1195
chů 1195
lístky 1195
veškerá 1194
vyvíjí 1194
sláva 1194
zaměřit 1194
aliance 1194
účetnictví 1193
nebo@@ 1193
úklid 1193
dubnu 1193
parlament 1193
science 1192
hůř 1192
zou 1192
královské 1192
vzájemné 1192
mate@@ 1192
stabili@@ 1192
tone 1191
odpusť 1191
jed 1191
spojuje 1191
profesní 1191
nale@@ 1191
gin@@ 1190
annie 1190
vin 1190
přes@@ 1190
dál@@ 1190
forex 1190
cho 1190
základem 1190
ňoval 1190
nesla 1190
tala 1190
tématu 1190
ťte 1189
rozsáhlé 1189
hodnotě 1189
výrobních 1189
žní 1189
black 1189
lit@@ 1188
cíli 1188
zprávě 1188
ekonomice 1188
svýho 1188
nárok 1188
květen 1188
ts@@ 1188
tví 1187
eny 1187
průzkumu 1187
čtyřech 1187
postižené 1187
nepřetržitě 1187
putin 1186
4:@@ 1186
state 1186
daná 1186
pohybuje 1186
prodeji 1186
výhodu 1186
hloupé 1186
souhlasí 1186
podvod@@ 1185
spě@@ 1185
global 1185
úspěchy 1185
obrovská 1185
£ 1185
klíčová 1185
šti 1185
mani@@ 1184
záležitostí 1184
strýc 1184
hledáš 1184
prová@@ 1183
strašné 1183
ukrajině 1183
slzy 1183
respekt 1183
poznali 1183
chytil 1183
wel@@ 1183
dáváme 1183
využí@@ 1183
hitler 1182
pokusil 1182
ráme 1182
ray 1182
reformy 1182
založil 1182
odešli 1182
tisk@@ 1181
spravovat 1181
zapojit 1180
přála 1180
ředitele 1180
vydržet 1180
ei@@ 1180
jejíž 1180
vací 1180
syny 1180
kopie 1180
lými 1179
poradce 1179
zastaví 1179
obchodního 1179
šéfa 1179
laboratoře 1179
kameny 1179
zničí 1178
smát 1178
tily 1178
john@@ 1178
zav@@ 1178
ron@@ 1178
divu 1177
hlásí 1177
pacienta 1177
neříkejte 1177
hospodářský 1176
čínu 1176
jíte 1176
soukromá 1176
pomohlo 1176
tace 1175
noha 1175
160 1175
více@@ 1175
prázdný 1175
kova 1175
věčně 1175
inovací 1175
,5 1175
uží@@ 1175
trpět 1175
přeje 1175
bobe 1175
podpoře 1174
gy@@ 1174
blíže 1174
řte 1174
hei@@ 1174
ehm 1174
společnou 1174
test@@ 1174
svaté 1174
provozní 1174
1991 1174
chudák 1173
dozadu 1173
aspekty 1173
sektor 1173
řetězce 1173
opustila 1173
spočí@@ 1173
veli@@ 1173
ctí 1173
´@@ 1172
světovou 1172
zůstalo 1172
vod 1172
atmosféru 1172
statistiky 1172
dějin 1171
autori@@ 1171
wan@@ 1171
vený 1171
pěší 1171
institut 1170
log 1170
světle 1170
dnešním 1170
šímu 1170
krásy 1170
prase 1170
vracet 1170
japon@@ 1169
mun@@ 1169
dary 1169
neuvěřitelně 1169
barev 1169
certifi@@ 1168
čnou 1168
analy@@ 1168
vypla@@ 1168
centrem 1168
sejít 1168
samotný 1167
třetího 1167
rozbi@@ 1167
obzvlášť 1167
guest 1167
ral@@ 1167
snaze 1167
hill 1167
shod@@ 1167
dlu@@ 1167
bojoval 1167
pořád@@ 1166
děvka 1166
závazek 1166
synovi 1166
klasické 1165
nut 1165
řád@@ 1165
úč@@ 1165
uká@@ 1165
uc@@ 1165
odpor 1165
fé@@ 1165
hloupá 1165
navštivte 1164
průkaz 1164
švýcarsko 1164
vtipný 1164
anno 1164
mur@@ 1164
motory 1164
nevidíš 1164
tiny 1163
open 1163
kun@@ 1163
psací 1163
budiž 1162
současných 1162
tiv@@ 1162
čísel 1162
devíti 1162
záznamů 1162
nima 1162
princip 1162
napište 1162
zmínil 1162
neměly 1162
tlu@@ 1161
lík 1161
manželku 1161
bonus 1161
spodní 1161
nemyslíte 1161
červenci 1160
cyklus 1160
zma@@ 1160
pilot 1159
žádní 1159
hoř@@ 1159
.00 1159
níkovi 1158
off 1158
uk 1158
vil@@ 1158
šly 1158
vrácení 1157
právem 1157
johna 1157
mexiku 1157
integrace 1157
fli@@ 1156
cet 1156
queen 1156
pěti@@ 1156
špe@@ 1156
počkám 1156
kaci 1156
express 1155
zavr@@ 1155
vní@@ 1155
penězi 1155
knu 1155
kontak@@ 1154
ip@@ 1154
you 1154
kreativní 1154
označené 1154
kontaktní 1154
pou 1153
manažer 1153
studoval 1153
staří 1152
demokratické 1152
ä@@ 1152
blízké 1152
pravděpodobné 1152
lená 1152
těma 1152
ktem 1152
chudoby 1152
álního 1152
filozofie 1152
posílit 1151
naučili 1151
1993 1151
bitva 1151
vybudovat 1151
zdě@@ 1151
cest 1150
vyměnit 1150
prach 1150
kterej 1150
politici 1150
moudrost 1150
nést 1149
vydrží 1149
vypa@@ 1149
rostlin 1149
usb 1149
veškerou 1149
nesl 1149
očeká@@ 1149
ústa 1149
budov 1148
zovali 1148
předlo@@ 1148
zvolte 1148
uklidněte 1148
tona 1147
jedete 1147
znaky 1147
strojů 1147
sled@@ 1147
ris 1147
věřila 1147
°c 1146
med 1146
manželem 1146
pekingu 1146
přemýšlela 1145
pali@@ 1145
symbol 1145
inova@@ 1145
nechápeš 1145
rychlá 1145
rock@@ 1145
vedením 1144
lov 1144
rakety 1144
umíte 1144
řidiče 1144
motoru 1144
obrovskou 1144
bohové 1144
ruských 1144
malo@@ 1144
rusové 1143
listopad 1143
losti 1143
poselství 1143
ceni 1143
hil@@ 1143
rozto@@ 1142
ken 1142
110 1142
modul 1142
bení 1142
zační 1141
vyrábět 1141
čena 1141
jů 1141
zábavy 1141
civili@@ 1140
realita 1140
žádat 1140
-no 1140
rozpočtu 1140
mince 1140
neudělám 1140
mmf 1140
usmí@@ 1140
nejte 1140
př@@ 1140
zařízením 1140
hoří 1140
úto@@ 1139
kali@@ 1139
příklady 1139
krátkou 1138
volební 1138
transfer 1138
zr@@ 1138
prvků 1138
kel@@ 1138
mg 1137
fi 1137
kone@@ 1137
taj@@ 1137
zařízeních 1136
přijali 1136
jší 1136
platnými 1136
letošního 1136
parkoviště 1136
prázdné 1136
rezervační 1135
nízká 1135
56@@ 1135
účinné 1135
uto@@ 1135
otisky 1134
cou@@ 1134
soukromým 1134
vysvětlil 1134
rodiči 1134
vide@@ 1134
dívek 1134
inách 1134
zvláštního 1134
intenzivní 1134
postavy 1134
seda@@ 1134
pp 1134
zkoušel 1134
přijí@@ 1134
dnešního 1134
čtu 1133
čerstvé 1133
přá@@ 1133
movi 1133
kousky 1133
zených 1133
takoví 1133
vraha 1133
úpravy 1133
aným 1133
zaplatí 1133
polsko 1132
álních 1132
snídaní 1132
čekáme 1132
knihovna 1132
říš 1132
minulou 1132
vděčný 1132
oceán 1132
šťastné 1131
přispět 1131
formu 1131
černou 1131
snižuje 1131
začátkem 1131
povzbu@@ 1131
nohama 1131
odmítnout 1131
zpě@@ 1131
diagnosti@@ 1130
čovat 1130
kapacita 1130
xe 1130
buněk 1130
podél 1130
představitelé 1129
čínou 1129
chvá@@ 1129
dor 1129
vyhráli 1129
udržitelného 1129
šperky 1129
kupón 1129
čele 1129
plní 1128
britský 1128
čínských 1128
účasti 1128
poví@@ 1128
stahování 1128
přijela 1128
padla 1128
will 1128
tichý 1128
alternativní 1127
divadla 1127
šena 1127
ptala 1127
detektive 1127
http 1127
dane 1127
350 1127
rují 1127
ňá@@ 1126
infekce 1126
ome@@ 1126
opakovaně 1126
ústavu 1126
jaro 1126
ama@@ 1125
1,5 1125
zámek 1125
vize 1125
zakázáno 1125
32@@ 1124
nastal 1124
složení 1124
vízum 1124
obo@@ 1123
postaven 1123
vyhlá@@ 1123
nepod@@ 1123
naštvaná 1123
rované 1123
demokracii 1123
mono@@ 1122
miku 1122
uviděl 1122
mas 1122
archi@@ 1122
zamě@@ 1122
drog 1122
řekneme 1121
sve@@ 1121
konkurence 1121
přístroj 1121
operací 1121
státních 1121
kovala 1121
ené 1121
nezávislosti 1121
izo@@ 1121
prášky 1120
levé 1120
ala@@ 1120
opilý 1120
mrtvého 1120
hey 1120
týkají 1120
omezit 1120
dělá@@ 1119
mistrovství 1119
ročník 1119
výrobek 1119
učitelů 1119
výhod 1118
nepomůže 1118
celosvětově 1118
postav 1118
ton@@ 1118
rozdělit 1118
ast@@ 1118
informovat 1118
sídlí 1118
ame@@ 1117
přemě@@ 1117
adam 1117
ený 1116
důvěra 1116
poloviny 1116
obranu 1116
zprávou 1116
energií 1116
bun@@ 1115
otevřela 1115
barbie 1115
nostem 1115
mali@@ 1115
black@@ 1115
srpnu 1115
konzu@@ 1114
nezmě@@ 1114
tz 1114
rukojmí 1114
place 1114
smutný 1114
smo@@ 1114
pie 1114
budem 1114
spoléháme 1114
sbí@@ 1114
nikým 1114
oprávnění 1114
propojení 1114
dokážou 1113
ám 1113
čekání 1113
dynami@@ 1113
zovala 1113
tách 1113
blue 1112
knihovny 1112
nebes 1112
slavný 1112
směšné 1112
ulicích 1112
věz@@ 1112
proto@@ 1112
zne@@ 1111
čtvrtý 1111
kulturních 1111
flexibilní 1111
p. 1111
vydě@@ 1110
nadšení 1110
lepším 1110
vid@@ 1110
zápa@@ 1110
vět@@ 1110
vce 1110
rny 1109
wat@@ 1109
dějinách 1109
pevné 1109
celých 1109
non 1109
kotě 1108
susan 1108
twitter 1108
správ@@ 1108
mámou 1108
útěk 1108
doposud 1108
dního 1107
poslouchám 1107
zákazník 1107
předstírat 1106
automatické 1106
.0@@ 1106
kost@@ 1106
sprav@@ 1106
peri@@ 1106
st. 1106
gru@@ 1106
běžet 1105
sociali@@ 1105
pták 1105
únoru 1105
ný@@ 1105
neříkám 1105
dním 1105
speciálně 1104
vědeckých 1104
kuře 1104
tělocvičnu 1103
ďábel 1103
pustila 1103
nick 1103
kdekoli 1103
analyzovat 1103
met@@ 1103
tového 1103
tábor 1103
dozvěděl 1103
úrovní 1103
gps 1102
účtů 1102
bs 1102
požehnání 1102
28. 1102
nakupovat 1102
řený 1102
kovali 1102
příjmu 1101
ranní 1101
nejrychlejší 1101
hodina 1101
čkách 1101
sankce 1101
pop@@ 1101
deluxe 1101
elektronické 1100
nainstal@@ 1100
hříchu 1100
vami 1100
obývací 1100
rozvojové 1100
určitý 1100
řeší 1100
daniel 1100
vedly 1100
předmětů 1100
hmotnosti 1099
zahrada 1099
líbil 1099
blá@@ 1099
gla@@ 1099
zná@@ 1099
horké 1099
pochopitelně 1098
green@@ 1098
prou@@ 1098
získá 1098
začnete 1098
navštívil 1098
trendy 1098
trvání 1098
piš 1098
podpo@@ 1098
přímý 1097
prodejní 1097
parametry 1097
nevěřil 1097
nákla@@ 1097
napravit 1097
mul@@ 1097
krásu 1097
pokro@@ 1097
cování 1097
koláč 1096
vstupní 1096
šími 1096
4hvězdičkové 1096
děl 1096
založit 1096
mel@@ 1096
davi@@ 1096
čtvrté 1096
odráží 1095
stráž@@ 1095
klíčem 1095
finančního 1095
rodí 1095
záchod@@ 1095
daných 1094
nezná 1094
anglický 1094
kalifornie 1094
nabídl 1094
zkouška 1094
slabý 1094
struktury 1093
spoj@@ 1093
pacienti 1093
nová@@ 1093
přistýlce 1093
hledala 1093
neděje 1093
chatu 1093
telnost 1093
volbách 1093
úče@@ 1093
připravil 1093
kin 1092
rob@@ 1092
2-hvězdičkový 1092
účin@@ 1091
cenou 1091
jích 1091
osudu 1091
ena 1091
jistí 1091
well 1090
rodin 1090
ske@@ 1090
yeah 1090
nedávné 1090
uskuteč@@ 1090
smazat 1089
táhne 1089
důkazů 1089
přijede 1088
ručníky 1088
zach@@ 1088
žu 1088
kompli@@ 1088
úvod 1088
green 1088
náro@@ 1088
nabízející 1087
řilo 1087
index 1087
.000 1087
mediální 1087
dítětem 1087
vip 1087
souvisejících 1087
spala 1087
podobných 1087
cením 1087
kina 1087
vylepšení 1087
vyře@@ 1087
fy 1086
časopis 1086
rayi 1086
sledují 1086
kov 1086
anto@@ 1086
služeb@@ 1086
prezidente 1086
regu@@ 1085
koukněte 1085
choval 1085
věr@@ 1085
vazby 1085
specifi@@ 1085
reality 1085
spisovatel 1085
laci 1085
dosta@@ 1085
ruš@@ 1084
křičet 1084
povolit 1084
zájmů 1084
podporou 1084
mno@@ 1084
opti@@ 1084
kontrolní 1083
řídil 1083
váno 1083
litovat 1083
plnit 1083
sel 1083
vyrov@@ 1083
nan 1083
dělo 1083
neznáš 1083
zapomněli 1083
legální 1083
nepodařilo 1082
předních 1082
svatbě 1082
zaprvé 1082
fr@@ 1082
michaele 1082
nedošlo 1082
cestujících 1082
dodává 1082
pracov@@ 1082
bibli 1081
nemluví 1081
chris 1081
american 1081
clo@@ 1081
povrch 1081
sně 1081
vadí 1081
touha 1080
nosi@@ 1080
partnerů 1080
pím 1080
jský 1080
papí@@ 1080
duben 1080
nala 1080
zásob@@ 1080
uživateli 1080
mala 1080
kdepak 1079
převod 1079
odjel 1079
cle@@ 1079
zavá@@ 1079
doty@@ 1079
baterií 1079
ori@@ 1079
terorismu 1079
konflikt 1079
ling@@ 1079
cové 1078
kva@@ 1078
:00 1078
oleje 1078
varoval 1077
ulo@@ 1077
dol@@ 1077
vstaň 1077
címu 1077
telného 1077
zabij 1077
pošli 1077
cestovního 1077
dort 1077
dialog 1077
01:0@@ 1076
šťast@@ 1076
nebojím 1076
kriste 1076
ameri@@ 1076
kalendář 1076
představa 1076
kými 1076
best 1076
příjmení 1075
chemických 1075
pistoli 1075
ssa 1074
vdaná 1074
piva 1074
asijské 1074
zov@@ 1074
podvod 1074
ves@@ 1073
ptáci 1073
sedněte 1073
lístek 1073
šíš 1073
nalezení 1073
opravdové 1073
и@@ 1073
lat 1072
sme 1072
státního 1072
nání 1072
útoků 1072
andre@@ 1072
plno 1072
jedl 1072
přípravy 1071
fakulta 1071
čného 1071
nepochybně 1071
ekonomická 1071
duší 1071
nasa 1071
ukaz@@ 1071
mlá@@ 1071
mluvčí 1071
žek 1071
seznámit 1071
šilo 1070
vola@@ 1070
tační 1070
bin 1070
kněz 1070
nějšími 1070
koupelnou 1070
bombu 1070
46@@ 1069
dů@@ 1069
odlo@@ 1069
hora 1069
cená 1069
důležitých 1069
díly 1069
podat 1069
vlny 1069
key 1068
platforma 1068
ryb 1068
trend 1068
teplé 1068
kří@@ 1068
souhlasit 1068
matu 1068
chrámu 1068
předpisů 1068
hrajete 1067
důstojník 1067
ski@@ 1067
všechnu 1067
airport 1067
šéf@@ 1067
těsné 1067
mann 1067
velko@@ 1067
vybrala 1067
revoluční 1067
extra@@ 1066
nepřátelé 1066
míře 1065
jisti 1065
nedal 1065
italské 1065
považovat 1065
vře@@ 1065
stanu 1065
vze@@ 1065
umět 1065
zovaná 1065
samotného 1065
tlakem 1064
matko 1064
try@@ 1064
pokračoval 1064
nazval 1064
umřela 1064
emise 1064
znali 1063
big 1063
říte 1063
zaměstna@@ 1063
nejlepšího 1063
e-mailu 1063
čtvrtletí 1062
neštěstí 1062
ning 1062
schovat 1061
anu 1061
koncert 1061
ukry@@ 1061
humanitární 1061
podej 1061
oka 1061
záchranu 1060
formá@@ 1060
logie 1060
certifikát 1059
odmítá 1059
předstí@@ 1059
grace 1059
nenávist 1059
aids 1059
nejčastěji 1059
moc@@ 1059
přiznal 1059
splnění 1058
vyrábě@@ 1058
free 1058
definice 1058
doplněk 1058
nemluv 1058
kopii 1058
příštím 1058
podpis 1058
dobrovolně 1058
nezabil 1058
plat 1058
útěku 1057
donu@@ 1057
rd 1057
ústřední 1057
mimořádně 1057
otázce 1057
švédsko 1057
míst@@ 1056
čují 1056
zovaný 1056
ukrást 1056
terapie 1056
produkci 1056
klade 1056
sundej 1056
pracovníky 1056
myšlenku 1056
stopu 1055
končím 1055
odpočívat 1055
nina 1055
chemi@@ 1055
smutné 1055
vyplývá 1055
poradit 1055
pádu 1055
tali@@ 1055
dávali 1055
servery 1055
life 1054
dka 1054
prima 1054
kha@@ 1054
údajích 1054
účast@@ 1054
metro 1054
hall 1054
diskuse 1054
zničení 1054
pustím 1054
trvalé 1054
skej 1054
zová 1054
vané 1053
střelil 1053
juli@@ 1053
provoz@@ 1053
doprdele 1053
zapá@@ 1052
verzí 1052
din 1052
profesore 1052
bus 1052
investoři 1052
jaře 1052
nechtěli 1051
rovnováhu 1051
tými 1051
news 1051
nko 1050
žka 1050
andělé 1050
odchod 1050
n-@@ 1050
dostupný 1050
osa@@ 1050
9-@@ 1050
produk@@ 1050
rozumět 1050
bývají 1050
stáhněte 1049
snímek 1049
dávky 1049
jedou 1049
půlnoci 1049
eri@@ 1049
prezen@@ 1049
kaná@@ 1049
kluky 1049
spadl 1048
stimu@@ 1048
pyšný 1048
ok. 1048
nená@@ 1048
psychologie 1048
nskou 1048
uprav@@ 1048
uva@@ 1048
pohybovat 1047
jové 1047
předchozích 1047
wen@@ 1047
1/@@ 1047
prdeli 1047
padlo 1046
ztratí 1046
děda 1046
moderního 1046
130 1046
poker 1046
institutu 1046
cenově 1046
letadle 1046
álním 1046
promluvil 1046
pracující 1046
druhému 1046
uzavřít 1046
nedostane 1046
milujeme 1046
napůl 1046
schopná 1045
chlápka 1045
fungování 1045
stě@@ 1045
cukru 1045
wy@@ 1044
přísně 1044
úkolů 1044
minibar 1044
rejte 1043
univerzitní 1043
trénink 1043
kován 1042
náročné 1042
teč@@ 1042
připrav@@ 1042
bot 1042
zer@@ 1042
přeju 1042
prohlédnout 1041
eurozóny 1041
nezdá 1041
stranami 1041
shu@@ 1041
rozměry 1041
přát 1041
е@@ 1041
pravidelné 1041
amen 1040
prstů 1040
lina 1040
rake@@ 1040
některý 1040
čeni 1040
kace 1040
ws 1040
mocný 1040
šíří 1040
dokola 1040
úmluva 1040
uvedeno 1040
dobrovol@@ 1040
nepotřebujeme 1039
zhor@@ 1039
podepsat 1039
co2 1039
zvyk@@ 1039
lže 1039
zvýšil 1039
modelů 1039
zjistíme 1039
vyjád@@ 1038
metru 1038
letého 1038
otra@@ 1038
skype 1038
zaměření 1038
neplatí 1038
způsobil 1038
lev@@ 1038
spokojený 1038
chemie 1038
zabývá 1037
počítačem 1037
covat 1037
media 1037
omyl 1037
tnější 1037
provádě@@ 1037
vašimi 1037
spotřeby 1037
5g 1036
přesu@@ 1036
brala 1036
demo@@ 1036
kř@@ 1036
love 1036
fon@@ 1036
liv@@ 1036
vali@@ 1035
střechu 1035
žel 1035
živí 1035
jakéhokoli 1035
zmí@@ 1034
krou@@ 1034
přestala 1034
zjistíte 1034
nejdu 1034
zelený 1034
novinách 1034
podlahu 1034
éry 1034
poro@@ 1034
specifické 1034
vstoupí 1034
dáváš 1033
svo@@ 1033
kalifornii 1033
robin 1033
píme 1033
skryté 1033
vylé@@ 1033
nezmění 1033
zit 1032
právníka 1032
navrhl 1032
zovaných 1032
akredi@@ 1032
baby 1032
dli 1032
zie 1032
nutno 1032
podobná 1032
dopady 1031
podívala 1031
novo@@ 1031
nas 1031
nce 1031
stojím 1031
sousedství 1031
objedná@@ 1031
air@@ 1031
hajzl 1030
vyjádření 1030
who 1030
veliteli 1030
položek 1030
využi@@ 1030
časů 1029
12.@@ 1029
poš@@ 1029
stůjte 1029
ang 1029
pojedu 1029
přechod 1029
zajímají 1029
fort 1029
internetových 1029
hové 1029
lovu 1029
druhých 1029
svobodě 1028
šo@@ 1028
stav@@ 1028
flash 1028
stresu 1028
podepsal 1028
sýr 1028
zkušební 1028
mezinárodně 1028
žku 1028
ons 1028
l'@@ 1027
naznačuje 1027
fede@@ 1027
žal@@ 1027
bomby 1027
pohromadě 1027
nashle 1027
kovaný 1027
ubytovat 1027
areálu 1026
hují 1026
id@@ 1026
léčbě 1026
rozlo@@ 1026
edward 1026
aktiv 1026
dosáhla 1025
kara@@ 1025
vych@@ 1025
mů@@ 1025
vysvětlím 1025
vyšlo 1025
andrew 1025
oblé@@ 1025
kříž 1024
chlapík 1024
závazky 1024
zisku 1024
zálivu 1024
ruského 1024
jistěže 1024
čtěte 1024
zací 1024
nezávislé 1023
váleč@@ 1023
disku 1023
zařa@@ 1023
příprava 1023
24-hodinovou 1022
zastávky 1022
vývojáři 1022
těžce 1022
1945 1022
důležitým 1022
otoč 1022
bance 1021
finále 1021
blbec 1021
aktuálně 1021
víkendu 1021
svazu 1021
zkoušku 1021
členství 1021
bezpečnější 1021
pky 1021
popí@@ 1020
snímky 1020
pozvání 1020
přístroje 1020
adobe 1020
respektovat 1020
gá@@ 1020
považují 1020
ovi@@ 1019
jeskyně 1019
dovolená 1019
tinu 1019
dřevo 1019
zatracený 1019
upozor@@ 1019
egyptě 1019
setkali 1019
rův 1019
nických 1019
štění 1019
extrémně 1019
dopadne 1019
výměnu 1018
kuchyň 1018
čet 1018
31. 1018
čekáš 1018
prochází 1018
nájem@@ 1018
značek 1018
sociálního 1018
počáteční 1018
uvěz@@ 1017
nesou 1017
amsterdam 1017
telefonem 1017
upí@@ 1017
vyhledá@@ 1017
oteplování 1017
současná 1017
8,@@ 1016
zákazníka 1016
studii 1016
vítěz 1016
vymyslel 1016
panel 1015
ztrátu 1015
kaly 1015
neočeká@@ 1015
mac@@ 1015
sili 1015
tura 1015
tren@@ 1015
stromu 1015
povin@@ 1015
nická 1015
celková 1015
zvážit 1014
krytý 1014
ručně 1014
pit 1014
přesvědčen 1014
william 1014
umož@@ 1014
reálné 1014
ting 1014
odcházím 1013
tla 1013
jedinečnou 1013
odjezdu 1013
čtyřmi 1013
relevantní 1013
sérii 1013
kteříž 1013
saint 1013
babek 1013
tma@@ 1013
hack 1012
zal 1012
lce 1012
chladničku 1012
ptáte 1012
předsta@@ 1012
vydala 1012
kolegy 1012
koli@@ 1012
usa@@ 1011
eli 1011
fak@@ 1011
uh@@ 1011
americkým 1011
pavel 1011
dělí 1011
balkónem 1011
přístav 1010
klou@@ 1010
ptáš 1010
ženskou 1010
generá@@ 1010
sráči 1010
stromů 1010
kontrole 1010
king@@ 1010
popsat 1010
pozorně 1010
připravené 1010
angli@@ 1009
play@@ 1009
vedli 1009
signály 1009
paten@@ 1009
aktualizovat 1009
hun@@ 1009
veliký 1009
nalezen 1009
mau@@ 1009
get 1009
27. 1008
udržitelné 1008
projev 1008
víře 1008
stě 1008
anonymní 1008
mlu@@ 1008
dostupnosti 1007
roztomilý 1007
dola@@ 1007
tva@@ 1007
žily 1007
přijímá 1007
22. 1007
dc 1007
-ne@@ 1007
23. 1007
mie 1007
skon@@ 1007
daňové 1006
káš 1006
ptáka 1006
udržení 1006
čarodějnice 1006
běžný 1006
slovem 1006
hotelové 1006
nebýt 1006
vysokým 1005
brána 1005
odpověz 1005
ňující 1005
chodila 1005
svině 1005
prázdninové 1005
řeny 1005
děvko 1004
milosti 1004
arabské 1004
živého 1004
měřítku 1004
božím 1004
lování 1004
sníst 1004
dách 1004
l. 1004
čků 1003
úst 1003
žte 1003
sídlo 1003
ženami 1003
domem 1003
zla@@ 1003
gg@@ 1003
bojuje 1003
zachrá@@ 1002
vznikl 1002
čených 1002
dete@@ 1002
držení 1002
národním 1002
koncept 1002
neřekneš 1002
-na 1002
tější 1002
klesá 1001
osvobo@@ 1001
6:@@ 1001
poch@@ 1001
politického 1001
stil 1001
požá@@ 1001
čínského 1001
vydržte 1000
zy@@ 1000
poledne 1000
opravy 1000
kap@@ 1000
ú 1000
spory 1000
ph 1000
vědu 1000
osobního 1000
cin@@ 999
účastníci 999
r. 999
odhaduje 999
nickou 999
vdě@@ 999
nebesa 998
troubu 998
posílá 998
rově 998
nutná 998
globalizace 998
kusů 997
lejší 997
zakou@@ 997
iv 997
pose@@ 997
brusel 997
právu 997
defin@@ 997
pád 996
snižování 996
založená 996
mockrát 996
integ@@ 996
žijící 996
one@@ 996
objekty 996
vyprávěl 995
testů 995
umělecké 995
sé@@ 995
zel 995
pacienty 995
opráv@@ 995
uvolnit 995
pozvat 995
humor 995
plí@@ 995
cukr 995
lake 994
zlepšování 994
postupů 994
zachránili 994
formulář 994
soukromého 994
all 994
nepla@@ 994
letou 994
břehu 993
pů@@ 993
utekla 993
deprese 993
blbej 993
zabíjení 993
pojem 993
váha 993
klau@@ 993
sca@@ 992
sech 992
otře@@ 992
odsu@@ 992
samostatně 992
interiér 992
s. 992
petro@@ 992
linux 992
bratry 991
vietnamu 991
hovořit 991
hrajeme 991
marketingu 991
lli@@ 991
věřili 991
váma 991
vypad@@ 991
bole@@ 991
koni 991
free@@ 991
pomůžeš 991
podně@@ 991
základním 991
sklo@@ 991
cc 991
šího 991
dospělý 991
festival 990
autobusem 990
nepřátele 990
ýma 990
šou@@ 990
horách 990
činit 990
romantické 990
postavený 989
nenašli 989
smith 989
slušně 989
chrám 989
vými 989
pracovního 989
širší 989
koupili 989
prvo@@ 988
louis 988
tného 988
působení 988
uzdra@@ 988
zpravidla 988
regi@@ 988
dlužím 988
jakožto 988
ü@@ 988
ál@@ 988
hodné 988
pohlí@@ 988
vana 987
meta@@ 987
hnete 987
hraju 987
bron@@ 987
konkurenční 987
patrně 987
nedělal 987
zachy@@ 987
maggie 987
region 986
pokou@@ 986
veřejná 986
ložnici 986
a/nebo 986
stěž@@ 986
posádky 986
vytvořila 986
drobné 986
pozem@@ 986
post@@ 986
link 986
rovali 986
partner@@ 986
garan@@ 985
můžem 985
vložit 985
vyjít 985
mali 985
řská 985
velení 985
bali 985
žehlící 985
he 985
hrozbu 985
vrcho@@ 985
rné 984
zabit 984
předpověď 984
cest@@ 984
kapitá@@ 984
temné 984
kongresu 984
zobrazeno 984
celní 984
dot@@ 984
bali@@ 984
znala 984
koupelně 984
mars 983
nalé@@ 983
berlíně 983
absolventů 983
bojovali 983
kariéra 983
rock 983
ssi 982
bereš 982
trénovat 982
směje 982
jakej 982
japonská 982
ai 982
živo@@ 982
smrdí 982
tali 982
ves 982
šťastně 982
obrátit 982
provincie 982
udržitelný 982
vozy 981
sprchu 981
zpracujeme 981
policista 981
ssa@@ 981
souhlasil 981
zvuku 981
doufáme 981
dami 981
síle 981
jakoukoli 981
zala 981
k. 981
bin@@ 980
hněv 980
zkusil 980
měsíčně 980
rakovina 980
otevřeno 980
točí 980
užití 980
57@@ 980
lového 980
m2 979
mit 979
výcvik 979
papež 979
kovém 979
volného 979
páry 979
ture 979
přistání 979
technická 979
oslavu 979
900 978
о@@ 978
zahrnovat 978
šif@@ 978
leo 978
flu@@ 978
hří@@ 977
příkazy 977
histori@@ 977
písně 977
recenzí 977
externí 977
cz 977
bytí 976
znamenají 976
kampaně 976
holi@@ 976
nade 976
spla@@ 976
ruční 976
přenosu 976
а@@ 976
klepněte 976
úlohu 976
vzpomenout 976
záření 976
hlídat 975
-kdo 975
plukovník 975
publikum 975
léčit 975
modlit 974
radi@@ 974
zločiny 974
osob@@ 974
platné 974
vypořádat 974
dale 974
vášeň 974
koli 974
fotka 974
zabere 973
spal@@ 973
nejsilnější 973
hot@@ 973
postavili 973
modrý 973
laboratoř 973
malém 973
vtip@@ 973
účastníků 973
ming 972
kací 972
starších 972
azure 972
mel 972
fotografii 972
tnost 972
snažíte 972
veškerý 972
chlapy 971
způsobí 971
věže 971
dostaň 971
rním 971
are@@ 971
chléb 971
vyrovnat 970
zaplatím 970
mání 970
svaly 970
schopna 970
inflace 970
serví@@ 970
proud 970
dlouhodobě 970
páté 969
směrnice 969
přijala 969
vzdal 969
hochu 969
fen@@ 969
ležet 969
poušti 969
radosti 969
exkluzivní 968
přinesu 968
slíbila 968
myši 968
ročníku 968
slušný 968
div@@ 968
přijet 968
stínu 968
navěky 968
tématem 968
kontaktováním 968
zavolala 968
popravdě 968
osobnost 968
tari@@ 968
odchází 968
čeny 967
sekce 967
larry 967
tvořit 967
cestách 967
oblí@@ 967
jedenáct 967
křesťanství 967
obama 967
líbila 967
stres 966
skočit 966
pohár 966
táty 966
furt 966
egypt 966
kterýž 966
nervy 966
ms@@ 966
jersey 965
stárnutí 965
rukavice 965
vládních 965
soukromou 965
něhož 965
nehody 965
potichu 965
dopl@@ 965
nace 965
nům 964
kabát 964
stravování 964
vědecký 964
mine 964
jose@@ 964
dodržování 964
podíváte 964
pustíme 964
zou@@ 963
císař 963
koupím 963
atrakcí 963
fiel@@ 963
tah 963
slad@@ 963
breakfast 963
řských 963
nazý@@ 963
osvobození 963
tělesně 963
linie 962
jská 962
příštího 962
vojenských 962
vozidlo 962
gary 962
zů 962
fou@@ 962
vydali 962
oboha@@ 962
zapojení 962
stroj@@ 962
vzdělávacích 962
ztrácí 962
hovat 961
nečekal 961
ušetřit 961
ženi 961
počítá 961
kot@@ 961
dědeček 961
američtí 961
24. 961
plynů 961
zkra@@ 960
přístupem 960
řily 960
isa@@ 960
proudu 960
okej 960
eva 960
volbu 960
civilní 960
politi@@ 960
aj 960
smem 960
lord 960
bravo 960
stri@@ 960
kaš@@ 960
přestane 960
kupovat 960
autobusu 959
zeni 959
jazycích 959
mexiko 959
vysíla@@ 959
vné 959
chladničkou 959
oble@@ 958
hroma@@ 958
nějakém 958
nuto 958
udržuje 958
sjedno@@ 958
provin@@ 958
obslu@@ 958
složku 957
zatčen 957
uniknout 957
29. 957
nabíd@@ 957
půdě 957
konstrukce 957
rin 956
sul@@ 956
nechává 956
hospodářského 956
zablo@@ 956
poslyšte 956
jasno 956
řece 956
alexi 956
chri@@ 956
zd@@ 956
zabezpeč@@ 956
instru@@ 955
roků 955
tvrdé 955
vyhrá@@ 955
předpokladu 955
ruskem 955
přišly 955
nevěřící 955
inové 955
nebezpečná 955
dostupnost 955
hlasovat 955
kategorií 955
patrové 954
zah@@ 954
klimatizaci 954
pocházejí 954
zavřete 954
zdát 954
dly 954
jil 954
store 954
postará 954
trouba 954
9,@@ 954
ktor 954
úzce 953
platformu 953
motel 953
jednotlivce 953
možných 953
chápat 953
jazykové 953
jídlem 953
-už 953
zjištění 953
promí@@ 952
jimi 952
rooms 952
tované 952
dětský 952
tr 952
vyvíjet 952
zůstaneme 952
ns 952
výrobců 951
mobile 951
pořádek 951
zek 951
podě@@ 951
hů 951
příchod 951
marsu 951
veřejný 951
dale@@ 951
cházeli 951
egypta 951
stá 951
lích 951
syn@@ 951
tělem 951
opra@@ 951
správní 951
skupinou 951
navrhnout 950
manželky 950
všeobecně 950
rské 950
poskytl/a 950
uvědomila 950
ignorovat 950
jakoukoliv 950
tujeme 950
vytvářejí 950
malí@@ 950
získá@@ 950
stabilitu 950
poštovní 950
b-@@ 949
rozlišení 949
wifi 949
týkajících 949
modlitby 949
génius 949
zažít 949
castle 949
jazy@@ 949
zóny 949
dosahu 948
spou@@ 948
aero@@ 948
140 948
sestro 948
uspořádání 947
steroidy 947
aktuali@@ 947
gil@@ 947
sním 947
získají 946
životním 946
tenis 946
sd 946
štítky 946
zločinu 946
překážky 946
rovala 946
boutique 945
zavést 945
hradu 945
intenzi@@ 945
blízkém 945
asisten@@ 945
znalost 945
ie@@ 945
tivního 944
nemě@@ 944
svobodné 944
cel 944
kovy 944
zastře@@ 944
vážný 944
písničku 944
reklama 943
zvý@@ 943
sex@@ 943
-kde 943
nepřesnostech 943
vzniká 943
veliké 943
pozná 943
opakuji 943
nedostatku 942
nevadilo 942
středisko 942
white 942
trh@@ 942
krví 942
něného 942
ráte 942
tován 942
běž@@ 942
casino 942
policajti 942
kanálu 942
tickou 942
něčí 941
ini 941
rozhovory 941
opatrní 941
napo@@ 941
pokusí 941
zání 941
hová 941
nas@@ 941
švýcarsku 941
nehodu 941
dluhu 941
něnou 940
školách 940
obchodník 940
následuje 940
nemluvím 940
vybírat 940
ela 940
stmi 940
kapsy 939
podstatné 939
prodej@@ 939
prošla 939
vrchol 939
rák 939
victoria 939
stického 939
procento 939
strýčku 939
refle@@ 938
digitálních 938
pojmen@@ 938
roztr@@ 938
slabé 938
důvěř@@ 938
schůzky 938
řeč@@ 938
bytost 938
wall 938
hotová 938
připo@@ 938
předmětem 938
ld 938
francouz@@ 937
up 937
vzpomněl 937
táhni 937
pm 937
m² 937
obyvatelstva 937
stěny 937
dních 937
umístěné 937
staletí 937
proni@@ 937
cat 937
přísa@@ 937
ram 937
široký 937
oslov@@ 936
zmoc@@ 936
dovol 936
věři@@ 936
leno 936
ace 936
novináři 936
zlob@@ 936
šených 935
kapse 935
sophie 935
stvo 935
šifrování 935
spolehnout 935
zubní 935
zradil 935
svatá 934
výkonný 934
zdravá 934
ujících 934
stva 934
jíš 934
použili 934
nakupování 933
čným 933
dáváte 933
plavání 933
gitea 933
policisté 933
akademi@@ 933
manu@@ 933
halo 933
levnější 933
znásil@@ 933
aktualizaci 932
odhalit 932
službách 932
kovaných 932
turistické 932
starosta 932
hluk 932
pis 932
zkrá@@ 932
fer 931
ipad 931
kamen@@ 931
nalo@@ 931
movat 931
kvalifi@@ 931
nac@@ 931
ann 931
zvednout 931
lib@@ 931
zkusíme 931
osobnosti 931
ea@@ 931
sl 931
ženého 931
výměna 930
jmenujete 930
tnosti 930
známých 930
umístěním 930
bili@@ 930
dky 930
medicíny 930
belgie 930
zastá@@ 930
souhlasu 929
199@@ 929
sadu 929
tova 929
bol@@ 929
propa@@ 929
bille 929
hlupák 929
daného 929
léči@@ 929
sey 929
skočil 929
říma 929
probudil 929
rozporu 928
obdržel 928
raj@@ 928
významu 928
bel 928
napsáno 928
zrak 928
whisky 928
umře 928
.net 928
polibek 927
arab@@ 927
tvrdý 927
nemovitost 927
kompletně 927
závi@@ 927
dcerou 927
náhradní 927
stal@@ 926
von 926
učitelka 926
vyjádřil 926
kroku 926
jun@@ 926
přijdete 926
sha 925
jean 925
ověřit 925
pekle 925
hoď 925
vojenskou 925
otroctví 925
položit 925
otevírá 925
řez@@ 925
smu@@ 925
uz@@ 925
měna 925
výš 925
limit 925
jíce 925
úplný 925
lesy 925
klidný 925
technologické 925
budovu 924
povědomí 924
budovat 924
vytvořen 924
káme 924
zisky 924
továny 924
ění 924
medvěd 924
lel 924
nemluvil 924
danou 924
těl 924
prodlou@@ 923
potla@@ 923
myšlenek 923
dos 923
5:@@ 923
foto@@ 923
vyšla 923
love@@ 923
čenou 923
cafe 923
nechy@@ 922
schodech 922
spor@@ 922
týdnech 922
next 922
mléka 922
zaměstná@@ 922
kci 922
nelegální 922
jev 921
volná 921
násil@@ 921
ultra@@ 921
půlku 921
upozorňujeme 921
otá@@ 921
procházku 921
home@@ 921
konver@@ 921
smluvních 921
brácha 920
dřeva 920
nenašel 920
1980 920
extrémní 920
ími 920
kově 920
nají 920
nehodě 920
kanálů 920
popi@@ 920
třetina 919
bren@@ 919
vytáhl 919
yová 919
kněte 919
stickou 919
obrazovce 919
lením 919
drob@@ 919
archiv 919
jakých 919
vrátíte 919
tika 918
říz@@ 918
rodu 918
hračka 918
chodili 918
brali 918
kly 918
povídá 918
lie@@ 918
more 918
společenských 917
natá@@ 917
gem 917
řek@@ 917
mož@@ 917
zalo@@ 917
pobí@@ 917
bit@@ 916
nepotřebujete 916
hlasu 916
veselé 916
blogu 916
ph@@ 915
x-@@ 915
tančit 915
doda@@ 915
zat@@ 915
čnost 915
refor@@ 915
varovat 915
hi 914
anů 914
krabici 914
ujít 914
vzorek 914
audio 914
hádej 914
reklamu 914
květ@@ 914
02 914
projek@@ 914
zvládne 914
prohlí@@ 914
vyžadovat 914
diamanty 914
thajsko 913
nimiž 913
přineste 913
nepříjemné 913
zbývající 913
dorazil 913
vedeš 913
učinili 913
touhle 913
bojují 912
jana 912
omezené 912
pokusit 912
úrovních 912
odehrává 912
turi@@ 912
mluvte 912
vizi 912
předná@@ 911
aktualizováno 911
základny 911
zastavení 911
svědek 911
hmo@@ 911
fiskální 911
spar@@ 911
gau@@ 911
ray@@ 911
rebe@@ 911
odměna 911
biologické 911
service 910
skóre 910
gh 910
stka 910
čaroděj@@ 910
zje@@ 910
faktorů 910
ňujeme 910
případ@@ 910
tancovat 910
mit@@ 909
hrozba 909
emo@@ 909
zádech 909
sesta@@ 909
opravdová 909
stein 909
potvrdit 909
kní@@ 909
kuřáky 909
irsko 909
doprová@@ 909
html 909
domov@@ 908
oceli 908
válečné 908
ckem 908
zabití 908
elektřiny 908
..... 908
zato 908
srdeční 908
nost@@ 908
přátelům 908
neznáte 908
prozkou@@ 908
pohodlně 907
vyřa@@ 907
sir 907
dneška 907
vajících 907
vědec 907
řena 907
ano@@ 907
harryho 906
ym 906
kanady 906
kousen@@ 906
banku 906
obří 906
slaví 906
101 906
podání 905
vyhledat 905
židle 905
nákupy 905
částech 905
nejvyššího 905
akční 905
pouští 905
identitu 905
amazon 905
sledovali 904
objevují 904
-v 904
polohu 904
ins 904
manželé 904
dohodě 904
facilities 904
whatsapp 904
=@@ 904
milujete 904
odpad 904
prázdniny 904
dající 904
penzion 904
skrýt 903
tost 903
existující 903
zkoumat 903
projevu 903
šet 903
tmě 903
paláce 903
nemyslela 903
fyziky 903
otrá@@ 902
pochyb 902
zása@@ 902
ami@@ 902
přidal 902
lhář 902
slepý 902
zabývat 902
milán 902
stan 902
chrisi 901
zdroji 901
své@@ 901
nostmi 901
primární 901
ml 901
ukládání 901
výpověď 901
zar@@ 900
chodíš 900
půdu 900
sená@@ 900
dosah 900
prostředek 900
mid@@ 900
cks 900
anglické 900
kristu 900
texasu 900
vyhovuje 899
čího 899
bub@@ 899
rybá@@ 899
hay@@ 899
use@@ 899
inová 899
krabice 899
rozhodující 898
schválně 898
ráš 898
člen@@ 898
experiment 898
jní 898
pé@@ 898
zdravot@@ 898
skří@@ 898
prefe@@ 898
kusy 898
hor 898
doufejme 898
,000 898
vibrátor@@ 897
haly 897
vůdci 897
tvaru 897
dálnice 897
existu@@ 897
umí@@ 897
zásah 897
prevence 897
editovat 896
nepotřebuji 896
pevnost 896
vajíčka 896
rych@@ 896
větru 896
strategií 896
sea@@ 896
živ@@ 896
stavba 896
přesný 896
sídlem 895
obyčejné 895
závě@@ 895
33@@ 895
židov@@ 895
epi@@ 895
dílů 895
pó@@ 895
talen@@ 895
wellness 895
zažil 895
tábora 895
novin 894
svatby 894
složi@@ 894
lokální 894
vybaveny 894
měsí@@ 894
zrádce 893
stavby 893
velkými 893
svátek 893
sova 893
ras 893
manželkou 892
rům 892
ryba 892
ukon@@ 892
službám 892
žádal 892
zbož@@ 892
tivních 892
zavolá 892
jádro 892
leg@@ 892
vec 892
nařídil 892
pomůžeme 892
portugal@@ 892
zastřelil 891
zásad 891
port@@ 891
držela 891
čník 891
boo@@ 891
prst 891
colo@@ 891
běh@@ 891
milióny 891
masáž 890
ej 890
knul 890
tajný 890
pomoc@@ 890
dokonalá 890
předat 890
kliknutím 890
dialogu 890
obla@@ 890
poznáte 890
příslušných 889
urych@@ 889
začínáme 889
environmentální 889
okra@@ 889
adop@@ 889
diskutovat 889
marco 889
nevěříš 889
ženým 889
slunci 888
т@@ 888
luci@@ 888
skutečným 888
prostřed@@ 888
t.@@ 888
vyjednávání 887
pozi@@ 887
technicky 887
ál 887
zahrá@@ 887
nazna@@ 887
účinnosti 887
mó@@ 887
magie 887
turné 887
spravedlivé 887
fanoušci 886
volejte 886
vizuální 886
rone 886
práv@@ 886
lyn@@ 886
většího 886
sval@@ 886
horko 885
čkami 885
znaků 885
vyrobit 885
jídelně 884
konečné 884
vymyslet 884
máte-li 884
včerejší 884
vedeme 884
milí 884
zlého 884
26. 884
lému 883
glo@@ 883
nechá@@ 883
rezer@@ 883
open@@ 883
zdravotnické 883
vezmete 882
ovatel@@ 882
minulých 882
nízkou 882
kong 882
zají@@ 882
pomáhal 882
zklamání 882
din@@ 882
zbytečné 882
toru 882
pokušení 882
ston 881
zvyšování 881
bitvy 881
korá@@ 881
chtělo 881
díru 881
novější 881
přemýšlej 881
předpoklá@@ 881
díra 880
chytřejší 880
pozdra@@ 880
aplikovat 880
rovně 880
američan 880
dostaňte 880
znělo 880
nega@@ 880
vydělávat 880
využitím 880
email 879
ohni@@ 879
yo 879
mínění 879
občanství 879
koberec 879
came@@ 879
hotovosti 879
přija@@ 879
a.@@ 879
počtem 879
přesvědčeni 878
červen@@ 878
vzor@@ 878
roman@@ 878
0-@@ 877
ovzduší 877
herečka 877
vice 877
jedli 877
důležitého 877
dohodli 877
prezentace 877
zku@@ 877
absolventy 877
ekonomickou 877
kořeny 876
individuálním 876
telefonů 876
neslyším 876
inky 876
parke@@ 875
audi@@ 875
lehnout 875
kapitána 875
vážení 875
hrob 875
vypá@@ 875
pozná@@ 875
zevnitř 875
lod@@ 875
sila 875
univerzální 875
zíme 875
soudit 875
architekturu 875
dce@@ 874
odpadu 874
nuže 874
ovlivňují 874
významnou 874
lar 874
vybrané 874
psali 873
sladký 873
here@@ 873
rium 873
různá 873
zpochyb@@ 873
chlad@@ 873
výsledku 873
zal@@ 873
zabíjí 873
vyčistit 873
prachu 872
názvu 872
bolet 872
začni 872
írá@@ 872
umělé 872
řecku 872
čící 872
neli@@ 872
�@@ 872
zaví@@ 872
pale@@ 872
úpl@@ 871
nazývají 871
gové 871
zvládneme 871
mam@@ 871
vlajka 871
dota@@ 871
zali 871
dívala 871
týhle 871
jeví 871
pochopili 871
povězte 871
zabi@@ 871
míle 871
testu 871
stiskněte 871
dluhy 870
cházela 870
kritické 870
konferenční 870
svědkem 870
použit 870
nd@@ 870
stoupí 870
radě 870
south 869
náboženské 869
dodat 869
ude@@ 869
neuvěřitelný 869
nostech 869
cigarety 869
bitvě 869
blb@@ 869
hladiny 869
mt 868
reprezen@@ 868
can 868
rekord 868
realizovat 868
št@@ 868
šílená 868
typické 868
koukat 868
očkování 868
toaleta 868
přeno@@ 868
of@@ 868
spotřebitelů 868
vážná 867
kovými 867
vedete 867
bohatí 867
spaní 867
ňu@@ 867
podmínkami 867
srá@@ 867
středním 867
dočasně 867
neslyšela 867
harmoni@@ 867
minutku 866
odpočinek 866
rozhodovat 866
faši@@ 866
pp@@ 866
hloupost 866
sco 866
ách 866
probuzení 866
haw@@ 865
významných 865
čtější 865
kočku 865
hodině 865
:5@@ 865
hru@@ 865
odpovídat 865
ostrovů 865
utíkat 865
vládne 865
linu 865
průměrné 865
používám 865
svědčí 864
reklamní 864
názvy 864
vědění 864
ukrajiny 864
lidové 864
požádala 864
padnout 864
lle@@ 864
umožnit 864
žádným 864
kudy 863
zámku 863
milovali 863
mírně 863
budoucna 863
necháte 863
pouhé 863
bři@@ 863
zlá 863
tři@@ 863
palivo 863
ústavy 863
hotovost 862
umírají 862
ježiši 862
om@@ 862
válkou 862
půjčky 862
znak 862
kova@@ 862
převzít 862
ital@@ 862
dalšímu 862
formu@@ 862
řím@@ 861
bla 861
zl 861
směry 861
řená 861
židů 861
vracím 861
prázdná 861
rej 860
nehod@@ 860
spokojeni 860
pust@@ 860
zdejší 860
řeno 860
přijdeme 859
dlem 859
paris 859
blok 859
vyko@@ 859
zasvě@@ 859
zamí@@ 859
nemovitostí 859
zmlkni 859
přispě@@ 859
přibliž@@ 859
pospěšte 859
gs 859
nevin@@ 859
španělska 859
organizační 858
děcko 858
zvýšila 858
trávit 858
moudrý 858
kcí 858
mechanismus 858
neříká 858
vysa@@ 858
prově@@ 858
praze 858
vidi@@ 857
budoucích 857
mont 857
odpověděli 857
holiday 857
manžel@@ 857
iná@@ 857
hej@@ 857
běhat 857
vzpomínáte 856
věrný 856
forem 856
mor 856
kupu@@ 856
ding 856
objev 856
zin@@ 856
zbytku 856
výborný 856
lově 856
elektri@@ 856
ministra 856
univerzitu 856
ochutnat 856
věnuje 856
zbytečně 856
absurdní 856
díl@@ 856
barevné 856
ture@@ 856
věčnost 855
ples 855
byznys 855
továrny 855
židli 855
kupředu 855
přivádí 855
tajem@@ 855
kultuře 855
1985 855
male@@ 855
připojte 854
tro 854
samotnou 854
nuta 854
úložiště 854
kolegové 854
odve@@ 854
álně 854
london 854
pension 854
posílat 854
nuté 854
komunita 854
mus 854
tovaná 854
jejímu 853
hlasem 853
synů 853
menty 853
zubů 853
poldové 853
dobro@@ 853
letěl 853
sbírat 852
policajt 852
uvedeny 852
skutečného 852
motiv 852
zbraněmi 852
xbox 852
brow@@ 852
napít 852
účastnit 852
vzdálený 852
zapomeňte 852
žízeň 852
stý@@ 852
ló@@ 852
akademických 852
taneční 852
nenávidět 852
carol 852
zachrání 852
věcmi 851
vysky@@ 851
vená 851
03 851
působit 851
jackson 851
povídej 851
hyper@@ 851
sea 851
jack@@ 850
nepřátel 850
spojenci 850
copyright 850
promluvím 850
hrůza 850
vytvořte 850
zaklá@@ 850
ore 850
osobě 850
prohrál 850
ovládá 849
arábie 849
účastní 849
key@@ 849
ráj 849
chile 849
vykoná@@ 848
hovi 848
zdravotním 848
vytr@@ 848
prodá@@ 847
stní 847
cizinci 847
nekuřácké 847
západním 847
tempo 847
stáří 847
zvě@@ 847
market 847
strukturu 847
námoř@@ 847
schopné 847
kratší 846
nesná@@ 846
téhož 846
odpoví 846
ochotni 846
spousty 846
uhni 846
zemím 846
dohled 846
přízni@@ 846
šte 846
tec 846
booking 845
stům 845
výzvu 845
ces 845
bem 845
cují 845
tragédie 845
kámo@@ 845
bereme 845
prevenci 845
sloven@@ 845
ange@@ 845
nejdůležitějších 845
mario 845
vyhý@@ 845
serverů 845
nenech 844
instrukce 844
poslech@@ 844
převést 844
m.@@ 844
seženu 844
zpí@@ 844
odborných 844
rozdí@@ 843
sun 843
důvěřovat 843
trou@@ 843
tického 843
vovat 843
objevuje 843
patro 843
chystám 843
lékařů 843
hli 843
dva@@ 843
nevinný 843
kolí@@ 843
tříd 842
respek@@ 842
kalhot 842
posa@@ 842
živě 842
ira 842
skrý@@ 842
sedmi@@ 842
otázkách 842
domin@@ 841
zavě@@ 841
dosaženo 841
´ 841
ustupte 841
navá@@ 841
kariéře 841
dýchej 841
vlád 841
450 841
duchové 840
mexika 840
vyta@@ 840
řeku 840
zamiloval 840
významně 840
vojenská 840
narozen@@ 840
bridge 840
koupí 840
dozvíte 840
brazílii 840
tlačit 840
tó@@ 839
ada@@ 839
úspěšná 839
domovem 839
telefo@@ 839
celosvětové 839
ctví 839
holkou 838
výuku 838
plochu 838
spolehlivé 838
hodila 838
simu@@ 838
klo 838
pích@@ 838
jídle 838
kozy 838
nevěsta 838
vlivu 838
postava 837
pozorovat 837
koncentrace 837
teru 837
vedoucích 836
celek 836
-mám 836
tury 836
částku 836
panna 836
změnili 836
low 836
lly 836
stvo@@ 836
pospí@@ 836
pane@@ 836
povstání 836
optimi@@ 836
vědomi 835
vují 835
přidání 835
natáčení 835
snaha 835
kruhu 835
posky@@ 835
zata@@ 835
stat 835
určuje 834
byť 834
lhala 834
hiv 834
lovala 834
sia 834
jimž 834
připou@@ 834
gol@@ 834
-cože 834
mala@@ 834
pis@@ 834
vyh@@ 834
obdrží 834
gratuluju 834
vezmou 834
leda 834
přejděte 833
hrd@@ 833
studenta 833
vaní 833
odmítla 833
ochoten 833
hnu 833
aktiv@@ 833
vzdálená 833
latinské 833
meri@@ 833
takovýho 833
široce 833
děsí 833
7:@@ 832
sexu@@ 832
seriál 832
hrdinové 832
smím 832
zíte 832
prozra@@ 832
ceno 832
nemění 832
zan@@ 832
šesti@@ 832
pátrání 831
voní 831
dokáží 831
zvedl 831
bratrem 831
tosti 831
stup@@ 831
neznámý 831
music 831
přikázání 831
následek 831
čas@@ 831
rozkládací 830
turecké 830
old 830
nástrojem 830
připraveno 830
prodávají 830
™ 830
škodlivé 830
dávala 830
3000 829
tovaný 829
košili 829
dodávka 829
ledov@@ 829
starém 829
kládá 829
nezapomenu 829
nepamatuju 829
ay@@ 829
deseti@@ 829
organizacemi 829
něž 829
nesti@@ 829
dotknout 829
laboratoři 828
aktivita 828
spotřebu 828
čel 828
koloni@@ 828
platnosti 828
samotná 828
výrobku 828
vědomě 828
jihovýchodní 827
gate 827
informa@@ 827
rozdě@@ 827
struktu@@ 827
race 827
odpočinku 826
větším 826
smutná 826
výbuch 826
bojovník 826
podezřelý 826
bohatá 826
zemědělské 826
prokázat 826
125 826
nejdeš 826
připrav 826
majitele 825
francouzi 825
používané 825
poslouchal 825
editor 825
interakce 825
riá@@ 825
složek 825
základna 825
pohř@@ 825
použí@@ 825
tk@@ 825
nali 825
koukám 825
tského 825
vlastností 825
jem@@ 825
licenci 825
stři@@ 825
lžeš 825
současného 825
nov 824
bush 824
vládnout 824
vii 824
spolupracuje 824
řečí 824
kována 823
nepůjdu 823
vydává 823
d.@@ 823
pošle 823
inte@@ 823
ňme 823
formuláře 823
burg 823
mořských 823
linku 823
muslimové 823
minutách 823
skutečností 822
pohni 822
vero@@ 822
celkového 822
umělci 822
mora@@ 822
přísahal 822
narazil 822
rná 822
počkáme 822
infarkt 822
aa@@ 822
týmem 822
hotové 822
5000 822
vstal 822
objevily 822
nostní 822
jednalo 822
radio@@ 821
village 821
pěknej 821
doktorka 821
povídal 821
lekci 821
domnívám 821
registraci 821
poručík 821
executive 821
přehrávač 821
dosáhne 820
povídám 820
posi@@ 820
sla 820
považována 820
zabí@@ 820
vyžádání 820
červenou 820
mům 820
mová 820
královny 820
seděla 820
tků 820
veřejnou 820
švéd@@ 819
chej 819
výkon@@ 819
uprchlíky 819
vyba@@ 819
láká 819
desig@@ 819
zákaz@@ 819
wto 819
tolika 819
duje 819
expert 819
chytí 819
hrozby 819
fyzi@@ 819
karen 819
jších 819
space 819
н@@ 819
mámy 819
usilovat 819
večerní 818
dělníků 818
provedli 818
záměr 818
spor 818
svobod@@ 818
hali 818
lam@@ 818
poloha 818
obsahující 818
zjevení 818
charakteristi@@ 818
otro@@ 818
04 818
bů 817
dceři 817
nepotřebuješ 817
návštěvníků 817
neni 817
vylez 817
biologie 817
památkám 816
whi@@ 816
osobu/den 816
učiní 816
poslechnout 816
genera@@ 816
třetiny 816
ztra@@ 816
pozdrav 816
zelenou 816
1988 816
kongres 816
š-li 816
unesco 816
mužům 816
huh 816
marku 815
pomyslel 815
dostupných 815
sebevědomí 815
procházet 815
tuji 815
matematiky 815
opera 815
tována 815
třídu 815
náme 815
long 815
comment 815
odeslat 815
uklid@@ 815
uzavření 815
myslete 815
regionálních 815
představy 815
historických 814
šťastnou 814
naj@@ 814
rop@@ 814
čném 814
nevidíte 814
londý@@ 814
1987 814
polsku 814
šálek 814
argumen@@ 814
bum 814
tráví 814
izrael@@ 814
načase 814
překlada@@ 813
akti@@ 813
barceloně 813
fc 813
obtěž@@ 813
anými 813
az@@ 813
trávu 813
probrat 813
solární 813
opak 813
znásilnění 813
umřu 813
fanta@@ 813
šily 813
podílet 813
vzor 812
stanoví 812
bat@@ 812
čekáte 812
zor@@ 812
jakéhokoliv 812
spatřil 812
strávili 812
mzdy 812
potvrdil 812
limi@@ 812
vyhrála 812
mových 812
.it 812
poptávky 812
vodo@@ 812
fungovalo 812
psů 812
stejní 812
lev 811
situovaný 811
kom 811
realizaci 811
vlasti 811
venti@@ 811
wit@@ 811
pevný 811
dra 811
zuji 811
i-@@ 811
venkov@@ 811
mail 811
nal@@ 811
troj@@ 811
rela@@ 810
ničení 810
58@@ 810
vine 810
1984 810
zpívá 810
naslou@@ 810
lana 810
zovány 810
nském 810
záruka 810
raz@@ 810
kdes 810
šeno 810
falešný 810
pochyb@@ 810
realitu 810
uš@@ 810
týdenní 810
pomůžete 810
člena 810
letů 809
desky 809
složitější 809
dětská 809
moduly 809
avi@@ 809
některým 809
zastřelit 809
přechod@@ 809
nizozem@@ 809
prvek 808
dávku 808
mina 808
snahy 808
přesnost 808
povinné 808
bb@@ 808
dáním 808
vyči@@ 808
uvést 808
zvlá@@ 808
hmoty 808
kno@@ 808
johnson 808
con 808
rován 808
nin@@ 807
vyhraje 807
japonský 807
kruh 807
obá@@ 807
přispívá 807
zabiješ 806
psacím 806
prohlížení 806
babi 806
sion 806
geni@@ 806
vů 806
sáh@@ 806
hrdiny 806
píš 805
turecku 805
provedla 805
objednávku 805
krypto@@ 805
zázraky 805
zbylo 805
čest@@ 805
společnostmi 805
atmosféra 805
investory 805
western 805
nemo@@ 805
propuštění 805
krátká 805
uklidnit 805
hry@@ 805
prask@@ 804
domácích 804
penis 804
symboli@@ 804
vstávat 804
schválení 804
fili@@ 804
povoleno 804
agen@@ 804
muzeu 804
bezpečná 804
krizí 804
scénu 804
neznámé 804
jesse 804
podmínkou 804
ztracené 803
jakkoliv 803
čující 803
čaje/kávy 803
osvět@@ 803
vé@@ 803
zrcadlo 803
psí 803
určena 803
tvýho 803
všimla 803
připraví 803
tera 803
vte 803
žaludek 803
country 803
chováš 803
vzorky 803
profesionály 802
běh 802
knížku 802
přečetl 802
dovou 802
letecká 802
nezbytná 802
žet 802
hrozná 802
klimati@@ 802
tice 802
výborné 802
kytice 802
uvaž@@ 802
obloze 802
slávu 802
určené 802
gel 802
voj@@ 801
vaná 801
ená 801
označuje 801
tar 801
vyčer@@ 801
nancy 801
ťák 801
tajná 801
nesu 801
řuje 801
kombinuje 801
adap@@ 801
kámoši 801
blázni@@ 801
komunistické 801
nedovolím 800
prospe@@ 800
dce 800
real 800
čci 800
prvotřídní 800
nejch 800
idiote 800
vlk 800
pohovkou 800
obrátil 800
domnívají 800
otcov@@ 800
moni@@ 800
chlapů 800
ole@@ 799
2,5 799
servíruje 799
přís@@ 799
naučíte 799
specifikace 799
společných 799
zakázat 799
slavné 799
stability 798
shr@@ 798
rozvod 798
jar@@ 798
rnou 798
zán 798
výlety 798
uznat 798
sněhu 798
rita 798
zemřeš 798
bílém 798
kasino 798
skrývat 798
německých 798
dvojčata 798
otočil 797
bezpochyby 797
sol@@ 797
schop@@ 797
mostu 797
domnívá 797
tisíci 797
dolní 797
studu@@ 797
přeprav@@ 797
běžná 797
potra@@ 797
doufat 797
kaz@@ 796
mamka 796
dské 796
řetězec 796
počítačových 796
zamýš@@ 796
blbý 796
pizzu 796
zkla@@ 796
společ@@ 796
pákistánu 796
ké@@ 796
kovaná 795
modlitba 795
belgi@@ 795
nebe@@ 795
pohovka 795
tiskové 795
wayne 795
působil 795
čela 795
00:01:@@ 795
kilo 795
hoře 795
ověření 795
webová 795
› 795
zraněný 795
stin@@ 795
bude-li 794
kate@@ 794
koreji 794
dolaru 794
tede 794
frekvence 794
svaz 794
šetřit 794
hydro@@ 794
nebesích 794
útočiště 794
katalog 794
prádelnu 793
pokusím 793
chám 793
dvojí 793
propagační 793
ukradli 793
padli 793
produ@@ 793
east 793
dány 793
kame@@ 793
publikováno 793
postaví 793
max@@ 792
vou@@ 792
klini@@ 792
pohl@@ 792
inici@@ 792
dědi@@ 792
fascinující 792
rovány 792
těšíme 792
ove@@ 792
posily 792
tajně 791
sůl 791
ae@@ 791
nutý 791
šeny 791
soukromém 791
jmen 791
vystře@@ 791
odejdi 791
platíte 791
tlačítka 791
lec 791
pokusu 791
past 791
pokusy 791
nata@@ 791
zač@@ 791
komisi 791
žeš 791
šká@@ 791
triky 790
wei@@ 790
maz@@ 790
jednoznačně 790
odliš@@ 790
úžasně 790
fitcentrum 790
políbit 790
háš 790
nákladní 790
nará@@ 790
přijme 789
tvrdit 789
zvládli 789
tělesné 789
balkon 789
vyrostl 789
ptáků 789
mučení 789
05 789
pravo@@ 788
zila 788
dnout 788
mezinárodními 788
integraci 788
zte 788
výstava 788
podí@@ 788
žád@@ 788
vzkří@@ 788
grafi@@ 788
500@@ 788
motiv@@ 788
zneužívání 788
kreditů 788
závislost 787
telům 787
nosu 787
ameriku 787
důležitost 787
lův 787
jednot@@ 787
vstát 787
sový 787
fro@@ 787
známého 787
e-mailovou 787
bella 787
důstoj@@ 786
pl 786
bránu 786
vraž@@ 786
plan@@ 786
plod@@ 786
8:@@ 786
pís@@ 786
autonomní 786
svěd@@ 786
podstatně 786
osobou 785
sníží 785
clou@@ 785
žce 785
un 785
zaměřením 785
měsícem 785
požár 785
alláh 785
saunu 785
obchodovat 785
volit 785
kapacity 784
experimentální 784
chyb@@ 784
dobrém 784
průmyslová 784
tradici 784
ohněm 784
skok 784
doporučit 784
náleží 784
detail 784
zaměřené 784
vidě@@ 784
sony 784
smrtící 784
pauzu 784
obce 784
porno 783
77@@ 783
změnám 783
nepřítelem 783
zkoumání 783
tepla 783
poznám 783
žehličkou 783
bet@@ 783
naléha@@ 783
rovaný 783
systémech 783
kce 783
slabost 783
zani@@ 783
\@@ 783
smy@@ 783
live@@ 783
žid 783
00:03@@ 782
pové 782
světlem 782
stavě@@ 782
techni@@ 782
moskvy 782
odpoví@@ 782
ibm 782
ení 782
mový 782
úctu 782
hodinou 782
chaos 781
-jsem 781
šest@@ 781
řidiči 781
účinně 781
databázi 781
zaš@@ 781
velvyslanectví 781
časopisu 781
položil 781
zážitky 781
zneuží@@ 781
ech 781
bojíte 781
back 781
kostele 781
skoč 781
číňané 780
zmen@@ 780
stráže 780
kelly 780
lane 780
přikázal 780
ubytovna 780
zaručit 780
německého 780
zvolen 780
zde@@ 780
hodnej 780
nejenom 780
prorok 780
tašku 780
88@@ 779
ústavní 779
připomenout 779
pistole 779
zet 779
vojenský 779
vznik 779
slib@@ 779
setkáme 779
uvá@@ 779
vychová@@ 779
požadavkům 779
proží@@ 779
moz@@ 779
znít 779
oč@@ 779
álu 779
udr@@ 779
kvalitě 778
pohřbu 778
terénu 778
pohád@@ 778
smíchu 778
ction 778
peru 778
šok 778
balík 778
pravdivé 777
vybranou 777
blízký 777
poke@@ 777
duchem 777
přijímání 777
potkat 777
spravedlivý 777
vlna 777
pie@@ 777
snazší 777
ták 777
otočit 777
investorů 777
pravého 776
jíc 776
krvácení 776
dillí 776
pozoru@@ 776
poskytujeme 776
mm@@ 776
automobi@@ 776
davida 776
turistů 776
pato@@ 776
ztrá@@ 776
rick 776
hotový 776
vítáme 776
hum@@ 776
závodní 776
had 776
statisti@@ 775
galaxie 775
texty 775
zvláštním 775
gui@@ 775
osmi@@ 775
přežili 775
zemřu 775
blou@@ 775
kraji 775
komunitě 775
muslim@@ 774
pomá@@ 774
nejtěžší 774
sundat 774
trvalý 774
zápasy 774
odříz@@ 774
doklady 774
masku 774
malí 774
svobodná 774
milov@@ 773
ptali 773
com 773
chyběl 773
činů 773
maje@@ 773
geny 773
činil 773
vaných 773
situacích 773
pokoje/ 773
pisu 773
win 773
vením 773
kamkoliv 772
zúčastnit 772
diskuze 772
vče@@ 772
mlou@@ 772
ler@@ 772
margaret 772
krvá@@ 772
oddě@@ 772
nahradí 772
stojíš 772
sek@@ 772
krytí 772
ung 772
06 772
alfa 772
studios 772
prošli 771
doktorko 771
kvalifikace 771
teplotu 771
táhnout 771
premié@@ 771
vděčná 771
zmrzlinu 771
klienti 771
sso@@ 771
vyhla@@ 771
pronájmu 771
letectví 771
2.0 771
představoval 771
premiéra 771
díváš 771
žlu@@ 771
zamít@@ 771
kovi@@ 771
chytili 770
problémům 770
hypoté@@ 770
dostatečné 770
carrie 770
polí@@ 770
vie@@ 770
uskuteční 770
povat 770
albert 770
kontinentální 770
identity 770
ovacím 770
týmů 770
walter 770
pravým 770
nezastaví 770
prodloužení 770
okně 770
zacházení 769
chorvatsko 769
wille 769
tradičním 769
přeru@@ 769
pohyby 769
výraz@@ 769
teoretické 769
nenávisti 769
živých 769
vyha@@ 769
hrobu 769
voli@@ 769
geniální 769
2030 769
singapur 769
power 769
odpustit 769
zloději 768
pátý 768
dlužíš 768
с@@ 768
arts 768
závěry 768
žene 768
oženil 768
sporů 768
zabijí 768
homosexu@@ 768
příběhů 768
bezplatná 768
pokrač@@ 768
rameno 768
kulturního 768
rizi@@ 768
maďar@@ 768
recenzi 767
hova@@ 767
wan 767
klimatické 767
tru 767
nesmím 767
obdiv@@ 767
jícímu 767
patřil 767
augu@@ 767
kopírování 767
livě 767
in-@@ 767
zaja@@ 767
onen 767
představovat 767
strašný 767
dostaly 767
samého 767
obsahem 767
situací 767
vyda@@ 767
ryho 767
řecké 766
pořádný 766
licen@@ 766
vyvolat 766
černého 766
žejí 766
evidentně 766
pen 766
výuka 766
životnost 765
policy 765
ley@@ 765
brian 765
1970 765
středního 765
telnosti 765
nano@@ 765
áš 765
nespráv@@ 765
drželi 765
mocí 765
platný 765
drog@@ 765
doplň@@ 765
este@@ 765
ree@@ 765
řadou 765
píšete 765
svlé@@ 764
netušil 764
přirozený 764
rována 764
umě@@ 764
vysokého 764
prosto@@ 764
táboře 764
odstavce 764
rami 764
recept 764
koláče 764
nehty 764
hovo@@ 764
islám 764
došel 763
indické 763
skleničku 763
používejte 763
obvi@@ 763
berete 763
povo@@ 763
doktoři 763
hrách 763
ght 763
scott 763
šeně 763
ys 763
připadám 763
věčný 763
španělské 763
odpad@@ 763
zavazadla 763
kubá@@ 763
main 763
dový 763
posláním 763
sd@@ 763
neumíš 762
joh@@ 762
lec@@ 762
otevřenou 762
alizace 762
e-mailové 762
spro@@ 762
prodejce 762
víza 761
občerstvení 761
08 761
špič@@ 761
rozvinu@@ 761
nevšiml 761
liš@@ 761
prázd@@ 761
try 761
zůstá@@ 761
mart@@ 761
sdělit 761
mara@@ 761
opustí 760
sestrou 760
dluž@@ 760
sever@@ 760
nuda 760
antonio 760
křesťanské 760
vlaky 760
panelu 760
tik 760
sci@@ 760
singapuru 760
placené 760
snažte 760
cházelo 760
vyřídit 760
kámoše 759
děsivé 759
vym@@ 759
sousedy 759
kamarádky 759
tréninku 759
90. 759
zatčení 759
španěl@@ 759
risk@@ 759
neudělá 759
páru 759
africké 759
místním 759
virtu@@ 759
p.@@ 759
zer 758
vyhov@@ 758
stávajících 758
vadit 758
scény 758
křesťan@@ 758
mena 758
dejme 758
píte 758
mez@@ 758
klinické 758
letošním 757
tendenci 757
právního 757
tradičních 757
akci@@ 757
dvůr 757
odejdu 757
dří@@ 757
ždí 757
centů 757
příměří 757
relativní 757
zachra@@ 757
klid@@ 756
stanovení 756
podělit 756
ní. 756
nasazení 756
oken 756
yan@@ 756
hongkongu 756
nebuďte 756
polis 756
ktu@@ 756
dneš 756
rei@@ 756
duševního 756
myš 756
nuli 756
sových 756
islámu 756
změnily 755
seriálu 755
bert 755
nis 755
kau@@ 755
samostatné 755
tných 755
vhod@@ 755
šířit 755
vnímání 755
kejte 755
chají 755
kous@@ 755
arti@@ 755
nádherně 755
vyhodili 754
bázi 754
úspory 754
zlepšuje 754
sekundy 754
rozumu 754
přijata 754
výběrem 754
rovy 754
posádka 754
pana@@ 754
sál 754
interaktivní 753
lei@@ 753
neboli 753
av@@ 753
kraj 753
melbourne 753
mary@@ 753
nabízet 753
upřednost@@ 753
nashledanou 753
přátelský 753
pev@@ 753
lano 753
porodu 753
rozmanitost 752
texas 752
profi@@ 752
vaný 752
použita 752
výdajů 752
padej 752
čistou 752
regulace 752
jacuzzi 752
měnové 752
přátelské 752
69@@ 752
nutá 752
tus 752
wordpress 752
lehčí 752
vědom 751
společná 751
zmiz 751
diplo@@ 751
jednotku 751
podobu 751
teku@@ 751
noví 751
jského 751
plánů 751
chystáte 751
interní 751
oddíl 750
hovory 750
zásilky 750
vlivem 750
pustíte 750
knutí 750
chut@@ 750
onů 750
uvedení 750
konvici 750
fantastické 750
metr 750
jedny 750
sovětského 750
strýček 750
totálně 750
prosa@@ 750
knihovně 749
cykli@@ 749
dodrž@@ 749
vyhlídky 749
věky 749
parní 749
hotelový 749
tábo@@ 749
trezor 749
vyskytuje 749
touhy 749
navští@@ 748
svítí 748
severním 748
sítích 748
novému 748
zjistím 748
kyslíku 748
logii 748
zéland 748
sovětský 748
nastane 748
sedím 748
skal@@ 748
žluté 748
uvádě@@ 748
vém 748
zastavili 748
nutnosti 748
vytáhnout 747
ges 747
psychi@@ 747
smi@@ 747
scéně 747
mýlil 747
north 747
rozhodnete 747
stranách 747
důchod@@ 747
tmavé 747
reaguje 747
4.0 747
tagy 747
rekla@@ 747
t… 747
myšle@@ 747
peking 747
objevovat 746
prádla 746
kir@@ 746
jones 746
kráva 746
církvi 746
směs 746
potu@@ 746
dovoleno 746
nalezena 746
summitu 746
disney 746
360 746
předpo@@ 746
78@@ 746
objí@@ 746
médiích 746
podivné 746
japonci 745
matematika 745
nico@@ 745
objektů 745
posezení 745
vystří@@ 745
vyslov@@ 745
dostávají 745
zlatá 745
hýbat 745
agenta 745
zdravější 745
ré@@ 745
obtíž@@ 745
částka 745
dít 744
bir@@ 744
neobvyklé 744
miminko 744
spadla 744
otevřena 744
vlaková 744
nin 744
ptají 744
guesthouse 744
štítek 744
moudrosti 743
třiceti 743
tvorba 743
ovače 743
bílou 743
svědků 743
sý@@ 743
síš 743
spoje@@ 743
konfliktů 743
azyl 743
bakterie 743
lete@@ 743
hříš@@ 743
chyť 743
objemu 742
kombin@@ 742
odejde 742
ovatele 742
residen@@ 742
vzbu@@ 742
filtr 742
hot 742
odhalení 742
posouzení 742
běžných 742
ohromující 742
land@@ 742
věrnost 742
mile 742
vrtulník 742
tvrd@@ 742
inf@@ 742
sdělení 742
ac 742
profilu 741
bohů 741
nemovitosti 741
uplat@@ 741
stolní 741
marina 741
toaletou 741
cio 741
tričko 741
holand@@ 741
ochranné 741
nezaměstnanost 741
minulé 740
diaman@@ 740
cizích 740
nací 740
slá@@ 740
stit 740
vyrá@@ 740
21@@ 740
molly 740
požadované 740
naslouchat 740
občan 740
používán 740
šampaňské 740
špinavé 739
vedu 739
states 739
koliv 739
daném 739
zahájit 739
zahradní 739
chlu@@ 739
lišit 739
společenský 739
distribuce 739
župany 739
lovým 739
reda@@ 739
kucha@@ 739
oži@@ 739
dánsko 738
spokojená 738
nadějí 738
razil 738
asistent 738
kretén 738
chicagu 738
korán 738
překladu 738
vypráví 738
nepocho@@ 738
michaela 738
finančním 738
smíšené 738
summit 738
věcem 738
bad 737
záři@@ 737
bývalého 737
bám 737
všimli 737
žádostí 737
zemřou 737
tvůrčí 737
lene 737
benzín 737
obec@@ 737
ulic 737
mladík 737
ztracený 737
vegetariá@@ 737
neomezený 737
atmosféře 737
fire@@ 736
chovají 736
nemohlo 736
doč@@ 736
použije 736
valen@@ 736
zlomil 736
růží 736
rozu@@ 736
koruna 736
nezávislý 736
novy 736
tivním 736
propuštěn 736
nějakých 736
ers 736
představila 736
sešli 736
témat 736
dobách 735
proká@@ 735
žu@@ 735
inženýr 735
ubí@@ 735
zky 735
zdravotních 735
1986 735
sbo@@ 735
optimální 735
hrdí 735
centrá@@ 735
chen 735
něným 735
sehnal 735
násob@@ 735
doufala 735
vádí 735
zota@@ 735
satan 735
nále@@ 735
vývojář 734
izraelské 734
firefoxu 734
run@@ 734
modifi@@ 734
průzkum@@ 734
plochy 734
lované 734
vsa@@ 734
zové 734
stvu 734
1979 734
ér 734
met 733
řízené 733
krádež 733
terry 733
doporučené 733
písnička 733
mira@@ 733
:3@@ 733
procházka 733
příčina 733
doufá 733
dohlí@@ 733
vstá@@ 733
nezaměstnanosti 733
dávka 732
planet 732
stojíme 732
plynu@@ 732
držíš 732
odevz@@ 732
hně@@ 732
plakat 732
lesů 732
bow@@ 732
superior 732
oknem 732
placení 732
podlaze 732
řel 731
premium 731
nap@@ 731
tre 731
nejlíp 731
livou 731
obchodníci 731
jedna@@ 731
palce 731
přehlí@@ 731
nepřátel@@ 731
jake 731
hai@@ 731
střeše 730
pokoj@@ 730
objektu 730
knížky 730
kopce 730
light 730
metodu 730
opustili 730
agenti 730
získávání 730
koko@@ 730
cítíme 730
schránky 730
vešel 730
infi@@ 730
ozbrojených 729
zítřka 729
nejjednodušší 729
převod@@ 729
bojov@@ 729
nejdražší 729
cer 729
úz@@ 729
fy@@ 729
kolekti@@ 729
jarní 729
bami 729
výměnou 729
cházel 729
vyklá@@ 729
dálnici 728
nedívej 728
střediska 728
prší 728
ec 728
odě@@ 728
helen 728
kavárně 728
lháři 728
watch 728
oc@@ 728
nemoc@@ 728
sing@@ 728
síte 728
gr@@ 728
monitorování 727
platím 727
udělalo 727
minutová 727
plyne 727
krysy 727
clu@@ 727
techniku 727
pozd@@ 727
ning@@ 727
bek 727
ø@@ 727
některými 727
seo 727
fau@@ 727
odra@@ 727
stoupá 727
07 726
vyso@@ 726
roy@@ 726
tesla 726
00:06@@ 726
poptávku 726
dová@@ 726
generací 726
vyspat 726
pustíš 726
sporu 726
nepřišla 726
pati@@ 726
nejdelší 726
kufr 726
ffi@@ 726
šířka 726
abby 726
ec@@ 725
loňském 725
xy 725
skončení 725
volném 725
ukázali 725
zprac@@ 725
významným 725
oku@@ 725
sekundu 725
neode@@ 724
bavíme 724
power@@ 724
znovu@@ 724
water@@ 724
09 724
harvey 724
1960 724
vádě@@ 724
bojové 724
ochranou 724
pěknou 724
příjem@@ 724
nedostaneš 724
slevu 724
stopa 724
rozpoznat 724
f1 724
děla 724
transakcí 724
rát 723
hování 723
učím 723
fyzicky 723
stný 723
nuly 723
roztomilé 723
kasina 723
ík 723
tour 723
dovoz 723
zveřejnění 723
srov@@ 723
příše@@ 723
otevřeně 723
miss 723
ňák 723
pilo 723
šť 723
čtvr@@ 723
specializace 723
nehýbej 723
odpověd@@ 723
vypni 722
dřívější 722
levný 722
peněženku 722
uctí@@ 722
omluvu 722
kongre@@ 722
pochod@@ 722
mladého 722
nesty@@ 722
klien@@ 722
vědě 722
táhl 722
pek 721
car 721
jedí 721
chyt@@ 721
bavili 721
chari@@ 721
kyslík 721
veče@@ 721
jenny 721
fotoaparát 721
palubu 721
shar@@ 721
katastrofa 721
fara@@ 721
soucit 721
přihlaste 721
chudé 721
volají 721
4/@@ 721
cházejí 720
ostra@@ 720
přená@@ 720
asa@@ 720
deště 720
jšími 720
musely 720
poznatky 720
cht 720
sestře 720
tujete 720
půjčil 720
píšeš 719
uspokojení 719
potrvá 719
nedostatky 719
závaz@@ 719
dopadlo 719
drs@@ 719
odhad 719
leny 719
úplná 719
vstoupila 719
1.1 719
děla@@ 719
trval 719
zkur@@ 719
přímou 719
splá@@ 719
tému 719
odpočí@@ 718
trvala 718
pokle@@ 718
pání 718
rozhodčí 718
řům 718
komi@@ 718
měk@@ 718
žáci 718
donald 718
high 718
čtvrtá 718
odděle@@ 718
italská 718
out@@ 718
ami 718
kvali@@ 718
omylem 718
šatnou 718
lova@@ 718
hp 718
non-@@ 717
tský 717
koste@@ 717
dovolil 717
vzácné 717
tvůrci 717
pirá@@ 717
bry@@ 717
výměny 717
l.@@ 717
vista 717
vyhodil 717
zpo@@ 717
klima 717
důstojnost 717
mizí 717
prioritou 717
odveďte 717
kde@@ 717
angaž@@ 717
mistra 717
export 716
hejte 716
potíží 716
kyvadlová 716
zabý@@ 716
hnul 716
přínos 716
královnu 716
teče 716
schová@@ 716
pic@@ 716
kupóny 716
zil 716
dohledu 716
říši 716
way@@ 716
záměrně 716
intel 715
promo 715
koní 715
úni@@ 715
zována 715
klasický 715
point 715
růžové 715
turecka 715
stáli 715
monito@@ 715
roh 715
běhl 715
matt 714
bulharsko 714
probudit 714
zoufale 714
výbuchu 714
lovali 714
smutek 714
irsku 714
vole@@ 714
obrana 714
srb@@ 714
posou@@ 714
tis 714
kuřá@@ 714
л@@ 714
herci 714
oborů 714
tujte 714
cambridge 714
domácností 714
lnímu 714
ňuji 714
užitečný 714
najal 714
kyse@@ 714
velcí 714
kami@@ 714
identifikaci 714
přinu@@ 713
britského 713
datové 713
bodem 713
charlotte 713
troubou 713
teni@@ 713
lží 713
dova 713
zvá@@ 713
časové 713
plocha 713
sin 713
rozloučit 713
pošta 713
napa@@ 713
dneme 713
samostatná 713
sal 712
lií 712
svědka 712
věčné 712
starým 712
livost 712
káte 712
skvělej 712
vyzkoušejte 712
security 712
costa 712
zbytky 712
plném 712
cam 712
indiá@@ 712
ekologické 712
připojil 712
zvyšovat 712
padnou 711
dící 711
infrastrukturu 711
ero@@ 711
velitelství 711
kulka 711
rií 711
rona 711
ovlivní 711
portugalsko 711
naci 711
proro@@ 711
done 711
zlepší 711
sor@@ 711
výstup 711
vyvolá@@ 711
připojením 710
službami 710
výjimečný 710
houby 710
kalendáře 710
diplom 710
královská 710
silách 710
africký@@ 710
jmenovat 710
plán@@ 710
obav 710
rády 710
tie 710
svr@@ 710
komentá@@ 710
osobám 710
návštěvníci 709
tole@@ 709
páně 709
konverzace 709
spotřebitele 709
nespl@@ 709
soutěži 709
zně 709
sm@@ 709
dosahuje 709
brečet 709
iniciativy 709
tto 709
zatk@@ 709
založeno 709
zabránilo 709
maj@@ 709
mene 709
stěží 709
pnout 709
chyťte 709
nní 708
s/@@ 708
minule 708
rozlou@@ 708
občanská 708
9:@@ 708
2/@@ 708
dorazili 708
balkonem 708
nápoj 708
průběh 708
postupu 708
kolekce 708
vězni 708
satelit 708
operačního 708
nechybí 707
popsal 707
soustavy 707
ša 707
rovým 707
těs@@ 707
používal 707
hledejte 707
bratranec 707
tiky 707
příčin 706
vydá@@ 706
nesnáší 706
listy 706
americkém 706
mes 706
látka 706
neztra@@ 706
trestní 706
nepočí@@ 706
stár@@ 706
výjimky 706
zaměřen 706
dívkou 706
souhlasila 706
vysokoškolské 706
mount 706
spokojen 706
osamě@@ 706
vyprávění 705
vůd@@ 705
úno@@ 705
zimu 705
zapomenu@@ 705
zůstaly 705
šovat 705
potvrzuje 705
řích 705
získává 705
mořská 705
plody 705
snímků 705
oko@@ 705
tlustý 705
touhu 705
zdůraznil 705
force 705
hrozbou 705
odborník 704
start@@ 704
soutě@@ 704
institute 704
hni 704
pálí 704
maďarsko 704
bangkok 704
chání 704
oškli@@ 704
67@@ 704
80. 704
přesměrováno 704
čtyřikrát 704
zezadu 704
příbuzní 703
ucho 703
naplno 703
nabídne 703
výmě@@ 703
nedorozumění 703
shledanou 703
jacka 703
studijních 703
aro@@ 703
ede 703
francisco 703
optimali@@ 703
český 703
umístit 703
generála 703
tlačí 703
ředitelem 703
stanovit 703
des@@ 703
drž@@ 702
linii 702
toxi@@ 702
nejmladší 702
gů 702
ք 702
elektrárny 702
bruce 702
zřídka 702
pala 702
myšlen@@ 702
tmy 702
dodání 702
užil 702
dne@@ 702
registro@@ 702
josef 702
veřejném 702
ily 702
ire 701
vyro@@ 701
kému 701
seděli 701
citlivé 701
turisty 701
gang 701
lující 701
využijí 701
skladování 701
druž@@ 701
hospodářskou 701
macu 701
nedáv@@ 701
-o 701
opuště@@ 701
lehký 701
neznáme 701
fotograf@@ 701
rozumné 701
spoleh@@ 700
flá@@ 700
nešel 700
živou 700
státům 700
i. 700
dolu 700
šle@@ 700
dokazuje 700
díváte 700
vyrovná@@ 700
ney@@ 700
břicho 700
vlh@@ 700
masky 700
ned@@ 700
pozdní 700
zadat 700
arthur 700
debil 700
okraji 700
hrdin@@ 700
korupce 700
oceá@@ 699
vari@@ 699
zován 699
poskytovatele 699
pruž@@ 699
uvažovat 699
zobrazuje 699
udržitelnosti 699
majore 699
klep@@ 699
městská 699
čnímu 699
četli 699
law 699
vítěz@@ 698
inám 698
nájem 698
silní 698
produkovat 698
poní@@ 698
bydlíš 698
osamělý 698
atlanti@@ 698
pevnosti 698
oblékání 698
posloucháš 698
bmw 698
manchester 697
strávila 697
120@@ 697
bankovnictví 697
horu 697
důkladně 697
mega@@ 697
vný 697
symbolem 697
přepravu 697
company 697
chvílí 697
sledovala 697
strážce 697
ao 697
městských 697
bruselu 697
zmrde 697
hlouběji 696
dozvěděli 696
spí@@ 696
neví@@ 696
čtvrt@@ 696
dolary 696
rozsudek 696
rozešli 696
sley 696
zobrazovat 696
aném 696
střelec 696
church 696
tvorbu 696
pokrytí 696
olympi@@ 696
změnou 696
vzkříšení 696
rysy 696
nejedná 695
laskavě 695
příslušnými 695
složka 695
pětkrát 695
soustředě@@ 695
škou 695
bej@@ 695
zdůraz@@ 695
rujte 695
osu@@ 695
věnoval 695
nechodí 695
procen@@ 695
tas 695
ball 695
speciálních 695
klesl 695
vykou@@ 695
dlouho@@ 695
člun 694
příčinu 694
prohrá@@ 694
pali 694
dena 694
ipod 694
proroctví 694
sod@@ 694
jistej 694
manipu@@ 694
teddy 694
upír 694
vztek 694
tok 694
ex 694
dokončil 694
kritéria 694
státním 693
zničila 693
intelektu@@ 693
movou 693
simon 693
ller 693
fit@@ 693
odhodlání 693
úrokové 693
rozšiřuje 693
buje 693
simone 693
vizu@@ 693
kalorií 693
sobota 693
dodavatelů 693
administrativní 693
pytel 693
revi@@ 693
ovatel 693
způsobené 692
ktu 692
abysme 692
proveden@@ 692
obec 692
největšího 692
kořen@@ 692
dav 692
barů 692
nároky 692
uti@@ 692
vězně 692
komfort 691
milá@@ 691
strasse 691
transfor@@ 691
network 691
přitahuje 691
žích 691
seri@@ 691
tkách 691
čák 691
táhněte 691
mikeu 691
nejčastější 691
hodin@@ 691
ústav 691
zvedněte 691
technický 691
pilo@@ 691
ublížil 691
dlouhodobý 691
zásadě 690
anglického 690
sonovi 690
ptáky 690
metri@@ 690
šti@@ 690
považovány 690
měři@@ 690
legenda 690
ďme 690
vztazích 690
hana 690
zohled@@ 690
minutami 690
minimali@@ 690
system 690
aktiva 690
umělce 690
trum@@ 690
konečný 690
protož 690
jakýmkoliv 690
úder 690
jemně 690
kup 689
povahy 689
cvo@@ 689
závody 689
mím 689
boy@@ 689
10:@@ 689
chicago 689
systémové 689
vyvolává 689
požaduje 689
právech 689
časté 689
skleníkových 689
3/@@ 689
20-@@ 689
dojdu 689
pamatuje 689
prosit 689
matemati@@ 688
hodinami 688
věta 688
zvláš@@ 688
aga@@ 688
nedokázala 688
svolení 688
báječné 688
katie 688
dil@@ 688
energetiky 688
naklá@@ 688
gold 688
horký 688
doplňků 688
hlavními 688
republiká@@ 687
dohledem 687
poskytl 687
kongu 687
zazpí@@ 687
technologických 687
sliby 687
rách 687
lokali@@ 687
berg@@ 686
senátu 686
porsche 686
sebral 686
vzrostl 686
květ 686
interdisciplinární 686
naučte 686
náhod@@ 686
ecb 686
přátel@@ 686
líbíš 686
thu@@ 686
schvá@@ 686
gue@@ 686
nachy@@ 686
pohřeš@@ 686
počínaje 686
300@@ 686
nedovo@@ 686
← 686
nelíbilo 686
prokletí 686
instagram 685
bní 685
nezasta@@ 685
ros 685
vysvětlovat 685
balíčky 685
ovaného 685
závodu 685
pobřežní 685
jmenovala 685
muse@@ 685
has@@ 685
lů@@ 685
kapitalismu 685
obvyk@@ 685
zbabě@@ 685
sofie 685
vyřeší 685
chudí 685
pochopila 685
lesní 685
on-@@ 685
čerstvý 685
milo 685
penězích 684
pej 684
tuju 684
žáků 684
surovin 684
aktivi@@ 684
vybaven 684
hat@@ 684
bílých 684
ocel 684
konkurenci 684
předpokládat 684
zajímavých 684
apartment 684
mni@@ 683
bala 683
nického 683
ďá@@ 683
krást 683
wol@@ 683
vrchní 683
poji@@ 683
poklá@@ 683
měst@@ 683
masivní 683
výhoda 683
popovídat 683
00:04@@ 683
probí@@ 683
pku 683
kyle 683
blbá 683
omá@@ 683
předložit 683
vodních 683
válek 683
užili 683
jižním 683
půda 682
zastavila 682
žete 682
rod 682
valley 682
kufru 682
dani@@ 682
sté@@ 682
řící 682
neudělali 682
mluv@@ 682
měnu 682
zamilovala 682
pomal@@ 682
levou 682
cru@@ 681
poplach 681
šela 681
zachová@@ 681
odbor@@ 681
třebaže 681
vyvinout 681
návod 681
dona 681
ved@@ 681
žné 681
vyzval 681
telní 681
kontaktů 681
vykonávat 681
-díky 681
italský 681
bytů 681
pový@@ 681
odvolá@@ 681
rozmani@@ 681
národ@@ 681
nicky 681
domini@@ 681
váhy 681
desá@@ 681
opakování 680
story 680
rich@@ 680
oblíbeným 680
neměj 680
rybu 680
hvězdu 680
gramů 680
naznačují 680
1981 680
ideálním 680
ea 680
pás 680
samsung 680
nadšený 680
stížnosti 680
u-@@ 679
napá@@ 679
hladinu 679
kty 679
špatným 679
15-@@ 679
rozumíme 679
pni 679
bour@@ 679
usi@@ 679
cham@@ 679
west@@ 679
к@@ 679
nabízeny 679
šťastnější 679
mírové 678
tragi@@ 678
rozvíjí 678
odebrat 678
rozlu@@ 678
levá 678
doprovod@@ 678
ležel 678
lisa 678
kův 678
napi@@ 678
studená 678
jskou 678
deníku 678
rad 678
točit 678
konají 678
sezóny 677
nářadí 677
zničili 677
dokončena 677
cigaretu 677
slovensko 677
perfektně 677
seže@@ 677
zjednodu@@ 677
catherine 677
ic 677
kouzla 677
funk@@ 677
necké 677
pronásledování 677
kouř 677
vymazat 677
přípravě 677
izraelský 677
odměny 677
křičí 677
poje@@ 677
tvůrce 677
odvolání 677
prohlé@@ 676
poruchy 676
loňského 676
naklo@@ 676
potápění 676
fanoušky 676
přestali 676
rtů 676
utě@@ 676
výšky 676
filipíny 676
vojen@@ 676
vzbuď 676
programem 676
stejných 676
novinář 676
měn 676
technickou 676
podobá 676
bohyně 676
fotek 676
mbo@@ 676
užij 676
zavede 676
scéna 676
špat@@ 676
šíleně 675
písem@@ 675
zlepšovat 675
aktivovat 675
kraje 675
vteřinku 675
potenciálu 675
stor@@ 675
carl 675
explorer 675
tným 675
přiveďte 675
1975 675
cii 675
ep@@ 674
m… 674
zový 674
vzrušení 674
obávat 674
tyg@@ 674
jackie 674
michelle 674
obklí@@ 674
landu 674
rovnost 674
sol 674
bili 674
ovacího 674
1982 674
fanoušků 674
nechají 674
bloku 674
výz@@ 674
transformace 673
terapeu@@ 673
riskantní 673
uspě@@ 673
ošetření 673
finan@@ 673
měr@@ 673
správě 673
podzemní 673
dovat 673
vyuč@@ 673
trénin@@ 673
dnešních 673
zdravotnických 673
jakkoli 673
pyšná 672
čina 672
košile 672
adrese 672
irák 672
potká@@ 672
vnitro@@ 672
povídali 672
standardů 672
komplex@@ 671
zodpovědní 671
nesmysly 671
obda@@ 671
kompiláce@@ 671
náhra@@ 671
fs 671
napadl 671
dělníci 671
bech 671
větr@@ 671
srde@@ 671
dovolí 671
vteřinu 671
žehnej 671
niči@@ 671
zesí@@ 671
testovací 671
cestoval 671
připravili 671
nit@@ 671
letadlem 671
styku 671
klíčovou 670
tská 670
formální 670
stroji 670
jejími 670
neznal 670
chrome 670
používali 670
přivá@@ 670
stýská 670
úkolu 670
krásných 670
šéfem 670
britských 670
spím 670
zrcadla 670
sezóna 670
vyje@@ 670
liberá@@ 670
poznamenal 669
taylor 669
výtahu 669
tovaných 669
pyt@@ 669
křičel 669
nali@@ 669
konflikty 669
zdůrazňuje 669
base 669
zásu@@ 669
sboru 669
anony@@ 669
cela 669
urá@@ 669
hrubý 669
spolehlivost 669
nt 669
přepínám 669
třetinu 669
liberální 668
kilo@@ 668
zvyk 668
žer@@ 668
řského 668
coby 668
šerife 668
paroháč@@ 668
střílí 668
hrabě 668
zadr@@ 668
komponenty 668
170 668
nebojí 668
nedokon@@ 668
vynalo@@ 668
popra@@ 668
mentu 667
žuje 667
dýchání 667
schůzka 667
lase@@ 667
proměn@@ 667
bau@@ 667
úspěšní 667
nějací 667
§ 667
mrtev 667
okolnosti 667
výhodou 667
nen@@ 666
fox 666
evropském 666
xp 666
sej@@ 666
vítám 666
dozví 666
táto 666
drak 666
skla 666
číslem 666
poštu 666
rozsáhlou 666
banda 666
atlan@@ 665
mize@@ 665
hel 665
neru@@ 665
monstrum 665
řených 665
vech 665
považováno 665
vlastnit 665
síť@@ 665
prosíme 665
ware 665
namo@@ 665
5-hvězdičkový 665
přiblí@@ 665
začneš 665
zkoumá 665
tower 665
efekty 664
pochopí 664
hilton 664
obchodech 664
projevuje 664
přimě@@ 664
tovém 664
ocení 664
balíčku 664
patřit 664
ktory 664
fantazie 664
příjezd 664
historický 664
lící 664
kontinentu 664
apod 664
středově@@ 664
tama 664
1969 664
působ@@ 664
adres 663
vyn@@ 663
bratrovi 663
nejznámější 663
nezávisle 663
wn 663
lná 663
šeného 663
pochybuji 663
911 663
nenajdete 663
přívě@@ 663
stavi@@ 663
shromažďování 663
důkazem 663
bít 663
vyslech@@ 663
rací 663
,00 663
přesvědčil 663
zabiják 663
snědl 662
šce 662
nejvyšším 662
tank 662
zahrnu@@ 662
odsouzen 662
hlas@@ 662
cur@@ 662
dráhy 662
norem 662
kevin 662
vykop@@ 662
činidlo 662
trasy 662
básník 662
bare@@ 662
odvo@@ 661
satelitním 661
jeruzaléma 661
námořnictva 661
rybí 661
latin@@ 661
přimět 661
porod@@ 661
dt 661
hladina 661
udržování 661
startu 661
pořad 661
polá@@ 661
tovým 661
vesmírné 661
námořnictvo 660
ryan 660
1973 660
štít 660
spáchal 660
hannah 660
sluš@@ 660
ocho@@ 660
ochrání 660
útočí 660
brz@@ 660
vzestup 660
utajení 660
zvyšují 660
četné 660
potřetí 660
blan@@ 660
rum 660
čeného 660
šedesát 660
oznámit 659
konzervativní 659
gin 659
vytvo@@ 659
smůlu 659
zoufalství 659
tituly 659
desí@@ 659
zpomal 659
hlubší 659
bratří 659
přiná@@ 659
fóra 659
postižením 659
o.@@ 659
prudce 659
zachraň 659
eta@@ 659
babičky 659
case 659
památ@@ 659
metodi@@ 659
vězňů 659
realizace 658
chybíš 658
mraky 658
hongkong 658
nápadů 658
masáže 658
prej 658
fore@@ 658
spoléhat 658
porazil 658
říkej 658
dee 658
hřišti 658
získané 658
services 658
chen@@ 658
nevěříte 658
škrá@@ 658
zasílání 658
označil 658
extré@@ 657
rozptý@@ 657
principu 657
novinka 657
kněží 657
marty 657
pravděpodobností 657
krea@@ 657
dluží 657
nevzpomínám 657
spojenými 657
tisíciletí 657
dívají 657
zeměděl@@ 657
neuděláš 657
kašlu 657
parchante 657
kino 657
tník 657
souse@@ 656
ohledech 656
stanic 656
zachytit 656
řádek 656
zacházet 656
určitá 656
objednal 656
stoupil 656
image 656
naléhavé 656
ep 656
konkrétních 656
klidná 656
astro@@ 656
řeného 656
konání 656
diskriminace 656
nastup 655
švédsku 655
pohnout 655
1968 655
zápasů 655
domácího 655
telka 655
nera 655
použila 655
protiv@@ 655
zda@@ 655
nalo 655
china 655
přinesli 655
vač 655
lk 655
postarej 655
morgan 655
instalovat 655
amo@@ 655
řádně 655
potě@@ 654
zujte 654
množstvím 654
dvanácti 654
doprav@@ 654
dův 654
spat@@ 654
zvládl 654
slečnu 654
životních 654
source 654
zakle@@ 654
králové 654
manželovi 654
košík 654
šem 654
koktejly 654
přehrávání 654
under@@ 654
1972 654
vice@@ 654
sere 654
\ 654
chápání 654
dosti@@ 654
obětovat 654
zdvoři@@ 653
cenný 653
vzděla@@ 653
vir@@ 653
profesioná@@ 653
gio 653
zabijou 653
cvok 653
poklo@@ 653
zamo@@ 653
čtete 653
plou@@ 653
potravin@@ 653
podrob@@ 653
zvědavý 653
stížnost 653
rey 653
game 653
učině@@ 652
položte 652
veni 652
trž@@ 652
opačném 652
álů 652
trest@@ 652
leo@@ 652
zatknout 652
postupovat 652
rozdr@@ 652
jediní 652
geografi@@ 652
čokoládu 652
opera@@ 652
přeh@@ 652
připomí@@ 652
roy 652
stranám 652
mimořádné 652
vevnitř 652
06@@ 652
úro@@ 652
99@@ 651
splňuje 651
vypro@@ 651
létání 651
pozo@@ 651
nemysli 651
box@@ 651
vznikají 651
technology 651
umýt 651
stně 651
make@@ 651
pomsta 651
lovec 651
ňovala 651
způsobila 651
bku 651
ač 651
samostatnou 650
kanceláří 650
sche@@ 650
pláž@@ 650
francouzsky 650
vlastnost 650
vědo@@ 650
lídři 650
vyšších 650
zombie 650
následujícím 650
silo 650
64@@ 650
eric 650
zklamal 650
hospodářská 650
xem 650
proběhla 649
1970-2016 649
politicky 649
stisk@@ 649
out 649
princezno 649
pouště 649
nemusela 649
tokio 649
podro@@ 649
běžného 649
lož@@ 649
sebevražda 649
materi@@ 649
hospo@@ 649
sady 649
demokrati@@ 648
hotov@@ 648
nechápete 648
shel@@ 648
příj@@ 648
přítom@@ 648
žaludku 648
učeb@@ 648
přemýšlí 648
dom 648
grafie 648
čtvrť 648
záznamu 648
kosme@@ 648
nabi@@ 648
placenou 648
paříž@@ 647
ot 647
pláče 647
autoři 647
šejí 647
jací 647
sbírku 647
major 647
mlčení 647
fórum 647
omluv 647
nezákon@@ 647
kula@@ 647
rozči@@ 647
zkoušet 647
římské 647
určeny 647
generálního 647
sms 647
žár@@ 646
ore@@ 646
hromadu 646
stíha@@ 646
dámo 646
zmrz@@ 646
dívejte 646
žkou 646
zabijte 646
moh@@ 646
seržant 646
ters 646
britové 646
dnete 646
apa@@ 646
staňte 646
pronajmout 646
obdrželi 646
druži@@ 645
sten@@ 645
leteckých 645
sm 645
snížila 645
hosti@@ 645
charakteru 645
počítá@@ 645
nalevo 645
vývoz 645
maminku 645
vlastními 645
nor 645
způsobilo 645
hmyz 645
starost@@ 645
jste-li 645
středních 645
dovede 645
využil 645
bývalo 645
list@@ 645
zásilku 645
posunout 645
takovéto 645
povahu 645
oživení 644
rodin@@ 644
ance 644
martine 644
utíkejte 644
předmětu 644
norsko 644
cc@@ 644
zaměstnanec 644
dow@@ 644
výstavy 644
dramati@@ 644
rovno@@ 644
om 644
rakousku 644
zpřístup@@ 644
lincoln 644
stručně 644
informacemi 644
nedě@@ 643
autor@@ 643
mmm 643
dotk@@ 643
ukázaly 643
krávy 643
výzkumníci 643
posílám 643
řen 643
zůstanete 643
rozen@@ 642
titulek 642
bostonu 642
1978 642
drive 642
soused@@ 642
leč 642
jablko 642
sušenky 642
nepřetrži@@ 642
stoup@@ 642
oku 642
náručí 642
ple 642
ňovali 642
blázni 642
maro@@ 642
beta 642
bed@@ 641
koru@@ 641
spiknutí 641
zakry@@ 641
nedám 641
79@@ 641
zápasu 641
děj 641
úmyslně 641
personálu 641
výcviku 641
zmatek 641
dveřím 641
společenská 641
oho@@ 641
enterprise 641
bodě 641
bbc 641
financ@@ 641
destinace 641
ochrá@@ 640
hof 640
44@@ 640
vojska 640
symboly 640
uspět 640
párkrát 640
budoucím 640
veď 640
prospě@@ 640
kopí@@ 640
vaz 640
roztomilá 640
čokolá@@ 640
zujete 640
bohatých 640
způsobují 640
šeni 640
kvalifikaci 640
nejenže 640
sklenici 640
uvolnění 640
pin 640
vytá@@ 640
pákistá@@ 639
byt@@ 639
zóně 639
kohokoliv 639
islandu 639
obyčejná 639
nutnost 639
zaměstnanosti 639
časový 639
dových 639
panely 639
tech@@ 639
bezplatnou 639
66@@ 639
opí@@ 639
abra@@ 639
00:07@@ 639
só@@ 639
odpovídají 639
finsko 639
dívali 638
vyzývá 638
-dobrý 638
end 638
motý@@ 638
komunitu 638
ckej 638
telnější 638
rolí 638
působivé 638
totální 638
kódování 638
nících 638
zvládnete 638
informacím 638
kazuje 638
zítřek 637
code 637
excelence 637
maximum 637
lkou 637
ris@@ 637
ferrari 637
vnímat 637
odejděte 637
slyšíme 637
přivedla 637
drama 637
vynu@@ 637
softwa@@ 637
titulky 637
hack@@ 637
gers 637
souboj 637
jamie 637
hard@@ 637
držíme 637
obličeji 637
lounge 637
slávy 637
podobnou 637
agresivní 637
chránil 637
dráhu 637
vzná@@ 636
era 636
odle@@ 636
varnou 636
vylo@@ 636
limity 636
knou 636
hr 636
kout 636
nizozemsko 636
napravo 636
anější 636
obklo@@ 636
young 636
pohybují 636
očekávají 636
turisté 636
dana 636
vydělal 636
ings 636
úplnou 636
mobili@@ 635
brown 635
wi 635
vězeň 635
videu 635
háje 635
postavu 635
hospodářských 635
tuku 635
vs 635
salát 635
říkalo 635
říká@@ 635
vyhodno@@ 635
dívce 635
pracujících 635
nedosta@@ 635
sbírka 635
blesk 635
pokutu 635
středně 635
příchodu 635
tělu 635
zahájila 635
nesmr@@ 635
trpěl 635
graf 635
hluboký 635
fr 634
řecka 634
pěstování 634
jsem@@ 634
gua@@ 634
finchi 634
platformě 634
sendvič 634
ramena 634
divoké 634
mládež 634
dokumen@@ 634
stati@@ 634
kamará@@ 634
odvézt 634
zku 634
uplynulých 634
water 634
obrazovku 634
imunitní 633
slevy 633
sť@@ 633
ruší 633
průkop@@ 633
chlo@@ 633
akcep@@ 633
pokouší 633
židovské 633
vklad 633
68@@ 633
nik 633
vedeni 633
relaxovat 633
bert@@ 633
nesahej 633
slyšení 633
místního 633
lcd 633
kvan@@ 633
nábožen@@ 633
br 633
vyber 633
oční 632
maxi@@ 632
použité 632
návštěvníky 632
novej 632
mentální 632
příplatek 632
přemýšlejte 632
scen@@ 632
můra 632
ubohý 632
umírám 632
jennifer 632
zemního 632
trůn 632
lice 632
recep@@ 631
slíbit 631
přiřa@@ 631
mocné 631
stravy 631
pije 631
přiblížit 631
zotavení 631
hodnotou 631
hob@@ 631
autobusové 631
loď@@ 631
podrž 631
oxidu 631
říkejte 631
vědeckého 631
soused 631
nep@@ 631
pořídit 631
vývo@@ 631
pokoušel 631
neva@@ 631
jmenován 631
potenciálně 631
velitele 631
ád@@ 630
programování 630
cool 630
zélandu 630
ilu@@ 630
destinací 630
účastníky 630
rální 630
bibli@@ 630
tehdejší 630
utr@@ 630
kolektivní 630
volvo 630
trápení 629
rovnováhy 629
staral 629
ukli@@ 629
úchy@@ 629
án 629
nechme 629
získáme 629
zločinci 629
tašky 629
oti@@ 629
hoval 629
samém 629
štiny 629
omlouváme 629
pr 629
belle 629
vědě@@ 629
potřeb@@ 629
vyplatí 629
rozuměl 628
léčeb@@ 628
omezen@@ 628
reakcí 628
good@@ 628
vytvořené 628
pleť 628
tropi@@ 628
sr 628
císa@@ 628
kes 628
naučím 628
rozvíjejících 628
dovolíte 628
nepořádek 628
grafické 628
datových 628
neh@@ 627
faktor 627
ušet@@ 627
bai@@ 627
hezčí 627
postavena 627
bývalé 627
mlč 627
román 627
ýmu 627
nevlastní 627
zdají 627
bezdrátové 627
parádní 627
pere 627
mrt@@ 627
pero 627
vyplnit 627
rozhoduje 627
sestře@@ 627
msc 626
unes@@ 626
aktivitu 626
přísluš@@ 626
nahá 626
jakákoli 626
původního 626
1950 626
uspořádat 626
vytvořeny 626
sata@@ 626
patra 626
tvůr@@ 626
svobodně 626
liví 626
nců 626
naser 626
volá@@ 626
fem 626
gori@@ 626
písmena 626
poklesu 626
dočasné 626
srovná@@ 626
squ@@ 626
šlá@@ 626
rušit 625
střechy 625
potřebných 625
hrdá 625
osvě@@ 625
kurt 625
v-@@ 625
okolní 625
červeného 625
přiveď 625
znění 625
psem 625
strčil 625
tere@@ 625
rasy 625
kreténe 625
abraham 625
-jsi 625
nejmodernější 625
marii 625
přiznání 625
auti@@ 625
sso 625
vylí@@ 625
ějších 625
mask@@ 625
přidej 624
lal 624
dařilo 624
nezají@@ 624
chle@@ 624
překá@@ 624
běžel 624
vypi@@ 624
atmosféry 624
holek 624
parchant 624
vztahují 624
jakákoliv 624
používány 624
rozum@@ 624
objekti@@ 624
jó@@ 624
komory 624
krva@@ 624
právníci 624
chil@@ 624
rko 624
1971 624
river 624
pochy@@ 624
veno 624
bloky 624
zad 624
dluhopisů 623
cas 623
záruky 623
sluncem 623
onem 623
probu@@ 623
tabulky 623
hd@@ 623
tana 623
nate 623
howard 623
anému 623
gun@@ 623
neřekli 623
ohrožuje 623
zraněn 623
požáru 623
usnad@@ 623
jedine@@ 623
spolubydlící 623
potrubí 623
bila 623
petere 623
07@@ 623
dodáv@@ 623
slav@@ 623
zmáč@@ 623
tero@@ 623
jednal 623
sná@@ 622
wer@@ 622
třílůžkový 622
celku 622
02@@ 622
taktéž 622
nevrátím 622
automobily 622
krém 622
žování 622
arabských 622
tanky 622
book 622
fó@@ 622
hardware 622
matek 622
trapné 622
přitaž@@ 622
vlí@@ 622
oplátku 622
úsměvem 622
odteď 622
písek 622
zasloužíš 621
ohni 621
tvrdá 621
šeným 621
oslava 621
slovu 621
1948 621
podnikatelské 621
opatrná 621
považ@@ 621
blog@@ 621
vysílat 621
shora 621
nesmys@@ 621
mond 621
spad@@ 621
vese@@ 621
progra@@ 621
uzaví@@ 621
židy 621
instant 620
terasa 620
teroristické 620
vrst@@ 620
mona@@ 620
neří@@ 620
milo@@ 620
přečti 620
ati@@ 620
studentské 620
záběry 620
čr 620
bolestí 620
nepůjdeš 620
zajetí 620
analýze 620
dodavatele 620
kříže 620
epidemie 620
romeo 620
kneme 619
uslyšíte 619
prince@@ 619
projde 619
sponzo@@ 619
bydlel 619
terapii 619
metrech 619
představivost 619
bara@@ 619
kol@@ 619
nné 619
tuj 619
podpoří 619
alexan@@ 619
policií 619
závažné 619
nahý 619
léčení 619
sežeň 619
vostí 618
subjekty 618
sos 618
hodlá 618
hospodaření 618
vzác@@ 618
pohle@@ 618
nacházíte 618
nerv@@ 618
autopůjčovna 618
tální 618
napadá 618
jin 618
nevysvět@@ 618
báseň 618
výrob@@ 618
egyptské 618
malin@@ 618
vložte 618
katoli@@ 618
přednášky 618
newsletter 618
opat@@ 618
myčku 618
jedinečná 618
filipí@@ 618
éra 618
písní 618
šní 618
mála 617
budapešť 617
odvá@@ 617
jednotlivci 617
joey 617
barry 617
tabulka 617
poc@@ 617
schody 617
jason 617
řídící 617
ochra@@ 617
ambice 617
napíšu 617
pce 617
lor@@ 617
čteš 617
zavražděn 617
rovné 617
ková@@ 617
vyléčit 617
upev@@ 616
michaeli 616
takovými 616
deska 616
přepravní 616
itunes 616
písku 616
povole@@ 616
zao@@ 616
♪ 616
účinků 616
užívá 616
nalezli 616
pizza 616
dokto@@ 616
lorde 616
zasloužil 616
kolá@@ 616
ev@@ 616
aparthotel 616
hlé@@ 616
nemyslí 616
podezřelé 616
bie 616
umy@@ 616
teoreticky 616
prd 616
spolehlivý 616
program@@ 615
vlakového 615
oliver 615
špina@@ 615
zasraná 615
xxx 615
utrá@@ 615
j. 615
přežije 615
kavárny 615
motorů 615
vycházet 615
aku@@ 615
klientům 615
vracejí 615
frekvenci 615
šaty@@ 615
pohledy 615
vie 615
spra@@ 615
soudem 615
neb 615
zakázané 615
vražd 615
ústní 614
lini@@ 614
ef@@ 614
holčičko 614
generátor 614
uvedli 614
stokrát 614
stavbu 614
odvětvích 614
licencí 614
stánu 614
neře@@ 614
stovek 614
kovány 614
zprávách 614
zestár@@ 614
částečný 614
ros@@ 613
osi@@ 613
výpočetní 613
zvláštních 613
ježíš@@ 613
koreje 613
jistou 613
deli@@ 613
rom@@ 613
přenést 613
uspořád@@ 613
počítám 613
náte 613
těžkých 613
počátkem 613
ušetříte 613
cek 613
svátky 613
tore 613
pracovník 613
livým 612
ruch 612
unesli 612
foundation 612
křesťan 612
přechodu 612
faktem 612
sezna@@ 612
zby@@ 612
soudy 612
předsedou 612
vzbudil 612
produktivity 612
úhel 612
zkurvený 612
uspořá@@ 612
zavřené 612
čtenáři 612
ubyt@@ 612
cent 612
ander@@ 612
livější 612
70. 612
podal 612
černém 612
údržbu 612
zamilovaný 612
mentá@@ 612
síd@@ 611
kristepane 611
populaci 611
báječný 611
jisk@@ 611
vděční 611
750 611
rs 611
slečny 611
joseph 611
nápojů 611
lii 611
vydělá@@ 611
sná 611
literatury 610
mysli@@ 610
poskytnutí 610
argentin@@ 610
žeme 610
vzta@@ 610
nahrávání 610
štěm 610
cených 610
zóna 610
sally 610
elektrický 610
zvyky 610
tori@@ 610
odpovědný 610
nechej 610
rudé 610
nezvládnu 610
pravidly 610
netýká 610
zava@@ 610
ztrátě 610
těžit 610
směř@@ 610
jedná@@ 609
zaznamená@@ 609
nerozumí 609
caroline 609
zatkli 609
gera 609
cestu@@ 609
podniknout 609
průměrně 609
začněme 609
reak@@ 609
sdělil 609
blízcí 609
okamžité 609
mato@@ 609
přírodu 609
zpracová@@ 609
stné 609
oblíbených 609
společenského 609
koukejte 609
sladká 609
doprovod 609
chudých 609
pozemek 609
diamant 609
mobilu 609
tlumo@@ 609
bary 609
aci 608
bird 608
oceně@@ 608
výkonné 608
llo 608
součásti 608
cla 608
okruhu 608
junior 608
křeslo 608
pas@@ 608
vejde 608
blbě 608
jinej 608
místními 608
pur@@ 608
držíte 608
disponuje 608
obvyklé 608
dubaj 608
institu@@ 608
učili 608
zpro@@ 608
mohanem 607
intelektuální 607
překvapivě 607
zahrnující 607
celému 607
nokia 607
vad@@ 607
nenechal 607
ložnicemi 607
petra 607
dálku 607
nesli 607
zvukové 607
audi 607
zdvi@@ 607
plic 607
poten@@ 607
ricku 607
pokání 607
tově 607
zaží@@ 606
mimo@@ 606
kovu 606
sp 606
zně@@ 606
neutrální 606
nechoďte 606
skenování 606
silniční 606
střílel 606
malovat 606
obrátí 606
vzhledu 606
pacien@@ 605
pily 605
kve@@ 605
vypněte 605
118@@ 605
přesněji 605
angu 605
pátra@@ 605
vkus 605
ul 605
leným 605
analyti@@ 605
urči@@ 605
efektivitu 605
začínal 605
módy 605
málokdo 605
smart 605
chové 605
zločinec 605
kteréž 605
učin@@ 605
zovaného 605
jíždě@@ 605
měří 605
osvěžující 605
uděl@@ 605
zveřejněno 605
makro@@ 605
přij@@ 605
choroby 605
nakr@@ 605
palestin@@ 604
tcích 604
létající 604
uměl 604
psychologi@@ 604
zar 604
výkonnost 604
nahrávky 604
alexander 604
postaral 604
žeh@@ 604
připraveny 604
křik 604
etické 604
1983 604
jay 604
dam 604
nuje 604
úzké 604
filmech 604
pet 604
lt 604
odstavci 603
nalezeny 603
vanu 603
peně@@ 603
psáno 603
zame@@ 603
narozeninám 603
vývojem 603
výroční 603
evaku@@ 603
klimatizovaný 603
oprava 603
trocha 603
nedokážeš 603
zákonodár@@ 603
úvě@@ 603
správném 603
produkti@@ 603
terase 603
kabe@@ 603
věty 603
posledně 602
123 602
tul@@ 602
snaž 602
připojí 602
jamese 602
pav@@ 602
zamilovaná 602
ovatelů 602
dla@@ 602
word 602
švýcar@@ 602
ghe@@ 602
pozor@@ 602
ag 602
nezbývá 602
síme 602
obor 602
věro@@ 602
uskutečnit 602
záha@@ 602
hněte 602
dohod 602
situován 602
1967 602
komentářů 602
neobtěž@@ 601
zajistili 601
důkla@@ 601
šetření 601
mia 601
žlutá 601
rozta@@ 601
dyho 601
čínskou 601
železnice 601
truch@@ 601
nevzal 601
rkou 601
not 601
andro@@ 601
uložení 601
bních 601
zbláznila 601
spouště@@ 601
nevidi@@ 601
gnu 601
uříz@@ 601
hů@@ 601
recese 601
animace 601
pošeti@@ 600
elektronických 600
deane 600
konkuren@@ 600
právním 600
žádných 600
propoje@@ 600
lékařem 600
1976 600
nezapomněl 600
vraždě 600
zka 600
procentní 600
vystoupit 600
pá 600
1974 600
seme@@ 600
autora 600
kostým 600
110@@ 600
rozmanitosti 600
usiluje 600
bajtů 600
podezřelého 600
slovní 600
viru 600
prosil 599
objevilo 599
nezapome@@ 599
md@@ 599
tag 599
vyzkou@@ 599
začle@@ 599
označ@@ 599
dávání 599
povědět 599
isabel 599
otroky 599
pozvala 599
splňují 599
vaného 599
stipendium 599
definovat 599
schůzce 599
1500 599
typický 599
pohledem 599
lituji 599
prostorách 599
player 599
energetických 599
sbírky 598
bního 598
alba 598
nere 598
jez 598
ane@@ 598
texti@@ 598
rozhodnou 598
muzeí 598
chází 598
želi 598
produktivní 598
velkému 598
monte@@ 598
pedagogi@@ 598
vraťme 598
chtě@@ 598
nerada 598
charakteristiky 598
pusy 598
plánov@@ 598
smůla 598
vypu@@ 598
řskou 598
dell 598
režisér 597
ft@@ 597
mýš@@ 597
galaxy 597
pracoviště 597
usnout 597
píšou 597
ekonomik 597
chlazení 597
vrstvy 597
vchod 597
zásob 597
titu@@ 597
významná 597
core 597
přispívají 597
široká 597
něm@@ 597
antalya 597
odporu 597
zových 597
upou@@ 597
zjišť@@ 597
zanechat 597
venkovské 597
vládce 597
experti 597
prostorné 597
pac@@ 597
vyspě@@ 597
pověděl 597
zařídil 596
zaplatili 596
clin@@ 596
úspěchem 596
manažery 596
přinášejí 596
zele@@ 596
piráti 596
obý@@ 596
kabel 596
rozvod@@ 596
madridu 596
zmínit 596
vědomím 596
rační 596
paula 596
důvěryhod@@ 596
priority 595
shromažďovací 595
zapí@@ 595
padáka 595
platil 595
výslovně 595
00:09@@ 594
ratifi@@ 594
voval 594
temple 594
iluze 594
odmítli 594
cizince 594
těžkou 594
nedostanu 594
zatížení 594
solidní 594
sázky 594
opovr@@ 594
vymýš@@ 594
logy 594
nai@@ 594
nosil 594
stříbro 594
indonésie 594
dluhopisy 594
arkti@@ 594
teorií 594
plav@@ 594
zlí 594
raketa 593
3.5+ 593
zenou 593
náboje 593
setká@@ 593
dur@@ 593
baby@@ 593
videí 593
šar@@ 593
majitelé 593
peni@@ 593
nastala 593
vzniklo 593
faktorem 593
šně 593
zakoupit 592
filmové 592
pošty 592
nejmen@@ 592
různým 592
účelu 592
slepá 592
promi@@ 592
klasifi@@ 592
čnosti 592
kluku 592
prch@@ 592
utí@@ 592
vystou@@ 592
krucinál 592
dných 592
obžal@@ 592
nejvhodnější 592
nezkla@@ 592
cole 592
horká 592
rozzlob@@ 592
obviněn 592
motor@@ 592
námitka 592
dosti 592
pořádá 592
zrych@@ 592
padáme 592
kněze 592
chyběla 591
poprav@@ 591
podrobné 591
továrna 591
připoj@@ 591
prost@@ 591
poloze 591
slevový 591
lovy 591
poznám@@ 591
historického 591
sledujeme 591
prohlásila 591
impul@@ 591
ujistil 591
směřuje 591
recyk@@ 591
pocti@@ 591
chud@@ 591
důsledkem 591
08@@ 591
tempem 591
cely 590
klíčovým 590
shromáždě@@ 590
chystal 590
střelba 590
táců 590
použito 590
takovému 590
kolega 590
odpově@@ 590
pokla@@ 590
tejte 590
elektřinu 590
zeptá 590
opakov@@ 590
vyrůstal 590
mky 590
mečem 590
24-hodinová 590
hovořil 590
lho@@ 590
stoupili 589
pozemku 589
zodpovědnosti 589
ost@@ 589
skutečných 589
kan 589
cházíme 589
stěžují 589
lala 589
báli 589
fotbalu 589
podnikatel 589
perspektivy 589
odpusťte 589
akademický 589
umírat 589
prí@@ 589
och@@ 589
tane@@ 589
prvně 589
argumenty 589
vynále@@ 589
unesl 589
slabá 589
sportovních 589
otto 588
doporučil 588
mladým 588
debile 588
top@@ 588
bra 588
mladou 588
rozdílné 588
draho@@ 588
jeremy 588
vyvinu@@ 588
220 588
písničky 588
zahy@@ 588
stráž 588
jeruzalém 588
desetiletích 588
podr@@ 588
kompen@@ 588
navštívili 588
vystra@@ 587
vnitřních 587
akademii 587
soud@@ 587
rekonstrukce 587
dán@@ 587
floridě 587
zvrá@@ 587
zavřeli 587
dějí 587
anti-@@ 587
21:@@ 587
záno 587
budík 587
milující 587
agente 587
květy 587
detekti@@ 587
učební 587
silným 587
skrom@@ 587
objektivní 587
politikou 586
jazyku 586
ničky 586
11:@@ 586
úna@@ 586
nym 586
maš@@ 586
znamen@@ 586
naivní 586
novo 586
slez 586
probudí 586
certifikace 586
bordel 586
dovolením 586
kujte 586
američany 586
litrů 586
zaměstnancům 586
vějších 586
ruskou 586
-jasně 586
pamatoval 586
cosi 586
eni 585
zip 585
apart@@ 585
překro@@ 585
lus 585
hitle@@ 585
lázeňské 585
vyrobené 585
stupuje 585
teroristi@@ 585
nekončí 585
vůni 585
přerušení 585
oficiálních 585
požeh@@ 585
knihovnu 585
mnichov 585
oblíbenou 585
špatných 585
obleč@@ 585
slep@@ 585
uzav@@ 585
paliv 585
autobusy 585
čtrnáct 585
pádem 584
mrtvoly 584
který@@ 584
kapacitu 584
neřekne 584
shane 584
implemen@@ 584
královnou 584
pomstít 584
ujícím 584
advoká@@ 584
lídrem 584
bývala 584
cizinec 584
dráze 584
tibetu 584
zara@@ 584
snížil 584
chali 584
chystají 584
žha@@ 584
tivně 584
laskavý 584
areál 584
vzorec 584
zralé 584
odpovězte 584
neomezené 583
ffe 583
prohlížeči 583
splní 583
životnímu 583
výzvou 583
komunikačních 583
přínosy 583
cházíš 583
překvapilo 583
evangelium 583
vší@@ 583
vybavený 583
pneumatiky 583
přísloví 583
zako@@ 583
připravují 583
aman@@ 583
démon 583
jezte 582
france 582
cko-@@ 582
tz@@ 582
měřit 582
prohlídku 582
jemné 582
mužské 582
podlahy 582
přílohy 582
půlka 582
automatizace 582
požadovat 582
škod@@ 582
spolé@@ 582
hladov@@ 582
zázemí 582
takřka 582
účinná 582
vzdálen 582
bena 582
poměru 582
pásma 582
vyššího 582
rea@@ 582
čle@@ 582
zvyš@@ 581
venkově 581
tvorby 581
zmír@@ 581
desítek 581
poznáš 581
genu 581
meče 581
domény 581
klukem 581
úspěchů 581
henryho 581
statečný 581
mare 581
2.1 581
mním 581
semestr 581
řediteli 581
chybějící 581
row 581
bím 581
roo@@ 581
minulém 581
pračka 581
praní 581
zvěda@@ 581
manže@@ 581
dostáváme 581
proslu@@ 580
souvislost 580
výzev 580
jistotou 580
nosím 580
lák 580
jednotlivců 580
škr@@ 580
užitečná 580
nebaví 580
tep@@ 580
tér 580
ivan 580
chápe 580
pov@@ 580
bay@@ 580
společen@@ 580
škodí 580
kata@@ 580
unést 580
kopat 580
primá@@ 580
byty 579
horo@@ 579
phd 579
jiří 579
girl 579
zapnout 579
nevrátil 579
sekci 579
ward 579
prsa@@ 579
hub@@ 579
kresle@@ 579
prasata 579
zového 579
shromažďovat 579
doval 579
věznice 579
táš 579
saz@@ 578
občan@@ 578
žalu@@ 578
zátěž 578
haus 578
ztrácet 578
sie@@ 578
00:23@@ 578
navrženy 578
přidru@@ 578
nadech@@ 578
matte 578
rámce 578
dodávku 578
nezávislých 578
hřbitov 578
chloe 578
konstru@@ 578
vel 578
umělců 578
odlišný 578
kontroluje 578
petře 578
vozi@@ 578
migrace 578
sovětské 578
guvernér 578
holmes 578
přijat 577
rostla 577
opozice 577
terasou 577
bá 577
vinen 577
ther 577
bell 577
zvu@@ 577
originá@@ 577
představí 577
noze 577
znač@@ 577
grá@@ 577
mlčet 577
ard 577
jila 577
řadí 577
obraně 577
vynález 577
francouzského 577
trefil 577
rovnosti 577
volnočasové 577
obnovitelných 577
ne-@@ 577
zřízení 577
vojenského 577
hvězd@@ 577
rozpoč@@ 577
čete 577
oborech 577
vzru@@ 577
sem@@ 577
vyfo@@ 576
potravy 576
ticky 576
pěstovat 576
ellie 576
whe@@ 576
upřímná 576
tance 576
county 576
roger 576
mate 576
jenomže 576
a. 576
elektřina 576
nebezpečných 576
měnící 576
zána 576
norma 575
odhal@@ 575
128 575
skočila 575
schu@@ 575
skvě@@ 575
lea@@ 575
potápě@@ 575
uhněte 575
zavraždě@@ 575
převzal 575
výzkumný 575
poskytovatel 575
večírku 575
korejské 575
sezónu 575
guru 575
zák 575
hajz@@ 575
ise 575
cti 575
zdánlivě 575
kapela 575
logové 575
ropu 575
bude@@ 575
látor 574
základně 574
uplatnění 574
lucembur@@ 574
rozru@@ 574
sankcí 574
využijte 574
trpě@@ 574
sklí@@ 574
odjela 574
praštil 574
dražší 574
anovi 574
teo@@ 574
smál 574
listu 574
spokoje@@ 574
dílem 574
tamní 574
pohřben@@ 574
sbor 574
turnaj 574
telnými 574
ospravedl@@ 574
diváci 573
čokoláda 573
žití 573
vzpomín@@ 573
kapitalismus 573
alarm 573
spali 573
pochybuju 573
služ@@ 573
domlu@@ 573
family 573
cloudu 573
:33@@ 573
obrov@@ 573
pozdravit 573
objas@@ 573
týdnem 573
harri@@ 573
nemuseli 573
šoku 573
bož@@ 573
současném 573
reklam 573
lepšímu 573
aqu@@ 573
kázal 573
vyprší 573
42@@ 572
viděls 572
swa@@ 572
cus 572
rali@@ 572
ujišťuji 572
may 572
určitého 572
philli@@ 572
prezentaci 572
tiché 572
xml 572
quin@@ 572
temná 572
jasnější 572
9/@@ 572
budoucího 572
známí 572
vyplá@@ 572
vytvořena 572
stěhování 572
ara 572
alp@@ 572
olympijské 571
naprostá 571
zemřeme 571
očekáváme 571
odvést 571
shrnutí 571
továrně 571
hin@@ 571
lis 571
turisti@@ 571
ujícího 571
letím 571
napiš 571
výbě@@ 571
částice 571
1.2 571
soubo@@ 571
zněla 571
symptomy 571
lyža@@ 571
revolu@@ 571
opravu 571
lte 571
tlustá 571
ovka 571
prášek 570
soupe@@ 570
kluby 570
absolvent 570
posvě@@ 570
sundejte 570
zábav@@ 570
12:@@ 570
upra@@ 570
monte 570
1944 570
pravomoc 570
obloha 570
hradě 570
rce 570
stání 570
night 570
dopravních 570
uveden 570
končit 570
kmen 570
pošlou 570
hlídání 570
vyhrož@@ 570
boy 570
tera@@ 569
servi@@ 569
tnímu 569
picture 569
spek@@ 569
kd@@ 569
býti 569
objed@@ 569
obědě 569
vhodných 569
absor@@ 569
chirurgi@@ 569
střešní 569
phile 569
zadrž@@ 569
peněžní 569
zavřel 569
rich 569
pho@@ 569
zmatený 569
výbuš@@ 569
polohy 569
draka 569
105 569
řídím 569
čině 569
duchy 569
česky 569
ban 569
všecky 569
kopírovat 569
operačním 569
r-@@ 569
ele 569
knihov@@ 569
nerozumíš 569
posvá@@ 569
novu 569
ených 569
ponožky 569
jmění 569
přeprava 568
energi@@ 568
pohlavní 568
dai@@ 568
preventivní 568
rozšiř@@ 568
žebříčku 568
skvělým 568
nedovolí 568
stag@@ 568
odkdy 568
jezd@@ 568
vyno@@ 568
zdí 568
přejde 568
megan 568
zápase 568
absolvovat 568
she 568
zápis 568
popisu 568
5/@@ 568
číš@@ 568
chejte 568
ellen 568
čip 568
němi 567
designové 567
žehlení 567
vraže@@ 567
zané 567
vyřídím 567
clau@@ 567
vzni@@ 567
životně 567
vytápění 567
zpěv 567
náprav@@ 567
kancelá@@ 567
regula@@ 567
špičkové 567
vyznání 567
radikální 567
kluků 567
prokle@@ 567
kříž@@ 567
rozmaz@@ 567
rozší@@ 567
pohyb@@ 567
ráje 567
korporace 567
pouta 567
výborná 567
podnikatel@@ 567
koupi 567
ohrozit 567
hovězí 567
chviličku 567
schopny 567
percy 567
úvěr 567
metry 566
novin@@ 566
juan 566
volna 566
přehrávačem 566
doru 566
certifikáty 566
neseme 566
nedělají 566
skyteam 566
neptune 566
skli@@ 566
žádáme 566
komunit 566
silami 566
okouz@@ 566
medicína 566
západních 566
řádku 566
potřebný 566
vlast 566
odpadky 566
pům 566
žela 566
edwar@@ 566
otců 566
udržitelnost 566
kuchyňkou 566
api 566
sami@@ 566
půjčení 565
daň@@ 565
probuď 565
daisy 565
anglická 565
pravomoci 565
horkou 565
pani@@ 565
nejraději 565
lůžko 565
proběhne 565
spraved@@ 565
kapitoly 565
bývalá 565
soudruhu 565
chang@@ 565
uvedená 565
kartě 565
služebník 565
milosrdný 565
zákon@@ 565
poží@@ 565
ikea 565
bufetu 565
kapitolu 565
krátkodobé 565
vědce 565
cul@@ 565
slune@@ 565
zábavný 565
lám 565
současnou 565
nenáviděl 565
podnikové 564
přebí@@ 564
třídní 564
zaplatíte 564
research 564
parlamentní 564
nicích 564
briane 564
jedinej 564
pacifi@@ 564
prud@@ 564
chodbě 564
vlajky 564
pokynů 564
pt 564
micro@@ 564
šestý 564
nomi@@ 564
částky 564
proce@@ 564
loval 564
hni@@ 564
osvobodit 564
spoustou 564
54@@ 564
2.2 564
pořadu 564
kavárna 564
světovým 564
vujeme 564
ňa@@ 564
sdílí 563
televizních 563
dro 563
ous 563
údaj@@ 563
kládat 563
úprava 563
narodili 563
zúčast@@ 563
ledové 563
náklad 563
péro 563
porov@@ 563
ssl 563
smys@@ 563
sim 563
veliká 563
mnoho@@ 563
bky 563
růstem 563
kré@@ 563
omezený 563
šílenec 563
předchozího 563
stadion 563
oteví@@ 563
ukládat 562
konfli@@ 562
nehodlám 562
stydět 562
dílech 562
efektivnější 562
krutý 562
lační 562
růž@@ 562
magisterského 562
vyrostla 562
nenechá 562
jill 562
systé@@ 562
stla@@ 562
adre@@ 562
setkala 562
chala 562
nekonečné 562
egyp@@ 562
šerif 562
učiteli 562
přizpůsobení 562
krajiny 562
posedlý 561
regionech 561
vaně 561
evoluce 561
stíny 561
vítěze 561
moderni@@ 561
webový 561
nástroji 561
charlesi 561
vývozu 561
vysokorychlostní 561
zbabělec 561
card 561
ming@@ 561
postaráme 561
kneš 561
černých 561
sebrat 561
dora 561
producen@@ 561
domluvit 561
zeného 561
exchange 561
fyzikální 561
zopa@@ 561
rozděle@@ 561
mentů 561
kdy@@ 561
balí@@ 561
hrdinu 561
ne-li 561
kyberne@@ 561
rai@@ 560
loupež 560
niko@@ 560
laura 560
zoe 560
ekonomové 560
vyučování 560
obrat 560
indoné@@ 560
mej 560
sno@@ 560
založeny 560
otočte 560
sonem 560
barney 560
utkání 560
nevzdá@@ 560
polska 560
identifikace 560
pravém 560
konala 560
závaž@@ 560
spolupracují 560
legitimní 560
mizer@@ 560
svalů 560
76@@ 560
islám@@ 560
turu 559
táhla 559
mp3 559
pø@@ 559
mc 559
miche@@ 559
úlohy 559
vsadil 559
poušť 559
reforma 559
samá 559
zpomal@@ 559
vstupuje 559
plánovat 559
nejnovějších 559
lékařskou 559
doz@@ 559
naplnit 559
mluvení 559
kmen@@ 559
španělská 559
semináře 559
liny 559
legálně 559
vybra@@ 559
nestěž@@ 559
ther@@ 559
druzí 559
rýže 559
ničce 559
konsta@@ 559
zastoupení 559
trůnu 559
adame 559
čín@@ 558
cad 558
kins 558
umístěny 558
nechtě@@ 558
ekonomicky 558
aplikacích 558
stanete 558
politiků 558
argentina 558
berlin 558
firmou 558
podmí@@ 558
sezóně 558
policistů 558
jona@@ 558
slý@@ 558
spoušť 558
řízen@@ 558
emocionální 558
ukradla 558
sap 558
hustý 558
pokrý@@ 558
nabídkou 558
jednolůžkový 558
pokojovou 558
stickým 558
regionů 557
mač@@ 557
nezvlá@@ 557
albá@@ 557
sazeb 557
východním 557
sběra@@ 557
hez@@ 557
zápěstí 557
typi@@ 557
pka 557
neuká@@ 557
píse@@ 557
tunel 557
jasnou 557
náklaďák 557
stran@@ 557
tere 557
sežeňte 557
dallas 557
španělsky 557
šetří 557
im 557
1977 557
odolnost 557
myš@@ 557
podívá 557
osta@@ 557
tvými 557
europe 556
určitém 556
ţ@@ 556
balkón 556
dokumentace 556
tty 556
pil@@ 556
kováno 556
fair@@ 556
utíká 556
všimněte 556
vák 556
čtverečních 556
zved@@ 556
charle@@ 556
lární 556
vstříc 556
krýt 556
neber 556
mýtus 556
přeložit 556
zvaž@@ 556
bená@@ 556
zdvojnásob@@ 556
ic@@ 556
oecd 556
hříchů 556
rovnováha 556
elli@@ 556
neznají 556
jé 556
splnil 556
prezidentské 555
rue 555
ostrov@@ 555
užiteč@@ 555
istanbul 555
výsled@@ 555
mimozem@@ 555
thajsku 555
ambiciózní 555
zbavil 555
william@@ 555
mojžíšovi 555
pány 555
livosti 555
ložnicí 555
seznámil 555
železa 555
koman@@ 555
rychlou 555
sousedé 555
gia 555
holce 555
ligy 555
bufetová 555
hrudi 555
případné 555
včely 555
sele@@ 555
holčičku 555
excel 554
lovit 554
č.@@ 554
politickým 554
dno 554
ders 554
hergot 554
pociť@@ 554
zařídím 554
n.@@ 554
světy 554
uteč 554
oslavy 554
hněvu 554
dotace 554
mikrovlnná 554
nedostali 554
východo@@ 554
mickey 554
sara@@ 554
velikostí 554
richarde 554
little 554
soustřeď 554
závazků 554
bohy 554
8.1 554
strava 554
nik@@ 553
zjiště@@ 553
šenou 553
ónu 553
parků 553
blaho@@ 553
uvedlo 553
školá@@ 553
cit 553
tag@@ 553
zadruhé 553
1939 553
imunitu 553
jablka 553
modlitbu 553
sani@@ 553
země@@ 553
rozmezí 553
prásk@@ 553
lézt 553
radou 553
příbuzné 553
šup 553
zblízka 553
mile@@ 553
nedaří 553
rádi@@ 553
sdě@@ 552
přiká@@ 552
vypadneme 552
desti@@ 552
znakem 552
nepravděpodobné 552
teore@@ 552
kulku 552
vyni@@ 552
pojedeš 552
roberta 552
běžnou 552
pta@@ 552
dozvěděla 552
klimatických 552
-jen 552
málokdy 552
stupni 552
whoa 552
tti 551
sponzor@@ 551
tón 551
kat@@ 551
pech 551
napja@@ 551
rodinám 551
vzato 551
nastavte 551
nastoupil 551
mýlí 551
nepotřebují 551
neob@@ 551
kamarádku 551
pohotovost 551
nedostaneme 551
éru 551
předvídat 551
ib@@ 551
nejradši 551
zpěvák 551
souhla@@ 551
ur 551
bouch@@ 551
rozhodnutím 551
toaletu 551
šestnáct 551
redu@@ 551
přístupy 551
filmový 550
citlivý 550
pisy 550
ostří@@ 550
stná 550
lea 550
tlou@@ 550
náhled 550
cej@@ 550
zivní 550
maj 550
místu 550
tvorbě 550
see 550
gam@@ 550
proměnit 550
rovém 550
fos@@ 550
výtva@@ 550
glob@@ 550
zili 550
násilím 550
nevyře@@ 550
vstupenky 550
rozvíjející 550
zhu@@ 550
thor@@ 549
střel 549
tisíců 549
lince 549
povlečení 549
dimen@@ 549
row@@ 549
přistupovat 549
určený 549
efe@@ 549
chů@@ 549
složitý 549
demokratická 549
nazvat 549
katastrofy 549
rasi@@ 549
bouř@@ 549
nesouhlasím 549
usnesení 549
koordin@@ 549
vybraných 549
uklá@@ 549
malajsie 549
napsali 549
suroviny 549
zuři@@ 549
phil 549
liverpool 549
pci 549
aktualizací 549
zdravého 548
farmě 548
celoživotní 548
občanům 548
rud@@ 548
sezná@@ 548
přijíma@@ 548
kari@@ 548
větu 548
ozná@@ 548
motivace 548
poslechni 548
produktivitu 548
rina 548
kabelové 548
1965 548
zác@@ 548
krom 548
fron@@ 548
ještě@@ 548
tích 548
festivalu 548
nezní 548
zmizení 548
ozbrojené 548
academy 548
figu@@ 548
mincí 548
nadměr@@ 548
schovej 548
hnou 548
vyskytují 548
ruším 547
zha@@ 547
piknik 547
hvězdou 547
porota 547
domácím 547
vlhkost 547
narušení 547
peter@@ 547
mona 547
ňujete 547
připomín@@ 547
distribuci 547
myšlenkou 547
inteligenci 547
napodob@@ 547
cana 547
schoval 547
ějším 547
porto 547
které@@ 547
vytváře@@ 547
opravdovou 547
očekávám 547
palu@@ 547
gates 547
zabijá@@ 547
sand@@ 547
úctou 547
obvině@@ 546
orleans 546
lidským 546
chlapem 546
úschovna 546
mního 546
prv@@ 546
odvaha 546
předvída@@ 546
rity 546
štve 546
nět 546
navštěvovat 546
vyrobeno 546
dik@@ 546
plášť 546
zajišťují 546
nedají 546
eni@@ 546
zeleniny 546
řenou 546
neustá@@ 546
anem 546
pobo@@ 546
váni 546
vytvořily 546
vyrazíme 546
zákazu 546
překva@@ 546
tiskárny 546
zvolili 546
vět 546
ženými 546
vnějších 546
ere 545
jádra 545
neodpovídá 545
předal 545
historickém 545
vlastníka 545
somál@@ 545
minulostí 545
určitým 545
tajnou 545
životech 545
12-@@ 545
href= 545
leni 545
blon@@ 545
gg 545
nesou@@ 545
islámský 545
pomohly 545
nesouhlasí 545
gang@@ 545
hospodina 545
zkratka 545
bezvědomí 545
skladu 545
nerovnost 545
královský 545
pozic 545
podporu@@ 545
pohádky 545
navi@@ 545
temný 544
žních 544
jeskyni 544
ata@@ 544
čte@@ 544
slitování 544
pouhým 544
úřadů 544
ovládací 544
map 544
zranil 544
tli 544
dora@@ 544
zbožňuju 544
dej@@ 544
ublí@@ 544
imi@@ 544
zemře@@ 544
principů 544
ošetř@@ 544
repli@@ 544
nedáš 544
make-up 544
vylepšit 544
nabídek 544
spojitost 544
tisíckrát 543
děv@@ 543
prohlíže@@ 543
data@@ 543
připadalo 543
robotů 543
sociálním 543
nezávislá 543
vených 543
daňových 543
cast@@ 543
snít 543
mobilního 543
spotřeb@@ 543
navrhuji 543
aspektů 543
var 543
přemýšlení 543
podobným 543
tajemník 543
hudbě 543
poda@@ 542
dere 542
war 542
udě@@ 542
jadernou 542
šíle@@ 542
mana@@ 542
uzavřel 542
zálož@@ 542
bezplatný 542
god@@ 542
princeznu 542
napadne 542
zve 542
cs@@ 542
odmí@@ 542
villa@@ 542
poskytovatelů 542
pozemní 542
roboti 542
fanoušek 542
polici@@ 542
potre@@ 542
sedmdesát 542
nápověda 542
zemřete 542
veškerého 541
adri@@ 541
-tady 541
kana@@ 541
tině 541
prohlaš@@ 541
panenky 541
ship 541
kupuje 541
klesla 541
koň@@ 541
klubů 541
terori@@ 541
ochránce 541
j.@@ 541
rodinná 541
kamer 541
karo@@ 541
vši@@ 541
růžový 541
toma 541
odvahy 541
stezky 540
5hvězdičkové 540
meteoro@@ 540
hollywoodu 540
davu 540
navigace 540
vsadit 540
podi@@ 540
https 540
měkké 540
částic 540
buenos 540
pytle 540
guverné@@ 540
jch 540
111 540
dža@@ 540
migrantů 540
ždění 540
bydliště 540
třináct 540
ong 540
slovník 540
vazbu 540
krajina 540
má-li 540
považuji 540
104 540
čtvrt 540
tajemstvím 539
zažili 539
potřebnou 539
kredity 539
fantastický 539
lujeme 539
13.@@ 539
kamene 539
golden 539
překrásné 539
koncep@@ 539
aires 539
gue 539
bon 539
karié@@ 539
pište 539
googlu 539
přepravy 539
obtěžovat 539
konzer@@ 539
15.@@ 539
problémech 539
nouze 539
alex@@ 539
nedostala 539
nábytku 539
namířeno 539
monitor 539
zaři@@ 539
hádejte 539
saint-@@ 539
1966 539
112 539
liga 538
ng@@ 538
tabá@@ 538
kyní 538
exter@@ 538
sb 538
portrét 538
regulační 538
vul@@ 538
hit 538
dámu 538
odmítají 538
kv@@ 538
nepovaž@@ 538
ufo 538
projektech 538
smlouvě 538
uveřej@@ 538
zavřeno 538
modrou 538
kai@@ 538
strov@@ 538
odpá@@ 538
nea 538
odhodla@@ 538
smyslu@@ 538
probudila 538
městu 538
bota@@ 538
výstavby 538
mas@@ 537
r.@@ 537
výhodné 537
odejdeš 537
zanechal 537
spojí 537
nezměnilo 537
dýchá 537
napoleon 537
modulů 537
půjčku 537
básní@@ 537
pojetí 537
radiká@@ 537
postře@@ 537
nežádoucí 537
investování 537
připomínat 537
obyt@@ 537
kujeme 537
pouštět 537
deset@@ 537
studiích 537
devi@@ 537
úžasnou 537
tajných 537
hea@@ 537
úvěrů 537
podílí 537
vyjadřuje 537
pusti@@ 537
00:08@@ 537
odjíždí 537
narodí 537
sum@@ 537
pad 536
zvra@@ 536
platba 536
tne 536
bec 536
lhá@@ 536
scotte 536
sklenice 536
union 536
sily 536
strachem 536
zpravoda@@ 536
dovozu 536
rozko@@ 536
adresář 536
saúdské 536
ideologi@@ 536
rakou@@ 536
desetkrát 536
seznamte 536
plác@@ 536
sfé@@ 536
realitou 535
neublíží 535
dopravě 535
pokusili 535
spi 535
bezprostřední 535
queen@@ 535
evropským 535
nápad@@ 535
informov@@ 535
demon@@ 535
přijmou 535
ovati 535
vita 535
delta 535
toku 535
phone 535
směšný 535
rytíř 535
zásilek 535
metro@@ 535
pákistán 535
dži@@ 534
shell 534
válečný 534
pěta@@ 534
katolické 534
experimenty 534
pořádnou 534
rozšiřování 534
položku 534
hanku 534
vnitrostátní 534
skočím 534
maturi@@ 534
schválil 534
provincii 534
vlajku 534
grant 534
divadelní 534
můry 534
vům 534
zim@@ 534
načasování 534
povýšení 534
klasi@@ 534
oficiálním 534
ksakru 534
marka 534
zapsat 533
zmr@@ 533
napadení 533
divoký 533
farmy 533
newyor@@ 533
přístupné 533
obejít 533
zé@@ 533
aktivních 533
hranicích 533
iro@@ 533
lino 533
integrovat 533
červených 533
marshall 533
nácti@@ 533
ch. 533
mládeže 533
io@@ 533
experimen@@ 533
hloubka 533
nepat@@ 533
odhalil 533
10,@@ 533
pera 533
stin 533
spokojenost 533
kaza@@ 533
tskou 532
kompetence 532
samu@@ 532
čů@@ 532
scho@@ 532
zahynulo 532
marx 532
shromažď@@ 532
oda 532
rose@@ 532
čo 532
pásku 532
interié@@ 532
závidím 532
velblou@@ 532
fotbalový 532
pokuty 532
odznak 532
upozornit 532
institucemi 532
brazil@@ 532
nesmějí 532
bombar@@ 532
lovci 532
přirozenou 532
chovala 532
pěst 531
přihlašovací 531
objevte 531
probíhají 531
óny 531
bej 531
incident 531
gram 531
postavte 531
zálo@@ 531
vyjedná@@ 531
manager 531
vhodnou 531
všech@@ 531
diploma@@ 531
lékař@@ 531
nička 531
lera 531
pierre 531
dean 531
dací 531
vnitra 531
leto@@ 531
transparentní 531
micha@@ 531
ucha 530
klávesnice 530
pus 530
dřevě@@ 530
nar 530
náhrdelník 530
nedostanete 530
mber@@ 530
pojišťov@@ 530
mila 530
členům 530
tolerance 530
otevřených 530
riu 530
pokrývá 530
povolena 530
pet@@ 530
zkurvenej 530
inspektore 530
posun 530
ukázka 530
bláz@@ 530
sexuálního 530
změnami 530
výživy 530
zpomalit 530
dohodnout 529
epo@@ 529
dodala 529
vzne@@ 529
poděkování 529
odem@@ 529
táme 529
poskytla 529
prague 529
hledej 529
snahu 529
kující 529
pařížské 529
deklarace 529
caterpillar 529
úředníci 529
službou 529
socialismu 529
zadrž 529
klást 529
liberali@@ 529
menších 529
jezd 529
náhradu 529
časopise 529
pošleme 529
vmware 529
stanley 529
získ@@ 529
angelo 529
fred 529
pokračující 528
zub 528
překoná@@ 528
000@@ 528
deale@@ 528
trpělivě 528
odložit 528
slibuje 528
j-@@ 528
onoho 528
přístupo@@ 528
waltere 528
ncem 528
uklíze@@ 528
komplex 528
uvědomuješ 528
1946 528
uplynu@@ 528
hový 528
manažeři 528
meš 528
nepodaří 528
cas@@ 528
velkory@@ 528
šet@@ 528
vany 528
teto 528
podrobně 528
bloků 527
vyk@@ 527
sni@@ 527
rozvodu 527
použij 527
bah@@ 527
kuli@@ 527
emma 527
prezidentovi 527
analo@@ 527
obyvatelstvo 527
nele@@ 527
bitco@@ 527
extremi@@ 527
tancu@@ 527
nabízím 527
venou 527
public 527
gal 527
nadšená 527
vyřešení 527
učíme 527
syrské 527
cr@@ 527
starostí 527
white@@ 527
úlo@@ 527
dopa@@ 527
shire 527
osmnáct 527
drži@@ 527
toronto 527
voláš 527
naprostou 527
líky 527
universi@@ 527
posral 527
cová 527
102 527
stojíte 526
petrohrad 526
souřadnice 526
vítáni 526
nepříjem@@ 526
pay@@ 526
potřebná 526
viceprezident 526
xe@@ 526
individu@@ 526
autorem 526
vysí@@ 526
šatech 526
zajistil 526
stojící 526
zány 526
thomasi 526
čané 526
podlaží 526
okem 526
ade@@ 526
sire 526
čokolády 526
nacionali@@ 526
letenky 526
děku@@ 526
hada 526
dvacá@@ 526
vracel 526
praktických 526
zásadně 526
kně@@ 525
navštíví 525
staroži@@ 525
nazývat 525
nino 525
sklepě 525
německy 525
provedeno 525
parkovišti 525
společnostem 525
pozoroval 525
servisní 525
skvělých 525
maminko 525
3.0 525
koncepce 525
antivi@@ 525
zkuše@@ 525
historická 525
dvanác@@ 525
nazýváme 525
mlad@@ 525
šesté 525
eta 525
kvalitních 525
milen@@ 525
podílu 525
lékařských 525
[...]
