. 4225740
, 3096131
w 1151732
nie 933780
i 909177
? 814611
się 775260
na 689367
to 674788
z 641690
- 633817
jest 502805
do 495444
że 397414
! 355561
o 268260
co 265459
jak 246725
a 244197
: 238638
... 233293
) 221656
( 211995
tak 202743
ale 171224
od 162803
dla 154874
za 151322
są 133436
po 132978
mnie 130092
tym 129880
czy 127458
`` 124534
może 114605
tego 112934
'' 111732
ma 111034
mi 109979
przez 108842
tylko 107347
jeśli 102250
lub 92749
” 92311
– 91220
już 89551
go 89488
ci 88800
być 87386
„ 85250
ja 81782
ty 77787
tu 76740
będzie 76481
ich 75368
aby 74004
ten 73394
ze 71282
jego 71191
jestem 68389
bardzo 68184
roku 66200
cię 65667
które 64150
mam 62132
jesteś 62037
jej 60541
by 60019
więc 58747
wszystko 58232
coś 57793
/@@ 57631
nas 55197
kiedy 55005
on 54853
był 54214
można 54143
sobie 53594
dobrze 51962
też 51269
było 51053
więcej 50873
lat 50846
oraz 50368
pan 50048
teraz 49899
wiem 49701
gdzie 49628
tam 49093
te 49084
hotel 48928
masz 48694
jeszcze 48170
ją 46824
nie@@ 46462
który 45890
jako 45653
ta 45533
gdy 45300
nic 45182
; 45010
1 44097
dlaczego 43969
również 42961
możesz 42153
tej 41582
ciebie 40921
nawet 40641
bo 40421
mogą 40210
proszę 40187
mogę 39462
% 38928
2 38265
niż 38230
wszystkie 38219
bez 37833
jednak 37549
-@@ 37547
chcesz 37238
tych 36133
je 35919
mój 35621
za@@ 35470
nigdy 35256
chcę 35067
mu 34705
przed 34370
zawsze 34273
no 34007
po@@ 33684
tutaj 33526
mamy 33348
wiele 33259
nam 32721
wiesz 32675
żeby 32575
naprawdę 32262
wy@@ 31890
my 31859
także 31676
u 31460
ludzi 31347
kto 31278
była 30984
ona 30792
wszystkich 30689
[ 30620
sposób 30570
czas 30467
pani 30457
domu 30224
3 29921
strona 29804
przy 29740
u@@ 29717
pod 29699
/ 29671
10 29568
nich 28854
] 28605
życie 28402
plików 28303
pracy 28246
którzy 28006
prze@@ 27835
5 27757
_ 27754
dzięki 27575
danych 27547
na@@ 27397
dzieci 27368
nim 27294
mają 27266
ludzie 26893
właśnie 26736
jesteśmy 26732
innych 26328
zrobić 26301
świecie 26020
która 25935
raz 25627
cookie 25377
będą 25351
wszyscy 25349
dzień 24986
bardziej 24800
swoje 24239
takie 24218
możemy 24167
4 23996
z@@ 23812
od@@ 23739
życia 23717
czasu 23414
do@@ 23372
ponieważ 23311
s 23274
dobra 23204
im 23200
razem 23175
moje 23160
chyba 23123
powiedział 23028
jeden 22956
siebie 22932
minut 22810
o@@ 22791
albo 22772
temu 22740
dlatego 22712
strony 22600
we 22592
czym 22566
został 22556
każdy 22538
podczas 22498
ani 22033
w@@ 22026
twój 21927
czego 21869
b 21839
centrum 21832
prawda 21796
wielu 21757
s@@ 21555
przepraszam 21490
a@@ 21423
nad 21396
moja 21392
dwa 21335
osób 21320
sam 21302
musisz 21206
muszę 21194
miejsce 21158
ktoś 21131
rzeczy 20991
niego 20912
kilka 20815
ny 20649
będę 20598
cie 20528
was 20503
chce 20427
dziękuję 20329
ponad 20186
musi 20051
c 20028
porządku 19929
i@@ 19922
panie 19911
t 19887
e@@ 19835
oni 19770
tę 19711
ma@@ 19675
dziś 19548
wtedy 19534
których 19522
& 19435
pierwszy 19417
trochę 19401
musimy 19333
nasze 19328
prostu 19259
powiedzieć 19222
swoich 19209
pana 19176
miał 19173
mówi 19140
dni 19128
mieć 19095
ka 18954
stanie 18809
li 18685
celu 18663
dnia 18529
ra@@ 18500
będziesz 18485
trzeba 18454
da 18409
20 18401
n 18257
chodzi 18227
twoje 18188
6 18075
dalej 17865
r 17835
oczywiście 17749
inne 17712
k 17515
naszej 17357
jaki 17240
roz@@ 17198
one 17124
znajduje 17119
wam 17056
między 17048
swoją 17014
dobry 16928
ne 16890
należy 16867
re@@ 16693
lepiej 16673
trzy 16661
wie 16600
la 16532
mieście 16506
były 16445
nikt 16442
najbardziej 16436
nami 16293
nowy 16280
d@@ 16245
informacji 16171
c@@ 16127
niej 16124
8 16108
m@@ 16096
li@@ 16080
niech 16069
nią 16068
mną 16058
d 16047
15 16042
ka@@ 16021
ro@@ 16017
* 16010
t@@ 15975
l 15942
stało 15896
tobą 15888
la@@ 15869
7 15839
zobacz 15835
bóg 15829
ki 15751
ko@@ 15727
dużo 15680
czemu 15646
oficjalna 15611
oferuje 15553
' 15540
de@@ 15505
nowe 15501
“ 15476
cały 15456
m 15426
ną 15376
przy@@ 15373
ta@@ 15305
pod@@ 15283
takich 15277
ile 15233
km 15218
świata 15204
ni@@ 15149
ni 15114
ba@@ 15072
którym 15002
taki 15000
moim 14962
prawa 14886
szybko 14820
g@@ 14820
około 14811
mi@@ 14787
aż 14755
nadal 14750
kim 14738
pa@@ 14655
naszych 14600
hotele 14532
boże 14498
myślę 14489
ciągu 14417
świat 14417
n@@ 14365
jakie 14336
obiekt 14323
k@@ 14289
twoja 14273
firmy 14270
pomóc 14221
temat 14183
p@@ 14159
30 14153
nasz 14136
jednym 14030
potem 13951
czasie 13806
sa@@ 13805
l@@ 13654
b@@ 13649
znaleźć 13610
będziemy 13595
le@@ 13580
program 13570
ziemi 13517
ce 13508
dane 13392
później 13391
sie 13379
dzisiaj 13362
nia 13347
każdego 13245
wy 13209
tą 13179
cześć 13125
… 13063
usa 13045
często 12949
boga 12921
mojego 12906
mo@@ 12832
pokój 12796
dwóch 12776
wieku 12762
prawie 12731
— 12725
zbyt 12676
12 12640
ku 12627
została 12569
wygląda 12562
dom 12471
razy 12438
większość 12426
oznacza 12396
jeżeli 12362
wszystkim 12322
poza 12276
prawo 12227
rok 12206
przykład 12180
swój 12170
stąd 12152
lata 12110
9 12108
pokoju 12107
zobaczyć 12096
informacje 12086
si@@ 12029
gry 12027
swoim 12008
człowiek 11981
system 11975
dziecko 11965
lecz 11947
dzieje 11919
5@@ 11904
to@@ 11896
4@@ 11848
znaczy 11831
miejscu 11810
de 11804
lo@@ 11803
daj 11794
p 11793
zostać 11779
pokoje 11771
r@@ 11769
ła 11767
ca 11764
ne@@ 11745
miasta 11729
według 11724
obecnie 11694
całym 11675
se@@ 11639
hotelu 11631
pi@@ 11618
osoby 11617
robisz 11616
powiedz 11610
którego 11607
wciąż 11587
mojej 11565
myślisz 11562
ły 11490
chodź 11488
wcześniej 11473
usługi 11468
której 11461
stronie 11458
swojej 11441
człowieka 11416
część 11406
tyle 11405
ga@@ 11394
skąd 11381
robić 11348
liśmy 11319
różnych 11308
r. 11258
x 11248
byłem 11231
g 11229
sa 11195
myśli 11164
nych 11162
oto 11143
j 11142
pewnie 11135
ca@@ 11120
y 11115
50 11063
> 11058
wiedzieć 11024
da@@ 11014
no@@ 11010
go@@ 11009
sobą 10992
100 10988
przecież 10937
wi@@ 10934
moją 10934
co@@ 10914
e 10895
sz 10879
ą 10879
ł 10879
przypadku 10870
nego 10861
samo 10852
pewno 10839
powodu 10837
swojego 10801
le 10796
» 10796
każdym 10779
problem 10765
jedną 10765
istnieje 10747
dwie 10648
którą 10645
naszym 10642
pieniądze 10640
kraju 10626
nym 10573
takiego 10548
the 10537
nowych 10532
wa@@ 10523
jedynie 10467
kiedyś 10447
czyli 10434
goście 10381
tobie 10358
gdyby 10314
miejsca 10283
życiu 10282
programu 10275
me@@ 10259
ojciec 10250
systemu 10240
taka 10232
ja@@ 10221
pomocy 10211
@ 10208
11 10201
f@@ 10198
zostanie 10169
ha@@ 10112
y@@ 10109
25 10083
zanim 10071
ważne 10063
nadzieję 10043
te@@ 10041
$ 10008
mniej 10001
łem 9987
uzyskać 9984
rozwoju 9975
bezpieczeństwa 9965
cóż 9953
końcu 9926
jakiś 9921
mógł 9906
bo@@ 9880
możliwość 9856
kiem 9831
bu@@ 9823
di@@ 9794
nowego 9792
jednego 9788
.@@ 9777
koniec 9771
obiektu 9752
iść 9728
kobiety 9720
6@@ 9703
jasne 9700
byli 9690
wydaje 9666
bi@@ 9659
jakieś 9654
3@@ 9635
lu@@ 9633
dobre 9631
firma 9600
su@@ 9594
ri@@ 9585
słowa 9576
ć 9551
sta@@ 9551
następnie 9526
naszego 9516
razie 9501
pobliżu 9498
al@@ 9481
zostały 9472
rozumiem 9470
odległości 9470
sieci 9443
be@@ 9434
samym 9429
pytania 9417
nej 9382
pomocą 9380
twoim 9376
an@@ 9361
h@@ 9356
pierwsze 9353
długo 9343
stron 9321
ci@@ 9317
so@@ 9308
części 9298
j@@ 9296
ło 9261
usług 9254
jedna 9248
rzecz 9241
sama 9182
kogoś 9158
badania 9152
miała 9143
ru@@ 9139
typu 9139
mówię 9112
ch@@ 9097
of 9063
nocy 9063
.. 9059
miałem 9056
du@@ 9050
najlepiej 9047
imię 9045
dotyczące 9030
uje 9028
twoich 9011
zostało 9003
ką 8985
pe@@ 8961
celów 8951
ują 8948
mar@@ 8913
ti@@ 8910
x@@ 8883
twojej 8874
jedno 8860
ce@@ 8858
ge@@ 8822
ra 8819
kurwa 8812
7@@ 8803
zgodnie 8796
online 8788
wody 8771
v@@ 8771
produktów 8769
innego 8754
nimi 8753
dostęp 8738
dość 8708
robi 8703
uwagę 8691
śmierci 8675
dokładnie 8668
zgody 8634
możliwe 8618
gości 8614
liście 8613
muszą 8605
tem 8603
ków 8570
18 8566
zdjęcia 8559
chcą 8552
kami 8537
rze 8533
żadnych 8527
ku@@ 8513
pytanie 8492
kocham 8485
rynku 8477
’ 8470
poprzez 8461
ki@@ 8454
działa 8442
miłość 8442
gra 8423
niektóre 8419
pracę 8412
możliwości 8408
dolarów 8399
lotniska 8398
pomoc 8389
ar@@ 8378
nasza 8365
coraz 8353
jutro 8349
je@@ 8341
łeś 8336
początku 8333
miasto 8326
np 8310
ów 8287
wa 8283
naj@@ 8275
kę 8268
zaraz 8260
łam 8236
noc 8216
16 8213
24 8203
14 8199
twoją 8184
tów 8182
liczba 8161
zmiany 8161
historii 8150
wykorzystaniu 8128
widzę 8119
8@@ 8099
stary 8095
18@@ 8095
mówić 8088
mówisz 8057
ty@@ 8033
hej 8027
ochrony 8021
wśród 8018
ę 7997
40 7984
kilku 7964
# 7961
latach 7960
f 7957
żyć 7952
ok 7946
dy 7911
badań 7865
wiemy 7863
cy 7858
13 7829
godzin 7825
drzwi 7825
in@@ 7807
mu@@ 7807
ski 7802
uję 7790
przykro 7776
zjednoczone 7775
znowu 7773
tu@@ 7768
rację 7735
vi@@ 7728
twojego 7705
zasady 7674
stany 7663
rano 7647
wiadomości 7634
pieniędzy 7630
mama 7619
świetnie 7586
ować 7574
cztery 7574
dać 7568
moich 7566
zarządzania 7562
zjednoczonych 7554
korzystanie 7546
9@@ 7526
rodziny 7504
technologii 7464
ska 7441
oczy 7438
ze@@ 7435
wartości 7430
chciał 7429
chwili 7428
wystarczy 7419
17 7417
miesięcy 7404
czegoś 7394
państwa 7379
idź 7378
działania 7377
sz@@ 7377
osobowych 7372
ojca 7370
cholera 7367
zakresie 7364
innym 7361
zapewnia 7359
energii 7349
dostępne 7346
choć 7345
powinien 7339
chciałem 7329
lubię 7325
widzisz 7309
pięć 7306
inny 7300
niem 7294
mów 7283
bym 7279
użytkowników 7279
żyje 7275
pokoi 7275
jesteście 7274
bądź 7271
myślałem 7250
nowa 7239
innymi 7230
dzie 7225
2018 7204
jakby 7197
ała 7191
h 7187
trzech 7184
ponownie 7184
jakości 7171
chociaż 7167
zaledwie 7166
000 7160
względu 7147
ane 7142
gra@@ 7135
zarówno 7113
.com 7103
drogi 7092
produkty 7047
całe 7028
takim 7027
ho@@ 7023
praw 7000
gu@@ 6998
aplikacji 6997
ob@@ 6990
różne 6988
godziny 6983
chwilę 6982
każdej 6979
fi@@ 6975
ga 6975
wybór 6968
obiektem 6955
umiejętności 6944
nowym 6940
fa@@ 6931
telefon 6927
śmierć 6917
numer 6910
dopiero 6903
łaś 6900
całą 6900
dy@@ 6890
kobiet 6884
2017 6874
em 6866
pu@@ 6864
chciałbym 6864
naszą 6863
czuję 6859
kochanie 6859
ameryki 6856
mówią 6854
korzystać 6849
brak 6844
any 6839
klientów 6832
przynajmniej 6824
chcemy 6824
całkowicie 6820
windows 6812
najpierw 6795
ował 6779
cz@@ 6778
ch 6774
udało 6752
przestań 6751
milionów 6747
apartamenty 6736
jednej 6734
prywatności 6723
żona 6711
pro@@ 6696
wideo 6690
mapie 6685
he@@ 6681
stać 6666
ciała 6663
szkoły 6662
czasem 6647
produkcji 6643
powiedziała 6640
przeciwko 6638
mały 6635
własnych 6633
widziałem 6623
v 6616
najlepsze 6616
kobieta 6614
zrobił 6612
metrów 6578
'@@ 6568
słowo 6566
2@@ 6555
nymi 6544
ały 6537
powinniśmy 6523
inaczej 6479
mamo 6477
poziom 6472
we@@ 6469
wojny 6466
zatem 6465
broń 6462
organizacji 6457
łatwo 6452
2016 6439
samochód 6437
matka 6405
następny 6405
macie 6402
zmienić 6400
sprawy 6400
stronę 6397
ramach 6396
samego 6391
znam 6380
powiem 6374
pomysł 6374
końca 6366
mimo 6358
kontakt 6355
niczego 6349
in 6332
owanie 6331
cy@@ 6324
dziewczyna 6321
owania 6310
posiada 6301
niu 6288
rząd 6279
kogo 6277
sto@@ 6274
przyszłości 6264
niestety 6258
ciało 6255
sami 6230
pierwszym 6227
wraz 6226
polityka 6219
zdrowia 6215
21 6207
drugiej 6198
potrzebuję 6185
0 6181
szczególnie 6178
kach 6178
cja 6175
mówił 6163
zabić 6162
niektórych 6157
praca 6140
problemy 6139
ciągle 6138
studentów 6133
szczęście 6129
podoba 6128
iż 6118
wał 6113
grupy 6109
ry@@ 6089
park 6086
powiedziałem 6086
ponadto 6085
nę 6080
my@@ 6078
st@@ 6073
stacji 6072
+ 6058
pozwala 6054
film 6047
ując 6039
ałem 6029
60 6028
gdzieś 6028
żebyś 6027
2019 6018
blisko 6015
góry 6008
cję 5990
ds 5983
mocy 5976
wybrać 5974
pewien 5972
ton 5968
panu 5967
byłam 5961
znów 5954
sprawę 5926
sprawie 5922
mieli 5921
19 5919
mogli 5918
nowej 5916
drodze 5908
wo@@ 5889
ceny 5887
idzie 5884
miło 5870
owy 5869
potrzebuje 5867
pomiędzy 5860
dam 5856
spokój 5826
skontaktuj 5802
serca 5786
czasami 5781
udział 5781
tra@@ 5778
celem 5778
zupełnie 5772
każda 5770
ła@@ 5764
bezpośrednio 5763
ko 5759
serce 5759
daje 5757
całego 5756
ano 5756
ogóle 5748
gi@@ 5745
jednocześnie 5744
ostatnich 5743
spójrz 5743
man 5740
użytkownika 5740
ali 5737
zwykle 5734
hi@@ 5729
cz 5723
zamiast 5722
nem 5720
st 5716
bar@@ 5706
anych 5701
2015 5700
sprawa 5696
państwo 5694
źle 5688
wartość 5688
ii 5685
rozwój 5679
poniżej 5667
pracowników 5664
kar@@ 5663
wiadomość 5663
bez@@ 5663
pierwsza 5639
22 5627
konta 5627
dostępna 5625
wie@@ 5616
skoro 5598
or@@ 5591
spokojnie 5590
duże 5584
wyniki 5573
10@@ 5573
podobnie 5572
niektórzy 5570
cją 5562
prawdopodobnie 5558
spa@@ 5558
owe 5557
owana 5550
historia 5547
skorzystać 5545
owego 5535
owa 5531
wielka 5530
miłości 5529
ręce 5526
zależy 5526
tami 5524
znacznie 5522
krajów 5519
jaką 5513
jo@@ 5510
prawdę 5502
codziennie 5481
firm 5480
pełni 5479
sy 5473
warto 5466
włosów 5455
tysięcy 5453
syn 5442
restauracji 5442
czy@@ 5440
ostatni 5439
plan 5437
znajdują 5436
cha@@ 5428
mówiłem 5426
mówiąc 5423
musiał 5423
poprzedni 5421
problemów 5421
pensjonaty 5415
wielki 5413
raczej 5412
taką 5409
man@@ 5400
częścią 5396
zwłaszcza 5392
rodzina 5386
tymi 5385
wczoraj 5384
cena 5366
krwi 5365
związku 5364
zawiera 5363
dostać 5360
wybierz 5358
dzi@@ 5355
wpływ 5351
najmniej 5346
rem 5344
bra@@ 5343
www.@@ 5329
cze 5329
zespół 5328
wać 5324
ska@@ 5317
krajach 5315
ry 5313
małe 5305
syna 5292
potrzeby 5281
korzysta 5280
właściwie 5275
nową 5272
dziecka 5265
proces 5260
cu@@ 5254
poważnie 5254
natychmiast 5250
wymaga 5250
technicznych 5250
drugi 5248
us 5248
wejść 5246
projekt 5244
śniadanie 5240
ke@@ 5235
• 5234
byłoby 5233
ało 5232
adres 5231
powinieneś 5229
fe@@ 5225
znasz 5224
dotyczy 5222
inni 5213
dał 5212
wobec 5210
bar 5204
wersji 5202
wal@@ 5197
nu@@ 5193
wrócić 5189
żadnego 5181
ż@@ 5164
obok 5158
pracować 5157
ju@@ 5155
ń 5154
rzy 5153
google 5152
dalsze 5147
mało 5130
śmiech 5121
funkcji 5120
byś 5107
23 5102
28 5101
urządzenia 5100
trudno 5098
powinno 5098
oprócz 5096
wcale 5084
sem 5084
rodzaju 5083
wkrótce 5082
obejmuje 5081
odpowiedzi 5080
cała 5078
muzeum 5076
europie 5066
rozwiązania 5066
zrozumieć 5049
's 5040
byłeś 5029
si 5019
cel 5019
widok 5017
wami 5013
dzielnicy 5011
słuchaj 5008
spaceru 5008
porozmawiać 5002
jaka 5001
zdjęcie 4997
wiecie 4995
wina 4985
odpowiedź 4985
wiedzy 4984
kra@@ 4984
całej 4983
ałeś 4979
ży@@ 4976
współpracy 4970
john 4969
nazwa 4966
san 4965
kod 4963
wierzę 4960
dopóki 4952
błąd 4951
owej 4950
ve@@ 4948
sytuacji 4943
gi 4942
jezus 4932
se 4932
skie 4929
procent 4928
owych 4928
17@@ 4924
najlepszy 4920
przyszłość 4919
wania 4918
owi 4917
czekaj 4911
nazywa 4909
200 4902
mie@@ 4894
wiedzą 4893
chiny 4890
car@@ 4890
2013 4885
cia 4884
poznać 4882
książki 4878
15@@ 4872
zostaną 4869
język 4867
oprogramowania 4862
pla@@ 4857
posłuchaj 4853
dziewczyny 4853
proc 4848
pie@@ 4847
środowiska 4844
80 4839
wanie 4839
dokąd 4835
przede 4832
hu@@ 4832
cji 4828
by@@ 4828
sprzedaży 4827
widać 4825
27 4822
potrzebujesz 4818
siły 4816
brzmi 4813
poziomie 4808
sy@@ 4808
jąc 4796
jcie 4795
zamknij 4795
dziedzinie 4792
kuchni 4783
wielkie 4776
możecie 4773
trzecich 4763
czeka 4757
0@@ 4757
wokół 4756
ujący 4755
doświadczenie 4750
2014 4749
ujące 4745
ś@@ 4741
całkiem 4738
26 4735
szybciej 4734
tato 4723
zrobię 4722
kupić 4717
nikogo 4717
nik 4715
ono 4710
pamiętam 4702
cza 4702
pół 4701
ostatnio 4689
treści 4675
czymś 4675
skiej 4672
stan 4668
ałam 4663
mąż 4662
wzrost 4655
znaczenie 4650
35 4649
klienta 4643
podstawie 4638
pewnością 4636
miałam 4635
ostatnie 4626
90 4618
idziemy 4618
tach 4604
weź 4604
lem 4592
pokaż 4589
zaczyna 4587
ste@@ 4582
pośrednictwem 4573
tydzień 4571
prawdziwe 4567
pierwszej 4557
gar@@ 4553
gdybym 4553
zmian 4553
potrzebujemy 4550
wziąć 4548
powinna 4539
wiedział 4536
chi@@ 4536
wszystkiego 4534
własne 4528
16@@ 4527
osoba 4527
zewnątrz 4525
byliśmy 4524
rynek 4519
and 4516
nię 4514
pozwól 4513
żebym 4512
twarz 4511
komunikat 4510
powinny 4510
wali 4508
warunki 4507
związane 4500
super 4498
lne 4493
nauki 4492
mała 4489
czujesz 4487
takiej 4486
cokolwiek 4486
rozumiesz 4485
wielkiej 4478
branży 4475
szy@@ 4462
wersja 4458
sza@@ 4456
rodzice 4454
zapoznaj 4454
12@@ 4450
microsoft 4448
sprawdzić 4448
2012 4443
euro 4435
me 4433
lu 4431
dniu 4430
przeglądanie 4429
wiedziałem 4418
żony 4417
13@@ 4416
położony 4413
drogę 4407
tygodniu 4406
70 4406
same 4399
zna 4398
sza 4398
wsparcie 4396
uwaga 4392
podróży 4392
skiego 4381
natomiast 4381
dobrym 4378
współ@@ 4376
języka 4375
tata 4374
house 4370
stał 4364
mapa 4362
wyposażone 4353
idę 4353
marketingowych 4353
31 4348
-- 4346
cho@@ 4346
rady 4344
kolejny 4342
500 4341
broni 4337
człowiekiem 4337
pamiętasz 4334
widzieć 4333
kraj 4332
krok 4330
działała 4329
zazwyczaj 4328
son 4327
grupa 4326
jakość 4321
ność 4321
pa 4311
swego 4309
ujących 4308
mogła 4308
patrz 4305
bezpieczeństwo 4304
wyboru 4296
analitycznych 4296
rosji 4296
zaś 4293
niemcy 4291
leży 4289
skich 4287
tro@@ 4287
mln 4285
spotkanie 4285
daleko 4282
pewnego 4282
większości 4280
45 4278
rzeczywistości 4273
zi@@ 4271
ue 4261
29 4257
facet 4255
lna 4254
droga 4251
kiedykolwiek 4250
usd 4249
rodzaj 4249
sir 4244
miejsc 4241
powrotem 4241
przyjaciół 4240
lubi 4238
owym 4236
ności 4236
los 4236
apartament 4233
va@@ 4230
mieliśmy 4230
robię 4230
14@@ 4226
e-mail 4222
cę 4216
« 4215
staje 4209
ba 4206
atrakcje 4202
razu 4201
per@@ 4201
ro 4201
wszędzie 4199
tytuł 4194
street 4192
su 4190
sądzę 4189
2010 4187
zapewnić 4186
nagle 4186
najlepszych 4184
stanowi 4182
klasy 4176
głównie 4172
istnieją 4172
jednoznaczne 4170
cznym 4162
tom 4161
grać 4159
pojęcia 4145
an 4142
chciałam 4140
sta 4139
nika 4136
wasz 4136
ilość 4135
mężczyzn 4134
żadnej 4127
lny 4116
apple 4113
filmy 4113
chodźmy 4106
głos 4097
narzędzia 4095
gdyż 4094
che@@ 4091
przetwarzania 4086
oprogramowanie 4086
ciężko 4085
ści 4082
ż 4080
ow@@ 4077
komunikatem 4070
wyrażeniem 4069
czna 4068
obraz 4067
zarządzanie 4067
miało 4066
drugie 4065
łazienki 4056
uda 4055
stanów 4053
nad@@ 4052
cznych 4046
trzymaj 4042
liczby 4041
głowy 4039
wątpliwości 4037
samej 4031
th@@ 4028
cze@@ 4021
mie 4020
artykuł 4015
stra@@ 4009
uwagi 4009
mężczyzna 4005
systemów 4005
sześć 4004
prezydent 4003
pra@@ 4001
ck 4000
uważa 3999
ludźmi 3998
listy 3992
ego 3990
nieco 3988
wyglądasz 3988
matki 3987
parę 3987
kontroli 3982
żaden 3980
er@@ 3978
projektu 3977
urządzeń 3976
nasi 3976
używać 3976
pewne 3975
cie@@ 3974
owany 3972
mm 3972
2011 3965
internet 3965
rolę 3961
jazdy 3958
czny 3950
samochodów 3950
aktualizacje 3949
policja 3936
zrobiłem 3935
międzynarodowych 3932
studiów 3931
tv 3931
der 3927
piękne 3925
funkcje 3921
wynosi 3919
pomoże 3912
robią 3910
sztuki 3907
metra 3904
skontaktować 3904
ludziom 3900
czne 3896
cznego 3895
tor 3890
momencie 3890
wysokiej 3887
dowiedzieć 3887
widzenia 3886
jakim 3886
wyłącznie 3884
środku 3883
światła 3882
duży 3876
wreszcie 3875
myślałam 3872
fo@@ 3871
och 3868
prowadzi 3866
światło 3863
restauracje 3862
nr 3859
proste 3858
dasz 3857
brat 3856
sh@@ 3855
sieć 3853
piękna 3852
korzyści 3852
początek 3847
cha 3846
bowiem 3842
en@@ 3841
rami 3840
niach 3837
handlu 3835
cą 3835
podróż 3834
san@@ 3834
nął 3834
zacząć 3833
terenie 3833
jedzenie 3829
pierwszą 3827
fu@@ 3825
samochodem 3821
witam 3818
ziemię 3817
wszelkie 3816
pre@@ 3816
studenci 3815
pierwszego 3813
robimy 3808
walki 3808
wystarczająco 3808
ryzyko 3807
karty 3805
samo@@ 3802
pomaga 3797
stanu 3796
ad@@ 3789
sk@@ 3786
będziecie 3783
moc 3782
miesiąc 3782
ie 3778
wała 3771
nąć 3770
pliki 3761
historię 3760
ya 3760
światowej 3754
zabrać 3754
telewizor 3752
każde 3751
cieszę 3747
pięciu 3746
edukacji 3745
ową 3745
wieczorem 3742
niemal 3739
samochodu 3737
skim 3737
20@@ 3737
główna 3732
zrób 3729
powinienem 3729
1@@ 3723
kierunku 3722
zdrowie 3720
sprzedaż 3717
europy 3716
pracuje 3714
lotnisko 3714
par@@ 3711
kwiaty 3711
sów 3707
sen 3699
doświadczenia 3697
słów 3697
wiadomo 3694
złe 3692
ach 3692
war@@ 3688
tki 3687
ter@@ 3679
sprawdź 3679
﻿ 3673
rozwiązanie 3673
konto 3670
usta@@ 3668
powiesz 3665
anym 3665
okres 3662
lepsze 3661
naukowcy 3659
owane 3658
panowie 3658
wyjść 3656
wojna 3650
budynku 3648
for@@ 3648
wasze 3647
lokalnych 3647
zjeść 3645
linii 3643
hostel 3638
rozmawiać 3637
lnej 3634
bro@@ 3632
nt@@ 3630
czterech 3628
witaj 3628
wieczór 3627
wspólnego 3626
szkole 3625
źródło 3622
maja 3622
ruchu 3621
jesz 3621
otrzymywać 3620
jack 3616
gro@@ 3613
​​@@ 3607
dna 3604
osiągnąć 3603
działań 3603
polityki 3599
ms 3597
jorku 3596
} 3595
radę 3595
sze 3591
ter 3590
kolejne 3590
rezygnacji 3589
rękę 3588
ny@@ 3587
bio@@ 3587
dr 3580
produktu 3580
bank 3579
niniejszego 3579
ł@@ 3579
dziwne 3575
społeczności 3573
języku 3572
wolności 3571
32 3567
francji 3566
słyszałem 3565
ców 3564
gotowy 3561
stała 3556
września 3555
2008 3553
pory 3553
jący 3552
rób 3548
górę 3548
niczym 3544
szy 3535
ber@@ 3535
ustawieniach 3534
halo 3533
internetowej 3532
stylu 3527
dania 3526
stanach 3525
fakt 3520
niezależnie 3520
2020 3519
ner 3519
pan@@ 3518
krew 3518
wi 3510
har@@ 3508
star@@ 3506
obu 3504
ode 3504
wi-fi 3503
port 3503
dzie@@ 3502
nach 3502
myśleć 3499
ską 3499
powiedziałeś 3497
woda 3495
di 3492
{ 3491
rzeczywiście 3491
aną 3489
ban@@ 3483
najważniejsze 3482
kon@@ 3479
zły 3475
rodziców 3473
tka 3473
trudne 3472
chinach 3472
cyjne 3470
sko@@ 3468
umożliwia 3468
moi 3467
city 3465
lubisz 3462
restauracja 3460
zrobiłeś 3458
potrzebne 3457
beach 3456
el 3455
zapisywania 3455
am 3454
lista 3452
kościół 3451
wybacz 3449
seks 3447
anego 3444
plik 3444
cje 3440
czą 3439
wyrażasz 3438
twarzy 3436
du 3436
stycznia 3435
formie 3433
mogłem 3432
re 3429
dem 3428
bogu 3428
poli@@ 3426
lan@@ 3426
czną 3424
< 3424
użyć 3418
pochodzi 3417
rzekł 3417
sie@@ 3416
300 3415
kla@@ 3412
pliku 3411
chcecie 3408
web 3408
zdjęć 3406
dłużej 3399
zo@@ 3399
zmiana 3398
przestrzeni 3394
nieba 3392
uważaj 3391
prywatne 3389
potrzeba 3388
dół 3386
prawdziwy 3380
spraw 3380
produkt 3379
dra@@ 3379
university 3374
ss 3374
król 3374
un@@ 3371
zgadza 3369
szansę 3368
ści@@ 3368
ruch 3364
czek 3364
cznie 3355
zostaw 3352
kościoła 3348
zna@@ 3348
list 3348
chciała 3346
pewna 3345
jedynym 3343
pokazać 3342
morze 3340
kom 3339
internetu 3337
panią 3336
czerwca 3336
międzynarodowej 3336
ran@@ 3335
rozdział 3330
stworzyć 3329
les 3328
kur@@ 3326
działalności 3325
ym 3319
sprawia 3315
zapa@@ 3315
brakuje 3313
el@@ 3310
zestaw 3309
programów 3308
dziećmi 3307
al 3305
gier 3303
pozostaje 3300
.... 3297
walczyć 3296
okazji 3292
pójdę 3290
dostępu 3289
książka 3288
użyciu 3286
dobrego 3283
poziomu 3282
jące 3282
zwierząt 3282
stacja 3280
konieczne 3279
wówczas 3278
uważam 3275
spać 3274
q@@ 3270
ge 3270
sukces 3269
zwierzęta 3269
niemożliwe 3267
owaniu 3262
jących 3260
członków 3258
głowę 3258
wiedzę 3257
inn 3257
cenie 3255
kontrolę 3251
ing 3251
nazwisko 3248
potrafi 3246
druga 3245
trakcie 3243
żył 3238
2007 3235
cor@@ 3228
ony 3228
grudnia 3227
widziałeś 3224
azji 3224
zy@@ 3222
lnych 3219
rządu 3217
względem 3215
środki 3212
miałeś 3212
przyszedł 3211
lokalizacja 3211
th 3211
związek 3210
czekać 3208
tor@@ 3204
sze@@ 3202
późno 3201
jemy 3201
mózgu 3199
października 3199
niebo 3199
bur@@ 3196
siedem 3196
apartments 3195
ulicy 3195
prawdy 3194
łbym 3193
sytuacja 3190
państw 3189
wzrostu 3187
jezusa 3185
mieszka 3184
kowy 3183
dają 3182
sty 3179
widział 3179
przejść 3175
kolor 3175
jezu 3170
2009 3169
łóżka 3168
gościom 3168
połączenie 3168
model 3167
tar@@ 3165
om 3165
ałaś 3164
tygodni 3163
własną 3161
młody 3160
spotkać 3159
czka 3159
kimś 3156
kurs 3156
choroby 3155
dawno 3155
win@@ 3153
miały 3153
mer@@ 3152
pamiętaj 3151
najlepszym 3145
cznej 3144
con@@ 3144
szkoła 3143
sejf 3141
bie@@ 3141
europejskiej 3140
powinni 3139
systemy 3139
kro@@ 3138
osobowe 3137
włochy 3137
tys 3134
okresie 3133
kosztów 3132
wolność 3132
społeczeństwa 3131
anej 3130
myśl 3130
sercu 3130
zmienia 3128
ciekawe 3128
przyjaciel 3128
dotyczących 3126
spo@@ 3126
słucham 3124
zy 3120
sp@@ 3119
niniejszej 3114
wewnątrz 3111
pamięci 3110
dziesięć 3109
czki 3107
nia@@ 3106
jechać 3105
programy 3105
godzinę 3104
mc@@ 3103
urządzenie 3103
uniwersytet 3103
żywności 3100
nauczyć 3098
znać 3096
mowy 3096
dę 3094
tre@@ 3094
składa 3093
marca 3092
zaczął 3092
cka 3091
technologia 3091
znajdziesz 3091
kawy 3089
mor@@ 3088
ło@@ 3088
3d 3084
drugim 3081
sprzęt 3080
dach 3079
zajmuje 3077
brytanii 3077
prysznic 3075
działać 3073
tri@@ 3073
że@@ 3072
dziennie 3068
oh 3068
wolno 3066
chin 3066
zła 3066
lę 3066
środków 3065
nić 3064
bezpłatne 3064
znaczenia 3064
decyzji 3063
© 3061
cza@@ 3061
udogodnienia 3060
nienia 3059
spraw@@ 3057
ts 3056
/nie 3053
zrobisz 3053
e-maile 3053
chrystusa 3053
office 3053
dar@@ 3052
ński 3046
las 3046
życiem 3045
stro@@ 3045
sekund 3045
cyjny 3042
tysiące 3041
ilości 3040
jeść 3038
podobne 3034
nieźle 3034
cyjnych 3033
kliknij 3032
biznesu 3032
szą 3031
pokojach 3028
jmy 3027
córka 3025
mógłby 3023
ll 3020
mieszkańców 3019
rodzinę 3017
menu 3016
wymagania 3011
programie 3010
tek 3010
kwestii 3010
głównym 3009
ników 3008
dą 3008
pła@@ 3006
lnego 3005
stwo 3004
wielką 3004
muzyka 3004
płatności 3003
sporo 3001
mocno 3000
idziesz 2996
darmowe 2993
znajdź 2993
rze@@ 2992
ń@@ 2991
zamie@@ 2988
kwietnia 2988
nogi 2988
problemu 2987
lipca 2986
widziałam 2984
rosja 2983
kultury 2982
przyjaciele 2976
33 2974
czyż 2973
ból 2972
wasza 2971
pole@@ 2970
parking 2970
au@@ 2968
dobrą 2966
zrobimy 2963
trwa 2963
nością 2962
innej 2959
jedzenia 2959
narzędzi 2957
uro@@ 2957
zaczekaj 2955
sty@@ 2954
new 2953
serio 2951
ście 2951
dodatkowe 2950
czarny 2950
rza 2950
75 2950
chciałabym 2946
vpn 2945
ojcem 2945
miliony 2945
policji 2942
ducha 2942
związanych 2941
telefonu 2938
wysokości 2937
2000 2937
cenę 2935
zabił 2935
owała 2934
procesu 2933
obiad 2933
kowe 2932
zasobów 2932
międzynarodowe 2931
_@@ 2928
36 2928
biuletyny 2928
tworzenia 2926
telewizji 2924
ie@@ 2924
martw 2923
komunikacji 2918
osobą 2918
słońce 2918
onz 2916
nazwę 2916
komputer 2916
studia 2915
skła@@ 2915
oceny 2913
wrócił 2912
drogą 2912
zależności 2912
źródła 2910
ciąży 2909
cami 2906
przeglądarki 2905
cki 2901
szcze@@ 2900
powyżej 2891
niejsze 2889
dojechać 2888
pełne 2888
tuż 2887
otwórz 2886
koszty 2885
liczbę 2885
szukać 2883
wypadek 2883
czuje 2882
metody 2881
zatrzymać 2877
niesz 2876
ver@@ 2876
myślą 2874
brata 2873
określone 2873
ś 2871
robota 2870
spośród 2870
żoną 2869
punkt 2864
com 2862
zasad 2860
lar@@ 2859
tworzenie 2859
ży 2857
twierdzi 2855
zobaczymy 2851
środowisko 2851
minuty 2850
zajmie 2850
media 2849
umowy 2848
ley 2848
villa 2845
art 2844
wysoki 2843
data 2842
szkoda 2841
mnóstwo 2841
piękny 2840
drugą 2840
powietrza 2835
spróbować 2832
dzi 2830
48 2828
150 2828
han@@ 2824
wrócę 2822
jąca 2820
potrzebują 2819
para@@ 2819
chronić 2818
zespołu 2818
uwierzyć 2816
pić 2814
niebie 2809
it 2808
bal@@ 2806
sekcji 2806
55 2804
ke 2803
wielkiego 2803
george 2803
is@@ 2801
ziemia 2800
polski 2800
czył 2799
gdybyś 2798
pójść 2796
34 2795
pdf 2795
lin@@ 2792
ciasteczek 2790
mieszkanie 2789
mógłbym 2788
funkcja 2787
mini 2785
drugiego 2785
systemie 2781
pomimo 2781
gre@@ 2779
lnym 2778
pomóż 2775
obsługi 2772
wykorzystać 2772
włosy 2771
widzi 2771
niami 2769
użytkownicy 2769
wsparcia 2769
por@@ 2767
sh 2767
powiedziałam 2766
jakoś 2765
damy 2763
własnej 2762
chłopak 2761
brytania 2757
większe 2757
ps 2757
męża 2755
łóżko 2755
ler 2755
reszta 2754
pie 2754
akcji 2754
ha 2754
słońca 2753
połączenia 2753
spróbuj 2750
powrót 2749
automatycznie 2745
obie 2743
niejszy 2742
nów 2742
samą 2740
powie 2739
internetowych 2739
plan@@ 2737
widzimy 2734
materiałów 2733
info 2733
punktów 2733
króla 2731
wypadku 2731
powstał 2728
napisał 2727
jakąś 2727
stoi 2727
ur@@ 2727
prezydenta 2727
1.@@ 2726
ujcie 2726
wyda@@ 2725
komputera 2723
samych 2723
wodę 2721
38 2720
bogiem 2720
sił 2720
badanie 2720
własnego 2719
środka 2719
znalazłem 2717
/i 2717
rozmiar 2716
raport 2712
roboty 2712
nt 2711
wiek 2710
punktu 2709
nazwy 2709
dzić 2708
pobyt 2708
moment 2706
rach 2705
następnym 2705
wiary 2700
szybki 2697
sha@@ 2696
darmo 2694
kre@@ 2687
dobranoc 2686
narzędzie 2686
technik 2684
zrobi 2684
wolny 2684
siostra 2682
mężczyźni 2681
rozmowy 2678
znalazł 2678
uczyć 2677
basen 2677
cele 2676
jedyną 2675
tacy 2675
kocha 2673
firmę 2673
zadanie 2672
ser@@ 2672
pokazuje 2671
stara 2671
py 2670
zostaje 2670
wany 2670
stwa 2668
każdą 2668
budynek 2667
rozwiązań 2666
ostatecznie 2666
der@@ 2665
miesiące 2664
listopada 2664
ve 2663
ly 2659
czyni 2658
dyspozycji 2658
unii 2657
wysokość 2656
zdaniem 2656
prowadzić 2655
kie@@ 2650
kolei 2649
ster 2649
shi@@ 2648
ng 2648
wielkim 2648
otwarte 2646
południowej 2645
przyjaciółmi 2644
bru@@ 2643
nęła 2643
chłopaki 2642
małych 2642
dużą 2641
panem 2637
przeciw@@ 2637
powód 2636
niewiele 2634
tygodnie 2634
wspaniałe 2633
łatwe 2631
mo 2630
kraje 2630
zobaczenia 2628
min 2628
spi@@ 2627
nienie 2626
ję 2626
sto 2625
ia 2623
nieważne 2623
os 2623
powodów 2622
potrzeb 2622
com@@ 2621
uczniów 2621
marki 2620
ode@@ 2620
stare 2620
lepszy 2619
niesamowite 2618
polega 2618
pozwolić 2618
największych 2616
mac 2614
trzymać 2614
wspaniale 2613
biorąc 2612
przeszłości 2611
złego 2610
qu@@ 2609
= 2607
miejscem 2607
ostatnia 2607
poczekaj 2606
42 2605
spa 2605
nicy 2605
telewizję 2605
główne 2603
mil@@ 2602
odpowiednie 2601
dawaj 2600
prosto 2599
spotkania 2598
at@@ 2597
pies 2597
świetny 2597
poland 2596
wymie@@ 2593
biura 2592
wane 2592
własny 2591
głowie 2590
va 2589
znak 2589
poz@@ 2589
dzieckiem 2588
nazywam 2588
firmie 2587
zostań 2586
inną 2585
japonii 2585
tnt 2585
zdecydowanie 2582
łączy 2582
um 2581
dostępny 2580
byłaś 2579
listę 2579
otwarty 2578
plaży 2578
bezpieczne 2578
porównaniu 2576
działanie 2576
książkę 2575
pamiętać 2575
lutego 2575
prawdziwa 2574
usytuowany 2574
nikiem 2572
zmarł 2572
+@@ 2572
wypa@@ 2571
ger 2571
pozycji 2568
cal@@ 2568
słyszysz 2568
on@@ 2568
wały 2568
py@@ 2567
niemczech 2564
północnej 2564
sposobów 2564
internecie 2564
ogień 2564
jork 2561
ciu 2558
dnie 2556
amerykański 2554
mówiłeś 2554
kan@@ 2552
wą 2551
wydarzenia 2551
skarbie 2550
korzystania 2547
ryzyka 2546
is 2544
op@@ 2543
żenie 2542
organizacja 2541
otworzyć 2539
gospodarki 2539
dwu@@ 2539
jakiego 2539
opieki 2538
test 2538
największym 2536
dostępem 2536
zdobyć 2536
użytkownik 2536
przyjdzie 2534
sal@@ 2534
jakaś 2532
wyposażenie 2532
jącego 2529
wałem 2528
szczerze 2527
ck@@ 2527
tora 2527
własności 2526
mowa 2524
biały 2522
filmów 2521
pozostałe 2519
pozosta@@ 2519
pły@@ 2517
cia@@ 2516
wia 2515
młodych 2513
max 2510
frank 2510
gwiazdy 2507
odejść 2507
międzynarodowego 2506
jakiegoś 2505
przeciw 2505
anty@@ 2504
gówno 2503
musicie 2503
nemu 2503
wyposażony 2502
owali 2502
sch@@ 2502
grę 2500
rzy@@ 2498
żonę 2498
owanych 2498
400 2497
cjami 2497
pytań 2496
przed@@ 2493
39 2493
transportu 2492
mem 2492
ple@@ 2491
niezwykle 2491
łby 2489
opinie 2489
99 2488
wiedziałam 2486
michael 2485
ej 2484
opa@@ 2484
sma@@ 2484
klucz 2483
typ 2481
super@@ 2476
sierpnia 2476
pole 2476
znany 2474
przetwarzanie 2474
powierzchni 2472
powinnaś 2468
decyzję 2468
szczęśliwy 2467
okna 2467
sk 2467
jednakże 2466
pierwszych 2466
stanowią 2465
postaci 2463
czasach 2460
czenia 2460
65 2458
widokiem 2458
chłopcy 2458
powoli 2457
nij 2457
dodatkowych 2456
owaliśmy 2455
podstawowe 2455
can@@ 2455
mówiła 2454
ść 2454
ti 2450
kowi 2450
organów 2450
jącym 2449
biurko 2449
dów 2449
torów 2449
słuchać 2447
serii 2443
jedziemy 2443
uj@@ 2442
dzą 2441
psa 2440
przemysłu 2440
górze 2440
s-@@ 2439
elementy 2438
wróci 2437
bezpłatny 2435
większą 2434
muzyki 2434
niki 2433
44 2432
gość 2430
morza 2430
okno 2429
francja 2428
poda@@ 2427
hiszpania 2427
opcji 2427
ymi 2425
zapomnij 2425
działalność 2425
powie@@ 2424
ochrona 2423
jedyny 2423
aplikacje 2422
dodać 2422
analizy 2421
plany 2419
materiały 2419
czenie 2418
waj 2418
prosimy 2417
imieniu 2410
dzieli 2409
tru@@ 2409
banku 2408
kować 2407
głównych 2407
dodatkowo 2406
opisuje 2406
diabła 2406
projektów 2406
dz@@ 2405
ującego 2405
wymiany 2405
sądzisz 2404
szko@@ 2400
międzynarodowy 2398
2006 2397
ująca 2395
leczenia 2395
ana@@ 2394
równie 2393
niezbędne 2393
szkolenia 2392
mózg 2392
towe 2391
tur@@ 2391
lekarz 2390
vo@@ 2390
dan@@ 2390
powinnam 2389
metrach 2387
gotowi 2387
szczęścia 2386
operacji 2386
czytać 2384
niedawno 2382
czyła 2382
zostali 2382
niedługo 2382
waniu 2378
95 2377
pracuję 2376
styl 2376
różnica 2376
szeroki 2376
kierować 2376
24@@ 2374
nne 2371
polska 2369
racja 2369
nu 2368
wrażenie 2368
pacjentów 2368
kategorii 2367
dziewczynę 2367
ważny 2365
pewnym 2363
powiedzieli 2362
wynik 2361
ostatnim 2361
kobietą 2360
biuro 2360
international 2359
filmu 2359
tion 2359
dużych 2358
25@@ 2358
ważna 2357
szef 2357
wyjątkiem 2357
lną 2356
posiadają 2354
byłby 2354
osobiście 2353
37 2352
odpowiedzialność 2350
gru@@ 2349
rodzinie 2346
pi 2345
t-@@ 2345
1000 2345
rów 2344
połowa 2344
wil@@ 2344
przyjacielem 2343
duża 2343
bla@@ 2342
pobierz 2342
dobrej 2342
bri@@ 2342
wydajność 2342
musieli 2342
zu@@ 2341
00 2341
wyniku 2340
pal@@ 2340
lla 2339
ek 2335
boję 2333
narodów 2332
kolację 2331
długi 2331
partii 2330
tekst 2328
szpitala 2328
iphone 2328
chodzić 2327
studio 2326
kowane 2326
kończy 2326
far@@ 2325
średnia 2324
dała 2324
uwielbiam 2323
czę 2321
wracaj 2320
czytaj 2320
pobytu 2320
kości 2319
zadania 2319
kłopoty 2317
chcieli 2317
czasów 2317
00@@ 2316
uważasz 2316
2.@@ 2315
zda@@ 2315
następnego 2315
pozwoli 2313
prace 2311
sprawiedliwości 2311
wracać 2311
specjalne 2310
buty 2310
człowieku 2310
gu 2310
transakcji 2309
zdanie 2308
mówiłam 2308
jącą 2308
chwila 2306
prywatny 2305
wynika 2305
lokalizacji 2303
nione 2302
dr@@ 2302
jecie 2302
miast 2300
główny 2300
następujące 2299
doskonale 2299
izraela 2298
stworzył 2298
żywo 2297
gotowa 2296
ameryce 2295
usunąć 2295
lenie 2294
cholery 2293
woli 2293
bre@@ 2293
dawna 2292
zachować 2291
stały 2290
chłopiec 2290
władzy 2289
ab@@ 2287
oferty 2286
kursy 2285
minutach 2284
now@@ 2284
obrazów 2284
uniwersytetu 2284
odpowiada 2283
cjach 2282
opinii 2282
dził 2281
wspaniały 2281
nowo 2280
stopniu 2280
obra@@ 2279
as@@ 2278
raka 2277
osiem 2277
uczniowie 2277
synu 2276
inna 2276
wana 2276
ustawienia 2274
kariery 2273
mal@@ 2273
cyjnego 2273
musiała 2268
społecznych 2268
podobno 2268
zmie@@ 2266
blo@@ 2266
mat@@ 2266
oboje 2265
rek 2264
rzeczą 2264
mając 2263
elementów 2263
41 2263
dwuosobowy 2261
ostatniej 2260
jącej 2259
aparthotel 2258
2005 2258
opis 2257
mówimy 2256
us@@ 2255
umrzeć 2255
dyrektor 2254
barze 2253
47 2253
dajcie 2252
mon@@ 2250
finansowych 2249
musiałem 2249
wiać 2249
którymi 2247
mike 2247
dorosłych 2245
ych 2244
spokoju 2243
ly@@ 2242
głupi 2242
wz@@ 2241
przestrzeń 2241
zakwaterowanie 2240
tować 2240
najlepsza 2239
łą@@ 2239
1,@@ 2238
opcje 2237
łazienka 2236
dodaj 2236
uniknąć 2236
prysznicem 2235
pomyślałem 2233
własnym 2233
zostawić 2232
rocznie 2232
nauczania 2232
rodziną 2231
nagrody 2230
dokumenty 2230
anglii 2229
platformy 2228
cyjnej 2228
mógłbyś 2227
domki 2227
rz@@ 2227
pc 2226
laboratorium 2225
her@@ 2224
żyją 2224
ża@@ 2223
stów 2223
zwiększyć 2223
sku 2222
43 2221
wspólnie 2221
kochasz 2219
fitness 2219
zł 2218
don 2216
św 2215
owa@@ 2213
sti@@ 2211
ak@@ 2209
stale 2209
cicho 2209
zdolność 2208
lił 2208
obchodzi 2207
zastosowanie 2207
ńskiej 2207
dro@@ 2207
tyłu 2206
natury 2206
szczególności 2206
kuje 2206
klienci 2204
nikomu 2204
ogród 2203
czuć 2203
złota 2203
rany 2203
dami 2202
gene@@ 2201
pracował 2201
kłamstwo 2201
lony 2201
stają 2200
więzienia 2200
utrzymać 2200
wielkości 2200
obrazu 2199
używane 2198
the@@ 2198
sposoby 2197
lia 2197
–@@ 2197
fa 2197
odległość 2195
tworzyć 2195
bie 2195
zrobiła 2195
samolot 2194
warunkach 2193
jedyne 2193
klub 2192
niku 2192
szczegóły 2191
kli@@ 2191
del 2190
gmail.com 2190
ńskiego 2189
charlie 2188
ger@@ 2187
business 2186
wają 2185
ującym 2184
wysokie 2183
uni@@ 2183
ben 2183
sali 2183
układ 2182
znamy 2182
niemy 2182
mogło 2181
ip 2181
ex@@ 2181
pisać 2180
zamiar 2179
małą 2178
bazy 2177
leci 2175
sen@@ 2175
towych 2174
ującą 2174
miejscach 2173
przycisk 2172
wolę 2172
27@@ 2171
sposobem 2170
pol@@ 2170
znaleziono 2170
onych 2169
lnie 2168
parametrów 2168
największy 2167
swoimi 2166
nek 2166
ana 2165
resort 2164
maszyny 2164
wyzna@@ 2163
chętnie 2163
największe 2160
mary 2159
zająć 2157
sprzętu 2156
póki 2153
niby 2152
książek 2152
siła 2150
cznymi 2150
sklep 2149
dostępnych 2147
uratować 2147
niemiec 2147
® 2146
zło@@ 2146
zaprawdę 2145
siłę 2145
zebrane 2144
przyjaciela 2143
odpowiedzialności 2142
lo 2141
wielo@@ 2141
szansa 2141
cieszyć 2140
kow@@ 2139
oce@@ 2139
fer@@ 2139
zabawne 2138
30@@ 2138
zdolności 2138
cu 2138
trzeci 2137
36@@ 2137
doktor 2137
nił 2135
szukasz 2135
stóp 2134
najczęściej 2133
ał 2133
bi 2133
najlepszą 2133
ted 2132
wyników 2131
dużej 2131
liczy 2130
przypadkach 2130
kowania 2128
wykorzystujemy 2126
tyczny 2126
pracownicy 2125
den@@ 2124
sko 2121
obszar 2121
obrony 2121
fre@@ 2120
pe 2120
ruszaj 2120
osiągnięcia 2119
zapewnienia 2118
statek 2118
im@@ 2117
am@@ 2116
wyjścia 2115
nowi 2114
fla@@ 2113
nau@@ 2113
tyczne 2113
patrzeć 2113
pozycję 2111
dzenie 2111
czu@@ 2111
systemem 2110
rośnie 2109
35@@ 2109
atak 2109
owaniem 2109
uciec 2109
biznes 2108
środowisku 2108
stu 2108
ya@@ 2107
mediów 2107
gotowe 2106
londynie 2105
angielski 2105
nigdzie 2104
bagażu 2103
wyraźnie 2102
dow@@ 2102
200@@ 2102
zobaczysz 2102
zajęcia 2101
problemem 2100
gor@@ 2100
podejście 2099
usługa 2098
poczucie 2098
dowód 2097
paul 2097
oglądać 2096
materiał 2096
strach 2096
ludzkości 2095
zegarek 2095
oba@@ 2095
nauka 2094
zagranicznych 2093
pełna 2093
okolicy 2092
hasło 2092
eli@@ 2091
władze 2091
kła@@ 2090
komputerze 2090
długość 2089
duszy 2089
ll@@ 2087
rada 2086
osobę 2086
doktorze 2085
dań 2085
witamy 2084
lekarza 2084
lone 2084
kg 2083
mikro@@ 2083
niedaleko 2081
0,@@ 2080
pamięć 2079
inwestycji 2079
jakiej 2079
brawa 2079
kluczowe 2079
jakich 2079
world 2079
1-@@ 2078
-nie 2078
zasadzie 2076
zeszłym 2076
warunków 2076
49 2075
przychodzi 2075
cem 2073
rowi 2073
land 2072
zabawy 2071
australii 2071
przygotować 2070
id 2070
lubią 2068
james 2068
znajdziemy 2068
robił 2068
matką 2066
85 2065
ss@@ 2065
46 2065
ster@@ 2064
podzie@@ 2063
czony 2063
wszystkimi 2062
cyjna 2062
facebook 2061
5-@@ 2059
/w 2057
witryny 2057
ognia 2056
chy 2056
czysz 2055
zapewne 2054
grze@@ 2053
kanałów 2052
rować 2052
grze 2051
faktycznie 2051
auto@@ 2050
zapytać 2049
/to 2048
okazało 2047
łącznie 2046
tuje 2045
niejsza 2044
dru@@ 2044
letniskowe 2044
aplikacja 2044
dałem 2043
dokumentów 2043
doszło 2042
szukam 2041
wojnę 2040
prawem 2039
23@@ 2038
potrafię 2038
decyzja 2038
kuj 2037
trzecie 2037
słyszę 2037
połowie 2036
rezerwacji 2036
zakres 2035
pojawił 2035
oba 2035
używa 2033
żadne 2031
64 2031
niony 2031
instytucji 2029
czkę 2029
ślub 2029
resztę 2029
stą 2028
ńskie 2027
26@@ 2027
stu@@ 2025
słyszałeś 2024
naturalne 2022
sia@@ 2020
ża 2020
prawdziwym 2019
pasuje 2018
ing@@ 2018
znajdzie 2018
wszy 2016
wykonać 2016
żenia 2016
powodzenia 2016
technologie 2015
powstrzymać 2015
rozwijać 2015
koszt 2014
chodziło 2014
ang 2013
david 2013
lot 2012
oczach 2011
dniach 2010
realizacji 2008
zachowanie 2006
niejszych 2004
wracam 2004
podwójne 2004
ski@@ 2004
dowiedz 2003
źródeł 2003
poszedł 2003
projektowania 2002
świętego 2002
twoi 2001
obiecuję 2001
powoduje 2000
wer@@ 2000
ac@@ 2000
· 2000
większy 1999
51 1999
zdaje 1999
oferują 1999
giem 1998
kamery 1998
dziękujemy 1998
kowych 1998
plus 1998
bycie 1997
klimatycznych 1996
low@@ 1995
ogrzewanie 1994
try@@ 1993
prasowania 1993
bel@@ 1991
ura@@ 1991
przestać 1990
odkąd 1989
prawej 1988
lenia 1988
nka 1988
koło 1986
dzę 1985
nikami 1985
for 1985
używany 1984
dź 1984
amerykańskich 1983
0.@@ 1982
kry@@ 1980
strategii 1980
ford 1980
dobrych 1979
mówili 1978
jedyna 1977
wcześnie 1974
sąd 1973
skóry 1973
50@@ 1973
potrzebny 1972
próbuje 1972
spacerem 1971
sukcesu 1971
bliżej 1971
śmie@@ 1970
ren@@ 1969
gospodarka 1969
oko 1968
oczu 1967
wła@@ 1967
wyglądać 1967
walka 1966
bierze 1965
3.@@ 1963
niła 1963
zaczęła 1962
łu@@ 1962
jedno@@ 1962
piątek 1961
mld 1961
ami 1960
szybkie 1960
popatrz 1960
miły 1959
uży@@ 1959
rodzaje 1958
wydajności 1958
wierzyć 1958
modelu 1958
pojawia 1955
dysponuje 1954
tworzy 1954
strasznie 1952
nawzajem 1952
dza 1952
,@@ 1952
37@@ 1952
urodziny 1951
sku@@ 1951
domy 1951
sześciu 1949
produkcja 1949
tan@@ 1948
charakter 1948
kowa 1948
czyć 1947
obrazy 1946
chciałeś 1945
roli 1944
en 1944
zdra@@ 1944
podstawowych 1941
milion 1941
mieszkania 1941
miliona 1939
er 1939
wszelkich 1939
rza@@ 1939
tycznych 1938
klient 1937
służby 1937
ogromne 1936
dostał 1936
rozwiązać 1936
gry@@ 1936
chu@@ 1935
pięknie 1935
byśmy 1935
konferencji 1934
szpitalu 1934
nauk 1934
den 1934
pola 1933
śle@@ 1933
king 1933
znane 1933
tnie 1932
wysta@@ 1932
lić 1932
letni 1932
setki 1931
złoto 1931
czyste 1931
lewej 1930
2004 1930
uczucie 1929
tycznego 1929
jednostki 1928
przyjść 1928
52 1928
dowody 1927
wakacje 1927
obywateli 1927
śnie 1927
znajdą 1926
sar@@ 1926
międzynarodowym 1925
użytku 1925
center 1924
sądzie 1924
tanie 1924
forum 1924
tony 1923
znaki 1922
peter 1922
itp 1922
wyjaśnić 1922
be 1921
ali@@ 1920
żadna 1920
owo 1919
e-@@ 1919
dor@@ 1918
sens 1918
projekty 1918
wojnie 1918
/a 1917
obejmują 1916
zie 1916
parku 1916
wyłą@@ 1916
stali 1916
wało 1914
wykorzystuje 1913
ochronę 1913
zmieni 1912
dni@@ 1912
liz@@ 1912
żyła 1912
afryki 1912
finansowe 1910
prezent 1910
mana 1910
em@@ 1909
29@@ 1908
19@@ 1908
móc 1908
regionie 1907
szuka 1907
psy 1905
przodu 1905
niebezpieczne 1903
kobietę 1903
€ 1903
czać 1902
hiszpanii 1902
duch 1902
obsługa 1902
name 1901
niona 1901
ńska 1900
najnowsze 1899
abyś 1899
drzewa 1899
ograniczenia 1898
owałem 1896
per 1895
kowego 1895
android 1894
dze 1894
punktach 1894
przypadków 1893
mego 1892
tory 1891
pewność 1889
naszymi 1889
cechy 1888
herbaty 1887
hd 1887
wymagane 1886
błędy 1886
:@@ 1885
dojazd 1885
zabierz 1885
dali 1885
krzy@@ 1884
meta@@ 1884
master 1884
ju 1883
rozpocząć 1883
uj 1883
usłyszeć 1881
home 1881
zale@@ 1881
metod 1880
armii 1879
rzadko 1878
cony 1877
dokonać 1877
umysł 1877
chodźcie 1875
ciem 1875
tań@@ 1875
nor@@ 1873
ukry@@ 1873
rozumie 1871
znaczników 1870
joe 1870
żą@@ 1870
cyjnym 1869
ręki 1869
dia@@ 1869
pen@@ 1868
zachowania 1867
mogłam 1867
odpowiedział 1865
zwrotu 1865
najszybciej 1864
żołnierzy 1864
ścią 1864
era 1864
komunikatu 1864
wysłać 1863
szę 1863
będąc 1862
2003 1861
efekt 1860
ludzkie 1860
zd@@ 1859
siostry 1859
trzy@@ 1858
wło@@ 1856
mogły 1856
odda@@ 1856
tymczasem 1856
dosyć 1856
szych 1855
tele@@ 1855
sprzeda@@ 1854
południu 1854
przemysł 1854
ff 1853
podjąć 1853
fbi 1852
miesiącu 1852
38@@ 1852
czych 1851
mecz 1851
college 1850
jakimś 1849
angeles 1849
specjalnie 1849
leki 1848
zadań 1848
28@@ 1847
angielskiego 1846
dzony 1846
mil 1846
leków 1845
córki 1844
tygodnia 1843
bracie 1843
brać 1843
poprawić 1842
paryżu 1842
dziewczyną 1842
niają 1842
zde@@ 1842
201@@ 1841
powietrze 1841
pisze 1841
chicago 1841
techniczne 1840
4.@@ 1840
zniszczyć 1839
wyzwanie 1839
teorii 1839
s.@@ 1838
bor@@ 1838
ły@@ 1838
prawdą 1838
ste 1837
sensu 1837
dole 1837
tędy 1836
ir@@ 1836
ogromny 1836
van 1836
wę 1835
wyszukiwania 1835
lać 1834
działają 1834
owszem 1833
moglibyśmy 1833
pół@@ 1833
kapitanie 1832
bezpieczny 1832
punkty 1832
zawie@@ 1831
linie 1831
izrael 1831
ojcze 1829
jem 1829
harry 1829
święty 1829
komuś 1829
zadzwonić 1828
gl@@ 1826
nagrodę 1825
nny 1825
ofiar 1825
biznesowych 1825
niać 1824
wej 1823
ującej 1822
post 1822
małżeństwo 1821
liczyć 1820
45@@ 1819
opisanych 1818
museum 1818
odwiedzić 1817
głęboko 1817
ment 1817
nazwie 1816
zrobili 1816
konwencji 1816
umarł 1815
wia@@ 1814
błędów 1814
zer@@ 1813
większej 1813
znaleźliśmy 1813
nięcie 1813
miesiąca 1812
komórki 1812
szanse 1812
granicą 1812
bezpiecznie 1811
doświad@@ 1811
aktualizacji 1811
służyć 1809
zapłacić 1808
społeczeństwo 1808
wiedziała 1808
mieszkańcy 1808
przemocy 1806
misji 1804
przedsiębiorstwa 1804
formy 1804
polu 1804
stosunku 1803
kowanie 1803
gan@@ 1802
gal@@ 1802
zrobiłam 1802
terytorium 1802
jedź 1802
przykładem 1801
dużym 1800
ogólnie 1799
komisji 1798
połowę 1798
czona 1798
wskazuje 1798
zasoby 1797
węgla 1796
fajnie 1796
ogólne 1796
wił 1796
cen 1795
świe@@ 1794
ocena 1792
pri@@ 1792
posta@@ 1791
men@@ 1791
handel 1790
okazję 1790
rana 1790
60@@ 1789
zwrócić 1788
niez@@ 1788
największą 1788
wygląd 1788
stopień 1787
sumie 1787
wykorzystanie 1787
zawartość 1787
wierzysz 1787
ner@@ 1787
lin 1786
większa 1786
wieści 1786
pełną 1785
iii 1785
pewny 1785
krę@@ 1785
potrafią 1785
podaj 1785
dzieła 1784
zajmę 1784
wziął 1784
wych 1784
członkiem 1784
udziału 1784
ru 1783
wersję 1783
naukowców 1783
autor 1782
publicznego 1782
znaków 1781
nieruchomości 1781
ol@@ 1780
należącej 1780
stworzenie 1780
mię 1779
europa 1779
pia@@ 1779
planu 1778
szukaj 1778
sądu 1777
dźwięk 1776
budowy 1776
kolejnych 1775
szkół 1774
prędkość 1774
sil@@ 1774
cm 1773
strze@@ 1772
ust 1771
kodu 1771
kart 1770
pas@@ 1770
tk@@ 1770
święta 1770
wyglądają 1770
♪ 1769
prywatnych 1768
swych 1768
cał@@ 1767
alne 1767
liby 1767
grup 1765
lizacji 1765
obaj 1764
kochać 1762
leczenie 1762
ten@@ 1761
she@@ 1761
ios 1760
odnaleźć 1760
nieu@@ 1760
kor@@ 1760
widzicie 1760
myślenia 1759
biznesowe 1759
znajdę 1759
39@@ 1759
tes 1759
wychodzi 1759
zamierzam 1758
rowe 1758
kontynuować 1758
pogadać 1757
wyspy 1757
oficjalnie 1757
4-@@ 1756
rzem 1756
zapomnieć 1756
gwiazd 1755
oli@@ 1755
ye@@ 1754
cić 1754
mia@@ 1753
nienawidzę 1753
250 1753
mp@@ 1753
przysługujących 1753
odzyskać 1753
oferujemy 1752
zażalenia 1752
praktycznie 1750
mar 1749
afryce 1749
wić 1749
wsta@@ 1749
red 1748
martwić 1747
przyjęcie 1747
os@@ 1746
nki 1745
samochody 1745
statku 1745
bić 1744
żą 1744
stamtąd 1744
ot@@ 1743
potrzebna 1743
q 1742
zarządzanej 1741
kowany 1741
przepisy 1740
ofiary 1740
snu 1740
gh@@ 1740
usługę 1740
łatwiej 1739
księżyc 1739
naukowych 1738
nisz 1738
synem 1738
ropy 1738
szenie 1737
napisać 1736
czone 1735
pracują 1735
wielkich 1734
obu@@ 1734
ące 1733
koleś 1733
kanał 1733
społecznej 1733
ozna@@ 1733
dostaniesz 1733
powiedziałaś 1732
religii 1732
um@@ 1731
67 1730
poważne 1730
zrozumienie 1730
dodał 1730
dotrzeć 1730
53 1730
stosowania 1730
40@@ 1729
pokażę 1729
czymy 1729
auto 1728
wygrać 1727
dzenia 1727
użyj 1726
oskar@@ 1726
poświę@@ 1726
książę 1725
łek 1725
standard 1725
dowolnego 1725
rę 1724
lek 1724
suites 1723
é@@ 1722
nięcia 1722
cił 1721
2-@@ 1721
dotąd 1719
wiedza 1719
val@@ 1719
odpowiednio 1719
tkę 1718
dwoma 1718
ubrania 1718
ź@@ 1718
so 1717
dala 1717
lona 1717
pikselowych 1716
kują 1716
ruszać 1716
600 1715
przysięgam 1715
gen 1714
procesów 1714
przyznać 1714
balkon 1712
dora@@ 1712
ę@@ 1711
rzu@@ 1711
komisja 1711
sytuację 1710
klientom 1710
młoda 1710
gorzej 1710
wezmę 1709
zapewniają 1709
zmienił 1709
perspektywy 1708
nar@@ 1708
transport 1707
podać 1707
czerwony 1707
łów 1707
cone 1707
henry 1706
odwie@@ 1705
istotne 1705
nii 1705
decyzje 1704
wierzy 1704
energię 1703
opcja 1703
więzieniu 1703
nica 1702
niania 1702
stopnia 1701
publicznych 1701
planety 1701
dowodów 1701
szefie 1701
wki 1701
okazuje 1701
wraca 1700
rękach 1699
zaczęło 1699
stan@@ 1698
66 1698
przyszłym 1697
rom 1697
naprawić 1697
komentarze 1697
godzinach 1697
pro 1696
wyba@@ 1696
tr@@ 1696
gli@@ 1696
domem 1694
społeczne 1694
włą@@ 1694
weekend 1694
jaja 1693
dziewczynka 1693
próbował 1692
aktualizacja 1692
europejska 1691
publicznej 1691
wyrzu@@ 1691
łaby 1690
ujemy 1690
wol@@ 1689
stworzenia 1689
obszarze 1687
lepszego 1686
najwięcej 1686
takimi 1685
wolne 1685
wskazówki 1685
jazda 1685
stru@@ 1685
speł@@ 1683
starego 1683
lee 1683
dostawy 1682
ładnie 1682
politycznych 1682
wysoko 1682
pociąg 1682
zmieniło 1681
słu@@ 1681
właściwości 1681
mba 1681
tryb 1681
szenia 1679
zgadzam 1678
72 1678
lam 1678
poniedziałek 1677
swej 1677
56 1676
ofertę 1676
najwyższy 1676
mieści 1676
via 1675
wym 1675
ks 1675
absolutnie 1674
policję 1674
bólu 1674
nadziei 1674
świetne 1674
przypomina 1673
kwestia 1673
kryzys 1673
54 1672
otrzymał 1672
rea@@ 1672
mieszka@@ 1672
faceta 1671
skimi 1669
oczywiste 1669
nowoczesne 1669
żyjemy 1669
architektury 1669
miliardów 1669
pojedyncze 1669
bycia 1668
kroki 1667
są@@ 1667
zamknąć 1666
wymagają 1665
śmiercią 1665
01 1665
towy 1665
ktokolwiek 1664
dając 1664
tow@@ 1664
świadomość 1663
dostałem 1662
interesuje 1662
matkę 1661
gór@@ 1661
ataku 1661
ciele 1660
praktyki 1660
taras 1660
rowane 1660
c-f 1660
prawdziwą 1659
mer 1659
północy 1659
polsce 1657
kawę 1657
odkry@@ 1657
zrozumienia 1655
wino 1655
odniesieniu 1654
metoda 1654
współpracę 1654
boli 1654
chorób 1654
prosty 1654
komputerów 1653
liczne 1653
ryby 1653
zresztą 1653
maria 1653
rodzin 1652
członkowie 1651
uczucia 1650
biurze 1650
łóżku 1650
innowacji 1650
nąłem 1650
instalacji 1649
lotniczy 1649
panno 1649
grecja 1649
ur 1648
spe@@ 1648
waszych 1647
uczelni 1646
synów 1646
6.@@ 1645
źródłem 1645
ap@@ 1645
oby 1645
dzeniu 1645
rzeki 1645
pę@@ 1645
sklepu 1643
żar@@ 1643
bracia 1643
kolejowej 1643
zadzwoń 1642
małym 1642
dar 1641
przedsiębiorstw 1640
alny 1640
57 1640
serwera 1639
zabiję 1639
skończy 1639
koń@@ 1637
ver 1637
karta 1636
lodówkę 1636
wodą 1636
wro@@ 1635
at 1635
żyli 1635
sygnał 1634
sztuka 1633
cyjną 1633
3-@@ 1633
publiczne 1632
gło@@ 1632
klimatu 1631
zajęty 1631
kle@@ 1630
radość 1630
towa 1630
usu@@ 1630
ls 1630
angielskim 1630
czasy 1630
przyjemność 1629
ależ 1629
europejskich 1628
niejszym 1628
owano 1627
prac 1626
graczy 1626
wniosek 1626
ostrożnie 1625
ckie 1625
przekazać 1625
stopni 1625
wo 1625
ul@@ 1624
artykułu 1623
obawiam 1623
świ@@ 1623
wybory 1623
dojść 1623
trzecia 1622
znaleźli 1622
bli@@ 1622
wejdź 1621
geo@@ 1621
pora@@ 1621
5.@@ 1621
zakresu 1621
linia 1620
ć@@ 1620
obiektów 1618
ludu 1618
pracujesz 1617
prosić 1617
58 1617
rował 1617
zga@@ 1616
jakbym 1616
wyobrazić 1616
pełen 1616
szczy@@ 1615
die@@ 1614
małego 1614
zakupy 1614
pójdzie 1613
stwierdził 1613
premier 1612
dzisz 1612
kontrola 1611
godzina 1611
ele@@ 1610
tt 1610
es 1609
słyszałam 1609
nosić 1609
władzę 1608
służy 1608
silny 1607
uważają 1606
drinka 1605
ekranem 1605
sport 1605
lewo 1604
or 1603
łatwy 1603
czynienia 1603
serwowane 1603
relacje 1602
śmieszne 1602
jan@@ 1602
rozpozna@@ 1602
wienia 1601
potrafisz 1601
ludności 1601
potencjał 1601
spę@@ 1600
wienie 1600
obszarach 1600
przyszła 1599
ia@@ 1599
rzenia 1599
wierzą 1598
amerykańskie 1597
kowej 1597
tyczna 1597
czyłem 1597
następne 1596
pojawi 1595
lle 1595
zapewnienie 1595
zamknięte 1595
wyra@@ 1594
rewolucji 1594
południe 1594
ludzkiego 1594
zacząłem 1593
59 1592
torem 1592
wego 1592
kawałek 1591
wpływu 1590
całości 1590
cach 1589
chciałbyś 1589
800 1589
boisz 1588
nianie 1587
nieprawda 1586
twego 1586
łoby 1586
twierdzą 1586
mą 1586
uzna@@ 1585
artykuły 1584
dałeś 1584
→ 1583
kt@@ 1582
pora 1581
ben@@ 1580
dobę 1579
ostatniego 1579
lly 1579
pojazdów 1578
dzieciom 1578
spółki 1578
daty 1577
indiach 1577
momentu 1576
wspólne 1576
zaufanie 1576
wynajem 1576
yo@@ 1576
ciśnienie 1576
maksymalnie 1575
dziesięciu 1575
fal@@ 1575
49@@ 1575
nes 1575
zachód 1575
link 1575
rz 1575
relacji 1575
zasada 1574
zastrzeżone 1574
białe 1574
uczestników 1574
świę@@ 1574
fra@@ 1574
córkę 1574
śpie@@ 1573
próbuję 1572
śmieci 1572
należą 1572
rol@@ 1572
kartę 1571
waniem 1571
suszarką 1570
specjalistów 1570
agencji 1570
dumny 1570
hy@@ 1570
pozostałych 1569
ckiego 1569
sposobu 1569
net 1569
bożego 1568
piwo 1568
usta 1568
uzyskania 1567
mę@@ 1567
ud@@ 1567
il 1566
naprzód 1566
odpowiedni 1566
szczęśliwa 1566
alex 1565
wu 1565
rąk 1565
/ale 1565
tycznej 1565
chiński 1564
uspokój 1564
stój 1564
ilu 1564
sia 1564
towego 1564
wiedzieli 1563
światowego 1563
iso 1563
wypeł@@ 1562
nna 1562
fin@@ 1562
umowę 1562
strefy 1561
siedmiu 1561
pozbyć 1561
komu 1560
oparciu 1560
dokument 1560
wyżej 1559
wstawaj 1558
umowa 1558
ji 1558
mai@@ 1558
9.@@ 1557
6-@@ 1557
80@@ 1556
odpowiedzialny 1556
wifi 1555
rowania 1555
wykorzystania 1555
towarów 1555
występuje 1554
rozkaz 1554
niom 1554
68 1554
tzw 1554
siedzieć 1554
salę 1553
każdemu 1552
chwileczkę 1552
testy 1552
char@@ 1551
120 1551
4,@@ 1551
mro@@ 1550
inter@@ 1550
początkowo 1549
zastosowania 1549
spojrzeć 1549
zagrożenia 1549
akurat 1548
lą@@ 1547
1:@@ 1547
pozwalają 1547
producentów 1546
stanowisko 1546
wprowadzenie 1544
niemiecki 1544
lud 1544
wyle@@ 1543
ruchy 1542
szcz@@ 1542
wprowadzić 1541
radio 1540
wyjście 1540
indziej 1540
nięty 1540
łyśmy 1540
zadaniem 1540
ale@@ 1540
skończyć 1540
kosztuje 1539
przyczyny 1539
internetowe 1539
światem 1538
częściej 1538
bitcoin 1538
ważną 1537
wodzie 1537
domów 1537
głosu 1536
dan 1536
oferowane 1536
skiem 1535
sowi 1535
techniki 1535
populacji 1535
międzynarodowa 1534
mark 1534
zginął 1534
zadowolony 1534
działo 1532
czekam 1532
zamek 1532
wiarę 1532
ment@@ 1532
gościa 1532
hal@@ 1532
kontrolować 1531
eu@@ 1530
mę 1530
sło@@ 1530
trudności 1530
skutki 1529
abym 1529
paryż 1528
wałam 1528
świetna 1528
róż@@ 1528
sensie 1528
ira@@ 1528
zaczynają 1527
gów 1527
gazu 1527
zała@@ 1527
wpis 1527
owymi 1527
organizacje 1526
kru@@ 1526
skra@@ 1525
kana@@ 1525
alkoholu 1524
czają 1524
wydarzeń 1524
poprawy 1524
taa 1523
dzone 1522
69 1522
poszło 1522
zagrożenie 1521
nimy 1521
stosowane 1521
stopy 1521
uczynić 1521
przepisów 1521
jane 1520
wyszedł 1520
tycznym 1519
element 1519
school 1519
zrównoważonego 1519
danie 1518
kuchnia 1518
zmianę 1518
prędkości 1518
sezon 1517
wan@@ 1516
emisji 1516
klubu 1515
miałaś 1515
jasno 1515
określić 1514
handlowe 1514
staram 1514
dusza 1513
analiza 1513
dvd 1513
suite 1512
sona 1512
informacja 1512
dri@@ 1511
tłu@@ 1511
mistrz 1510
cam 1510
zadzwonię 1510
ochotę 1509
8.@@ 1509
przypadek 1509
pakiet 1509
pobrać 1509
najlepszego 1509
rzą@@ 1508
prośbę 1508
wydarzyło 1508
88 1507
żebyśmy 1507
podobny 1506
współpraca 1506
top 1505
czerwone 1505
mari@@ 1504
słychać 1504
uszy 1504
nieniu 1504
zamówienie 1504
wiatr 1503
zaufania 1502
rozpa@@ 1502
zaczynamy 1501
tamtej 1501
ńskich 1501
sprawą 1501
wieloma 1501
samochodzie 1501
zmy@@ 1501
tekstu 1501
61 1500
układu 1500
63 1500
rozmowę 1499
ed@@ 1498
pomyśl 1498
bud@@ 1498
ówka 1498
wprowa@@ 1498
zawartości 1497
62 1496
jadę 1496
modele 1496
amerykańskiej 1496
dziewięć 1496
sach 1495
drzewo 1495
reklamy 1495
chciałby 1495
dowolnym 1495
wyślij 1495
zostałem 1494
wiają 1494
kolo@@ 1494
cen@@ 1493
korei 1493
pełnym 1493
małej 1493
ng@@ 1493
bawić 1493
partnerów 1492
języków 1492
czyły 1490
przekonać 1490
jedzie 1490
usiądź 1490
zatrzymaj 1489
status 1489
żydów 1489
d-@@ 1489
nieniem 1489
pozostać 1488
cenia 1488
odpowiedzieć 1487
wpa@@ 1486
idealne 1486
ściśle 1485
dziwnego 1485
chro@@ 1485
martwy 1485
wielkość 1484
ray 1484
płaskim 1483
boi 1483
anna 1483
oparte 1482
hotelem 1482
xx 1481
byłaby 1481
gać 1481
między@@ 1481
spacer 1481
choroba 1480
ochroną 1480
szereg 1480
ujesz 1479
idą 1479
as 1479
różni 1479
road 1479
jasna 1478
tłumaczenie 1478
powiedzenia 1478
usz 1478
regularnie 1477
robert 1477
globalnej 1476
10-@@ 1476
len@@ 1476
poży@@ 1476
kolejna 1476
cel@@ 1476
wchodzi 1476
prawdziwego 1475
76 1475
kontakty 1475
logii 1475
youtube 1474
przyjąć 1474
uniwersytecie 1474
tożsamości 1474
wręcz 1473
ludzkich 1473
zimno 1473
owi@@ 1472
pomagają 1472
paliwa 1472
studentom 1471
gen@@ 1471
osobiste 1471
86 1471
znają 1470
przewo@@ 1469
zwycięstwo 1469
sala 1469
outlook 1469
nta 1469
ameryka 1469
lami 1468
żone 1468
chu 1468
zapach 1467
tkami 1467
piękno 1467
stracił 1467
funkcję 1467
rowych 1466
najbliższych 1466
kwiatów 1466
wyzwania 1466
zabawa 1466
ludzkiej 1465
rowany 1465
młodzi 1465
plu@@ 1465
waszym 1464
połączeń 1464
królowa 1464
udostęp@@ 1463
trzyma 1463
sow@@ 1463
zero 1463
ówki 1463
żartujesz 1463
ekonomii 1462
jakbyś 1462
kową 1461
termin 1461
pozwolę 1460
steve 1460
pochodzą 1460
przeczytać 1460
test@@ 1460
lekarze 1460
doda@@ 1459
ad 1459
towane 1459
grupę 1459
obej@@ 1458
regulamin 1458
kapitan 1458
vi 1458
mont@@ 1457
cre@@ 1457
77 1457
waga 1457
najważniejszych 1457
popularne 1457
meksyku 1456
dwadzieścia 1456
ekspertów 1455
wpływa 1455
osa@@ 1455
wamy 1455
obecność 1454
gratulacje 1454
mile 1454
trybie 1454
polityczne 1454
łbyś 1453
sprzedać 1453
średnio 1453
star 1452
wysoka 1451
procesie 1451
pis@@ 1450
maszyna 1450
3-gwiazdkowy 1450
inżynierii 1450
pomysły 1450
dostawców 1449
group 1449
pewnych 1449
czarne 1449
wejście 1449
96 1448
niejszego 1447
obsługuje 1447
robotę 1447
pomogą 1446
minister 1445
robicie 1445
sam@@ 1445
skuteczne 1445
próby 1445
santa 1444
czekają 1444
dzili 1444
normalne 1444
tne 1443
min@@ 1442
kował 1442
różnice 1442
nnych 1441
drużyny 1441
tyłek 1441
czem 1440
pomi@@ 1440
samolotu 1440
ostatnią 1439
rzeczywistym 1439
wyspie 1439
upewnić 1439
przeczytaj 1439
wschód 1439
umiera 1438
użycia 1438
ustawy 1438
lokalne 1438
portu 1437
sydney 1437
ser 1437
osob@@ 1437
cal 1437
urodził 1437
ciemności 1437
rzeczywistość 1437
czynności 1436
opuścić 1435
podstawy 1435
zakwaterowania 1435
bogaty 1435
dana 1435
zmieniać 1435
szo@@ 1435
zostaniesz 1434
zada@@ 1434
prawne 1434
czynniki 1434
gwiazdek 1433
skali 1433
kolejnym 1433
deszcz 1433
wolnego 1433
restaurant 1433
mogłeś 1432
narodowego 1432
82 1432
zrobiłaś 1432
nili 1432
mac@@ 1431
cam@@ 1431
przestrze@@ 1431
zobaczę 1430
filmie 1430
pozna@@ 1430
niejszą 1430
odbywa 1430
bob 1430
sklepie 1429
klasie 1429
przyjacielu 1429
‘ 1429
rzym 1428
ed 1428
tny 1428
zmniejszyć 1428
club 1428
mow@@ 1428
zie@@ 1428
anymi 1427
ji@@ 1427
chrystus 1427
doskonałe 1427
azure 1427
led 1427
zauważyć 1427
tysiąc 1427
bry@@ 1427
wschodniej 1426
odpowiednich 1426
stracić 1426
wzrosła 1425
7-@@ 1425
nos 1424
grand 1423
kowym 1423
silne 1422
warte 1422
kowanych 1422
szego 1422
podróż@@ 1422
3,@@ 1421
kolejną 1421
wach 1420
głupie 1420
cona 1420
objawy 1420
teren 1419
połączyć 1419
mó@@ 1419
2002 1419
78 1418
przeży@@ 1418
nazwiska 1418
mog@@ 1418
aktywności 1417
grupie 1417
opłaty 1417
zło 1417
sc 1417
łabym 1417
kilometrów 1416
87 1416
lach 1416
dzeniem 1416
patrzcie 1416
kie 1416
pójdziesz 1416
dostar@@ 1416
89 1416
dziedzi@@ 1415
kategorie 1415
wałeś 1414
maszyn 1414
lon 1414
libyśmy 1414
chory 1413
chem 1413
opiera 1413
lotu 1412
widzieliśmy 1411
poma@@ 1411
nionych 1411
pokazują 1411
podzielić 1410
muzykę 1410
miarę 1410
amerykanie 1409
walce 1409
dostaw 1408
ńskim 1408
rozpoczął 1408
piersi 1407
ograni@@ 1407
chłopca 1407
wier@@ 1407
straszne 1406
des 1406
wan 1406
kary 1405
zrobiliśmy 1405
poczekać 1405
zapytał 1405
cio@@ 1405
zakła@@ 1404
nice 1403
braci 1403
dziła 1403
patrząc 1403
tel 1403
ri 1403
ministerstwo 1403
złapać 1402
uczenia 1402
zaczęli 1402
zęby 1402
szkolenie 1402
społecznościowych 1402
żyjesz 1402
przyj@@ 1402
wsi 1402
west 1401
miastach 1401
siedzi 1401
światowy 1401
uczy 1400
granice 1399
prowadzenia 1398
testów 1398
umieścić 1397
firmą 1397
obro@@ 1397
zainstalować 1396
towany 1395
way 1395
przenieść 1395
usuń 1395
znajomych 1395
jan 1394
zakończeniu 1394
szans 1394
społeczność 1394
funtów 1394
zbudować 1394
idealny 1394
stka 1394
długie 1393
napisane 1393
nauczycieli 1392
skie@@ 1392
genera@@ 1392
o-@@ 1391
łe 1391
kole@@ 1390
opła@@ 1390
opowieść 1390
ujmy 1390
odrzu@@ 1387
zachodniej 1387
okej 1386
francuski 1386
komentarz 1386
demo@@ 1385
fakty 1385
dołą@@ 1384
pokonać 1384
row@@ 1384
szukamy 1384
słuchajcie 1384
londyn 1384
amerykańskiego 1383
swe 1383
zdarza 1383
zdoby@@ 1383
imperium 1382
całość 1382
łodzi 1382
moimi 1382
stwem 1382
ker 1381
inwestorów 1381
czekamy 1381
próbowałem 1380
danym 1380
365 1380
wiał 1380
główną 1379
obecny 1379
rowy 1379
nagroda 1379
73 1378
pomogę 1377
przyzna@@ 1377
pier@@ 1377
pójdziemy 1377
miła 1376
wielokrotnie 1376
braku 1376
waszej 1376
/że 1376
ron 1375
taj@@ 1375
minęło 1374
zamówienia 1374
najwyraźniej 1374
casa 1374
znanych 1374
mię@@ 1373
dzieło 1373
ślady 1373
bieg@@ 1373
myślicie 1373
kanały 1373
ładne 1373
przyszłych 1373
zostanę 1373
hol@@ 1372
platforma 1372
serwer 1372
interes 1371
wykry@@ 1371
obszary 1370
line 1370
powszechnie 1370
oka 1370
okay 1370
ważnym 1370
świadomości 1370
przygotow@@ 1369
wschodzie 1369
wzajemnie 1369
zwie@@ 1369
przeciwieństwie 1368
wyposażonych 1367
dal@@ 1367
pow@@ 1366
ble@@ 1366
widzą 1366
usiąść 1366
rozbi@@ 1365
użytkownikom 1365
czej 1364
gdziekolwiek 1364
zawierają 1364
syrii 1364
czono 1364
zaj@@ 1364
qui@@ 1364
trzecim 1364
92 1363
poru@@ 1363
czułem 1363
gin@@ 1363
przyjmuje 1363
71 1362
otwarcie 1362
mia 1362
emi@@ 1361
użycie 1361
szyć 1361
absolwentów 1361
zabije 1360
konsumentów 1360
oferta 1360
strachu 1359
ok@@ 1359
nęli 1359
waliśmy 1358
efekty 1358
niepełnosprawnych 1358
sprawić 1358
kursów 1358
puść 1358
sprawach 1357
finansów 1357
widziałaś 1357
zamierza 1357
duszę 1357
bierz 1357
wyższe 1357
danej 1356
wykorzystywane 1356
przechowywania 1355
chryste 1355
° 1354
skutecznie 1354
zja@@ 1354
królestwo 1354
2,@@ 1353
nosi 1353
osła@@ 1353
kapita@@ 1353
żę 1353
que 1352
rzuć 1352
towarzy@@ 1352
waszego 1351
sowe 1351
oddać 1351
pu 1351
następujących 1350
wieki 1350
architekturę 1350
miłe 1350
dwoje 1349
edukacja 1349
winy 1348
szony 1347
bufetu 1347
stop 1347
powtó@@ 1346
bój 1345
bill 1345
przejdź 1345
imienia 1345
potrzebował 1345
mężem 1345
rzyć 1345
wskaźnik 1345
nazywają 1344
istnienia 1344
tworzą 1344
ori@@ 1344
osobom 1343
naród 1343
81 1343
wydawało 1343
babcia 1342
ekranu 1342
zakończyć 1342
dowe 1342
czeniu 1342
pogoda 1341
słoneczny 1341
dną 1341
zama@@ 1341
towi 1340
m-@@ 1340
spis 1340
chłopcze 1340
stolicy 1340
wrócisz 1340
gb 1340
ct 1339
narodu 1339
et 1339
wstrzy@@ 1339
przyszedłem 1338
dało 1338
84 1338
dołącz 1337
opowieści 1337
zacznie 1337
74 1337
małżeństwa 1337
roze@@ 1337
uczy@@ 1336
dziadek 1336
up@@ 1336
uczynił 1336
kroków 1336
szar@@ 1336
przeciwnym 1336
okresu 1335
czwartek 1335
waluty 1335
klimatyzację 1335
niowe 1335
biblia 1334
sowych 1334
zapobiec 1334
znalazłam 1334
czyło 1334
towej 1334
karierę 1333
krótki 1333
powietrzu 1333
dny 1333
zrozumiałem 1332
national 1332
wydział 1332
gotów 1332
kursu 1332
postęp 1332
nada@@ 1332
życzenie 1332
spędzić 1332
kolorów 1331
roman@@ 1331
żadnym 1331
silnik 1331
porozumienia 1330
70@@ 1330
dostanie 1330
głosów 1330
doro@@ 1329
bilety 1329
postać 1329
towym 1329
zbli@@ 1329
królem 1329
prób@@ 1328
wiec 1328
pyta 1328
kom@@ 1328
wygodne 1328
field 1327
kultura 1327
płacić 1327
odebrać 1326
republiki 1326
wierzymy 1326
zabrał 1326
nagra@@ 1326
ostrze@@ 1325
ld 1324
historie 1324
oświadczenia 1324
zamierzasz 1324
pełny 1324
pio@@ 1324
ria 1323
popeł@@ 1323
jącymi 1323
przedstawić 1323
amy 1323
liła 1322
największa 1322
berg 1322
tują 1322
79 1322
książce 1322
normalnie 1322
czynników 1322
bywa 1322
leg@@ 1322
tna 1321
martwi 1321
granicy 1321
przyczyną 1321
wyborów 1320
poznaj 1320
mogłoby 1320
budować 1320
amerykanów 1320
marka 1319
g-@@ 1319
indie 1319
sypialnia 1319
globalne 1319
interesy 1318
chłopaka 1318
mogłaby 1318
mężczyzną 1317
rosyjskiej 1317
napoje 1317
sesji 1317
98 1317
mag@@ 1316
che 1316
charles 1316
83 1316
starych 1316
przyjęcia 1315
kuchnię 1315
energia 1315
zę 1315
hor@@ 1314
zapisz 1314
og@@ 1314
day 1314
wka 1314
dosta@@ 1314
dziedzinach 1314
ns 1314
nick 1314
informa@@ 1314
kategoria 1314
zapraszamy 1314
lę@@ 1314
straty 1313
tyczną 1312
prawnych 1311
głowa 1311
pta@@ 1311
niedo@@ 1311
błagam 1311
ładny 1311
pracą 1310
stosować 1310
2001 1310
nadchodzi 1310
uciekaj 1310
wersje 1309
palenia 1309
marzenia 1309
wygodny 1309
kać 1309
wrócimy 1309
tz 1308
zosta@@ 1308
kara@@ 1308
założyć 1308
salon 1308
klasa 1307
praw@@ 1307
jnych 1306
lą 1306
pojawiają 1305
politykę 1304
pytam 1304
niezły 1304
połą@@ 1303
dział 1303
utworzyć 1303
mogliśmy 1303
idźcie 1303
zgodę 1303
uda@@ 1302
głównego 1302
ek@@ 1301
ram 1301
most 1301
poko@@ 1301
ważnych 1301
rowanie 1301
tte 1301
wiara 1301
walut 1300
tni@@ 1299
spółka 1299
8-@@ 1299
ros@@ 1299
wiedziałeś 1298
śmiało 1298
stronach 1298
udzie@@ 1297
sho@@ 1297
sky 1297
zgodne 1297
spotkamy 1297
natura 1297
właściciel 1297
psycho@@ 1297
otrzymać 1296
wykonane 1296
dowy 1296
jne 1295
gri@@ 1295
powodem 1295
zachę@@ 1295
określa 1295
cać 1294
ber 1294
pokładzie 1294
technologię 1293
przynieść 1293
wanych 1293
francisco 1292
globalnego 1291
okoliczności 1291
danego 1290
-tak 1289
zrobienia 1289
gatunków 1289
opcję 1288
łóżek 1288
przygotowanie 1288
ostrzeżenie 1288
atrakcji 1288
medi@@ 1288
tle 1287
pomy@@ 1287
partia 1287
logiczne 1287
thomas 1286
przeciwnie 1286
lan 1286
daw@@ 1286
niowy 1286
rzu 1286
zaprze@@ 1285
wymi 1285
przesta@@ 1285
stosowanie 1285
ekspor@@ 1285
rosyjski 1284
dworzec 1284
berlin 1283
odpocząć 1283
prosta 1282
ney 1282
wspaniała 1282
nadszedł 1281
del@@ 1281
fil@@ 1281
lili 1280
morzu 1280
martin 1280
start 1279
niebieski 1279
kolory 1279
meble 1279
obejrzeć 1279
godzinie 1279
kamień 1278
abyśmy 1278
wydają 1278
ino 1278
armia 1278
jakiejś 1277
modeli 1277
panna 1276
myślał 1276
licz@@ 1276
akcje 1275
nąłeś 1275
kujesz 1275
telewizja 1275
ê 1275
miłego 1274
gwiazda 1274
regionu 1274
obowiązek 1273
wając 1273
dzimy 1273
starszych 1273
opłat 1273
telefonów 1273
ina 1272
powstrzy@@ 1272
robi@@ 1271
polecam 1271
nauczyciel 1271
ble 1270
ville 1270
zwiększenie 1269
narodowy 1269
bać 1269
zła@@ 1269
zalety 1269
zmieniła 1268
miłością 1268
uruchomić 1268
towania 1268
mogłabym 1267
wróciłem 1267
pamięta 1267
współpracować 1267
obszarów 1267
niskie 1267
es@@ 1267
wek 1267
cer@@ 1266
mężczyzny 1266
księżyca 1266
pakietu 1266
bed 1265
adresu 1265
podziękować 1264
stole 1264
vegas 1263
dźcie 1263
10.@@ 1263
przekształ@@ 1262
dzielić 1262
łazience 1262
fran@@ 1262
szacunku 1262
pracow@@ 1261
tera 1261
obni@@ 1261
handlowych 1259
stwie 1259
7.@@ 1258
gą 1258
zwiększa 1257
licencji 1257
owoce 1257
bran@@ 1256
polityce 1256
mięso 1256
wyjdzie 1256
lle@@ 1255
ckiej 1255
kawa 1255
eur 1255
poszczególnych 1255
rą 1254
czonych 1254
minutę 1254
trump 1253
obecnej 1253
idealnie 1253
zastrze@@ 1253
ssi@@ 1253
badaniach 1253
kontekście 1252
ić 1252
grzech 1252
zabi@@ 1252
hasła 1252
ący 1252
gdybyśmy 1251
wanną 1251
mamą 1251
oferując 1251
ładna 1251
rozmowa 1251
skalę 1251
trzeciej 1251
myśli@@ 1251
nęło 1250
przygotowania 1250
lina 1249
ciąg@@ 1249
server 1249
włoszech 1249
form 1249
sklepów 1248
kontaktu 1248
zapomniałem 1248
pracujemy 1247
standardy 1247
kazał 1247
zobaczyłem 1247
komórek 1246
latem 1246
mniejsze 1246
głową 1245
kochają 1245
usb 1245
przeszłość 1245
wę@@ 1245
daleka 1245
internetowa 1244
krótko 1244
znalazła 1244
sztuk 1243
zapytaj 1243
unikać 1243
oczekuje 1243
zakończenie 1242
bay 1242
rewolucja 1242
poproszę 1242
ogromną 1241
ą@@ 1241
określonych 1241
czanie 1241
­@@ 1241
auta 1241
śledzić 1240
uchodźców 1240
hotels 1240
93 1240
robo@@ 1239
700 1239
sha 1239
ciężkie 1239
wszedł 1238
młode 1238
pochodzenia 1238
avenue 1238
bła@@ 1238
logi@@ 1238
północ 1238
doskonały 1238
alna 1238
etapie 1238
97 1237
rodzinne 1237
misja 1236
partnera 1236
środek 1235
will 1235
dzieciak 1235
sowego 1235
dzać 1235
zm 1234
wspierać 1234
tożsamość 1234
stopniowo 1233
dzieciaki 1233
powo@@ 1233
owanego 1233
tę@@ 1232
rodzinny 1232
cyklu 1232
szukają 1232
miami 1232
autobus 1231
gospodarczej 1231
web@@ 1231
ubiegłym 1230
ai@@ 1230
jana 1230
owie 1230
bit@@ 1230
szczęśliwi 1229
nazywasz 1229
wróć 1229
temperatura 1229
kontynu@@ 1229
dre@@ 1229
wyjątkowy 1228
pom@@ 1228
alnych 1228
lekarzem 1228
temperatury 1228
szczyt 1228
skype 1228
hoteli 1227
nnego 1227
powstała 1227
odbędzie 1227
dziwnie 1227
pragnie 1227
ąc 1227
szone 1227
transfer 1226
inwestycje 1226
rzucić 1226
czeniem 1226
wróciła 1226
nio@@ 1226
pił 1225
pojęcie 1225
taty 1225
uciekać 1225
pozostanie 1225
święto 1225
odkryć 1224
archiwum 1224
doce@@ 1224
swą 1224
komuni@@ 1224
cyfrowych 1224
kanada 1224
udowodnić 1224
londynu 1224
lod@@ 1224
bezpieczna 1223
spoko 1223
kwiaciarnia 1223
znana 1222
szył 1222
wojska 1222
japonia 1222
rodzi@@ 1221
istnieć 1221
fan@@ 1221
siłą 1220
danymi 1220
zaufać 1220
jim 1220
sc@@ 1220
przesu@@ 1219
szan@@ 1219
set 1219
wroga 1218
naukowe 1218
punkcie 1217
istnienie 1217
rodzajów 1217
elektryczny 1217
masaż 1217
sprawiedliwość 1217
emu 1216
brakowało 1216
królestwa 1215
kontrolą 1215
patrzy 1215
mieszkaniu 1214
czu 1214
siadaj 1214
przedstawia 1214
aktualnych 1214
agencja 1214
chi 1213
zwraca 1213
zamian 1213
społeczeństwie 1212
kol@@ 1212
rozpoczęła 1212
szka 1212
wyglądam 1212
interesujące 1212
pomyśleć 1212
nazwać 1212
szefa 1212
oświadczenie 1211
raj 1211
znalazłeś 1211
partner 1211
zdzi@@ 1211
zmianach 1210
komputery 1210
miałby 1209
tagi 1209
0-@@ 1209
chłopców 1208
generacji 1208
napi@@ 1208
zmianie 1208
usza 1208
al-@@ 1208
pokolenia 1208
tnym 1208
zniknął 1208
sowy 1207
lizacja 1207
ćwiczenia 1207
gnie@@ 1207
oczekiwania 1207
struktury 1206
krajowych 1206
gospodarczego 1206
rośliny 1206
wolnym 1206
myszy 1206
lepsza 1206
załatwić 1206
nara@@ 1206
obsługę 1205
kościele 1205
design 1205
warunkiem 1205
specjalnych 1205
żeniu 1205
zacznij 1205
ukryć 1205
odnowiony 1205
upewnij 1204
ham@@ 1204
wiz@@ 1204
11@@ 1204
dosłownie 1204
przewodnik 1204
się@@ 1204
flo@@ 1203
wejścia 1203
miesiącach 1203
rowa 1202
roślin 1202
czo@@ 1202
tnego 1202
zostawił 1202
euro@@ 1201
paryża 1201
smo@@ 1201
tak@@ 1201
ojcu 1201
stanowiska 1201
cs 1201
facetem 1200
lanie 1200
pisania 1199
europejskiego 1199
residence 1199
akcja 1199
rzą 1199
aktualnie 1198
średniej 1198
bratem 1198
słyszeć 1197
n-@@ 1197
właściwe 1197
lacji 1197
przemie@@ 1197
it@@ 1197
forma 1197
szpital 1197
gan 1197
zakupu 1197
konia 1197
mięsa 1196
pisał 1196
dr. 1196
naturalnie 1195
lokalnej 1195
poczty 1195
zachow@@ 1195
chłod@@ 1194
scy 1194
przedmioty 1193
językiem 1193
reguły 1193
pasażerów 1193
przej@@ 1193
udostępnia 1193
van@@ 1192
taniec 1192
wrogów 1192
spójrzcie 1192
zmień 1191
skupić 1191
wiając 1191
mówiłaś 1191
nd 1191
prowadzą 1191
nan@@ 1190
dnym 1190
widziała 1190
przegląd 1190
modlitwy 1190
przeło@@ 1190
europejski 1190
kara 1190
1998 1189
wypi@@ 1189
podobnych 1189
szwajcarii 1189
wspomnienia 1188
kierowca 1188
elektro@@ 1188
apartamentowe 1187
cieszy 1187
trwania 1187
dowie 1187
nato 1187
radości 1187
szefem 1187
rzymie 1186
publi@@ 1186
lesie 1186
pomógł 1186
przedmiotów 1186
kształt 1185
fe 1185
głównej 1185
pozostają 1184
poszła 1184
zabezpie@@ 1184
hen@@ 1184
rozwija@@ 1184
udać 1183
sor@@ 1183
bia 1183
zabiłeś 1183
kroku 1183
et@@ 1182
wykonania 1182
obserw@@ 1182
międzynarodową 1182
odszedł 1182
chło@@ 1182
samobójstwo 1182
gram 1182
przynosi 1182
odle@@ 1181
członek 1181
znacie 1181
słodkie 1181
dobro@@ 1181
podaje 1181
fun@@ 1181
zabezpieczeń 1181
różnymi 1181
gorąco 1181
dźwięku 1181
łami 1180
żyję 1180
zdrowe 1180
kto@@ 1180
usytuowane 1179
lność 1179
gna@@ 1179
bs 1179
neuro@@ 1179
prote@@ 1179
niedzielę 1178
zi 1178
oszu@@ 1178
wtorek 1178
fy 1178
długości 1178
ct@@ 1178
wagi 1177
ran 1177
nięte 1177
wydarzenie 1177
pomysłów 1177
blog 1176
certyfikat 1176
owanym 1176
bronią 1176
dnego 1175
sektora 1175
czar@@ 1175
var@@ 1175
dek 1175
towanie 1174
airport 1174
czką 1174
umrze 1174
zbliża 1174
open 1174
szkołę 1174
pów 1174
obiekty 1174
dobro 1173
para 1173
wyma@@ 1173
uważać 1173
pali@@ 1173
jakiekolwiek 1173
zobaczył 1172
złożyć 1172
zmu@@ 1171
dachu 1171
zajęć 1171
pisanie 1171
stop@@ 1170
mleko 1170
rekla@@ 1170
ntów 1170
³@@ 1170
powiązane 1170
dojeżdża 1170
umysłu 1170
tel@@ 1169
czyliśmy 1169
uśmiech 1169
smu@@ 1169
ocean 1169
powody 1169
owaną 1168
ważniejsze 1168
wyciąg@@ 1168
dostawcy 1168
demokracji 1168
naukę 1168
lato 1168
spodoba 1168
choćby 1168
wianie 1168
eksperci 1167
obecne 1167
lnymi 1167
zba@@ 1166
szym 1166
administracji 1166
któremu 1166
amerykańska 1166
marketingu 1166
1999 1165
wood 1165
czekał 1165
6,@@ 1165
księgi 1165
jednostek 1165
założona 1164
plac 1164
dostarczenia 1164
odnosi 1164
używamy 1164
owały 1164
ph@@ 1164
podawane 1164
komitet 1163
łach 1163
plaża 1163
wskazują 1162
substancji 1162
ar 1162
doświadczeń 1162
dojazdu 1162
krótkie 1162
nięta 1162
royal 1162
walkę 1162
turcji 1161
kanie 1161
czysta 1161
procesy 1161
strzelać 1160
91 1160
okiem 1160
grzechu 1160
skar@@ 1160
studi@@ 1160
gami 1159
czysty 1159
wyro@@ 1159
zbrodni 1159
sowa 1159
tujesz 1159
sektorze 1158
wiamy 1158
planuje 1158
banki 1158
rio 1158
94 1157
klucze 1157
air 1156
dziecku 1156
skrę@@ 1156
piłkę 1156
uto@@ 1156
zasłu@@ 1155
zmniej@@ 1155
zainteresowanie 1155
siedzenia 1155
zaprojektowany 1155
nóż 1155
kluczowych 1154
czyta@@ 1154
ciepła 1154
pragnę 1153
artykule 1153
cali 1153
nina 1152
rozsze@@ 1152
sterowania 1152
żydzi 1152
wano 1152
dzeni 1152
niepalących 1152
pełnej 1152
wschodu 1152
myślenie 1151
letnia 1151
zatrudnienia 1151
rynków 1150
teoria 1150
niając 1150
powiedzmy 1150
daję 1150
nną 1150
zauważył 1150
potwier@@ 1150
powrotu 1150
sun@@ 1150
obe@@ 1149
starszy 1149
zakup 1149
jimmy 1149
występują 1149
ciła 1149
ir 1149
5-minutowego 1149
pewną 1149
zmieniają 1148
odnośnie 1148
marek 1148
dysku 1148
dodaje 1148
rozwija 1148
klo@@ 1148
kody 1148
emocje 1147
łe@@ 1147
tematy 1147
wyglądał 1147
tan 1147
łódź 1147
październik 1147
zobaczmy 1147
alnym 1146
gno@@ 1146
adam 1146
mowi 1146
długa 1146
wybrany 1145
szalony 1145
obecności 1145
wyjątkowo 1145
doczekać 1145
opublikowane 1145
xi@@ 1144
czonego 1144
kate 1144
kolego 1144
profesor 1144
zielone 1144
szek 1144
swojemu 1143
zawi@@ 1143
godzi@@ 1143
partnerem 1143
angielsku 1143
widoczne 1143
szybkość 1143
que@@ 1143
trening 1143
zmarła 1143
grzechy 1143
żołnierze 1143
szacunek 1143
zawierać 1143
ryb 1142
wyjątkowe 1142
ał@@ 1142
uf@@ 1142
cd 1142
poło@@ 1142
s.com 1142
kalifornii 1142
maksymalna 1142
szki 1141
zdrowotnej 1141
normy 1141
miałbym 1141
dwukrotnie 1141
ora 1141
liza@@ 1141
plaza 1140
typy 1140
dziewczynki 1140
instytut 1140
naz@@ 1140
guest 1140
lek@@ 1140
agent 1140
przydatne 1139
orzeczenie 1139
ziemią 1139
play 1139
ludzkość 1139
zabra@@ 1139
rozmawialiśmy 1139
wychow@@ 1139
dostaje 1138
zegarków 1137
nadaje 1137
konsekwencje 1137
ogłosił 1137
mieszkam 1137
lunch 1137
wydawać 1137
mini@@ 1137
stre@@ 1137
obawy 1137
suszarkę 1136
bliskim 1136
rowerze 1136
/na 1136
llo 1136
tt@@ 1136
tha@@ 1136
uzupeł@@ 1135
rządy 1135
zapew@@ 1135
nakła@@ 1135
rejestracji 1134
dziło 1134
wniosku 1134
ekran 1134
miastem 1134
wóz 1132
rozwa@@ 1132
tta 1132
alnego 1132
indii 1131
rokiem 1131
dowych 1131
biorę 1131
starsze 1131
stki 1131
lowy 1131
wykona@@ 1131
kampanii 1131
tona 1131
państwu 1130
zmar@@ 1130
rozwi@@ 1130
budowa 1130
bir@@ 1129
robiłem 1129
facebooku 1128
skan@@ 1128
gla@@ 1128
biblii 1128
ograniczeń 1128
zewnętrzny 1128
brazylii 1127
przeżyć 1127
zapisać 1127
ok. 1127
cra@@ 1127
uważnie 1127
stosunkowo 1127
poradzić 1127
szkodzi 1127
piwa 1126
kieszeni 1126
sowej 1126
posiłki 1126
wyglądało 1126
dia 1126
budow@@ 1125
upad@@ 1125
umiera@@ 1125
rozważ@@ 1125
porady 1124
poznałem 1124
2:@@ 1124
podej@@ 1124
rola 1123
wyszła 1123
pomyślałam 1123
materiału 1123
ńców 1123
samodzielnie 1123
rie@@ 1123
zaufaj 1122
turcja 1122
wyspa 1122
wątpienia 1122
artysta 1121
dowi 1121
spamu 1121
rozrywki 1121
zielony 1121
przeznaczony 1121
śpi 1120
szyb@@ 1120
kr@@ 1120
johnson 1120
gach 1120
krajem 1120
pokona@@ 1120
nęły 1119
boku 1119
przerwy 1119
5,@@ 1119
wą@@ 1119
zaloguj 1118
rozpoczyna 1118
otwiera 1118
ho 1117
pacjenta 1117
wem 1117
konieczności 1117
serwis 1117
defini@@ 1117
łu 1117
czują 1117
czarna 1116
widzieli 1116
90@@ 1116
nieustannie 1116
unika@@ 1116
wspiera@@ 1115
skład 1115
szczegółów 1115
oryginalny 1115
ker@@ 1114
czni 1114
aplikację 1114
lekarzy 1114
boską 1113
musiałam 1113
waż@@ 1113
prowadzenie 1113
obja@@ 1113
tradycji 1113
próba 1113
budynków 1112
jednostką 1112
url 1112
sprzed 1112
wyjaśnia 1111
pię@@ 1111
piekło 1111
format 1111
ściany 1111
czyżby 1111
x-@@ 1111
treść 1111
rozdzie@@ 1110
kowana 1110
złym 1110
strzał 1110
cla@@ 1110
czonym 1110
postępowania 1110
stone 1110
piekła 1109
rządów 1109
ckich 1109
zaawansowane 1108
tował 1108
zwierzę 1108
żysz 1108
wyższego 1107
zarządzać 1107
naturalnych 1107
dnej 1107
wolna 1107
ących 1107
palace 1106
zewnętrznych 1106
ani@@ 1106
ea@@ 1106
pary 1106
tedy 1105
ocalić 1105
cri@@ 1105
stałe 1105
han 1105
boją 1105
wycieczki 1104
łow@@ 1104
wprost 1104
praktyczne 1104
barcelona 1104
przybory 1104
dować 1103
peł@@ 1103
c-@@ 1103
audio 1103
sse@@ 1103
morderstwo 1102
sędzia 1102
™ 1102
marzenie 1102
użytkowania 1102
meczu 1102
posu@@ 1102
wydziału 1102
dzona 1101
częściowo 1101
zabawki 1101
kryzysu 1101
spadek 1101
australia 1101
ude@@ 1100
zgoda 1100
adobe 1100
uma@@ 1100
vie@@ 1100
poprosić 1100
wyborem 1100
niłem 1100
jemu 1100
obowiązki 1100
dostępność 1100
zra@@ 1100
czam 1099
okien 1099
zginęło 1099
ckim 1099
ona@@ 1099
księga 1098
p-@@ 1098
ukraina 1097
gę@@ 1097
central 1097
á@@ 1096
koro@@ 1096
wysokim 1096
bazie 1096
najwyższej 1095
dzają 1095
dołączyć 1095
produkcję 1094
tową 1094
zaczęły 1094
standardów 1094
świetle 1094
niam 1093
ką@@ 1093
najwyższym 1093
głodny 1093
komunikacja 1093
przejście 1093
seria 1093
ącej 1093
przysługuje 1092
sky@@ 1092
zwięk@@ 1092
mojemu 1092
katalog 1092
ó@@ 1092
vin@@ 1092
lonych 1092
ręką 1091
pojawiły 1091
używają 1091
korzystając 1091
finansowego 1090
wrześniu 1090
bronić 1090
przyjemnością 1089
show 1089
f-@@ 1089
mp 1089
gają 1089
poczuć 1089
czysto 1089
mamę 1089
mojżesz 1089
używasz 1089
opowiedzieć 1089
zara@@ 1088
nnym 1088
rooms 1088
mądry 1087
cudownie 1087
mikrofalową 1087
turystów 1087
podą@@ 1087
odczu@@ 1086
waszą 1086
br@@ 1086
napa@@ 1086
mapy 1086
rynkach 1086
szwajcaria 1086
d'@@ 1085
rowana 1085
dz 1085
opiekę 1084
pojechać 1084
gia 1084
duje 1084
abyście 1084
ujaw@@ 1083
ćwi@@ 1083
minu@@ 1083
przyby@@ 1083
kawy/herbaty 1083
pokaz 1083
kolej 1082
zastanawiam 1082
narkotyków 1082
skomplikowane 1082
uczestnicy 1081
szu@@ 1081
starym 1081
właścicielem 1081
4-gwiazdkowy 1081
chcieliśmy 1081
tyka 1081
nur@@ 1081
cili 1081
wyjaś@@ 1080
straciłem 1080
ośmiu 1080
dniem 1079
dodatek 1079
video 1078
zasięgu 1078
biblioteki 1078
cj@@ 1078
załat@@ 1078
myśl@@ 1077
przytu@@ 1077
dolar 1077
mart@@ 1077
wra@@ 1076
zapła@@ 1076
urząd 1076
wszechświat 1076
dnych 1076
słyszał 1075
badawczych 1075
tuj 1075
budowę 1075
zakaz 1075
cle@@ 1075
gie@@ 1075
cisza 1075
szaleństwo 1075
sla@@ 1074
m.in 1074
1990 1074
opłatą 1074
ut@@ 1074
etap 1074
mili@@ 1074
anioł 1074
uważamy 1073
pośród 1073
pałac 1073
urządzeniu 1072
prywatność 1072
samolotów 1072
świątyni 1072
masy 1072
racji 1072
sny 1071
~ 1071
praktyce 1071
itd 1071
otrzymasz 1071
dotk@@ 1070
wieniem 1070
yu@@ 1070
ście@@ 1070
porzu@@ 1070
piętrze 1070
społecznego 1070
dur@@ 1070
łą 1069
island 1069
doktora 1069
zwi@@ 1069
ręka 1069
view 1069
aktywność 1069
zamku 1069
czania 1069
pomagać 1069
pierdo@@ 1068
serwuje 1068
ou@@ 1068
aktywów 1068
ram@@ 1068
ul 1068
tłuma@@ 1068
grecji 1068
tokio 1068
zaprasza 1067
historyczne 1066
wkład 1066
przyczyn 1066
chmurze 1066
płci 1066
dałam 1066
id@@ 1066
premium 1066
kasę 1066
medycznych 1065
mg 1065
rynki 1065
polecenia 1065
kłamstwa 1065
żart 1065
zwiększenia 1065
gamy 1065
istoty 1065
czyk 1065
gorąca 1064
alną 1064
podzi@@ 1064
iraku 1063
wymiarze 1063
stosunki 1063
oddech 1063
niezła 1063
dostawą 1063
tajemnicy 1063
rę@@ 1063
miesz@@ 1062
fie@@ 1062
are@@ 1062
pło@@ 1062
bądźcie 1062
biorą 1062
tamtego 1062
100@@ 1062
dziłem 1061
wymagań 1061
ala@@ 1061
miecz 1061
indywidualną 1060
stosuje 1060
głupia 1060
posiadać 1060
badaniu 1060
wymiana 1060
mieszkać 1060
rośli@@ 1060
sobotę 1060
zapewni 1060
piosenka 1060
pieprzony 1059
wizyty 1059
kopii 1059
wybaczyć 1059
dokładnych 1058
zawodowych 1058
umiem 1058
globalnym 1057
dysku@@ 1057
ciepło 1057
kamie@@ 1057
ide@@ 1057
dł 1057
rzony 1057
wybrał 1057
dli@@ 1057
uciekł 1057
wyjdź 1056
termi@@ 1056
zagra@@ 1056
dokona@@ 1056
region 1055
przemyśle 1055
połączeniu 1055
gę 1055
złych 1055
ulubione 1055
nę@@ 1055
drogie 1054
prezydentem 1054
ów@@ 1054
piękną 1054
słowy 1054
forma@@ 1054
rozmawiałem 1053
stosunków 1053
kierunek 1053
chris 1053
mono@@ 1053
wiania 1052
rs 1052
spotkałem 1052
córką 1052
staną 1052
wio@@ 1052
lli@@ 1051
zastosowań 1051
moc@@ 1051
przeba@@ 1051
żeniem 1051
cc 1051
spełnia 1051
domowe 1050
niec 1050
zaczynam 1050
wydostać 1050
wzdłuż 1050
prowadzone 1050
ńską 1049
./ 1049
tkach 1049
dorośli 1049
lowi 1048
dziłeś 1048
narodowe 1048
ip@@ 1048
gracze 1048
okulary 1048
łóżkami 1048
kujemy 1048
oszczę@@ 1047
góra 1047
psów 1047
sco@@ 1047
ling 1047
koni@@ 1047
dka 1047
terapii 1047
wykonywania 1047
otworzył 1047
lni 1046
prywatnego 1046
nikim 1046
chwilą 1046
personel 1046
ole@@ 1045
mał@@ 1045
rozwiązaniem 1045
ubezpieczenia 1045
sła@@ 1045
dany 1045
infrastruktury 1045
ini 1045
wiecznie 1044
kamera 1044
99@@ 1044
przeszedł 1044
lie@@ 1044
raportu 1044
kina 1043
ofiarą 1043
9-@@ 1043
wyci@@ 1043
prawdziwej 1043
nasa 1043
głodu 1042
nikach 1042
wyższy 1042
iv 1041
szona 1041
sharepoint 1041
iran 1041
jski 1040
oczami 1040
pociągiem 1040
cyfrowej 1039
przedstawi@@ 1039
gni@@ 1038
skończył 1038
smak 1038
organizację 1038
utwo@@ 1038
niło 1037
mel@@ 1037
dotychczas 1037
przeznaczone 1037
а@@ 1037
res 1037
ist@@ 1037
room 1037
jna 1037
3:@@ 1037
krze@@ 1037
spotkaniu 1037
cierpienia 1036
sin@@ 1036
szybkiego 1036
global 1036
zdecydować 1036
artykułów 1035
zdania 1035
hotel@@ 1035
ama@@ 1035
zapewniając 1035
postrze@@ 1035
federacji 1035
pański 1035
akt 1035
serwerów 1035
przetrwać 1035
ustalić 1035
pracowałem 1035
bę 1034
mody 1034
metro 1034
czer@@ 1034
ówkę 1034
czyłam 1033
dupę 1033
interesów 1033
lekcje 1033
7,@@ 1033
wzrok 1033
kompletnie 1032
granicę 1032
zbiera@@ 1032
dowie@@ 1032
tnych 1032
wewnętrznych 1032
20-@@ 1032
cego 1032
tką 1031
niemniej 1031
pieprzyć 1031
piosenki 1031
jnego 1031
lip@@ 1031
postanowił 1031
japoński 1031
telefony 1031
wspólnoty 1030
unia 1030
lane 1030
net@@ 1030
dysk 1030
czyłeś 1030
jny 1030
wracamy 1030
koloru 1030
odpowiadać 1030
oddaj 1029
księżniczka 1029
szać 1029
pil@@ 1029
operacja 1029
wyglą@@ 1029
jedziesz 1029
sypialni 1029
położenie 1029
lotniczego 1029
ganie 1029
szeroko 1029
zakupów 1029
nnej 1029
pewnej 1028
wykonywać 1028
ala 1028
1/@@ 1028
utrzymania 1028
reakcji 1028
blue 1028
wygrał 1028
istniejących 1028
banków 1028
wyprawiasz 1027
rzę 1027
przeszkadza 1027
instytucje 1027
libera@@ 1027
dzia@@ 1026
sca@@ 1026
pozycja 1026
procedury 1026
żebyście 1026
uk 1026
przer@@ 1026
ukryte 1025
szu 1025
składników 1025
wiąże 1025
utra@@ 1025
odpowia@@ 1025
ważnego 1024
hostele 1024
niespodzianka 1024
trasy 1024
mężczyznę 1023
rowej 1023
kuchenkę 1023
dwaj 1023
styczne 1023
zmęczony 1022
prezes 1022
holandii 1022
dą@@ 1022
lep@@ 1022
odpowiedz 1022
spie@@ 1022
używając 1021
cej 1021
naturalny 1021
odwagi 1021
kup 1021
anti@@ 1021
odmie@@ 1020
daniel 1020
lności 1020
zarejest@@ 1020
integracji 1020
posiadanie 1019
/z 1019
łóżkiem 1019
gał 1019
ciał 1018
szymi 1018
wywiad 1018
lować 1018
wku@@ 1018
poszukiwaniu 1018
niowych 1018
chów 1018
more 1017
ramię 1017
omi@@ 1017
york 1017
wszechświata 1017
wyłączyć 1017
lepszą 1017
drużyna 1017
zainteresowany 1017
ken@@ 1017
dostarczyć 1016
zasługuje 1016
nale@@ 1016
producent 1016
zaleca 1016
zdo@@ 1016
k-@@ 1016
dki 1015
dne 1015
ost@@ 1015
nazwą 1014
zaawansowanych 1014
wujek 1014
komi@@ 1014
zajmującą 1014
większym 1014
ssa@@ 1014
cyfrowe 1014
nazywamy 1014
mb 1014
wspólny 1014
przyczy@@ 1014
service 1014
zachodu 1014
przynieś 1013
rozmów 1013
dyskusji 1013
wewnętrzne 1013
wieczoru 1013
lono 1013
claire 1013
cym 1012
przestańcie 1012
pt 1012
jezioro 1012
wieniu 1012
180 1012
doprowadzić 1012
wzór 1012
letnie 1011
patrzę 1011
czytania 1011
głosy 1011
styczniu 1011
czytanie 1011
ącego 1011
prawdopodobne 1010
teatr 1010
globalny 1010
potrzebować 1010
wow 1010
johna 1010
samemu 1009
struktura 1009
rozdziału 1009
tnej 1009
powstanie 1009
partner@@ 1009
onego 1008
uwol@@ 1008
pl 1008
poważny 1008
pełnego 1008
baru 1008
pojawiła 1008
tylu 1008
zużycie 1008
zabaw 1007
zróbmy 1007
klimatyzowany 1007
alnej 1007
pewni 1007
nauczył 1007
kich 1007
10-minutowego 1007
richard 1006
kanadzie 1006
pomożesz 1006
udogodnień 1006
kupił 1006
jake 1006
listów 1006
time 1006
cięcia 1005
piłka 1005
gaz 1005
olej 1005
il@@ 1005
jnym 1005
wydał 1005
lokalizację 1005
ulubionych 1005
działu 1004
publicznie 1004
płyty 1004
statystyki 1004
ubo@@ 1004
klimatyzacja 1004
pierdol 1004
zadowoleni 1004
podobało 1004
widoki 1004
cud 1004
kin@@ 1004
1,5 1003
loka@@ 1003
czerwcu 1003
ałbym 1003
dookoła 1003
logia 1003
gniew 1003
osobistych 1002
założę 1002
ekranie 1002
żywność 1002
przeprowadzić 1002
jnej 1002
mistrza 1001
bohaterem 1001
parkingu 1001
przemysłowych 1001
ufać 1001
ssa 1001
letniego 1001
zu 1001
nastąpi 1000
następna 1000
utrzymanie 1000
oszczędności 1000
two@@ 999
zrobione 999
chrześcijan 999
przera@@ 999
fort 999
obszaru 999
kierow@@ 998
mon 998
student 998
podnieść 998
projektowanie 998
irlandii 998
sekundy 998
zach 998
win 998
łóżka/łóżek 998
podwo@@ 997
dokumentu 997
światowa 997
dziewczyn 997
obraz@@ 997
aktualności 997
pocie@@ 997
bilet 996
hong 996
konkurencji 996
słowem 996
æ 996
planów 996
marketing 995
kwestie 995
ule@@ 995
…@@ 995
zarobić 995
niezbyt 995
stami 995
8,@@ 994
sezonie 994
niał 994
mann 994
sek 994
epi@@ 994
bą 993
myślimy 993
obecnych 993
koncentruje 993
lor@@ 993
opi@@ 992
jo 992
pad@@ 992
owałam 991
1997 991
podstaw 991
opis@@ 991
kierowcy 991
utraty 991
wość 991
american 990
stworzony 990
sarah 990
wpły@@ 990
rachunek 990
lizm 990
ky@@ 989
cos 989
finansowej 989
oddaje 989
zorganiz@@ 989
kup@@ 989
mieszkasz 988
zabiłem 988
elektryczne 988
rii 988
odno@@ 988
ałby 988
maju 988
trz@@ 987
granic 987
mat 987
ekonomiczne 987
umiesz 987
drzew 987
otóż 987
blu@@ 987
zdarzenia 987
kocha@@ 987
zaangażowanie 987
niezłe 987
garden 987
działa@@ 987
dor 986
mun@@ 986
sklepy 986
opowiedz 986
specjalny 986
wita@@ 985
najgorsze 985
kontrakt 985
przyjdź 985
zle@@ 985
byście 985
dusze 985
let@@ 985
olej@@ 985
sowym 984
pytasz 984
oleju 984
blockchain 984
lii 984
ata@@ 984
znał 983
owało 983
przesa@@ 983
pałacu 983
wg 982
ptaki 982
połowy 982
czeni 982
prywatnym 982
bezzwłocznie 982
tal@@ 982
kt 982
uczą 982
gorące 982
wiedząc 982
wiła 982
przysługę 982
dostarcza 981
związany 981
cloud 981
włoch 981
czcie 981
dodatku 981
składniki 981
http 981
czuł 980
republika 980
lotnisku 980
większego 980
bogów 980
grozi 980
producenta 980
lepszym 979
zarządzaniu 979
owiec 979
wspiera 978
obie@@ 978
zagrać 978
stosow@@ 978
boga@@ 978
czerwiec 978
zazna@@ 978
pomyślał 978
odwa@@ 978
men 978
spodziewać 977
cli@@ 977
błędu 977
serwisu 977
globalnych 977
ven@@ 976
fu 976
chmury 976
pul@@ 976
nieni 976
przedtem 976
mediach 976
wyciągnąć 976
ham 976
porze 976
danny 975
kłopotów 975
dale 975
papieru 975
wości 975
fajne 975
numery 975
zapraszam 975
tema@@ 975
talent 975
lipcu 974
stowarzyszenie 974
doskonałym 974
lady 974
powrocie 973
rzenie 973
zębów 973
departament 973
plo@@ 973
zastąpić 972
obli@@ 972
rozumieć 972
cukru 972
pale@@ 972
rozwijających 972
cjom 972
wyszukiwanie 972
anne 972
pustyni 972
ning 971
34@@ 971
młodzieży 971
facebooka 971
wkę 971
żyły 971
innowacje 971
odłóż 971
szczycie 971
podnie@@ 971
iz@@ 970
geni@@ 970
różnorodność 970
ewolu@@ 970
niono 970
przyszło 970
kota 970
świadkiem 970
zdrowy 969
wirusa 969
nera 969
forex 969
aresz@@ 969
cholernie 969
fanów 969
wojsko 968
porozumienie 968
spóź@@ 968
polecenie 968
odpowiedniego 968
przysię@@ 968
językach 968
golfowe 968
typów 968
południowa 968
stwo@@ 967
ucie@@ 967
square 967
mala@@ 967
nama@@ 967
przyjechał 967
powięk@@ 967
nadzieja 967
kolejności 967
science 967
liceum 967
obliczu 967
osobie 966
big 966
niemu 966
ot 966
kasy 966
różnią 966
wiam 966
przyspie@@ 966
wyłącz 966
wyszło 966
obcią@@ 966
zatrudni@@ 966
przeglą@@ 966
ńcie 966
twitterze 965
profil 965
złoty 965
kompletnych 965
poinformuj 965
niko@@ 965
kop@@ 965
spojrzenie 964
darmowy 964
przemoc 964
wiasz 964
chwy@@ 964
ścieżki 964
politycznej 963
odejdź 963
biblioteka 963
ataków 963
przyciąga 963
zawodowe 963
350 963
głośno 962
rzać 962
rzami 962
przekro@@ 962
nowoczesny 962
przyszli 962
obowiązującego 962
ff@@ 962
sekret 962
dłoni 962
ręczniki 962
trwać 961
producenci 961
dawać 961
30-@@ 961
management 961
karę 961
tradycyjne 961
bin@@ 960
marcu 960
umie 960
chwała 960
skóra 960
absolwenci 960
szablon 960
konstru@@ 959
oma@@ 959
pozostało 959
okazać 959
luksusowe 959
przechodzi 959
raz@@ 959
ryzykiem 959
wybiera@@ 959
spowodować 959
ara@@ 959
nicę 958
jakże 958
lodówka 958
zaproszenie 958
otwarta 958
tycznie 958
wątpię 958
5g 958
nęłam 958
side 958
pociągu 958
niliśmy 958
hand@@ 957
ari@@ 957
klientami 957
począwszy 957
używania 957
zobaczy 956
.it 956
best 956
języki 956
cyjnymi 956
planecie 956
liderów 956
ustawić 956
obcych 956
£ 955
programem 955
obudź 955
zwycięstwa 955
god@@ 955
maj@@ 955
dziwny 955
torzy 955
towar 955
pragnienie 955
internetową 954
nijcie 954
ciałem 954
śli@@ 954
siostrę 954
wyjechać 954
rogu 954
lotów 953
lekcji 953
zako@@ 953
wagę 953
nocą 953
trzeciego 952
koty 952
utrzymuje 952
sercem 952
jów 952
zaszczyt 952
królowej 952
dużego 952
towary 951
żądanie 951
gliny 951
hill 951
udaje 951
diego 951
lizować 951
oddział 951
kot 950
artystów 950
używanie 950
następ@@ 950
rozumiemy 950
medyczne 950
białego 950
mogłabyś 950
umy@@ 950
pkb 950
nazwał 950
śmy 950
światowych 949
symbol 949
przedsta@@ 948
szwecji 948
wstyd 948
cono 948
myślałeś 948
kawiarni 948
nowoczesnych 948
ącą 948
pokry@@ 947
powsta@@ 947
zre@@ 947
dzonych 947
cywilizacji 947
zdarzyło 947
krokiem 947
ludziach 947
rosną 947
prawi@@ 947
zdobył 947
strefie 946
waszyngton 946
prawdziwie 946
pokazał 946
andy 946
lou@@ 946
-to 946
pusty 946
wyzwań 946
okła@@ 946
niewielu 945
śniadaniem 945
cyber@@ 945
.00 945
amazon 945
albowiem 945
tho@@ 945
przykłady 945
zapotrzebowanie 944
białych 944
loty 944
napisz 944
daliśmy 944
son@@ 943
znalezienie 943
obywatele 943
warszawa 942
kątem 942
lokalizacją 942
przyjaźń 942
zakład 942
pani@@ 942
mistrzu 942
kształ@@ 942
ato@@ 942
cof@@ 942
informację 942
odpowiednim 941
town 941
tematu 941
life 941
pyta@@ 941
tere@@ 941
xx@@ 941
ws@@ 941
spotkań 941
dzania 941
wkła@@ 941
lasu 940
mami 940
zebrać 940
północna 940
gadać 939
mobi@@ 939
świadków 939
wysoką 939
4:@@ 939
niane 939
nacisk 938
datę 938
trans@@ 938
niły 938
określenie 938
stół 938
liłem 938
przechowywane 938
styczeń 938
poszukiwania 937
jeździć 937
ataki 937
polegamy 937
przystanek 937
col@@ 937
ustawa 937
własność 937
kolejnego 937
kłó@@ 937
zwrot 937
godz 937
włączyć 936
osobistego 936
władza 936
ubezpieczenie 936
miejscową 936
annie 936
przekonany 936
staramy 936
breakfast 936
rose 936
ną@@ 936
tyki 936
nowymi 936
skupi@@ 936
phi@@ 936
ukrainy 935
leni@@ 935
urodzenia 935
ciężki 935
konie 935
dostanę 935
dzwoni 935
twoimi 935
oddzie@@ 934
nauczyciele 934
wysłał 934
lam@@ 934
tycz@@ 934
grani@@ 934
wido@@ 934
live 934
zakłó@@ 933
połączone 933
medycyny 933
gam 932
kontaktując 932
bło@@ 932
aparat 932
planowania 932
:30 931
dystrybu@@ 931
1995 931
szczegółowe 931
zainteresowania 931
czajnik 931
mamie 931
mowe 931
wdzięczny 931
tran@@ 931
byłbym 931
cja@@ 930
con 930
bitwy 930
organiz@@ 930
premiera 930
oglą@@ 930
dawniej 930
europejskie 930
sekundę 929
ranka 929
widzieliście 929
ńca 929
tworząc 929
latać 929
jar@@ 928
mądrość 928
przeznaczenie 928
opracow@@ 928
doświadczeniem 928
aktywny 928
cią@@ 928
narodowej 928
1989 928
kochamy 928
kiego 928
aktywnie 927
juz 927
9,@@ 927
nało@@ 927
projekt@@ 927
drze@@ 927
światu 927
miejscowości 927
cro@@ 926
przyniesie 926
dały 926
die 926
prywatna 926
inteligentne 926
spra@@ 926
edukacyjnych 926
przezna@@ 926
grudniu 926
pli@@ 925
silnika 925
skończyłem 925
czo 925
jakichkolwiek 925
nin 925
baza 925
niebezpieczeństwo 925
dystrybucji 925
au 925
poprzednich 925
deluxe 925
ogrodzie 924
1. 924
zegarki 924
wsa@@ 924
ukazuje 924
niesie 924
ukła@@ 924
średni 924
ślubu 924
sytuacjach 924
zmniejszenie 923
słyszy 923
urodziła 923
suszarka 923
grał 923
marzeń 923
trzyma@@ 923
piszę 923
kin 922
robiłeś 922
wyścig 922
jasny 922
vo 922
3-gwiazdkowe 922
próbują 922
picia 922
log 922
tkow@@ 921
żu 921
osobisty 921
zewnętrzne 921
czycy 921
get 921
tujemy 921
linię 921
liderem 921
kuję 921
drewna 921
klubie 921
laptop 920
owoców 920
wybra@@ 920
imprezy 920
dział@@ 920
zbu@@ 920
trzymam 920
docenią 920
o'@@ 920
odpadów 920
centre 919
times 919
lecieć 919
cywi@@ 919
czyków 919
papież 919
ers 919
wygra@@ 919
billy 919
mające 919
opowiada 919
czonej 918
mit 918
przypomnieć 918
zawarte 918
pozostali 918
tną 918
gości@@ 918
scenie 918
zabij 917
wystar@@ 917
wenecja 917
szczyci 917
alarm 917
poprze@@ 917
trzymasz 917
seksu 917
chan@@ 917
czwarty 917
strój 917
pięknych 916
sprawiają 916
rozkazy 916
wyższa 916
mierze 916
can 916
scott 916
prawdziwych 916
kont 916
studios 916
lubi@@ 916
minimum 916
pp 916
new@@ 916
jąco 915
wiony 915
aktywne 915
podkreśla 915
wię 915
zgła@@ 915
słyszeliście 914
chciałaś 914
opan@@ 914
posiłek 914
księcia 914
czyn@@ 914
formularz 914
1992 913
1996 913
przyrody 913
stwier@@ 913
cają 913
okazja 913
wycof@@ 913
cień 913
doskonałości 913
częstotliwości 913
ość 913
życzę 912
lon@@ 912
prosi 912
strategia 911
dumni 911
wca 911
onym 911
udawać 911
sową 911
chińskie 910
rosyjska 910
bezpośrednie 910
umożliwiają 910
sji 910
wysokiego 910
tłumaczenia 910
wyru@@ 910
l-@@ 909
kcji 909
zabezpieczenia 909
bach 909
chleb 909
odpa@@ 909
świet@@ 909
pira@@ 909
instru@@ 909
namie@@ 908
miliarda 908
reszty 908
bohaterów 908
kontaktów 908
и@@ 908
większych 908
zachodzie 908
dłoń 908
rzał 908
edytuj 907
prowincji 907
znajdujących 907
ciach 907
fizyki 907
zasadniczo 906
akademii 906
mapę 906
pacjent 906
kapitału 906
przyszedłeś 906
paru 906
korzystają 906
technicznej 906
powierzchnia 906
pali 905
filozofii 905
musiało 905
sceny 905
posze@@ 905
dajesz 905
alkohol 904
rezerwacja 904
byliście 904
niecie 904
nku 903
zabija 903
domowych 903
wrogiem 903
sierżancie 903
naturalnego 903
let 903
bu 903
stawia 903
porządek 903
konferencja 903
wez@@ 902
zastęp@@ 902
nogę 902
lają 902
bezpośredni 902
kochał 901
pry@@ 901
spełnimy 901
wią@@ 901
ńcy 901
miliardy 901
poga@@ 901
oknie 901
urzą@@ 901
długo@@ 901
mogłyby 901
umów 900
'ego 900
opuścił 900
twarzą 900
świeże 900
płynie 900
zwykły 900
prędzej 900
skórę 900
chodzę 900
spor@@ 899
'em 899
zą 899
zdjęciu 899
medy@@ 899
szej 899
niczy 899
lisz 899
finansowania 899
о@@ 899
lab 898
dzisiejszym 898
wiona 898
dano 898
cyfrowy 897
czeka@@ 897
zastosować 897
ranny 897
świad@@ 897
kluczem 897
zyski 897
nom 897
stego 897
dzwo@@ 897
nosił 897
shi 897
pijany 897
handlowej 897
przyjemności 896
orze@@ 896
formę 896
generalny 896
imprezę 896
posiada@@ 896
22@@ 896
cką 896
odgrywa 896
ującymi 896
cykl 896
tłuszczu 896
nik@@ 896
wypełnić 896
fina@@ 895
placu 895
rozszerzenie 895
ochronie 895
04 895
szczenie 895
prakty@@ 895
wpływem 895
widoku 894
zoo 894
kul@@ 894
stowarzyszenia 894
odwiedź 894
narzędziem 893
skrzy@@ 893
zbro@@ 893
:00 893
publiczny 892
rową 892
oddalony 892
tag 892
ceni 892
mowego 892
brytyjski 892
uczestniczyć 892
rzucił 892
mode@@ 891
zrobi@@ 891
ogar@@ 891
cech 891
odpowiednią 891
brawo 891
współczesnej 890
śnieg 890
położonym 890
przyjaźni 890
.0@@ 890
patrzysz 890
tra 890
pomoc@@ 890
express 890
traci 890
czności 889
obiec@@ 889
koń 889
1993 889
nionym 889
cierpi 889
niasz 889
kwiat 889
chora 889
bohater 889
�@@ 889
a-@@ 888
sel@@ 888
dzisiejszy 888
zaoferować 888
smith 888
poszedłem 888
zasilania 888
meksyk 888
partnerzy 888
postawić 888
i-@@ 888
piłki 888
dostosować 888
swobodnie 888
wyprze@@ 888
uh 888
opie@@ 887
trener 887
podział 887
indyjski 887
złożone 887
dave 887
you 887
mali 887
pistolet 887
ulubiony 887
zidentyfi@@ 887
dróg 887
wiersz 887
siedział 886
ogromna 886
wspaniałą 886
wyrok 886
ekonomicznych 886
naru@@ 886
radi@@ 886
regula@@ 886
powiedziano 886
korea 885
wycie@@ 885
uczestni@@ 885
160 885
cher 885
przeze 885
е@@ 885
mówi@@ 885
hiszpański 885
html 885
rzył 884
łazienką 884
transpor@@ 884
kanady 884
mas 884
pozytywne 883
katalogu 883
niemieckiego 883
osiągnięcie 883
krótkim 883
edy@@ 883
rzone 883
bezprzewodowy 883
posłuchać 883
wających 883
zacznijmy 883
europejską 882
drzwiami 882
sezonu 882
02 882
rzymu 882
łka 882
up 882
generał 882
05 882
wykazały 882
misję 882
toaletowe 882
winda 881
pewności 881
gasz 881
potrzeb@@ 881
zepsu@@ 881
stej 881
chroni 881
chorobę 880
ustawień 880
zgodności 880
niowego 880
nieścisłościach 880
codzienne 880
następnej 880
oną 880
nocleg 880
nazy@@ 879
onej 879
przemy@@ 879
kowała 879
nasta@@ 879
kane 879
rą@@ 879
mian@@ 879
niekoniecznie 879
met@@ 879
prowadz@@ 879
fie 878
statu@@ 878
innowacyjne 878
jaj 878
faktów 878
baterii 878
szacuje 878
modlitwa 878
szuka@@ 878
ding 878
budynki 877
south 877
przewagę 877
iego 877
baz@@ 877
zakończenia 877
zaczęliśmy 877
zabiorę 877
technika 876
chińskiej 876
03 876
cudowne 876
kształcenia 876
dochodzi 876
ręcznie 876
krymina@@ 876
spokojny 876
dyrektora 876
1994 876
potrzebę 875
jach 875
hall 875
balkonem 875
palenie 875
leniu 875
pou@@ 875
fizyczne 875
naby@@ 875
lau@@ 875
ah@@ 875
ogni@@ 875
state 874
place 874
klimat 874
rzeczach 874
zauważyłem 874
głod@@ 874
wirus 874
xxi 874
spada 874
flash 873
zrobią 873
mienia 873
zaczęłam 873
pokolenie 873
pogrzeb 873
aktyw@@ 873
właściciela 873
uniwersytetów 873
piosenkę 873
jać 872
kolacji 872
logicznych 872
impreza 872
stom 872
robot 872
sprze@@ 871
łowe 871
szybka 871
lotnicze 871
oto@@ 871
zabijać 871
=@@ 871
ulicach 871
medycznej 871
cierpienie 870
onu 870
bon@@ 870
partnerami 870
uwolnić 870
egiptu 870
pozwólcie 870
wybierasz 870
odtwarzacz 870
rozwiązywania 869
pojemność 869
pać 869
zaplan@@ 869
poradzę 869
górach 869
3-gwiazdkowym 869
ciesz 869
nagro@@ 868
ciśnienia 868
szkody 868
pomo@@ 868
czał 868
miej 868
chcielibyśmy 868
tren@@ 868
obserwować 868
sprzeci@@ 868
zawar@@ 868
napę@@ 868
spła@@ 868
ps@@ 867
przewidzieć 867
trzecią 867
powstania 867
sce@@ 867
matce 867
owanej 867
chy@@ 867
rowanych 867
sd 866
czoła 866
pozostał 866
przekon@@ 866
synowie 866
mądrości 866
najprawdopodobniej 866
tatuś 866
napeł@@ 866
sądzi 865
kopię 865
bobby 865
tęsknię 865
matematyki 865
ves 865
podstawą 864
cafe 864
żyłem 864
październiku 864
rzyła 864
wor@@ 864
wydać 864
podwyż@@ 864
zapi@@ 864
koniecznie 864
bonus 863
wybiera 863
fałszywe 863
chwilkę 863
żół@@ 863
pm 863
herbata 863
fundusz 863
reklam 863
formacie 862
wice@@ 862
owani 862
traktować 862
różnorodne 862
kolana 862
chwile 862
okrą@@ 862
tyw@@ 862
sub@@ 861
onymi 861
lata@@ 861
zarządu 861
przywrócić 861
coo@@ 861
red@@ 861
sić 860
platformie 860
no-@@ 860
zysk 860
stosowany 860
zwo@@ 860
zatwier@@ 860
mleka 860
ufam 860
czyny 859
kwiecień 859
kupować 859
strefa 859
dumna 859
drama@@ 859
czarnych 859
protokół 859
spełnić 859
odebra@@ 858
reakcja 858
ther@@ 858
cho 858
okropne 858
prac@@ 858
niamy 858
spoży@@ 858
zacji 858
00:@@ 857
interfejs 857
zespołem 857
dziwa@@ 857
teo@@ 857
rozgry@@ 857
przywódcy 856
dojrzałe 856
ces 856
pkt 856
kalendarz 856
brał 856
dowa 856
obowiązków 856
zmniejsza 856
praktyk 856
młodego 856
elektrycznej 856
zarządza@@ 855
alice 855
11.@@ 855
lał 855
musieliśmy 855
słodki 855
opubli@@ 855
szcza@@ 855
upra@@ 855
norma@@ 855
zadać 855
obda@@ 855
maszy@@ 855
wynoś 854
xix 854
przele@@ 854
wyższych 854
lana 854
skry@@ 854
jacuzzi 854
słucha 854
ml 854
najwyższego 853
popraw@@ 853
świąt 853
protokołu 853
przyznał 853
chrześcijanie 853
całkowita 853
dostałam 853
śledztwo 853
tyl@@ 853
szerokość 852
picie 852
żymy 852
czynią 852
trudny 852
zbadać 852
gazety 852
dodatkową 851
bił 851
przygotuj 851
kri@@ 851
ting 851
poku@@ 851
pięknym 851
opowiem 851
pańskie 851
gps 851
królową 850
pl@@ 850
zechcesz 850
stein 850
dziel@@ 850
ukoń@@ 850
1991 850
jakikolwiek 850
zmu 850
przychodzą 850
dziedzictwa 850
bogate 850
liwy 849
koncepcji 849
wsz@@ 849
koncie 849
ft 849
rachel 849
bierzesz 849
robiła 849
podejrze@@ 849
lounge 848
recepcji 848
śniadania 848
chińskich 848
słusznie 848
krwa@@ 848
news 848
podłodze 848
fi 848
witajcie 848
poto@@ 848
jskie 848
tematem 847
puste 847
trwa@@ 847
ącym 847
wydatki 847
robili 847
reda@@ 847
kcja 847
dozwolone 847
lania 847
wu@@ 847
soli@@ 847
elementem 847
automatyczne 846
110 846
/co 846
wskaza@@ 846
ograniczone 846
rowe@@ 846
martwię 846
ory@@ 846
otrzymuje 846
pary@@ 846
dotykaj 846
i/lub 846
telefonie 846
opinię 845
znanym 845
spodnie 845
130 845
słyszałaś 845
wybie@@ 845
trój@@ 845
onów 845
ąca 845
spowoduje 845
ogólno@@ 845
związki 845
owałeś 844
siedzibą 844
wspólna 844
gramy 844
ery 844
zgroma@@ 844
stoją 844
przygotowuje 844
zji 844
klucza 844
kryty@@ 844
ken 844
hipote@@ 844
dokładne 844
kolekcji 844
potencjalnych 843
narkotyki 843
zwycię@@ 843
uważ@@ 843
poprzednie 843
tańczyć 843
wywie@@ 843
ght 843
ograniczenie 843
znajomość 843
lodu 842
obóz 842
cieli 842
walter 842
zaprojektowane 842
uroczy 842
zaczniemy 842
grudzień 842
nicze 842
matko 842
świetną 842
tni 841
biedny 841
ktor 841
pln 841
sierpień 841
wszech@@ 841
biegnij 841
żonie 841
prezenty 840
scho@@ 840
jka 840
jki 840
licen@@ 840
mach 840
materi@@ 840
czku 840
gaz@@ 840
parametry 840
lake 840
jor@@ 840
zapyta@@ 840
postępy 840
tce 840
siostrą 839
białym 839
najnowszych 839
konkretnych 839
pozycje 839
zar@@ 839
trafi@@ 838
komentarzy 838
tam@@ 838
stych 838
chemiczne 838
wewnętrzny 838
odkrycia 838
powieść 838
excel 838
wychodzę 838
oparty 837
wysiłku 837
ułat@@ 837
old 837
akademickich 837
odcinek 837
włącz 837
okra@@ 837
oca@@ 837
specyfi@@ 837
east 837
key 837
przyjazny 837
niezwykłe 837
obcy 836
par 836
spotkał 836
pat@@ 836
aresztowany 836
46@@ 836
transakcje 836
wszelką 836
biznesowej 836
dowania 836
ję@@ 836
dze@@ 836
listopadzie 836
swo@@ 835
gracz 835
jutra 835
wracają 835
wyklu@@ 835
ledwo 835
konflikt 835
szają 835
odbi@@ 835
tworzeniu 835
słaby 835
żegnaj 835
urządzeniach 835
poprawi@@ 835
prawidłowo 835
porozmawiamy 835
ństwa 834
zwol@@ 834
dobrzy 834
znaczeniu 834
ćwiczeń 834
raporty 834
powinniście 834
żyło 834
cych 834
osobami 833
poch@@ 833
przypad@@ 833
uprawnienia 832
zabili 832
recepcja 832
watch 832
diety 832
umarła 832
55@@ 831
czarnej 831
rozpoznać 831
rzeka 831
dzwonię 831
kwietniu 831
modyfi@@ 831
nagranie 831
fanta@@ 831
zacja 831
księ@@ 831
operacyjnego 830
operację 830
dym 830
08 830
odbiera@@ 830
wart 830
żałuję 830
kha@@ 830
faceci 830
nadejdzie 830
jskiego 830
próbujesz 829
lucy 829
prawym 829
gwiazdą 829
białka 829
af@@ 829
komple@@ 829
obaw 829
jska 829
kupiłem 828
wydanie 828
szkodliwe 828
tch@@ 828
wnioski 828
moduł 828
zadzwonił 828
louis 828
umiejętność 828
wykorzystywać 828
2. 827
mora@@ 827
monachium 827
black 827
dzanie 827
poprosił 827
wrzesień 827
william 827
patro@@ 827
butów 827
okolicznościach 827
zuj 826
mieszkają 826
przedłu@@ 826
podejmowania 826
obowiąz@@ 826
obi@@ 826
dob@@ 826
treningu 826
żonych 826
portfel 826
wprowadza 826
potrwa 825
ucieczki 825
sony 825
zbawienia 825
jerry 825
berlinie 825
menta@@ 825
zablo@@ 825
biała 825
nienawidzi 825
wyobraź 825
wani 825
jednostka 825
regionach 824
niak 824
zaję@@ 824
słuchasz 824
nazywać 824
narzekać 824
gospodarczych 824
tradycyjnych 824
wynaj@@ 824
znik@@ 824
religia 823
śpiewać 823
wrzu@@ 823
wypła@@ 823
umożliwić 823
kolacja 823
młodym 823
torze 823
pociąg@@ 823
odkrycie 823
położyć 822
gimnastyczną 822
co2 822
bomba 822
2.0 822
fer 822
ludzki 822
planeta 822
rzeź@@ 822
właściwym 821
mio@@ 821
mechanizm 821
.net 821
zamówić 821
drive 821
kolejowa 821
hollywood 821
radio@@ 821
fundacji 821
nosisz 821
dacie 821
chod@@ 821
wpisz 821
kontakt@@ 821
prostych 820
szacunkiem 820
œ@@ 820
seksualne 820
12-@@ 820
nareszcie 820
przyda 820
wzbu@@ 820
rzysz 820
rower 820
zatrud@@ 820
dzisiejszych 820
zanu@@ 820
czułam 820
szał 819
piwnicy 819
bel 819
barbie 819
naciśnij 819
spytać 819
bia@@ 819
papier 819
udowod@@ 819
dzasz 819
wiel@@ 819
tamtym 819
aktywnego 818
prawdopodobieństwo 818
wzmac@@ 818
konfliktu 818
pogody 818
ag@@ 818
eri@@ 818
fak@@ 818
noś@@ 818
sąsiedztwie 818
lizmu 818
saint 818
produk@@ 817
sprzedaje 817
spod 817
ah 817
zamiaru 817
white 817
ryzy@@ 817
kosmetyków 817
green 817
konstytucji 817
fro@@ 817
niebieskie 817
silna 816
winny 816
proce@@ 816
mieszkał 816
poś@@ 816
opłata 816
sprzedawać 816
bul@@ 816
dowiesz 816
zni@@ 816
mary@@ 816
dworca 815
statków 815
platformę 815
spróbuję 815
afryka 815
wioski 815
dostałeś 815
inteligencji 815
wcześniejsze 815
mobilnych 814
reprezent@@ 814
znieść 814
koledzy 814
zwa@@ 814
magazy@@ 814
zbio@@ 814
drodzy 814
pracowała 814
zbierać 814
mej 814
przypadkiem 814
izo@@ 814
wyższej 813
opowia@@ 813
pasek 813
sektor 813
pem 813
lody 813
free@@ 813
walczył 813
stę 813
posa@@ 813
nagród 813
wałaś 812
potężny 812
b-@@ 812
planet 812
cieka@@ 812
współczesnych 812
album 811
pobliższych 811
cięcie 811
numeru 811
zwykłe 811
motel 811
herbatę 811
wyjazd 811
parzenia 811
wady 811
pobu@@ 811
ogólnego 811
artysty 810
ilu@@ 810
mać 810
towarzystwo 810
publikacji 810
tajemnica 810
wejdzie 810
m2 810
ścieżka 810
faktu 810
kulturę 809
wysoce 809
liny 809
zbudowany 809
sierpniu 809
badacze 809
święte 809
cymi 808
stycznych 808
stw 808
gorsze 808
powstaje 808
sur@@ 808
uwierz 808
osą@@ 808
uzgod@@ 808
jeziora 808
dc 808
biznesie 808
towała 808
zam@@ 808
wizja 807
komfort 807
bó@@ 807
zamiesz@@ 807
ąć 807
blogu 807
kryptowalut 807
lacja 807
przybył 807
naf@@ 807
samoloty 807
tkiem 806
przestał 806
lki 806
well 806
pobi@@ 806
chwały 806
sp 806
alnie 806
dotyczą 805
żać 805
chorych 805
idealna 805
łańcucha 805
06 805
zginąć 805
tech 805
przestępstwa 805
płaci 805
przedmiotem 805
opinia 805
szonych 805
lotniczych 804
zarabiać 804
trafił 804
rd 804
autobusy 804
gratuluję 804
czę@@ 804
wynikiem 804
gościem 804
rzę@@ 804
poprawnie 803
normalny 803
rezultacie 803
skutek 803
leniem 803
szeniem 803
ości 803
wieży 803
wyrazić 803
szanie 803
nakrę@@ 802
ładow@@ 802
tommy 802
popularnych 802
leś@@ 802
straciliśmy 802
szem 802
pobieranie 802
randkę 802
wieża 802
bin 802
witaminy 801
mentem 801
bezpłatnie 801
kosz@@ 801
box 801
skończyła 801
wytrzyma@@ 801
przeby@@ 801
znaczyć 800
matema@@ 800
wyborach 800
niedalekiej 800
odsetek 800
sja 800
nazywany 800
ośrodek 800
wanego 800
dzając 799
ją@@ 799
niezbędnych 799
rozumieją 799
chow@@ 799
zach@@ 799
załogi 799
tez 799
równowagi 799
zwany 799
pilot 799
é 798
dzam 798
pami 798
00-@@ 798
żeń 798
długą 798
val 798
chłopcem 798
simon 798
obserwacji 798
un 798
09 798
xa 798
zapis@@ 797
mniejsza 797
ść@@ 797
zo 797
dzwonił 797
prywatną 797
rodzicami 797
niowa 797
oficjalne 797
pin@@ 797
sła 797
światową 797
rodzi 797
operacyjny 796
zakoń@@ 796
letniej 796
symbo@@ 796
47@@ 796
realiz@@ 796
wstać 796
pocał@@ 796
parlament 796
przyjaciółka 796
odwagę 796
słowami 795
środę 795
zapro@@ 795
śmier@@ 795
łaski 795
mina 795
portret 795
pojazdu 795
moskwie 795
burg 795
moskwa 795
dziewcząt 795
przyjdę 795
dbać 795
199@@ 795
społeczna 795
niczych 795
dojdzie 795
bliski 795
szukał 794
żal 794
monitorowania 794
kłamie 794
gatunek 794
skuteczność 794
pisma 794
odwiedzających 794
musi@@ 794
doprawdy 794
fir@@ 794
trafić 794
dolara 794
niepoko@@ 794
nti@@ 793
krwią 793
hey 793
akcesoria 793
platform 793
fri@@ 793
logo 792
mili 792
ape@@ 792
pala@@ 792
15-@@ 792
tj 792
kró@@ 792
wannę 792
czekasz 792
szkolnictwa 792
zostawię 792
pomyśl@@ 792
opisać 791
morderstwa 791
sugeruje 791
oceanu 791
sł@@ 791
s. 791
decy@@ 791
next 791
wzboga@@ 791
pacyfiku 791
aa@@ 791
zabrali 791
wajcie 791
zjawisko 791
syry@@ 791
emily 791
zer 790
nauczyłem 790
odkryli 790
innowa@@ 790
ściach 790
transferu 790
zachwy@@ 789
str 789
gające 789
towarzyszy 789
dzy 789
napić 789
doceniam 789
pobrania 789
usłyszałem 789
przyborami 789
sę 789
fundusze 789
odpowiedniej 789
wytłumaczyć 789
dziesiątki 789
uznanie 789
przekra@@ 789
edukację 789
wybranych 788
łych 788
wróciłeś 788
uszu 788
sądziłem 788
niewielkie 788
postępu 788
komunika@@ 788
rozpowszech@@ 788
ü@@ 787
ciami 787
dziłam 787
letnim 787
chę 787
prowadził 787
religijnych 787
zdarzeń 787
przewodni@@ 787
wszelkiego 787
generale 787
światowym 787
zegar 787
ratować 787
palce 787
organi@@ 787
ustaw 787
obecna 786
spadła 786
spotyka 786
instalacja 786
szlag 786
eksperyment 786
mięśni 786
przyszły 786
włoski 786
chińskiego 786
spadł 786
trwała 786
tłum 786
autorskie 785
sować 785
okrę@@ 785
szeniu 785
uwierzy@@ 785
т@@ 785
ulica 785
skro@@ 785
wią 785
parlamentu 785
konstrukcji 785
wzywa 785
stanowić 785
zasadami 785
dotyka@@ 784
trzydzieści 784
rozwojem 784
pogor@@ 784
spar@@ 784
dzieł 784
czko 784
wzrasta 784
hel@@ 784
az@@ 784
wspólną 784
specjalnego 783
rowała 783
napisałem 783
litera@@ 783
upraw@@ 783
ubiegłego 783
systemach 783
zapomniał 783
lla@@ 783
głębokie 783
przekona@@ 783
ryn@@ 783
stres 782
podkreślił 782
mniejszy 782
scenariusz 782
dziękuje 782
kwa@@ 782
lka 782
personelu 782
próbki 782
bohatera 782
celach 782
porówna@@ 782
pańska 782
ministerstwa 782
poinformował 781
uznać 781
48@@ 781
czący 781
hiv 781
magne@@ 781
skutków 781
zato@@ 781
mont 781
wykorzystują 781
instytutu 781
ela 781
łeb 780
elastyczność 780
store 780
app 780
swym 780
brian 780
progra@@ 780
zachowuje 779
zwari@@ 779
samotny 779
czoną 779
rosyjskich 779
zapamięta@@ 779
kochana 779
śniegu 779
szczery 779
organiza@@ 779
towarzystwa 778
posiadania 778
zagrożeń 778
conych 778
anie 778
space 778
domek 778
fabryki 778
odby@@ 778
mogłaś 777
xxx 777
próbę 777
rezultaty 777
pozwolenie 777
wzięła 777
robienia 777
p.@@ 777
amerykańskim 777
całodobowej 776
obję@@ 776
decyduje 776
transmisji 776
ocenić 776
odbiór 776
wizję 776
uczuć 776
czytałem 776
żywy 776
serię 776
skró@@ 776
przestęp@@ 776
mistrzem 776
żelaz@@ 776
czaj 775
centralne 775
podróżować 775
funduszy 775
umrę 775
ier 775
powtarzam 775
wizyta 775
skaza@@ 775
bada@@ 775
pełno 775
opowie@@ 775
przeprosić 775
lutym 775
don@@ 775
ei@@ 775
kobie@@ 775
emeryturę 774
przedstawienie 774
pisz 774
poziomy 774
-co 774
spu@@ 774
życzenia 774
ił 774
holiday 774
jakiegokolwiek 774
facetów 774
ofer@@ 774
lily 774
pokła@@ 774
kolegów 774
ibm 774
ada@@ 774
chach 774
grasz 774
wen@@ 774
stosunek 774
dzieci@@ 773
pokoj@@ 773
produkcyjnych 773
guesthouse 773
с@@ 773
szczęśliwe 773
tacji 773
żem 772
chci@@ 772
płacisz 772
cker 772
ekspres 772
rekord 772
kandydatów 772
podatków 771
łzy 771
pis 771
udziałem 771
zawodowego 771
open@@ 771
bukkake 771
stek 771
czwarte 771
komitetu 771
przewodniczący 771
rosyjskie 771
air@@ 770
budowania 770
otrzymują 770
inwestorzy 770
podatku 770
założenia 770
winien 770
gwarantuje 770
bogactwo 770
wrócili 770
porzą@@ 769
dowym 769
waną 769
gaj 769
aids 769
publicznym 769
masa 769
cookies 769
rozpoczęcia 769
własnością 769
obo@@ 769
centralny 769
celowo 769
zyska@@ 769
stką 768
wykonanie 768
ałoby 768
western 768
gotow@@ 768
czące 768
rka 768
głębi 768
starej 768
dowo@@ 768
dochodów 768
nuje 768
przewiduje 767
netto 767
andrew 767
urzę@@ 767
strzel@@ 767
dolców 767
palców 767
emo@@ 767
wybuchu 767
państwem 767
wordpress 767
rock 767
podejścia 766
różnicy 766
zasięg 766
pozio@@ 766
reprezentuje 766
cks 766
ściąg@@ 766
hotelowe 766
gs 766
korea@@ 766
opera@@ 766
rki 765
przyciąg@@ 765
kiej 765
przejmuj 765
sprawi 765
som 765
wybierać 765
lli 765
bzdury 765
java 765
ateny 765
hack 765
m.@@ 765
leo 765
ucieka@@ 765
07 765
all 765
płacz 764
zadbać 764
niemieckie 764
mocne 764
złożonych 764
brzegu 764
samobój@@ 764
uwielbia 764
kolejowy 764
wybrane 763
ulep@@ 763
tku 763
rosjanie 763
village 763
wyzwaniem 763
nienawi@@ 763
jnie 763
programowania 763
przeczyta@@ 762
free 762
rzędu 762
zgromadzenie 762
sztukę 762
pia 762
wolą 762
sun 762
zauf@@ 761
ofiara 761
wymiary 761
lewi@@ 761
popa@@ 761
czekajcie 761
skó@@ 761
dupy 761
ramy 761
3000 761
wione 761
satelitarną 761
gon 761
czynić 761
wyglądała 760
postanowiłem 760
barcelonie 760
chodzą 760
zem 760
płacą 760
mobile 760
władz 759
powiedzą 759
trzymał 759
rozmawiamy 759
cofnąć 759
sql 759
boutique 759
nauczyciela 759
przepły@@ 759
oczy@@ 759
skami 759
wydłu@@ 759
sprawdza 759
zbo@@ 759
spotkaliśmy 758
wycią@@ 758
wspaniałym 758
szukałem 758
mur 758
człowiekowi 758
chęć 758
zbie@@ 758
zję 758
zamknięty 758
ntu 758
ms@@ 758
ograniczyć 758
egipcie 758
przyniósł 758
sygnały 758
następnych 757
dziennik 757
dziły 757
nictwo 757
punktem 757
pracownik 757
chwa@@ 757
gospodarstwa 757
stwierdzić 757
sek@@ 757
nazywał 757
p. 757
ming 757
nnie 756
styczny 756
wnętrza 756
instrukcje 756
współpracuje 756
niesamowity 756
fle@@ 756
pop@@ 756
wysiłki 756
aktualne 756
podjęcia 756
lowa 756
mianowicie 756
oddychać 756
niebezpieczny 756
przeja@@ 756
wróg 756
tura 755
paszport 755
potwierdza 755
dzisiejszego 755
umożli@@ 755
badawcze 755
nóg 755
sportu 755
raj@@ 755
robin 755
emocji 755
lekko 754
określony 754
uzyskaj 754
imigra@@ 754
inżynierów 754
napra@@ 754
synte@@ 754
śnie@@ 754
żywe 754
wyświetla@@ 754
czeń 754
więźniów 754
krajowym 753
ä@@ 753
zostają 753
zapobiegania 753
przyglą@@ 753
konsu@@ 753
doskonała 753
trze@@ 753
żono 753
standardowy 753
detektyw 753
próbować 753
¹ 753
wbrew 752
więzienie 752
wygrywa 752
klu@@ 752
dzieciństwa 752
deszczu 752
zaoszczędzić 752
osiąg@@ 752
kontakcie 752
pas 752
ory 752
równocześnie 752
power 752
zbi@@ 752
m. 752
lowych 752
canie 751
ine 751
wymogi 751
czerwona 751
nadzoru 751
140 751
pralni 751
5000 751
uwierzyli 751
toaletowymi 751
wpadł 751
domin@@ 751
spoza 751
projekcie 751
sol 751
yst@@ 751
br 750
uczeń 750
wall 750
niesamowicie 750
jakiejkolwiek 750
a. 750
przeprowa@@ 750
spowodowane 750
sna@@ 750
rejestracja 750
pogar@@ 750
przekaza@@ 750
podpis@@ 749
przełą@@ 749
jackson 749
wymienione 749
bami 749
korzystne 749
pr@@ 749
związana 749
lubimy 749
gospodarczy 749
ciasto 749
nadzieje 749
radością 749
tematów 749
witrynie 748
chcieć 748
dową 748
ö@@ 748
zawa@@ 748
rela@@ 748
deszcz@@ 748
dłonie 748
czujemy 747
ts@@ 747
wyło@@ 747
tworzymy 747
czarnego 747
buenos 747
metro@@ 747
warta 747
cania 747
demokracja 747
pytać 747
wyga@@ 747
przedstawiciele 747
bierzemy 747
j. 746
wiosna 746
eta@@ 746
witryn 746
zawo@@ 746
konfiguracji 746
nieprawdaż 746
moni@@ 746
cala 746
prostaat@@ 746
równa 746
play@@ 746
uci@@ 746
czność 746
niewątpliwie 746
dostrze@@ 746
walczy 745
stanowi@@ 745
szale@@ 745
opublikowany 745
cuda 745
rozłą@@ 745
dra 745
posiłków 745
aspekty 745
hmm 744
bun@@ 744
lokalnym 744
siu 744
okaże 744
stadium 744
dun@@ 744
mojżesza 744
śledzenia 744
otwarcia 744
sprostać 744
tempie 744
101 744
podłogi 744
elektrycznych 744
podejdź 744
who 744
rolnictwa 744
zuży@@ 744
cztero@@ 743
wieków 743
pamiętajcie 743
łki 743
cisz 743
problemami 743
tygod@@ 743
kupon 743
pozwolił 743
ciąg 743
przyzwycza@@ 743
występ@@ 743
przyle@@ 742
czat 742
nienawiści 742
boo@@ 742
kręci 742
konkurs 742
podobnego 742
krą@@ 742
toaleta 742
sos 742
kupi@@ 741
zdrowotne 741
budże@@ 741
rozpro@@ 741
tko 741
łatwością 741
wyr@@ 741
ludzka 741
zarejestruj 741
grupą 741
chmu@@ 741
otrzyma 741
papierów 741
istocie 740
płakać 740
lisa 740
pozwolą 740
przyłą@@ 740
bow@@ 740
scenę 740
członkowskie 740
ryan 740
awan@@ 740
ctwo 740
wprowadź 740
dropbox 740
windy 739
gwarancji 739
wezwanie 739
wspólnej 739
360 739
towana 739
różnicę 739
widząc 739
duchy 739
misją 739
imigrantów 739
nień 739
organizm 739
szczególną 739
hou@@ 739
trwało 739
tle@@ 739
kowali 738
pacjenci 738
5:@@ 738
450 738
services 738
szyła 738
noszą 738
cierpliwość 738
ułatwia 738
wili 738
tytułu 738
lis 737
czarną 737
dowolnej 737
popyt 737
sm@@ 737
sportowe 737
limy 737
piętro 737
dam@@ 737
zrzu@@ 737
otrzymała 737
eddie 737
przebaczenie 736
dują 736
iec 736
pocz@@ 736
kawałki 736
tatusiu 736
koła 736
wojskowych 736
chorwacja 736
t.@@ 736
wziąłem 736
sukcesy 736
przedsiębiorstwo 736
złą 736
wó@@ 736
2,5 736
funduszu 735
wością 735
wolisz 735
tatą 735
członka 735
uczniom 735
niezależne 735
rat@@ 735
świątynia 735
liło 735
żyliśmy 735
tic 735
ukrainie 735
operacje 735
narodzenie 735
bal 735
dziemy 735
lera 734
nauce 734
pozy@@ 734
space@@ 734
któregoś 734
kosztow@@ 734
spełniają 734
nięciu 734
szło 734
mario 734
tera@@ 734
wyspę 734
multi@@ 734
wcie@@ 734
ulicz@@ 734
poja@@ 734
wysu@@ 734
ślad 734
oświadczył 734
/jak 734
jeź@@ 733
powodować 733
may@@ 733
idealnym 733
pieprz 733
ukradł 733
sob@@ 733
czamy 733
pon@@ 733
ciężka 733
toalety 733
profilu 733
szal@@ 733
stworzone 733
atmosferę 733
gospodarcze 732
dowanie 732
morskich 732
znajomości 732
łó@@ 732
love 732
czystej 732
zlokalizowany 732
zajęta 732
papie@@ 732
gazet 732
zrezygnować 732
sex 732
budżetu 732
ciłem 731
lcd 731
cenne 731
wysłany 731
wenecji 731
pokoleń 731
adre@@ 731
trzymajcie 731
zapomniałeś 731
liczbie 731
adop@@ 730
związków 730
panoramą 730
zaprojekt@@ 730
licznych 730
nosa 730
informacjami 730
ceniu 730
zlokalizowane 730
wykonuje 730
potwierdzić 730
wierze 730
bożej 730
edycji 730
tem@@ 730
proto@@ 730
czwarta 730
\@@ 730
formularza 730
zakłada 729
pracujących 729
← 729
poprawę 729
byle 729
wyznaczone 729
wanej 729
aires 729
wola 729
nauczanie 729
zostaliśmy 729
nikom 729
zaakcep@@ 729
żywych 729
pienie 729
analizę 729
autora 729
trafi 729
podejmować 729
podatki 729
nionego 729
któż 728
lowe 728
wysokich 728
obwi@@ 728
strategię 728
charakteru 728
wydania 728
mara@@ 728
przyjął 728
zaczną 728
przypadki 728
podobna 728
hu 728
tempo 727
znajomi 727
kablową 727
magia 727
rak 727
odkrył 727
kau@@ 727
gh 727
insta@@ 726
ston 726
znajdujące 726
lowane 726
optyma@@ 726
farmaceu@@ 726
bomby 726
rządowych 726
dalszym 726
zajęło 725
linux 725
czytamy 725
900 725
wspólnych 725
bruce 725
zmęczona 725
casz 725
dale@@ 725
wykorzystaniem 725
liłeś 724
nkami 724
12.@@ 724
zielona 724
lubił 724
przepisami 724
korzyść 724
żeni 724
ctwa 724
mle@@ 724
matt 723
nicą 723
łyby 723
pięcio@@ 723
nowany 723
zbiór 723
wydoby@@ 723
przemysłowej 723
innowacyjnych 723
austrii 723
czając 723
serialu 723
miesięcznie 723
ulice 723
figu@@ 723
groź@@ 723
slo@@ 723
nogami 722
recenzje 722
ice 722
maj 722
brazylia 722
wystrze@@ 722
zdą@@ 722
wybaczcie 722
zmieni@@ 722
wysyła 722
hr 721
gle@@ 721
dokon@@ 721
niejszej 721
rad@@ 721
wzy@@ 721
rozsta@@ 721
dziury 721
jones 721
amatorskie 721
tradycyjny 721
twier@@ 721
koncert 721
wycieczkę 721
fizycznej 720
stworzyliśmy 720
wizytę 720
centrów 720
indywidualnych 720
jedz 720
romans 720
rzona 720
budowanie 720
ochro@@ 720
odrobinę 720
reklama 719
wykła@@ 719
row 719
pieszo 719
szeroką 719
jną 719
socjal@@ 719
kryty 719
regulacji 719
dźwięki 719
libyście 719
kradzież 719
dyploma@@ 719
nęliśmy 718
przeci@@ 718
faktem 718
androida 718
usłyszał 718
jskiej 718
dobie@@ 718
polis 718
spojrzał 718
niski 718
rywa@@ 718
niezależnych 718
tajemnice 718
kapitał 718
zmierzyć 718
żał@@ 718
str@@ 717
rosyjskiego 717
odwo@@ 717
lokalnego 717
uruchom 717
głów@@ 717
wskazówek 717
pobierania 717
kaspersky 717
mul@@ 717
bazę 717
chemicznych 717
pamiętacie 717
wyścigu 717
właściwy 717
zrównoważony 716
wrażenia 716
oczeki@@ 716
lekcja 716
klientem 716
ksiądz 716
zamknięta 716
ograniczona 716
zegarka 716
zespoły 716
zało@@ 716
wyjaśnienia 716
ogólny 716
patrzył 715
luty 715
ogo@@ 715
ai 715
bogowie 715
zaakceptować 714
cał 714
różnorodności 714
ptaków 714
członkami 714
ciekawy 714
este@@ 714
c. 714
ogro@@ 714
poświęcić 714
teatru 714
dkę 714
profesjona@@ 714
pożą@@ 714
wierz 714
zanieczyszczenia 714
szedł 714
musiałeś 714
dźmy 714
pieniędzmi 713
pią@@ 713
magii 713
przechwy@@ 713
centralnego 713
łazienkę 713
obserwa@@ 713
zaczekać 713
twi@@ 713
idei 713
powa@@ 713
zgromadzenia 713
twarze 713
wyja@@ 713
janie 712
ciężar 712
usunięte 712
gera 712
frankfurt 712
bezpieczeństwem 712
prywatnej 711
poszli 711
dza@@ 711
dowej 711
znajdziecie 711
gatunku 711
sporzą@@ 711
cię@@ 711
adresem 711
dekady 711
opcją 711
słow@@ 711
pożar 711
skrzydła 711
zabaw@@ 711
tim 710
wysa@@ 710
niedziela 710
letnią 710
diabeł 710
ubra@@ 710
ange@@ 710
magazyn 710
statki 710
poprzedniego 710
wsty@@ 710
chile 710
post@@ 709
żonaty 709
bramy 709
poznałam 709
zwykłych 709
przygotowany 709
oznaczać 709
klima@@ 709
zakoch@@ 709
nosi@@ 709
victoria 709
ciągnąć 709
niłeś 709
usuwanie 709
litość 709
izraelu 709
odzyska@@ 709
przestrzegać 709
wymianę 709
pokaże 709
domeny 708
terem 708
prosił 708
wal 708
zebra@@ 708
szansy 708
tob@@ 708
waszyngtonie 708
odnaj@@ 708
morskie 708
oczekiwać 708
krajowe 708
przystojny 708
elizabeth 708
przewidy@@ 707
4-gwiazdkowe 707
access 707
próbując 707
skończyło 707
wiąza@@ 707
obozu 707
sekretarz 707
bów 707
rozważyć 707
pływać 707
doskonałą 707
rowego 707
morskiej 707
przedmiot 707
hitler 707
pospiesz 707
gazów 707
dziewięciu 707
urzędu 707
panel 707
obsłudze 706
trud@@ 706
środkowej 706
nielegalne 706
wycofać 706
ons 706
spodni 706
nastolatek 706
dałaś 706
mail 706
przyszłego 706
dawnych 706
bogactwa 706
m² 706
powieści 705
rachunku 705
metodę 705
l'@@ 705
troszkę 705
dodano 705
wypoży@@ 705
ratow@@ 705
posłu@@ 705
konkretne 705
trą@@ 704
częstotliwość 704
smart 704
ira 704
dujemy 704
dziesią@@ 704
żowy 704
czerwonego 704
pał 704
10:@@ 704
kwalifi@@ 704
obrębie 703
obsługiwane 703
idea 703
interakcji 703
blan@@ 703
ładowania 703
wpis@@ 703
sprzę@@ 703
-a 703
nis 703
niemieckich 703
tron 703
świadczenia 703
tana 703
wewnętrznego 703
johnny 703
panuje 702
imieniem 702
pete 702
opera 702
czą@@ 702
a.@@ 702
anali@@ 702
mek 702
linki 702
prezentacji 702
ności@@ 702
budżet 702
menedżer 702
125 702
wymienionych 702
miłosierdzie 702
słysz@@ 702
pią 702
połóż 701
szatana 701
lamy 701
chińczycy 701
podróże 701
security 701
zarazem 701
dostała 701
pośredni@@ 700
szwecja 700
chemii 700
negocjacji 700
usunięcie 700
urządzone 700
konwencja 700
sprzeciw 700
dziecięce 700
uważane 700
raporcie 700
wygodnie 699
zima 699
stabilności 699
ogrodu 699
sprawi@@ 699
zdolny 699
minął 699
kamienie 699
skrzywdzić 699
zobowiązań 699
dotknąć 699
niz@@ 699
groz@@ 698
wiedzieliśmy 698
następuje 698
przewi@@ 698
hongkongu 698
ośrodki 698
obowiązuje 698
vip 698
palec 698
kredytowej 698
toronto 698
ałaby 698
restauracjach 698
api 698
robotni@@ 698
polityką 698
iranu 698
koncepcja 697
regu@@ 697
skrytka 697
przyniosę 697
tury 697
ciep@@ 697
najważniejsza 697
kolekcja 697
potrafi@@ 697
limit 697
działał 697
poparcie 697
md@@ 697
poważ@@ 697
wyjdziesz 697
zostawcie 697
skach 697
regularne 696
domowej 696
hd@@ 696
zachowywać 696
chodzimy 696
interpre@@ 696
znałem 696
przyjechać 696
gui@@ 696
plecy 696
zwal@@ 695
11:@@ 695
próbowałam 695
rezerwuj 695
nienawiść 695
konstrukcja 695
duchu 695
pojawić 695
wszechświecie 695
potencjalnie 695
przechowywać 695
dostępności 695
word 695
arabskie 694
trudnych 694
najważniejszym 694
budzi 694
łaci@@ 694
kieruje 694
róż 694
polityczny 694
stolicą 694
wystąpić 694
poruszać 694
austria 694
wchodzić 694
stabi@@ 694
wartościowych 694
podstawowym 694
regionów 693
w. 693
wydany 693
istniejące 693
zawód 693
testu 693
rządzi 693
upew@@ 693
nagrania 693
pragną 693
zapomnę 693
znie@@ 693
bob@@ 693
osobowości 693
mistrzostwa 693
bek 692
płyta 692
rać 692
ruszamy 692
kontro@@ 692
dera 692
wystąpienia 692
neutra@@ 692
sprowadza 692
wymienić 692
bał 692
wpływają 692
koncer@@ 692
słabe 691
ściami 691
podlega 691
oży@@ 691
port@@ 691
produ@@ 691
dzielnica 691
minibar 691
к@@ 691
lar 691
skrzyw@@ 691
rozpocznie 691
oklaski 691
kąt 691
działem 691
szczę@@ 691
ponowne 691
założył 690
uznania 690
konsulta@@ 690
zostałeś 690
wzięło 690
organy 690
zniszczenia 690
postanowi@@ 690
lustro 690
zobaczcie 690
dallas 690
czasz 690
nie-@@ 690
prąd 690
autobusem 690
galeria 690
zgodność 690
zechce 690
ekscytujące 689
'owi 689
н@@ 689
zazdro@@ 689
konieczność 689
globalną 689
gó@@ 689
uderzył 689
warun@@ 689
bok 689
bę@@ 689
sing@@ 689
cudem 689
czce 689
stawki 688
spadnie 688
niewielki 688
company 688
kap@@ 688
turystyki 688
zajmują 688
chami 688
ros 688
zniszczy@@ 688
zgo@@ 688
używana 688
zali@@ 688
home@@ 688
zgar@@ 688
twitter 688
przeję@@ 687
lizuje 687
krotnie 687
światowe 687
kanału 687
zapo@@ 687
stym 687
prowadzę 687
gos 687
mających 687
puścić 687
proje@@ 687
st. 687
różni@@ 687
żartuję 687
produktach 687
popra@@ 687
racje 686
stopa 686
mowi@@ 686
odbior@@ 686
randki 686
carl 686
pierwsi 686
krajami 686
mb@@ 686
przepływ 686
ścieżkę 686
każe 686
uratował 686
świadczy 686
oświet@@ 686
nazw 686
ocenę 686
departamentu 686
tom@@ 686
ren 686
wynocha 686
strukturę 685
inę 685
modu@@ 685
złote 685
zja 685
naro@@ 685
soli 685
kotku 685
drob@@ 685
pisarz 685
babci 685
wisz 685
kwi@@ 685
federacja 685
planowanie 684
pokojami 684
katastrofy 684
egipt 684
xbox 684
podatek 684
sowie@@ 684
lód 684
hero@@ 684
żelazko 684
\ 684
gła@@ 684
kościołów 684
schemat 684
cząc 684
zawodowej 683
33@@ 683
aktywnych 683
wspomina@@ 683
pojazd 683
kevin 683
pytał 683
bil@@ 683
technologią 683
dziw@@ 683
klas 683
london 682
kowanego 682
rozwią@@ 682
sprawdzę 682
sea@@ 682
centra 682
planetę 682
pol 682
poznał 682
liczbą 682
ober@@ 682
czami 682
brukseli 681
ugry@@ 681
mło@@ 681
mówiliśmy 681
powtórzyć 681
stabilność 681
he 681
rad 681
book 681
najbliższe 681
sły 681
pochodzenie 681
leku 681
kó@@ 680
spło@@ 680
nagry@@ 680
butelkę 680
knąć 680
zapomniałam 680
zmierza 680
wyluzuj 680
stosowanych 680
dialog 680
tlenu 680
uzyskanie 680
strategie 679
szczególne 679
ź 679
duchem 679
indi@@ 679
zabiją 679
możliwy 679
automa@@ 679
oświad@@ 679
strata 679
liczb 679
rusza 679
hp 679
ówce 679
odpoczynku 678
lt 678
telewizorem 678
les@@ 678
możliwych 678
kata@@ 678
żasz 678
młodzie@@ 678
gania 678
utwórz 678
towa@@ 678
konsekwencji 678
moze 678
obrotu 678
przydzie@@ 678
chodził 678
ulicę 678
poczujesz 677
dłuższy 677
opóź@@ 677
siecią 677
pojazdy 677
cierpliwości 677
rzut 677
wychodzić 677
pą 677
upa@@ 677
targi 677
niana 677
odeszła 677
ters 677
ałyśmy 677
sygna@@ 677
przyjaciółką 676
lizowany 676
groma@@ 676
scena 676
wyjątkowa 676
trwają 676
dostrzec 676
chorobą 676
projektem 676
dostawa 676
pho@@ 676
łabyś 676
kowo 676
wykształcenie 676
rannych 676
żądania 676
north 676
zwrócił 675
lie 675
ph 675
opieka 675
amo@@ 675
1500 675
geor@@ 675
wzrośnie 675
julia 675
dwudziestu 675
zaczniesz 675
wanym 675
ges 675
institute 675
antonio 675
przeprowadzone 675
cio 674
słonecznego 674
europejskim 674
pozba@@ 674
nowane 674
› 674
piąty 674
głosem 674
inspi@@ 674
marina 674
przegra@@ 674
napisała 674
zgodzi@@ 674
patri@@ 674
szyi 674
ukrywa 674
racjona@@ 674
zmieniły 673
log@@ 673
xi 673
tajlandii 673
rab@@ 673
prądu 673
francuskiego 673
tamtych 673
dupek 673
polityczna 673
londy@@ 673
wymaga@@ 673
dług 673
niebawem 673
gwarancja 673
weźmie 672
wający 672
krzyż 672
rów@@ 672
ostrożny 672
eksplo@@ 672
biał@@ 672
wieczne 672
ofercie 672
jedzą 672
głup@@ 672
inicjatywy 672
dou@@ 672
współcześnie 672
głód 672
clo@@ 671
zgodził 671
grafi@@ 671
podnieś 671
jajka 671
zagi@@ 671
leni 671
bezpłatnymi 671
opartych 671
stacje 671
adresy 671
wycieczka 671
psem 671
prostą 671
clar@@ 671
queen 671
ses 671
rozmawia 670
słoneczne 670
kurorty 670
płaskoekranowy 670
koszmar 670
świętych 670
tycznymi 670
stal 670
naszemu 670
pułkowniku 670
susan 670
definicja 670
musiały 670
zwycza@@ 670
mur@@ 670
tyk 670
leczeniu 670
nan 670
dzał 670
słab@@ 670
najlepsi 670
hi 670
psychi@@ 670
woj@@ 670
dyplom 670
słucha@@ 670
wsiadaj 670
magazynu 670
pada 670
obiecał 669
gotować 669
wat@@ 669
nta@@ 669
przedstawicieli 669
kil@@ 669
kalorii 669
/jest 669
przepływu 669
znakiem 669
poczy@@ 668
lowany 668
kobietami 668
szalone 668
wyróżnia 668
kolega 668
głoś@@ 668
r-@@ 668
kora@@ 668
zaba@@ 668
stałego 668
terów 668
kel@@ 668
psychologii 667
d. 667
łowy 667
przejścia 667
vol@@ 667
źli 667
pięknej 667
fotografii 667
poruczniku 667
otwiera@@ 667
cielem 667
żyłam 667
turystycznych 667
świadomy 667
gol@@ 667
sportowych 667
zas@@ 667
wprowadzenia 667
wybu@@ 667
powszechne 667
stanąć 667
rick 666
bezpiecznego 666
naturę 666
służbie 666
tamten 666
zorganizować 666
poważna 666
kowa@@ 666
cent@@ 666
pierwotnie 666
vista 665
dozna@@ 665
stołu 665
whatsapp 665
ramiona 665
wiodących 665
równe 665
utrata 665
żek 665
trwałe 665
właścicieli 665
dupie 665
wydatków 665
zabierze 665
hałas 665
uważany 665
terapeu@@ 665
6:@@ 664
spoglą@@ 664
otwartym 664
one@@ 664
mes 664
śledzenie 664
świętym 664
sche@@ 664
absolu@@ 664
wynajmu 664
sara 664
negatywne 664
chać 664
edukacyjne 664
juli@@ 664
boj@@ 664
jakimi 664
czyszczenia 664
sygnału 663
historią 663
kowanej 663
czarnym 663
wspaniałych 663
amsterdam 663
koja@@ 663
wydru@@ 663
ciekawa 663
wstęp 663
wodny 663
nią@@ 663
wyświetleń 663
biegać 663
łańcuch 663
eric 663
żu@@ 663
okropnie 662
konwer@@ 662
elektronicznych 662
elastyczne 662
łączą 662
prowadzimy 662
wizy 662
tańca 662
pozostała 662
lepszej 662
poszukiwanie 662
prosze 662
din 661
kwotę 661
jami 661
zatrzyma@@ 661
żanie 661
wyczy@@ 661
zabierzcie 661
przerażające 661
śpisz 661
garderobę 661
pun@@ 661
dwanaście 661
wywiadu 661
spędził 660
strzał@@ 660
zaangażowania 660
okreś@@ 660
norwegii 660
aspektów 660
promocji 660
języ@@ 660
nionej 660
żółty 660
dła 660
użytkow@@ 660
tortu@@ 660
zainspi@@ 660
fragment 659
kłam@@ 659
samsung 659
przyszłe 659
prawnik 659
planem 659
zwro@@ 659
pek 659
pana@@ 659
plotki 659
powodzeniem 659
ciela 659
` 659
cudowny 659
zaczynasz 659
okru@@ 659
menedżerów 658
ścia 658
wciąg@@ 658
sprzątania 658
paliwo 658
starań 658
stawić 658
niebios 658
mentu 658
przykładów 658
krzesło 658
hei@@ 658
czuła 658
nięciem 658
liczę 658
tti 657
twórcy 657
tina 657
porozmawiajmy 657
arty@@ 657
czyta 657
genów 657
dochód 657
pracownika 657
światłem 657
twór@@ 657
prawdzie 657
thi@@ 657
dla@@ 657
dziedzictwo 657
upadku 656
paris 656
specjaliści 656
rozsą@@ 656
umar@@ 656
depozytowa 656
społeczny 656
inteligentnych 656
wolałbym 656
indywidualne 656
mina@@ 656
zaprezent@@ 656
lęk 656
1980 656
wracasz 656
salonie 655
cad 655
of@@ 655
paweł 655
1945 655
prag@@ 655
dean 655
efektów 655
ścić 655
przejdzie 655
wzięli 655
ins 655
hot@@ 655
szyło 655
poprzednio 655
znu@@ 655
zobaczycie 655
zachowań 655
rozle@@ 655
propozycję 654
pojawią 654
dusz@@ 654
łym 654
ciocia 654
owie@@ 654
ye 654
modli@@ 654
złem 654
ciel 654
car 654
etykiety 654
rimini 654
palesty@@ 654
spoj@@ 654
konfliktów 653
skarb 653
popełnił 653
hod@@ 653
nkę 653
wizji 653
niemieckiej 653
zasta@@ 653
zdjąć 653
ras 653
trudna 653
kobiecie 652
pija@@ 652
hotelowej 652
aktua@@ 652
kapitana 652
chleba 652
zabawny 652
podsumowanie 652
malu@@ 652
całkowitą 652
zmę@@ 652
jean 652
straciła 652
finansowy 652
wracając 652
obecnym 652
kacji 652
zabiera@@ 652
ep@@ 652
przypa@@ 652
panny 652
tygodniach 652
głosowania 652
jek 652
ope@@ 651
galerii 651
powrócił 651
efektywności 651
przeszko@@ 651
ćmy 651
sm 651
rin@@ 651
alność 651
zysku 651
2/@@ 651
zginęli 651
zdrowiu 651
fundamenta@@ 651
podstawową 651
ciu@@ 651
pozwolisz 651
2-gwiazdkowy 651
kontroluje 651
ewolucji 651
mogliby 651
czących 651
potężne 650
zasadach 650
planie 650
bitwa 650
chwi@@ 650
dziewczęta 650
wybudowany 650
dodawanie 650
katoli@@ 650
spad@@ 650
szkole@@ 650
ucieka 650
sprząta@@ 650
dziewczynie 650
próbowali 650
sięg@@ 650
male@@ 649
tkwi 649
drobne 649
gii 649
weszła 649
gając 649
wdro@@ 649
oświetlenie 649
table@@ 649
frie@@ 649
ilością 649
całodobową 649
różnić 649
bieżąco 649
torby 649
grają 649
sekcja 649
napojów 649
wrócą 649
daną 649
ate@@ 649
zarzą@@ 648
żał 648
rowym 648
przecią@@ 648
cholerny 648
market 648
wodo@@ 648
pic@@ 648
sap 648
minie 648
roczny 648
zabiła 648
cając 648
rozszerzenia 648
właściwą 648
powstało 648
atmosferze 648
zamyka@@ 647
prób 647
db 647
norm 647
pch@@ 647
latek 647
lase@@ 647
oka@@ 647
albert 647
kawał 647
zadzi@@ 647
głęboki 647
jesli 647
point 647
instrumentów 647
księdze 647
ogół 646
porsche 646
°c 646
charakterze 646
kalendarza 646
panów 646
pęk@@ 646
pogłę@@ 646
eksport 646
ans 646
dokonał 646
kl@@ 646
dźwię@@ 646
sztyw@@ 646
końcem 646
największej 645
motyw 645
szczegółowo 645
pełno@@ 645
zwane 645
zdecydował 645
nazywane 645
znaku 645
naukowej 645
wchodzą 645
uprawnień 645
macierzy@@ 645
nawa@@ 645
ukończeniu 645
czytel@@ 645
wolnych 645
mno@@ 645
zacznę 645
firefox 644
nadzo@@ 644
członkowskich 644
real 644
syw@@ 644
zginie 644
mią 644
śni 644
low 644
załoga 644
gór 644
dzonego 644
mówicie 644
sukcesem 644
powtarz@@ 644
gospodarkę 644
dzielą 644
lotni@@ 644
formą 643
wąt@@ 643
uwielbi@@ 643
określenia 643
umierają 643
strasz@@ 643
baj@@ 643
niebezpieczeństwie 643
wieni 643
noclegi 643
dostawca 643
organizmu 643
internetowy 643
spółek 643
zaskoczony 643
staro@@ 643
potwór 643
fli@@ 643
przywództwa 643
av@@ 643
ic 642
poglądy 642
cke@@ 642
studiować 642
zatrzymał 642
ofe@@ 642
dalszych 642
negocjacje 642
pismo 642
budowie 642
produkuje 642
uszko@@ 642
eg@@ 642
kosmicznej 642
odzież 642
trendy 642
kwia@@ 642
vy 642
uszkodzenia 642
mięśnie 642
nką 642
zorient@@ 642
beta 642
11-@@ 642
włącznie 641
mową 641
niewinny 641
mowych 641
objawów 641
poła@@ 641
44@@ 641
lei@@ 641
symbolem 641
bridge 641
alar@@ 641
ścianie 640
pragnienia 640
tygodniowo 640
sexy 640
tłumaczy 640
tie@@ 640
abu 640
kino 640
spadaj 640
podpisać 640
wood@@ 640
dowego 640
kulturze 640
rankingu 640
zdecydow@@ 640
ciemność 640
wyróż@@ 640
odnieść 640
b. 640
bag@@ 640
napięcie 640
mylisz 640
straszny 640
bły@@ 640
zację 639
sofa 639
dostarczania 639
centralnej 639
uznał 639
wpad@@ 639
zgodny 639
celi 639
cieszy@@ 639
chiń@@ 639
ziem@@ 639
kopie 639
1988 638
okazał 638
znacząco 638
dowiedział 638
dba 638
podłą@@ 638
gorz@@ 638
standar@@ 638
jac@@ 638
rt 638
wieść 638
żają 638
byłyby 638
edward 638
dubaju 637
pomiaru 637
niebezpiecznych 637
niowej 637
szkołach 637
dzeń 637
adresów 637
wpaść 637
sprowa@@ 637
bert 637
serwi@@ 637
poprzednim 637
ban 637
zaprosić 637
sau@@ 637
pobiera@@ 637
owoc@@ 637
jsze 637
emery@@ 637
twierdził 636
uśmiech@@ 636
powstały 636
zawodników 636
ludzką 636
wyjaśnienie 636
tabeli 636
presti@@ 636
apartment 636
dował 636
zdefini@@ 636
szczenia 636
węgry 636
niaj 636
laptopa 636
oblicze 635
nastroju 635
noce 635
basenie 635
lom 635
publiczność 635
chemi@@ 635
chłopakiem 635
kuzy@@ 635
napięcia 635
jedni 635
foto@@ 635
holandia 635
poczucia 635
pamięta@@ 635
wykształ@@ 635
radzę 635
serwery 634
numerem 634
schi@@ 634
profesorze 634
wniosków 634
gigan@@ 634
świadectwo 634
powita@@ 634
fizy@@ 634
zapytałem 634
zejdź 634
upro@@ 634
pka 634
zostawiła 634
gwiazdkowe 634
łatwa 634
polegać 634
utwór 634
różnic 634
front 634
fotografi@@ 634
zabój@@ 633
zabija@@ 633
okręt 633
rozmiaru 633
niedobrze 633
sztu@@ 633
krypto@@ 633
gadasz 633
pr 633
taylor 633
zestawu 633
lonym 633
ig@@ 633
myśleli 633
/do 632
8:@@ 632
typowe 632
poprawa 632
zadziała 632
carter 632
kaza@@ 632
hote@@ 632
chińska 632
chrome 632
powrócić 632
fajny 632
zidentyfikować 632
wiatru 632
manie 632
częściach 632
utworzenie 632
ywać 632
zera 632
modelki 632
przestanie 632
snąć 631
łatwiejsze 631
graficzne 631
prędkością 631
kując 631
całkowite 631
owce 631
bom@@ 631
zasobami 631
towanych 631
wykorzyst@@ 631
wdzię@@ 631
ćcie 631
ero@@ 631
podwójny 631
technologicznych 631
wyjdę 631
dorosłe 631
nauczycielem 630
wynalaz@@ 630
dzwonić 630
spotyka@@ 630
ekonomicznej 630
ec@@ 630
sco 630
ceniem 630
przekracza 630
wypoczynku 630
ró@@ 630
psychologi@@ 630
słuch@@ 630
tęsk@@ 630
lesbijki 630
kcją 630
zimna 630
pytaj 630
armię 629
śledź 629
wyraz 629
postępo@@ 629
twojemu 629
prezydencie 629
wewnętrznej 629
luj 629
kolejnej 629
przerwę 629
ńmy 629
marynarki 629
podstawowej 629
walczą 629
traktuje 629
whisky 628
bożym 628
radzić 628
kolejowego 628
poprawki 628
marsa 628
ego@@ 628
sków 628
wstecz 628
otoczeniu 628
zapisane 628
nożnej 628
umrzesz 628
hur@@ 628
wróciłam 627
3. 627
kimi 627
tus 627
stycznego 627
tacja 627
wojskowe 627
niejsi 627
majątek 627
war 627
praktyka 627
ptak 627
wskaźniki 627
przyjazdu 627
dupku 627
możliwa 627
katedra 627
wiaj 627
dno 627
wyjątkową 627
washington 626
handlowego 626
wysyłać 626
obecnego 626
wzię@@ 626
zdejmij 626
zewnętrznego 626
gowe 626
robotów 626
zgubi@@ 626
przywódców 626
stroną 626
naftowej 626
ktu@@ 625
zujesz 625
spotykamy 625
szlache@@ 625
potę@@ 625
kes 625
rozpoczęciem 625
sąsiadów 625
on-line 625
rozwo@@ 625
united 625
zaku@@ 625
kujących 625
publiczna 625
latka 625
elektry@@ 625
tany 625
ńczycy 625
kore@@ 625
krzyczeć 625
martwe 624
zmart@@ 624
administra@@ 624
równości 624
służą 624
musze 624
25-@@ 624
kany 624
druku 624
ciszy 624
akta 624
brze@@ 624
zjawi@@ 624
stację 624
tętni@@ 624
bara@@ 624
niany 624
ścią@@ 624
dawców 624
usłu@@ 623
miłosierdzia 623
otwo@@ 623
niewiarygodne 623
wzmoc@@ 623
krawędzi 623
1984 623
ubranie 623
tać 623
resztą 623
żołnierz 623
popularny 623
południa 623
dos 623
niskiej 623
profesjonalistów 623
inte@@ 623
odwrotnie 623
syste@@ 623
zostawi@@ 623
twe 623
rado@@ 623
swa@@ 623
finansowanie 622
przyjdą 622
flu@@ 622
zniknie 622
utworzenia 622
uło@@ 622
prezent@@ 622
używaj 622
rowali 622
melbourne 622
18-@@ 622
modlić 622
dowi@@ 622
metodą 622
piekle 622
zwykłym 622
sko-@@ 622
suge@@ 622
impor@@ 622
muj 622
dawki 622
siedzę 621
ństwem 621
wski 621
,5 621
przebudowany 621
boży 621
osiągnął 621
osie@@ 621
roy 621
poważnych 621
gitea 621
1985 621
kierownik 620
hilton 620
lea@@ 620
satelity 620
czmy 620
występ 620
pobra@@ 620
samotnie 620
50-@@ 620
florencja 620
teorię 620
strzelaj 620
dowiemy 620
litery 620
bol@@ 620
opo@@ 620
zimą 619
kamerę 619
l.@@ 619
miło@@ 619
rachunki 619
wytłuma@@ 619
bali 619
rozmawiał 619
pę 619
starannie 619
niższe 619
marco 619
czytasz 619
kali@@ 619
przechowalnia 619
koni 619
spotka 619
niewielka 619
wiło 618
koloni@@ 618
francuskiej 618
tajne 618
mujesz 618
twardy 618
czymi 618
pragniesz 618
wiedziałaś 618
przykła@@ 618
kurde 618
fabry@@ 618
stri@@ 618
wynaję@@ 618
oryginalne 618
poznaliśmy 618
najlepszej 618
satelitarnej 617
ustanowi@@ 617
prowadzisz 617
otoczenia 617
grzesz@@ 617
szatan 617
operacyjnych 617
ciemno 617
młodzież 617
użyciem 617
skok 617
intelektualnej 617
zostałam 617
artykuł@@ 617
sję 617
łowa 617
suj 617
dynami@@ 617
podstawę 617
narzu@@ 617
rzekę 617
kierowców 617
zatru@@ 617
non 617
ota@@ 616
referendum 616
odsło@@ 616
forsę 616
120@@ 616
zrelaksować 616
kurczaka 616
zachowa@@ 616
aqu@@ 616
zabójca 616
marzec 616
pato@@ 616
charakteryzuje 616
grzechów 616
rzała 616
grace 616
zabieraj 616
imiona 616
żam 615
mr 615
królewskiej 615
wające 615
zniżki 615
wyrobów 615
bangkok 615
dyskre@@ 615
sofę 615
zaata@@ 615
stem 615
uzyska@@ 615
profesjonalnych 615
bury 615
kapelusz 615
zamieszkania 615
kłamać 614
podle@@ 614
narody 614
wykorzysty@@ 614
poprawia 614
dż@@ 614
skazany 614
tek@@ 614
bana@@ 614
bus 614
pogląd 614
fizycznych 614
wypić 614
500@@ 614
siedzisz 614
dziedziny 614
trzema 614
oni@@ 614
marką 613
morgan 613
ryba 613
średnich 613
radzi 613
świadkami 613
kość 613
eksportu 613
arcy@@ 613
long 613
militar@@ 613
zaka@@ 613
słabości 613
odgry@@ 613
wró@@ 612
czekałem 612
rozum 612
dziecie 612
wyobraźni 612
pokazy@@ 612
humoru 612
bogatych 612
płaszcz 612
nościami 612
visual 612
ubie@@ 612
bawi 612
oby@@ 612
poszuki@@ 612
wyświetlane 612
lonego 612
brown 612
dodatkowy 611
1987 611
migra@@ 611
obudzić 611
całkowitej 611
gana 611
lider 611
dowiedziałem 611
podejść 611
noszę 611
egzamin 611
włączając 611
rozpoczęcie 611
inform@@ 611
najwyżej 611
materii 611
trwały 611
kwota 611
castle 611
profesjonalne 611
source 611
got@@ 611
trudniej 611
kochany 611
zobowiązania 610
odbył 610
pach 610
zakłady 610
poe@@ 610
zniknęła 610
równowagę 610
v-@@ 610
ręku 610
tur 610
serial 610
afganistanie 610
power@@ 610
historycznych 610
czterdzieści 610
/tak 609
odpowiadają 609
odczy@@ 609
zio@@ 609
ciepłe 609
pocałunek 609
zgłosić 609
zaspokoić 609
pudełko 609
wersjach 609
znaczne 609
odpowie@@ 609
barów 609
gówna 609
chciałabyś 608
pomyłka 608
miejmy 608
niające 608
powiemy 608
epoki 608
trend 608
mira@@ 608
turystyka 608
krzyż@@ 608
lekarstwo 608
spory 608
inwestycja 608
niska 608
wygod@@ 608
cyj@@ 608
poziomów 608
sophie 608
wyczu@@ 608
robotników 608
willa 608
naczynia 608
rakie@@ 607
dołączył 607
bezpłatnym 607
suko 607
4-gwiazdkowym 607
ina@@ 607
niewol@@ 607
podło@@ 607
przeglądarka 607
czkami 607
umieści@@ 607
aniołów 607
wygry@@ 607
edycja 607
międzyczasie 607
skończę 607
bki 607
najwyższe 607
oj@@ 607
konieczna 607
powiadomienia 607
unesco 607
marii 607
dłuż@@ 607
utk@@ 607
rzonych 607
sprzeczne 607
kluczy 606
nobla 606
procent@@ 606
poddać 606
ruszyć 606
pension 606
nictwa 606
poznania 606
niową 606
jedne 606
zespole 606
ywa@@ 606
ubrań 606
komfortu 606
fundacja 605
zespołów 605
marie 605
skupia 605
bienia 605
role 605
bliskiego 605
mki 605
archi@@ 605
osią@@ 605
przestępstwo 605
tha 605
jersey 605
zarzu@@ 605
kwoty 605
kryptowaluty 605
odbywają 605
rabat 605
wakacyjne 605
starają 605
jacka 605
korporacji 604
czyszczenie 604
opuszcz@@ 604
mt 604
rzeniu 604
prześla@@ 604
potwierdzenie 604
niłam 604
kal@@ 604
wcy 604
siostro 604
przycze@@ 604
zapewniam 604
bmw 604
pomogła 604
dło 604
¹@@ 603
urodzi@@ 603
populacja 603
gad@@ 603
literatury 603
ćwiczyć 603
zmarłych 603
wybrzeża 603
scp-@@ 603
herba@@ 603
przedsiębiorców 603
tło@@ 603
dowodu 603
wymagać 603
usunięcia 603
zgonów 603
szczęśliwego 603
dawid 603
karcie 603
przeprowadz@@ 603
uzależ@@ 603
kryje 603
zić 602
posiadamy 602
standardowe 602
zasło@@ 602
starą 602
uści@@ 602
interfejsu 602
reformy 602
pokład 602
ucz@@ 602
ustawienie 602
filozofia 602
wese@@ 602
kręcić 602
kuchenne 602
mara 602
stosowana 602
rusz 602
dialogu 602
wysp 602
leczyć 601
bałagan 601
czynnikiem 601
ograniczony 601
dalszego 601
ruj 601
pomocne 601
odbyła 601
portal 601
monety 601
największego 601
płuc 601
mowej 601
zgu@@ 601
pogrą@@ 601
odpowiedzialne 601
elektrowni 601
pańskiej 601
wię@@ 601
wystawa 601
subskrypcji 600
etykie@@ 600
ekspre@@ 600
codziennego 600
stwierdza 600
projektami 600
zakończył 600
cane 600
firmom 600
atak@@ 600
zmniejszenia 600
porto 600
magistra 600
zejść 600
opuszcza@@ 600
wprowadzone 600
skiemu 600
rękami 599
odporność 599
hałasu 599
uważał 599
ciło 599
oporu 599
podał 599
camy 599
przyjechałem 599
baw 599
próbujemy 599
wyrzucić 599
vin 599
przystanku 599
bije 599
sław@@ 599
twin 599
dama 599
zobaczyłam 599
fazie 599
przemysłowe 599
żania 599
efektywne 599
śnia@@ 599
odmówić 599
zaburzenia 599
oskarżony 598
palić 598
miss 598
średnie 598
serw@@ 598
wybor@@ 598
inżynier 598
her 598
ustach 598
politycznego 598
elegancki 598
zarząd 598
mał 598
wybuch 598
uwadze 598
bruta@@ 598
penny 597
wstań 597
persona@@ 597
mechani@@ 597
lekar@@ 597
majątku 597
zjawiska 597
rzymy 597
póź@@ 597
przymu@@ 597
obronie 597
autorzy 597
zrozumiesz 597
dzono 597
poszukać 597
wykorzystując 597
raju 597
zatrzym@@ 597
intui@@ 597
beth 597
nic@@ 597
ay@@ 596
rou@@ 596
papiery 596
tions 596
chodziłem 596
obejm@@ 596
executive 596
stałem 596
micha@@ 596
codziennym 596
gatunki 596
polityk 596
branża 596
liści 596
pozwoli@@ 596
owo@@ 596
szalona 596
dziesz 596
powodują 596
mos@@ 596
nujesz 596
sis 596
notatki 596
biznesowy 596
rozwód 596
nano@@ 596
dzisiejsze 595
przyjedzie 595
ciemne 595
12:@@ 595
niegdyś 595
allah 595
biuro@@ 595
żki 595
porę 595
wei@@ 595
ogranicza 595
wypowiedzi 595
pytają 595
drukarki 595
zrozumiał 595
zgło@@ 595
pyszne 595
kopia 595
urodzin 595
zagrożeniem 595
kelly 595
sci@@ 595
komputerowych 595
aktor 594
byłego 594
formatu 594
technology 594
organizacją 594
hm 594
lou 594
pieprzone 594
manchester 594
kał 594
szczytu 594
uznaje 594
jamesa 594
mobilne 594
wypadków 594
boy 594
świetnym 594
monitorowanie 594
sat 593
pożyczyć 593
zauważ@@ 593
kuchenka 593
brazylij@@ 593
masę 593
społeczności@@ 593
skonfigu@@ 593
chaj 593
oku 593
magi@@ 593
jskim 593
szania 593
anki 593
osiągnięć 593
potencjału 593
niepodległości 593
zwró@@ 593
wystrój 593
bella 592
kongres 592
józef 592
pojedziemy 592
luksusowy 592
kredyt 592
wystawy 592
wojen 592
uli@@ 592
andro@@ 592
pojadę 592
ami@@ 592
dotyczącej 592
mostu 592
ofert 592
zróżnic@@ 592
interesie 592
ê@@ 592
proro@@ 592
starsza 592
exchange 592
back 591
dopuszcz@@ 591
1979 591
odro@@ 591
elementu 591
nioną 591
kam@@ 591
bay@@ 591
bał@@ 591
sugerują 591
nieszczę@@ 591
puszczaj 591
wprowadził 591
mone@@ 591
powiedziane 591
wionych 591
ave@@ 591
tatę 591
odpowiedzią 590
dwutlenku 590
smutek 590
słabo 590
mówiono 590
silną 590
kupuje 590
ponownego 590
nowości 590
tradycja 590
mocą 590
energią 590
dorad@@ 590
nasi@@ 590
pomyślnie 590
najważniejszą 590
przybli@@ 590
zeszłej 590
istotnych 590
wyjaśnił 590
jakością 590
dyrektorem 589
portugal@@ 589
inteligentny 589
smakuje 589
płeć 589
odwrócić 589
żonej 589
gospodarce 589
małymi 589
wynająć 589
rozumiecie 589
własnymi 589
anulowanie 589
regionalnych 589
węd@@ 589
państwami 589
doprowadzi 589
wybi@@ 589
ciężar@@ 589
lizację 589
tos 589
zdenerw@@ 589
stał@@ 588
aha 588
chrześcijańskiej 588
recep@@ 588
świadomi 588
nba 588
szukanie 588
posłuchajcie 588
zabiegi 588
spójrzmy 588
ryba@@ 588
wykoń@@ 588
ó 588
rozej@@ 588
tradycyjnej 588
demonstra@@ 588
lasów 588
zarezerwuj 588
wysył@@ 588
dżungli 587
jason 587
chemicznej 587
kłamiesz 587
rządowe 587
zasko@@ 587
czynna 587
powiedziałbym 587
stawi@@ 587
usłudze 587
identyfikacji 587
project 587
davi@@ 587
oprogramowaniem 587
zabronione 587
chodzenia 587
harmoni@@ 587
szpita@@ 586
rona 586
wne 586
dopa@@ 586
miller 586
stę@@ 586
holmes 586
powiedzcie 586
sey 586
1983 586
lotnictwa 586
siê 586
posiad@@ 586
zagwarantować 586
biegiem 586
non-profit 586
skrzynki 586
wesele 586
sukinsyn 586
znaczące 586
dłem 586
honor 586
madryt 586
zmusić 586
mier@@ 586
warzywa 586
kwalifikacje 586
laj 586
samotności 586
tz@@ 585
opar@@ 585
ńcem 585
drę@@ 585
gardło 585
wygra 585
zysków 585
miesza@@ 585
orów 585
cur@@ 585
pracowali 585
pięćdziesiąt 585
smutne 585
powia@@ 585
cele@@ 585
prawnej 585
opracowany 585
wyj@@ 585
obrona 585
rozwinąć 585
skoncent@@ 585
mym 585
plecami 585
dź@@ 585
wcze 585
kamer 585
spał 584
trakt@@ 584
wrze@@ 584
mit@@ 584
oparta 584
przypuszczam 584
klasyczny 584
agentów 584
efektywność 584
bloga 584
ństwo 584
darmowa 584
bezpieczni 584
obowiązkiem 584
naruszenie 584
gramów 584
naturalnym 584
przejąć 584
email 584
rozkła@@ 584
sea 584
bon 584
morder@@ 583
głosowanie 583
festiwal 583
zastanowić 583
atrak@@ 583
ciliśmy 583
gle 583
stresu 583
belgii 583
organ 583
zesta@@ 583
fel@@ 583
f1 583
zabezpieczyć 583
pozytywny 583
black@@ 583
technicznego 583
jacy 583
wyjątkowym 583
rzuciłem 583
bab@@ 583
baz 583
księgę 583
krakow 583
ać 582
stulecia 582
przyję@@ 582
tenis 582
przywo@@ 582
poni@@ 582
tower 582
isa@@ 582
postępowanie 582
dający 582
minima@@ 582
szcza 582
walk 582
zamówień 582
rozdzielczości 581
obró@@ 581
tin 581
jestes 581
interesują 581
przyda@@ 581
generalnie 581
nianiu 581
1970 581
wchodzę 581
bliskich 581
pomóżcie 581
kilkoma 581
metr 581
arts 581
puszcza@@ 581
romantyczne 581
niewolników 581
powierzchnię 581
wywo@@ 581
zabijesz 581
wnętrze 581
mii 580
przyzwoi@@ 580
grecki 580
wydarzy 580
wieś 580
naci@@ 580
magisterskich 580
spełniać 580
egip@@ 580
bliźnia@@ 580
lotniskowe 580
poczułem 580
bedzie 580
sal 580
czytam 580
wakacji 580
66@@ 580
style 580
osobowość 580
kuchenny 580
karze 580
butelki 579
prowadzony 579
ciasteczka 579
płu@@ 579
przecię@@ 579
fascyn@@ 579
śladu 579
zastanawiałem 579
używanych 579
zachodnich 579
ction 579
depresji 579
green@@ 579
uspokoić 579
ącymi 579
wybrzeżu 579
spędziłem 579
określonej 579
tyz@@ 579
oj 579
prawą 579
kawa@@ 579
agenta 579
pode@@ 579
amen 579
żesz 579
kosztować 578
jechał 578
dup@@ 578
jas@@ 578
dowa@@ 578
mowane 578
kobietom 578
dziliśmy 578
dające 578
ire 578
młodości 578
znika@@ 577
bogaci 577
ścianę 577
ałabym 577
roger 577
gracza 577
ak 577
obejmować 577
ślub@@ 577
chodzenie 577
pięk@@ 577
atmosfera 577
pułkownik 577
zużycia 577
powyższe 577
golf 577
gate 577
ciem@@ 577
mka 577
kty@@ 577
propozycje 577
porusza 577
uruchomienie 577
powtarzać 576
najwyższą 576
tole@@ 576
mana@@ 576
suma 576
filtr 576
network 576
lasz 576
zrealiz@@ 576
francu@@ 576
zje 576
społeczną 576
procesem 576
ówką 576
uczenie 576
właściwego 576
tka@@ 576
jakichś 576
architektura 575
karierze 575
volvo 575
jam 575
zen 575
zimne 575
manife@@ 575
przekonania 575
dzwoń 575
węgier@@ 575
o.@@ 575
yeah 575
utrzymywać 575
zwolniony 575
przeszło 575
otrzymaliśmy 575
wspieranie 575
konkurencja 575
ślubie 575
lidera 574
moto@@ 574
explorer 574
upoważ@@ 574
nadzieją 574
przeżył 574
używam 574
sing 574
najlepszymi 574
alan 574
testowania 574
wymu@@ 574
światów 574
żowe 574
ipad 574
zasadę 574
bem 574
wrę@@ 574
samolotem 574
ciążę 574
patrzą 574
przekła@@ 573
japońskie 573
podpis 573
tal 573
starożytnych 573
joseph 573
odkryj 573
cierpię 573
105 573
integracja 573
rne 573
map 573
sprowadzi@@ 573
choro@@ 573
posiadasz 573
sex@@ 573
niesamowita 573
typowy 573
magister 573
dadzą 573
producentem 573
zjedno@@ 573
aneks 573
złość 573
błędzie 573
helen 573
2-gwiazdkowe 573
przypadkowo 573
następujący 573
zapytania 572
hay@@ 572
wań 572
martwa 572
chcąc 572
uwal@@ 572
lizowane 572
poczta 572
przyjemne 572
podstawowy 572
gary 572
/o 572
stypendium 572
podstawa 572
ewangelii 572
iro@@ 572
kontra@@ 572
umiar@@ 572
boston 572
przyjrzeć 572
lipiec 572
domach 572
impre@@ 572
powiadam 572
szerokie 572
bla 572
otwieraj 571
potrafimy 571
ung 571
ciężkich 571
bit 571
seo 571
piekie@@ 571
nieznany 571
м@@ 571
ogniem 571
puści@@ 571
mani@@ 571
usprawiedli@@ 571
sean 571
rakiety 571
poro@@ 571
samolocie 571
vr 571
nakaz 571
zro@@ 570
igno@@ 570
losu 570
prognozy 570
howard 570
galaxy 570
singapur 570
przeglądu 570
próbowała 570
zadzwo@@ 570
wpła@@ 570
młodą 570
run@@ 570
znajdujemy 570
odwoł@@ 570
śladów 570
vii 570
dłu@@ 570
burza 570
zabiera 570
zawsty@@ 570
wykorzystane 569
przyjmować 569
trzęsienie 569
francuskie 569
przetest@@ 569
weźmy 569
spodzie@@ 569
prefe@@ 569
wyjechał 569
strategiczne 569
sje 569
jądrowej 569
rand@@ 569
ciągłe 569
liwe 569
sprawiedli@@ 569
przeto 569
któryś 569
klini@@ 569
ae@@ 569
złotych 569
visa 569
oznaczają 568
inżynierowie 568
zej@@ 568
zarejestrować 568
mujemy 568
wyczer@@ 568
tuję 568
88@@ 568
antalya 568
szta@@ 568
wykra@@ 568
biletów 568
przebywać 568
grane 568
shar@@ 568
publiczności 568
cesar@@ 568
oglądania 568
protest@@ 568
vs 568
wyści@@ 568
zabity 568
yo 568
katastrofa 568
szkoleń 568
gie 567
promieniowania 567
agen@@ 567
powiązania 567
rezerwację 567
naprawy 567
manager 567
bezpośrednim 567
history@@ 567
ofiarę 567
wid@@ 567
maggie 567
porannych 567
kni@@ 567
unikalne 567
kwadratowych 567
otwartych 567
kowaniu 567
sząc 567
zasa@@ 567
próbuj 567
dry 567
japoń@@ 566
fair 566
czerwonych 566
mel 566
partnerstwo 566
tech@@ 566
najnowszej 566
lecie 566
zostawiłem 566
spełnienia 566
rozprzestrze@@ 566
ast@@ 566
straży 566
proponuje 566
globalna 566
tania 566
płod@@ 566
57@@ 566
tabletki 566
ukrai@@ 566
miesz 566
weźmiemy 566
kredytów 566
róże 566
moge 566
stara@@ 566
brzy@@ 565
szyfrowania 565
stawiam 565
intel 565
korpora@@ 565
podpisał 565
1986 565
pin 565
ksy@@ 565
byc 565
nieznane 565
samotna 565
statusu 565
całych 565
zalecane 565
plasti@@ 565
rodzicom 564
wybrałem 564
zapar@@ 564
przyjdziesz 564
dodatki 564
uaktual@@ 564
pracownikom 564
robiłam 564
policjanci 564
zwracać 564
kradzieży 564
r.@@ 564
fale 564
zdajesz 564
wypły@@ 564
porównanie 563
karen 563
wywołać 563
gow@@ 563
błogosła@@ 563
obozie 563
noga 563
ucha 563
dajemy 563
zdrowa 563
mowę 563
poranek 563
niczej 563
ogłosiła 563
wytwo@@ 563
fon@@ 563
monito@@ 563
religijne 562
prócz 562
konkretnego 562
puszczę 562
staru@@ 562
torbę 562
krzesła 562
satelitarnych 562
paliw 562
łączyć 562
tis 562
gold 562
doświadczyć 562
rzecz@@ 561
okaza@@ 561
uniwersal@@ 561
niowym 561
korzyst@@ 561
firmami 561
zakrę@@ 561
filtry 561
internetem 561
dge 561
nce 561
zwolnić 561
przema@@ 561
definicji 561
dumą 561
zajmij 561
rozstrzyg@@ 561
michaela 561
zamieszka@@ 561
stwierdzono 561
oc@@ 561
superior 561
ingu 561
sekre@@ 560
babciu 560
costa 560
schodach 560
enterprise 560
wybrzeże 560
zniszczone 560
załatwię 560
zrealizować 560
przestaje 560
kwartale 560
zachęca 560
demokra@@ 560
zginęła 560
towali 560
opublikował 560
pamię@@ 560
czarodzie@@ 560
wojną 560
administracja 560
tatu@@ 560
sprób@@ 560
przygotowane 560
przepa@@ 560
kryteria 560
otwierać 560
ywanie 560
dziwna 559
poj@@ 559
perspektywie 559
fabryka 559
wyła@@ 559
publiczne@@ 559
przyszłam 559
20-minutowego 559
kreatyw@@ 559
burmistrz 559
zamienić 559
listą 559
wrażeniem 559
davida 559
dom@@ 559
tajemnic 559
utrud@@ 559
przyznaje 559
zawiera@@ 559
odpowiednia 559
produktem 559
zabawę 558
wiedeń 558
krzyw@@ 558
9:@@ 558
narodzin 558
przyjazne 558
tajemnicę 558
kończyć 558
kolonii 558
wiru@@ 558
3.0 558
odma@@ 558
uśmie@@ 558
przepraszamy 558
zobowiąza@@ 558
łom 558
komunikować 558
księg@@ 558
ścił 558
nisko 558
łymi 558
zaci@@ 558
zainteresow@@ 557
letnich 557
china 557
mars 557
.000 557
tyna 557
linda 557
potrafił 557
zainteresowani 557
porno 557
ann 557
promować 557
67@@ 557
salo@@ 557
najgorszy 557
gł 557
szczęśli@@ 557
cznik 557
pochwalić 557
trafia 557
potrzebowała 557
ultra@@ 557
zapoznać 557
naucz 556
szybsze 556
młodej 556
miny 556
dokładność 556
korzysta@@ 556
wezwał 556
piśmie 556
gel 556
profesjonalny 556
pakiety 556
zabro@@ 556
niczne 556
generała 556
lewa 556
ostatecznym 556
nieograniczony 556
szkła 556
zdarzyć 556
s/@@ 556
oddychaj 556
gła 556
socja@@ 556
netflix 556
rekru@@ 556
dostaliśmy 556
porażki 556
lus 556
systemami 555
dziadka 555
wystąpił 555
terapia 555
znika 555
research 555
adama 555
prasy 555
utrzyma@@ 555
tury@@ 555
kulturowe 555
korzystasz 555
przegry@@ 555
wyświetlić 555
pki 555
wnętrz 555
indeks 555
maszti@@ 555
azja 555
wcześniejszych 555
kula 555
wynale@@ 554
php 554
suje 554
zadowolona 554
podane 554
chen 554
silniki 554
konwersji 554
obiektyw@@ 554
przechowywanie 554
urlop 554
uznane 554
zdrowego 554
instrukcji 554
komisję 554
xml 554
mc 554
pożegnać 554
zatrudnienie 554
ary 554
pojawi@@ 553
dona 553
potencjalne 553
luje 553
grzy@@ 553
związ@@ 553
59@@ 553
styczną 553
społecznościowe 553
tragi@@ 553
laura 553
drewno 553
sią@@ 553
sąsiad@@ 553
kółko 553
kam 553
walu@@ 553
zwłoki 553
miliar@@ 553
szpieg@@ 553
niem@@ 553
przychodów 553
rozmawiam 553
software 553
piszesz 553
ris 553
fs 552
oddziały 552
miliard 552
oszustwa 552
radyka@@ 552
luke 552
niemiecka 552
robiliśmy 552
węgiel 552
dell 552
podziału 552
terrorysty@@ 552
zainwest@@ 552
rasy 552
dli 552
przykładowo 552
zemsty 552
stałych 552
łowi@@ 552
błą@@ 552
ojców 552
głupio 552
miejskich 552
wnu@@ 552
recenzję 551
sowany 551
pilnie 551
twa@@ 551
monta@@ 551
gamę 551
myśleliśmy 551
noc@@ 551
mistrzów 551
inżynieria 551
kompetencji 551
starczy 551
popiera@@ 551
siostrze@@ 551
kluczową 551
słuszne 551
myśląc 551
lokalny 551
cyjnie 551
uznany 551
dowodzi 551
funkcjonowania 551
gów@@ 551
zbudow@@ 551
spotkałam 551
federa@@ 551
stworzyli 551
słońcu 550
niosą 550
77@@ 550
stadion 550
seattle 550
ara 550
skuteczny 550
eko@@ 550
zainteresowanych 550
www 550
żelaza 550
zimy 550
prehĺtanie@@ 550
pańskiego 550
sąsiedzi 550
n.@@ 550
light 549
ments 549
łazienek 549
najważniejszy 549
pau@@ 549
zasnąć 549
ody 549
zaro@@ 549
lis@@ 549
usz@@ 549
sklepach 549
grupo@@ 549
wspomnieć 549
brytyjskiego 549
portugalii 549
harmonogram 549
zapłacił 549
key@@ 549
zaangaż@@ 549
doprowadziło 549
cofnij 549
dzieciaka 549
³ 549
islam 548
biologii 548
wystarczające 548
kupony 548
czegokolwiek 548
znalezienia 548
kształcie 548
godne 548
phil 548
ostro 548
zajmuję 548
tatuaż 548
zaży@@ 548
zielonej 548
powiedzenie 548
lodówki 548
zdarzają 548
nowo@@ 548
zajmować 548
oczyścić 548
ven 548
zdrowotnych 548
wyko@@ 548
krajowego 547
państwie 547
high 547
serwujące 547
zmuszony 547
miłosier@@ 547
zasilanie 547
audi 547
ponie@@ 547
ade@@ 547
geny 547
ukraść 547
pomieszczenia 547
bruksela 547
skończyliśmy 547
komputerowe 547
wydaj@@ 547
pojawiło 547
kłopot 547
dzieciństwie 547
zastanawiać 546
isz 546
paula 546
przygotował 546
urocze 546
polowanie 546
procedur 546
rose@@ 546
kwestią 546
przygotowano 546
mokra@@ 546
ody@@ 546
pocią@@ 546
1.1 546
bolało 546
roboczej 546
przeszła 546
norwe@@ 546
mona 546
wczesnym 546
pomnik 545
pochło@@ 545
dża@@ 545
live@@ 545
750 545
pię 545
jedy@@ 545
kcyjne 545
zją 545
skuteczności 545
słyszeliśmy 545
ilo@@ 545
leń 545
czekola@@ 545
promowanie 545
swe@@ 545
wzroku 545
morderca 544
odpoczynek 544
certyfikaty 544
spira@@ 544
popularność 544
finansowym 544
strzały 544
zgadnij 544
len 544
medal 544
wyrzą@@ 544
odchodzi 544
dowane 544
przyczyna 544
dochodzenie 544
mid@@ 544
stanął 544
integra@@ 544
transformacji 544
chronione 543
yu 543
umoc@@ 543
rejest@@ 543
świadka 543
hamburg 543
maszynę 543
cieszymy 543
ledwie 543
sły@@ 543
wychodzą 543
dzaj 543
shu@@ 543
przodków 543
moskwy 543
zajmiemy 543
phone 543
temacie 543
ałbyś 543
bą@@ 543
inspe@@ 543
lobby 543
sięga 542
normalna 542
przekonanie 542
kong 542
dot 542
odzwierciedla 542
nocne 542
zakon@@ 542
pogodzić 542
nawie@@ 542
konfiguracja 542
silnie 542
bibliotece 542
fore@@ 542
naturze 542
nawi@@ 541
ekonomi@@ 541
powiąza@@ 541
dorosły 541
anuluj 541
głodna 541
oddam 541
cs@@ 541
finanse 541
napisany 541
łego 541
kariera 541
berli@@ 541
arabii 541
kluczowym 541
odwró@@ 541
metalu 541
sprzedał 541
rat 541
odcię@@ 540
ukrywać 540
szkło 540
oliver 540
kowie 540
cana 540
ee@@ 540
obrażenia 540
main 540
kosmos 540
ubóstwa 540
schody 540
wstrzą@@ 540
cer 540
zapra@@ 540
odnoszą 540
obiecałem 540
3/@@ 540
max@@ 540
reputację 540
wygna@@ 540
składają 540
pot@@ 539
ię 539
wdrażania 539
jesienią 539
tai@@ 539
wypoczynkowe 539
ness 539
pekinie 539
nawią@@ 539
4.0 539
upadek 539
winna 539
zalecamy 539
funda@@ 539
comment 539
bałem 539
nko 539
casino 539
odzna@@ 539
roba@@ 539
żonego 539
prawnikiem 539
suka 539
wyświetlania 539
fizjo@@ 539
przypominam 539
śli 539
opisy@@ 539
kupię 539
internetowego 539
glu@@ 538
teksty 538
znaczący 538
granica 538
fazy 538
zbior@@ 538
obiecaj 538
padło 538
ekstra 538
słodka 538
alności 538
wyświetla 538
pije 538
ułatwić 538
zów 538
czwartej 538
sędziego 538
pakowania 538
przeraża@@ 538
policjantów 538
czystości 538
hot 538
pułapka 538
jedności 538
przybyli 538
ktora 538
listopad 538
masa@@ 538
określonym 538
wytrzymać 538
jesień 538
rosnące 538
opuści@@ 538
tia 537
martwych 537
ostateczny 537
gościnnych 537
użyte 537
zelandii 537
załóż 537
wców 537
substancje 537
grób 537
potęż@@ 537
niebezpieczna 537
dowódca 537
dających 537
spodziewałem 537
zbliża@@ 537
dzamy 537
л@@ 537
waluta 537
oferujące 537
szukając 537
uczył 537
wiod@@ 537
papiero@@ 537
odsuń 537
łacińskiej 537
oro 537
człowie@@ 537
sezo@@ 537
í@@ 537
gang@@ 537
szla@@ 537
instala@@ 537
obniżyć 536
posł@@ 536
pusty@@ 536
zamk@@ 536
ojczyzny 536
š@@ 536
utrzymy@@ 536
piszą 536
buduje 536
ico 536
jer@@ 536
kotów 536
licencja 536
drukowania 536
źć 536
rzach 536
graj 536
zrobiło 536
niniejszym 536
rzanie 536
księżycu 536
warstwy 536
glo@@ 536
dochody 536
ida 536
niekiedy 535
300@@ 535
pogadamy 535
opisane 535
law 535
specjalna 535
uchwa@@ 535
dry@@ 535
orienta@@ 535
wierzy@@ 535
synowi 535
lekkie 535
alkoho@@ 535
hob@@ 535
siedziba 535
wyjazdu 535
odniesienia 535
należało 535
priorytetem 534
podwó@@ 534
szybkości 534
technologiczne 534
itunes 534
mija@@ 534
analytics 534
nci 534
fol@@ 534
jeff 534
odtwarzania 534
stycznym 534
ys 534
jesse 534
konserwacji 534
wściekły 534
ubiera@@ 534
ubezpiecze@@ 534
klę@@ 534
krajowej 534
słuchanie 534
dostosow@@ 534
wymagana 534
założy@@ 534
bieda@@ 534
miles 534
ludzkim 533
matematyka 533
komenta@@ 533
kasyno 533
podziwiać 533
poważnego 533
testament 533
wszyst@@ 533
windę 533
32@@ 533
generator 533
zapewniamy 533
komercyjnych 533
mentów 533
1960 533
aut 533
cat 533
taksówkę 533
58@@ 533
dusz 533
prawy 532
najwyższa 532
pól 532
blog@@ 532
strzela@@ 532
sand@@ 532
lincoln 532
bka 532
wolnej 532
rzuci@@ 532
setek 532
tyzm 532
d.@@ 532
samu@@ 532
bior@@ 532
muzułmanów 532
serdecznie 532
serwerze 532
brytyjskie 532
niających 532
wspomnień 532
morzem 532
każę 531
oszustwo 531
swi@@ 531
dol@@ 531
zdrowych 531
rosją 531
ruje 531
nogach 531
towaniu 531
weźmiesz 531
wayne 531
niemców 531
mocniej 531
miejskiej 531
zaśpie@@ 531
sofia 531
tty 531
urządzeniami 531
nawiąza@@ 531
kluczyki 531
wytyczne 531
słabość 531
dobrymi 531
wizerunek 531
tani 530
oferującym 530
porno@@ 530
zakładów 530
podmiotów 530
logowania 530
rzonego 530
16-@@ 530
vana 530
mija 530
licencję 530
skontakt@@ 530
smar@@ 530
deską 530
opracowania 530
widzi@@ 530
jay 530
dziennikarzy 530
fizycznie 529
głę@@ 529
podstawowa 529
porównania 529
nasy@@ 529
pochy@@ 529
żarty 529
uprze@@ 529
napo@@ 529
modlitwę 529
ton@@ 529
recenzja 529
muzeów 529
papierosy 529
rei@@ 529
zmywarkę 529
żyłeś 529
ruszy@@ 529
wimy 528
btc 528
kowałem 528
db@@ 528
wiosną 528
awarii 528
zakończone 528
gorsza 528
rzecznik 528
szeregu 528
starsi 528
waria@@ 528
haw@@ 528
wyzwo@@ 528
odra@@ 528
drzwiach 528
adwokata 528
rzeczami 528
houston 528
ulo@@ 528
realizacja 528
bójcie 528
dzonym 528
zombie 528
dostaniemy 528
neu@@ 528
sercach 528
bzdura 528
dwo@@ 528
pojedynczymi 528
stkę 528
przecie@@ 527
music 527
hono@@ 527
szcze 527
przedstawił 527
śmiać 527
arki 527
smaku 527
ustalenia 527
udał 527
hindu@@ 527
mni@@ 527
delikatnie 527
rewolu@@ 527
ld@@ 527
dle 527
elektronicznej 527
poziomach 527
szyli 527
wiających 527
przedstawione 527
obsług@@ 527
moda 527
wykonaj 527
cukier 527
czystą 527
kcję 527
js@@ 527
zabójstwo 527
spotka@@ 527
anka 527
porząd@@ 527
postępować 526
czyka 526
otrzymałem 526
beze 526
kredy@@ 526
statysty@@ 526
toksy@@ 526
odsu@@ 526
biednych 526
gar 526
tnymi 526
zaproponow@@ 526
przery@@ 526
olbrzy@@ 526
przebie@@ 526
west@@ 526
drużynie 526
bat@@ 526
powiado@@ 526
aka@@ 526
nowoczesnej 526
stoję 526
głych 526
poprosi@@ 526
lewis 526
ray@@ 526
may 526
imponujące 526
debi@@ 526
ron@@ 526
szyły 526
tari@@ 526
studiach 525
politycznym 525
podjął 525
aga@@ 525
opracowanie 525
rozu@@ 525
rozmowie 525
warzyw 525
rozgrze@@ 525
top@@ 525
ujecie 525
pokaza@@ 525
charlotte 525
kowaną 525
prezentuje 525
ogólnej 525
rob@@ 525
bombę 525
floty 525
ward 525
przyszłaś 525
pó@@ 525
uczelnia 525
1200 525
specjali@@ 525
sum@@ 525
wykonaw@@ 524
atmosfery 524
klubów 524
julie 524
szampana 524
wcią@@ 524
weźcie 524
gejem 524
haus 524
brytyjskiej 524
kosmosie 524
zewnętrznym 524
sms 524
kumpel 524
hydro@@ 524
przesłanie 524
współczesny 524
gin 524
zawodu 524
cią 524
żo@@ 524
por 524
węża 524
juan 524
jet 524
kłamcą 524
zuje 523
hiszpa@@ 523
łagod@@ 523
łku 523
ńczyków 523
rzeczywiste 523
cudów 523
uciekła 523
gadaj 523
izrael@@ 523
błogosławieństwo 523
polityków 523
waszyngtonu 523
pilnuj 523
grz@@ 523
wściek@@ 523
gli 523
zespo@@ 523
sowania 523
komórkowych 523
170 523
chodzisz 523
ping@@ 523
oficjalny 523
współczynnik 523
salonu 522
naprawi@@ 522
brzuch 522
słusz@@ 522
zakaz@@ 522
kryzy@@ 522
sor 522
zaprosił 522
danii 522
dalszej 522
cierpieć 522
ulubiona 522
pośpiesz 522
badać 522
wykonywanie 522
porucznik 522
zacie@@ 522
nowoczesnym 522
śpią@@ 522
przesyłania 522
lepszych 522
określonego 522
mega@@ 522
wędro@@ 522
zwykła 522
tli@@ 522
pacje@@ 522
fox 522
prosiłem 522
tło 521
zajm@@ 521
usuwania 521
zma@@ 521
istotny 521
peru 521
wyeliminować 521
ktu 521
biznesowego 521
przyjem@@ 521
cku 521
doradztwo 521
pozytywnie 521
kupo@@ 521
narzeka@@ 521
dowany 521
prawo@@ 521
jerozolimy 521
booking 520
oficer 520
identyfika@@ 520
wojskowej 520
mniejszości 520
bliska 520
praga 520
jaw@@ 520
base@@ 520
idio@@ 520
skonfigurować 520
lat@@ 520
przeciwnika 520
/czy 520
czwartym 520
załóżmy 520
chodzili 520
poszłam 520
możliwie 520
świadomie 520
tar 520
ruchów 519
kompletne 519
jebany 519
zimnej 519
pożegna@@ 519
4/@@ 519
całkowitego 519
krzyża 519
wykwalifikowanych 519
dzielenie 519
wolni 519
bb@@ 519
żając 519
.pl 519
alo@@ 519
j.@@ 519
służbę 519
portalu 519
fem 519
wezwać 519
dokumentacji 519
sumienia 519
rum 519
wczesne 518
angli@@ 518
vision 518
jedźmy 518
żyjących 518
wujku 518
cierpią 518
czystego 518
akcję 518
płytę 518
francuska 518
mt@@ 518
krótko@@ 518
wdzięczna 518
anto@@ 518
carlos 518
projektach 518
deklaracji 518
malar@@ 518
narodzenia 517
zami 517
lord 517
nomina@@ 517
uczę 517
pojechał 517
linę 517
tyków 517
mił@@ 517
donald 517
niemieckim 517
kongresu 517
unikalny 517
przeglądarce 517
poleceń 517
cyfrowego 517
opakowania 517
godności 517
brz@@ 517
dziewi@@ 517
uniemożli@@ 517
płacze 517
kwalifikacji 517
wierzył 517
import 516
bohaterowie 516
inwestować 516
autonomi@@ 516
pożar@@ 516
zakry@@ 516
ośmie@@ 516
mienie 516
przekazał 516
komórka 516
slu@@ 516
wny 516
mowym 516
braćmi 516
radia 516
zapłacę 516
delektować 516
nadzor@@ 516
wychodzimy 516
powtórz 516
у@@ 516
grafii 516
przyjęciu 515
tła 515
uspraw@@ 515
praktycznych 515
zapomni@@ 515
piotr 515
świętej 515
państwowych 515
zakończyła 515
kir@@ 515
nauczysz 515
rowano 515
sus 515
różnego 515
błędne 515
złożony 515
czynnik 515
ekonomia 515
roberta 515
zabójstwa 515
wybuch@@ 515
wysiłek 515
czykiem 515
aa 515
wierny 515
komórkowy 514
wari@@ 514
założony 514
dotarł 514
spotykać 514
under@@ 514
д@@ 514
wracajcie 514
bakterii 514
prośba 514
wymagających 514
pomożemy 514
kompletny 514
podanie 514
wziąłeś 514
naduży@@ 514
wyświetlanie 514
węgl@@ 514
filmach 514
chęcią 514
wdrożenia 514
klasy@@ 514
policjant 514
wywołuje 514
kwestiach 514
skały 513
bieg 513
surowców 513
komponentów 513
limi@@ 513
prawników 513
dziewią@@ 513
zobaczą 513
przywie@@ 513
odło@@ 513
rzałem 513
potwo@@ 513
mecze 513
przedsiębiorcy 513
szczęśliwie 513
land@@ 513
ktorów 513
dzicie 513
haseł 513
ałyby 513
koszmar@@ 513
społecznym 513
church 513
każ 513
zachowaj 513
reguł 513
poczę@@ 512
widzów 512
prezesa 512
państwach 512
larry 512
dora 512
dostawcą 512
dotycząca 512
crea@@ 512
skło@@ 512
klinicznych 512
eve@@ 512
wpływać 512
polityczną 512
ewaku@@ 512
rzeczywistością 512
roztacza 512
myślała 512
kopalni 512
off 512
69@@ 512
miałaby 512
przebi@@ 512
szeni 511
nasto@@ 511
zdu@@ 511
terminie 511
przykry@@ 511
specjaliz@@ 511
sprzedawane 511
odświe@@ 511
odciski 511
pere@@ 511
kawiarnia 511
wyobra@@ 511
fala 511
postanowienia 511
wytwór@@ 511
dyscypliny 511
ochoty 511
102 511
7:@@ 511
traktatu 511
arka 511
zakwaterowuje 511
panelu 511
szac@@ 510
biznesowym 510
przygody 510
myś@@ 510
czerwonym 510
klatki 510
sper@@ 510
redu@@ 510
warunek 510
ciężkiej 510
sion 510
basenu 510
trójka 510
y-@@ 510
ucho 510
tropi@@ 510
zwierzętami 510
mniejszych 510
rozwiąza@@ 510
zniszczenie 510
daniu 510
/jeśli 510
wykres 510
minera@@ 509
wdrożenie 509
silników 509
jordan 509
wyjaśnię 509
odwróć 509
snem 509
regi@@ 509
core 509
monitor 509
kolorze 509
pożyczki 509
politycy 509
prawnika 509
dii 509
złamać 509
torami 509
finlandii 509
tył 509
pienia 509
muje 509
tch 509
india@@ 509
digital 509
pera@@ 509
stanę 509
porażka 508
lismy 508
odpły@@ 508
świąte@@ 508
putin 508
wąż 508
fred 508
playa 508
należał 508
słonecznym 508
smutny 508
wymyślić 508
widoczny 508
ostrzeżenia 508
sami@@ 508
ustawę 508
xp 508
prorok 508
odwro@@ 508
chłop@@ 508
prowa@@ 508
wczesnych 508
agentem 508
przedsiębiorczości 508
odpowiedzialna 508
łap 507
chri@@ 507
alfa 507
szanghaju 507
młodszy 507
taśmy 507
gnu 507
czające 507
fajna 507
1978 507
pach@@ 507
niewido@@ 507
pierścień 507
zajął 507
syn@@ 507
szczę 507
obciążenia 507
ostrzec 507
osiąga 507
badaczy 507
językowe 507
równo@@ 507
obawiać 507
otrzymają 507
bad 507
przeniesienie 507
ująco 507
chaos 507
sankcje 507
ogłoszenie 507
dziadku 507
bezpłatnego 506
pozostały 506
konsumenci 506
zanieczyszczeń 506
wypad@@ 506
patio 506
naprzeciwko 506
negocj@@ 506
wymia@@ 506
lij@@ 506
ic@@ 506
podejrzanych 506
rekor@@ 506
1.6 506
szczególny 506
jeb@@ 506
ewange@@ 506
cesarza 506
1976 506
hof 506
xa@@ 506
umieszcza@@ 506
pilota 506
bliskie 506
zakładam 506
try 506
foundation 506
rozmiary 506
anglia 505
mieszane 505
świadek 505
słońcem 505
ministra 505
wacie 505
pokoje/ 505
zwiedzanie 505
skrócie 505
doga@@ 505
rozwiniętych 505
sporów 505
starać 505
wolną 505
naczyń 505
analiz@@ 505
1971 505
neapol 505
konkretnie 505
ńscy 505
istotną 505
,000 505
nurkowanie 505
międzynarodowymi 505
zabie@@ 504
pieprzy@@ 504
narkoty@@ 504
shan@@ 504
potrakt@@ 504
koleji@@ 504
1982 504
pac@@ 504
nerw@@ 504
fragmenty 504
jni 504
pranie 504
powerpoint 504
niezawodność 504
wdzięczni 504
mount 504
powiecie 504
niżej 504
przywiąza@@ 504
rzuciła 504
istniał 504
wymiar 504
zainstalowany 504
przestępstw 504
straż 504
wysyłka 504
ciężarówki 504
raportów 504
fałszywych 504
popar@@ 504
dziłaś 504
podgląd 504
zakaza@@ 504
połącz 504
niebie@@ 503
tin@@ 503
arte@@ 503
wyświet@@ 503
rozmawiałam 503
chinami 503
przesz@@ 503
wej@@ 503
moduły 503
żywego 503
stopnie 503
utratę 503
sprawami 503
przeciągu 503
techniczny 503
zmianami 503
wód 503
realizację 503
zabezpieczenie 503
abrahama 503
przeglądania 502
ller 502
turnieju 502
przychodzić 502
leć 502
porusza@@ 502
planujesz 502
poboż@@ 502
czytelników 502
odwiedzin 502
brytyjskich 502
kontynuuj 502
many 502
środowisk 502
wysyłanie 502
tum 502
niezależny 502
bezpośredniego 502
wyrażenie 502
spyta@@ 502
step@@ 502
amerykańską 502
ucieczka 502
portfela 502
sponso@@ 502
instytucja 502
czyn 502
ratun@@ 502
cht 502
gniewu 501
¿e 501
ian 501
głos@@ 501
zajmujesz 501
wchodzimy 501
trybu 501
ówek 501
twórców 501
wyposa@@ 501
lik 501
wystarcza 501
scha@@ 501
gotowania 501
krzywdy 501
posłał 501
sier@@ 501
arbitra@@ 501
podejmuje 501
rzuca 501
elegan@@ 501
kompozy@@ 501
szli 501
organizmie 501
odwrót 501
kochałem 501
kanałami 501
kościoły 501
magazynie 501
sukinsynu 500
cimy 500
dotykać 500
aluminium 500
aresztować 500
programach 500
organizacjami 500
wna 500
ent@@ 500
zabawek 500
dziwka 500
wysł@@ 500
służył 500
bohater@@ 500
zajmow@@ 500
malezji 500
certyfikacji 500
udostępnianie 500
intelektu@@ 500
właściciele 500
wykorzystywania 500
ies 500
produkcyjne 500
ojczy@@ 500
booking.com 499
1969 499
note@@ 499
belgi@@ 499
podejrzany 499
przeszkadzać 499
suszarki 499
użył 499
charytatyw@@ 499
anem 499
odci@@ 499
nastrój 499
kandyda@@ 499
znanego 499
łączności 499
sra@@ 499
123 499
mera 499
narodowych 499
zainstalowane 499
szkocji 499
komputerach 499
dokończyć 499
zbawienie 499
kł 499
chuja 499
ef@@ 499
autorów 499
trasę 499
spór 498
prawami 498
reakcje 498
zapytam 498
złożył 498
cechą 498
fizycznego 498
waż 498
bra 498
indonezji 498
terrorystów 498
zakończy 498
zaprosi@@ 498
listy@@ 498
krótka 498
papierosów 498
efe@@ 498
nag@@ 498
cięż@@ 498
zasi@@ 498
strat 498
zujemy 498
zarzuty 498
jen@@ 498
sprzedawcy 498
manu@@ 498
odziedzi@@ 498
gliną 498
powtarza@@ 498
dent 498
chodziła 498
wspólnym 498
anioła 498
saunę 498
zrezygnow@@ 498
deli@@ 498
sankt 498
2.1 498
fałszy@@ 497
konfigu@@ 497
stracili 497
wróciły 497
zależało 497
liły 497
akcep@@ 497
temperaturę 497
oświetlenia 497
ned 497
owań 497
odbiło 497
generalnego 497
logów 497
lite@@ 497
skrytkę 497
minimalna 497
posy@@ 497
propozycji 497
patrick 497
przeprosiny 497
sypialniami 497
zabrała 497
silnym 497
oferowanych 497
roczne 497
bc 497
fanem 497
długim 497
aparatu 497
murzy@@ 497
—@@ 497
zamordow@@ 496
morskiego 496
obserwuj 496
interwencji 496
dal 496
piętnaście 496
czytałam 496
dawida 496
ślepy 496
wyłączone 496
lizowana 496
zakazane 496
e. 496
sygnałów 496
recepcję 496
następną 496
autor@@ 495
powróci 495
ustęp@@ 495
21@@ 495
singapurze 495
centów 495
pachnie 495
cieniu 495
podporząd@@ 495
oddział@@ 495
pościel 495
river 495
ekspertem 495
umieszcz@@ 495
sześci@@ 495
edi@@ 495
chińskim 495
rządem 495
zapasy 495
rosnąć 495
znajdować 495
napię@@ 495
social 495
zbrojnych 495
gala@@ 494
błyskawi@@ 494
hiszpańskiego 494
prowadzi@@ 494
szący 494
propozycja 494
czykami 494
wywoł@@ 494
lion 494
zagro@@ 494
wrogowie 494
przystęp@@ 494
ruch@@ 494
przykładu 494
zje@@ 494
podłogę 494
przeważnie 494
rap@@ 494
bell 494
wyraża 494
opowiadać 494
znalazłaś 494
fani 494
sera 494
słynny 494
włoskiej 494
podziel 494
zebrań 494
mych 494
chciałaby 494
zagrożone 494
wykazało 494
cienia 494
wyczerp@@ 493
waży 493
nijmy 493
eksploatacji 493
jadł 493
zabicie 493
nocny 493
pieprz@@ 493
cierpi@@ 493
usługami 493
wzro@@ 493
wiłeś 493
świat@@ 493
sytuacje 493
funkcją 493
poszczególne 493
głosi 493
uruchomienia 493
josh 493
zamknię@@ 493
wytwarzania 493
zaszczy@@ 493
powiązanych 493
autobusowy 493
cher@@ 492
nastola@@ 492
porównać 492
sprowadzić 492
energetycznej 492
gani@@ 492
chłopaków 492
poznasz 492
kosmicznych 492
ups 492
rzają 492
współczesne 492
porozmawiaj 492
madrycie 492
wybieram 492
specjalną 492
unik@@ 492
przeczucie 492
spotykają 492
japońska 492
małżeństwem 492
czycie 492
uważajcie 492
ulubionym 492
postaram 492
1981 492
rysunek 492
więzi 492
umierać 492
dóbr 492
mru@@ 492
łę 492
food 492
łapy 492
środkami 492
mou@@ 492
nty 492
szklan@@ 491
papierosa 491
głow@@ 491
zsrr 491
artyści 491
cjon@@ 491
apk 491
posi@@ 491
iną 491
znajomy 491
popytu 491
księżyc@@ 491
dziewczynką 491
indian 491
14-@@ 491
współczucie 491
arz 491
skompli@@ 491
urodziłem 491
milczenie 491
funkcjonalności 491
przyspieszyć 491
migracji 491
prezyden@@ 491
kolej@@ 491
ñ@@ 491
przerwać 491
księżniczki 491
sli@@ 491
stałeś 490
popy@@ 490
dodawać 490
sobota 490
koncep@@ 490
nudne 490
szybszy 490
sse 490
muzułmanie 490
13-@@ 490
przeznaczenia 490
lowej 490
zem@@ 490
dwunastu 490
młod@@ 490
towarzystwie 490
szwedz@@ 490
king-size 490
pójdą 490
mikołaja 490
5. 490
przyjemny 490
walne 490
wzmocnić 490
oczekują 490
bookingsuite 489
brytyjska 489
hongkong 489
zeszłego 489
ssl 489
68@@ 489
dowodem 489
kowało 489
naciska@@ 489
szt 489
chuck 489
zachodnim 489
bakterie 489
manem 489
zobaczy@@ 489
lec 489
rzeniem 489
przeno@@ 489
wynagrodzenia 489
kompetencje 489
caj 489
modułów 489
celow@@ 489
nawigacji 489
pij 489
publiczną 489
zmienione 489
odpoczy@@ 489
pomieszczeniu 489
pera 488
dupkiem 488
niebiosa 488
uchwy@@ 488
otoczony 488
procedura 488
wyższym 488
118@@ 488
wypra@@ 488
bet@@ 488
prę@@ 488
player 488
realizować 488
tracą 488
czekała 488
całkowity 488
podobają 488
referen@@ 488
wywa@@ 488
1974 488
systemowe 488
kowały 488
wpłynąć 488
przysłał 488
wierzycie 488
prokura@@ 488
rezerwy 488
ˇ@@ 488
redukcji 488
128 488
specjalnej 487
lia@@ 487
gwiazdki 487
luksu@@ 487
patent@@ 487
wdra@@ 487
santiago 487
tradycyjną 487
mania 487
grafiki 487
mikrofalowa 487
klasyczne 487
załatwione 487
amazo@@ 487
depozytową 487
stawiać 487
kamienia 487
piosen@@ 487
kąpiel 487
zegar@@ 487
pierdolę 487
40-@@ 487
najtrud@@ 487
villa@@ 487
cenach 487
nastąpił 487
asa@@ 487
2030 487
wodne 486
dwudzie@@ 486
nienawidzą 486
stwu 486
jabłko 486
rozwie@@ 486
inteligencja 486
mikołaj 486
obrzydli@@ 486
poproś 486
trzeź@@ 486
kają 486
elektroniczne 486
i. 486
podobnym 486
poinformować 486
rosa 486
duchow@@ 486
procesor 486
gospodar@@ 486
nade 486
zakładu 486
skoja@@ 486
tereny 486
skrom@@ 486
kończą 486
zapalenie 485
wesołych 485
połączeniem 485
działamy 485
nawiga@@ 485
trenera 485
wspomniał 485
rzeć 485
water 485
opór 485
niający 485
uratow@@ 485
pozwolenia 485
każą 485
mądra 485
cholerne 485
irlandia 485
dodatków 485
obrót 485
przeła@@ 485
gil@@ 485
puchar 484
pilnować 484
wiedź@@ 484
dziura 484
kuponu 484
wypowia@@ 484
spróbujmy 484
pielgrzy@@ 484
panie@@ 484
zrozumiałam 484
bawi@@ 484
115@@ 484
dt 484
ogrody 484
dieta 484
wynagrodzenie 484
mieszkań 484
sowanie 484
gr@@ 484
resz@@ 484
aktywa 484
adwokat 484
jenie 484
wanny 484
koran 483
dziki 483
dowiem 483
naruszenia 483
hostal 483
produktami 483
prost@@ 483
kreatywność 483
stronami 483
prioryte@@ 483
mentach 483
przetłuma@@ 483
skur@@ 483
przyjechała 483
mą@@ 483
rt@@ 483
przesłuchanie 483
spostrze@@ 483
małpy 483
pakietów 483
podają 483
niewier@@ 483
menty 483
ekonomiczny 483
mp3 483
ix 483
strasse 483
pierścionek 483
zgadzasz 483
uspoko@@ 483
nicza 483
móz@@ 483
postąpi@@ 483
radzie 483
hank 483
odpowiedziała 483
białej 482
snów 482
wście@@ 482
ciekawych 482
wynikające 482
junior 482
maty 482
zagraniczne 482
stwami 482
niezwykły 482
oznaczone 482
czerwonej 482
podano 482
zapytała 482
wejściu 482
gotówki 482
odłą@@ 482
roboczych 482
pysz@@ 482
puszcz@@ 482
narodowa 482
wilson 482
pola@@ 482
latar@@ 482
szyf@@ 482
przycisku 482
ślu@@ 482
traktowane 481
anu 481
yan@@ 481
odmówił 481
ntem 481
kde 481
domi@@ 481
szcie 481
spędzać 481
wiersze 481
najem@@ 481
tchó@@ 481
zalet 481
wspaniałego 481
włożyć 481
fc 481
kosztem 481
krajowy 481
anio@@ 481
hotmail.com 481
wydała 481
ład@@ 481
odbierz 481
sprawdzenie 481
doprowadziły 480
niepodległość 480
napój 480
otto 480
wspomina 480
królów 480
zywać 480
identyfi@@ 480
szó@@ 480
miejskie 480
zwycięzca 480
przewie@@ 480
śmiesz 480
poprzedniej 480
przesł@@ 480
prezentacja 480
słowach 480
wysy@@ 480
terytori@@ 480
bloku 480
identyfikator 480
prawnego 480
wyobrażam 480
dotyczący 480
skończysz 480
uczu@@ 479
spieprzy@@ 479
wentyla@@ 479
zabrakło 479
loną 479
padła 479
gię@@ 479
francis 479
skończyłam 479
reprezenta@@ 479
wce 479
przesłać 479
zrze@@ 479
1973 479
tunel 479
szczególnym 479
uję@@ 479
zautomatyz@@ 479
ethereum 479
małże@@ 479
sejfu 478
104 478
wpisać 478
tto 478
ang@@ 478
egzaminu 478
przenoś@@ 478
gwałtownie 478
kultur 478
liłam 478
lampy 478
gon@@ 478
wróci@@ 478
stanem 478
przeczytałem 478
kapsu@@ 478
fotografia 478
dzisiejszej 478
nikowi 478
przebywa 478
zniknąć 478
wene@@ 478
stworzy@@ 478
dźwi@@ 478
wirtualnych 478
narodowym 478
zazdrosny 478
bezpiecznym 478
spadku 478
trybunał 478
fałszywy 478
krewnych 478
wybrała 478
federalnego 478
strategicznych 478
neil 478
najpotęż@@ 478
king@@ 477
legi@@ 477
garnitur 477
puścił 477
cichy 477
dotyczącą 477
autorskich 477
nin@@ 477
skarb@@ 477
upły@@ 477
wykorzystywany 477
restaurację 477
1968 477
proroków 477
pytałem 477
dziedzin 477
sprawiedliwy 477
żeś 477
biurku 477
globalizacji 477
urodzony 477
ponosi 477
uchy@@ 477
czkach 477
plecach 477
wypuść 477
reżyser 477
wspina@@ 477
cti@@ 477
zabitych 477
fotograf@@ 477
nowotwo@@ 476
wydane 476
audy@@ 476
szam 476
kupiłam 476
stabilne 476
pekin 476
nierówności 476
długiej 476
wielko@@ 476
brzeg 476
zapłaci 476
dostosowane 476
pogry@@ 476
pobli@@ 476
przedsiębior@@ 476
niewielką 476
państwowe 476
zapis 476
aktorka 476
menem 476
narciar@@ 476
pozostaną 476
drogach 476
240 476
produkować 476
obróbki 476
weryfi@@ 476
maski 476
przeszkody 476
żywio@@ 476
4k 476
otoczenie 476
sukienkę 476
melod@@ 475
ogromnej 475
oskarżenia 475
nazwany 475
kilo@@ 475
pogrzeb@@ 475
przeprowadzenia 475
wspierania 475
kulturowych 475
zgodzić 475
szczęśliwym 475
golden 475
biurokra@@ 475
odpuść 475
9/@@ 475
pochodz@@ 475
operatora 475
piekar@@ 475
opowiadał 475
średnią 475
zano@@ 475
australij@@ 475
pasują 475
śpiewa 475
sna 475
п@@ 475
peri@@ 474
zaoferowania 474
games 474
ey 474
uwielbiają 474
wykrywania 474
listu 474
przedstawienia 474
vie 474
czele 474
oficjalnej 474
ws 474
nęłaś 474
jednoraz@@ 474
łączenia 474
przeanaliz@@ 474
tajemnicą 474
hal 474
malow@@ 474
spokojne 474
bolesne 474
rachunkowości 474
bagaż 474
przekąski 474
dziurę 474
4. 474
ostateczne 474
informuje 474
loja@@ 474
wpływy 474
ganiu 474
oku@@ 474
szer@@ 474
ash@@ 473
serwują 473
możliwością 473
diagno@@ 473
ore@@ 473
uwzględ@@ 473
pokoch@@ 473
sądem 473
konstytu@@ 473
skow@@ 473
niszczy 473
prowadź 473
różowy 473
abraham 473
trzyosobowy 473
lizacją 473
flaga 473
komunikację 473
cambridge 473
laski 473
pracując 473
gom 473
końc@@ 473
wielbi@@ 473
uprawiać 472
opiera@@ 472
pielęgniarka 472
mal 472
słod@@ 472
potrawy 472
promieniu 472
court 472
chroni@@ 472
poszukiwa@@ 472
umożliwiając 472
starał 472
dzące 472
względów 472
15-minutowego 472
czytał 472
belgia 472
szep@@ 472
niny 472
senator 472
ligi 472
wozu 472
spalić 472
ukierun@@ 472
kulinar@@ 471
zawody 471
dziennikarz 471
pisarzy 471
spowodowało 471
wykonywane 471
fabryce 471
krea@@ 471
kąpie@@ 471
wzrostem 471
health 471
ard 471
targ@@ 471
uderzenie 471
muzułma@@ 471
ee 471
mom 471
prawny 471
maryja 471
jskich 471
gabinetu 471
chle@@ 471
dol 471
gory@@ 471
wysłałem 470
mai 470
prezentów 470
ochronić 470
jamy 470
bea@@ 470
pasażerowie 470
argumentów 470
domyślnie 470
ogniu 470
tybetań@@ 470
lowego 470
uderzyć 470
nędz@@ 470
tajemniczy 470
wystarczyło 470
pięknego 470
bienie 470
pamią@@ 470
pomysłem 470
spotkali 470
cesarz 470
chodzących 470
tragedia 470
autorem 470
kolekcję 470
świętować 470
wprowadzono 470
portów 470
najnowszy 470
kuchnią 470
apartamentos 470
dostarczać 470
tabli@@ 470
stłu@@ 470
wyglądu 470
grałem 470
zdję@@ 470
równi 469
wojskowy 469
pańską 469
wytrzymałość 469
č@@ 469
piotra 469
ukryty 469
robienie 469
auten@@ 469
wypoczynkową 469
kolegium 469
kolorowe 469
wypłaty 469
chłopie 469
matthew 469
skorzystaj 469
tysiąca 469
sile 469
chwałę 469
jaskini 469
wymogów 469
wenezueli 469
podkreślić 469
straciłam 469
umieram 469
zbytnio 469
pokon@@ 469
rytu@@ 469
zawierające 469
przywią@@ 469
spla@@ 468
wiernych 468
zrozumiano 468
wróciliśmy 468
zjedz 468
niała 468
uczymy 468
krowy 468
tnika 468
taj 468
gających 468
piętrowym 468
wskazy@@ 468
taksówki 468
zbiera 468
niedźwiedź 468
stwarza 468
z/na 468
lasy 468
nazwisk 468
osiągnęła 468
arena 468
przyci@@ 468
toczy 468
kłamstw 468
konsumpcji 468
nosimy 468
wieczora 467
niewinnych 467
rządzić 467
spokojna 467
sol@@ 467
pojemności 467
orygina@@ 467
warszawie 467
weryfikacji 467
wiedz 467
zabieram 467
cus 467
sukienka 467
przychody 467
samotność 467
saudyjskiej 467
lada 467
forsy 467
straszna 467
zwy@@ 467
а 467
von 466
sztuce 466
spry@@ 466
stoimy 466
wyż@@ 466
jazdę 466
grą 466
wychodzisz 466
oddziału 466
zarezerwować 466
sł 466
ral@@ 466
średniowie@@ 466
ponad@@ 466
pomieścić 466
historycznym 466
wiosce 466
otrzymali 466
zielonego 466
tali@@ 466
bankowe 466
kos@@ 466
und 466
przypomina@@ 466
firmach 466
nota@@ 466
diamenty 466
narządów 466
presji 466
zniechę@@ 466
stymi 465
pomówić 465
jadalni 465
stry@@ 465
postaraj 465
niezawodne 465
wiosen@@ 465
nada 465
ltd 465
zamy@@ 465
dołu 465
ponow@@ 465
wykazać 465
powstają 465
now 465
115 465
dodanie 465
przyjęła 465
rowerów 465
prawdziwi 465
ania 465
środowiskowych 465
szafkę 465
stanowisku 465
funkcjonuje 465
przodkowie 465
początkiem 465
całodobowa 465
siedzibę 465
żonym 465
fantastyczne 464
powietrznych 464
ol 464
nadchodzących 464
biegnie 464
fru@@ 464
mos 464
doświadczonych 464
wersją 464
ukończenia 464
oddał 464
ził 464
barbara 464
lowania 464
but@@ 464
brudne 464
pociągi 464
m… 464
fry@@ 464
ore 464
zaproponował 464
dotyka 463
rolnictwo 463
zostaniemy 463
stra 463
oko@@ 463
miony 463
odwiedzenia 463
sojusz@@ 463
osi 463
wstydu 463
ucznia 463
przyro@@ 463
dziewczyno 463
pożegnanie 463
naukowiec 463
sądzić 463
węż@@ 463
szaleństwa 463
jaj@@ 463
5/@@ 463
ball 463
otworzy 463
zaglą@@ 463
bren@@ 463
współczucia 463
biegu@@ 463
wyraźne 463
water@@ 463
ture@@ 463
autorstwa 463
złej 463
wydawał 463
ciły 463
krety@@ 463
niniejsza 462
prokurator 462
ulega 462
rię 462
bou@@ 462
włączone 462
teatra@@ 462
skuteczna 462
przekonani 462
robiąc 462
jedli 462
źród@@ 462
association 462
wybierają 462
operator 462
sprzedawca 462
wskaz@@ 462
oświadczeniu 462
alnymi 462
sel 462
h-@@ 462
kres 462
kilkanaście 462
potra@@ 462
syj@@ 462
kontrol@@ 462
przygotowani 462
utworzone 462
zadzwoni 462
wraca@@ 461
kosmosu 461
mieliście 461
nictwie 461
przestępców 461
stolica 461
przekazy@@ 461
jednoosobowy 461
promocja 461
przestała 461
rozpra@@ 461
odkryłem 461
zatrudnia 461
disney 461
trwał 461
sławy 461
nigerii 461
zasługują 461
systems 461
powraca 461
dzący 461
pawła 461
zwróć 461
generacja 461
przejm@@ 461
idee 461
iła 461
straciłeś 461
dostarczenie 461
hodow@@ 461
dostają 461
ryzykować 461
tary@@ 461
ogromnym 461
minęły 461
gieł@@ 460
bezwzglę@@ 460
stań 460
reakcję 460
tracić 460
ls@@ 460
wzmocnienie 460
jeste@@ 460
zróbcie 460
carrie 460
światy 460
studenta 460
przetrwanie 460
zagraj 460
butelka 460
kraj@@ 460
napotka@@ 460
dowolny 460
dostarczane 460
wysko@@ 460
198@@ 460
wyjątkowego 460
korona 460
przyczynić 460
regionalne 459
teorie 459
miewa 459
miałoby 459
akademia 459
wyszko@@ 459
studen@@ 459
terminu 459
wstrę@@ 459
bukkake80@@ 459
aaron 459
silniejszy 459
wtyczki 459
berlina 459
nastolatków 459
odzyskiwania 459
typem 459
jackie 459
wojennych 459
spły@@ 459
laska 459
cieplarnianych 459
mocny 459
ac 459
ruty@@ 459
550 459
instrukcja 459
czekolady 459
zbudował 459
przyjaciółki 459
proroka 459
pierdolony 459
kompute@@ 458
tyzmu 458
znaczną 458
wejściem 458
out@@ 458
mordercą 458
odzieży 458
dwiema 458
dyskryminacji 458
mówcie 458
ściem 458
ludność 458
owe@@ 458
dajmy 458
finansową 458
parą 458
przebra@@ 458
wrażli@@ 458
kwadra@@ 458
obło@@ 458
ane@@ 458
zapobieganie 458
ogłoszenia 458
turystycznej 458
efekcie 458
rolników 458
zamknięcie 457
przeniósł 457
małem 457
puszcza 457
rzym@@ 457
rozrywka 457
wszelki 457
nomi@@ 457
ponoć 457
atlanty@@ 457
idy 457
normalnego 457
holender@@ 457
tro 457
schow@@ 457
skórze 457
regul@@ 457
zezna@@ 457
odwiedził 457
niskich 457
chciało 457
coną 457
zapytanie 457
indywidualnie 457
wynajęcia 457
opu@@ 457
muz@@ 457
korzenie 457
gun@@ 457
tytoniu 457
gwał@@ 457
sele@@ 457
odbyło 457
towaru 457
jest@@ 457
rozer@@ 457
papieża 457
mic@@ 457
udu@@ 457
terminal 457
clark 456
kopi@@ 456
zintegrowane 456
wydarzeniach 456
policy 456
metali 456
francuskich 456
116@@ 456
źnie 456
parker 456
rabi@@ 456
słyszymy 456
pochodzących 456
realne 456
pł@@ 456
pokaz@@ 456
niosę 456
teoretycznie 456
niemowląt 456
trzym@@ 456
krew@@ 456
stworzona 456
oglądaj 456
przyjaź@@ 456
uzyskał 456
niepowtarz@@ 456
promowania 456
brzyd@@ 456
półtora 456
świeci 456
pomogło 456
geografi@@ 456
pania 456
techniczna 456
mówienie 456
jaz@@ 456
zmusi@@ 456
irlandz@@ 456
anioły 455
islamu 455
chrystusie 455
działaniach 455
środkiem 455
głupiego 455
postaw 455
cd@@ 455
wymagany 455
kazałem 455
usługach 455
agresyw@@ 455
apart@@ 455
wspom@@ 455
laty 455
płacę 455
lls 455
napis 455
przechow@@ 455
vale@@ 455
doświadczeniu 455
rozwijają 455
prostytu@@ 455
pierre 455
rer 455
zatoki 455
szczeblu 454
brama 454
religi@@ 454
polskie 454
cieszą 454
trzymają 454
tację 454
w-@@ 454
przyszliśmy 454
bibli@@ 454
szerokiej 454
jed@@ 454
wyroby 454
oszalałeś 454
obowiązkowe 454
aspekt 454
ukra@@ 454
legalne 454
mowie 454
wgląd 454
dodatkowego 454
harmonii 454
lekarstwa 454
asystent 454
bird 454
lg 454
immuno@@ 454
tale@@ 454
robocze 454
ib@@ 454
prognoza 454
sakra@@ 454
przekaż 454
gorący 454
ag 454
rozwiązywanie 454
przycią@@ 454
skoń@@ 454
kola@@ 454
ginie 454
'emu 454
shaw 454
barcelony 454
kampusu 454
wnio@@ 454
cooper 454
marsz 453
przyjęte 453
sędziów 453
najbliższym 453
arabskich 453
rowie 453
sprzeczności 453
piła 453
spro@@ 453
opieką 453
victor 453
asyste@@ 453
faraona 453
mnie@@ 453
karto@@ 453
ufasz 453
słyszycie 453
wojennej 453
agre@@ 453
niezbędna 453
liliśmy 453
urzędnicy 453
ryzykow@@ 453
przeszkód 453
kaz@@ 453
błę@@ 453
leonard 453
franka 453
rzeczywistych 453
dzoną 452
pru@@ 452
wów 452
pralnię 452
komu@@ 452
biu@@ 452
zeznania 452
komplek@@ 452
kun@@ 452
znajomego 452
michał 452
owaliście 452
1975 452
legenda 452
rozło@@ 452
nują 452
zaoszczę@@ 452
zdarzenie 452
starze@@ 452
infrastrukturę 452
'm 452
zestawem 452
polar@@ 452
zamknął 452
wróciło 452
tnik 452
szkołą 452
rachun@@ 452
zagad@@ 452
wprowadzać 452
zdobycie 452
zdecydowałem 452
głu@@ 452
rozmawiasz 452
tność 452
istota 452
głębiej 452
grafia 452
aktor@@ 452
programi@@ 452
przybywa 452
urok 452
odwoła@@ 452
wykonał 452
udoskona@@ 451
przybycie 451
sery@@ 451
zastąpi 451
postanowień 451
fur@@ 451
lodge 451
sją 451
mus 451
sprzyja@@ 451
sądziłam 451
wprowadzania 451
odważny 451
000@@ 451
zdają 451
pew@@ 451
ear@@ 451
inc. 451
mieszać 451
//@@ 451
powi@@ 451
sec 451
ostre 450
państwowej 450
słuchają 450
ware 450
isto@@ 450
mod@@ 450
środowisk@@ 450
rynkiem 450
konferencję 450
cle 450
próż@@ 450
lowym 450
vic@@ 450
niejszymi 450
delhi 450
ekipa 450
kredyty 450
mować 450
wietnamie 450
cou@@ 450
gwarant@@ 450
kąpieli 450
wybudowano 450
pojem@@ 450
stałym 450
kyle 450
ogólnych 450
wyka@@ 450
będących 450
znaną 450
dowiedzą 450
alicja 450
nowość 449
pudełka 449
słuchania 449
siad@@ 449
obywatel@@ 449
domowego 449
lecz@@ 449
dba@@ 449
łyście 449
nume@@ 449
biec 449
humor 449
â@@ 449
mieni@@ 449
promo@@ 449
oszac@@ 449
trafiła 449
niewielkiej 449
zadowo@@ 449
wypu@@ 449
włóż 449
depozytu 449
szczone 449
bam@@ 449
bądźmy 449
korzy@@ 449
włó@@ 449
zacze@@ 449
krajobraz 449
edge 449
dodane 449
zrozum 449
112 449
partnerstwa 449
piosenek 449
świnie 449
stycznej 449
przekrę@@ 449
siem 449
tłumaczyć 449
dziełem 449
zajazdy 448
działy 448
wzrósł 448
rebe@@ 448
klasyfi@@ 448
bbc 448
równowa@@ 448
kryptowalu@@ 448
ogrzewania 448
odbiera 448
wirtualnej 448
szając 448
dokładny 448
1950 448
planują 448
miałabym 448
medycyna 448
ntką 448
konkretnej 448
umie@@ 448
kochała 448
kategoriach 448
pochodzące 448
wle@@ 448
rowały 448
kolegami 448
specjalizacji 448
wysyłania 447
piątej 447
fali 447
konflikty 447
dochodu 447
nowie 447
głębokość 447
duj 447
gal 447
zapominaj 447
pisa@@ 447
muzea 447
szczury 447
potwory 447
nokia 447
szerokości 447
językowych 447
interaktyw@@ 447
ojcowie 447
bramę 447
europę 447
restaura@@ 447
sięgnąć 447
zajęciach 447
poznanie 447
michelle 447
stwa@@ 447
kodeks 447
podobną 447
rocznica 447
edytor 447
znajomym 447
posła@@ 447
naukowy 447
dzające 447
boli@@ 447
/by 447
uwierzył 447
granicach 447
znanej 446
opracowane 446
skle@@ 446
przepis 446
wykładowców 446
dostarczanie 446
oferować 446
naraz 446
carol 446
szeryfie 446
dujesz 446
rozpoczęły 446
sujemy 446
wzgórza 446
rosyjskim 446
traktat 446
potwierdził 446
różowe 446
układzie 446
domowa 446
jadą 446
skup 446
wyży@@ 446
napisano 446
zapewnią 446
terminy 446
relaks 446
poradzisz 446
little 445
okre@@ 445
wyobraźcie 445
pizza 445
umyśle 445
cudowna 445
sól 445
111 445
trendów 445
kabel 445
ywania 445
pay@@ 445
omówić 445
odsta@@ 445
aero@@ 445
marshall 445
oczekuję 445
pilne 445
zię@@ 445
czechy 445
lizowania 445
głego 445
przyznaję 445
karz 445
kację 445
skę 445
wyświetlacz 445
moż@@ 445
obsługiwać 445
wujka 445
bitcoina 445
zajmował 445
doj@@ 445
ocal@@ 445
cyfrowa 445
mau@@ 445
cole 445
szach 445
twar@@ 445
iden@@ 445
zastanów 445
nancy 445
łaskę 445
zachęcamy 445
odnotowano 444
niepokój 444
tour@@ 444
zajęcie 444
raba@@ 444
abby 444
toma 444
odegra@@ 444
duszą 444
uwierzysz 444
roma 444
ałe 444
atrakcyjne 444
tunelu 444
uznają 444
smi@@ 444
milio@@ 444
cycki 444
ut 444
uciek@@ 444
witryna 444
obowiązku 444
liverpool 444
seminarium 444
szkodli@@ 444
syl@@ 444
promocyjny 444
ekonomicznego 444
diana 444
liczą 444
ctor 444
dokumencie 444
nkiem 444
obserwuje 444
podlegają 444
określa@@ 444
konserwatyw@@ 444
grobu 444
zdań 444
awans 444
obecną 444
р@@ 444
pop 444
camp 444
francuzi 443
stera 443
optymi@@ 443
rzyło 443
wybierając 443
academy 443
optymalizacji 443
skrytki 443
medycznego 443
byłych 443
zgłoś 443
¶ 443
zlecenie 443
emma 443
kit 443
lecimy 443
postacie 443
tour 443
odbyć 443
zwolnij 443
katie 443
termina@@ 443
nacjona@@ 443
reform 443
chowa@@ 443
zost@@ 443
nawiązać 443
importu 443
domku 443
gg 443
wzglę@@ 443
dziesięcio@@ 443
niewoli 443
niesprawiedliwe 443
pozwala@@ 443
rzeń 443
oświe@@ 443
jedzeniem 443
odnale@@ 443
zakończona 443
potrzebnych 443
zaczyna@@ 442
2.2 442
pomagamy 442
sci 442
koleżan@@ 442
karo@@ 442
ówczes@@ 442
użyte@@ 442
stolik 442
eli 442
bitwie 442
imprezie 442
serwisie 442
gina 442
nó@@ 442
przebieg 442
wierzących 442
zanieczyszczenie 442
powietrz@@ 442
pozwalając 442
elastyczny 442
autobusu 442
przeznaczona 442
kształcenie 442
ewa 442
angaż@@ 442
przyjąłem 442
rzałam 442
wczej 442
złap 442
porywa@@ 442
promocyjne 442
szukali 442
łowych 442
hobby 442
buddyj@@ 442
wyrazi@@ 442
zajęci 442
dochodzenia 442
107 442
szczegółow@@ 441
separa@@ 441
op 441
tery 441
anato@@ 441
odczytać 441
okaz@@ 441
hań@@ 441
potwora 441
godny 441
dyscypli@@ 441
tive 441
sekwen@@ 441
obrazek 441
hitlera 441
maryna@@ 441
65@@ 441
1977 441
proponuję 441
prośby 441
handlowym 441
przestępczości 441
wczy 441
kwo@@ 441
zadawać 441
zestawy 441
hai@@ 441
złodziej 441
wykorzystywanie 441
dzieciństwo 441
podniósł 441
nadzwycza@@ 441
obama 441
śmierdzi 441
płatność 441
recy@@ 441
tłuszcz 441
chińczyków 441
hl 440
zabawić 440
niczny 440
nosiła 440
szczu@@ 440
onie 440
obudził 440
przywództwo 440
giełdzie 440
dystans 440
przechodzą 440
decyd@@ 440
doku@@ 440
poczu@@ 440
przetrwa@@ 440
arenie 440
bankie@@ 440
biologicznej 440
dzikie 440
palermo 440
sprawdzanie 440
urzędników 440
operacyjne 440
talentów 440
komórkę 440
szczą 440
królewski 440
eksperymenty 440
florencji 440
135 440
bezpłatna 439
ór 439
kowanym 439
caroline 439
prysznice 439
termo@@ 439
osobistym 439
sok 439
odkryty 439
winę 439
konferen@@ 439
dziewczynkę 439
skargi 439
zaproszenia 439
finansowa 439
poszliśmy 439
informatyki 439
płatną 439
zamyka 439
przebieg@@ 439
wątroby 439
wstępne 439
ora@@ 439
marzy@@ 439
komputerem 439
brzmiało 439
czujnik 439
przejdźmy 439
wysiłków 439
chcieliby 439
jasnych 438
zabytkow@@ 438
studium 438
vic 438
założyciel 438
niedrogie 438
1972 438
dobrobytu 438
humanitar@@ 438
ukształ@@ 438
maskę 438
rozwijania 438
zbudowane 438
gowych 438
upar@@ 438
zauważa 438
pielęgniarki 438
towarzyszyć 438
ghz 438
najwspanial@@ 438
sekrety 438
funkcjonalność 438
terroryzmu 438
rosję 438
współczesnym 438
220 438
kimkolwiek 438
oczekiwań 438
wkro@@ 438
zapisu 438
suro@@ 438
solidne 438
jenia 437
motywy 437
wtrą@@ 437
wynosić 437
sądzicie 437
zza 437
gwi@@ 437
błęki@@ 437
patrzymy 437
wliczone 437
1.2 437
koordy@@ 437
rozpocznij 437
nościach 437
hasłem 437
zę@@ 437
zyskać 437
anny 437
przedstawiciel 437
mes@@ 437
cky 437
będące 437
kolwiek 437
uboczne 437
łowej 437
zapozna@@ 437
kodów 437
tragedii 437
metry@@ 437
001 437
współczesnego 436
litości 436
cios 436
back@@ 436
ukrzyż@@ 436
tre 436
zapobie@@ 436
lena 436
mediolan 436
rozdziale 436
polubi@@ 436
iz 436
dostali 436
klau@@ 436
centra@@ 436
koch@@ 436
christian 436
zwolenników 436
anoni@@ 436
zrozumie 436
js 436
ekologi@@ 436
obietnica 436
spis@@ 436
zaopie@@ 436
sumienie 436
florydzie 436
bak@@ 436
kompleksowe 436
danie@@ 436
vera 436
odży@@ 436
kosmiczny 436
udostępniać 435
gio 435
obfi@@ 435
torium 435
wzor@@ 435
niewidzi@@ 435
chrześcijaństwo 435
pracowałam 435
cr@@ 435
lawrence 435
ośrodków 435
znalazły 435
dźwiękoszczelne 435
só@@ 435
c.@@ 435
przyło@@ 435
trasa 435
federalny 435
spytał 435
rzadkie 435
rekreacyjne 435
trzę@@ 435
kulturowego 435
ds@@ 435
nawo@@ 435
nieszczęście 435
skutecznego 435
oznaj@@ 435
rezer@@ 435
sierżant 434
nizm 434
day@@ 434
creative 434
magiczne 434
family 434
kolejce 434
spałem 434
pracowaliśmy 434
miesięczne 434
rezyg@@ 434
stowarzy@@ 434
terry 434
strażników 434
ukryj 434
piętra 434
kontaktowe 434
przeklę@@ 434
na-@@ 434
poznali 434
wyli@@ 434
zawodowym 434
geniusz 434
przeraża 434
doty@@ 434
rygorysty@@ 434
lib@@ 434
odbiorców 434
24-@@ 433
asz 433
lubiłem 433
pijesz 433
2-gwiazdkowym 433
doug 433
autostrady 433
jona@@ 433
u-@@ 433
łączność 433
wyku@@ 433
1967 433
shel@@ 433
zemsta 433
przyjm@@ 433
zaś@@ 433
kujące 433
akademi@@ 433
niskim 433
zmodyfi@@ 433
jose@@ 433
przywódca 433
stanowisk 433
wadze 433
przepeł@@ 433
case 433
przyła@@ 433
bieżącego 433
flagi 433
wspomni@@ 433
zmieniłem 433
gający 433
azja@@ 433
osobistej 433
garażu 433
koły@@ 433
kanadyj@@ 433
mylę 433
wojskowego 433
straci 433
prowadziła 433
tymczasowo 433
koncentra@@ 433
współpracujemy 433
bibliote@@ 433
czuj@@ 433
english 432
galaktyki 432
śla@@ 432
zapamiętać 432
nować 432
barbarzy@@ 432
16:@@ 432
przyniosłem 432
dwójka 432
brad 432
wiała 432
sowane 432
oficjalnym 432
techniczną 432
żne 432
żamy 432
ół@@ 432
in-@@ 432
demony 432
toaletę 432
śc 432
norwegia 432
jakbyśmy 432
łaska@@ 432
rowani 432
dublin 432
wymyś@@ 432
zatań@@ 432
baby 431
teri@@ 431
jon@@ 431
dong 431
siero@@ 431
~@@ 431
lowanie 431
nastolatki 431
zwyczaj 431
avi@@ 431
popular@@ 431
pory@@ 431
wyda 431
najgorszym 431
informacyjnych 431
mij 431
detektywie 431
utworzony 431
union 431
hoste@@ 431
rezerwacyjnych 431
wróćmy 431
wymk@@ 431
kresk@@ 431
ship 431
szemu 431
postawy 431
opowiedział 431
bałam 431
zalog@@ 431
dogo@@ 431
komfortowo 431
ooo 431
zgłosi@@ 431
składać 431
mić 430
strażnicy 430
zdobycia 430
das 430
środowiskowe 430
nai@@ 430
chorobie 430
entuzja@@ 430
zawodów 430
gabinet 430
wyższą 430
zależ@@ 430
relacja 430
chore 430
rzowi 430
portugalia 430
jedynego 430
żemy 430
117@@ 430
stude@@ 430
analizować 430
zau@@ 430
niczka 430
klasę 430
wyso@@ 430
twee@@ 430
jeździ 430
kierowcą 430
staniesz 430
ogło@@ 429
rod@@ 429
wielojęzy@@ 429
miemy 429
żer@@ 429
konkursu 429
zostawiłeś 429
muzyką 429
oru 429
odpowiedzialni 429
wyrażenia 429
rzad@@ 429
wygene@@ 429
warunkami 429
szkodliwych 429
zdjęciach 429
przekli@@ 429
umysły 429
rzekomo 429
gdybyście 429
fal 429
wymeldowaniu 429
popularna 429
kadry 429
środowiskiem 429
zachowujesz 429
wypoczynek 429
kupują 429
dziękczynienia 429
fen@@ 429
ante@@ 429
hybry@@ 429
łej 429
rzoną 429
zakupi@@ 429
piasku 429
jon 429
wyślę 429
dedy@@ 428
bezpiecznej 428
randka 428
marty 428
przyjemnie 428
yes 428
odmiany 428
bet 428
kwestię 428
tyler 428
reaguje 428
pokrę@@ 428
aucie 428
popatrzcie 428
в@@ 428
piec 428
rzec 428
telewizyjnych 428
głęb@@ 428
lance 428
sztucznej 428
wydzie@@ 428
oddycha@@ 428
turę 428
zachodzi 428
kwan@@ 428
szybką 428
znajd@@ 428
wyborze 428
kaj 428
tou@@ 428
wyszedłem 428
indek@@ 428
telefoniczne 428
brytyj@@ 427
sle@@ 427
thor@@ 427
dąży 427
tota@@ 427
podziwiam 427
wpisy 427
host@@ 427
obronę 427
pusta 427
markę 427
judy 427
pogod@@ 427
trzykrotnie 427
stałej 427
ust@@ 427
żołnierzem 427
maksymalną 427
card 427
odtąd 427
śródziemno@@ 427
toast 427
prowadzona 427
postęp@@ 427
jakkolwiek 427
gwałtow@@ 427
wyposażono 427
wspierają 427
tków 427
testowanie 427
cas 427
obojęt@@ 427
zmysły 427
zamknięcia 427
wiarygod@@ 427
public 427
ocenia 427
kowymi 427
wiecej 426
potwierdzają 426
grana@@ 426
firefoksa 426
ładunek 426
prawnie 426
administratora 426
planach 426
śru@@ 426
dokoń@@ 426
leżą 426
residen@@ 426
popołudnie 426
byłbyś 426
maksyma@@ 426
motor 426
korfu 426
niezależność 426
ogólna 426
zamor@@ 426
republice 426
infekcji 426
wymyślił 426
dłuższego 426
anthony 426
gospodarstw 426
chuj 426
bat 426
jabłka 426
argenty@@ 426
pal 426
niespodziankę 425
założenie 425
chają 425
stymul@@ 425
kliknąć 425
wybrałeś 425
jakuba 425
dzonej 425
otrzymy@@ 425
zruj@@ 425
myślach 425
własna 425
reag@@ 425
rozmiarów 425
wiecznego 425
america 425
jerozolimie 425
aktualna 425
pasa 425
nadać 425
kontem 424
gran@@ 424
przeprowadził 424
faza 424
zanie@@ 424
int 424
myślałaś 424
pokojowe 424
osobno 424
mona@@ 424
wykonana 424
hello 424
podróżujących 424
mencie 424
tolerancji 424
delega@@ 424
gang 424
ręczne 424
jezusie 424
nacji 424
licie 424
pomó@@ 424
kiepsko 424
przestronny 424
zaangażowany 424
catherine 424
objęte 424
równy 424
zarezerw@@ 424
postanowiliśmy 424
.org 424
działających 424
3,5 424
brow@@ 424
dns 424
monet 424
głównymi 424
poza@@ 423
zaczynać 423
stwach 423
rzek@@ 423
monte 423
mber@@ 423
istnieniu 423
przod@@ 423
oprzeć 423
komo@@ 423
uwzględnieniem 423
efektyw@@ 423
43@@ 423
nauczyła 423
poniższe 423
odczytu 423
ukrad@@ 423
zigno@@ 423
dalszy 423
blok 423
apo@@ 423
nowanie 423
rozwijanie 423
fili@@ 423
szoku 423
rozpoczę@@ 423
legendy 423
lun@@ 423
trudniejsze 423
obiekcie 422
ośrodkiem 422
tlen 422
przebiera@@ 422
turysty@@ 422
splu@@ 422
/po 422
występować 422
wpadłem 422
ńcu 422
rai@@ 422
panienko 422
gruncie 422
ściu 422
kongu 422
zupeł@@ 422
sprzedają 422
brzu@@ 422
osta@@ 422
krwi@@ 422
aku@@ 422
arthur 422
zasadą 422
gordon 422
pasy 422
davis 422
przeprowadzono 422
nadmier@@ 422
ukara@@ 422
polep@@ 422
dokładniej 421
transakcja 421
head 421
odkła@@ 421
szere@@ 421
pokera 421
mówienia 421
gdy@@ 421
szysz 421
sojusz 421
jedna@@ 421
miasteczko 421
wstawać 421
stoisz 421
higie@@ 421
miasteczka 421
kai@@ 421
zrównowa@@ 421
kier 421
met 421
zaletą 421
śledztwa 421
śledzi 421
mordercy 421
lojalność 421
zarabia 421
czołowych 421
poka@@ 421
minimalne 421
dło@@ 421
1965 421
gł@@ 421
pojedynczych 421
zniszczony 421
oria 421
wiosny 421
2-3 421
wiający 421
mięk@@ 421
powstrzyma 421
wysłane 421
najnowsza 421
spy@@ 420
promieni@@ 420
czekając 420
pańskim 420
pochwa@@ 420
zelandia 420
stery@@ 420
podnosi 420
gue@@ 420
czujniki 420
pamiętał 420
lekki 420
czerwoną 420
ulepszenia 420
kule 420
wirtualne 420
dojdą 420
stą@@ 420
piąte 420
wskazał 420
delika@@ 420
tajlandia 420
rozmawiali 420
nadzór 420
zastanawia 420
gowy 420
mający 420
stworzyła 420
pogrze@@ 420
akademickie 420
krzyk 420
kowani 419
poziomem 419
niezawo@@ 419
folder 419
ings 419
normalnych 419
ubrać 419
szwe@@ 419
ogrodni@@ 419
baro@@ 419
wzrosły 419
sztuczki 419
spotkało 419
kogokolwiek 419
cenny 419
jakąkolwiek 419
y'ego 419
odzy@@ 419
umożliwi 419
wyświad@@ 419
nate 419
cierpiał 419
nuj 419
postanowiła 419
mato@@ 419
szonym 419
patrio@@ 419
szwa@@ 419
doliny 419
pracuj 419
aktualizację 419
wskazać 419
wiekiem 419
najstarszych 418
napast@@ 418
przeciwników 418
madame 418
wyszli 418
turyści 418
noszenia 418
ք 418
ekstra@@ 418
gwiazdę 418
wyposażona 418
łańcu@@ 418
odkryliśmy 418
pisane 418
czkiem 418
wykonany 418
œ 418
sługa 418
bóle 418
oznaczało 418
ab 418
rejestracyjny 418
4000 418
sim 418
okazały 418
110@@ 418
grill 418
karmi@@ 418
służba 418
sou@@ 418
nazi@@ 418
porozmawiam 418
wyjściu 418
sławny 418
potrzebujecie 418
drukowanie 418
wci@@ 418
strefę 418
poran@@ 418
pep@@ 418
ć… 418
przygotowa@@ 418
zaginął 418
turze 418
potwierdzenia 418
zaznacz 417
wystarczającą 417
wyzwaniom 417
dyspon@@ 417
kredytowych 417
vp@@ 417
logiczny 417
oblicza 417
współpracują 417
telekomunika@@ 417
ciężką 417
pomagając 417
hs 417
wzmocnienia 417
styczna 417
eco@@ 417
lował 417
położone 417
zarę@@ 417
zweryfi@@ 417
15:@@ 417
dona@@ 417
powtarza 417
reklamę 417
automatycznego 417
uszkodzony 417
oracle 417
najsil@@ 417
polo 417
deko@@ 417
japończycy 417
rają 417
królestwie 417
słyszeli 417
przykładzie 417
najnowszą 417
koszu@@ 417
osiągnie 417
wiliśmy 417
oddzielnie 417
biedni 417
najbezpiecz@@ 417
częste 417
uzbro@@ 417
nat 417
promieniowanie 417
pozdrawiam 417
podobał 417
zagadnienia 417
wiłem 417
zbliżyć 417
pusz@@ 417
cerami@@ 416
aspi@@ 416
ekspert 416
heim 416
udostępniania 416
mma 416
stanowiły 416
allaha 416
działaniu 416
delta 416
kuba@@ 416
edu@@ 416
nowojor@@ 416
jasz 416
programistów 416
opakowanie 416
wiali 416
zwyczajnie 416
precyzy@@ 416
smart@@ 416
wspól@@ 416
białą 416
szybkim 416
call 416
idiota 416
uszem 416
[...]
